{
  "version": "1.0",
  "truncation": null,
  "padding": null,
  "added_tokens": [
    {
      "id": 0,
      "content": "[PAD]",
      "single_word": false,
      "lstrip": false,
      "rstrip": false,
      "normalized": false,
      "special": true
    },
    {
      "id": 1,
      "content": "[UNK]",
      "single_word": false,
      "lstrip": false,
      "rstrip": false,
      "normalized": false,
      "special": true
    },
    {
      "id": 2,
      "content": "[CLS]",
      "single_word": false,
      "lstrip": false,
      "rstrip": false,
      "normalized": false,
      "special": true
    },
    {
      "id": 3,
      "content": "[SEP]",
      "single_word": false,
      "lstrip": false,
      "rstrip": false,
      "normalized": false,
      "special": true
    },
    {
      "id": 4,
      "content": "[MASK]",
      "single_word": false,
      "lstrip": false,
      "rstrip": false,
      "normalized": false,
      "special": true
    },
    {
      "id": 5,
      "content": "<|endoftext|>",
      "single_word": false,
      "lstrip": false,
      "rstrip": false,
      "normalized": false,
      "special": true
    }
  ],
  "normalizer": {
    "type": "Sequence",
    "normalizers": [
      {
        "type": "NFKD"
      },
      {
        "type": "Replace",
        "pattern": {
          "String": "\\s+"
        },
        "content": " "
      }
    ]
  },
  "pre_tokenizer": {
    "type": "Sequence",
    "pretokenizers": [
      {
        "type": "ByteLevel",
        "add_prefix_space": true,
        "trim_offsets": true,
        "use_regex": true
      }
    ]
  },
  "post_processor": null,
  "decoder": {
    "type": "ByteLevel",
    "add_prefix_space": true,
    "trim_offsets": true,
    "use_regex": true
  },
  "model": {
    "type": "BPE",
    "dropout": null,
    "unk_token": "[UNK]",
    "continuing_subword_prefix": null,
    "end_of_word_suffix": null,
    "fuse_unk": false,
    "byte_fallback": false,
    "ignore_merges": false,
    "vocab": {
      "[PAD]": 0,
      "[UNK]": 1,
      "[CLS]": 2,
      "[SEP]": 3,
      "[MASK]": 4,
      "<|endoftext|>": 5,
      "!": 6,
      "#": 7,
      "$": 8,
      "%": 9,
      "&": 10,
      "'": 11,
      "(": 12,
      ")": 13,
      "*": 14,
      "+": 15,
      ",": 16,
      "-": 17,
      ".": 18,
      "/": 19,
      "0": 20,
      "1": 21,
      "2": 22,
      "3": 23,
      "4": 24,
      "5": 25,
      "6": 26,
      "7": 27,
      "8": 28,
      "9": 29,
      ":": 30,
      ";": 31,
      "<": 32,
      "=": 33,
      ">": 34,
      "?": 35,
      "@": 36,
      "A": 37,
      "B": 38,
      "C": 39,
      "D": 40,
      "E": 41,
      "F": 42,
      "G": 43,
      "H": 44,
      "I": 45,
      "J": 46,
      "K": 47,
      "L": 48,
      "M": 49,
      "N": 50,
      "O": 51,
      "P": 52,
      "Q": 53,
      "R": 54,
      "S": 55,
      "T": 56,
      "U": 57,
      "V": 58,
      "W": 59,
      "X": 60,
      "Y": 61,
      "Z": 62,
      "[": 63,
      "\\": 64,
      "]": 65,
      "_": 66,
      "`": 67,
      "a": 68,
      "b": 69,
      "c": 70,
      "d": 71,
      "e": 72,
      "f": 73,
      "g": 74,
      "h": 75,
      "i": 76,
      "j": 77,
      "k": 78,
      "l": 79,
      "m": 80,
      "n": 81,
      "o": 82,
      "p": 83,
      "q": 84,
      "r": 85,
      "s": 86,
      "t": 87,
      "u": 88,
      "v": 89,
      "w": 90,
      "x": 91,
      "y": 92,
      "z": 93,
      "{": 94,
      "|": 95,
      "}": 96,
      "¡": 97,
      "¢": 98,
      "£": 99,
      "¤": 100,
      "¥": 101,
      "¦": 102,
      "§": 103,
      "¨": 104,
      "©": 105,
      "ª": 106,
      "«": 107,
      "¬": 108,
      "®": 109,
      "¯": 110,
      "°": 111,
      "±": 112,
      "²": 113,
      "³": 114,
      "µ": 115,
      "¶": 116,
      "·": 117,
      "¸": 118,
      "¹": 119,
      "»": 120,
      "¼": 121,
      "½": 122,
      "¾": 123,
      "¿": 124,
      "Â": 125,
      "Ã": 126,
      "Ì": 127,
      "Î": 128,
      "Ï": 129,
      "à": 130,
      "â": 131,
      "î": 132,
      "ï": 133,
      "ð": 134,
      "ĉ": 135,
      "Ċ": 136,
      "Ġ": 137,
      "Ģ": 138,
      "ģ": 139,
      "Ĥ": 140,
      "ĥ": 141,
      "Ħ": 142,
      "ħ": 143,
      "Ĩ": 144,
      "ĩ": 145,
      "Ī": 146,
      "ī": 147,
      "Ĭ": 148,
      "ĭ": 149,
      "Į": 150,
      "į": 151,
      "ı": 152,
      "Ĳ": 153,
      "ĳ": 154,
      "ĵ": 155,
      "Ķ": 156,
      "ķ": 157,
      "ĸ": 158,
      "Ĺ": 159,
      "ĺ": 160,
      "Ļ": 161,
      "ļ": 162,
      "Ľ": 163,
      "ľ": 164,
      "Ŀ": 165,
      "ŀ": 166,
      "Ł": 167,
      "ł": 168,
      "Ń": 169,
      "ଅ": 170,
      "ଆ": 171,
      "ଇ": 172,
      "ଈ": 173,
      "ଉ": 174,
      "ଊ": 175,
      "ଋ": 176,
      "ଌ": 177,
      "ଏ": 178,
      "ଐ": 179,
      "ଓ": 180,
      "ଔ": 181,
      "କ": 182,
      "ଖ": 183,
      "ଗ": 184,
      "ଘ": 185,
      "ଙ": 186,
      "ଚ": 187,
      "ଛ": 188,
      "ଜ": 189,
      "ଝ": 190,
      "ଞ": 191,
      "ଟ": 192,
      "ଠ": 193,
      "ଡ": 194,
      "ଢ": 195,
      "ଣ": 196,
      "ତ": 197,
      "ଥ": 198,
      "ଦ": 199,
      "ଧ": 200,
      "ନ": 201,
      "ପ": 202,
      "ଫ": 203,
      "ବ": 204,
      "ଭ": 205,
      "ମ": 206,
      "ଯ": 207,
      "ର": 208,
      "ଲ": 209,
      "ଳ": 210,
      "ଵ": 211,
      "ଶ": 212,
      "ଷ": 213,
      "ସ": 214,
      "ହ": 215,
      "ୟ": 216,
      "୦": 217,
      "୧": 218,
      "୨": 219,
      "୩": 220,
      "୪": 221,
      "୫": 222,
      "୬": 223,
      "୭": 224,
      "୮": 225,
      "୯": 226,
      "ୱ": 227,
      "à¬": 228,
      "àŃ": 229,
      "Ġà¬": 230,
      "à¬¾": 231,
      "àŃį": 232,
      "à¬¿": 233,
      "à¬°": 234,
      "àŃĩ": 235,
      "à¬ķ": 236,
      "à¬¨": 237,
      "à¬¤": 238,
      "àŃģ": 239,
      "à¬¬": 240,
      "à¬®": 241,
      "Ġà¬ķ": 242,
      "à¬²": 243,
      "àŃŁ": 244,
      "Ġà¬¸": 245,
      "Ġà¬ª": 246,
      "à¬¹": 247,
      "àŃĩà¬¾": 248,
      "à¬¸": 249,
      "à¥": 250,
      "à¥¤": 251,
      "Ġà¬¬": 252,
      "à¬ĩ": 253,
      "à¬ª": 254,
      "àŃĢ": 255,
      "à¬Ł": 256,
      "à¬¥": 257,
      "à¬£": 258,
      "à¬¦": 259,
      "Ġà¬®": 260,
      "à¬Ļ": 261,
      "à¬³": 262,
      "à¬Ľ": 263,
      "à¬·": 264,
      "Ġà¬ı": 265,
      "à¬Ĺ": 266,
      "Ġà¬ķà¬°": 267,
      "Ġà¬¨": 268,
      "Ġà¬ħ": 269,
      "à¬ľ": 270,
      "à¬¡": 271,
      "à¬¶": 272,
      "Ġà¬¦": 273,
      "à¬§": 274,
      "Ġà¬¹": 275,
      "à¬¿à¥¤": 276,
      "Ġà¬Ĩ": 277,
      "Ġà¬°": 278,
      "à¬¯": 279,
      "ĠàŃ": 280,
      "à¬ļ": 281,
      "à¬Ń": 282,
      "Ġà¬ľ": 283,
      "Ġà¬Ń": 284,
      "Ġà¬¤": 285,
      "à¬Ĥ": 286,
      "à¬ģ": 287,
      "Ġà¬Ĺ": 288,
      "Ġà¬¯": 289,
      "à¬ĸ": 290,
      "à¬Ĩ": 291,
      "à¬Ľà¬¨": 292,
      "àŃĤ": 293,
      "à¬¼": 294,
      "Ġà¬ıà¬¹": 295,
      "Ġà¬²": 296,
      "Ġà¬¶": 297,
      "à¬ī": 298,
      "Ġà¬ī": 299,
      "Ġà¬ªà¬°": 300,
      "Ġà¬ļ": 301,
      "à¬ı": 302,
      "Ġà¬¸à¬®": 303,
      "à¬ł": 304,
      "à¬ĩà¬¥": 305,
      "àŃ¦": 306,
      "Ġà¬ĵ": 307,
      "àŃĥ": 308,
      "àŃĩà¥¤": 309,
      "àŃ±": 310,
      "à¬°à¬ķ": 311,
      "à¬ªà¬°": 312,
      "à¬ŀ": 313,
      "àŃŁà¬°": 314,
      "Ġà¬Ł": 315,
      "§àŃ": 316,
      "Ġà¬ħà¬¨": 317,
      "à¬°à¬¤": 318,
      "à¬ķà¬°": 319,
      "Ġà¬¥": 320,
      "à¬¬à¬°": 321,
      "à¬ĩà¬Ľ": 322,
      "âĢ": 323,
      "Ġà¬ĸ": 324,
      "Ġà¬ıà¬¬": 325,
      "à¬«": 326,
      "à¬°à¬®": 327,
      "à¬¾à¥¤": 328,
      "ĠàŃ¨": 329,
      "Ġà¬«": 330,
      "Ġà¬¸à¬¹": 331,
      "à¬¼à¬¿": 332,
      "Ġà¬®à¬§": 333,
      "à¬°à¬°": 334,
      "à¬¨à¬°": 335,
      "àŃŁà¬ķ": 336,
      "Ġà¬ıà¬ķ": 337,
      "Ġà¬ĺ": 338,
      "àŃĩàŃ": 339,
      "àŃ¨": 340,
      "Ġà¬°à¬¹": 341,
      "à¬¤à¬°": 342,
      "Ġà¬ķà¬¹": 343,
      "à¬Łà¬°": 344,
      "Ġà¬¡": 345,
      "Ġà¬¬à¬°": 346,
      "Ġà¬ľà¬£": 347,
      "Ġà¬ħà¬§": 348,
      "ĠàŃ§àŃ": 349,
      "à¬°à¬£": 350,
      "à¬ļà¬¨": 351,
      "Ġà¬ĩ": 352,
      "à¬¨à¬Ļ": 353,
      "Ġà¬®à¬¹": 354,
      "Ġà¬§": 355,
      "à¬³à¬°": 356,
      "à¬¿,": 357,
      "à¬·à¬°": 358,
      "Ġà¬Ĩà¬¸": 359,
      "Ġà¬ħà¬Ń": 360,
      "ĠĠ": 361,
      "à¬¬à¬¨": 362,
      "à¬¿à¬ģ": 363,
      "àŃ§àŃ": 364,
      "à¬ĵ": 365,
      "âĢĻ": 366,
      "à¬®à¬°": 367,
      "à¬¿à¬Ĥ": 368,
      "Ġà¥¤": 369,
      "à¬®à¬¨": 370,
      "àŃĩàŃĹ": 371,
      "à¬ľà¬¨": 372,
      "à¬°à¬¸": 373,
      "à¬īà¬Ľ": 374,
      "ĠàŃ©": 375,
      "à¬Ĺà¬°": 376,
      "à¬¾,": 377,
      "Ġà¬Ľ": 378,
      "à¬ĩà¬Ľà¬¨": 379,
      "à¬¬à¬¸": 380,
      "à¬ªà¬¤": 381,
      "à¬¢": 382,
      "à¬ĺ": 383,
      "Ġà¬¸à¬°à¬ķ": 384,
      "àŃ«": 385,
      "àŃŁà¬¨": 386,
      "à¬ĩà¬¨": 387,
      "ĠàŃ¨àŃ¦": 388,
      "Ġà¬®à¬¨": 389,
      "àŃ§": 390,
      "àŃ©": 391,
      "à¬°à¬¦": 392,
      "àŃª": 393,
      "à¬ħ": 394,
      "Ġà¬ªà¬ķ": 395,
      "à¬¤à¬¨": 396,
      "à¬ķà¬Ļ": 397,
      "à¬Ĩà¬°": 398,
      "à¬ĩà¬¬": 399,
      "àŃĩàŃĸ": 400,
      "Ġà¬ķà¬®": 401,
      "Ġà¬ĺà¬Ł": 402,
      "àŃ±à¬°": 403,
      "à¬¼à¬¾": 404,
      "à¬²à¬°": 405,
      "à¬¸à¬°": 406,
      "Ġà¬īà¬ª": 407,
      "à¬ľà¬°": 408,
      "Ġà¬īà¬ªà¬°": 409,
      "Ġà¬Ĩà¬®": 410,
      "à¬¸à¬¨": 411,
      "Ġà¬ıà¬¥": 412,
      "àŃĢ,": 413,
      "ĠàŃ«": 414,
      "à¬°à¬¬": 415,
      "ĠàŃª": 416,
      "àŃ®": 417,
      "àŃŃ": 418,
      "à¬¶à¬¨": 419,
      "àŃ¬": 420,
      "àŃŁà¬¤": 421,
      "àŃįâĢ": 422,
      "à¬°à¬Ļ": 423,
      "àŃįâĢĮ": 424,
      "ĠàŃ§": 425,
      "à¬¶à¬°": 426,
      "àŃ¯": 427,
      "Ġà¬¸à¬®à¬¸": 428,
      "à¬Ĩà¬¯": 429,
      "àŃĩ,": 430,
      "Ġà¬Łà¬Ļ": 431,
      "à¬°à¬¶": 432,
      "à¬ĩà¬ª": 433,
      "à¬īà¬¥": 434,
      "à¬°à¬¹": 435,
      "à¬·à¬£": 436,
      "Ġ(": 437,
      "Ġà¬°à¬ĸ": 438,
      "Ġà¬¬à¬¨": 439,
      "Ġà¬²à¬ķ": 440,
      "à¬¦à¬°": 441,
      "Ġà¬īà¬¤": 442,
      "à¬¿à¬ģà¥¤": 443,
      "Ġà¬¸à¬°": 444,
      "à¬²à¬ķ": 445,
      "Ġà¬ªà¬¡": 446,
      "ĠâĢ": 447,
      "à¬¦à¬¨": 448,
      "à¬³à¬¨": 449,
      "à¬¥à¬®": 450,
      "àŃŁà¬®": 451,
      "à¬ªà¬¡": 452,
      "Ġà¬Ĩà¬ķ": 453,
      "à¬Łà¬ķ": 454,
      "à¬ªà¬ķ": 455,
      "à¬¤à¬®": 456,
      "Ġà¬Ĩà¬°à¬®": 457,
      "Ġà¬¸à¬®àŃŁà¬°": 458,
      "à¬ľà¬ª": 459,
      "ĠâĢĺ": 460,
      "à¬¤à¬Ļ": 461,
      "Ġà¬ħà¬°": 462,
      "Ġà¬ķà¬²": 463,
      "Ġà¬īà¬¦": 464,
      "à¬°à¬¥à¬®": 465,
      "à¬Ńà¬³": 466,
      "à¬ıà¬¸": 467,
      "à¬Ĺà¬¤": 468,
      "ĠàŃ¬": 469,
      "Ġà¬ĺà¬°": 470,
      "Ġà¬·": 471,
      "Ġà¬¦à¬³": 472,
      "à¬¡à¬°": 473,
      "à¬¿.": 474,
      "Ġà¬¸à¬¬": 475,
      "à¬®à¬²": 476,
      "Ġà¬ªà¬¦": 477,
      "Ġà¬¤à¬¥": 478,
      "Ġà¬¬à¬¹": 479,
      "Ġà¬ħà¬ŀ": 480,
      "à¬£à¬¸": 481,
      "Ġà¬ĺà¬Łà¬£": 482,
      "Ġà¬ľà¬¨": 483,
      "Ġà¬§à¬°": 484,
      "àŃŁà¬¬à¬¸": 485,
      "Ġà¬ĵà¬¡": 486,
      "à¬Ĩà¬ĩ": 487,
      "à¬ĸà¬°": 488,
      "Ġà¬ªà¬¹": 489,
      "à¬¾âĢĻ": 490,
      "Ġà¬ħà¬«": 491,
      "ĠàŃ§àŃ¦": 492,
      "à¬ĩà¬ķ": 493,
      "ĠàŃŃ": 494,
      "à¬°à¬§": 495,
      "Ġà¬Ĩà¬¬": 496,
      "à¬¬à¬³": 497,
      "àŃŁà¬¬": 498,
      "Ġà¬ł": 499,
      "Ġà¬Ĺà¬¤": 500,
      "à¬¾à¬ģ": 501,
      "Ġà¬ªà¬¹à¬ŀ": 502,
      "à¬ĩà¬Ł": 503,
      "Ġà¬ıà¬®": 504,
      "à¬ķà¬®": 505,
      "):": 506,
      "ĠàŃŁ": 507,
      "à¬°à¬Ń": 508,
      "Ġà¬ļà¬³": 509,
      "Ġà¬ħà¬¤": 510,
      "Ġà¬Ĩà¬¶": 511,
      "Ġà¬Ŀ": 512,
      "à¬ļà¬³à¬°": 513,
      "à¬§à¬°": 514,
      "à¬Łà¬¨": 515,
      "Ġà¬¬à¬¡": 516,
      "à¬Ĺà¬¡": 517,
      "Ġà¬Ĩà¬°": 518,
      "Ġà¬ªà¬ŀ": 519,
      "Ġà¬ıà¬¨": 520,
      "Ġà¬ıà¬¸": 521,
      "à¬®à¬¤": 522,
      "à¬°à¬«": 523,
      "à¬®à¬¬": 524,
      "à¬Ŀ": 525,
      "à¬®à¬ķ": 526,
      "Ġà¬Ĩà¬¦": 527,
      "à¬¬à¬¤": 528,
      "àŃģà¬ģ": 529,
      "ĠàŃ®": 530,
      "Ġà¬¹à¬ľ": 531,
      "Ġà¬Ĩà¬ī": 532,
      "Ġà¬ħà¬¸": 533,
      "àŃ¨àŃ¦": 534,
      "..": 535,
      "àŃŁà¬®à¬¨": 536,
      "à¬ļà¬°": 537,
      "à¬°à¬®à¬£": 538,
      "à¬³àŃŁ": 539,
      "à¬ļà¬³": 540,
      "Ġà¬ıà¬ªà¬°": 541,
      "à¬ıà¬¨": 542,
      "à¬Ĩà¬¦": 543,
      "Ġà¬ħà¬¬": 544,
      "à¬¬à¬¤à¬¨": 545,
      "Ġà¬¸à¬Ń": 546,
      "à¬ľàŃŁ": 547,
      "à¬ĩà¬²": 548,
      "à¬īà¬Ľà¬¨": 549,
      "à¬ıà¬®": 550,
      "Ġà¬¬à¬¢": 551,
      "Ġà¬ıà¬Ńà¬³": 552,
      "àŃ¦àŃ¦": 553,
      "Ġà¬¬à¬¸": 554,
      "à¬Ĺà¬²": 555,
      "à¬°à¬¹à¬£": 556,
      "Ġà¬Ĩà¬²": 557,
      "àŃĩà¬ģ": 558,
      "à¬ķà¬Łà¬°": 559,
      "à¬ľà¬£": 560,
      "Ġà¬ħà¬¬à¬¸": 561,
      "à¬¨à¬ķ": 562,
      "Ġà¬ľà¬³": 563,
      "Ġà¬Ĩà¬£": 564,
      "à¬ĩà¬¯": 565,
      "ĠàŃ¨àŃ¦àŃ§àŃ": 566,
      "Ġà¬¸à¬¨": 567,
      "à¬¤à¬ķ": 568,
      "à¬ĩà¬°": 569,
      "ĠàŃ¯": 570,
      "Ġà¬ķà¬¥": 571,
      "à¬¨à¬¸": 572,
      "à¬³à¬ķ": 573,
      "àŃŁà¬¸": 574,
      "Ġà¬ĩà¬£": 575,
      "à¬¹à¬°": 576,
      "à¬ªà¬¨": 577,
      "Ġà¬īà¬ļ": 578,
      "à¬¨à¬®à¬¨": 579,
      "à¬°à¬¤à¬°": 580,
      "à¬¶à¬ķ": 581,
      "Ġà¬Ĩà¬Ĺ": 582,
      "Ġà¬¦à¬°": 583,
      "Ġà¬ľà¬®": 584,
      "à¬¸à¬²": 585,
      "à¬°à¬¨": 586,
      "à¬«à¬³": 587,
      "ĠàŃ§àŃ¯": 588,
      "à¬¹à¬¨": 589,
      "Ġà¬ħà¬ªà¬°": 590,
      "Ġà¬ĨàŃŁ": 591,
      "à¬¥à¬°": 592,
      "Ġà¬Ĩà¬¨": 593,
      "Ġà¬¹à¬°": 594,
      "Ġà¬Ĩà¬¹": 595,
      "à¬ªà¬£": 596,
      "àŃŁà¬Ļ": 597,
      "à¬®à¬ļ": 598,
      "à¬ıà¬²": 599,
      "Ġà¬īà¬ķ": 600,
      "Ġà¬Ĺà¬£": 601,
      "à¬¾à¬Ĥ": 602,
      "à¬Ĩà¬²": 603,
      "Ġà¬¬à¬ľ": 604,
      "Ġà¬ĩà¬¨": 605,
      "Ġà¬ľà¬°": 606,
      "àŃŁà¬ª": 607,
      "Ġà¬¸à¬ķ": 608,
      "Ġà¬¹à¬¸": 609,
      "Ġà¬«à¬³à¬°": 610,
      "à¬Ńà¬°": 611,
      "Ġà¬Ĩà¬¬à¬¶": 612,
      "à¬ĥ": 613,
      "à¬¬à¬ķ": 614,
      "à¬·à¬¤": 615,
      "à¬īà¬¨": 616,
      "Ġà¬ªà¬¦à¬ķ": 617,
      "à¬īà¬£": 618,
      "à¬ĩà¬¸": 619,
      "Ġà¬¦à¬³à¬°": 620,
      "à¬·à¬ķ": 621,
      "à¬ķà¬°à¬£": 622,
      "Ġà¬Ĩà¬ľ": 623,
      "Ġà¬ıà¬ł": 624,
      "àŃŁà¬¬à¬¹": 625,
      "Ġà¬¸à¬ļ": 626,
      "Ġà¬ķà¬³": 627,
      "ĠàŃ¨àŃ¦àŃ¨": 628,
      "à¬°à¬ª": 629,
      "Ġà¬īà¬Ń": 630,
      "Ġà¬¸à¬®àŃŁ": 631,
      "ĠàŃ§àŃ«": 632,
      "à¬Ĩà¬¨": 633,
      "Ġà¬¤à¬¦à¬¨": 634,
      "à¬Łà¬£": 635,
      "Ġà¬Ńà¬³": 636,
      "Ġà¬°à¬¨": 637,
      "à¬³àŃŁà¬°": 638,
      "à¬Ĺà¬³": 639,
      "Ġà¬°à¬¬": 640,
      "Ġà¬¯à¬¦": 641,
      "Ġà¬ĸà¬¬à¬°": 642,
      "Ġà¬ħà¬ª": 643,
      "à¬¸à¬ķ": 644,
      "àŃŁà¬®à¬°": 645,
      "Ġà¬¬à¬²": 646,
      "Ġà¬ħà¬Ĺ": 647,
      "Ġà¬īà¬ªà¬¸": 648,
      "à¬§à¬¬": 649,
      "àŃģà¥¤": 650,
      "Ġà¬¥à¬°": 651,
      "Ġà¬¸à¬¦": 652,
      "à¬ķà¬Ł": 653,
      "ĠàŃ§àŃ¨": 654,
      "Ġà¬Ńà¬²": 655,
      "àŃį,": 656,
      "à¬¸à¬¹": 657,
      "Ġà¬Ĩà¬¸à¬¨": 658,
      "Ġà¬®à¬£": 659,
      "Ġà¬¸à¬Ļ": 660,
      "à¬°à¬ªà¬¤": 661,
      "à¬¬à¬²": 662,
      "Ġà¬ªà¬Ł": 663,
      "Ġà¬īà¬ł": 664,
      "Ġà¬®à¬Ļ": 665,
      "Ġà¬ħà¬®": 666,
      "Ġà¬¸à¬¤": 667,
      "Ġà¬ĸà¬°": 668,
      "Ġà¬ļà¬°": 669,
      "à¬²à¬Ļ": 670,
      "à¬ªà¬¦": 671,
      "Ġà¬²à¬Ĺ": 672,
      "àŃ§àŃ¦": 673,
      "Ġà¬ħà¬Ľà¬¨": 674,
      "à¬ħà¬¨": 675,
      "à¬¿)": 676,
      "à¬¨à¬¤": 677,
      "à¬°à¬£à¬°": 678,
      "Ġà¬®à¬¤": 679,
      "àŃģ,": 680,
      "Ġà¬ħà¬²": 681,
      "Ġà¬ħà¬Ľ": 682,
      "à¬¸à¬®": 683,
      "à¬¥à¬¨": 684,
      "Ġà¬Ĩà¬ĩà¬¨": 685,
      "à¬łà¬¨": 686,
      "àŃ§àŃ¨": 687,
      "à¬¶à¬¨à¬°": 688,
      "Ġà¬ľà¬£à¬Ļ": 689,
      "àŃį.": 690,
      "Ġà¬īà¬ŃàŃŁ": 691,
      "Ġà¬ķà¬°à¬¨": 692,
      "à¬ķà¬ł": 693,
      "Ġà¬ħà¬ķ": 694,
      "à¬Ĺà¬¦": 695,
      "à¬Ĺà¬¨": 696,
      "Ġà¬«à¬Ł": 697,
      "Ġà¬ļà¬¨": 698,
      "Ġà¬¹à¬¤": 699,
      "à¬ķà¬ª": 700,
      "Ġà¬īà¬²": 701,
      "Ġà¬ªà¬¶": 702,
      "Ġà¬¸à¬«à¬³": 703,
      "Ġà¬¸à¬¦à¬¸": 704,
      "ĠàŃ©àŃ¦": 705,
      "à¬¶à¬¤": 706,
      "Ġà¬ķà¬Łà¬ķ": 707,
      "à¬ıà¬«": 708,
      "à¬Ńà¬¬": 709,
      "Ġà¬¾": 710,
      "à¬ľà¬ķ": 711,
      "Ġà¬ķà¬¨": 712,
      "Ġà¬¨à¬°": 713,
      "à¬¨à¬Ł": 714,
      "ĠàŃ§àŃª": 715,
      "àŃ§àŃ§": 716,
      "à¬°à¬¦à¬°": 717,
      "...": 718,
      "Ġà¬Ĩà¬ĩ": 719,
      "à¬ĩà¬¦": 720,
      "à¬ľà¬¸": 721,
      "Ġà¬ĸà¬£": 722,
      "Ġà¬¦à¬ķ": 723,
      "Ġà¬īà¬¨": 724,
      "àŃ§àŃ¯": 725,
      "à¬·àŃŁà¬°": 726,
      "Ġà¬Ĺà¬°": 727,
      "à¬®à¬£": 728,
      "à¬Ĺà¬³à¬¬": 729,
      "Ġà¬ªà¬ł": 730,
      "Ġà¬¶à¬¨": 731,
      "ĠàŃ±": 732,
      "ĠàŃ§àŃ§": 733,
      "à¬ļà¬¤": 734,
      "Ġà¬¶à¬°": 735,
      "à¬·àŃŁ": 736,
      "à¬®à¬Ĺ": 737,
      "à¬¨à¬¬": 738,
      "ĠàŃ¨àŃª": 739,
      "Ġà¬¨à¬¬": 740,
      "Ġà¬ĩà¬¸": 741,
      "ĠàŃ§àŃ©": 742,
      "à¬²à¬Ł": 743,
      "Ġà¬°à¬ķ": 744,
      "ĠàŃ§àŃ®": 745,
      "à¬Ĺà¬ķ": 746,
      "à¬®à¬¦": 747,
      "à¬ĺà¬Łà¬£": 748,
      "Ġà¬ĺà¬£": 749,
      "à¬ĺà¬°": 750,
      "à¬¦à¬ķ": 751,
      "à¬¹à¬¤": 752,
      "à¬§à¬¨": 753,
      "à¬°à¬ķà¬³": 754,
      "Ġà¬¨à¬®": 755,
      ".):": 756,
      "à¬·à¬®": 757,
      "ĠàŃ§àŃ¬": 758,
      "Ġà¬ħà¬£": 759,
      "à¬°à¬®à¬°": 760,
      "ĠàŃ¨àŃ«": 761,
      "à¬¨à¬¨": 762,
      "à¬īà¬¡": 763,
      "Ġà¬īà¬ĩà¬ķ": 764,
      "Ġà¬¬à¬¦": 765,
      "à¬°àŃŁ": 766,
      "Ġà¬¤à¬³": 767,
      "Ġà¬ªà¬¤": 768,
      "Ġà¬¶à¬ķ": 769,
      "à¬¤à¬¦": 770,
      "à¬¨à¬¸à¬Ń": 771,
      "Ġà¬¸à¬®à¬°": 772,
      "Ġà¬ľà¬Ļ": 773,
      "Ġà¬Ĩà¬¤à¬Ļ": 774,
      "Ġà¬Ńà¬°": 775,
      "à¬¤à¬¬": 776,
      "Ġà¬Ĩà¬ªà¬£": 777,
      "à¬²à¬¬": 778,
      "Ġ:": 779,
      "ĠàŃ§àŃŃ": 780,
      "Ġà¬ĩà¬¤": 781,
      "à¬®à¬ª": 782,
      "Ġà¬®à¬°": 783,
      "àŃĩà¬¾):": 784,
      "Ġà¬ªà¬Ľ": 785,
      "Ġà¬¸à¬¹à¬°à¬°": 786,
      "ĠàŃ«àŃ¦": 787,
      "à¬¤à¬°à¬°": 788,
      "Ġà¬¨à¬¦": 789,
      "Ġà¬¸à¬ª": 790,
      "Ġà¬ıà¬¤": 791,
      "à¬²à¬®": 792,
      "Ġà¬Ĩà¬§": 793,
      "à¬¸à¬¬": 794,
      "à¬ıà¬¹": 795,
      "àŃĢà¥¤": 796,
      "Ġà¬¸à¬¹à¬¯": 797,
      "à¬¹à¬²": 798,
      "à¬£à¬°": 799,
      "à¬ķà¬¬": 800,
      "à¬°à¬ļ": 801,
      "à¬ĩà¬¡": 802,
      "Ġà¬ľà¬¬à¬¤": 803,
      "à¬Łà¬Ļ": 804,
      "Ġà¬ħà¬·": 805,
      "à¬łà¬ķ": 806,
      "à¬³à¬Ļ": 807,
      "à¬ĸà¬£": 808,
      "Ġà¬¢": 809,
      "Ġà¬ĭ": 810,
      "à¬²à¬ķà¬°": 811,
      "Ġà¬Ĩà¬«": 812,
      "àŃŁà¬¤à¬°": 813,
      "Ġà¬®à¬¸": 814,
      "à¬ļà¬¨à¬°": 815,
      "à¬¬à¬¦": 816,
      "à¬¿-": 817,
      "à¬ªà¬·": 818,
      "ĠàŃ¨àŃ¦àŃ¦": 819,
      "Ġà¬¬à¬³": 820,
      "Ġà¬ļà¬¢": 821,
      "Ġà¬Ĭ": 822,
      "à¬«à¬°": 823,
      "Ġà¬Ĩà¬¤": 824,
      "à¬¸à¬Ļ": 825,
      "àŃ±à¬ª": 826,
      "Ġà¬ħà¬¬à¬¸à¬°à¬°": 827,
      "à¬ĸà¬²": 828,
      "Ġà¬ľà¬¨à¬¸": 829,
      "Ġà¬ªà¬¢": 830,
      "à¬ķà¬¤": 831,
      "à¬Ĩà¬¸": 832,
      "à¬¹à¬¸": 833,
      "à¬®à¬§": 834,
      "Ġà¬ħà¬¶": 835,
      "à¬²à¬£": 836,
      "à¬¿à¬¿": 837,
      "Ġà¬Ĺà¬ŀ": 838,
      "Ġà¬ķà¬£": 839,
      "à¬¼àŃĩ": 840,
      "à¬£à¬¨": 841,
      "Ġà¬ķà¬ª": 842,
      "à¬łà¬ķà¬°": 843,
      "Ġà¬Ĭà¬°": 844,
      "à¬°à¬ľ": 845,
      "Ġà¬Ńà¬¬": 846,
      "Ġà¬ªà¬£": 847,
      "Ġà¬§à¬¨": 848,
      "Ġà¬¨à¬ľà¬°": 849,
      "à¬¡à¬ķ": 850,
      "à¬¥à¬³à¬°": 851,
      "àŃį-": 852,
      "àŃŁà¬ªà¬ķ": 853,
      "Ġà¬Ĺà¬¸": 854,
      "à¬ķà¬¸": 855,
      "Ġà¬«à¬°": 856,
      "Ġà¬ªà¬ļ": 857,
      "àŃįà¥¤": 858,
      "ĠàŃ¨àŃ¨": 859,
      "Ġà¬¸à¬¹à¬°": 860,
      "à¬¨à¬Ĺ": 861,
      "à¬¬à¬ª": 862,
      "à¬ªà¬Ł": 863,
      "à¬°à¬¸à¬Ļ": 864,
      "Ġà¬¬à¬ŀ": 865,
      "à¬§à¬ķ": 866,
      "Ġà¬Ĩà¬ĸ": 867,
      "à¬ķà¬³": 868,
      "Ġà¬¸à¬ŀ": 869,
      "à¬³à¬®": 870,
      "Ġà¬ĺà¬°à¬ķ": 871,
      "Ġà¬¶à¬¤": 872,
      "**": 873,
      "à¬¹à¬ķ": 874,
      "Ġà¬ħà¬Ļ": 875,
      "àŃį)": 876,
      "à¬ķà¬¨": 877,
      "Ġà¬¸à¬«à¬³à¬¤": 878,
      "à¬ģà¬¾": 879,
      "Ġà¬ħà¬Łà¬ķ": 880,
      "à¬¼àŃģ": 881,
      "Ġà¬®à¬ŀ": 882,
      "Ġà¬¯à¬¨": 883,
      "à¬Ŀà¬°": 884,
      "à¬ĩà¬£": 885,
      "à¬Ĺà¬®": 886,
      "ĠàŃªàŃ¦": 887,
      "à¬¾:": 888,
      "Ġà¬®à¬²": 889,
      "àŃ±à¬ķà¬ª": 890,
      "à¬ķà¬²": 891,
      "à¬Łà¬®": 892,
      "Ġà¬ķà¬¡": 893,
      "Ġà¬ıà¬£": 894,
      "ĠàŃ¨àŃ©": 895,
      "à¬ľà¬¨à¬ķ": 896,
      "Ġà¬Ĩà¬¹à¬¤": 897,
      "Ġà¬¬à¬¦à¬³": 898,
      "Ġà¬Ĩà¬¶à¬Ļ": 899,
      "à¬ĩà¬ªà¬¡": 900,
      "ĠàŃ¨àŃ§": 901,
      "Ġà¬²à¬¢": 902,
      "à¬Łà¬ķà¬°": 903,
      "à¬¸à¬ª": 904,
      "à¬·à¬Ļ": 905,
      "Ġà¬Ĩà¬ĩà¬ª": 906,
      "àŃŁà¬ķà¬¤": 907,
      "àŃ±à¬¬": 908,
      "Ġà¬¹à¬Ł": 909,
      "Ġà¬¶à¬¹": 910,
      "àŃ¨àŃ¨": 911,
      "à¬¶à¬Ļ": 912,
      "Ġà¬Ĺà¬Ľ": 913,
      "Ġà¬«à¬³": 914,
      "à¬Ĺà¬łà¬¨": 915,
      "à¬·à¬®à¬¤": 916,
      "ĠàŃ¨àŃ¬": 917,
      "Ġà¬¯à¬¥": 918,
      "à¬¬à¬°à¬°": 919,
      "Ġà¬ħà¬¦": 920,
      "àŃ¨àŃ©": 921,
      "à¬Ĥ.": 922,
      "à¬ıà¬ķ": 923,
      "Ġà¬Ĺà¬łà¬¨": 924,
      "Ġà¬¬àŃŁ": 925,
      "à¬¥à¬³": 926,
      "à¬¨à¬®": 927,
      "à¬¬à¬Ļ": 928,
      "Ġà¬ħà¬Ł": 929,
      "àŃ¨àŃ§": 930,
      "à¬ªà¬¥": 931,
      "à¬¿âĢĻ": 932,
      "àŃ±à¬¨": 933,
      "àŃĩà¬ģà¥¤": 934,
      "à¬°à¬ĸ": 935,
      "à¬ıà¬ļ": 936,
      "),": 937,
      "à¬¡à¬³": 938,
      "Ġà¬Ĩà¬¡": 939,
      "à¬¤à¬°à¬ĸ": 940,
      "Ġà¬Ľà¬¤": 941,
      "àŃŁà¬ķà¬Ļ": 942,
      "ĠàŃ¨àŃ¦àŃ§àŃ¯": 943,
      "à¬ľà¬Ĺ": 944,
      "Ġà¬Ĺà¬²": 945,
      "Ġà¬Ĺà¬£à¬®": 946,
      "Ġà¬¤à¬¹à¬¸": 947,
      "ĠàŃ¨àŃŃ": 948,
      ")-": 949,
      "ĠàŃ¨àŃ®": 950,
      "àŃ§àŃ®": 951,
      "à¬Ĺà¬£": 952,
      "àŃ©àŃ¦": 953,
      "Ġà¬ķà¬¬": 954,
      "Ġà¬ıà¬ª": 955,
      "Ġà¬Ĩà¬Ĺà¬ķ": 956,
      "Ġà¬ªà¬°à¬¬à¬°": 957,
      "Ġà¬Ĩà¬ª": 958,
      "à¬¨àŃŁ": 959,
      "à¬ļàŃŁ": 960,
      "à¬ĩà¬ľ": 961,
      "à¬Ĺà¬¬": 962,
      "Ġà¬°à¬¥": 963,
      "à¬ıà¬£": 964,
      "àŃŁàŃŁ": 965,
      "à¬Ĺà¬ª": 966,
      "à¬Łà¬°à¬°": 967,
      "Ġà¬Ńà¬¦": 968,
      "ĠàŃ§àŃ¦àŃ¦": 969,
      "à¬¶à¬®": 970,
      "Ġà¬Ĩà¬®à¬°": 971,
      "à¬²à¬¦": 972,
      "Ġà¬®à¬¦": 973,
      "à¬ľà¬³": 974,
      "à¬Ĩà¬Ļ": 975,
      "àŃ¨àŃª": 976,
      "Ġà¬Ĩà¬Ĺà¬°": 977,
      "Ġà¬Ľà¬ķ": 978,
      "àŃģà¬ĥ": 979,
      "Ġà¬ıà¬²": 980,
      "Ġà¬ªà¬Ľà¬°": 981,
      "à¬·à¬¦": 982,
      "Ġà¬ŃàŃŁ": 983,
      "Ġà¬¬àŃŁà¬¸": 984,
      "à¬¡à¬¬": 985,
      "Ġà¬ľà¬£à¬ķ": 986,
      "àŃ§àŃ«": 987,
      "Ġà¬ķà¬Łà¬ķà¬£": 988,
      "Ġà¬¨à¬·": 989,
      "Ġà¬ļà¬ķ": 990,
      "à¬ĵà¬°": 991,
      "à¬¨à¬ª": 992,
      "à¬ªà¬ŀ": 993,
      "àŃ±à¬°à¬°": 994,
      "àŃĩà¬ģ,": 995,
      "àŃ¨àŃ«": 996,
      "à¬¾-": 997,
      "à¬¬à¬²à¬ª": 998,
      "Ġà¬Ķ": 999,
      "Ġà¬ķà¬·": 1000,
      "àŃ§àŃŃ": 1001,
      "ĠàŃ¨àŃ¯": 1002,
      "Ġà¬ĵà¬Ń": 1003,
      "Ġà¬ĸà¬¸": 1004,
      "à¬¹à¬ľ": 1005,
      "à¬¤à¬¬à¬°": 1006,
      "à¬łà¬°": 1007,
      "àŃ§àŃ¬": 1008,
      "à¬¬à¬¨à¬°": 1009,
      "à¬ħà¬°": 1010,
      "Ġà¬¬à¬£": 1011,
      "à¬ķà¬Łà¬ķ": 1012,
      "Ġà¬ħà¬¸à¬¨": 1013,
      "Ġà¬ħà¬Ĺà¬·": 1014,
      "Ġà¬°à¬Ļ": 1015,
      "à¬·à¬ľ": 1016,
      "àŃ¦àŃ¦àŃ¦": 1017,
      "Ġà¬®à¬ľ": 1018,
      "Ġà¬ªà¬¸à¬¨": 1019,
      "à¬°à¬Ĺ": 1020,
      "Ġà¬ĭà¬£": 1021,
      "àŃĩ.": 1022,
      "à¬ľà¬§": 1023,
      "à¬ķà¬¶": 1024,
      "àŃ§àŃª": 1025,
      "àŃŁà¬£": 1026,
      "Ġà¬Ĩà¬ķà¬°": 1027,
      "Ġà¬īà¬ªà¬¯": 1028,
      "à¬¡à¬¨": 1029,
      "à¬®à¬¬à¬Ļ": 1030,
      "Ġà¬ıà¬¸à¬¬": 1031,
      "à¬ĩà¬®": 1032,
      "à¬īà¬¤": 1033,
      "à¬¼à¬¾,": 1034,
      "ĠàŃ¨àŃ¦àŃ¨àŃ¦": 1035,
      "à¬ªà¬®": 1036,
      "à¬¬à¬¶": 1037,
      "Ġà¬ªà¬¦à¬¬": 1038,
      "à¬°à¬ŀ": 1039,
      "à¬¶à¬Ĺ": 1040,
      "àŃ§àŃ©": 1041,
      "à¬®à¬¸": 1042,
      "Ġà¬¤à¬¤": 1043,
      "Ġà¬¡à¬²": 1044,
      "Ġà¬Ńà¬ķ": 1045,
      "Ġà¬¦à¬£": 1046,
      "à¬ķà¬ķ": 1047,
      "à¬Ĩà¬ĩà¬¨": 1048,
      "à¬¬à¬ķà¬Ļ": 1049,
      "àŃĩà¬¾âĢĻ": 1050,
      "Ġà¬Ĩà¬ĩà¬¸": 1051,
      "à¬°à¬¬à¬³": 1052,
      "ĠàŃ©àŃ§": 1053,
      "Ġà¬ħà¬ľ": 1054,
      "Ġà¬ĩà¬ŀ": 1055,
      "Ġà¬īà¬ªà¬ķ": 1056,
      "à¬ļà¬ķ": 1057,
      "Ġà¬ıàŃŁ": 1058,
      "à¬¸à¬¨à¬°": 1059,
      "Ġà¬ªà¬°à¬®": 1060,
      "Ġà¬ıà¬ľ": 1061,
      "Ġà¬ªà¬ľ": 1062,
      "à¬¦à¬¬": 1063,
      "à¬¼,": 1064,
      "à¬·à¬ķà¬°": 1065,
      "à¬²à¬¨": 1066,
      "à¬Ĩà¬ķ": 1067,
      "à¬ªà¬²": 1068,
      "ĠàŃ¨àŃ¦àŃ¨àŃ§": 1069,
      "Ġà¬¨à¬Ń": 1070,
      "à¬Ĩà¬®": 1071,
      "Ġà¬ıà¬¥à¬°": 1072,
      "à¬ķà¬¡": 1073,
      "à¬°à¬ł": 1074,
      "Ġà¬ªà¬ıà¬£": 1075,
      "ĠàŃ©àŃ«": 1076,
      "Ġà¬°à¬£": 1077,
      "Ġà¬ľà¬¨à¬¤": 1078,
      "à¬°à¬®à¬£à¬°": 1079,
      "à¬¤à¬°à¬ª": 1080,
      "àŃĩâĢĻ": 1081,
      "Ġà¬ļà¬¤": 1082,
      "àŃ¨àŃ¬": 1083,
      "ĠàŃ¨àŃ¦àŃ¨àŃ¨": 1084,
      "à¬¡à¬ª": 1085,
      "àŃ¨àŃ®": 1086,
      "Ġà¬¸à¬°à¬ªà¬ŀ": 1087,
      "à¬°à¬³": 1088,
      "à¬ľà¬£à¬Ļ": 1089,
      "à¬ªà¬¸": 1090,
      "Ġà¬¸à¬®à¬Ĺ": 1091,
      "ĠàŃ¬àŃ¦": 1092,
      "Ġà¬Ĳ": 1093,
      "à¬¸à¬°à¬°": 1094,
      "à¬¨à¬Ĺà¬°": 1095,
      "Ġà¬Ĩà¬¸à¬¨à¬°": 1096,
      "à¬ĩà¬Ń": 1097,
      "Ġà¬ļà¬³à¬ļ": 1098,
      "Ġà¬ľà¬¬": 1099,
      "Ġà¬¸à¬«": 1100,
      "à¬¶à¬¬": 1101,
      "Ġà¬Ĺà¬¬": 1102,
      "Ġà¬īà¬ªà¬²à¬¬": 1103,
      "Ġà¬¬à¬ķ": 1104,
      "Ġà¬ªà¬²": 1105,
      "Ġà¬Ķà¬·": 1106,
      "Ġà¬¨à¬¨": 1107,
      "Ġà¬ķà¬Ł": 1108,
      "à¬ľà¬Ļ": 1109,
      "Ġà¬ĵà¬Ńà¬°à¬°": 1110,
      "à¬ĩà¬ĵ": 1111,
      "Ġà¬ľà¬¡": 1112,
      "ĠàŃ¨àŃ¦àŃ§àŃ®": 1113,
      "àŃįâĢĻ": 1114,
      "Ġà¬¤à¬°à¬«": 1115,
      "Ġà¬ĩà¬®": 1116,
      "àŃ¨àŃŃ": 1117,
      "Ġà¬¸à¬¤à¬°": 1118,
      "à¬£à¬¤": 1119,
      "àŃŁà¬ªà¬Ł": 1120,
      "Ġà¬¤à¬°à¬«à¬°": 1121,
      "à¬¹à¬°à¬£": 1122,
      "ĠàŃ¨àŃ¦àŃ¨àŃ©": 1123,
      "Ġà¬°à¬ŀ": 1124,
      "àŃ¨àŃ¯": 1125,
      "à¬§à¬¤": 1126,
      "Ġà¬ħà¬ªà¬°à¬ªà¬ķ": 1127,
      "ĠàŃ§àŃ¯àŃ¯": 1128,
      "Ġà¬ªà¬¨": 1129,
      "à¬¥à¬ķ": 1130,
      "à¬ľà¬®": 1131,
      "à¬¤à¬°à¬ķ": 1132,
      "à¬¹à¬ª": 1133,
      "à¬īà¬³": 1134,
      "à¬¤à¬«": 1135,
      "à¬¤à¬¤": 1136,
      "à¬¹à¬®": 1137,
      "à¬·à¬ķà¬Ļ": 1138,
      "à¬Ĩà¬ĩà¬¸": 1139,
      "Ġà¬Ĩà¬¨à¬¨": 1140,
      "Ġà¬¦à¬°à¬ķ": 1141,
      "à¬¾)": 1142,
      "à¬Łà¬¸": 1143,
      "à¬ĸà¬³": 1144,
      "àŃŁà¬¤à¬®": 1145,
      "à¬®àŃŁ": 1146,
      "Ġà¬Ķà¬·à¬§": 1147,
      "à¬ĺà¬¨": 1148,
      "Ġà¬¨àŃŁ": 1149,
      "à¬ļà¬¸": 1150,
      "àŃģ-": 1151,
      "Ġà¬¹à¬ķ": 1152,
      "Ġà¬ľàŃŁ": 1153,
      "à¬¿à¬ģ,": 1154,
      "à¬ĩà¬Ĺà¬²": 1155,
      "Ġà¬¦à¬³à¬ķ": 1156,
      "Ġà¬īà¬¡": 1157,
      "à¬¨àŃŁà¬¨": 1158,
      "Ġà¬¡à¬ķ": 1159,
      "à¬ľà¬ªà¬¤": 1160,
      "Ġà¬ĸà¬¬à¬°à¬¦": 1161,
      "Ġà¬ªà¬ļà¬°": 1162,
      "Ġà¬®àŃŁ": 1163,
      "à¬¸à¬¦": 1164,
      "à¬Ĺà¬Ļ": 1165,
      "Ġà¬ľà¬Ĺà¬¤": 1166,
      "ĠàŃ¨àŃ¦àŃ¨àŃª": 1167,
      "à¬³àŃŁà¬ķ": 1168,
      "à¬ĩà¬°à¬¸": 1169,
      "à¬ĸà¬ķ": 1170,
      "à¬¿à¬Ĥ,": 1171,
      "à¬¬à¬§": 1172,
      "Ġà¬Ĩà¬īà¬Ł": 1173,
      "à¬¦à¬¨à¬ķ": 1174,
      "à¬°à¬Ńà¬ŀ": 1175,
      "Ġà¬ªà¬¥à¬°": 1176,
      "à¬¬à¬¹à¬¨": 1177,
      "Ġà¬īà¬ŃàŃŁà¬Ļ": 1178,
      "àŃ«àŃ¦": 1179,
      "Ġà¬Ĩà¬®à¬ķ": 1180,
      "Ġà¬ľà¬Ĺà¬¨": 1181,
      "Ġà¬®à¬¹à¬®": 1182,
      "à¬Ĺà¬²à¬°": 1183,
      "à¬®à¬¶": 1184,
      "Ġà¬ħà¬³": 1185,
      "Ġà¬¬à¬°à¬Ĺà¬¡": 1186,
      "à¬²à¬Ĺ": 1187,
      "Ġà¬Ĩà¬«à¬Ĺ": 1188,
      "Ġ,": 1189,
      "à¬¤à¬¨à¬¤": 1190,
      "Ġà¬®à¬®à¬¤": 1191,
      "à¬ıà¬°": 1192,
      "Ġà¬Ĩà¬ªà¬£à¬Ļ": 1193,
      "à¬¤à¬°à¬Ļ": 1194,
      "ĠàŃ©àŃŃ": 1195,
      "à¬®à¬Ļ": 1196,
      "à¬¿?": 1197,
      "Ġà¬Ĩà¬ļ": 1198,
      "à¬Ĩà¬¡": 1199,
      "à¬²à¬¤": 1200,
      "à¬°à¬®à¬¨": 1201,
      "à¬®à¬¹à¬¤": 1202,
      "Ġà¬ħà¬¬à¬Ĺà¬¤": 1203,
      "àŃŁà¬Ĺ": 1204,
      "à¬¶à¬ķà¬Ļ": 1205,
      "à¬®à¬¹": 1206,
      "Ġà¬¶à¬¬": 1207,
      "à¬ĩà¬Ļ": 1208,
      "à¬¼àŃį": 1209,
      "à¬¤à¬°à¬£": 1210,
      "à¬¾.": 1211,
      "à¬¤à¬³": 1212,
      "Ġà¬ıà¬«": 1213,
      "Ġà¬Ĺà¬¡": 1214,
      ")à¥¤": 1215,
      "Ġà¬¸à¬¦à¬°": 1216,
      "à¬¥à¬¤": 1217,
      "Ġà¬°à¬®": 1218,
      "Ġà¬ıà¬¡": 1219,
      "ĠàŃŃàŃ¦": 1220,
      "àŃŁà¬Łà¬¨": 1221,
      "Ġà¬¶à¬Ļ": 1222,
      "Ġà¬ĩà¬°": 1223,
      "Ġà¬ļàŃŁà¬¨": 1224,
      "àŃ±à¬ķ": 1225,
      "ĠàŃ§àŃ§àŃ": 1226,
      "à¬°à¬²": 1227,
      "Ġà¬ĩà¬ļ": 1228,
      "àŃŁà¬Ĺà¬¡": 1229,
      "Ġà¬¦à¬®": 1230,
      "à¬¦à¬Ļ": 1231,
      "à¬¿:": 1232,
      "à¬¬à¬ļ": 1233,
      "ĠàŃªàŃ«": 1234,
      ".)-": 1235,
      "Ġà¬Ĩà¬ķà¬³à¬¨": 1236,
      "Ġà¬ªà¬³": 1237,
      "Ġà¬¬àŃŁà¬¸à¬°": 1238,
      "Ġà¬Ĳà¬¤": 1239,
      "à¬¨à¬¦": 1240,
      "à¬īà¬¸": 1241,
      "Ġà¬¹à¬ł": 1242,
      "à¬ĩà¬Łà¬°": 1243,
      "Ġà¬ľà¬³à¬¸": 1244,
      "ĠàŃ®àŃ¦": 1245,
      "Ġà¬ªà¬°à¬¸": 1246,
      "à¬¸à¬¬à¬°": 1247,
      "à¬§à¬®": 1248,
      "à¬¬à¬°à¬£": 1249,
      "à¬ľà¬¬": 1250,
      "Ġà¬ĩà¬Ń": 1251,
      "Ġà¬§à¬®à¬ķ": 1252,
      "Ġà¬Ĩà¬ŀ": 1253,
      "à¬°à¬£à¬Ļ": 1254,
      "à¬²à¬¸": 1255,
      "Ġl": 1256,
      "Ġ-": 1257,
      "Ġà¬ķà¬ł": 1258,
      "à¬¹à¬³": 1259,
      "Ġà¬Łà¬ª": 1260,
      "à¬īà¬Ł": 1261,
      "à¬£à¬ķ": 1262,
      "à¬°à¬¤à¬ķ": 1263,
      "Ġà¬¯à¬¬": 1264,
      "à¬ıà¬ª": 1265,
      "à¬°à¬¬à¬°": 1266,
      "à¬¥à¬Ļ": 1267,
      "à¬Ľà¬¤": 1268,
      "Ġà¬ĩà¬¡": 1269,
      "Ġà¬¶à¬¤à¬ķ": 1270,
      "Ġà¬ķà¬¶": 1271,
      "à¬ľà¬¨à¬°": 1272,
      "à¬¦à¬¶": 1273,
      "Ġà¬®à¬¤à¬¦": 1274,
      "Ġà¬²à¬®": 1275,
      "Ġà¬Ĺà¬¢": 1276,
      "à¬Ī": 1277,
      "à¬®à¬³": 1278,
      "Ġà¬łà¬ķ": 1279,
      "ĠàŃ¨àŃ¦àŃ§àŃŃ": 1280,
      "Ġà¬®à¬¨à¬°": 1281,
      "à¬¬àŃŁ": 1282,
      "Ġà¬Ĩà¬Ń": 1283,
      "Ġà¬ĩà¬²": 1284,
      "à¬¦à¬°à¬Ĺà¬¡": 1285,
      "Ġà¬ħà¬²à¬Ĺ": 1286,
      "àŃŁà¬Ł": 1287,
      "Ġà¬ĵà¬¹": 1288,
      "àŃ±à¬¸": 1289,
      "à¬¸à¬°à¬ķ": 1290,
      "à¬¬à¬°à¬Ļ": 1291,
      "à¬¬à¬®": 1292,
      "à¬ħà¬ª": 1293,
      "à¬¬à¬°à¬¦": 1294,
      "à¬¤à¬ª": 1295,
      "ĠâĢĵ": 1296,
      "à¬ħà¬Ļ": 1297,
      "Ġà¬·à¬¡": 1298,
      "à¬Ńà¬¦": 1299,
      "à¬ĵà¬¬": 1300,
      "à¬·à¬ķà¬®": 1301,
      "Ġà¬§à¬ķ": 1302,
      "à¬¤à¬ķà¬Ļ": 1303,
      "à¬Łà¬°à¬Ļ": 1304,
      "à¬³à¬¬": 1305,
      "à¬¦à¬ª": 1306,
      "Ġà¬ħà¬¬à¬¸à¬°": 1307,
      "à¬³à¬¤": 1308,
      "à¬Ĺà¬ł": 1309,
      "àŃŁà¬®à¬ķ": 1310,
      "Ġà¬ħà¬¯": 1311,
      "Ġà¬ĵà¬®": 1312,
      "à¬¿(": 1313,
      "Ġà¬¤à¬®": 1314,
      "Ġà¬°à¬¨à¬°": 1315,
      "à¬¾(": 1316,
      "à¬ħà¬ķ": 1317,
      "Ġà¬Ńà¬īà¬£": 1318,
      "Ġà¬ħà¬¡": 1319,
      "à¬°à¬·": 1320,
      "Ġà¬ľà¬Ĺ": 1321,
      "ĠàŃ©àŃª": 1322,
      "à¬£à¬ª": 1323,
      "ĠàŃ©àŃ¬": 1324,
      "Ġà¬¶à¬ªà¬¥": 1325,
      "ĠàŃ©àŃ©": 1326,
      "àŃĩà¬¾,": 1327,
      "à¬Ńà¬ķ": 1328,
      "à¬ĸà¬¨": 1329,
      "à¬ıà¬¬": 1330,
      "à¬°à¬¯": 1331,
      "à¬ĵà¬¡": 1332,
      "à¬Łà¬°à¬¨": 1333,
      "à¬Ĩà¬ª": 1334,
      "Ġà¬ħà¬¬à¬¶": 1335,
      "Ġà¬«à¬¸": 1336,
      "Ġà¬ªà¬¬": 1337,
      "à¬¨à¬Ń": 1338,
      "ĠàŃ§àŃ¯àŃ®": 1339,
      "à¬Ĺà¬°à¬°": 1340,
      "Ġà¬ľà¬·": 1341,
      "à¬ĩà¬ľà¬°": 1342,
      "Ġà¬¬à¬¦à¬³à¬°": 1343,
      "Ġà¬®à¬¡": 1344,
      "à¬ļà¬³à¬ķ": 1345,
      "à¬ĩà¬¨à¬°": 1346,
      "Ġà¬¬à¬Ļ": 1347,
      "à¬łà¬ª": 1348,
      "Ġà¬¦à¬¶": 1349,
      "Ġà¬¨à¬ķà¬²": 1350,
      "Ġà¬ıà¬ķà¬°": 1351,
      "à¬°à¬®à¬£à¬ķ": 1352,
      "Ġà¬ľà¬¬à¬°à¬¦": 1353,
      "àŃįà¬¾": 1354,
      "àŃŁà¬ķà¬°": 1355,
      "à¬Ľà¬¡": 1356,
      "Ġà¬ĵà¬ķ": 1357,
      "Ġà¬ķà¬Ļ": 1358,
      "Ġà¬Ńà¬Ĺà¬¬": 1359,
      "Ġà¬ĩà¬Ł": 1360,
      "Ġà¬Łà¬¨": 1361,
      "Ġà¬Ńà¬Ļ": 1362,
      "à¬ıà¬²à¬°": 1363,
      "Ġà¬Ĩà¬¦à¬°": 1364,
      "Ġà¬«à¬¸à¬²": 1365,
      "à¬ľà¬ªà¬¥": 1366,
      "àŃĩ...": 1367,
      "Ġà¬ħà¬¬à¬¹": 1368,
      "à¬ĩà¬¬à¬°": 1369,
      "àŃ©àŃ§": 1370,
      "Ġà¬Ĺà¬¤à¬¬à¬°": 1371,
      "à¬°à¬¥": 1372,
      "Ġà¬ħà¬¬à¬§": 1373,
      "Ġà¬¦à¬°à¬®": 1374,
      "Ġà¬¸à¬¹à¬ľ": 1375,
      "Ġà¬°à¬¤": 1376,
      "Ġà¬Ľà¬¡": 1377,
      "Ġà¬¸à¬ľ": 1378,
      "à¬·à¬£à¬°": 1379,
      "Ġà¬īà¬ªà¬¨": 1380,
      "à¬Ĩà¬ľ": 1381,
      "Ġà¬¸à¬²à¬®": 1382,
      "à¬¶à¬¹": 1383,
      "Ġà¬ĵà¬ª": 1384,
      "ĠàŃ¨àŃ¦àŃ§àŃª": 1385,
      "ĠàŃŃàŃ«": 1386,
      "à¬¹à¬ķà¬Ļ": 1387,
      "à¬¯à¬¨": 1388,
      "ĠàŃ¯àŃ¦": 1389,
      "à¬¸à¬ķà¬Ļ": 1390,
      "Ġà¬ľà¬³à¬¬": 1391,
      "à¬Ĩà¬£": 1392,
      "à¬ļà¬®": 1393,
      "àŃĢ-": 1394,
      "Ġà¬Ĺà¬ł": 1395,
      "à¬¹à¬£": 1396,
      "à¬ķà¬£": 1397,
      "Ġà¬ªà¬°à¬ł": 1398,
      "Ġà¬°à¬¸": 1399,
      "à¬°à¬Ł": 1400,
      "ĠàŃ©àŃ®": 1401,
      "Ġà¬¨à¬Ĺà¬°": 1402,
      "Ġà¬ħà¬¸à¬®": 1403,
      "à¬ļà¬³à¬¬": 1404,
      "ĠàŃªàŃ®": 1405,
      "Ġà¬ıà¬ĩ": 1406,
      "à¬ķà¬Łà¬¸": 1407,
      "à¬¶à¬Ĺà¬¡": 1408,
      "àŃŁà¬¬à¬ļ": 1409,
      "à¬ıà¬¶à¬¨": 1410,
      "à¬Ĩà¬ªà¬¡": 1411,
      "Ġà¬īà¬ªà¬°à¬ķ": 1412,
      "à¬²à¬ª": 1413,
      "Ġà¬¬à¬³à¬°": 1414,
      "à¬³à¬¦": 1415,
      "à¬¸à¬²à¬®": 1416,
      "Ġà¬ħà¬¬à¬¦": 1417,
      "Ġà¬Ĺà¬Ń": 1418,
      "à¬¬à¬ķà¬®": 1419,
      "à¬¬à¬°à¬ķ": 1420,
      "ĠàŃ¨àŃ¦àŃ§àŃ¬": 1421,
      "Ġà¬ħà¬°à¬¬": 1422,
      "à¬łà¬ªà¬¢": 1423,
      "à¬¦à¬°à¬°": 1424,
      "Ġà¬ıà¬ķà¬®": 1425,
      "Ġà¬Ĺà¬ľà¬ªà¬¤": 1426,
      "à¬ŀà¬ª": 1427,
      "Ġà¬īà¬ªà¬Ń": 1428,
      "à¬¨à¬¬à¬¨": 1429,
      "ĠàŃ«àŃ«": 1430,
      "Ġà¬īà¬ªà¬¤": 1431,
      "à¬°à¬ķà¬°": 1432,
      "Ġà¬¹à¬²": 1433,
      "à¬īà¬ļà¬°": 1434,
      "à¬¬à¬¬": 1435,
      "à¬īà¬¨à¬¸": 1436,
      "Ġà¬ħà¬ĸ": 1437,
      "Ġà¬īà¬ªà¬ľ": 1438,
      "à¬Ńà¬¬à¬¤": 1439,
      "à¬Łà¬ĩà¬£": 1440,
      "Ġà¬ħà¬¨à¬¨": 1441,
      "Ġà¬ħà¬¹": 1442,
      "Ġà¬ħà¬¬à¬ķ": 1443,
      "à¬°à¬Ĺà¬¤": 1444,
      "ĠàŃ©àŃ¨": 1445,
      "à¬ĵà¬ķ": 1446,
      "à¬ªà¬Ļ": 1447,
      "Ġà¬Ńà¬¤": 1448,
      "Ġà¬ĩà¬¨à¬·": 1449,
      "à¬Łà¬²": 1450,
      "Ġà¬¸à¬®à¬¬": 1451,
      "à¬¶à¬³": 1452,
      "à¬ıà¬ıà¬¸": 1453,
      "à¬¸à¬Ń": 1454,
      "Ġà¬ľàŃŁà¬¨": 1455,
      "ĠàŃ¦": 1456,
      "à¬¬à¬¦à¬°": 1457,
      "Ġà¬ªà¬¦à¬°": 1458,
      "àŃŁà¬ľ": 1459,
      "à¬ģ,": 1460,
      "à¬¬à¬£": 1461,
      "Ġà¬Ĩà¬ĺ": 1462,
      "à¬ľà¬¨à¬Ĺà¬°": 1463,
      "Ġà¬Ńà¬¡": 1464,
      "ĠàŃ©àŃ¯": 1465,
      "Ġà¬¸à¬¡": 1466,
      "àŃŁà¬Łà¬ķ": 1467,
      "Ġà¬ªà¬¥": 1468,
      "Ġà¬ħà¬ľàŃŁ": 1469,
      "à¬®à¬ķà¬°": 1470,
      "à¬īà¬°à¬ķ": 1471,
      "Ġà¬Ĺà¬£à¬¤à¬¨": 1472,
      "à¬³à¬ĸ": 1473,
      "à¬ıà¬Ł": 1474,
      "à¬¬à¬¨à¬ķ": 1475,
      "à¬ĵà¬Ļ": 1476,
      "Ġà¬ıà¬¯": 1477,
      "à¬¶à¬¤à¬ķ": 1478,
      "Ġà¬Ĺà¬®": 1479,
      "à¬°à¬¡": 1480,
      "ĠàŃ«àŃ¦àŃ¦": 1481,
      "à¬ĩà¬Łà¬²": 1482,
      "Ġà¬¨à¬ľ": 1483,
      "Ġà¬ħà¬®à¬°": 1484,
      "Ġà¬¸à¬®à¬¨": 1485,
      "à¬¸à¬¤": 1486,
      "ĠàŃªàŃª": 1487,
      "à¬¬à¬ľ": 1488,
      "à¬ĩà¬Ńà¬°": 1489,
      "Ġà¬īà¬°": 1490,
      "ĠàŃ§àŃ¯àŃŃ": 1491,
      "Ġà¬¨à¬¥": 1492,
      "à¬ļà¬¨à¬®à¬£": 1493,
      "Ġà¬¸à¬¹à¬ľà¬°": 1494,
      "Ġà¬°àŃŁ": 1495,
      "Ġà¬ŃàŃŁà¬Ļ": 1496,
      "à¬ıà¬¡": 1497,
      "à¬ĺà¬¦": 1498,
      "Ġà¬ªà¬°à¬¦": 1499,
      "à¬³à¬ª": 1500,
      "à¬īà¬¦": 1501,
      "Ġà¬Ĩà¬³": 1502,
      "àŃŁà¬§": 1503,
      "àŃĢâĢĻ": 1504,
      "Ġà¬ĺà¬¨": 1505,
      "à¬²à¬Ń": 1506,
      "à¬¬à¬¸à¬°": 1507,
      "à¬£à¬®": 1508,
      "Ġà¬Ĺà¬£à¬¤": 1509,
      "Ġà¬īà¬ªà¬¹": 1510,
      "Ġà¬Ĩà¬ĩà¬Ł": 1511,
      "à¬Ĩà¬ĩà¬°": 1512,
      "Ġà¬ĵà¬ªà¬¨": 1513,
      "Ġà¬īà¬®": 1514,
      "à¬¦àŃŁ": 1515,
      "Ġà¬¬à¬²à¬°": 1516,
      "Ġà¬¹à¬¨": 1517,
      "Ġà¬īà¬ľ": 1518,
      "Ġà¬ħà¬¸à¬¹": 1519,
      "à¬¸à¬³à¬ĸ": 1520,
      "Ġà¬¨à¬¬à¬°à¬Ļ": 1521,
      "à¬Ĩà¬Ĺ": 1522,
      "à¬¥à¬Ĺ": 1523,
      "Ġà¬ļà¬®": 1524,
      "àŃŁà¬°à¬¤": 1525,
      "Ġà¬ĭà¬¤": 1526,
      "Ġà¬ıà¬ķà¬¤": 1527,
      "à¬¦à¬®": 1528,
      "Ġà¬²à¬£": 1529,
      "àŃŁà¬Łà¬ķà¬Ļ": 1530,
      "Ġà¬¤à¬¨": 1531,
      "à¬¿.):": 1532,
      "à¬ģà¥¤": 1533,
      "ĠàŃ¨àŃ¦àŃ§àŃ«": 1534,
      "à¬²à¬¡": 1535,
      "Ġà¬ļà¬®à¬¤": 1536,
      "à¬·àŃŁà¬ķ": 1537,
      "Ġà¬Ńà¬£": 1538,
      "à¬¬à¬¡": 1539,
      "à¬ĺà¬£": 1540,
      "ĠàŃªàŃ¨": 1541,
      "à¬Łà¬Ĺ": 1542,
      "Ġà¬¸à¬¹à¬ķ": 1543,
      "Ġà¬Ĩà¬ĩà¬¨à¬ľ": 1544,
      "âĢľ": 1545,
      "ĠàŃªàŃ©": 1546,
      "à¬¡à¬¸": 1547,
      "Ġà¬ľà¬¨à¬ľ": 1548,
      "Ġà¬Ĩà¬ł": 1549,
      "Ġà¬ķà¬Łà¬ķà¬°": 1550,
      "à¬ķà¬°à¬£à¬°": 1551,
      "à¬ĸà¬¯": 1552,
      "à¬¡à¬·": 1553,
      "Ġà¬ħà¬ªà¬®": 1554,
      "Ġà¬ĵà¬Ńà¬°": 1555,
      "Ġà¬Ĩà¬¥": 1556,
      "à¬ħà¬Ń": 1557,
      "àŃŁà¬¨à¬¶": 1558,
      "àŃŁà¬ķà¬³": 1559,
      "à¬¥à¬®à¬¨": 1560,
      "Ġà¬ĩà¬ķ": 1561,
      "à¬ĩà¬«": 1562,
      "Ġà¬¡à¬Ļ": 1563,
      "à¬¶à¬¨à¬ķ": 1564,
      "à¬¤à¬²": 1565,
      "à¬¶à¬¦": 1566,
      "Ġà¬ıà¬ļ": 1567,
      "à¬¸à¬¦à¬°": 1568,
      "Ġà¬Ī": 1569,
      "ĠàŃªàŃ¬": 1570,
      "à¬Ĩà¬ĩà¬Ł": 1571,
      "à¬Ĺà¬ľ": 1572,
      "Ġà¬Ĺà¬Ļ": 1573,
      "à¬ħà¬§": 1574,
      "ĠàŃªàŃ¯": 1575,
      "Ġà¬ĸà¬Ł": 1576,
      "à¬¦à¬£": 1577,
      "à¬³à¬¨à¬°": 1578,
      "à¬³à¬¨à¬ķ": 1579,
      "à¬ħà¬®": 1580,
      "àŃŁà¬°à¬°": 1581,
      "àŃĢ:": 1582,
      "à¬ĸà¬ª": 1583,
      "Ġà¬ªà¬°à¬²": 1584,
      "à¬²à¬ĵ": 1585,
      "Ġà¬Ĺà¬³": 1586,
      "à¬ªà¬¦à¬°": 1587,
      "à¬¡à¬Ļ": 1588,
      "ĠàŃªàŃ§": 1589,
      "Ġà¬ħà¬³à¬Ļ": 1590,
      "Ġà¬®à¬¹à¬²à¬°": 1591,
      "à¬ŀà¬¤": 1592,
      "à¬īà¬°": 1593,
      "Ġà¬§à¬³": 1594,
      "Ġà¬¸à¬ªà¬ķ": 1595,
      "Ġà¬¤à¬¦": 1596,
      "Ġà¬ĺà¬°à¬°": 1597,
      "Ġà¬®à¬Ŀ": 1598,
      "à¬°à¬£à¬¤": 1599,
      "Ġà¬Ĩà¬ĩà¬Ĩà¬ĩà¬¸": 1600,
      "à¬¸à¬¨à¬ķ": 1601,
      "Ġà¬°à¬¥à¬¯": 1602,
      "Ġà¬Ĩà¬ĩà¬¨à¬°": 1603,
      "Ġà¬ļà¬°à¬£": 1604,
      "à¬¨à¬¶": 1605,
      "à¬·à¬¦à¬°": 1606,
      "à¬³à¬ķà¬Ļ": 1607,
      "Ġà¬°à¬¶": 1608,
      "à¬¤àŃŁà¬¨": 1609,
      "à¬¡à¬®": 1610,
      "à¬Łà¬«à¬°": 1611,
      "Ġà¬ĵà¬¸": 1612,
      "à¬¸à¬ķà¬®": 1613,
      "Ġà¬ŃàŃŁà¬Ń": 1614,
      "àŃįâĢĮ:": 1615,
      "à¬¦à¬³": 1616,
      "àŃªàŃ¦": 1617,
      "àŃŁàŃŁà¬¨": 1618,
      "àŃŁà¬¬à¬§": 1619,
      "à¬³à¬¸": 1620,
      "à¬ĩà¬ľà¬£": 1621,
      "Ġà¬¨à¬¡": 1622,
      "à¬ıà¬¤": 1623,
      "à¬ªà¬ļ": 1624,
      "Ġà¬®à¬¹à¬Ļ": 1625,
      "Ġà¬Ľà¬ķà¬°": 1626,
      "à¬²à¬°à¬Ļ": 1627,
      "ĠàŃªàŃŃ": 1628,
      "Ġà¬°à¬ª": 1629,
      "Ġà¬°à¬£à¬¨": 1630,
      "Ġà¬¯à¬¤": 1631,
      "à¬Ĩà¬ĩà¬ª": 1632,
      "à¬¾...": 1633,
      "Ġà¬ŃàŃŁà¬°": 1634,
      "ĠâĢĿ": 1635,
      "à¬Łà¬ª": 1636,
      "àŃŁà¬ľà¬¨à¬ķ": 1637,
      "ĠàŃ§àŃ«àŃ¦": 1638,
      "Ġà¬²à¬ĺ": 1639,
      "à¬ĩà¬¤": 1640,
      "à¬¼àŃĩà¬¾": 1641,
      "Ġà¬ľàŃŁà¬ª": 1642,
      "à¬¬à¬Ń": 1643,
      "à¬¿à¬¿à¥¤": 1644,
      "Ġà¬ĵà¬ľà¬¨": 1645,
      "Ġà¬Łà¬¸": 1646,
      "Ġà¬¤à¬°": 1647,
      "à¬¶à¬ª": 1648,
      "Ġà¬¦à¬¶à¬¨": 1649,
      "à¬°à¬¶à¬¸": 1650,
      "à¬¶à¬¸": 1651,
      "ĠàŃ¬àŃ«": 1652,
      "à¬¬à¬Ĺà¬¡": 1653,
      "Ġà¬¹à¬®": 1654,
      "Ġà¬¨à¬ķ": 1655,
      "Ġà¬ĸà¬²": 1656,
      "à¬¬à¬ľà¬¨": 1657,
      "à¬°à¬³à¬°": 1658,
      "Ġà¬ħà¬¬à¬°": 1659,
      "à¬¸à¬ļ": 1660,
      "Ġà¬ıà¬¤à¬²": 1661,
      "Ġà¬ħà¬ŃàŃŁ": 1662,
      "Ġà¬Īà¬¶": 1663,
      ".)": 1664,
      "Ġà¬°à¬ĺ": 1665,
      "à¬ıà¬¦": 1666,
      "à¬Ĩà¬īà¬Ł": 1667,
      "à¬¥à¬ª": 1668,
      "à¬ĩà¬ļ": 1669,
      "ĠàŃ©àŃ¦àŃ¦": 1670,
      "àŃ¬àŃ¦": 1671,
      "àŃĩ:": 1672,
      "à¬²à¬ľ": 1673,
      "Ġà¬Ŀà¬¡": 1674,
      "à¬ľà¬ªà¬¥à¬°": 1675,
      "Ġà¬ıà¬ıà¬¸": 1676,
      "à¬³à¬ļ": 1677,
      "à¬¿à¬ĥ": 1678,
      "Ġà¬ĵà¬ªà¬¨à¬°": 1679,
      "à¬¡à¬Ĺ": 1680,
      "à¬ķà¬°à¬Ļ": 1681,
      "Ġà¬¤à¬³à¬ķ": 1682,
      "Ġà¬°à¬£à¬¬": 1683,
      "Ġà¬®à¬¹à¬¤": 1684,
      "Ġà¬ħà¬¹à¬®": 1685,
      "à¬³à¬Ĺ": 1686,
      "àŃĩ-": 1687,
      "à¬¿...": 1688,
      "à¬ļà¬£": 1689,
      "à¬Ĺà¬łà¬¨à¬°": 1690,
      "à¬Łà¬¬à¬²": 1691,
      "Ġà¬ķà¬ķ": 1692,
      "âĢĺ": 1693,
      "Ġà¬ĵà¬²à¬Ł": 1694,
      "à¬ļà¬¨à¬ķ": 1695,
      "à¬°à¬®à¬ķ": 1696,
      "à¬ĩà¬Łà¬°à¬°": 1697,
      "à¬īà¬²": 1698,
      "ĠàŃ«àŃ©": 1699,
      "Ġà¬Ĩà¬ĸà¬ª": 1700,
      "Ġà¬ªà¬ĩà¬¸": 1701,
      "Ġà¬¡à¬¬": 1702,
      "à¬ĵà¬Ł": 1703,
      "àŃªàŃ«": 1704,
      "Ġà¬²à¬¹à¬°": 1705,
      "Ġà¬ıà¬°": 1706,
      "Ġà¬ħà¬ļà¬³": 1707,
      "à¬ªà¬°à¬ķ": 1708,
      "à¬¼àŃĢ": 1709,
      "à¬¥à¬¬": 1710,
      "à¬¬à¬¹": 1711,
      "Ġà¬ıà¬®à¬ª": 1712,
      "àŃ©àŃ«": 1713,
      "Ġà¬Ĺà¬£à¬¨": 1714,
      "à¬¦à¬¨à¬°": 1715,
      "Ġà¬ħà¬£à¬¦": 1716,
      "Ġà¬¸à¬²": 1717,
      "à¬°à¬£à¬ķ": 1718,
      "Ġà¬ĸà¬¬à¬°à¬ķ": 1719,
      "àŃį(": 1720,
      "Ġà¬¬à¬ļ": 1721,
      "ĠàŃ«àŃŃ": 1722,
      "Ġà¬īà¬ªà¬¦": 1723,
      "Ġà¬ĭà¬·": 1724,
      "àŃŁàŃŁà¬°": 1725,
      "à¬¼à¬¿,": 1726,
      "ĠàŃ«àŃª": 1727,
      "à¬ĵà¬¸": 1728,
      "à¬ľà¬Ĺà¬¨": 1729,
      "à¬ŀà¬®": 1730,
      "Ġà¬Ĩà¬®à¬¦": 1731,
      "Ġà¬ıà¬Ł": 1732,
      "Ġà¬§à¬°à¬£à¬°": 1733,
      "àŃĩàŃĹ,": 1734,
      "à¬ľàŃŁà¬°": 1735,
      "Ġà¬Ńà¬°à¬¸": 1736,
      "à¬°à¬¥à¬®à¬¥à¬°": 1737,
      "à¬Łà¬¨à¬°": 1738,
      "Ġà¬²à¬¦": 1739,
      "à¬°à¬¹à¬°": 1740,
      "à¬ĩà¬Ĩà¬¸": 1741,
      "Ġà¬¦à¬¶à¬®": 1742,
      "Ġà¬®à¬¹à¬²": 1743,
      "Ġà¬Ĩà¬ĩà¬ıà¬ıà¬¸": 1744,
      "à¬ķà¬Ĺ": 1745,
      "à¬£à¬ªà¬¤": 1746,
      "à¬Ĺà¬ľà¬ªà¬¤": 1747,
      "Ġà¬Ĩà¬Ļ": 1748,
      "Ġà¬ħà¬ªà¬¹à¬°à¬£": 1749,
      "Ġà¬ħà¬«à¬°": 1750,
      "Ġà¬īà¬ªà¬ĸà¬£": 1751,
      "à¬Ńà¬Ļ": 1752,
      "à¬Ĩà¬³": 1753,
      "Ġà¬¶à¬¸": 1754,
      "ĠàŃ«àŃ¬": 1755,
      "à¬®à¬ļà¬¨": 1756,
      "ĠàŃ«àŃ¯": 1757,
      "à¬īà¬¡à¬°": 1758,
      "à¬Łà¬¬": 1759,
      "Ġà¬ªà¬Ļ": 1760,
      "à¬¦à¬¬à¬Ļ": 1761,
      "Ġà¬¬à¬®": 1762,
      "Ġà¬ıà¬ıà¬ª": 1763,
      "âĢĻà¥¤": 1764,
      "à¬°à¬¸à¬¨": 1765,
      "Ġà¬Ĩà¬°à¬¬": 1766,
      "ĠàŃ«àŃ®": 1767,
      "àŃŁà¬Ń": 1768,
      "à¬ªà¬¥à¬°": 1769,
      "à¬Ńà¬£": 1770,
      "Ġà¬¶à¬¤à¬ªà¬¥": 1771,
      "ĠàŃ¨àŃ¦àŃ§àŃ©": 1772,
      "Ġà¬ħà¬ļ": 1773,
      "Ġà¬°à¬ļ": 1774,
      "Ġà¬ļà¬²": 1775,
      "àŃŁà¬²": 1776,
      "à¬°à¬¬à¬£": 1777,
      "à¬ªà¬¶": 1778,
      "Ġà¬Ńà¬Ł": 1779,
      "Ġà¬īà¬ªà¬®": 1780,
      "Ġà¬¶à¬Ł": 1781,
      "Ġà¬Ńà¬ŀ": 1782,
      "ĠàŃ¨àŃ¦àŃ¦àŃ¦": 1783,
      "à¬ıà¬®à¬¸": 1784,
      "àŃĩà¬¾-": 1785,
      "à¬ķà¬¸à¬Ń": 1786,
      "à¬¨à¬ł": 1787,
      "Ġà¬¸à¬¶à¬ķ": 1788,
      "Ġà¬°à¬¹à¬¸": 1789,
      "à¬§à¬¶à¬¤à¬ķ": 1790,
      "àŃģàŃģ": 1791,
      "Ġà¬®à¬¨à¬®": 1792,
      "Ġà¬Ĩà¬¬à¬°": 1793,
      "Ġà¬¬à¬Ĺ": 1794,
      "à¬¤à¬°à¬®": 1795,
      "Ġà¬ĸà¬¬à¬°à¬ª": 1796,
      "Ġà¬ķà¬ıà¬¦": 1797,
      "Ġà¬¬à¬¸à¬¨": 1798,
      "Ġà¬Ĺà¬Ľà¬°": 1799,
      "Ġà¬īà¬ªà¬ķà¬°à¬£": 1800,
      "à¬ļà¬°à¬£": 1801,
      "Ġà¬¦à¬²": 1802,
      "à¬Łà¬°à¬ķ": 1803,
      "àŃªàŃŃ": 1804,
      "à¬Łà¬°à¬®": 1805,
      "ĠàŃ«àŃ§": 1806,
      "ĠàŃªàŃ¦àŃ¦": 1807,
      "à¬®à¬Ł": 1808,
      "Ġà¬ļà¬£": 1809,
      "Ġà¬ıà¬ķà¬¦": 1810,
      "Ġà¬ĩà¬·": 1811,
      "Ġà¬ľà¬Ł": 1812,
      "à¬Ńà¬¬à¬¨à¬°": 1813,
      "à¬ªà¬Ĺ": 1814,
      "Ġà¬ķà¬¹à¬¨": 1815,
      "à¬Ĩà¬¬": 1816,
      "Ġà¬®à¬ĩà¬¦": 1817,
      "à¬ĩà¬ł": 1818,
      "àŃįâĢĮ,": 1819,
      "ĠàŃ§àŃ¯àŃ¬": 1820,
      "Ġà¬ĨàŃŁà¬°": 1821,
      "âĢĻ,": 1822,
      "Ġà¬®à¬¤à¬ª": 1823,
      "Ġà¬ªà¬¬à¬¨": 1824,
      "à¬³à¬ªà¬¡": 1825,
      "Ġà¬Ńà¬¬à¬¨": 1826,
      "ĠàŃ¨àŃ¦àŃ§àŃ¨": 1827,
      "à¬¡à¬²": 1828,
      "Ġà¬Ĩà¬ĩà¬¨à¬Ĺà¬¤": 1829,
      "à¬°à¬ĵ": 1830,
      "à¬Ĩà¬Ĺà¬²": 1831,
      "Ġà¬²à¬ŀ": 1832,
      "à¬¿.)-": 1833,
      "à¬Ĺà¬¸": 1834,
      "à¬ľà¬²": 1835,
      "à¬īà¬ł": 1836,
      "Ġà¬¹à¬ĩà¬°": 1837,
      "Ġà¬¥à¬£": 1838,
      "Ġà¬¡à¬°": 1839,
      "à¬ļà¬¶": 1840,
      "Ġà¬¬à¬¨à¬¬": 1841,
      "Ġà¬¦à¬³à¬Ĺ": 1842,
      "Ġà¬¡à¬¬à¬²": 1843,
      "à¬¿àŃį": 1844,
      "ĠàŃ¨àŃ¦àŃ§àŃ§": 1845,
      "à¬īà¬ķ": 1846,
      "à¬®à¬°à¬£": 1847,
      "à¬£à¬ļà¬¨": 1848,
      "Ġà¬°à¬¦": 1849,
      "à¬ĩà¬¸à¬²": 1850,
      "ĠàŃ¬àŃŃ": 1851,
      "Ġà¬¦à¬¸": 1852,
      "âĢĵ": 1853,
      "Ġà¬¸à¬¹à¬®à¬¤": 1854,
      "à¬¾à¬ģ,": 1855,
      "Ġà¬¸à¬¸": 1856,
      "ĠàŃ®àŃ«": 1857,
      "ĠàŃ«àŃ¨": 1858,
      "à¬ķà¬¸à¬°": 1859,
      "à¬¤à¬ķà¬°": 1860,
      "à¬ħà¬ªà¬°": 1861,
      "Ġà¬¦àŃŁ": 1862,
      "Ġà¬īà¬ªà¬¸à¬Ń": 1863,
      "Ġà¬¨à¬Ĺà¬¦": 1864,
      "à¬¶à¬¤à¬°": 1865,
      "à¬Ńà¬°à¬¶": 1866,
      "à¬ĸà¬Ļ": 1867,
      "à¬°à¬ķà¬Ł": 1868,
      "ĠàŃŃàŃ¨": 1869,
      "Ġà¬ıà¬Ĩà¬ĩ": 1870,
      "Ġà¬¨à¬°à¬¸": 1871,
      "Ġà¬Ĩà¬ĩà¬¨à¬ķ": 1872,
      "à¬°à¬¬à¬¨": 1873,
      "Ġà¬®à¬¶": 1874,
      "àŃ©àŃŃ": 1875,
      "Ġà¬®à¬¤à¬°": 1876,
      "Ġà¬ĵà¬Ł": 1877,
      "àŃ«àŃ«": 1878,
      "àŃ®àŃ¦": 1879,
      "Ġà¬ľà¬¬à¬°à¬¦à¬ĸà¬²": 1880,
      "ĠàŃ¬àŃª": 1881,
      "à¬¶à¬¨à¬Ļ": 1882,
      "Ġà¬¹à¬·": 1883,
      "à¬¡à¬°à¬°": 1884,
      "Ġà¬ħà¬¬à¬¸à¬°à¬ª": 1885,
      "Ġà¬¬à¬¹à¬¨": 1886,
      "à¬ªà¬ľ": 1887,
      "Ġà¬¢à¬Ļ": 1888,
      "à¬Ĺà¬¨à¬ĵ": 1889,
      "Ġà¬²à¬ľ": 1890,
      "Ġà¬«à¬£": 1891,
      "à¬ľà¬°à¬Ļ": 1892,
      "à¬ıà¬ľ": 1893,
      "Ġà¬¶à¬¶": 1894,
      "à¬¸à¬°à¬Ļ": 1895,
      "Ġà¬®à¬ķ": 1896,
      "Ġà¬ĵà¬²": 1897,
      "Ġà¬ĩà¬¶": 1898,
      "à¬ĩà¬Ĺ": 1899,
      "à¬¬à¬Ĺ": 1900,
      "àŃ¨àŃ¦àŃ¦": 1901,
      "à¬¹à¬Ļ": 1902,
      "Ġà¬Ŀà¬Ł": 1903,
      "Ġà¬ħà¬²à¬°": 1904,
      "à¬¹à¬ķà¬®": 1905,
      "à¬ķà¬¥": 1906,
      "ĠàŃ¬àŃ©": 1907,
      "Ġà¬Ńà¬¬à¬¨à¬°": 1908,
      "à¬·à¬Ń": 1909,
      "Ġà¬¶à¬°à¬¤": 1910,
      "Ġà¬¦à¬ĸà¬²": 1911,
      "Ġà¬ħà¬®à¬³": 1912,
      "àŃģ)": 1913,
      "Ġà¬¶à¬°à¬£": 1914,
      "Ġà¬ıà¬Ĺ": 1915,
      "Ġà¬Ĩà¬ļà¬°à¬£": 1916,
      "Ġà¬ķà¬«": 1917,
      "à¬ĩà¬²à¬Ł": 1918,
      "Ġà¬ľà¬Ĺà¬¤à¬°": 1919,
      "ĠàŃ¨àŃ¦àŃ¦àŃ¯": 1920,
      "à¬¦à¬¨à¬¶": 1921,
      "à¬¬à¬¬à¬°": 1922,
      "Ġà¬ħà¬Łà¬¨": 1923,
      "à¬¸à¬¸": 1924,
      "Ġà¬¨à¬ļ": 1925,
      "ĠàŃ¬àŃ®": 1926,
      "Ġà¬Ĺà¬¨": 1927,
      "Ġ?": 1928,
      "à¬¸à¬Ĺ": 1929,
      "Ġà¬ľà¬Ĺà¬¦": 1930,
      "à¬ĵà¬ª": 1931,
      "Ġà¬ªà¬®": 1932,
      "ĠàŃŃàŃŃ": 1933,
      "à¬¨à¬ļ": 1934,
      "à¬¡à¬³à¬°": 1935,
      "à¬Ĺà¬ªà¬¹à¬£": 1936,
      "Ġà¬Ĩà¬¡à¬Ń": 1937,
      "à¬£à¬Ļ": 1938,
      "Ġà¬ĺà¬¡": 1939,
      "àŃ©àŃ¬": 1940,
      "Ġà¬Ĩà¬ªà¬¤": 1941,
      "Ġà¬ľà¬³à¬°": 1942,
      "Ġà¬Łà¬°": 1943,
      "à¬ªà¬¬": 1944,
      "àŃĢ(": 1945,
      "ĠàŃ¬àŃ¬": 1946,
      "Ġà¬Ĩà¬¥à¬²": 1947,
      "ĠàŃŃàŃ®": 1948,
      "Ġà¬°à¬ľ": 1949,
      "Ġà¬Łà¬®": 1950,
      "Ġà¬ħà¬¬à¬¤à¬°à¬£": 1951,
      "à¬¦à¬²": 1952,
      "ĠàŃ§àŃ¯àŃ«": 1953,
      "Ġà¬ħà¬¬à¬²à¬®": 1954,
      "à¬Ĩà¬ĩà¬ı": 1955,
      "àŃ¯àŃ¯": 1956,
      "Ġà¬īà¬·": 1957,
      "Ġà¬ªà¬Ľà¬ķ": 1958,
      "ĠàŃŃàŃ¬": 1959,
      "Ġà¬®à¬ł": 1960,
      "Ġà¬Ĺà¬¦": 1961,
      "Ġà¬Ńà¬Ĺ": 1962,
      "à¬Ĩà¬¹": 1963,
      "à¬ıà¬¥": 1964,
      "Ġà¬ľà¬¬à¬°à¬¦à¬¸": 1965,
      "à¬°àŃ±": 1966,
      "à¬£à¬¬": 1967,
      "à¬ĸà¬¦": 1968,
      "Ġà¬ħà¬¨à¬²": 1969,
      "Ġà¬ĸà¬¨à¬¨": 1970,
      "Ġà¬ĵà¬°à¬«": 1971,
      "à¬¨à¬Ńà¬£": 1972,
      "Ġà¬ıà¬ķà¬ķ": 1973,
      "Ġà¬¶à¬¯": 1974,
      "à¬§à¬¨à¬°": 1975,
      "àŃ©àŃª": 1976,
      "à¬¤à¬ľ": 1977,
      "Ġà¬¹à¬³à¬¦": 1978,
      "à¬¥à¬³à¬ķ": 1979,
      "à¬Łà¬«": 1980,
      "à¬Ĺà¬®à¬¨": 1981,
      "Ġà¬¦à¬¨": 1982,
      "Ġà¬¨à¬³à¬ķ": 1983,
      "ĠàŃŃàŃª": 1984,
      "Ġà¬ĨàŃŁà¬ķà¬°": 1985,
      "àŃģâĢĻ": 1986,
      "Ġà¬ľà¬ľ": 1987,
      "Ġà¬¬à¬¨à¬ĸà¬£": 1988,
      "à¬¸à¬Ńà¬¬à¬¨à¬°": 1989,
      "âĢĿ": 1990,
      "Ġà¬Ľà¬Ł": 1991,
      "ĠàŃ¬àŃ¨": 1992,
      "Ġà¬ľà¬¨à¬Ĺ": 1993,
      "Ġà¬²à¬Ļ": 1994,
      "ĠàŃ¬àŃ¯": 1995,
      "Ġà¬¬à¬¸à¬¬": 1996,
      "Ġà¬Ĩà¬ĩà¬ıà¬¸": 1997,
      "àŃŁà¬ķà¬®": 1998,
      "àŃŃàŃ¦": 1999,
      "à¬«à¬³à¬°": 2000,
      "Ġà¬Ĩà¬¡à¬ķ": 2001,
      "à¬Ĺà¬ŀ": 2002,
      "Ġà¬Ĳà¬¶": 2003,
      "à¬®à¬¨à¬Ĺà¬°": 2004,
      "ĠàŃ§àŃ¦àŃ¦àŃ¦": 2005,
      "à¬§à¬Ļ": 2006,
      "àŃŁà¬¤à¬ķ": 2007,
      "Ġà¬·à¬·": 2008,
      "Ġà¬ķà¬ŀ": 2009,
      "Ġà¬¥à¬ĩà¬¥": 2010,
      "àŃĩ?": 2011,
      "à¬²à¬ĺ": 2012,
      "àŃŃàŃ«": 2013,
      "ĠàŃ©àŃŃàŃ¦": 2014,
      "Ġà¬ħà¬ľà¬£": 2015,
      "Ġà¬ĵà¬¹à¬°": 2016,
      "à¬°à¬ļà¬³": 2017,
      "Ġà¬¦à¬«": 2018,
      "àŃ©àŃ¨": 2019,
      "à¬²à¬«": 2020,
      "Ġà¬ħà¬ľà¬¬": 2021,
      "à¬ĸà¬¤": 2022,
      "àŃªàŃ®": 2023,
      "à¬¤à¬¨à¬°": 2024,
      "àŃ±à¬ķà¬ªà¬°": 2025,
      "Ġà¬®à¬ľà¬Ń": 2026,
      "àŃ©àŃ®": 2027,
      "à¬Ńà¬²": 2028,
      "ĠàŃ¯àŃ«": 2029,
      "à¬ĺà¬Ł": 2030,
      "àŃŁà¬¦": 2031,
      "à¬Ĩà¬ĩà¬ıà¬®": 2032,
      "à¬Ľà¬°": 2033,
      "à¬īà¬¤à¬°": 2034,
      "à¬¶à¬²": 2035,
      "à¬¬à¬¦à¬¨": 2036,
      "à¬ªà¬°à¬·": 2037,
      "Ġà¬īà¬Ĺ": 2038,
      "à¬Ĺà¬°à¬®": 2039,
      "Ġà¬¸à¬¹à¬°à¬ķ": 2040,
      "Ġà¬¥à¬®": 2041,
      "à¬§à¬¹": 2042,
      "ĠâĢĻ": 2043,
      "Ġà¬ĵà¬°": 2044,
      "à¬Ńà¬¨": 2045,
      "àŃ±à¬°à¬Ļ": 2046,
      "à¬¤à¬Ĺ": 2047,
      "Ġà¬Ĩà¬ªà¬°": 2048,
      "Ġà¬ıà¬ķà¬¥": 2049,
      "àŃ±à¬¤": 2050,
      "à¬ŀà¬Ļ": 2051,
      "Ġà¬ķà¬ĩ": 2052,
      "Ġà¬¬à¬Ł": 2053,
      "à¬ľà¬¨à¬Ļ": 2054,
      "Ġà¬¦à¬¤": 2055,
      "ĠàŃŃàŃ©": 2056,
      "Ġà¬¸à¬ł": 2057,
      "à¬¬à¬°à¬Ĺà¬¡": 2058,
      "à¬¡à¬ªà¬°": 2059,
      "ĠàŃ§àŃ¨àŃ¦": 2060,
      "à¬®à¬®": 2061,
      "Ġà¬¦à¬°à¬°": 2062,
      "à¬¬à¬¦à¬ķ": 2063,
      "ĠàŃ¯àŃ¯": 2064,
      "à¬°à¬¡à¬ķ": 2065,
      "à¬¸à¬«": 2066,
      "Ġà¬Ĺà¬Ńà¬°": 2067,
      "Ġà¬Ĩà¬¦à¬®": 2068,
      "Ġà¬ħà¬ĺà¬Łà¬£": 2069,
      "à¬Ĩà¬ĩà¬ıà¬¸": 2070,
      "à¬ħà¬¤": 2071,
      "à¬ħà¬Ł": 2072,
      "àŃ©àŃ©": 2073,
      "à¬ĩà¬¡à¬°": 2074,
      "à¬ıà¬ı": 2075,
      "Ġà¬ĵà¬¬": 2076,
      "à¬¿):": 2077,
      "à¬ĩà¬¥à¬°": 2078,
      "Ġà¬«à¬²": 2079,
      "àŃĩà¬¾)": 2080,
      "ĠàŃ¨àŃ¦àŃ§àŃ¦": 2081,
      "à¬¹à¬¬": 2082,
      "à¬¦à¬°à¬²": 2083,
      "Ġà¬Ĺà¬£à¬¶": 2084,
      "Ġà¬ĨàŃŁà¬¤": 2085,
      "Ġà¬¸à¬¹à¬°à¬¬": 2086,
      "Ġà¬ıà¬ķà¬ª": 2087,
      "Ġà¬¶à¬°à¬¦": 2088,
      "àŃŁà¬¶": 2089,
      "Ġà¬Ńà¬°à¬¤": 2090,
      "Ġà¬Ŀà¬Ĺà¬¡": 2091,
      "ĠàŃŃàŃ§": 2092,
      "à¬¡à¬¨à¬°": 2093,
      "à¬¼à¬¿à¬¿": 2094,
      "à¬Ĺà¬Ĺ": 2095,
      "à¬Ĩà¬°à¬¸": 2096,
      "à¬¾):": 2097,
      "Ġà¬Ĩà¬¹à¬¤à¬Ļ": 2098,
      "à¬ħà¬£": 2099,
      "à¬ķà¬Łà¬¤à¬°": 2100,
      "ĠàŃ¨àŃ¦àŃ¦àŃ®": 2101,
      "Ġà¬ķà¬®à¬°": 2102,
      "à¬Ĺà¬¦à¬°": 2103,
      "à¬Ĩà¬ł": 2104,
      "Ġà¬ķà¬®à¬³": 2105,
      "à¬°à¬£à¬¬": 2106,
      "à¬Ĩà¬¬à¬°": 2107,
      "Ġà¬ķà¬®à¬²": 2108,
      "à¬Ĩà¬ĩà¬Ĩà¬°": 2109,
      "àŃŁà¬¹": 2110,
      "Ġà¬²à¬¹": 2111,
      "ĠàŃ®àŃ®": 2112,
      "Ġà¬¨à¬¬à¬ľ": 2113,
      "à¬¨à¬¸à¬¨": 2114,
      "Ġà¬Ńà¬²à¬ª": 2115,
      "Ġà¬ıà¬¨à¬¡": 2116,
      "ĠàŃ®àŃ¬": 2117,
      "Ġà¬¬à¬¬": 2118,
      "Ġà¬ħà¬¥à¬¬": 2119,
      "à¬·à¬ľà¬®": 2120,
      "Ġ!": 2121,
      "àŃŁà¬¬à¬°": 2122,
      "ĠàŃ®àŃŃ": 2123,
      "ĠàŃŃàŃ¯": 2124,
      "à¬°à¬£àŃŁà¬¨": 2125,
      "à¬ĩà¬Ĺà¬°": 2126,
      "à¬¤à¬®à¬ª": 2127,
      "à¬ĩà¬®à¬¬": 2128,
      "à¬ĩà¬ķà¬°": 2129,
      "à¬¸à¬°à¬£": 2130,
      "à¬®à¬ľ": 2131,
      "ĠàŃ§àŃªàŃª": 2132,
      "à¬łà¬¤": 2133,
      "Ġà¬Ŀà¬Łà¬ķ": 2134,
      "Ġà¬¬à¬³à¬ķ": 2135,
      "ĠàŃ¬àŃ§": 2136,
      "à¬¨à¬ªà¬¤": 2137,
      "à¬ĩàŃ±": 2138,
      "àŃĩ)": 2139,
      "ĠàŃ®àŃª": 2140,
      "à¬¤à¬Ĺà¬¤": 2141,
      "Ġà¬Ĺà¬¹à¬³": 2142,
      "Ġà¬ıà¬¨à¬¸": 2143,
      "Ġà¬Ĺà¬°à¬®": 2144,
      "Ġà¬¸à¬°à¬¸": 2145,
      "Ġà¬ķà¬¨à¬·": 2146,
      "ĠàŃ¨àŃ«àŃ¦": 2147,
      "à¬¬à¬¦à¬³": 2148,
      "àŃĢ)": 2149,
      "à¬³à¬ªà¬¤": 2150,
      "Ġà¬¨à¬¬à¬®": 2151,
      "à¬°à¬ªà¬¡": 2152,
      "à¬²à¬¹": 2153,
      "à¬³àŃŁà¬Ĺ": 2154,
      "àŃĢ):": 2155,
      "àŃ¬àŃ«": 2156,
      "à¬ĩà¬²à¬°": 2157,
      "à¬¿;": 2158,
      "ĠàŃ§àŃ¦àŃ®": 2159,
      "àŃŁà¬¨à¬°": 2160,
      "ĠàŃ¯àŃŃ": 2161,
      "àŃ¯àŃ¦": 2162,
      "à¬ĭ": 2163,
      "Ġà¬Ĩà¬£à¬¬": 2164,
      "à¬ħà¬²": 2165,
      "à¬Ĺà¬¨àŃ±": 2166,
      "Ġà¬Ĩà¬Ł": 2167,
      "à¬Łà¬¡": 2168,
      "Ġà¬Ĩà¬łà¬®à¬²": 2169,
      "Ġà¬Ĺà¬¹à¬£": 2170,
      "à¬ľàŃŁà¬ª": 2171,
      "à¬«à¬³à¬¤": 2172,
      "à¬Ĩà¬ĸ": 2173,
      "à¬ĵà¬²": 2174,
      "ĠàŃ¯àŃ®": 2175,
      "à¬Ńà¬®": 2176,
      "àŃ±à¬ľ": 2177,
      "Ġà¬¨à¬ľà¬°à¬ķ": 2178,
      "Ġà¬ĸà¬ĩà¬°": 2179,
      "à¬Ľà¬ķ": 2180,
      "àŃŁà¬¦à¬°": 2181,
      "Ġà¬ıà¬ªà¬Ł": 2182,
      "Ġà¬Ĩà¬®à¬¨": 2183,
      "àŃ±à¬³": 2184,
      "àŃ±à¬¶": 2185,
      "àŃģ):": 2186,
      "à¬¶à¬ķà¬®": 2187,
      "Ġà¬ľàŃŁà¬¶à¬Ļ": 2188,
      "à¬¦àŃŁà¬°": 2189,
      "àŃªàŃ¯": 2190,
      "à¬ıà¬Ĩà¬ĩ": 2191,
      "Ġà¬ļà¬®à¬ķ": 2192,
      "à¬¹à¬¦": 2193,
      "àŃªàŃ¬": 2194,
      "à¬¤à¬°à¬ķà¬¨": 2195,
      "à¬ľà¬¶": 2196,
      "Ġà¬ķà¬²à¬°": 2197,
      "à¬¿)-": 2198,
      "à¬¨à¬¥": 2199,
      "à¬·à¬ª": 2200,
      "Ġà¬ıà¬¸à¬ª": 2201,
      "Ġà¬Ĺà¬ľ": 2202,
      "à¬¤à¬¶": 2203,
      "à¬Łà¬ļ": 2204,
      "Ġà¬°à¬ľà¬¨": 2205,
      "ĊĊ": 2206,
      "Ġà¬¯à¬¶": 2207,
      "à¬«à¬Ļ": 2208,
      "à¬Ĺà¬²à¬ķ": 2209,
      "à¬°à¬¸à¬°": 2210,
      "àŃ¨àŃ¦àŃ§àŃ¯": 2211,
      "à¬¸à¬«à¬°": 2212,
      "à¬ļà¬Ł": 2213,
      "à¬īà¬ļ": 2214,
      "à¬ªà¬¯": 2215,
      "àŃ¨àŃ¦àŃ¨àŃ¨": 2216,
      "àŃĢ/": 2217,
      "Ġà¬¸à¬°à¬³": 2218,
      "à¬²àŃ±": 2219,
      "à¬·à¬£à¬ķ": 2220,
      "Ġà¬¡à¬®": 2221,
      "ĠàŃ®àŃ¯": 2222,
      "Ġà¬Łà¬ķ": 2223,
      "à¬³à¬ªà¬¥": 2224,
      "àŃ©àŃ¯": 2225,
      "ĠàŃ¨àŃ¦àŃ¦àŃŃ": 2226,
      "àŃ¨àŃ¦àŃ¨àŃ¦": 2227,
      "à¬°à¬¥à¬®à¬°": 2228,
      "Ġà¬ľà¬Ĺà¬¤à¬¸": 2229,
      "à¬¨à¬ľà¬¨à¬ķ": 2230,
      "Ġà¬²à¬Ń": 2231,
      "àŃªàŃ¨": 2232,
      "àŃŁà¬Łà¬¨à¬¸": 2233,
      "Ġà¬ıà¬¸à¬®": 2234,
      "Ġà¬Ĩà¬ĵ": 2235,
      "à¬²à¬¬à¬°": 2236,
      "Ġà¬Ĺà¬¹": 2237,
      "à¬ķà¬ľ": 2238,
      "Ġà¬®à¬³": 2239,
      "ĠàŃ¯àŃ¬": 2240,
      "Ġà¬ħà¬¢": 2241,
      "Ġà¬²à¬¤": 2242,
      "Ġà¬²à¬³": 2243,
      "Ġà¬¸à¬®à¬²": 2244,
      "à¬ıà¬ĩ": 2245,
      "Ġà¬ıà¬ķà¬ľ": 2246,
      "à¬§à¬ª": 2247,
      "ĠàŃ®àŃ¨": 2248,
      "ĊĊĠĠ": 2249,
      "Ġà¬Ĺà¬®à¬¨": 2250,
      "à¬Ĩà¬¤": 2251,
      "Ġà¬Ńà¬°à¬£": 2252,
      "Ġà¬¹à¬¬": 2253,
      "Ġà¬°à¬ļà¬¨": 2254,
      "Ġà¬®à¬°à¬£": 2255,
      "à¬ļà¬Ļ": 2256,
      "Ġà¬®à¬¨à¬¸": 2257,
      "ĠàŃ®àŃ§": 2258,
      "Ġà¬Ĺà¬£à¬¬à¬³": 2259,
      "Ġà¬Ĩà¬Ĺà¬¤": 2260,
      "Ġà¬ĸà¬¡": 2261,
      "Ġà¬¨à¬¬à¬¨": 2262,
      "à¬ŃàŃŁ": 2263,
      "à¬ľàŃŁà¬Ļ": 2264,
      "à¬¼àŃĩà¥¤": 2265,
      "àŃ«àŃ¦àŃ¦": 2266,
      "Ġà¬¦à¬Ļ": 2267,
      "à¬¯à¬¦": 2268,
      "Ġà¬ħà¬¬à¬¤": 2269,
      "à¬°àŃŁà¬¸": 2270,
      "à¬¤à¬¸": 2271,
      "Ġà¬®à¬ĩ": 2272,
      "Ġà¬®à¬¨à¬ķ": 2273,
      "Ġà¬ĩà¬ľ": 2274,
      "Ġà¬ħà¬²à¬Ĩà¬īà¬Ł": 2275,
      "à¬ĺà¬®": 2276,
      "Ġà¬Ĩà¬ĩà¬¡": 2277,
      "Ġà¬Ĩà¬ĩà¬ľ": 2278,
      "à¬¡à¬ªà¬¤": 2279,
      "ĠàŃ®àŃ©": 2280,
      "Ġà¬¸à¬¹à¬Ń": 2281,
      "à¬Ŀà¬°à¬°": 2282,
      "Ġà¬®à¬¤à¬¬": 2283,
      "Ġà¬ħà¬¹à¬®à¬¦": 2284,
      "àŃ¨àŃ¦àŃ¨àŃ©": 2285,
      "àŃįâĢĮ-": 2286,
      "à¬°à¬¸à¬¬": 2287,
      "Ġà¬ľà¬³à¬ķ": 2288,
      "Ġà¬¦à¬¶à¬ķà¬°": 2289,
      "à¬Ĺà¬·": 2290,
      "Ġà¬°à¬ĸà¬¨": 2291,
      "ĠàŃ¨àŃ¦àŃ¦àŃª": 2292,
      "à¬ĩà¬Ńà¬°à¬Ļ": 2293,
      "Ġà¬®à¬¹à¬ķ": 2294,
      "Ġà¬®à¬Ĺ": 2295,
      "Ġà¬ķà¬²à¬®": 2296,
      "à¬ĩà¬ĸ": 2297,
      "ĠàŃ¯àŃ¨": 2298,
      "àŃŁà¬ľà¬¨": 2299,
      "à¬ļà¬²": 2300,
      "Ġà¬īà¬ªà¬²à¬ķ": 2301,
      "àŃŁà¬Łà¬ķà¬®": 2302,
      "Ġà¬¸à¬®àŃŁà¬ķ": 2303,
      "à¬ĵà¬Ĺ": 2304,
      "à¬¸à¬Ł": 2305,
      "à¬°à¬Ĺà¬¡": 2306,
      "à¬Łà¬ħà¬ª": 2307,
      "à¬¨à¬¹": 2308,
      "à¬®à¬ŀ": 2309,
      "àŃŁàŃŁà¬¨à¬°": 2310,
      "Ġà¬°à¬£à¬ľ": 2311,
      "Ġà¬°à¬¥à¬°": 2312,
      "ĠàŃ¯àŃª": 2313,
      "à¬ķà¬¹": 2314,
      "àŃŃàŃŃ": 2315,
      "à¬¤à¬ļà¬°": 2316,
      "à¬³à¬ľ": 2317,
      "Ġà¬«à¬¨": 2318,
      "Ġà¬¬à¬°à¬«": 2319,
      "Ġà¬ĩà¬¸à¬²": 2320,
      "Ġ...": 2321,
      "à¬¶à¬¨à¬°à¬Ļ": 2322,
      "Ġà¬ħà¬¸à¬²": 2323,
      "ĠàŃ¯àŃ§": 2324,
      "à¬²à¬¤à¬°": 2325,
      "Ġà¬¨à¬ľà¬°à¬°": 2326,
      "Ġà¬Ĩà¬¡à¬®": 2327,
      "Ġà¬ķà¬ļ": 2328,
      "Ġà¬Ĩà¬®à¬¤": 2329,
      "Ġà¬Ĩà¬°à¬¸": 2330,
      "Ġà¬¸à¬¶à¬¸": 2331,
      "àŃ¬àŃŃ": 2332,
      "à¬®à¬Ń": 2333,
      "Ġà¬ļà¬°à¬®": 2334,
      "à¬Ĩà¬ĩà¬ķ": 2335,
      "Ġà¬ªà¬ª": 2336,
      "Ġà¬ªà¬¦à¬¯": 2337,
      "àŃ¨àŃ¦àŃ¨àŃ§": 2338,
      "à¬¨à¬Ĺà¬°à¬°": 2339,
      "à¬²à¬°à¬®": 2340,
      "Ġà¬īà¬¦à¬ĺ": 2341,
      "à¬Łà¬®à¬°": 2342,
      "à¬ĺà¬¬à¬°": 2343,
      "àŃģ:": 2344,
      "à¬īà¬Ļ": 2345,
      "àŃ«àŃŃ": 2346,
      "Ġà¬ķà¬ªà¬¡": 2347,
      "Ġà¬ľà¬¨à¬Ĺà¬£à¬¨": 2348,
      "àŃŁà¬ľà¬³": 2349,
      "à¬ªà¬¬à¬¨": 2350,
      "Ġà¬Ĩà¬²à¬°": 2351,
      "à¬¨à¬²": 2352,
      "àŃŁà¬ķà¬°à¬£": 2353,
      "à¬Ĺà¬¨à¬Ĺà¬°": 2354,
      "à¬¨à¬¸à¬°": 2355,
      "Ġà¬Ĩà¬ªà¬£à¬®": 2356,
      "àŃ±à¬°à¬¸": 2357,
      "à¬¨à¬°à¬Ļ": 2358,
      "à¬®à¬¸à¬®à¬°": 2359,
      "àŃªàŃª": 2360,
      "àŃ¬àŃ®": 2361,
      "àŃŁà¬¥": 2362,
      "à¬¥à¬ķà¬Ļ": 2363,
      "à¬ľà¬¤à¬ķ": 2364,
      "à¬¡à¬ªà¬¡": 2365,
      "à¬īà¬¤à¬Ļ": 2366,
      "Ġà¬ħà¬ªà¬¬": 2367,
      "Ġà¬ĸà¬®": 2368,
      "Ġà¬Ŀà¬°": 2369,
      "à¬¹à¬²à¬Ł": 2370,
      "Ġà¬¤à¬²": 2371,
      "à¬¬à¬ªà¬°": 2372,
      "à¬·à¬¸": 2373,
      "Ġà¬Ĺà¬¹à¬®": 2374,
      "Ġà¬ľàŃŁà¬¦": 2375,
      "Ġà¬ķà¬¨à¬«à¬°": 2376,
      "àŃį:": 2377,
      "à¬ĵà¬®": 2378,
      "Ġà¬ľà¬³à¬¯": 2379,
      "à¬¬à¬Ł": 2380,
      "àŃĩà¬¾)-": 2381,
      "Ġà¬Ĺà¬ļ": 2382,
      "Ġà¬ħà¬¸à¬¦": 2383,
      "à¬Łà¬ĵ": 2384,
      "Ġà¬Ľà¬ķà¬ł": 2385,
      "Ġà¬ľà¬¨à¬ķ": 2386,
      "Ġà¬Ĩà¬ĩà¬ıà¬®": 2387,
      "à¬¸à¬Ĩà¬ª": 2388,
      "àŃŁàŃŁà¬¬à¬°": 2389,
      "à¬¥à¬ķà¬®": 2390,
      "à¬¸à¬ľ": 2391,
      "àŃ®àŃ«": 2392,
      "à¬¡à¬ĸà¬£": 2393,
      "ĠàŃ¬àŃ¦àŃ¦": 2394,
      "à¬°à¬ļà¬£": 2395,
      "à¬ıà¬ıà¬«": 2396,
      "Ġà¬«à¬ķ": 2397,
      "Ġà¬ıà¬ķà¬¨": 2398,
      "Ġà¬¦à¬°à¬¬": 2399,
      "Ġà¬¦à¬°à¬¦": 2400,
      "à¬Ĺà¬®à¬°": 2401,
      "in": 2402,
      "à¬ĵà¬¨": 2403,
      "ĠàŃ§àŃ¯àŃ¯àŃ¯": 2404,
      "Ġà¬ħà¬Łà¬³": 2405,
      "àŃ¯àŃ«": 2406,
      "ĠàŃ¯àŃ©": 2407,
      "Ġà¬ħà¬¥": 2408,
      "à¬ŁàŃ±": 2409,
      "à¬Ĺà¬ľà¬°": 2410,
      "Ġà¬ķà¬¸": 2411,
      "Ġà¬¦à¬®à¬ķ": 2412,
      "àŃ¯àŃ®": 2413,
      "à¬¾?": 2414,
      "à¬¬à¬²à¬®": 2415,
      "à¬ĩà¬ķà¬®": 2416,
      "à¬ıà¬¸à¬ª": 2417,
      "Ġà¬Ńà¬¸": 2418,
      "àŃªàŃ©": 2419,
      "Ġà¬īà¬ªà¬¬": 2420,
      "Ġà¬¤à¬°à¬³": 2421,
      "à¬¶àŃŁ": 2422,
      "Ġà¬®à¬¥": 2423,
      "à¬¤à¬ĸà¬¤": 2424,
      "à¬ľà¬Ń": 2425,
      "à¬¶à¬¯": 2426,
      "Ġà¬§à¬¸": 2427,
      "Ġà¬ĺà¬īà¬¡": 2428,
      "à¬Ĺà¬¬à¬¤": 2429,
      "à¬ªà¬ª": 2430,
      "àŃªàŃ§": 2431,
      "Ġà¬ľà¬³à¬Ńà¬£": 2432,
      "à¬¾;": 2433,
      "Ġà¬²à¬°": 2434,
      "à¬¿),": 2435,
      "à¬ķà¬¨à¬ªà¬¤": 2436,
      "à¬ħà¬ªà¬°à¬ªà¬ķ": 2437,
      "àŃŁà¬°à¬ŀ": 2438,
      "à¬£à¬¬à¬¤": 2439,
      "à¬¬à¬¸à¬®": 2440,
      "Ġà¬Łà¬£": 2441,
      "à¬°à¬ľà¬¨": 2442,
      "à¬ķà¬¸à¬®": 2443,
      "ĠàŃŃàŃ¦àŃ¦": 2444,
      "àŃģà¬ģà¥¤": 2445,
      "à¬ªà¬¸à¬¨": 2446,
      "à¬Ĩà¬Ł": 2447,
      "àŃ®àŃ®": 2448,
      "ĠàŃ¨àŃ¦àŃ¦àŃ«": 2449,
      "Ġà¬ķà¬¬à¬³à¬°": 2450,
      "àŃ¬àŃ¨": 2451,
      "ĠâĢľ": 2452,
      "à¬¸à¬¡": 2453,
      "àŃ¯àŃŃ": 2454,
      "à¬ªà¬ł": 2455,
      "à¬ıà¬ıà¬ª": 2456,
      "à¬¾âĢĻ,": 2457,
      "Ġà¬ķà¬¦à¬³": 2458,
      "à¬Ĩà¬ĩà¬ľ": 2459,
      "àŃįâĢĮâĢĻ": 2460,
      "à¬ķà¬«": 2461,
      "Ġà¬ķà¬°à¬£": 2462,
      "ĠàŃ§àŃ§àŃ¦": 2463,
      "Ġà¬Ŀà¬°à¬£": 2464,
      "à¬ªà¬°à¬¤": 2465,
      "à¬ħà¬·": 2466,
      "Ġà¬Ńà¬°à¬ª": 2467,
      "Ġà¬¦à¬¬": 2468,
      "Ġà¬ĩà¬¬": 2469,
      "à¬¥à¬¨à¬°": 2470,
      "à¬ıà¬Łà¬°": 2471,
      "à¬ªà¬¦à¬ķ": 2472,
      "Ġà¬¸à¬®àŃŁà¬¸": 2473,
      "à¬¨à¬ķà¬°": 2474,
      "Ġà¬ħà¬¥à¬°": 2475,
      "ĠàŃ§àŃªàŃ¦": 2476,
      "Ġà¬Ĩà¬ĩà¬Ĩà¬ĩà¬Ł": 2477,
      "à¬ķà¬°à¬£à¬ķ": 2478,
      "à¬¤à¬Ń": 2479,
      "ĠàŃ¨àŃ¦àŃ¦àŃ¬": 2480,
      "à¬īà¬ľ": 2481,
      "ĠI": 2482,
      "Ġà¬¸à¬°à¬Ĺà¬°à¬®": 2483,
      "à¬³à¬¬à¬°": 2484,
      "Ġà¬¹à¬°à¬®": 2485,
      "ĠàŃ§àŃ©àŃ¦": 2486,
      "Ġà¬¨à¬³": 2487,
      "à¬¨à¬¡": 2488,
      "Ġà¬Ĩà¬¬à¬£": 2489,
      "Ġà¬ľàŃŁà¬¸": 2490,
      "à¬¦à¬Ĺ": 2491,
      "Ġà¬®à¬¸à¬ľ": 2492,
      "à¬Ĩà¬°à¬ª": 2493,
      "à¬Ńà¬ķà¬°": 2494,
      "àŃ¬àŃ¬": 2495,
      "à¬¾/": 2496,
      "Ġà¬ľà¬³à¬¸à¬®": 2497,
      "à¬¤à¬°à¬ŀ": 2498,
      "Ġà¬ľà¬¨à¬ª": 2499,
      "à¬Ĺà¬¡à¬°": 2500,
      "à¬Ńà¬¸": 2501,
      "à¬¸à¬ł": 2502,
      "à¬³àŃŁà¬ł": 2503,
      "à¬ªà¬°à¬ł": 2504,
      "à¬¸à¬Ńà¬¬à¬¨": 2505,
      "à¬°à¬¨à¬Ĺà¬°": 2506,
      "Ġà¬ħà¬Łà¬ķà¬³": 2507,
      "àŃĢ...": 2508,
      "Ġà¬Ĩà¬Ĺà¬®à¬¨": 2509,
      "à¬ģà¬¿": 2510,
      "Ġà¬°à¬£à¬ª": 2511,
      "Ġà¬®à¬¦à¬¨": 2512,
      "Ġà¬Ľà¬¬": 2513,
      "à¬īà¬¸à¬°": 2514,
      "à¬°à¬¬à¬ķ": 2515,
      "à¬¹à¬ľà¬¨à¬ķ": 2516,
      "àŃ±àŃŁ": 2517,
      "àŃ«àŃ®": 2518,
      "à¬Ĩà¬°à¬ıà¬¸": 2519,
      "ĠàŃ¨àŃ¦àŃ¦àŃ©": 2520,
      "à¬¤à¬°à¬¦": 2521,
      "à¬¬à¬¨à¬¶": 2522,
      "àŃŁà¬¤à¬Ļ": 2523,
      "Ġà¬®à¬¹à¬ľ": 2524,
      "à¬®àŃŁà¬°": 2525,
      "Ġà¬®à¬¹à¬¨": 2526,
      "à¬¬à¬³à¬¤": 2527,
      "Ġà¬ħà¬¯à¬¥": 2528,
      "àŃ«àŃ¨": 2529,
      "Ġà¬Ĩà¬°à¬ķ": 2530,
      "Ġà¬ļà¬¹à¬²": 2531,
      "à¬¤à¬¬à¬¤": 2532,
      "à¬·à¬¬à¬°": 2533,
      "à¬ħà¬«": 2534,
      "Ġà¬Ĩà¬°à¬ľ": 2535,
      "Ġà¬¹à¬Ļ": 2536,
      "Ġà¬¶à¬ª": 2537,
      "%,": 2538,
      "Ġà¬¬à¬³à¬¬à¬¤": 2539,
      "àŃŁà¬°à¬Ļ": 2540,
      "Ġà¬¦à¬®à¬ķà¬³": 2541,
      "à¬¾!": 2542,
      "à¬ĺà¬ķ": 2543,
      "à¬¸à¬¨à¬Ļ": 2544,
      "Ġà¬°à¬¹à¬£": 2545,
      "Ġà¬Ĩà¬³à¬¤": 2546,
      "àŃ¬àŃ¯": 2547,
      "à¬ĸà¬®": 2548,
      "à¬łà¬®": 2549,
      "Ġà¬ľà¬Łà¬£": 2550,
      "Ġà¬¶à¬¬à¬°": 2551,
      "àŃĤàŃį": 2552,
      "Ġà¬Ĩà¬ľà¬®": 2553,
      "à¬·àŃŁà¬¬à¬¸": 2554,
      "Ġà¬ľà¬²": 2555,
      "à¬ģà¬¿à¥¤": 2556,
      "àŃ¦àŃŃ": 2557,
      "à¬ķà¬°à¬°": 2558,
      "àŃ§àŃ§àŃ": 2559,
      "àŃŁà¬ħà¬¤": 2560,
      "Ġà¬®à¬¸à¬²": 2561,
      "à¬ľà¬Ĺà¬¤": 2562,
      "à¬°à¬ķà¬ªà¬¤": 2563,
      "Ġà¬«à¬³à¬ķ": 2564,
      "àŃŁà¬¸à¬Ń": 2565,
      "à¬ĸà¬³à¬¨": 2566,
      "Ġà¬ħà¬¬à¬®": 2567,
      "Ġà¬ħà¬ªà¬²": 2568,
      "ĠàŃ§àŃ¨àŃ«": 2569,
      "Ġà¬ľàŃŁà¬°": 2570,
      "à¬¬à¬¨à¬¯": 2571,
      "Ġà¬¹à¬°à¬Ń": 2572,
      "ĠàŃ¨àŃ¦àŃ¦àŃ¨": 2573,
      "à¬ĩà¬īà¬ł": 2574,
      "à¬ªà¬¨à¬°": 2575,
      "ĠàŃ§àŃ¯àŃ¯àŃ¦": 2576,
      "Ġà¬¬à¬ľà¬°à¬Ļ": 2577,
      "à¬¶à¬³à¬°": 2578,
      "Ġà¬¦à¬®à¬¨": 2579,
      "à¬ļà¬¨à¬Ļ": 2580,
      "Ġà¬ħà¬¬à¬¨": 2581,
      "àŃ«àŃ¯": 2582,
      "àŃ¦àŃ®": 2583,
      "Ġà¬¬à¬¤": 2584,
      "Ġà¬īà¬ªà¬ķà¬£": 2585,
      "Ġà¬ıà¬¨à¬ıà¬¸": 2586,
      "à¬ķà¬Łà¬¬à¬°": 2587,
      "à¬°à¬ļà¬³à¬¨": 2588,
      "à¬Ĩà¬ĩà¬¬": 2589,
      "à¬Ĺà¬°à¬Ļ": 2590,
      "à¬ħà¬Ľ": 2591,
      "Ġà¬®à¬ķà¬°": 2592,
      "Ġà¬ªà¬Ľà¬ªà¬Ł": 2593,
      "Ġà¬·à¬¡à¬¯à¬¨": 2594,
      "à¬¿/": 2595,
      "à¬®à¬ł": 2596,
      "Ġà¬Ĩà¬³à¬°": 2597,
      "Ġà¬²à¬ķà¬¡": 2598,
      "Ġà¬Ľà¬¨": 2599,
      "àŃŃàŃ®": 2600,
      "Ġà¬łà¬ª": 2601,
      "à¬ªà¬¶à¬¨": 2602,
      "à¬ªà¬ªà¬¤": 2603,
      "à¬ģàŃģ": 2604,
      "Ġà¬ıà¬¤à¬¦": 2605,
      "ĠàŃ®àŃ¦àŃ¦": 2606,
      "à¬¡à¬°à¬Ļ": 2607,
      "Ġà¬Ńà¬ľà¬¨": 2608,
      "à¬¨à¬¤à¬®": 2609,
      "à¬¬à¬¸à¬¤": 2610,
      "à¬ªà¬°à¬¹": 2611,
      "àŃ«àŃ¬": 2612,
      "Ġà¬ıà¬¨à¬ķ": 2613,
      "àŃģ...": 2614,
      "Ġà¬ĵà¬ıà¬¸": 2615,
      "à¬Ĩà¬¸à¬¨": 2616,
      "à¬ĭà¬¤": 2617,
      "Ġà¬Ĭà¬¦": 2618,
      "à¬ªà¬°à¬°": 2619,
      "à¬ĺà¬¬": 2620,
      "à¬³à¬·": 2621,
      "à¬¹à¬®à¬¨": 2622,
      "Ġà¬ħà¬¥à¬ļ": 2623,
      "à¬Łà¬°à¬¸": 2624,
      "Ġà¬ĨàŃ±": 2625,
      "Ġà¬¤à¬ªà¬¨": 2626,
      "à¬¤à¬¨à¬ķ": 2627,
      "Ġà¬¹à¬¡": 2628,
      "ĠàŃ¨àŃ¦àŃ¨àŃ«": 2629,
      "à¬®à¬²à¬Ļ": 2630,
      "Ġà¬ľà¬³à¬ª": 2631,
      "ĠàŃ§àŃ®àŃ¦": 2632,
      "Ġà¬ļà¬Ł": 2633,
      "à¬ľà¬¤à¬°": 2634,
      "Ġà¬¦à¬¶à¬¹à¬°": 2635,
      "à¬ĩà¬ľà¬£à¬Ļ": 2636,
      "ĠàŃ©àŃ«àŃ¦": 2637,
      "Ġà¬īà¬ªà¬Ĺ": 2638,
      "Ġà¬¬à¬ĩà¬£": 2639,
      "à¬īà¬¨à¬°": 2640,
      "Ġà¬¨à¬¹": 2641,
      "à¬¬à¬°à¬®": 2642,
      "à¬ªà¬¦à¬¸à¬Ļ": 2643,
      "an": 2644,
      "Ġà¬ľà¬¹": 2645,
      "à¬¦à¬Ń": 2646,
      "Ġà¬¦à¬¹": 2647,
      "à¬°à¬£à¬¤à¬¨": 2648,
      "à¬īà¬¦àŃŁà¬Ĺ": 2649,
      "à¬°à¬ªà¬°": 2650,
      "à¬Ĺà¬Ł": 2651,
      "à¬Ĩà¬°à¬¡": 2652,
      "à¬²à¬ķà¬°à¬Ļ": 2653,
      "àŃŁà¬ł": 2654,
      "à¬¸à¬®à¬°": 2655,
      "Ġà¬ıà¬²à¬¨": 2656,
      "Ġà¬Ļ": 2657,
      "à¬°à¬¨à¬°": 2658,
      "Ġà¬ĸà¬ª": 2659,
      "àŃ¯àŃ¬": 2660,
      "ĠàŃ§àŃ§àŃ¨": 2661,
      "à¬¨à¬¦à¬£": 2662,
      "à¬¤à¬¤à¬¨": 2663,
      "Ġà¬ĩà¬ª": 2664,
      "à¬ľàŃŁà¬¨": 2665,
      "à¬¿à¬Ĥà¥¤": 2666,
      "ĠàŃ§àŃ¬àŃ¦": 2667,
      "à¬¸à¬ĵ": 2668,
      "à¬«à¬¨": 2669,
      "Ġà¬¯à¬ķ": 2670,
      "à¬¿!": 2671,
      "à¬²à¬Ĺà¬¡": 2672,
      "Ġà¬ħà¬®à¬²": 2673,
      "àŃ®àŃ©": 2674,
      "Ġà¬²à¬²": 2675,
      "Ġà¬Ĩà¬¹à¬¤à¬®": 2676,
      "Ġà¬®à¬®": 2677,
      "à¬°à¬¬à¬¤": 2678,
      "à¬³à¬®à¬¨": 2679,
      "Ġà¬¤à¬Ł": 2680,
      "à¬ĸà¬¬à¬°": 2681,
      "à¬¤à¬Ł": 2682,
      "à¬ħà¬¸": 2683,
      "à¬²à¬¸à¬°": 2684,
      "Ġà¬¯à¬ľ": 2685,
      "à¬¸à¬ķà¬°": 2686,
      "àŃ¦àŃ«": 2687,
      "à¬«à¬³à¬ķ": 2688,
      "à¬ĺà¬¡": 2689,
      "à¬łà¬¶": 2690,
      "à¬°à¬®à¬¶": 2691,
      "Ġà¬«à¬¡": 2692,
      "Ġà¬ªà¬¬à¬¨à¬°": 2693,
      "Ġà¬ħà¬ªà¬¡": 2694,
      "à¬¹à¬Ł": 2695,
      "Ġà¬¹à¬£": 2696,
      "Ġà¬ľà¬¨à¬¨": 2697,
      "àŃįàŃį": 2698,
      "à¬ĸà¬²à¬ķ": 2699,
      "Ġà¬¬à¬°à¬¦": 2700,
      "Ġà¬Ĺà¬¤à¬ķ": 2701,
      "à¬¨à¬ľ": 2702,
      "à¬ľà¬¤": 2703,
      "à¬¸àŃ±": 2704,
      "à¬īà¬ª": 2705,
      "Ġà¬Ŀà¬°à¬ķ": 2706,
      "Ġà¬ķà¬¨à¬ķ": 2707,
      "à¬ĩà¬°à¬¹": 2708,
      "à¬ıà¬ł": 2709,
      "à¬Ĩà¬ĩà¬ıà¬ļ": 2710,
      "à¬ĩà¬°à¬¨": 2711,
      "àŃ¬àŃª": 2712,
      "à¬¬à¬Ńà¬³": 2713,
      "à¬¼à¥¤": 2714,
      "àŃ¨àŃ¦àŃ¨àŃª": 2715,
      "Ġà¬ĵà¬Ńà¬°à¬¬": 2716,
      "à¬®à¬ĺ": 2717,
      "à¬¶à¬§à¬¨": 2718,
      "Ġà¬Ĩà¬°à¬¡": 2719,
      "à¬ķà¬Łà¬¤à¬®": 2720,
      "àŃģ(": 2721,
      "à¬ªà¬¤à¬°": 2722,
      "à¬ĩà¬ıà¬¸": 2723,
      "Ġà¬ªà¬¹à¬£": 2724,
      "à¬¬à¬³àŃŁ": 2725,
      "Ġà¬²à¬¸": 2726,
      "Ġà¬īà¬¹": 2727,
      "ĠàŃ¨àŃ¦àŃ¦àŃ§": 2728,
      "Ġà¬ĵà¬ľà¬¨à¬°": 2729,
      "Ġà¬ĩà¬¦": 2730,
      "Ġà¬®à¬ľà¬¬": 2731,
      "à¬²à¬¤à¬¬": 2732,
      "Ġà¬¤à¬£": 2733,
      "Ġà¬ħà¬ªà¬¹": 2734,
      "à¬ªà¬¦à¬ª": 2735,
      "Ġà¬ķà¬¤": 2736,
      "Ġà¬²à¬¡": 2737,
      "ĠàŃ§àŃ«àŃ¦àŃ¦": 2738,
      "à¬ıà¬ªà¬°": 2739,
      "Ġà¬Ĩà¬¬à¬¦": 2740,
      "à¬¶à¬¹à¬°": 2741,
      "à¬Ĩà¬ĩà¬ıà¬²": 2742,
      "Ġà¬ķà¬¦": 2743,
      "Ġà¬¤à¬ªà¬¸": 2744,
      "à¬¤à¬ļ": 2745,
      "Ġà¬ªà¬ĸ": 2746,
      "àŃ¬àŃ©": 2747,
      "à¬Ĩà¬¶": 2748,
      "ĠàŃ§àŃ§àŃ«": 2749,
      "à¬ķà¬¦": 2750,
      "àŃ±à¬¯": 2751,
      "à¬«à¬²": 2752,
      "Ġà¬ħà¬¦à¬³": 2753,
      "Ġà¬¸à¬¨à¬°": 2754,
      "Ġà¬¨à¬Ĺà¬°à¬°": 2755,
      "à¬²à¬¹à¬¡": 2756,
      "à¬Łà¬ł": 2757,
      "Ġà¬¯à¬®": 2758,
      "àŃ®àŃŃ": 2759,
      "à¬¾âĢĻà¥¤": 2760,
      "à¬īà¬Ĺ": 2761,
      "à¬¾),": 2762,
      "à¬¬à¬¤à¬Ł": 2763,
      "Ġà¬Ĩà¬ĩà¬¨à¬¶": 2764,
      "à¬¬à¬ªà¬¤": 2765,
      "à¬¯à¬°": 2766,
      "Ġà¬Ĩà¬¸à¬¬": 2767,
      "à¬¶à¬¶": 2768,
      "àŃ«àŃ©": 2769,
      "Ġà¬Ĩà¬Ĺà¬§": 2770,
      "à¬¥à¬¯": 2771,
      "àŃ«àŃ§": 2772,
      "à¬¿à¬ģ:": 2773,
      "àŃ¯àŃª": 2774,
      "Ġà¬ľà¬¨à¬¬à¬¸à¬¤": 2775,
      "Ġà¬Ĩà¬°à¬Ł": 2776,
      "Ġà¬¬à¬³à¬Ńà¬¦": 2777,
      "Ġà¬ļà¬³à¬¨": 2778,
      "àŃ«àŃª": 2779,
      "à¬®à¬Ĺà¬¡": 2780,
      "Ġà¬¬à¬³à¬¦": 2781,
      "à¬²à¬²à¬¹à¬¡": 2782,
      "à¬¦à¬¦": 2783,
      "Ġà¬¬à¬°à¬£": 2784,
      "à¬ļà¬ķà¬°": 2785,
      "àŃŃàŃ¨": 2786,
      "à¬·à¬¥à¬°": 2787,
      "Ġà¬¨à¬ķà¬°": 2788,
      "à¬Ńà¬ª": 2789,
      "à¬ĸà¬²à¬°": 2790,
      "à¬ıà¬ĩà¬°": 2791,
      "àŃŁà¬®àŃŁ": 2792,
      "Ġà¬ĸà¬¤": 2793,
      "ĠàŃ§àŃ¦àŃ¨": 2794,
      "à¬®à¬¸à¬¨": 2795,
      "à¬¨à¬¬à¬°": 2796,
      "à¬¬à¬®à¬¨": 2797,
      "à¬²à¬ł": 2798,
      "Ġà¬ªà¬¤à¬¨": 2799,
      "Ġà¬¬à¬Ľ": 2800,
      "à¬ĸà¬¥": 2801,
      "à¬Ĩà¬ªà¬£": 2802,
      "à¬Ĩà¬ĩà¬¡": 2803,
      "à¬Łà¬¦": 2804,
      "àŃ¬àŃ§": 2805,
      "à¬·à¬¨": 2806,
      "à¬Łà¬°à¬ª": 2807,
      "à¬Ĥ-": 2808,
      "à¬·à¬ł": 2809,
      "Ġà¬ħà¬¸à¬®à¬°": 2810,
      "à¬ľà¬£à¬ķ": 2811,
      "à¬°à¬ľà¬°": 2812,
      "à¬Ĩà¬°à¬°": 2813,
      "Ġà¬Ŀà¬²à¬ķ": 2814,
      "à¬·à¬¬": 2815,
      "Ġà¬¬à¬¶": 2816,
      "Ġà¬®àŃŁà¬Ļ": 2817,
      "à¬ªà¬°à¬Ń": 2818,
      "Ġà¬ĩàŃŁà¬°": 2819,
      "Ġà¬¬à¬¸à¬·": 2820,
      "Ġà¬Ĩà¬°à¬ª": 2821,
      "à¬Ĩà¬ĩà¬Ļ": 2822,
      "à¬¸à¬¬à¬ķ": 2823,
      "àŃŃàŃ¯": 2824,
      "àŃ¨àŃ¦àŃ§àŃ®": 2825,
      "àŃĩà¬¾à¥¤": 2826,
      "Ġà¬ľà¬¨à¬¶": 2827,
      "Ġà¬¨à¬Ĺ": 2828,
      "à¬¨à¬°à¬°": 2829,
      "Ġà¬ļà¬ªà¬²": 2830,
      "Ġà¬²à¬ĸ": 2831,
      "Ġà¬«à¬³à¬ª": 2832,
      "à¬ĩà¬¹": 2833,
      "à¬³à¬ķà¬£": 2834,
      "Ġà¬ħà¬®à¬³à¬°": 2835,
      "à¬ķà¬¸à¬¨": 2836,
      "à¬Ńà¬Ĺ": 2837,
      "à¬¨à¬¯": 2838,
      "à¬¬à¬¨à¬Ļ": 2839,
      "Ġà¬ļà¬³à¬ļà¬ŀ": 2840,
      "Ġà¬ļàŃŁà¬¨à¬ķà¬°": 2841,
      "à¬¸à¬®à¬¸": 2842,
      "à¬·à¬Ĺ": 2843,
      "à¬«à¬Ł": 2844,
      "\\.": 2845,
      "à¬¸à¬°à¬®": 2846,
      "à¬ľàŃŁà¬ķ": 2847,
      "à¬ĩà¬ĩ": 2848,
      "àŃ±à¬¸à¬¨": 2849,
      "à¬Ĺà¬łà¬¨à¬Ĺ": 2850,
      "à¬ĩà¬°à¬¸à¬°": 2851,
      "à¬ľà¬¦": 2852,
      "ĠàŃ§àŃ¦àŃ«": 2853,
      "à¬°à¬ľà¬¨à¬¨": 2854,
      "à¬²à¬¤à¬Ļ": 2855,
      "ĠàŃ§àŃ¦àŃª": 2856,
      "à¬Ĩà¬¨à¬¨": 2857,
      "Ġà¬ªà¬¥à¬°à¬°": 2858,
      "à¬ĩà¬ªà¬°": 2859,
      "Ġà¬¹à¬³": 2860,
      "Ġà¬¨à¬¬à¬ķ": 2861,
      "à¬°à¬¤à¬¬à¬°": 2862,
      "Ġà¬¸à¬Ł": 2863,
      "Ġà¬¸à¬¡à¬ķ": 2864,
      "à¬¬à¬°à¬¤": 2865,
      "Ġà¬ħà¬ıà¬²": 2866,
      "Ġà¬·à¬£": 2867,
      "àŃ¦àŃ§": 2868,
      "ĠàŃ§àŃ§àŃª": 2869,
      "à¬Ĩà¬«": 2870,
      "à¬¨àŃŁà¬°": 2871,
      "ĠàŃ§àŃ¯àŃ¯àŃ¬": 2872,
      "à¬ĩà¬«à¬²": 2873,
      "Ġà¬ķà¬¬à¬°": 2874,
      "Ġà¬®à¬ķà¬¦": 2875,
      "à¬¸à¬¨à¬Ĺà¬°": 2876,
      "àŃ¯àŃ¨": 2877,
      "à¬¸à¬²à¬°": 2878,
      "à¬¹à¬°à¬²": 2879,
      "à¬ĩà¬¡à¬²": 2880,
      "Ġà¬¦à¬īà¬¡": 2881,
      "à¬Ĺà¬łà¬¨à¬ķ": 2882,
      "à¬ĸà¬¡": 2883,
      "Ġà¬ļà¬ŀ": 2884,
      "ĠàŃ§àŃ¯àŃ¯àŃ¨": 2885,
      "à¬²à¬·": 2886,
      "Ġà¬¨à¬Ł": 2887,
      "Ġà¬ĹàŃŁ": 2888,
      "Ġà¬ľà¬¨à¬¸à¬®": 2889,
      "ĠàŃ§àŃ¦àŃ§": 2890,
      "ĠàŃ§àŃ¦àŃ¬": 2891,
      "à¬¬à¬³à¬Ļ": 2892,
      "ĠàŃ§àŃ¯àŃ¯àŃ®": 2893,
      "ĠàŃ§àŃ¯àŃ®àŃ¦": 2894,
      "à¬¨à¬¨à¬°": 2895,
      "à¬£à¬¦": 2896,
      "Ġà¬Ľà¬ħ": 2897,
      "à¬°à¬¸à¬®": 2898,
      "Ġà¬®à¬¤à¬Ń": 2899,
      "à¬°à¬Łà¬°": 2900,
      "à¬³à¬§": 2901,
      "à¬ķà¬®à¬°": 2902,
      "Ġà¬ĩà¬Ļ": 2903,
      "Ġà¬²à¬¹à¬°à¬°": 2904,
      "Ġà¬¬à¬°à¬¯": 2905,
      "ĠàŃ§àŃŃàŃ¦": 2906,
      "Ġà¬°à¬¤à¬¨": 2907,
      "à¬ħà¬¸à¬®": 2908,
      "à¬ľà¬ķà¬Ļ": 2909,
      "ĠC": 2910,
      "Ġà¬ªà¬°à¬ľà¬Ļ": 2911,
      "à¬ĩà¬Ĺà¬£": 2912,
      "à¬īà¬®": 2913,
      "à¬°à¬Ľ": 2914,
      "Ġà¬ķà¬°à¬ŀ": 2915,
      "Ġà¬ľà¬³à¬ĸ": 2916,
      "Ġà¬Ĺà¬Ľà¬ķ": 2917,
      "àŃŁà¬¶à¬¸": 2918,
      "à¬ıà¬ķà¬Ļ": 2919,
      "Ġ)": 2920,
      "à¬ĩà¬®à¬£": 2921,
      "Ġà¬Ĩà¬°à¬¤": 2922,
      "Ġà¬«à¬¤": 2923,
      "Ġà¬®à¬łà¬°": 2924,
      "àŃ±à¬ļ": 2925,
      "Ġà¬ıà¬¸à¬¡": 2926,
      "à¬ļà¬³à¬Ĺ": 2927,
      "àŃ¯àŃ§": 2928,
      "à¬®à¬ªà¬ŀ": 2929,
      "à¬ķà¬ħà¬ª": 2930,
      "à¬¤à¬¸à¬¨": 2931,
      "à¬®à¬ķà¬°à¬£": 2932,
      "àŃ¯àŃ©": 2933,
      "ĠàŃ§àŃ¯àŃ¯àŃ«": 2934,
      "Ġà¬Łà¬³": 2935,
      "ĠàŃ§àŃ§àŃŃ": 2936,
      "à¬¥à¬²": 2937,
      "àŃ¦àŃ¨": 2938,
      "ĠàŃ§àŃ¦àŃŃ": 2939,
      "à¬ĺà¬°à¬ķ": 2940,
      "Ġ/": 2941,
      "à¬¦à¬¸": 2942,
      "Ġà¬¸à¬¹à¬ķà¬°": 2943,
      "à¬°à¬¹à¬ķ": 2944,
      "à¬ĩà¬°à¬Ļ": 2945,
      "à¬£àŃŁ": 2946,
      "Ġà¬¬à¬¦à¬¨": 2947,
      "à¬¦à¬¤": 2948,
      "Ġà¬¬à¬§": 2949,
      "à¬Ńà¬°à¬¸": 2950,
      "à¬ĵà¬ıà¬¸": 2951,
      "à¬®à¬¡": 2952,
      "à¬³à¬®à¬£": 2953,
      "à¬£à¬¹": 2954,
      "à¬ĩà¬²à¬Łà¬Ļ": 2955,
      "Ġà¬Ńà¬²à¬Ń": 2956,
      "ĠàŃ§àŃ§àŃ©": 2957,
      "Ġà¬ªà¬°à¬ĸ": 2958,
      "à¬°à¬¬à¬³à¬°": 2959,
      "à¬¾à¬¾": 2960,
      "à¬Ĺà¬ªà¬¤": 2961,
      "Ġà¬ħà¬¦à¬³à¬¬à¬¦à¬³": 2962,
      "à¬¡à¬ł": 2963,
      "Ġà¬ĵà¬ľ": 2964,
      "Ġà¬ĸà¬ŀ": 2965,
      "à¬ĩà¬ĵà¬Ļ": 2966,
      "à¬§à¬°à¬£à¬°": 2967,
      "àŃŃàŃ©": 2968,
      "à¬ĩà¬²à¬ķ": 2969,
      "Ġà¬ķà¬°à¬¬": 2970,
      "à¬Ńà¬¡": 2971,
      "à¬§à¬¸": 2972,
      "à¬«à¬£": 2973,
      "à¬ħà¬¹": 2974,
      "Ġà¬ĵàŃŁ": 2975,
      "ĠàŃ§àŃ¦àŃ©": 2976,
      "à¬ıà¬¸à¬Ł": 2977,
      "à¬ķà¬²à¬®": 2978,
      "Ġà¬ħà¬£à¬¸": 2979,
      "à¬ľà¬ĵ": 2980,
      "Ġà¬°à¬®à¬£": 2981,
      "Ġà¬Ľà¬ª": 2982,
      "Ġà¬ªà¬ĩà¬ł": 2983,
      "à¬°à¬«à¬¦": 2984,
      "Ġà¬ķà¬Ńà¬°": 2985,
      "à¬¶à¬ļ": 2986,
      "Ġà¬¨à¬¤": 2987,
      "Ġà¬¯à¬¶à¬ª": 2988,
      "Ġà¬ħà¬ĸà¬£": 2989,
      "à¬ıà¬Ļ": 2990,
      "Ġà¬ĸà¬ľ": 2991,
      "à¬ªà¬ķà¬Ļ": 2992,
      "à¬ĵàŃŁ": 2993,
      "àŃŃàŃ§": 2994,
      "à¬ıà¬¨à¬¸": 2995,
      "Ġà¬Ĺà¬Ĺà¬¨": 2996,
      "à¬ĩà¬¨à¬¥": 2997,
      "àŃįâĢĮ...": 2998,
      "à¬®à¬®à¬¨": 2999,
      "à¬¦à¬°à¬Ļ": 3000,
      "ĠàŃ¨àŃ¦àŃ©àŃ¦": 3001,
      "Ġà¬ľà¬¨à¬Ĺà¬¹à¬³": 3002,
      "Ġà¬°à¬¬à¬°": 3003,
      "àŃŁà¬¨à¬Ĺà¬°": 3004,
      "à¬°à¬®à¬¹": 3005,
      "Ġà¬¦à¬³à¬Ļ": 3006,
      "ĠàŃ§àŃ©àŃ«": 3007,
      "Ġà¬ľà¬³à¬®à¬Ĺ": 3008,
      "Ġà¬¹à¬°à¬Ńà¬ľà¬¨": 3009,
      "à¬¹à¬¨à¬Ļ": 3010,
      "Ġà¬¤à¬°à¬¬à¬°": 3011,
      "Ġà¬ĸà¬°à¬¸": 3012,
      "ww": 3013,
      "Ġà¬¬à¬ĸ": 3014,
      "àŃ±à¬°à¬ķ": 3015,
      "à¬¦à¬¨à¬ª": 3016,
      "Ġà¬īà¬¦àŃŁ": 3017,
      "à¬ķà¬Łà¬ª": 3018,
      "à¬Ĺà¬£à¬¤": 3019,
      "à¬¨àŃŁà¬¨à¬®": 3020,
      "à¬²à¬ļ": 3021,
      "Ġà¬¸à¬®à¬ķà¬ķ": 3022,
      "à¬¬à¬¨à¬¸": 3023,
      "Ġà¬¸à¬¹à¬°à¬Ĺ": 3024,
      "àŃį),": 3025,
      "Ġà¬Ĩà¬łà¬Ĺà¬¡": 3026,
      "er": 3027,
      "ĠàŃ§àŃ¯àŃ¯àŃ§": 3028,
      "à¬Łà¬¤": 3029,
      "Ġà¬¦à¬¶à¬°": 3030,
      "Ġà¬ıà¬ķà¬ļ": 3031,
      "Ġà¬¬à¬ĸà¬°": 3032,
      "Ġà¬²à¬¬": 3033,
      "à¬¨à¬ĸ": 3034,
      "àŃŁà¬Ĺà¬¤": 3035,
      "Ġà¬°à¬¨à¬ķà¬°": 3036,
      "à¬Łà¬Ł": 3037,
      "à¬¸à¬ŀ": 3038,
      "à¬Ĩà¬¨à¬Ļ": 3039,
      "àŃ®àŃ§": 3040,
      "àŃ®àŃ¬": 3041,
      "Ġà¬¬à¬Ľà¬°": 3042,
      "àŃŃàŃ¬": 3043,
      "à¬ĸà¬°à¬ª": 3044,
      "Ġà¬¶à¬¤à¬ķà¬¡": 3045,
      "Ġà¬¨à¬ĵ": 3046,
      "ĠàŃ§àŃ¯àŃ¯àŃŃ": 3047,
      "à¬³à¬ł": 3048,
      "à¬³à¬ķà¬°": 3049,
      "à¬Ĺà¬«": 3050,
      "à¬ļà¬Ĺ": 3051,
      "à¬¶à¬Ĺà¬¡à¬°": 3052,
      "Ġà¬¬à¬ħ": 3053,
      "Ġà¬ĩà¬¥": 3054,
      "à¬¿**": 3055,
      "Ġà¬ļà¬ª": 3056,
      "à¬ıà¬ĵ": 3057,
      "àŃ®àŃª": 3058,
      "à¬¹à¬°à¬Ļ": 3059,
      "ĠàŃ«àŃ¦àŃ¦àŃ¦": 3060,
      "Ġà¬¸à¬°à¬ŀ": 3061,
      "Ġà¬¦à¬¶à¬ªà¬²": 3062,
      "Ġà¬²à¬Ł": 3063,
      "Ġà¬īà¬¸": 3064,
      "is": 3065,
      "Ġà¬īà¬¦àŃŁà¬ª": 3066,
      "*,": 3067,
      "Ġà¬Ĩà¬·": 3068,
      "Ġà¬ĵà¬ıà¬®": 3069,
      "Ġà¬¬à¬ļà¬¸": 3070,
      "à¬³à¬ķà¬®": 3071,
      "Ġà¬Ĩà¬ĩà¬ķ": 3072,
      "Ġà¬¶à¬®": 3073,
      "àŃ§àŃ¦àŃ¦": 3074,
      "à¬ħà¬¶": 3075,
      "Ġà¬ĩà¬ĵ": 3076,
      "Ġà¬®à¬¨à¬ĩà¬ļ": 3077,
      "Ġà¬¬à¬°à¬ª": 3078,
      "àŃ®àŃ¨": 3079,
      "Ġà¬Ńà¬²à¬°": 3080,
      "à¬ıà¬Ńà¬³": 3081,
      "à¬ĩà¬¨à¬¸": 3082,
      "à¬¬à¬ĩà¬£": 3083,
      "Ġà¬¬à¬°à¬ķ": 3084,
      "Ġà¬·à¬¡à¬Ļ": 3085,
      "à¬®à¬§à¬¨": 3086,
      "Ġà¬Ĺà¬łà¬¨à¬°": 3087,
      "à¥¤âĢĻ": 3088,
      "àŃį/": 3089,
      "Ġà¬¨à¬ħ": 3090,
      "à¬Ńà¬ŀ": 3091,
      "à¬Ĩà¬ī": 3092,
      "ĠàŃ©àŃ¦àŃ¦àŃ¦": 3093,
      "à¬ľà¬ķà¬¨": 3094,
      "Ġà¬Ĩà¬ĩà¬ıà¬¨": 3095,
      "àŃŁà¬¨à¬Ļ": 3096,
      "Ġà¬¦àŃŁà¬¨": 3097,
      "àŃ®àŃ¯": 3098,
      "à¬¦à¬°à¬ª": 3099,
      "à¬ĩà¬¨à¬ķ": 3100,
      "à¬ħà¬ľ": 3101,
      "Ġà¬«à¬¸à¬²à¬°": 3102,
      "àŃĩ;": 3103,
      "à¬ħà¬¹à¬®": 3104,
      "ĠàŃ§àŃ§àŃ¯": 3105,
      "à¬¿à¥¤âĢĻ": 3106,
      "àŃŁà¬¤à¬¬": 3107,
      "à¬²à¬ķà¬¤": 3108,
      "à¬ħà¬ŃàŃŁ": 3109,
      "à¬¬à¬¹à¬¤": 3110,
      "Ġà¬ªà¬°à¬¶": 3111,
      "à¬®à¬¥": 3112,
      "Ġà¬ıà¬ıà¬¨": 3113,
      "Ġà¬ħà¬¨à¬¸": 3114,
      "Ġà¬Ńà¬Ĺà¬¤": 3115,
      "à¬®à¬¦à¬Ļ": 3116,
      "Ġà¬Ńà¬Ĺà¬¬à¬¤": 3117,
      "à¬īà¬ªà¬°": 3118,
      "Ġà¬īà¬ªà¬°à¬®": 3119,
      "à¬¦àŃŁà¬Ļ": 3120,
      "à¬¤à¬Ľà¬¡": 3121,
      "à¬·àŃŁà¬Ļ": 3122,
      "Ġà¬ĩà¬Ľ": 3123,
      "à¬ľà¬¸à¬ľ": 3124,
      "à¬ķà¬§": 3125,
      "Ġà¬ıà¬¬à¬°": 3126,
      "à¬Ĺà¬Ĺà¬¤": 3127,
      "Ġà¬¨àŃ±": 3128,
      "à¬¼àŃĢ,": 3129,
      "à¬·à¬ķà¬¤": 3130,
      "à¬°à¬ĺà¬Ł": 3131,
      "à¬®à¬ĸ": 3132,
      "ar": 3133,
      "àŃ¦àŃ©": 3134,
      "Ġà¬īà¬¦à¬³": 3135,
      "à¬§à¬¬à¬Ļ": 3136,
      "à¬³à¬ªà¬¥à¬°": 3137,
      "Ġà¬ľà¬Ĺà¬¬à¬¨": 3138,
      "àŃŃàŃª": 3139,
      "à¬¤à¬¹": 3140,
      "Ġà¬ħà¬ªà¬¸": 3141,
      "Ġà¬Ĩà¬²à¬®": 3142,
      "on": 3143,
      "à¬ªà¬¸à¬°": 3144,
      "Ġà¬ĸà¬³": 3145,
      "àŃªàŃ¦àŃ¦": 3146,
      "Ġà¬§à¬¨à¬ľ": 3147,
      "à¬ķà¬²à¬°": 3148,
      "à¬ļà¬¬": 3149,
      "àŃ±à¬³à¬¨": 3150,
      "àŃŁà¬¬à¬¶à¬¤": 3151,
      "Ġà¬ľà¬³à¬¬à¬¨": 3152,
      "àŃį):": 3153,
      "ĠàŃ§àŃ§àŃ®": 3154,
      "à¬ªà¬Ĺà¬¡": 3155,
      "à¬¦à¬°à¬ķ": 3156,
      "Ġà¬¤à¬¡": 3157,
      "àŃ±à¬¹": 3158,
      "à¬¾àŃĩàŃĸ": 3159,
      "à¬¹à¬Ĺ": 3160,
      "à¬ĸà¬¸": 3161,
      "Ġà¬ıà¬Ń": 3162,
      "àŃ¦àŃª": 3163,
      "Ġà¬¬à¬¨à¬¸": 3164,
      "à¬ĩà¬²à¬ĸ": 3165,
      "à¬¨à¬¤à¬¤": 3166,
      "Ġà¬īà¬®à¬°à¬ķ": 3167,
      "à¬īà¬ĩà¬ķ": 3168,
      "àŃ¦àŃ¯": 3169,
      "à¬°à¬ķà¬®": 3170,
      "à¬Łà¬°à¬Ł": 3171,
      "à¬Ńà¬¬à¬ªà¬°": 3172,
      "à¬²à¬¦à¬£": 3173,
      "Ġà¬ªà¬§": 3174,
      "à¬ıà¬¸à¬¨": 3175,
      "à¬ķà¬¶à¬¨": 3176,
      "à¬·à¬£à¬Ļ": 3177,
      "àŃĩ!": 3178,
      "à¬ķà¬³à¬°": 3179,
      "à¬£à¬¤à¬°": 3180,
      "à¬ľà¬ľ": 3181,
      "à¬ıà¬¶à¬¨à¬°": 3182,
      "à¬ħà¬¹à¬®à¬¦": 3183,
      "àŃ¦àŃ¬": 3184,
      "Ġà¬ħà¬ªà¬ª": 3185,
      "à¬²à¬¥": 3186,
      "à¬Ĺà¬¨à¬°": 3187,
      "Ġà¬¦à¬°à¬ĸ": 3188,
      "Ġà¬ĩà¬¨à¬«": 3189,
      "Ġà¬ĺà¬Łà¬Ĺ": 3190,
      "àŃŁà¬£à¬Ļ": 3191,
      "Ġà¬Ĩà¬ĩà¬Ĩà¬°": 3192,
      "à¬ªà¬¶à¬¨à¬°": 3193,
      "àŃŁà¬¯à¬¨": 3194,
      "à¬Ńà¬§": 3195,
      "à¬łà¬Ļ": 3196,
      "%)": 3197,
      "à¬¦à¬³à¬°": 3198,
      "Ġà¬ħà¬¨à¬°": 3199,
      "à¬Ńà¬²à¬ªà¬®": 3200,
      "Ġà¬«à¬Ļ": 3201,
      "Ġà¬Ĩà¬ĩà¬«": 3202,
      "à¬¿âĢĻà¥¤": 3203,
      "Ġà¬ħà¬ĺ": 3204,
      "Ġà¬«à¬°à¬ķ": 3205,
      "à¬ıà¬¸à¬¸": 3206,
      "Ġà¬Ńà¬°à¬¤à¬ª": 3207,
      "à¬Ľà¬§à¬°": 3208,
      "Ġà¬Ľà¬ªà¬°": 3209,
      "Ġà¬Ķà¬·à¬§à¬°": 3210,
      "Ġà¬¯à¬¶à¬¸": 3211,
      "à¬ıà¬®à¬ķ": 3212,
      "à¬¨à¬¬à¬°à¬Ļ": 3213,
      "Ġà¬ħà¬ł": 3214,
      "Ġà¬ļà¬·à¬®": 3215,
      "à¬§à¬°à¬Ļ": 3216,
      "àŃ¨àŃ¦àŃ§àŃŃ": 3217,
      "Ġà¬«à¬³à¬¸": 3218,
      "àŃ±à¬Ļ": 3219,
      "à¬Ĩà¬ĩà¬ıà¬ıà¬¨": 3220,
      "Ġà¬Ľà¬Łà¬ªà¬Ł": 3221,
      "Ġà¬¤à¬°à¬Ń": 3222,
      "Ġà¬¸à¬¹à¬¦": 3223,
      "ĠàŃ§àŃ¯àŃ¯àŃ©": 3224,
      "ĠàŃ§àŃ§àŃ¬": 3225,
      "àŃŁà¬ľà¬£": 3226,
      "Ġà¬ļà¬³à¬ª": 3227,
      "àŃŁà¬¥à¬°": 3228,
      "**-": 3229,
      "ĠàŃ§àŃ¯àŃ¯àŃª": 3230,
      "à¬ķà¬ļ": 3231,
      "à¬¤à¬¥": 3232,
      "à¬ľà¬¨à¬¶": 3233,
      "à¬ĩà¬ıà¬®": 3234,
      "à¬ĩà¬ķà¬°à¬£": 3235,
      "à¬Ĺà¬Ľ": 3236,
      "à¬®à¬ĺà¬Ł": 3237,
      "ĠàŃ§àŃªàŃŃ": 3238,
      "à¬¿à¬¾": 3239,
      "à¬łà¬Ń": 3240,
      "à¬ĺà¬¨à¬ķ": 3241,
      "ĠàŃ§àŃ§àŃ§": 3242,
      "Ġà¬ıà¬Ńà¬°": 3243,
      "à¬µ": 3244,
      "Ġà¬Ĩà¬ĩà¬°à¬¨": 3245,
      "à¬¹à¬¨à¬°": 3246,
      "à¬ļà¬³à¬ª": 3247,
      "à¬ªà¬£à¬°": 3248,
      "à¬łà¬ķà¬ķ": 3249,
      "à¬ļàŃŁà¬ªà¬¤": 3250,
      "Ġà¬¹à¬°à¬®à¬¨à¬ª": 3251,
      "Ġà¬¸àŃŁà¬¦": 3252,
      "ĠàŃ¨àŃ¨àŃ¦": 3253,
      "àŃŁà¬®à¬¸à¬¨": 3254,
      "à¬¬à¬³à¬°": 3255,
      "Ġà¬¸à¬¬à¬¸": 3256,
      "Ġà¬¤à¬³à¬°": 3257,
      "à¬Ĺà¬¤à¬¯": 3258,
      "à¬¦à¬ĺ": 3259,
      "Ġà¬ľà¬¨à¬¸à¬¨": 3260,
      "Ġà¬ķà¬®à¬¨": 3261,
      "Ġà¬ħà¬§à¬°": 3262,
      "Ġà¬ľà¬¬à¬°à¬¦à¬ĸà¬²à¬ķ": 3263,
      "or": 3264,
      "à¬ĩà¬Ĩà¬°": 3265,
      "à¬ħà¬¯": 3266,
      "à¬¾**": 3267,
      "à¬¸à¬ªà¬°": 3268,
      "à¬ľà¬°à¬Ń": 3269,
      "ĠàŃ§àŃ¯àŃ®àŃª": 3270,
      "Ġà¬ĵà¬Ŀ": 3271,
      "à¬³àŃŁà¬Ļ": 3272,
      "à¬¥à¬³à¬Ń": 3273,
      "Ġà¬Ĩà¬ªà¬²": 3274,
      "à¬¡à¬§": 3275,
      "Ġà¬®à¬¦à¬°": 3276,
      "ĠàŃ¯àŃ¦àŃ¦": 3277,
      "Ġà¬°à¬¥à¬ķ": 3278,
      "Ġà¬Ĩà¬ĸà¬¡": 3279,
      "à¬¦à¬¨à¬Ĺà¬°": 3280,
      "à¬°à¬¹à¬£à¬ķ": 3281,
      "ĠA": 3282,
      "à¬Ĺà¬ļ": 3283,
      "àŃģàŃį": 3284,
      "à¬Ľà¬ª": 3285,
      "Ġà¬ĵà¬·": 3286,
      "à¬ĩà¬ľà¬°à¬²": 3287,
      "à¬³à¬£": 3288,
      "à¬³à¬Ń": 3289,
      "Ġà¬«à¬¡à¬¨": 3290,
      "à¬²à¬ķà¬ķ": 3291,
      "à¬¤à¬¤à¬®": 3292,
      "at": 3293,
      "Ġà¬¨à¬Łà¬°": 3294,
      "à¬¬à¬¨à¬¬": 3295,
      "ĠàŃªàŃ«àŃ¦": 3296,
      "Ġà¬ıà¬«à¬Ĩà¬ĩà¬Ĩà¬°": 3297,
      "à¬°à¬¤à¬®": 3298,
      "Ġà¬°à¬¹à¬¨": 3299,
      "Ġà¬Ĩà¬°à¬ıà¬¸": 3300,
      "Ġà¬¸à¬¹à¬ª": 3301,
      "ĠàŃ§àŃ¨àŃ¦àŃ¦": 3302,
      "ĠàŃ§àŃŃàŃ«": 3303,
      "Ġà¬ļà¬®à¬¡": 3304,
      "Ġà¬¬à¬°à¬®": 3305,
      "Ġà¬ħà¬¸à¬°": 3306,
      "à¬°à¬¦à¬¤": 3307,
      "à¬Ĺà¬£à¬®": 3308,
      "ĠàŃ§àŃ¯àŃ®àŃ®": 3309,
      "Ġà¬ıà¬¨à¬°": 3310,
      "ĠàŃ§àŃ¯àŃ®àŃ«": 3311,
      "Ġà¬®à¬ĩà¬³": 3312,
      "à¬Łà¬¬à¬£": 3313,
      "à¬ĸà¬ĩà¬°": 3314,
      "Ġà¬ıà¬Ĩà¬ĩà¬¸": 3315,
      "à¬Łà¬°à¬Ĺ": 3316,
      "à¬¨àŃŁà¬ķ": 3317,
      "à¬¶à¬Ľ": 3318,
      "Ġà¬¤à¬ķ": 3319,
      "à¬ıà¬¸à¬ķ": 3320,
      "ĠàŃ§àŃªàŃ«": 3321,
      "à¬·à¬ľà¬¨à¬ķ": 3322,
      "Ġà¬ļà¬¹à¬°": 3323,
      "ĠàŃ§àŃ¯àŃ®àŃ©": 3324,
      "Ġà¬¸à¬®à¬¤": 3325,
      "Ġà¬ıà¬¬à¬ķ": 3326,
      "Ġà¬¬à¬¡à¬¬": 3327,
      "Ġà¬Ĩà¬ĩà¬ıà¬«": 3328,
      "Ġà¬Ńà¬°à¬¦": 3329,
      "à¬¼à¬¾à¥¤": 3330,
      "ĠàŃ§àŃ¯àŃŃàŃ§": 3331,
      "Ġà¬¡à¬·": 3332,
      "Ġà¬¬à¬Łà¬²à¬°": 3333,
      "Ġà¬Ĩà¬ıà¬ľ": 3334,
      "à¬ĺà¬°à¬°": 3335,
      "à¬°à¬¹à¬²": 3336,
      "Ġà¬ĸà¬¦": 3337,
      "ĠàŃ§àŃ¨àŃ§": 3338,
      "Ġà¬Ńà¬¬à¬¨à¬ł": 3339,
      "à¬ķà¬°à¬¨": 3340,
      "Ġà¬§à¬®": 3341,
      "àŃ¨àŃ¦àŃ§àŃ¬": 3342,
      "Ġà¬¬àŃŁà¬¨": 3343,
      "à¬¦à¬¶à¬°": 3344,
      "Ġà¬¨à¬Ī": 3345,
      "Ġà¬¥à¬ķ": 3346,
      "ĠàŃ§àŃ¨àŃ¨": 3347,
      "àŃŁà¬¯": 3348,
      "Ġà¬ħà¬¤à¬°": 3349,
      "à¬ħà¬°à¬¬": 3350,
      "à¬¤à¬³à¬Ńà¬£": 3351,
      "à¬²à¬ªà¬¡": 3352,
      "à¬ľà¬·": 3353,
      "Ġà¬ĩà¬Ĩà¬¡": 3354,
      "à¬ĵà¬ı": 3355,
      "àŃįâĢĻà¥¤": 3356,
      "Ġà¬¬à¬³àŃŁ": 3357,
      "à¬¿)à¥¤": 3358,
      "à¬§à¬¨à¬ķ": 3359,
      "à¬Ĩà¬ĩà¬Ń": 3360,
      "Ġà¬Ĺà¬¡à¬ķà¬°": 3361,
      "ĠS": 3362,
      "à¬ķà¬Ń": 3363,
      "Ġà¬ķà¬°à¬¤": 3364,
      "ĠàŃ§àŃ¨àŃª": 3365,
      "à¬¬à¬¦à¬¤": 3366,
      "à¬¿âĢĻ,": 3367,
      "Ġà¬ħà¬Ĺà¬£": 3368,
      "à¬ľà¬Ĺà¬¤à¬°": 3369,
      "ĠàŃ§àŃ¯àŃ®àŃ¯": 3370,
      "Ġà¬ķà¬³à¬ķ": 3371,
      "à¬ľà¬°à¬®": 3372,
      "Ġà¬°à¬¡": 3373,
      "à¬Ĺà¬³à¬ª": 3374,
      "Ġà¬ĵà¬ıà¬ıà¬¸": 3375,
      "Ġà¬ıà¬ķà¬Ľà¬¤": 3376,
      "à¬ªà¬ķà¬®": 3377,
      "Ġà¬ħà¬ªà¬¹à¬ŀ": 3378,
      "Ġà¬ķà¬¢": 3379,
      "à¬¸à¬°à¬Ń": 3380,
      "à¬°à¬§à¬°": 3381,
      "Ġà¬°à¬¥à¬Ļ": 3382,
      "es": 3383,
      "à¬²à¬ĸà¬®": 3384,
      "à¬¿à¬ģ?": 3385,
      "ĠàŃ¨àŃªàŃ¦": 3386,
      "à¬ĸà¬ł": 3387,
      "ĠàŃ§àŃ¨àŃ®": 3388,
      "Ġà¬Ĺà¬ª": 3389,
      "Ġà¬ķà¬³à¬Ļ": 3390,
      "al": 3391,
      "en": 3392,
      "àŃŁà¬¦à¬ķ": 3393,
      "à¬ļà¬°à¬°": 3394,
      "Ġà¬°à¬£à¬¦": 3395,
      "à¬ĩà¬¶": 3396,
      "à¬·à¬°à¬¤": 3397,
      "à¬ħà¬Ĺ": 3398,
      "Ġà¬ıà¬®à¬°": 3399,
      "Ġà¬¹à¬¸à¬°": 3400,
      "à¬Ńà¬¬à¬Ļ": 3401,
      "Ġà¬ªà¬Ľà¬ĺ": 3402,
      "à¬®à¬ªà¬¨": 3403,
      "à¬¦à¬¨à¬Ļ": 3404,
      "Ġà¬ķà¬¡à¬°": 3405,
      "à¬ħà¬Ĺà¬·": 3406,
      "à¬¨à¬«": 3407,
      "à¬Ĩà¬§": 3408,
      "à¬ĩà¬·": 3409,
      "à¬°à¬®à¬¥": 3410,
      "Ġà¬«à¬ĩà¬¸à¬²": 3411,
      "Ġà¬ĸà¬¬à¬°à¬°": 3412,
      "àŃŁà¬£à¬ª": 3413,
      "Ġà¬°à¬«": 3414,
      "ĠàŃ§àŃ¯àŃŃàŃ¦": 3415,
      "à¬¬à¬²à¬°": 3416,
      "à¬¡à¬ĵ": 3417,
      "à¬¸à¬®àŃŁ": 3418,
      "Ġà¬ĩà¬ĵà¬¡à¬¬": 3419,
      "Ġà¬ıà¬ıà¬«": 3420,
      "ĠàŃ§àŃ¦àŃ¯": 3421,
      "à¬®à¬¹à¬®": 3422,
      "Ġà¬ĺà¬¸": 3423,
      "à¬ªà¬ĺà¬°": 3424,
      "à¬¦à¬ķà¬°": 3425,
      "Ġà¬¹à¬°à¬ª": 3426,
      "Ġà¬¢à¬³": 3427,
      "Ġà¬ĺà¬ŀ": 3428,
      "Ġà¬¡à¬¨": 3429,
      "à¬¸à¬ħà¬ª": 3430,
      "àŃ±à¬°à¬ŀ": 3431,
      "Ġà¬ħà¬ĸà¬¤à¬°": 3432,
      "Ġà¬ľà¬³à¬¨": 3433,
      "Ġà¬Łà¬ıà¬²": 3434,
      "Ġà¬Ĩà¬®à¬ª": 3435,
      "à¬Ĩà¬°à¬¬": 3436,
      "Ġà¬Ĺà¬Ľà¬Ĺ": 3437,
      "à¬ľà¬ķà¬®": 3438,
      "à¬ıà¬¸à¬ıà¬«": 3439,
      "à¬Ńà¬Ł": 3440,
      "à¬Ĩà¬ªà¬¦": 3441,
      "Ġà¬¶à¬¤à¬ª": 3442,
      "à¬¤à¬²à¬°": 3443,
      "à¬²à¬ĸ": 3444,
      "Ġà¬¤à¬¹": 3445,
      "à¬ıà¬²à¬ķ": 3446,
      "Ġà¬ħà¬¨à¬¶à¬¨": 3447,
      "à¬ľà¬Ńà¬¬à¬¨": 3448,
      "à¬¡à¬°à¬¸à¬¨": 3449,
      "à¬łà¬¸": 3450,
      "àŃ±àŃŁà¬Ļ": 3451,
      "à¬ķà¬ĺà¬°": 3452,
      "à¬¬à¬£à¬°": 3453,
      "à¬ªà¬°à¬®": 3454,
      "Ġà¬ĩà¬¨à¬¸": 3455,
      "Ġà¬īà¬¦àŃŁà¬Ĺ": 3456,
      "Ġà¬Ĩà¬ĩà¬ķà¬¨": 3457,
      "Ġà¬ķà¬¬à¬³": 3458,
      "à¬¸à¬¹à¬°": 3459,
      "à¬¥à¬¸": 3460,
      "à¬¬à¬¸à¬ķ": 3461,
      "à¬²à¬Łà¬°": 3462,
      "Ġà¬ªà¬ĵ": 3463,
      "à¬ģà¬¾,": 3464,
      "Ġà¬¬à¬¨à¬®": 3465,
      "Ġà¬ıà¬ķà¬°à¬°": 3466,
      "à¬ķà¬ķà¬³": 3467,
      "à¬²à¬Łà¬¨": 3468,
      "Ġà¬ĨàŃŁà¬ķ": 3469,
      "Ġà¬¶à¬¹à¬°": 3470,
      "à¬²à¬®à¬°": 3471,
      "ĠàŃ§àŃ©àŃ¨": 3472,
      "à¬ķà¬¸à¬¦": 3473,
      "Ġ+": 3474,
      "à¬Ĺà¬Ń": 3475,
      "à¬ľà¬°à¬°": 3476,
      "à¥¤âĢľ": 3477,
      "à¬·à¬ªà¬¤": 3478,
      "à¬ľàŃ±": 3479,
      "à¬¡à¬¤": 3480,
      "à¬¶à¬ķà¬°": 3481,
      "Ġà¬ľà¬¸à¬ª": 3482,
      "à¬ļà¬ķà¬¤": 3483,
      "à¬ıà¬Ń": 3484,
      "Ġà¬ĸà¬¨": 3485,
      "à¬°à¬¬à¬ļ": 3486,
      "à¬Łà¬¬à¬²à¬°": 3487,
      "Ġà¬¨àŃŁà¬¨": 3488,
      "à¬ħà¬¬": 3489,
      "ĠàŃ§àŃ¯àŃ®àŃ¬": 3490,
      "ic": 3491,
      "à¬¤à¬ķà¬®": 3492,
      "Ġà¬ªà¬Łà¬°": 3493,
      "Ġà¬¤à¬ªà¬¤": 3494,
      "à¬¬à¬¨à¬ľ": 3495,
      "à¬ĵà¬ľ": 3496,
      "àŃŁà¬¶à¬Ļ": 3497,
      "à¬¹à¬³à¬°": 3498,
      "à¬¡à¬°à¬ķ": 3499,
      "à¬ĺà¬¸": 3500,
      "à¬¨à¬ĵ": 3501,
      "à¬·à¬¯": 3502,
      "à¬ªà¬³": 3503,
      "Ġà¬¸à¬°à¬¬à¬°": 3504,
      "à¬¾à¬ģà¥¤": 3505,
      "Ġà¬¨à¬¬à¬°": 3506,
      "Ġà¬¥à¬Ł": 3507,
      "à¬Łà¬°à¬«": 3508,
      "Ġà¬Ĩà¬ľà¬¬": 3509,
      "à¬Ľà¬³": 3510,
      "Ġà¬¤à¬°à¬ķ": 3511,
      "Ġà¬¤à¬³à¬®": 3512,
      "Ġà¬ĵà¬³": 3513,
      "à¬¤à¬¨à¬Ł": 3514,
      "Ġà¬§à¬¨à¬ŀ": 3515,
      "Ġà¬ªà¬£à¬¸": 3516,
      "à¬Ńà¬ł": 3517,
      "Ġà¬¤à¬²à¬¬": 3518,
      "à¬«à¬¤": 3519,
      "ĠàŃ§àŃ©àŃ§": 3520,
      "Ġà¬¶à¬¹à¬¶à¬¹": 3521,
      "Ġà¬Ĺà¬¹à¬£à¬°": 3522,
      "Ġà¬ªà¬°à¬«": 3523,
      "Ġà¬Ŀà¬¨": 3524,
      "à¬ģ):": 3525,
      "Ġà¬ĺà¬°à¬Ł": 3526,
      "ĠàŃ§àŃ¯àŃªàŃŃ": 3527,
      "Ġà¬ľà¬Ĺà¬®": 3528,
      "Ġà¬¡à¬Ł": 3529,
      "Ġà¬ħà¬£à¬¨": 3530,
      "àŃįà¬¿": 3531,
      "àŃĩ..": 3532,
      "à¬Ľà¬Ļ": 3533,
      "Ġà¬Ĩà¬ĩà¬¬": 3534,
      "àŃŁà¬¨à¬ķ": 3535,
      "Ġà¬¦à¬³à¬®": 3536,
      "àŃŁà¬Łà¬¨à¬°": 3537,
      "ĠàŃ§àŃ«àŃ©": 3538,
      "Ġà¬¸à¬¦à¬³": 3539,
      "à¬¹à¬Ń": 3540,
      "Ġà¬ķà¬ıà¬¨": 3541,
      "à¬¡à¬Ń": 3542,
      "ĠàŃ§àŃ¨àŃ¬": 3543,
      "à¬Ĩà¬ķà¬°": 3544,
      "ĠàŃ§àŃ¬àŃ«": 3545,
      "à¬°à¬ķà¬Ļ": 3546,
      "Ġà¬ıà¬®à¬ıà¬¸": 3547,
      "à¬¤à¬¬à¬¹": 3548,
      "à¬¾à¬ĥ": 3549,
      "à¬°à¬¶à¬°": 3550,
      "à¬ľà¬¨à¬Ĺà¬°à¬°": 3551,
      "ĠU": 3552,
      "à¬ķà¬¬à¬°": 3553,
      "Ġà¬¬à¬°à¬ĸ": 3554,
      "./": 3555,
      "à¬ªà¬¢": 3556,
      "Ġà¬ĸà¬Ĺ": 3557,
      "ĠàŃ§àŃ«àŃ«": 3558,
      "à¬¹à¬¯": 3559,
      "Ġà¬¨à¬¬à¬¦": 3560,
      "à¬°à¬²à¬°": 3561,
      "ĠàŃ§àŃ¯àŃŃàŃ«": 3562,
      "Ġà¬¸à¬¦à¬³à¬¬à¬³": 3563,
      "Ġà¬ļà¬¡": 3564,
      "ĠàŃ§àŃ¨àŃ©": 3565,
      "à¬¡àŃ±": 3566,
      "Ġà¬ľà¬¨à¬®à¬¤": 3567,
      "à¬¸à¬°à¬¸": 3568,
      "ĠàŃ§àŃ¯àŃ«àŃ¦": 3569,
      "à¬Ńà¬°à¬°": 3570,
      "Ġà¬ľà¬¨à¬¸à¬ļ": 3571,
      "Ġà¬¨à¬Ĺà¬°à¬ª": 3572,
      "à¬¨à¬®à¬£": 3573,
      "àŃ±à¬²": 3574,
      "à¬Ŀà¬¡": 3575,
      "ĠàŃ§àŃ¨àŃŃ": 3576,
      "ĠàŃ§àŃªàŃ¯": 3577,
      "Ġà¬¬à¬īà¬³": 3578,
      "Ġà¬īà¬ļà¬°": 3579,
      "Ġà¬¨à¬®à¬¸": 3580,
      "à¬®à¬ļà¬³": 3581,
      "à¬Ĩà¬°à¬ıà¬«": 3582,
      "à¬ķà¬Łà¬²": 3583,
      "Ġà¬¹à¬²à¬°": 3584,
      "Ġà¬īà¬ªà¬ļ": 3585,
      "à¬·à¬Ł": 3586,
      "Ġà¬ıà¬°à¬¸à¬®": 3587,
      "à¬īà¬ŃàŃŁ": 3588,
      "Ġà¬īà¬®à¬°": 3589,
      "à¬ıà¬Ĺ": 3590,
      "à¬Īà¬Ļ": 3591,
      "à¬ĸà¬°à¬Ļ": 3592,
      "à¬ªà¬°à¬Ļ": 3593,
      "àŃ±à¬°à¬ł": 3594,
      "àŃŁà¬¤à¬¸": 3595,
      "à¬®à¬¸à¬Ń": 3596,
      "à¬Łà¬¶": 3597,
      "Ġà¬°à¬®à¬¨": 3598,
      "à¬ħà¬®à¬°": 3599,
      "Ġà¬§à¬°à¬ªà¬Ĺà¬¡": 3600,
      "Ġà¬Ĩà¬°à¬¬à¬°": 3601,
      "à¬¸à¬°à¬¤": 3602,
      "Ġà¬ļà¬īà¬¡": 3603,
      "à¬īà¬¨à¬²": 3604,
      "à¬³à¬¬à¬£": 3605,
      "à¬ľà¬ł": 3606,
      "Ġà¬¸à¬¹à¬¸": 3607,
      "ĠàŃŁà¬¶": 3608,
      "à¬ıà¬«à¬ĵ": 3609,
      "à¬¤à¬Ĺà¬£à¬¤": 3610,
      "à¬·à¬¹": 3611,
      "à¬¼-": 3612,
      "àŃ®àŃ¦àŃ¦": 3613,
      "Ġà¬Ĩà¬ĩà¬ĵà¬¸": 3614,
      "Ġà¬ħà¬Łà¬ķà¬³à¬°": 3615,
      "ĠàŃ¨àŃ§àŃ¦": 3616,
      "à¬ıà¬¨à¬ı": 3617,
      "à¬£à¬ļ": 3618,
      "Ġà¬ıà¬·": 3619,
      "à¬ļà¬ª": 3620,
      "à¬ĸà¬¬": 3621,
      "Ġà¬ħà¬¬à¬ª": 3622,
      "à¬Ĺà¬¶": 3623,
      "Ġà¬°à¬¹à¬®": 3624,
      "ĠàŃ§àŃ¯àŃ¦": 3625,
      "Ġà¬ĭà¬£à¬°": 3626,
      "Ġà¬«à¬°à¬ĵ": 3627,
      "à¬°à¬ĺ": 3628,
      "Ġà¬¸à¬ķà¬°": 3629,
      "à¬°à¬Ńà¬Ļ": 3630,
      "Ġà¬ªà¬¤à¬ŀ": 3631,
      "ĠàŃ§àŃ¯àŃ®àŃŃ": 3632,
      "àŃ±à¬¤à¬¨": 3633,
      "à¬¨à¬°à¬ŀ": 3634,
      "Ġà¬§à¬°à¬£": 3635,
      "à¬Łà¬¨à¬®": 3636,
      "ĠàŃ§àŃ©àŃ®": 3637,
      "à¬Ńà¬®à¬¨": 3638,
      "àŃŁà¬®à¬Ĺ": 3639,
      "à¬¿.,": 3640,
      "Ġà¬¬àŃŁà¬«": 3641,
      "à¬ķà¬¡à¬°": 3642,
      "à¬°à¬¤à¬¨": 3643,
      "ĠàŃ§àŃ«àŃ§": 3644,
      "ĠàŃ§àŃ©àŃª": 3645,
      "à¬²à¬ķà¬¸": 3646,
      "à¬¬à¬ķà¬¨": 3647,
      "ĠàŃ§àŃªàŃ¨": 3648,
      "à¬°à¬ľà¬Ļ": 3649,
      "Ġ.": 3650,
      "à¬Ĺà¬ľà¬¨à¬ķ": 3651,
      "ĠàŃ¨àŃ©àŃ¦": 3652,
      "ĠàŃ§àŃ¯àŃŃàŃ¨": 3653,
      "à¬¶à¬³à¬ķ": 3654,
      "Ġà¬²à¬¶": 3655,
      "à¬ıà¬®à¬°": 3656,
      "àŃ±à¬®": 3657,
      "Ġà¬ĩà¬ıà¬¸": 3658,
      "à¬ıà¬¸à¬¬": 3659,
      "à¬¨à¬Ĺà¬¦": 3660,
      "Ġà¬¤à¬°à¬Ļ": 3661,
      "Ġà¬ĵà¬¦": 3662,
      "àŃĩ(": 3663,
      "à¬²àŃŁ": 3664,
      "Ġà¬¦à¬ĩà¬¤": 3665,
      "Ġà¬¤à¬ª": 3666,
      "à¬«à¬³à¬¨": 3667,
      "Ġà¬¬à¬¨à¬ª": 3668,
      "Ġà¬ħà¬®à¬Ļ": 3669,
      "ĠàŃ§àŃ¬àŃª": 3670,
      "à¬ľà¬®à¬¹à¬²": 3671,
      "th": 3672,
      "à¬¬à¬¤à¬°": 3673,
      "à¬Łà¬¬à¬¡": 3674,
      "à¬¡à¬Ł": 3675,
      "Ġà¬ĺà¬°à¬¦": 3676,
      "à¬¿à¬ģâĢĻ": 3677,
      "Ġà¬¨à¬°à¬ĵ": 3678,
      "à¬²à¬¡à¬¨": 3679,
      "àŃŁà¬ļ": 3680,
      "à¬Ĺà¬°à¬ķ": 3681,
      "ĠN": 3682,
      "à¬Ĩà¬²à¬°": 3683,
      "Ġà¬¡à¬Ĺ": 3684,
      "à¬ĺà¬¬à¬¦": 3685,
      "Ġà¬ıà¬¸à¬¸": 3686,
      "Ġà¬¬à¬³à¬ª": 3687,
      "Ġà¬ıà¬«à¬¸": 3688,
      "àŃģ.": 3689,
      "à¬Ĺà¬¹à¬£": 3690,
      "Ġà¬¹à¬¸à¬¨": 3691,
      "Ġà¬ªà¬°à¬°": 3692,
      "ĠàŃ¨àŃ«àŃ¦àŃ¦": 3693,
      "ĠàŃ§àŃ¯àŃ¬àŃ¦": 3694,
      "à¬ľà¬³à¬¸": 3695,
      "Ġà¬°à¬ľà¬¤": 3696,
      "à¬ªà¬¹": 3697,
      "à¬¶à¬Ń": 3698,
      "Ġà¬Ĩà¬ľà¬ķ": 3699,
      "ĠàŃ§àŃ©àŃ©": 3700,
      "àŃĩà¬¾(": 3701,
      "Ġà¬ĩà¬°à¬«": 3702,
      "ĠàŃ§àŃªàŃ¬": 3703,
      "à¬¶à¬¥": 3704,
      "à¬ĨàŃŁ": 3705,
      "Ġà¬ľà¬¨à¬¸à¬Ń": 3706,
      "à¬Łà¬Ń": 3707,
      "Ġà¬Ĺà¬¤à¬®": 3708,
      "Ġà¬ªà¬°à¬·": 3709,
      "à¬°à¬ĸà¬ª": 3710,
      "Ġà¬¬à¬¸à¬°": 3711,
      "Ġà¬¹à¬°à¬ķ": 3712,
      "à¬īà¬³à¬°": 3713,
      "ĠàŃ§àŃ¯àŃŃàŃ®": 3714,
      "à¬Ĩà¬«à¬Ĺ": 3715,
      "à¬¨à¬¶à¬¨": 3716,
      "à¬®à¬¨à¬Ļ": 3717,
      "àŃĢ**": 3718,
      "à¬Łà¬¸à¬°": 3719,
      "Ġà¬ıà¬ķà¬¬": 3720,
      "ĠàŃ§àŃ«àŃŃ": 3721,
      "ĠàŃ§àŃªàŃ®": 3722,
      "ĠàŃ§àŃ©àŃ¬": 3723,
      "Ġà¬Ńà¬ľ": 3724,
      "à¬¼à¬¾-": 3725,
      "àŃŁà¬®à¬£": 3726,
      "Ġà¬ħà¬®à¬°à¬¨": 3727,
      "ĠP": 3728,
      "Ġà¬Ķà¬°à¬Ļ": 3729,
      "àŃŁà¬ªà¬¨": 3730,
      "Ġà¬ķà¬³à¬¹": 3731,
      "Ġà¬ıà¬¨à¬«": 3732,
      "Ġà¬ķà¬³à¬¸": 3733,
      "ĠàŃ§àŃ©àŃŃ": 3734,
      "Ġà¬¹à¬Łà¬¹à¬Ł": 3735,
      "à¬ķà¬ļà¬°": 3736,
      "à¬·à¬§à¬°": 3737,
      "Ġà¬ķà¬°à¬¥": 3738,
      "à¬¦àŃŁà¬ķ": 3739,
      "à¬ıàŃŁ": 3740,
      "à¬ıà¬¬à¬°": 3741,
      "àŃ¨àŃ¦àŃ§àŃª": 3742,
      "Ġà¬ħà¬¬à¬¬": 3743,
      "ĠàŃ§àŃ«àŃ¬": 3744,
      "Ġà¬¦à¬¶à¬ķ": 3745,
      "Ġà¬¹à¬°à¬¦": 3746,
      "à¬°à¬¬à¬¦": 3747,
      "Ġà¬¸à¬¦à¬¨à¬°": 3748,
      "à¬¡à¬ķà¬°": 3749,
      "Ġà¬ªà¬°à¬ķ": 3750,
      "à¬°à¬¶à¬ķ": 3751,
      "Ġà¬īà¬¦àŃŁà¬¨": 3752,
      "Ġà¬Ĺà¬¤à¬¥à¬°": 3753,
      "Ġà¬¸à¬ªà¬¨": 3754,
      "Ġà¬ķà¬²à¬Ńà¬°": 3755,
      "à¬Ĩà¬ĩà¬ıà¬«": 3756,
      "Ġà¬ķà¬Łà¬ķà¬¸": 3757,
      "ĠàŃ§àŃªàŃ©": 3758,
      "à¬ķà¬¥à¬°": 3759,
      "Ġà¬īà¬§": 3760,
      "ĠàŃŃàŃ«àŃ¦": 3761,
      "Ġà¬ħà¬¦à¬°à¬ķ": 3762,
      "à¬ķà¬·": 3763,
      "à¬Łà¬¹": 3764,
      "àŃ¨àŃ¦àŃ§àŃ«": 3765,
      "à¬°à¬¹à¬£à¬°": 3766,
      "ĠàŃ§àŃ¯àŃ®àŃ¨": 3767,
      "à¬°à¬¬à¬¸": 3768,
      "Ġà¬ķà¬¨à¬¸": 3769,
      "Ġà¬ĵà¬ıà¬«": 3770,
      "àŃ±à¬°à¬ª": 3771,
      "Ġà¬®à¬°à¬¶à¬°": 3772,
      "à¬Ĺà¬®à¬¨à¬°": 3773,
      "Ġà¬ĺà¬¨à¬¶": 3774,
      "à¬¨à¬ķà¬Ļ": 3775,
      "ĠàŃ©àŃ¦àŃ¨": 3776,
      "Ġà¬®à¬īà¬³": 3777,
      "Ġà¬ħà¬¸à¬«à¬³": 3778,
      "à¬ıà¬®à¬ĵ": 3779,
      "à¬ĩà¬ĩà¬Ł": 3780,
      "à¬ªà¬¸à¬¨à¬°": 3781,
      "Ġà¬ĺà¬·": 3782,
      "Ġà¬ħà¬¤à¬ıà¬¬": 3783,
      "à¬¢à¬°": 3784,
      "à¬īà¬¥à¬°": 3785,
      "Ġà¬Ķà¬ªà¬ļ": 3786,
      "à¬£à¬Ĺ": 3787,
      "à¬ĹàŃŁ": 3788,
      "Ġà¬ħà¬²à¬Ł": 3789,
      "à¬Ĩà¬³à¬°": 3790,
      "Ġà¬Ĩà¬ķà¬¸": 3791,
      "à¬ªà¬Łà¬ª": 3792,
      "à¬¿à¬¼": 3793,
      "à¬°à¬ĸà¬°": 3794,
      "Ġà¬ľà¬¨à¬ķà¬²": 3795,
      "ha": 3796,
      "Ġà¬ĩàŃŁ": 3797,
      "Ġà¬īà¬¦à¬¬": 3798,
      "à¬¬à¬·": 3799,
      "à¬®à¬¯": 3800,
      "à¬Ĺà¬ľà¬ķ": 3801,
      "à¬¡à¬ªà¬ķ": 3802,
      "Ġà¬Ĺà¬§": 3803,
      "à¬®à¬¨à¬¬": 3804,
      "àŃŃàŃ¦àŃ¦": 3805,
      "ĠàŃ§àŃ©àŃ¯": 3806,
      "Ġà¬ĵà¬Ĩà¬°": 3807,
      "Ġà¬§à¬īà¬³": 3808,
      "à¬¤à¬ķà¬³": 3809,
      "à¬ªà¬¦à¬¬": 3810,
      "àŃŁàŃŁà¬¬à¬¹": 3811,
      "Ġà¬¸à¬ĸ": 3812,
      "à¥¥": 3813,
      "Ġà¬ķà¬°à¬Ľà¬¨": 3814,
      "à¬ļà¬ķà¬Ł": 3815,
      "à¬°à¬ķà¬ķ": 3816,
      "Ġà¬īà¬¤à¬ķ": 3817,
      "à¬Ŀà¬¨": 3818,
      "Ġà¬ķà¬ªà¬°": 3819,
      "àŃŁà¬°à¬ķ": 3820,
      "à¬Ńà¬²à¬ª": 3821,
      "Ġà¬¶à¬Ĺà¬¡": 3822,
      "Ġà¬ĺà¬°à¬Ĺ": 3823,
      "à¬®à¬¨à¬°": 3824,
      "Ġà¬¨à¬ĩ": 3825,
      "à¬Ĩà¬Ĺà¬¡": 3826,
      "à¬łà¬ķà¬Ļ": 3827,
      "Ġà¬ħà¬¤à¬¡": 3828,
      "à¬ĩà¬ļà¬ķ": 3829,
      "à¬£à¬ł": 3830,
      "à¬Ľà¬¬": 3831,
      "Ġà¬Ńà¬Łà¬²": 3832,
      "Ġà¬ªà¬°à¬¬": 3833,
      "à¬Łà¬°à¬Ń": 3834,
      "àŃ©àŃ¦àŃ¦": 3835,
      "à¬Ĺà¬²à¬ª": 3836,
      "Ġà¬ħà¬ľàŃŁà¬Ļ": 3837,
      "ĠàŃ§àŃ¯àŃ¬àŃ¨": 3838,
      "à¬·à¬®à¬ķ": 3839,
      "à¬ĵà¬Ĩà¬°": 3840,
      "à¬¨à¬¬à¬ľ": 3841,
      "à¬¤à¬¸à¬°": 3842,
      "à¬£à¬Ń": 3843,
      "Ġà¬Ĩà¬¸à¬¨à¬ķ": 3844,
      "à¬¿à¬Ĥ(": 3845,
      "Ġà¬Ńà¬°à¬£à¬ª": 3846,
      "à¬¨à¬¸à¬Ļ": 3847,
      "Ġà¬ĩà¬¨à¬Ń": 3848,
      "Ġà¬ıà¬²à¬ª": 3849,
      "à¬¸à¬ĺ": 3850,
      "à¬°à¬¬à¬£à¬¤": 3851,
      "ĠàŃ§àŃ®àŃ«": 3852,
      "Ġà¬³": 3853,
      "àŃŁà¬¬à¬¨": 3854,
      "à¬Ńà¬¶": 3855,
      "Ġà¬ĺà¬°à¬ł": 3856,
      "à¬Ĩà¬ªà¬¥à¬°": 3857,
      "àŃŁà¬¡": 3858,
      "àŃŁà¬ŀ": 3859,
      "Ġà¬ĺà¬°à¬¬": 3860,
      "Ġà¬ľà¬³à¬ªà¬¥": 3861,
      "à¬¤à¬Ńà¬£": 3862,
      "à¬Ĺà¬ĵ": 3863,
      "à¬¼à¬¿à¥¤": 3864,
      "àŃ±à¬ķà¬°": 3865,
      "%à¥¤": 3866,
      "Ġà¬ķà¬°à¬¯": 3867,
      "Ġà¬¸à¬¹à¬¨à¬¶": 3868,
      "à¬Ĩà¬°à¬ĩà¬ľ": 3869,
      "à¬°à¬¹à¬Ļ": 3870,
      "à¬ĩà¬Łà¬¨": 3871,
      "Ġà¬ħà¬¤à¬¨": 3872,
      "à¬§à¬¦": 3873,
      "à¬Ĩà¬ªà¬²": 3874,
      "Ġà¬ļà¬¹": 3875,
      "ĠàŃ¨àŃ¦àŃ§": 3876,
      "Ġà¬ľà¬¨à¬®": 3877,
      "à¬ıà¬¸à¬°": 3878,
      "à¬°à¬£à¬ª": 3879,
      "Ġà¬¸à¬°à¬ª": 3880,
      "Ġà¬¦à¬³à¬¬": 3881,
      "à¬Łà¬Ľ": 3882,
      "Ġà¬Ĩà¬Ńà¬°": 3883,
      "Ġà¬°à¬Ĺ": 3884,
      "à¬Ĩà¬°à¬ķ": 3885,
      "à¬¤à¬°à¬«": 3886,
      "Ġà¬§à¬¬à¬³": 3887,
      "à¬§à¬ķà¬°": 3888,
      "Ġà¬¹à¬¡à¬ª": 3889,
      "Ġà¬Ķà¬°": 3890,
      "à¬Ĩà¬®à¬°": 3891,
      "à¬ıà¬Ĩà¬°": 3892,
      "à¬ªà¬¦à¬¸": 3893,
      "Ġà¬īà¬²à¬Ĺ": 3894,
      "ĠàŃ§àŃ¬àŃ¬": 3895,
      "à¬¥à¬°à¬°": 3896,
      "Ġ%": 3897,
      "Ġà¬ħà¬³à¬ķ": 3898,
      "ĠàŃªàŃ¨àŃ¦": 3899,
      "à¬Ĩà¬ĩà¬Ĩà¬ĩ": 3900,
      "Ġà¬ıà¬¨à¬ľ": 3901,
      "ĠàŃ§àŃ«àŃ¨": 3902,
      "Ġà¬ķà¬¬à¬ľ": 3903,
      "Ġà¬ªà¬¸à¬°": 3904,
      "à¬¥à¬ªà¬°": 3905,
      "Ġà¬¦à¬¬à¬Ļ": 3906,
      "à¬¿à¬Ĥ:": 3907,
      "à¬¬à¬Ĺà¬¨": 3908,
      "à¬Ńà¬¬à¬¨": 3909,
      "Ġà¬ħà¬§à¬ĺà¬£": 3910,
      "Ġà¬ķà¬®à¬²à¬¨": 3911,
      "....": 3912,
      "ĠàŃ§àŃ¨àŃ¯": 3913,
      "à¬ıà¬ļà¬ĵ": 3914,
      "Ġà¬°à¬¥à¬ĸà¬³": 3915,
      "Ġà¬«à¬¸à¬²à¬ķ": 3916,
      "Ġà¬Ĩà¬Łà¬²": 3917,
      "Ġà¬Ńà¬ıà¬¸": 3918,
      "àŃ±à¬¬à¬°": 3919,
      "Ġà¬ĩà¬«": 3920,
      "ĠàŃ§àŃ¯àŃŃàŃŃ": 3921,
      "à¬²à¬¶": 3922,
      "Ġà¬¸à¬ĩà¬¨": 3923,
      "Ġà¬ıà¬¦": 3924,
      "à¬Ĺà¬ķà¬°": 3925,
      "à¬¿âĢľ": 3926,
      "à¬°à¬ļà¬¨": 3927,
      "à¬¤à¬ªà¬¨": 3928,
      "à¬ľà¬²à¬Ļ": 3929,
      "à¬Ĳ": 3930,
      "Ġà¬Ĩà¬¢": 3931,
      "Ġà¬¦à¬³à¬Ĺà¬¤": 3932,
      "Ġà¬Ŀà¬²à¬¸": 3933,
      "à¬ıà¬¤à¬¨": 3934,
      "à¬°à¬®à¬Ļ": 3935,
      "Ġà¬ıà¬ķà¬¤à¬°à¬«": 3936,
      "ĠàŃ§àŃ¬àŃ©": 3937,
      "à¬¸à¬Ńà¬¬à¬¨à¬ķ": 3938,
      "à¬ĭà¬£": 3939,
      "à¬ĩà¬Łà¬ķ": 3940,
      "à¬Ńà¬¤": 3941,
      "à¬ĸà¬°à¬°": 3942,
      "Ġà¬ħà¬¨à¬¶à¬¨à¬°": 3943,
      "à¬®à¬¨à¬ķ": 3944,
      "à¬¤à¬®à¬Ļ": 3945,
      "ĠàŃ§àŃªàŃ§": 3946,
      "à¬¦à¬ł": 3947,
      "à¬¶àŃŁà¬°": 3948,
      "à¬¶à¬Ĺà¬¤": 3949,
      "Ġà¬Ĩà¬¸à¬°": 3950,
      "Ġà¬¸àŃŁ": 3951,
      "à¬Łà¬Ĺà¬¡": 3952,
      "Ġà¬ıà¬ŀ": 3953,
      "Ġà¬ĵà¬ĵ": 3954,
      "à¬ķà¬°à¬ªà¬¡": 3955,
      "ĠàŃ§àŃ¬àŃ§": 3956,
      "à¬°à¬ıà¬¡": 3957,
      "Ġà¬ħà¬Ĺà¬¸": 3958,
      "Ġà¬ªà¬Ĺà¬¡": 3959,
      "à¬ªà¬Łà¬¨": 3960,
      "à¬ľà¬Ł": 3961,
      "Ġà¬¤à¬®à¬¨": 3962,
      "Ġà¬¶à¬¬à¬¦": 3963,
      "ĠàŃ¨àŃ§àŃ¨": 3964,
      "ĠàŃ§àŃ«àŃª": 3965,
      "ĠàŃ§àŃŃàŃª": 3966,
      "Ġà¬ķà¬ħ": 3967,
      "Ġà¬Ĺà¬£à¬§": 3968,
      "ĠB": 3969,
      "à¬®à¬°à¬ķ": 3970,
      "àŃŁà¬²à¬Ļ": 3971,
      "Ġà¬®à¬¨à¬ª": 3972,
      "Ġà¬ªà¬¤à¬³": 3973,
      "à¬¡à¬³à¬®à¬£": 3974,
      "Ġ@": 3975,
      "à¬¨à¬°à¬®": 3976,
      "à¬ĩà¬ŀ": 3977,
      "à¬³à¬²": 3978,
      "à¬·àŃŁà¬¤": 3979,
      "Ġà¬ľàŃŁà¬ķ": 3980,
      "à¬Ĩà¬¤à¬Ļ": 3981,
      "à¬°à¬¤à¬ł": 3982,
      "à¬¬à¬³à¬ķ": 3983,
      "Ġà¬Ĺà¬²à¬ĵ": 3984,
      "Ġà¬Ĩà¬łà¬Ł": 3985,
      "à¬¬à¬ħ": 3986,
      "Ġà¬Ĩà¬ĸà¬£": 3987,
      "à¬Ĥ,": 3988,
      "àŃŁà¬¬à¬ķ": 3989,
      "ĠàŃ¨àŃ¨àŃ«": 3990,
      "Ġà¬«à¬°à¬¹": 3991,
      "Ġà¬¸à¬¹à¬°à¬¸": 3992,
      "ĠàŃ«àŃ«àŃ¦": 3993,
      "Ġà¬Ĩà¬ķà¬³à¬¨à¬°": 3994,
      "à¬īà¬¨à¬¥": 3995,
      "om": 3996,
      "Ġà¬Ĩà¬Łà¬°": 3997,
      "Ġà¬ĸà¬³à¬¨": 3998,
      "ĠàŃ¨àŃ§àŃ«": 3999,
      "à¬°à¬¥à¬®à¬¤": 4000,
      "Ġà¬¹à¬ľà¬®": 4001,
      "àŃĩà¬¾)/": 4002,
      "à¬¸à¬ľà¬¨": 4003,
      "à¬¦à¬ķà¬Ļ": 4004,
      "à¬ĵà¬ıà¬®": 4005,
      "à¬ıà¬ıà¬®": 4006,
      "Ġà¬ĩà¬Ĺ": 4007,
      "à¬Ĩà¬°à¬Ł": 4008,
      "àŃ¬àŃ¦àŃ¦": 4009,
      "à¬Łà¬¨à¬ķ": 4010,
      "à¬§à¬ľ": 4011,
      "ĠàŃŁà¬Ļ": 4012,
      "Ġà¬Ĩà¬²à¬¬à¬®": 4013,
      "Ġà¬¹à¬°à¬¡": 4014,
      "à¬ªà¬£à¬¨": 4015,
      "Ġà¬¤à¬¨à¬ĸ": 4016,
      "à¬ıà¬ķà¬°": 4017,
      "à¬¶à¬°à¬¥": 4018,
      "Ġà¬ľà¬¨à¬¹": 4019,
      "Ġà¬īà¬ķà¬¤": 4020,
      "à¬Ĺà¬³à¬Ļ": 4021,
      "Ġà¬ħà¬£à¬¸à¬°": 4022,
      "Ġà¬ªà¬¥à¬ļ": 4023,
      "www": 4024,
      "à¬·à¬®à¬ķà¬Łà¬ķ": 4025,
      "Ġà¬ķà¬ĸ": 4026,
      "Ġà¬¸à¬ľà¬¬": 4027,
      "à¬¶à¬§": 4028,
      "Ġà¬®à¬¹à¬°": 4029,
      "Ġà¬Ĩà¬ĩà¬Łà¬®": 4030,
      "Ġà¬«à¬¡à¬¨à¬¬": 4031,
      "Ġ):": 4032,
      "à¬ĺà¬Ļ": 4033,
      "à¬Ĺà¬°à¬£": 4034,
      "à¬ľà¬Ńà¬¬à¬¨à¬°": 4035,
      "à¬«à¬°à¬Ļ": 4036,
      "à¬®à¬£à¬Ļ": 4037,
      "ĠàŃ§àŃ¬àŃŃ": 4038,
      "Ġà¬ħà¬¬à¬¨à¬¤": 4039,
      "à¬²à¬°à¬°": 4040,
      "à¬Ĺà¬¢": 4041,
      "Ġà¬¹à¬ĩà¬ļ": 4042,
      "à¬®à¬¨à¬Ĺà¬°à¬°": 4043,
      "àŃĩàŃį": 4044,
      "ĠàŃ§àŃ«àŃ®": 4045,
      "Ġà¬¹à¬ĩà¬ļà¬ĩ": 4046,
      "ĠàŃ§àŃ®àŃ¨": 4047,
      "Ġà¬ıà¬ıà¬¸à¬Ĩà¬ĩ": 4048,
      "it": 4049,
      "à¬¤à¬ªà¬¡": 4050,
      "à¬¡à¬°à¬®": 4051,
      "à¬¶à¬ł": 4052,
      "à¬¶à¬°à¬¤": 4053,
      "Ġà¬ľà¬ĺà¬¨": 4054,
      "Ġà¬¯à¬¨à¬¤": 4055,
      "Ġà¬«à¬¶": 4056,
      "àŃŁà¬®à¬Ļ": 4057,
      "à¬§à¬°à¬ª": 4058,
      "ĠàŃį": 4059,
      "àŃŁà¬Ĺà¬£": 4060,
      "Ġà¬ħà¬®à¬¨": 4061,
      "à¬¿à¥¤âĢľ": 4062,
      "Ġà¬Ĩà¬ĩà¬²": 4063,
      "Ġà¬ľà¬ª": 4064,
      "ĠàŃ§àŃŃàŃ§": 4065,
      "Ġà¬Ĩà¬īà¬Łà¬²": 4066,
      "Ġà¬Ńà¬Ĺà¬ĵ": 4067,
      "à¬¬à¬¶à¬ķ": 4068,
      "Ġà¬ªà¬¥à¬ķ": 4069,
      "Ġà¬«à¬³à¬ķà¬°": 4070,
      "àŃģ?": 4071,
      "à¬®à¬¬à¬°": 4072,
      "Ġà¬¸à¬īà¬ķ": 4073,
      "à¬ĩàŃŁ": 4074,
      "Ġà¬¨à¬¸": 4075,
      "Ġà¬Ĩà¬¹à¬°à¬£": 4076,
      "à¬§à¬ķà¬ķ": 4077,
      "ĠàŃ§àŃ¯àŃŃàŃ¯": 4078,
      "Ġà¬Ńà¬£à¬ľ": 4079,
      "Ġà¬¸à¬¶": 4080,
      "à¬ıà¬¥à¬°": 4081,
      "ĠàŃ¨àŃ¦àŃ«àŃ¦": 4082,
      "Ġà¬ľàŃŁà¬¶": 4083,
      "Ġà¬ĩà¬¹": 4084,
      "à¬ľà¬°à¬²": 4085,
      "à¬ĩà¬ªà¬²": 4086,
      "Ġà¬¦à¬¶à¬°à¬¥à¬ª": 4087,
      "à¬¬à¬¤à¬Ļ": 4088,
      "Ġà¬¸à¬°à¬¨": 4089,
      "à¬®à¬«": 4090,
      "Ġà¬ļà¬³à¬£": 4091,
      "Ġà¬¬à¬¸à¬¤": 4092,
      "Ġà¬§à¬¨à¬¶": 4093,
      "ĠàŃ©àŃ¬àŃ¦": 4094,
      "Ġà¬ıà¬Ĩà¬ĩà¬ıà¬®": 4095,
      "à¬ŁàŃ±à¬°": 4096,
      "Ġà¬¨à¬Ĺà¬¡": 4097,
      "à¬¬àŃŁà¬°": 4098,
      "Ġà¬¦à¬ĸà¬²à¬°": 4099,
      "Ġà¬®à¬¨à¬¦": 4100,
      "Ġà¬ħà¬ľà¬Ĺà¬°": 4101,
      "à¬ĩà¬Ńà¬īà¬£": 4102,
      "àŃĢâĢĻ,": 4103,
      "Ġà¬®à¬°à¬£à¬¯à¬¨": 4104,
      "Ġà¬Ĺà¬£à¬ªà¬¤": 4105,
      "ĠàŃ¨àŃŃàŃ¦": 4106,
      "à¬¹à¬²à¬Łà¬Ļ": 4107,
      "Ġà¬¬à¬¶à¬¤": 4108,
      "Ġà¬ĺà¬°à¬Ńà¬¡": 4109,
      "ĠàŃ§àŃ®àŃ®": 4110,
      "ĠàŃ§àŃŃàŃŃ": 4111,
      "Ġà¬ļà¬¹à¬²à¬Ļ": 4112,
      "ĠV": 4113,
      "Ġà¬¶à¬°à¬§": 4114,
      "à¬ķà¬°à¬®": 4115,
      "Ġà¬¬à¬°à¬Ļ": 4116,
      "à¬¬à¬¨à¬§": 4117,
      "Ġà¬¬à¬¡à¬®": 4118,
      "à¬ĩà¬Ńà¬°à¬®": 4119,
      "à¬ķà¬¤à¬¨": 4120,
      "à¬®à¬¸à¬®": 4121,
      "à¬¦à¬«": 4122,
      "ĠàŃ§àŃŃàŃ¨": 4123,
      "à¬Łà¬¨à¬°à¬¶": 4124,
      "Ġà¬ķà¬¸à¬°à¬¤": 4125,
      "à¬Ĺà¬³à¬°": 4126,
      "Ġà¬ķà¬°à¬ľ": 4127,
      "à¬°à¬¶à¬®à¬¨": 4128,
      "Ġà¬ľà¬Ĺà¬¤à¬ķ": 4129,
      "ĠM": 4130,
      "Ġà¬ķà¬Łà¬¨": 4131,
      "Ġà¬ıà¬Ĩà¬°": 4132,
      "à¬¶à¬Ńà¬ķ": 4133,
      "Ġà¬ĵàŃ±": 4134,
      "àŃ±à¬¤à¬Ļ": 4135,
      "à¬ķà¬°à¬ª": 4136,
      "Ġà¬§à¬¨à¬°": 4137,
      "à¬ħà¬¨à¬°": 4138,
      "ĠàŃ§àŃ¯àŃªàŃ®": 4139,
      "à¬ĩà¬ħà¬ķ": 4140,
      "à¬Ľà¬ļ": 4141,
      "Ġà¬ľà¬ıà¬£": 4142,
      "Ġà¬ħà¬¨à¬Ĺ": 4143,
      "Ġà¬ĩà¬ıà¬®": 4144,
      "Ġà¬ªà¬¦à¬ªà¬¦à¬¬": 4145,
      "àŃģà¬ģ,": 4146,
      "ĠàŃ§àŃ¯àŃ®àŃ§": 4147,
      "Ġà¬ıà¬Ĩà¬ĩà¬ıà¬«": 4148,
      "Ġà¬²à¬¹à¬¡": 4149,
      "à¬¬à¬ķà¬°": 4150,
      "à¬·à¬§": 4151,
      "à¬Ĺà¬łà¬ķ": 4152,
      "à¬ªà¬°à¬ľà¬Ļ": 4153,
      "Ġà¬«à¬Ĺ": 4154,
      "Ġà¬¸à¬ķà¬³": 4155,
      "ĠàŃ§àŃŃàŃ©": 4156,
      "Ġà¬¹à¬°à¬ķà¬¤": 4157,
      "àŃĩà¬¿": 4158,
      "Ġà¬¨à¬°à¬®": 4159,
      "à¬®à¬°à¬¨": 4160,
      "ĠàŃ§àŃ¬àŃ¨": 4161,
      "à¬¿à¬¿,": 4162,
      "Ġà¬¦à¬Ĺ": 4163,
      "Ġà¬Ĩà¬²à¬¬": 4164,
      "ĠàŃ§àŃ®àŃ¦àŃ¦": 4165,
      "ĠàŃ§àŃŃàŃ¬": 4166,
      "Ġà¬§à¬®à¬ķà¬ª": 4167,
      "Ġ2": 4168,
      "à¬ªà¬¨à¬ķ": 4169,
      "Ġà¬ķà¬°à¬Ļ": 4170,
      "à¬¼:": 4171,
      "à¬ĵà¬Łà¬°": 4172,
      "Ġà¬ħà¬²à¬®": 4173,
      "àŃįâĢĻ,": 4174,
      "Ġà¬¬à¬ĺ": 4175,
      "à¬Łà¬§": 4176,
      "à¬¿à¬ĤâĢĻ": 4177,
      "à¬Ĺà¬®à¬ķ": 4178,
      "à¬¡à¬¸à¬°": 4179,
      "Ġà¬Ĩà¬īà¬¥à¬°": 4180,
      "à¬ıà¬ıà¬ķ": 4181,
      "àŃŁà¬ķà¬¸": 4182,
      "Ġà¬Ĩà¬ĩà¬ĩà¬¡": 4183,
      "Ġà¬ĸà¬¸à¬¡": 4184,
      "à¬¼àŃĢ):": 4185,
      "à¬¨àŃ±": 4186,
      "àŃŁà¬ªà¬°": 4187,
      "à¬³à¬Ł": 4188,
      "à¬Ĺà¬¤à¬¬à¬°": 4189,
      "ĠàŃ§àŃ«àŃ¯": 4190,
      "Ġà¬ıà¬ıà¬®": 4191,
      "Ġà¬ĩà¬®à¬°": 4192,
      "ĠàŃ¬àŃ«àŃ¦": 4193,
      "à¬Ĺà¬¬à¬£": 4194,
      "à¬¿à¬Ĥ)": 4195,
      "à¬ħà¬ŀ": 4196,
      "ĠàŃªàŃ¦àŃ¦àŃ¦": 4197,
      "à¬°à¬¥à¬®à¬Ł": 4198,
      "ĠUP": 4199,
      "de": 4200,
      "Ġà¬ķà¬Łà¬°": 4201,
      "à¬ĩà¬ĺà¬°": 4202,
      "Ġà¬¦à¬§": 4203,
      "Ġà¬ļàŃŁà¬¨à¬°": 4204,
      "Ġà¬ĵà¬¢": 4205,
      "à¬ľà¬ªà¬¥à¬ķ": 4206,
      "Ġà¬ħà¬¸à¬¹à¬¯": 4207,
      "Ġà¬ªàŃ±à¬¨": 4208,
      "à¬ªà¬ľà¬¨": 4209,
      "à¬¥à¬ķà¬°": 4210,
      "Ġà¬ľà¬£à¬°": 4211,
      "à¬ľàŃŁà¬²à¬ķ": 4212,
      "Ġà¬¦à¬°à¬ľ": 4213,
      "à¬¸à¬®àŃŁà¬°": 4214,
      "Ġà¬¸à¬¹à¬°à¬ł": 4215,
      "à¬¨à¬®à¬ľ": 4216,
      "Ġà¬ªà¬¸": 4217,
      "à¬¶à¬Ł": 4218,
      "à¬Ĩà¬ļ": 4219,
      "à¬³à¬¨à¬°à¬¤": 4220,
      "ion": 4221,
      "Ġà¬®à¬¤à¬ķ": 4222,
      "Ġà¬ķà¬°à¬®": 4223,
      "à¬ļà¬¤à¬°": 4224,
      "à¬¨à¬¸à¬®": 4225,
      "ĠàŃ§àŃŃàŃ¯": 4226,
      "ĠàŃ§àŃ¯àŃŃàŃ¬": 4227,
      "à¬ĩà¬ıà¬«": 4228,
      "à¬Ĩà¬°à¬Ĩà¬°": 4229,
      "à¬ıà¬®à¬ıà¬²": 4230,
      "Ġà¬ıà¬Ĩà¬ĩà¬ıà¬¡": 4231,
      "à¬²à¬Ńà¬°": 4232,
      "ĠàŃ¨àŃ§àŃ®": 4233,
      "ĠàŃ©àŃ¨àŃ¦": 4234,
      "ĠàŃ¨àŃ¦àŃ«": 4235,
      "Ġà¬ħà¬¬à¬¢": 4236,
      "ĠàŃ§àŃ¯àŃ©": 4237,
      "Ġà¬ıà¬ĩà¬ł": 4238,
      "ĠàŃ§àŃ¯àŃŃàŃ©": 4239,
      "à¬°à¬ªà¬¨": 4240,
      "à¬¨à¬·": 4241,
      "à¬®à¬¹à¬°": 4242,
      "Ġà¬¦à¬®à¬¦": 4243,
      "Ġà¬ªà¬°à¬Ń": 4244,
      "à¬¦à¬¬à¬¹": 4245,
      "Ġà¬¦à¬¶à¬®à¬¨": 4246,
      "Ġà¬¬à¬²à¬ķ": 4247,
      "à¬¬à¬¹à¬¨à¬°": 4248,
      "AT": 4249,
      "ĠT": 4250,
      "à¬Īà¬ķ": 4251,
      "à¬¥à¬°à¬ķ": 4252,
      "Ġà¬ħà¬²à¬ķ": 4253,
      "à¬¶à¬¨à¬Ĺ": 4254,
      "à¬®à¬ļà¬£": 4255,
      ",(": 4256,
      "ĠàŃ§àŃ®àŃ©": 4257,
      "ĠàŃ§àŃŃàŃ®": 4258,
      "Ġwww": 4259,
      "Ġà¬¬à¬°à¬¬": 4260,
      "à¬ĥ,": 4261,
      "ĠàŃ§àŃ¬àŃ®": 4262,
      "ĠàŃ§àŃ¯àŃ«àŃ§": 4263,
      "Ġà¬Ĩà¬®à¬®": 4264,
      "à¬°à¬¹à¬°à¬°": 4265,
      "à¬ĩà¬ı": 4266,
      "àŃ±à¬¦": 4267,
      "Ġà¬īà¬ªà¬ħà¬§": 4268,
      "ĠàŃ§àŃ¯àŃª": 4269,
      "ĠàŃ¨àŃ¦àŃ¨àŃŃ": 4270,
      "Ġà¬¨à¬¬à¬¬à¬°": 4271,
      "à¬¶àŃ±": 4272,
      "Ġà¬¤à¬Łà¬ķ": 4273,
      "à¬ľà¬¨à¬¸": 4274,
      "Ġà¬īà¬ªà¬¶à¬®": 4275,
      "Ġà¬ħà¬¸à¬¤": 4276,
      "àŃ¨àŃ¦àŃ§àŃ©": 4277,
      "àŃĩà¬¾:": 4278,
      "à¬¥à¬¶": 4279,
      "à¬¡à¬¬à¬²": 4280,
      "à¬ļà¬¬à¬°": 4281,
      "à¬ħà¬¬à¬¸": 4282,
      "à¬°à¬¹à¬®": 4283,
      "à¬¬àŃŁà¬¨": 4284,
      "Ġà¬ªà¬ĩ": 4285,
      "Ġà¬¬à¬¬à¬²": 4286,
      "à¬Ĺà¬£à¬¨": 4287,
      "à¬īà¬¬": 4288,
      "à¬¸à¬¨à¬¶": 4289,
      "àŃįâĢĮ;": 4290,
      "à¬¤à¬ķà¬¤": 4291,
      "à¬£à¬ªà¬¨": 4292,
      "à¬³à¬¶": 4293,
      "Ġà¬¬à¬°à¬·": 4294,
      "ĠàŃ¨àŃ¦àŃ¨àŃ¬": 4295,
      "à¬ľà¬ķà¬¤": 4296,
      "Ġà¬®à¬ľà¬¦": 4297,
      "od": 4298,
      "à¬ķà¬³à¬¨": 4299,
      "à¬ķà¬§à¬°": 4300,
      "à¬ļà¬°à¬Ļ": 4301,
      "à¬ļà¬ªà¬¦à¬¸": 4302,
      "Ġà¬ľà¬¸": 4303,
      "ĠàŃ§àŃ®àŃ¬": 4304,
      "ĠàŃ«àŃ¦àŃ¬": 4305,
      "à¬¸à¬¬à¬®": 4306,
      "à¬¨à¬®à¬Ļ": 4307,
      "ĠàŃ©àŃŃàŃ¬": 4308,
      "à¬¬à¬ľà¬Ĺà¬¤": 4309,
      "Ġà¬¨à¬ª": 4310,
      "à¬¶à¬²à¬Ļ": 4311,
      "Ġà¬ļà¬¹à¬³": 4312,
      "Ġà¬ĩà¬ı": 4313,
      "à¬¬à¬¹à¬¨à¬ķ": 4314,
      "à¬Łà¬¯": 4315,
      "à¬¼àŃĩ,": 4316,
      "Ġà¬¡à¬¹à¬³": 4317,
      "à¬Łà¬ķà¬ķ": 4318,
      "à¬Ńà¬°à¬¯": 4319,
      "à¬¸à¬¹à¬°à¬°": 4320,
      "_**": 4321,
      "à¬¨à¬§à¬°": 4322,
      "à¬²à¬ªà¬°": 4323,
      "Ġà¬ıà¬ķà¬®à¬¤": 4324,
      "à¬¹à¬¨à¬ª": 4325,
      "Ġà¬°à¬¥à¬Łà¬£": 4326,
      "Ġà¬°à¬£à¬ķ": 4327,
      "ov": 4328,
      "àŃįàŃĢ": 4329,
      "àŃģà¬Ĥ": 4330,
      "Ġà¬¬à¬³à¬Ļ": 4331,
      "ĠàŃ§àŃ¯àŃ¨": 4332,
      "à¬ªà¬£à¬ķ": 4333,
      "ĠàŃ§àŃ®àŃª": 4334,
      "à¬¬à¬°à¬¦à¬¸": 4335,
      "à¬Łà¬³": 4336,
      "à¬Ĺà¬°à¬¸": 4337,
      "à¬ĸà¬ķà¬Ļ": 4338,
      "Ġà¬ĺà¬Łà¬¨": 4339,
      "Ġà¬ıà¬¸à¬Ł": 4340,
      "Ġà¬Ĩà¬Ĺà¬Ńà¬°": 4341,
      "à¬£à¬¬à¬Ļ": 4342,
      "Ġà¬®à¬¡à¬°": 4343,
      "Ġà¬ħà¬°à¬£": 4344,
      "ĠĠĠĠ": 4345,
      "à¬ªà¬¤à¬Ļ": 4346,
      "Ġà¬īà¬ªà¬ķà¬°à¬£à¬°": 4347,
      "à¬ķà¬¬à¬Ļ": 4348,
      "ĠàŃ¨àŃ¬àŃ¦": 4349,
      "Ġà¬®à¬¦à¬¨à¬®": 4350,
      "âĢĻ:": 4351,
      "àŃŁà¬®à¬ł": 4352,
      "Ġà¬Ĺà¬£à¬ªà¬°": 4353,
      "ĠàŃ§àŃ®àŃ¯": 4354,
      "Ġà¬Ķà¬¦": 4355,
      "à¬ĩà¬°à¬¸à¬ķ": 4356,
      "Ġà¬ĭà¬·à¬Ń": 4357,
      "à¬¡à¬³à¬Ļ": 4358,
      "à¬ļà¬¦": 4359,
      "Ġà¬īà¬Ļ": 4360,
      "à¬¬à¬°à¬ª": 4361,
      "à¬°à¬ªà¬²": 4362,
      "ĠàŃ¨àŃ¨àŃª": 4363,
      "à¬Łà¬²à¬°": 4364,
      "à¬·à¬ªà¬¥à¬°": 4365,
      "à¬«à¬°à¬ª": 4366,
      "Ġà¬ħà¬§à¬ķ": 4367,
      "Ġà¬ĩà¬ķà¬¬": 4368,
      "ĠàŃ§àŃ¬àŃ¯": 4369,
      "Ġà¬Īà¬°": 4370,
      "Ġà¬¬à¬°à¬ķà¬¨": 4371,
      "à¬¬à¬¶à¬Ļ": 4372,
      "à¬§à¬¨à¬Ļ": 4373,
      "à¬¯à¬¬": 4374,
      "à¬¸à¬¨à¬ł": 4375,
      "à¬ıà¬«à¬¸": 4376,
      "ĠàŃ§àŃ¯àŃŃàŃª": 4377,
      "àŃģ!": 4378,
      "Ġà¬®à¬³àŃŁ": 4379,
      "à¬³à¬¯": 4380,
      "àŃŁà¬°à¬®": 4381,
      "ĠàŃ¨àŃ¯àŃª": 4382,
      "ĠàŃ§àŃ¯àŃ¬àŃŃ": 4383,
      "à¬ħà¬¨à¬¸": 4384,
      "%),": 4385,
      "à¬®à¬·": 4386,
      "à¬łà¬¯à¬¨": 4387,
      "Ġà¬§à¬°à¬®": 4388,
      "à¬¸à¬®à¬Ĺ": 4389,
      "Ġà¬ķà¬¨à¬Ń": 4390,
      "Ġà¬ħà¬£à¬ķ": 4391,
      "Ġà¬²à¬ĸà¬¨à¬ª": 4392,
      "à¬ľà¬¡": 4393,
      "à¬§à¬Ĺ": 4394,
      "Ġà¬Ĩà¬Ī": 4395,
      "Ġà¬°àŃŁà¬Ļ": 4396,
      "à¬²à¬¸à¬¨": 4397,
      "à¬ĩà¬®à¬°": 4398,
      "à¬¡à¬³à¬ķ": 4399,
      "à¬ļà¬²à¬°": 4400,
      "Ġà¬¤à¬«": 4401,
      "à¬°à¬¦à¬ª": 4402,
      "à¬ıà¬²à¬Ļ": 4403,
      ":**": 4404,
      "Ġà¬ħà¬Ĺà¬°": 4405,
      "Ġà¬¤à¬¬": 4406,
      "à¬Ĩà¬ľà¬°": 4407,
      "Ġà¬Łà¬¸à¬°": 4408,
      "à¬ıà¬¸à¬ĩ": 4409,
      "ĠàŃ§àŃªàŃ¦àŃ¦": 4410,
      "Ġà¬¬à¬£à¬Ń": 4411,
      "àŃŁà¬£à¬°": 4412,
      "Ġà¬ĵà¬ıà¬ļ": 4413,
      "ĠàŃ§àŃ¯àŃ§": 4414,
      "à¬ħà¬°à¬°": 4415,
      "Ġà¬ľà¬³à¬§": 4416,
      "il": 4417,
      "àŃĩà¬¾/": 4418,
      "à¬Łà¬®à¬ķ": 4419,
      "à¬¶à¬ĵ": 4420,
      "à¬¶à¬¤à¬Ļ": 4421,
      "à¬Ĩà¬Ń": 4422,
      "à¬Ĩà¬°à¬®": 4423,
      "à¬§à¬°à¬¨": 4424,
      "à¬¹à¬°à¬ª": 4425,
      "Ġà¬¤à¬Łà¬¬à¬°": 4426,
      "à¬®à¬®à¬¤": 4427,
      "à¬ıà¬¨à¬ľ": 4428,
      "ĠàŃ¨àŃ®àŃ¦": 4429,
      "à¬®à¬³à¬®à¬¤": 4430,
      "US": 4431,
      "ĠO": 4432,
      "à¬²à¬¡à¬°": 4433,
      "à¬ĩà¬¦à¬°": 4434,
      "à¬ħà¬³": 4435,
      "à¬ĩà¬¬à¬£": 4436,
      "à¬¤à¬ķà¬ķ": 4437,
      "Ġà¬Ĺà¬Ľà¬²à¬¤": 4438,
      "àŃĩâĢĻà¥¤": 4439,
      "ĠE": 4440,
      "à¬¤à¬ľà¬¨": 4441,
      "à¬¹à¬¬à¬¨": 4442,
      "Ġà¬ľà¬¨à¬¬à¬¹": 4443,
      "ac": 4444,
      "Ġà¬®à¬°à¬ķ": 4445,
      "Ġà¬ķà¬°à¬¡": 4446,
      "ĠàŃ¬àŃ¦àŃ¦àŃ¦": 4447,
      "Ġà¬ľà¬Ĺà¬¤à¬ª": 4448,
      "à¬¤à¬¥à¬°": 4449,
      "àŃŁàŃŁà¬ķ": 4450,
      "à¬ľà¬ĺ": 4451,
      "àŃĤ-": 4452,
      "ĠàŃ¨àŃ§àŃ©": 4453,
      "ĠàŃ§àŃ®àŃ§": 4454,
      "Ġà¬¡à¬²à¬«": 4455,
      "Ġà¬Ĩà¬°à¬ıà¬¸à¬ıà¬¸": 4456,
      "ĠD": 4457,
      "Ġà¬Ńà¬¬à¬¨à¬ķ": 4458,
      "à¬¬à¬¸à¬¨": 4459,
      "ĠàŃ¨àŃ¦àŃ¯": 4460,
      "Ġà¬®à¬¨à¬²": 4461,
      "à¬³à¬¨à¬ª": 4462,
      "à¬¹à¬ĵ": 4463,
      "Ġà¬²à¬¬à¬£": 4464,
      "àŃ¯àŃ¦àŃ¦": 4465,
      "Ġà¬¸à¬°à¬«à¬°": 4466,
      "à¬ªà¬Łà¬°": 4467,
      "à¬·à¬²à¬¤": 4468,
      "à¬¡à¬¹": 4469,
      "Ġà¬Ĩà¬Ŀ": 4470,
      "àŃĩàŃĸâĢĻ": 4471,
      "àŃŁà¬¸à¬¬": 4472,
      "à¬°à¬ľà¬¬à¬°à¬¦à¬¸": 4473,
      "Ġà¬¦à¬ĸà¬²à¬ķ": 4474,
      "à¬ļà¬¤à¬®": 4475,
      "Ġà¬Ĩà¬®à¬ł": 4476,
      "à¬¦à¬¨à¬ªà¬¤": 4477,
      "Ġà¬ıà¬¨à¬Ĩà¬ĩà¬ı": 4478,
      "RO": 4479,
      "à¬°àŃŁà¬°": 4480,
      "à¬¹à¬¤à¬Ļ": 4481,
      "à¬ĸà¬¶": 4482,
      "ĠàŃ¨àŃ¦àŃ®": 4483,
      "à¬³àŃŁà¬Ł": 4484,
      "ĠàŃ§àŃ®àŃŃ": 4485,
      "Ġà¬ħà¬£à¬ĵà¬¡": 4486,
      "Ġà¬ķà¬ªà¬²": 4487,
      "à¬¸à¬ªà¬¨": 4488,
      "à¬·à¬¦à¬ķ": 4489,
      "à¬Ĺà¬Ŀ": 4490,
      "Ġà¬Ńà¬¨": 4491,
      "Ġà¬Ĺà¬°à¬¦à¬ª": 4492,
      "Ġà¬¶à¬°à¬£à¬ķ": 4493,
      "Ġà¬īà¬ľà¬¬": 4494,
      "à¬«à¬ķ": 4495,
      "à¬°à¬£àŃŁ": 4496,
      "à¬¿..": 4497,
      "à¬¸à¬¦à¬Ļ": 4498,
      "VI": 4499,
      "ur": 4500,
      "à¬¨à¬¨à¬Ļ": 4501,
      "à¬¤à¬¸à¬°à¬°": 4502,
      "Ġà¬¸à¬ľà¬¨": 4503,
      "à¬¦à¬Ł": 4504,
      "à¬Ĺà¬¯": 4505,
      "Ġà¬ħà¬ĩ": 4506,
      "ĠàŃ¨àŃ§àŃ¬": 4507,
      "à¬°à¬¬à¬Ļ": 4508,
      "à¬°à¬¹à¬¸à¬¨": 4509,
      "Ġà¬ıà¬®à¬¸": 4510,
      "à¬¬à¬¦à¬³à¬°": 4511,
      "Ġà¬ħà¬¹à¬°à¬¹": 4512,
      "à¬ķà¬°à¬¬à¬°": 4513,
      "à¬¬à¬¨à¬®": 4514,
      "ĠàŃ¨àŃ¦àŃª": 4515,
      "Ġà¬Ĺà¬°à¬®à¬°": 4516,
      "à¬ıà¬Łà¬°à¬°": 4517,
      "à¬·àŃŁà¬Ĺ": 4518,
      "ĠàŃ©àŃ¨àŃ¬": 4519,
      "ĠàŃ§àŃ¯àŃ«àŃ¨": 4520,
      "Ġà¬¬à¬¶à¬¬à¬°": 4521,
      "ĠR": 4522,
      "à¬®à¬ħà¬ª": 4523,
      "à¬ªà¬ĸ": 4524,
      "à¬²à¬ķà¬¬à¬·": 4525,
      "Ġà¬Ĺà¬¤à¬¥à¬°à¬°": 4526,
      "Ġà¬ħà¬ķà¬¥à¬¨": 4527,
      "à¬¾)à¥¤": 4528,
      "à¬¾àŃį": 4529,
      "à¬¬à¬¶à¬¤": 4530,
      "à¬Ľà¬®": 4531,
      "à¬Ľà¬£": 4532,
      "à¬Ĺà¬¹à¬°": 4533,
      "Ġà¬¨à¬ĸ": 4534,
      "à¬°à¬¤à¬¬": 4535,
      "à¬¶à¬¨à¬ł": 4536,
      "àŃŁà¬¤à¬Ĺ": 4537,
      "à¬ıà¬«à¬°": 4538,
      "ĠàŃ§àŃ¯àŃ«àŃ¬": 4539,
      "à¬¦à¬²à¬Ļ": 4540,
      "à¬·à¬°à¬°": 4541,
      "Ġà¬ķà¬°à¬¦": 4542,
      "à¬¡à¬°à¬¸": 4543,
      "Ġà¬ŁàŃŁ": 4544,
      "ĠàŃ¨àŃ§àŃŃ": 4545,
      "à¬Ĩà¬°à¬ľ": 4546,
      "à¬Ĩà¬°à¬Ĩà¬ĩ": 4547,
      "Ġà¬ªà¬¥à¬ª": 4548,
      "à¬Ĩà¬Ĺà¬ŀ": 4549,
      "Ġà¬ªà¬Łà¬ķ": 4550,
      "Ġà¬¬à¬Łà¬¨": 4551,
      "Ġà¬¬à¬«à¬°": 4552,
      "àŃĢ;": 4553,
      "à¬ıà¬ŀ": 4554,
      "ĠàŃ¨àŃ§àŃª": 4555,
      "à¬¦à¬°à¬Ĺà¬¡à¬°": 4556,
      "à¬¿.)": 4557,
      "Ġà¬ıà¬¸à¬Ĩà¬ĩ": 4558,
      "Ġà¬Ĩà¬£à¬¨": 4559,
      "Ġà¬ķà¬¬à¬ļ": 4560,
      "à¬Īà¬°": 4561,
      "Ġà¬ĵà¬²à¬Łà¬ª": 4562,
      ".),": 4563,
      "Ġc": 4564,
      "Ġà¬ªà¬ıà¬¸": 4565,
      "à¬Ĺà¬¹": 4566,
      "à¬Ĩà¬°à¬Ļ": 4567,
      "à¬·à¬£à¬®": 4568,
      "Ġà¬Ĩà¬ĩà¬¨à¬®à¬¨": 4569,
      "ĠàŃ¨àŃŃàŃ¨": 4570,
      "à¬°à¬ľà¬ķ": 4571,
      "à¬īà¬³à¬ķ": 4572,
      "à¬ľà¬¨à¬¤": 4573,
      "Ġà¬ľà¬°à¬ªà¬¡": 4574,
      "ĠàŃ¨àŃªàŃ©": 4575,
      "à¬³à¬Ĺà¬Ľ": 4576,
      "Ġà¬¨à¬¬à¬ķà¬³": 4577,
      "Ġà¬ıà¬®à¬°à¬ľ": 4578,
      "NA": 4579,
      "àŃĩà¬Ĥ": 4580,
      "à¬²à¬°à¬ķ": 4581,
      "à¬¯à¬¤": 4582,
      "à¬¬à¬¨à¬¹": 4583,
      "Ġà¬Ĩà¬ľà¬®à¬Ļ": 4584,
      "Ġà¬ħà¬ªà¬ļàŃŁ": 4585,
      "Ġà¬Ĩà¬ĩà¬¨à¬Ĺ": 4586,
      "Ġà¬¬à¬³à¬¬à¬¨": 4587,
      "ĠàŃ©àŃ¬àŃ«": 4588,
      "Ġà¬Ĺà¬łà¬¨à¬ķ": 4589,
      "ed": 4590,
      "à¬°à¬³àŃŁà¬Ļ": 4591,
      "à¬¬à¬ĸ": 4592,
      "à¬Łà¬ªà¬¤à¬Ļ": 4593,
      "à¬¥à¬°à¬¸": 4594,
      "à¬ľà¬³à¬°": 4595,
      "à¬ļàŃŁà¬°": 4596,
      "à¬Ńà¬°à¬®": 4597,
      "à¬łà¬¦": 4598,
      "Ġà¬Ĩà¬®à¬°à¬£": 4599,
      "Ġà¬ķà¬²à¬¬à¬²": 4600,
      "ĠàŃ©àŃ¦àŃŃ": 4601,
      "à¬Īà¬Ĺ": 4602,
      "ĠCO": 4603,
      "à¬¹à¬ł": 4604,
      "à¬§à¬¡": 4605,
      "Ġà¬īà¬¬": 4606,
      "Ġà¬īà¬¸à¬¤": 4607,
      "Ġà¬Ĩà¬ļà¬°à¬£à¬°": 4608,
      "Ġ#": 4609,
      "à¬ķà¬ĵ": 4610,
      "Ġà¬¸à¬°à¬¬": 4611,
      "Ġà¬ªà¬łà¬¨": 4612,
      "à¬·à¬¤à¬®": 4613,
      "àŃ±à¬Ń": 4614,
      "à¬°à¬¤à¬Ļ": 4615,
      "Ġà¬¥à¬°à¬°": 4616,
      "Ġà¬Ľà¬³à¬¨": 4617,
      "Ġà¬Ĺà¬Ľà¬Ł": 4618,
      "à¬¾..": 4619,
      "Ġà¬ļà¬ī": 4620,
      "Ġà¬Ľà¬¦": 4621,
      "à¬Ĺà¬¨à¬¬": 4622,
      "ĠàŃ¨àŃ®àŃ®": 4623,
      "ĠàŃ©àŃ«àŃ¦àŃ¦": 4624,
      "à¬ķà¬ķà¬°": 4625,
      "à¬¤à¬¯": 4626,
      "à¬¡à¬«": 4627,
      "Ġà¬°à¬ıà¬Łà¬°": 4628,
      "Ġà¬ľà¬¹à¬°": 4629,
      "à¬Ĩà¬ĩà¬ıà¬¨": 4630,
      "Ġà¬ıà¬¨à¬Ł": 4631,
      "Ġà¬°à¬¨à¬¤": 4632,
      "à¬Ĺà¬®à¬ŀ": 4633,
      "ĠàŃ©àŃ«àŃª": 4634,
      "Ġà¬°à¬¸à¬Ĺ": 4635,
      "à¬¥à¬ªà¬¤": 4636,
      "à¬¡à¬¦": 4637,
      "à¬¡à¬¶": 4638,
      "à¬Ńà¬²à¬ķ": 4639,
      "Ġà¬¬à¬¨à¬ķà¬²": 4640,
      "àŃ¨àŃ¦àŃ§àŃ§": 4641,
      "ĠàŃ§àŃ¯àŃ¬àŃ¯": 4642,
      "ĠàŃ§àŃ¯àŃ«àŃŃ": 4643,
      "à¬ķà¬°à¬ķ": 4644,
      "Ġà¬¸à¬ªà¬°": 4645,
      "ĠàŃ¨àŃ¨àŃ¨": 4646,
      "àŃį)à¥¤": 4647,
      "à¬¬à¬Ĺà¬¨à¬Ļ": 4648,
      "ing": 4649,
      "à¬ķà¬¨à¬°": 4650,
      "à¬¨à¬°à¬ķ": 4651,
      "Ġà¬ķà¬¦à¬®": 4652,
      "Ġà¬¸à¬³à¬ĸ": 4653,
      "Ġà¬ĺà¬¨à¬®": 4654,
      "Ġà¬ªà¬¦à¬¸": 4655,
      "Ġà¬Ĩà¬ĩà¬Ĩà¬ĩà¬ıà¬®": 4656,
      "à¬²à¬³": 4657,
      "à¬ªà¬ķà¬°": 4658,
      "à¬ªà¬°à¬¸": 4659,
      "à¬Ĺà¬°à¬ª": 4660,
      "à¬Ĺà¬³à¬ķ": 4661,
      "Ġà¬¦à¬ª": 4662,
      "Ġà¬¸à¬®à¬¤à¬³": 4663,
      "à¬¤à¬°à¬£à¬°": 4664,
      "ĠàŃ©àŃ¨àŃ©": 4665,
      "Ġà¬ıà¬®à¬ķ": 4666,
      "Ġà¬Ĩà¬°à¬Ĩà¬ĩ": 4667,
      "Ġà¬Ĩà¬īà¬ıà¬ķ": 4668,
      "à¬ľà¬³à¬¬": 4669,
      "à¬¡à¬«à¬²": 4670,
      "à¬§à¬Ń": 4671,
      "à¬§à¬°à¬®": 4672,
      "Ġà¬īà¬Ľ": 4673,
      "à¬¼à¬¿.": 4674,
      "à¬®à¬°à¬¸": 4675,
      "Ġà¬Ľà¬¨à¬ķ": 4676,
      "Ġà¬Ĩà¬ķà¬¬à¬°": 4677,
      "Ġà¬ħà¬¸à¬Ļ": 4678,
      "Ġà¬Ĩà¬Ĺà¬®à¬¨à¬°": 4679,
      "Ġà¬Ĺà¬Ľà¬®": 4680,
      "ATE": 4681,
      "DATE": 4682,
      "à¬ķà¬Ńà¬°": 4683,
      "Ġà¬¨à¬²": 4684,
      "à¬ļà¬®à¬ķ": 4685,
      "Ġà¬¤à¬Łà¬°à¬ķ": 4686,
      "ĠàŃ¨àŃ§àŃ¯": 4687,
      "àŃ¨àŃ¦àŃ¦àŃ¦": 4688,
      "ĠàŃ§àŃ¯àŃ¬àŃ§": 4689,
      "ĠàŃŁà¬°": 4690,
      "à¬¸à¬¦à¬ķ": 4691,
      "à¬Łà¬ľ": 4692,
      "à¬ªà¬°à¬¦": 4693,
      "à¬Ĩà¬ĩà¬ĵà¬¸": 4694,
      "à¬°à¬§à¬¨": 4695,
      "ĠUPDATE": 4696,
      "st": 4697,
      "à¬Ľà¬¦": 4698,
      "à¬·à¬²": 4699,
      "ĠàŃ§àŃ¯àŃ¬àŃ¬": 4700,
      "RUS": 4701,
      "ĠG": 4702,
      "à¬Ķ": 4703,
      "àŃįàŃģ": 4704,
      "Ġà¬¸à¬ĩà¬°": 4705,
      "à¬ªà¬²à¬Ļ": 4706,
      "àŃĢ!": 4707,
      "Ġà¬ªà¬°à¬ľ": 4708,
      "ĠàŃ¨àŃ§àŃ§": 4709,
      "à¬Ĩà¬°à¬ıà¬®": 4710,
      "à¬®à¬ļà¬°à¬£": 4711,
      "ĠàŃ¨àŃªàŃ«": 4712,
      "Ġà¬Ĺà¬Ľà¬ķà¬Ł": 4713,
      "ĠàŃ§àŃ¯àŃ¬àŃª": 4714,
      "Ġà¬ªà¬°à¬«à¬°": 4715,
      "Ġà¬ĸà¬ļ": 4716,
      "Ġà¬¸à¬¤à¬ªà¬¥": 4717,
      "à¬ıà¬ļà¬ľ": 4718,
      "Ġà¬ıà¬²à¬ıà¬¸": 4719,
      "ĠàŃ§àŃ¯àŃ¬àŃ«": 4720,
      "Ġà¬¨à¬Ĺà¬£": 4721,
      "à¬Ĩà¬Ĺà¬°": 4722,
      "Ġà¬ĵà¬Ĺ": 4723,
      "ĠàŃ§àŃ§àŃ¦àŃ¦": 4724,
      "Ġà¬ħà¬ªà¬¹à¬°à¬£à¬ķ": 4725,
      "à¬°à¬³àŃŁ": 4726,
      "à¬¨à¬¬à¬¤": 4727,
      "à¬Ĺà¬£à¬°": 4728,
      "Ġà¬Ľà¬ķà¬¸": 4729,
      "**_": 4730,
      "RONA": 4731,
      "VIRUS": 4732,
      "ĠCORONA": 4733,
      "ĠCORONAVIRUS": 4734,
      "Ġo": 4735,
      "à¬¤à¬°à¬®à¬¨": 4736,
      "ĠàŃ©àŃ§àŃ«": 4737,
      "àŃ¨àŃ¦àŃ§àŃ¨": 4738,
      "à¬¨à¬¸à¬°à¬°": 4739,
      "à¬Ĺà¬³à¬¸": 4740,
      "ĠàŃ¨àŃŃàŃ«": 4741,
      "à¬ķà¬ķà¬¥": 4742,
      "à¬ªà¬²à¬¤": 4743,
      "ĠL": 4744,
      "à¬¬à¬¢": 4745,
      "à¬¹à¬¸à¬°": 4746,
      "à¬¦à¬§": 4747,
      "Ġà¬Łà¬²": 4748,
      "à¬¿à¬ģ...": 4749,
      "à¬ĺà¬Ľ": 4750,
      "à¬¾âĢĻ-": 4751,
      "Ġà¬¤à¬³à¬¸": 4752,
      "ĠàŃ§àŃ¯àŃ¬àŃ®": 4753,
      "àŃ¨àŃ¦àŃ¦àŃ¯": 4754,
      "am": 4755,
      "Ġà¬¸à¬ĩà¬¦": 4756,
      "à¬¡à¬°à¬ª": 4757,
      "ĠàŃ§àŃŃàŃ¦àŃ¦": 4758,
      "à¬ĸà¬³à¬¨à¬°": 4759,
      "ĠàŃ§àŃ¯àŃ«àŃ¯": 4760,
      "à¬£à¬§": 4761,
      "Ġà¬¤à¬¬à¬²": 4762,
      "Ġà¬īà¬ĩ": 4763,
      "à¬¬à¬ķà¬ª": 4764,
      "Ġà¬ªà¬¥à¬°à¬®": 4765,
      "and": 4766,
      "à¬°à¬¥à¬°": 4767,
      "à¬¤à¬ĭà¬¤": 4768,
      "à¬·à¬¶": 4769,
      "à¬Ĩà¬ĩà¬¥": 4770,
      "à¬Ĩà¬ŀ": 4771,
      "à¬°à¬®à¬ľ": 4772,
      "à¬Łà¬°à¬¯": 4773,
      "ĠàŃ¨àŃ¦àŃŃ": 4774,
      "àŃ±à¬°à¬¨": 4775,
      "Ġà¬ıà¬®à¬¡": 4776,
      "Ġà¬ħà¬²à¬¬": 4777,
      "ĠàŃ¨àŃ¨àŃ®": 4778,
      "Ġà¬¬à¬¨à¬°": 4779,
      "à¬¥à¬ĩà¬·": 4780,
      "à¬Ńà¬īà¬£": 4781,
      "à¬®à¬²à¬¤": 4782,
      "à¬ĩà¬²à¬·": 4783,
      "à¬¤à¬°à¬£à¬ķ": 4784,
      "à¬Ľà¬Ł": 4785,
      "à¬ĩà¬ķà¬ķ": 4786,
      "Ġà¬¸à¬¨à¬¤": 4787,
      "Ġà¬Ĩà¬ĩà¬ıà¬²": 4788,
      "ĠàŃ¨àŃ¨àŃ¬": 4789,
      "à¬°à¬Ĺà¬£": 4790,
      "à¬¯à¬®": 4791,
      "à¬īà¬¨à¬ķ": 4792,
      "à¬łà¬Ĺ": 4793,
      "à¬°à¬¸à¬ķà¬£": 4794,
      "à¬°à¬¬à¬®àŃŁ": 4795,
      "Ġà¬ħà¬«à¬²": 4796,
      "Ġà¬¹à¬¸à¬ĸ": 4797,
      "ĠàŃ¨àŃ¨àŃŃ": 4798,
      "Ġà¬ķà¬Ń": 4799,
      "Ġà¬¨à¬°à¬¹à¬°": 4800,
      "à¬ľà¬ªà¬°": 4801,
      "àŃ±à¬Ĺ": 4802,
      "à¬ıà¬²à¬Ĺ": 4803,
      "ĠàŃ¨àŃªàŃ¬": 4804,
      "Ġà¬¹à¬°à¬Ńà¬Ļ": 4805,
      "à¬²à¬²": 4806,
      "à¬£à¬ªà¬¦à¬ķ": 4807,
      "à¬¦à¬°à¬®": 4808,
      "à¬¦àŃŁà¬¸": 4809,
      "Ġà¬ħàŃŁ": 4810,
      "Ġà¬ķà¬²à¬®à¬°": 4811,
      "Ġà¬ħà¬¦à¬®": 4812,
      "Ġà¬¿": 4813,
      "Ġà¬ķà¬³à¬°": 4814,
      "à¬³à¬¹": 4815,
      "à¬°à¬®à¬¸": 4816,
      "à¬ĵà¬Ĩà¬ĩ": 4817,
      "ĠàŃ¨àŃ¦àŃ¬": 4818,
      "à¬³àŃŁà¬¸": 4819,
      "à¬ıà¬®à¬ıà¬®": 4820,
      "à¬Ĩà¬²à¬Ļ": 4821,
      "Ġà¬¨à¬¬à¬¦à¬®": 4822,
      "Ġà¬ľà¬¬à¬°à¬¦à¬ĸà¬²à¬°": 4823,
      "02": 4824,
      "ĠF": 4825,
      "à¬®à¬¤à¬°": 4826,
      "àŃĥàŃĥ": 4827,
      "Ġà¬§à¬¡": 4828,
      "ĠàŃ©àŃ©àŃ¦": 4829,
      "à¬¤à¬¨à¬¶": 4830,
      "ĠàŃ§àŃ¯àŃªàŃ¯": 4831,
      "à¬®à¬¬à¬°à¬¦": 4832,
      "à¬ªà¬Ń": 4833,
      "Ġà¬ªà¬°à¬ĵ": 4834,
      "à¬łà¬Ĺà¬¡": 4835,
      "ĠàŃ¨àŃ¦àŃ©": 4836,
      "Ġà¬ħà¬«à¬°à¬°": 4837,
      "à¬°à¬®à¬£à¬Ļ": 4838,
      "àŃĩà¬ģâĢĻ": 4839,
      "ĠàŃ©àŃ¦àŃ©": 4840,
      "Ġà¬§à¬®à¬ķà¬ļà¬®à¬ķ": 4841,
      "à¬¤à¬ĵ": 4842,
      "Ġà¬¹à¬Ĺ": 4843,
      "Ġà¬²à¬«": 4844,
      "à¬ıà¬ªà¬Ł": 4845,
      "Ġà¬¬à¬°à¬¡": 4846,
      "à¬ķà¬³à¬®à¬£": 4847,
      "à¬¸à¬¦à¬®": 4848,
      "Ġà¬ĨàŃŁà¬°à¬Ļ": 4849,
      "Ġà¬¸à¬¤à¬ķ": 4850,
      "à¬·à¬²à¬ķ": 4851,
      "Ġà¬ħà¬ªà¬ķà¬®": 4852,
      "Ġà¬Ńà¬¬à¬¤": 4853,
      "Ġà¬¤à¬°à¬£": 4854,
      "à¬Ĩà¬ĵ": 4855,
      "Ġà¬ļà¬īà¬ķ": 4856,
      "à¬®à¬²à¬²": 4857,
      "Ġà¬ľà¬³à¬īà¬¤": 4858,
      "ĠàŃ§àŃ¯àŃªàŃ«": 4859,
      "ĠàŃ¨àŃªàŃ¯": 4860,
      "ĠàŃ¨àŃ¨àŃ©": 4861,
      "àŃ¨àŃ«àŃ¦": 4862,
      "àŃŁà¬ľà¬¨à¬Ļ": 4863,
      "à¬¿âĢĿ": 4864,
      "à¬¹à¬°à¬ķ": 4865,
      "Ġà¬ľà¬Ĺà¬°": 4866,
      "Ġà¬ĺà¬°à¬®": 4867,
      "à¬ĵà¬²à¬Ļ": 4868,
      "Ġà¬ľà¬¨à¬¬": 4869,
      "àŃĩà¬ģ:": 4870,
      "àŃŁà¬ªà¬¦": 4871,
      "ĠàŃ§àŃ¯àŃ«àŃ®": 4872,
      "à¬Ńà¬ľà¬¨à¬ķ": 4873,
      "Ġà¬ıà¬ķà¬¸à¬Ļ": 4874,
      "à¬¶à¬°à¬«": 4875,
      "Ġà¬¨à¬¬à¬¬à¬§": 4876,
      "ĠàŃ§àŃ¬àŃ¦àŃ¦": 4877,
      "ĠàŃ¨àŃ¯àŃ¦": 4878,
      "à¬īà¬¦à¬³": 4879,
      "Ġà¬ľà¬³à¬ķà¬·": 4880,
      "àŃį**": 4881,
      "à¬¤à¬¨à¬Ļ": 4882,
      "Ġà¬¸à¬ĩ": 4883,
      "Ġà¬Ĩà¬²à¬ķ": 4884,
      "à¬¯à¬ľ": 4885,
      "à¬Ńà¬Ĺà¬¬": 4886,
      "Ġà¬²à¬¡à¬°": 4887,
      "Ġà¬¡à¬ľà¬¨": 4888,
      "à¬ĩà¬¨à¬ļ": 4889,
      "à¬ıà¬¨à¬¡": 4890,
      "àŃĩâĢĻ,": 4891,
      "àŃŁà¬Łà¬¨à¬ķ": 4892,
      "à¬¤à¬ł": 4893,
      "à¬®à¬¹à¬²": 4894,
      "à¬Łà¬¨à¬Ļ": 4895,
      "Ġà¬ľà¬®à¬¨à¬ķ": 4896,
      "Ġà¬¤à¬Łà¬°": 4897,
      "àŃŁà¬ķà¬Ł": 4898,
      "Ġà¬§à¬¨à¬ķ": 4899,
      "Ġà¬ıà¬¨à¬ıà¬ļ": 4900,
      "Ġà¬Ķà¬ªà¬¦": 4901,
      "à¬Ĩà¬łà¬®à¬²": 4902,
      "isha": 4903,
      "ul": 4904,
      "ĠàŃĩ": 4905,
      "à¬Ńà¬¬à¬ķ": 4906,
      "à¬Ĩà¬¨à¬°": 4907,
      "Ġà¬¬à¬°à¬Ĺà¬Ľ": 4908,
      "Ġà¬ħà¬¬à¬¸à¬°à¬ķ": 4909,
      "Ġà¬ľà¬³à¬ķà¬°": 4910,
      "Ġà¬ļà¬ķà¬¡": 4911,
      "à¬°à¬¨à¬Ļ": 4912,
      "Ġà¬ıà¬ĩà¬¥": 4913,
      "Ġà¬ħà¬ľà¬¨": 4914,
      "à¬¡à¬¸à¬¨": 4915,
      "à¬ŃàŃŁà¬°": 4916,
      "ĠàŃ©àŃ§àŃª": 4917,
      "à¬¨à¬¬à¬¬": 4918,
      "ir": 4919,
      "à¬¤à¬ĸ": 4920,
      "à¬®à¬¦à¬°": 4921,
      "à¬²à¬īà¬¡": 4922,
      "Ġà¬¸àŃ±": 4923,
      "à¬ĩà¬¨à¬Ļ": 4924,
      "à¬ŀà¬°": 4925,
      "Ġà¬¬à¬°à¬Ĺà¬¡à¬°": 4926,
      "à¬¢à¬ķ": 4927,
      "Ġà¬¬à¬¡à¬¦": 4928,
      "à¬¥à¬³à¬¸": 4929,
      "à¬Łà¬¸à¬Ĩà¬ª": 4930,
      "ĠàŃ©àŃªàŃ§": 4931,
      "Ġà¬¡à¬¹à¬³à¬¬": 4932,
      "ec": 4933,
      "à¬¨à¬¬à¬¸à¬®": 4934,
      "à¬¸à¬¯": 4935,
      "Ġà¬ľà¬¬à¬²à¬ª": 4936,
      "Ġà¬²à¬ķà¬°": 4937,
      "Ġà¬¶à¬³": 4938,
      "àŃĩà¥¤âĢĻ": 4939,
      "Ġà¬ħà¬¨à¬Łà¬¨": 4940,
      "àŃŁà¬®à¬¸à¬¨à¬Ļ": 4941,
      "Ġà¬łà¬ķà¬®": 4942,
      "à¬ľàŃŁà¬¶à¬Ļ": 4943,
      "à¬ĩà¬²à¬®": 4944,
      "ĠàŃ¨àŃ«àŃ«": 4945,
      "Ġà¬Ĩà¬ļà¬°à¬£à¬ķ": 4946,
      "à¬ħà¬¬à¬¸à¬°à¬ª": 4947,
      "àŃŁà¬ıà¬ķ": 4948,
      "à¬Ľà¬Ĺ": 4949,
      "àŃ¨àŃ¦àŃ§àŃ¦": 4950,
      "Ġà¬Ĺà¬£à¬¹à¬¤": 4951,
      "Ġà¬Ńà¬²à¬®à¬¨": 4952,
      "ET": 4953,
      "Ġà¬¨à¬®à¬¨": 4954,
      "Ġà¬Ĩà¬ı": 4955,
      "Ġà¬ĵà¬¬à¬°": 4956,
      "à¬¬à¬°à¬ł": 4957,
      "à¬®à¬¬à¬¤": 4958,
      "à¬ıà¬¨à¬ıà¬¸": 4959,
      "ĠàŃ§àŃ¯àŃ«àŃ«": 4960,
      "ĠàŃ¨àŃ©àŃ©": 4961,
      "ide": 4962,
      "Ġà¬ķà¬ĵ": 4963,
      "Ġà¬¨à¬£à¬¨": 4964,
      "à¬ľà¬¹": 4965,
      "à¬ĸà¬ªà¬¤": 4966,
      "Ġà¬ĵà¬¹à¬³": 4967,
      "à¬ªà¬°à¬²": 4968,
      "à¬¿à¬Ĥ-": 4969,
      "Ġà¬ľà¬¨à¬®à¬Ļ": 4970,
      "Ġà¬ıà¬®à¬¬": 4971,
      "Ġà¬Ķà¬ªà¬¨": 4972,
      "Ġà¬¶à¬Łà¬¡": 4973,
      "et": 4974,
      "à¬Ĭ": 4975,
      "àŃģ/": 4976,
      "à¬Łà¬ªà¬¡": 4977,
      "Ġà¬ħà¬ªà¬°à¬ª": 4978,
      "àŃŁà¬ªà¬Ļ": 4979,
      "Ġà¬ķà¬¨à¬«": 4980,
      "Ġà¬¨à¬¬à¬¯": 4981,
      "ĠàŃ§àŃ©àŃ¦àŃ¦": 4982,
      "Ġà¬Ĭà¬£": 4983,
      "à¬Ĩà¬ªà¬£à¬Ļ": 4984,
      "Ġà¬¬à¬³àŃŁà¬°": 4985,
      "Ġà¬®à¬īà¬ľ": 4986,
      "Ġà¬¶à¬¦": 4987,
      "à¬¤à¬°à¬ħà¬¨": 4988,
      "Ġà¬īà¬ªà¬®à¬¹": 4989,
      "à¬®à¬¤à¬ķ": 4990,
      "Ġà¬Ĩà¬ķà¬³à¬¨à¬ķ": 4991,
      "à¬¿à¥¥": 4992,
      "à¬²à¬ªà¬®": 4993,
      "Ġà¬ªà¬¯à¬°": 4994,
      "à¬¸à¬²à¬ķ": 4995,
      "Ġà¬¡à¬ļ": 4996,
      "Ġà¬ªà¬¦à¬ķà¬°": 4997,
      "Ġà¬ľà¬³à¬¸à¬Ļ": 4998,
      "àŃŁà¬¸à¬Ļ": 4999,
      "ĠàŃ¨àŃ¨àŃ¯": 5000,
      "Ġà¬ĸà¬ĩà¬°à¬ª": 5001,
      "Ġà¬ķà¬¬à¬°à¬¸": 5002,
      "à¬¨à¬Ŀ": 5003,
      "à¬Łà¬¬à¬ľ": 5004,
      "à¬¶à¬ļà¬¨": 5005,
      "à¬łà¬¯": 5006,
      "à¬°à¬ķà¬¸": 5007,
      "à¬°à¬®à¬Ĺ": 5008,
      "Ġà¬¬à¬°à¬Ĺ": 5009,
      "ĠàŃ©àŃ¨àŃ«": 5010,
      "Ġà¬ĺà¬°à¬¡": 5011,
      "àŃŁà¬¸à¬®": 5012,
      "à¬ıà¬«à¬Ĩà¬ĩ": 5013,
      "Ġà¬ĵà¬Ńà¬°à¬¹": 5014,
      "Ġà¬¬à¬¤à¬ķ": 5015,
      "à¬ľà¬¤à¬¨": 5016,
      "à¬ļà¬ľà¬£": 5017,
      "Ġà¬¬à¬°à¬«à¬°": 5018,
      "ĠĠĊ": 5019,
      "à¬ľà¬¨à¬¨": 5020,
      "à¬ıà¬²à¬¸": 5021,
      "Ġà¬¨à¬°àŃ±": 5022,
      "***": 5023,
      "à¬ªà¬¥à¬ķ": 5024,
      "à¬Ĺà¬£à¬Ļ": 5025,
      "Ġà¬Ĩà¬¬à¬°à¬£": 5026,
      "àŃĤàŃĤ": 5027,
      "à¬ĩà¬¥à¬²": 5028,
      "Ġà¬¸à¬¹à¬¨": 5029,
      "Ġà¬¸à¬¹à¬§à¬°": 5030,
      "à¬ıà¬²à¬ıà¬¸": 5031,
      "à¬¦à¬ķà¬¤": 5032,
      "Ġà¬ªà¬Ľà¬ª": 5033,
      "ĠàŃ¨àŃ¨àŃ§": 5034,
      "à¬ĩà¬ľà¬°à¬°": 5035,
      "ĠàŃ©àŃªàŃ¦": 5036,
      "à¬ıà¬Ĩà¬ĩà¬ıà¬«": 5037,
      "as": 5038,
      "à¬¹à¬²à¬°": 5039,
      "à¬ĩà¬Ĩ": 5040,
      "Ġà¬®à¬ļ": 5041,
      "à¬¡à¬¸à¬Ń": 5042,
      "à¬¬à¬°à¬®à¬Ļ": 5043,
      "Ġà¬ıà¬ķà¬¬à¬°": 5044,
      "à¬Ĩà¬ĩà¬Ĩà¬ĩà¬Ł": 5045,
      "Ġà¬ħà¬¬à¬²": 5046,
      "Ġà¬¶à¬¤à¬ķà¬°": 5047,
      "Ġà¬Ĩà¬Ĺà¬°à¬ªà¬¡": 5048,
      "âĢľà¥¤": 5049,
      "àŃģàŃĤ": 5050,
      "Ġà¬ħà¬ľà¬¸": 5051,
      "Ġà¬°à¬ı": 5052,
      "Ġà¬¥à¬°à¬ķ": 5053,
      "ĠàŃ©àŃ§àŃ¦": 5054,
      "à¬ĺà¬Ĺ": 5055,
      "à¬¤à¬¨à¬ł": 5056,
      "à¬ħà¬¨à¬¨": 5057,
      "à¬·à¬®à¬Ļ": 5058,
      "ĠàŃ¨àŃ«àŃª": 5059,
      "à¬Ŀà¬°à¬Ĺà¬¡": 5060,
      "ĠàŃ¨àŃ©àŃ«": 5061,
      "à¬Ĩà¬īà¬Łà¬°": 5062,
      ":(": 5063,
      "àŃĩ**": 5064,
      "à¬¨à¬§": 5065,
      "à¬ļàŃŁà¬ķ": 5066,
      "à¬ģ:": 5067,
      "à¬ĵà¬Ń": 5068,
      "à¬ħà¬¦": 5069,
      "àŃĩàŃĸà¬¾": 5070,
      "Ġà¬¸à¬°à¬³à¬¤": 5071,
      "ĠàŃ®àŃ«àŃ¦": 5072,
      "Ġà¬Ĩà¬Ĺà¬Ńà¬³": 5073,
      "Ġà¬¦à¬®àŃŁà¬¨": 5074,
      "à¬Łà¬¨à¬°à¬Ļ": 5075,
      "àŃ¨àŃ¦àŃ¦àŃ®": 5076,
      "ay": 5077,
      "àŃĢ),": 5078,
      "Ġà¬¬à¬¨à¬ľ": 5079,
      "Ġà¬Ĩà¬¤à¬¸à¬¬": 5080,
      "ĠàŃ¨àŃ©àŃ¬": 5081,
      "à¬®à¬®àŃŁ": 5082,
      "à¬¥à¬¹": 5083,
      "Ġà¬¨à¬ıà¬¡": 5084,
      "Ġà¬¦à¬¦à¬°": 5085,
      "Ġà¬¹à¬¦": 5086,
      "Ġà¬¶à¬²": 5087,
      "àŃ±à¬¡": 5088,
      "Ġà¬ıà¬ķà¬²à¬¬": 5089,
      "à¬ĺà¬¤à¬®": 5090,
      "ĠàŃ«àŃ¨àŃ¦": 5091,
      "à¬¡à¬°à¬Ĺ": 5092,
      "Ġà¬łà¬ķà¬Ļ": 5093,
      "Ġà¬ħà¬¬à¬ľ": 5094,
      "à¬ĩà¬²à¬Ĺ": 5095,
      "Ġà¬ħà¬ĸà¬¤à¬°à¬Ļ": 5096,
      "Ġà¬¦à¬¶à¬°à¬¥": 5097,
      "gov": 5098,
      "ĠH": 5099,
      "àŃŁà¬¸à¬°": 5100,
      "Ġà¬¸à¬°à¬®": 5101,
      "à¬Ĺà¬¤à¬Ļ": 5102,
      "à¬¯à¬ķ": 5103,
      "Ġà¬Ĺà¬«": 5104,
      "à¬¼.": 5105,
      "à¬¼àŃģ,": 5106,
      "à¬īà¬ľà¬°": 5107,
      "à¬°à¬ķà¬°à¬Ļ": 5108,
      "Ġà¬ħà¬¨à¬§": 5109,
      "à¬¬à¬°à¬£à¬°": 5110,
      "ĠàŃ¨àŃ¦àŃªàŃŃ": 5111,
      "à¬¦à¬°à¬Ĺ": 5112,
      "à¬ķà¬Łà¬ķà¬°": 5113,
      "Ġà¬ĺà¬°à¬ķà¬°à¬£": 5114,
      "àŃ§àŃ«àŃ¦": 5115,
      "Ġà¬°à¬¨à¬°à¬ħà¬ª": 5116,
      "Ġà¬Ĩà¬ĩà¬ıà¬®à¬ıà¬«": 5117,
      "à¬Łà¬®à¬£": 5118,
      "à¬§à¬®àŃŁ": 5119,
      "àŃ±à¬¨à¬Ļ": 5120,
      "Ġà¬ħà¬¨à¬¬à¬°à¬¤": 5121,
      "ĠàŃ§àŃ¯àŃ©àŃ¦": 5122,
      "Ġà¬Ĩà¬ĩà¬¡à¬²": 5123,
      "ĠàŃ¨àŃ©àŃª": 5124,
      "ĠàŃ¨àŃ¯àŃ«": 5125,
      "Ġà¬ĵà¬·à¬§": 5126,
      "à¬®à¬ĭà¬¤": 5127,
      "à¬Ĺà¬®à¬£": 5128,
      "Ġà¬īà¬¬à¬°": 5129,
      "Ġà¬¶à¬ªà¬¥à¬ª": 5130,
      "Ġà¬ªà¬¥à¬°à¬ķ": 5131,
      "Ġà¬ĺà¬¨à¬ĺà¬¨": 5132,
      "à¬ķàŃŁ": 5133,
      "à¬®à¬°à¬°": 5134,
      "à¬¥à¬ĵ": 5135,
      "Ġà¬®à¬ª": 5136,
      "Ġà¬¶àŃŁà¬¨": 5137,
      "Ġà¬¶à¬¬à¬ķ": 5138,
      "Ġà¬ļà¬ķà¬°": 5139,
      "à¬¬à¬°à¬®à¬¤": 5140,
      "à¬°à¬®à¬¦": 5141,
      "à¬®à¬¨à¬¬à¬®": 5142,
      "Ġà¬Ľà¬¤à¬°": 5143,
      "Ġà¬ľà¬³à¬ªà¬¤": 5144,
      "Ġà¬¹à¬¸à¬ª": 5145,
      "à¬¬à¬²à¬Ļ": 5146,
      "ĠàŃ¨àŃ©àŃŃ": 5147,
      "Ġà¬ľà¬Ĺà¬¨à¬®": 5148,
      "Ġà¬¸à¬ľà¬¡": 5149,
      "ĠàŃªàŃ®àŃ¦": 5150,
      "Ġà¬ļà¬°à¬£à¬ľ": 5151,
      "à¬ĭà¬·": 5152,
      "Ġs": 5153,
      "Ġà¬®à¬³à¬®": 5154,
      "à¬Ńà¬¬à¬°": 5155,
      "à¬Łà¬°à¬²": 5156,
      "à¬¿à¬ģà¬¿à¥¤": 5157,
      "à¬ĵà¬ĵ": 5158,
      "à¬ĩà¬ªà¬¦": 5159,
      "Ġà¬¬à¬¡à¬¬à¬ľ": 5160,
      "Ġà¬¬à¬²àŃ±à¬¨": 5161,
      "Ġà¬ħà¬Ĺà¬£à¬¤": 5162,
      "Ġà¬ħà¬®à¬³à¬ķ": 5163,
      "ĠàŃ©àŃ¦àŃª": 5164,
      "Ġà¬Ĺà¬łà¬¨à¬®": 5165,
      "Ġà¬Ĩà¬īà¬Łà¬¡": 5166,
      "*)": 5167,
      "à¬¤à¬§": 5168,
      "à¬®à¬ªà¬¤": 5169,
      "à¬·à¬·": 5170,
      "à¬°à¬®à¬¶à¬ķ": 5171,
      "à¬·à¬£à¬¶": 5172,
      "à¬²à¬ķà¬®": 5173,
      "à¬³à¬¨à¬Ĺà¬°": 5174,
      "Ġà¬ĩà¬¨à¬ª": 5175,
      "ĠàŃ©àŃ¦àŃ¬": 5176,
      "Ġà¬¨à¬¬à¬¬": 5177,
      "ĠàŃ¨àŃ«àŃ®": 5178,
      "ĠàŃ¨àŃ«àŃ¬": 5179,
      "Ġà¬«à¬³à¬¤": 5180,
      "à¬°à¬ĸà¬¨": 5181,
      "Ġà¬²à¬¹à¬°à¬ķ": 5182,
      "Ġà¬ıà¬ĩà¬Ł": 5183,
      "à¬¡à¬ķà¬°à¬Ļ": 5184,
      "Ġà¬Łà¬ļ": 5185,
      "à¬¾à¥¤âĢĻ": 5186,
      "ĠàŃ©àŃ¨àŃª": 5187,
      "à¬ħà¬ĸ": 5188,
      "Ġà¬Ĩà¬īà¬ľà¬£": 5189,
      "à¬ķà¬ķà¬·": 5190,
      "à¬®à¬ļà¬°": 5191,
      "à¬ªà¬²à¬°": 5192,
      "Ġà¬®à¬ĩà¬²à¬®": 5193,
      "à¬ľà¬¨à¬®": 5194,
      "à¬¤à¬¨à¬Ĺà¬°": 5195,
      "Ġà¬ľà¬¨à¬¶à¬ķ": 5196,
      "à¬·à¬®àŃŁ": 5197,
      "Ġà¬ĵà¬Ńà¬°à¬²": 5198,
      "Ġof": 5199,
      "Ġth": 5200,
      "à¬¨à¬¨à¬ķ": 5201,
      "à¬¹à¬¡": 5202,
      "Ġà¬¸à¬®à¬ķ": 5203,
      "Ġà¬ķà¬¨à¬ĵ": 5204,
      "Ġà¬ħà¬£à¬¶": 5205,
      "Ġà¬ıà¬²à¬ľ": 5206,
      "à¬Ĳà¬¤": 5207,
      "di": 5208,
      "à¬²à¬Ĺà¬°": 5209,
      "Ġà¬¸à¬¬à¬°": 5210,
      "à¬¦à¬ļà¬²": 5211,
      "Ġà¬®à¬Łà¬°": 5212,
      "à¬³à¬ªà¬¦": 5213,
      "Ġà¬ħà¬ĵ": 5214,
      "à¬§à¬ķà¬Ļ": 5215,
      "à¬ıà¬ıà¬¨": 5216,
      "Ġà¬«à¬³à¬®": 5217,
      "à¬°à¬¬à¬ļà¬¨": 5218,
      "à¬²à¬ķà¬¨": 5219,
      "Ġà¬ĺà¬°à¬ļà¬Ł": 5220,
      "à¬¹à¬°à¬¨": 5221,
      "Ġà¬ħà¬ªà¬¸à¬°": 5222,
      "ĠàŃ¨àŃªàŃ§": 5223,
      "Ġà¬ĭà¬£à¬ķ": 5224,
      "ĠàŃ©àŃ®àŃ¦": 5225,
      "à¬¹à¬¨à¬ķ": 5226,
      "à¬¦à¬ķà¬®": 5227,
      "à¬Ľà¬²": 5228,
      "à¬ľà¬²à¬ķ": 5229,
      "à¬§à¬¬à¬¨": 5230,
      "à¬Ńà¬°à¬¤": 5231,
      "Ġà¬¤à¬ķà¬¤": 5232,
      "à¬Łà¬°à¬ł": 5233,
      "Ġà¬ĩà¬Ĩà¬¨": 5234,
      "à¬ĩà¬ªà¬ķ": 5235,
      "Ġà¬ķà¬²à¬®à¬ª": 5236,
      "à¬ĩà¬Ĺà¬°à¬Ļ": 5237,
      "à¬°àŃŁà¬®": 5238,
      "à¬¬à¬ł": 5239,
      "à¬ªà¬ĺà¬°à¬ķ": 5240,
      "à¬Łà¬¸à¬¨": 5241,
      "Ġà¬ıà¬Ĩà¬ĩà¬Ł": 5242,
      "Ġà¬ħà¬°à¬ķ": 5243,
      "Ġà¬Ĺà¬īà¬¡": 5244,
      "àŃ±à¬¶à¬°": 5245,
      "à¬¬à¬¨à¬ª": 5246,
      "à¬¿à¬ģ;": 5247,
      "**âĢĵ": 5248,
      "Ġà¬®à¬¦à¬Ń": 5249,
      "ĠàŃ§àŃ¯àŃ¬àŃ©": 5250,
      "à¬īà¬®à¬°à¬ķ": 5251,
      "nic": 5252,
      "Ġà¬¸à¬¦à¬¨": 5253,
      "à¬ļà¬¦à¬¶": 5254,
      "Ġà¬®à¬¨à¬Ĺà¬¢": 5255,
      "àŃįâĢĮ.": 5256,
      "Ġà¬Ĩà¬²à¬«": 5257,
      "Ġà¬ľà¬³à¬ªà¬¥à¬°": 5258,
      "ĠàŃ§àŃ¯àŃªàŃ¨": 5259,
      "ĠàŃ¨àŃªàŃ¨": 5260,
      "ĠàŃ¨àŃªàŃŃ": 5261,
      "ĠàŃ¨àŃ«àŃŃ": 5262,
      "ĠàŃ¨àŃ©àŃ¨": 5263,
      "ĠàŃ¨àŃ¬àŃ©": 5264,
      "Ġà¬ĭà¬£à¬Ĺ": 5265,
      "Ġà¬Ķà¬·à¬§à¬ķ": 5266,
      "à¬¹à¬³à¬ª": 5267,
      "à¬ħà¬®à¬°à¬ª": 5268,
      "à¬§à¬ķà¬¤": 5269,
      "Ġà¬ļà¬·": 5270,
      "àŃĩà¥¤âĢľ": 5271,
      "ĠàŃ©àŃ§àŃ§": 5272,
      "à¬Ĺà¬°à¬ªà¬¡": 5273,
      "à¬°à¬«à¬Ļ": 5274,
      "ĠàŃ¨àŃ¦àŃ¨àŃ®": 5275,
      "à¬ıà¬ĵà¬Ńà¬°": 5276,
      "ideo": 5277,
      "he": 5278,
      "à¬¤à¬¬à¬¸": 5279,
      "àŃŁà¬ľà¬£à¬Ļ": 5280,
      "à¬¹à¬Ńà¬°": 5281,
      "Ġà¬¬àŃŁà¬ķà¬Ł": 5282,
      "Ġà¬ħà¬¹à¬²": 5283,
      "Ġà¬īà¬ªà¬¢": 5284,
      "à¬ĩà¬Łà¬°à¬ķ": 5285,
      "à¬¤à¬¬à¬Ļ": 5286,
      "Ġà¬ļàŃŁà¬¨à¬ķ": 5287,
      "àŃģ;": 5288,
      "à¬³à¬ĺà¬°": 5289,
      "Ġà¬Ĺà¬ľà¬°": 5290,
      "à¬Ĩà¬¬à¬¨": 5291,
      "Ġà¬§à¬¨à¬¤": 5292,
      "Ġà¬ĺà¬°à¬²": 5293,
      "à¬¬à¬³à¬¦": 5294,
      "Ġà¬ľà¬³à¬ľà¬³": 5295,
      "à¬¸à¬®à¬¹": 5296,
      "ĠàŃ¨àŃªàŃª": 5297,
      "ĠàŃ¨àŃ©àŃ¯": 5298,
      "Ġà¬¹à¬Łà¬·": 5299,
      "ĠàŃ©àŃªàŃ¨": 5300,
      "im": 5301,
      "à¬®à¬ªà¬¦": 5302,
      "Ġà¬¸à¬¤à¬¨": 5303,
      "à¬Ľà¬ķà¬°": 5304,
      "à¬ľà¬¬à¬ķ": 5305,
      "Ġà¬ļà¬¬": 5306,
      "Ġà¬ĵà¬°à¬®": 5307,
      "à¬Łà¬°à¬¬": 5308,
      "Ġà¬§à¬īà¬°": 5309,
      "ĠàŃ©àŃ§àŃŃ": 5310,
      "Ġà¬®à¬¨à¬ªà¬¸à¬¨": 5311,
      "Ġà¬¬à¬¨à¬°à¬ķ": 5312,
      "Ġà¬ıà¬®à¬Ń": 5313,
      "Ġà¬ľà¬³à¬Ľà¬¤": 5314,
      "ĠàŃ¨àŃ¬àŃª": 5315,
      "Ġà¬®à¬¦à¬®": 5316,
      "Ġà¬ıà¬²à¬Ĺ": 5317,
      "Ġà¬ħà¬¹à¬Ļ": 5318,
      "Ġà¬ĺà¬¡à¬ĺà¬¡": 5319,
      "à¬Ĺà¬ľà¬ķà¬²à¬®à¬°": 5320,
      "com": 5321,
      "Ġ1": 5322,
      "à¬°à¬ĩ": 5323,
      "à¬ĸà¬ľ": 5324,
      "Ġà¬¶à¬¢": 5325,
      "à¬łà¬ķà¬®": 5326,
      "à¬ĵà¬ıà¬«": 5327,
      "à¬Ŀà¬°à¬£": 5328,
      "Ġà¬Ĩà¬Ĺà¬¨": 5329,
      "à¬ıà¬ķà¬¦": 5330,
      "à¬Ĺà¬£à¬¤à¬¨": 5331,
      "odisha": 5332,
      "Ġà¬¸à¬¸à¬ª": 5333,
      "à¬ĩà¬§à¬°": 5334,
      "à¬¦à¬¹": 5335,
      "à¬³à¬Ľ": 5336,
      "à¬·à¬ĺà¬°": 5337,
      "Ġà¬ļà¬ķà¬Ł": 5338,
      "ĠàŃ©àŃ§àŃ¬": 5339,
      "à¬ħà¬ľàŃŁ": 5340,
      "Ġà¬¦à¬³à¬ªà¬¤": 5341,
      "à¬¸à¬²à¬Ł": 5342,
      "à¬¹à¬¨à¬¬": 5343,
      "ĠàŃ¨àŃ©àŃ®": 5344,
      "Ġà¬Ľà¬ķà¬ķ": 5345,
      "ĠàŃ©àŃ«àŃ©": 5346,
      "à¬Ĩà¬ªà¬¦à¬°": 5347,
      "ĠàŃ§àŃ¯àŃ«àŃª": 5348,
      "Ġà¬¹à¬³à¬§à¬°": 5349,
      "Ġà¬¸à¬īà¬¦": 5350,
      "à¬¦à¬ļ": 5351,
      "Ġà¬ľà¬ŀ": 5352,
      "à¬¤à¬°à¬ł": 5353,
      "à¬Ĺà¬²à¬ľ": 5354,
      "àŃŁà¬¸à¬°à¬ķ": 5355,
      "à¬¹à¬¨à¬Ĺ": 5356,
      "ĠàŃ¨àŃ©àŃ§": 5357,
      "ĠàŃ¨àŃ¬àŃ«": 5358,
      "à¬²à¬ĺà¬°": 5359,
      "à¬ıà¬Ĩà¬ĩà¬Ł": 5360,
      "Ġà¬¸à¬®à¬¦": 5361,
      "ĠàŃ©àŃ§àŃ¨": 5362,
      "ĠàŃªàŃ§àŃ¦": 5363,
      "ĠàŃªàŃ©àŃ¦": 5364,
      "ĠàŃ¨àŃ«àŃ¨": 5365,
      "à¬ıà¬ļà¬¡": 5366,
      "ĠàŃ¨àŃŃàŃŃ": 5367,
      "à¬¸à¬¦à¬¸": 5368,
      "àŃ¨àŃ¦àŃ¦àŃ¬": 5369,
      "Ġà¬¨àŃŁà¬¨à¬¤": 5370,
      "àŃģâĢĻà¥¤": 5371,
      "Ġà¬¬àŃŁà¬¨à¬¶": 5372,
      "Ġà¬¦à¬ĵ": 5373,
      "à¬°à¬¥à¬®à¬¶": 5374,
      "à¬°à¬¥à¬®à¬ķà¬°": 5375,
      "ĠàŃ¨àŃ¬àŃ¯": 5376,
      "Ġà¬Ĩà¬ļà¬°à¬£à¬¬": 5377,
      "el": 5378,
      "à¬®à¬«à¬³à¬ķ": 5379,
      "à¬¹à¬ķà¬°": 5380,
      "à¬¸à¬²à¬°à¬Ļ": 5381,
      "à¬Łà¬Ĺà¬£à¬¤": 5382,
      "à¬¦à¬°à¬¬": 5383,
      "à¬³à¬ľàŃŁ": 5384,
      "Ġà¬ķà¬°à¬Ľ": 5385,
      "Ġà¬¨à¬¬à¬¸": 5386,
      "à¬§à¬³": 5387,
      "Ġà¬²à¬®à¬¤": 5388,
      "àŃĥàŃį": 5389,
      "Ġà¬ħà¬ŃàŃŁà¬ķ": 5390,
      "à¬ħà¬¸à¬¨": 5391,
      "à¬Ĩà¬ĩà¬ıà¬ıà¬¸": 5392,
      "à¬¾à¬ģâĢĻ": 5393,
      "àŃŁà¬ªà¬Łà¬°": 5394,
      "Ġà¬¬à¬²à¬¬": 5395,
      "ĠàŃ¨àŃŃàŃ§": 5396,
      "à¬Ĺà¬®à¬¨à¬ķ": 5397,
      "à¬²à¬ļà¬¨": 5398,
      "à¬ĩà¬ıà¬²": 5399,
      "à¬ľà¬°à¬ķ": 5400,
      "Ġà¬¹à¬°à¬®à¬¨": 5401,
      "à¬°à¬®à¬¬à¬°": 5402,
      "à¬ĵà¬ıà¬ļ": 5403,
      "à¬ıà¬¸à¬ıà¬¸": 5404,
      "à¬¡à¬ªà¬ł": 5405,
      "Ġà¬ıà¬ļà¬¡": 5406,
      "àŃ¨àŃ¦àŃ¦àŃŃ": 5407,
      "Ġ?**": 5408,
      "àŃ¯àŃ¯àŃ¯": 5409,
      "à¬¤àŃŁ": 5410,
      "à¬²à¬ĸà¬£": 5411,
      "Ġà¬ħà¬°à¬®": 5412,
      "Ġà¬¶à¬¤à¬®": 5413,
      "à¬łà¬ķà¬Ł": 5414,
      "Ġà¬ĵà¬¨": 5415,
      "Ġà¬ħà¬¨à¬®": 5416,
      "Ġà¬ħà¬¨à¬Ń": 5417,
      "ĠàŃ©àŃ§àŃ¯": 5418,
      "Ġà¬ķà¬²à¬°à¬°": 5419,
      "Ġà¬ĺà¬°à¬ĸ": 5420,
      "à¬ıà¬®à¬ıà¬¸": 5421,
      "à¬¬à¬ķà¬ķ": 5422,
      "ĠàŃ¨àŃ®àŃ¯": 5423,
      "ĠàŃ¨àŃ¯àŃ¨": 5424,
      "àŃ¨àŃ¦àŃ¦àŃ«": 5425,
      "ol": 5426,
      "à¬ľà¬Łà¬£": 5427,
      "à¬Ĩà¬Ĺà¬ķ": 5428,
      "Ġà¬īà¬ªà¬°à¬¸": 5429,
      "Ġà¬¦à¬³à¬¬à¬¦à¬³": 5430,
      "à¬¤à¬ķà¬¬": 5431,
      "ĠàŃ¨àŃ¬àŃ¬": 5432,
      "Ġà¬ħà¬³à¬¸": 5433,
      "à¬¤à¬¶à¬¯": 5434,
      "Ġà¬ªà¬°à¬«à¬°à¬®": 5435,
      "ra": 5436,
      "us": 5437,
      "à¬ĩà¬ķà¬Ļ": 5438,
      "à¬ľà¬¬à¬°": 5439,
      "Ġà¬²à¬Ńà¬²": 5440,
      "Ġà¬ªà¬°à¬ª": 5441,
      "Ġà¬«à¬¸à¬°": 5442,
      "Ġà¬ķà¬®à¬³à¬¨": 5443,
      "à¬Łà¬ķà¬Ł": 5444,
      "Ġà¬ľà¬³à¬ľ": 5445,
      "Ġà¬¦à¬°à¬ĺ": 5446,
      "Ġà¬ĩà¬¨à¬ļ": 5447,
      "*****": 5448,
      "à¬¡à¬°à¬¸à¬¨à¬Ļ": 5449,
      "Ġà¬ħà¬Ľà¬ª": 5450,
      "Ġà¬ħà¬£à¬§": 5451,
      "ĠàŃ¨àŃ«àŃ§": 5452,
      "ĠàŃªàŃªàŃ¦": 5453,
      "à¬ªà¬Ľ": 5454,
      "à¬¦à¬°à¬¤": 5455,
      "à¬ĸà¬®àŃŁ": 5456,
      "à¬Ĩà¬¹à¬¤": 5457,
      "à¬Ĩà¬¬à¬ľ": 5458,
      "à¬īà¬¸à¬ķ": 5459,
      "à¬ıà¬°à¬¸à¬®": 5460,
      "à¬°à¬ķà¬²": 5461,
      "ĠàŃ©àŃ§àŃ®": 5462,
      "à¬ªà¬¤à¬¨": 5463,
      "Ġà¬ĸà¬°à¬ļ": 5464,
      "ĠàŃ¨àŃ®àŃ«": 5465,
      "Ġà¬°à¬®à¬ľ": 5466,
      "àŃĢâĢĻà¥¤": 5467,
      "Ġà¬®à¬ķà¬°à¬¨": 5468,
      "Ġw": 5469,
      "à¬®à¬¸à¬Ļ": 5470,
      "à¬ªà¬¬à¬¦": 5471,
      "à¬Ĩà¬ķà¬Ł": 5472,
      "Ġà¬ªà¬¹à¬°": 5473,
      "ĠàŃŃàŃ¨àŃ¦": 5474,
      "Ġà¬¸à¬¦à¬°à¬®": 5475,
      "Ġà¬¬àŃŁà¬¸à¬ķ": 5476,
      "à¬Īà¬ª": 5477,
      "à¬Īà¬¶": 5478,
      "Ġà¬¨à¬Łà¬¬à¬°": 5479,
      "Ġà¬ħà¬§à¬°à¬ªà¬£": 5480,
      "àŃĩà¬¾à¬ģ": 5481,
      "à¬ªà¬ĩà¬¸": 5482,
      "à¬£à¬®à¬£": 5483,
      "Ġà¬®à¬īà¬¸": 5484,
      "à¬Ńà¬°à¬£": 5485,
      "à¬ĸà¬Ł": 5486,
      "Ġà¬ªà¬°à¬®à¬¬": 5487,
      "Ġà¬ħà¬¨à¬¤": 5488,
      "à¬ľà¬°à¬¬": 5489,
      "à¬¦à¬¨à¬Ĺ": 5490,
      "Ġà¬ķà¬³à¬¹à¬°": 5491,
      "ĠàŃ¨àŃ®àŃŃ": 5492,
      "EET": 5493,
      "Ġf": 5494,
      "àŃŁà¬²à¬ķ": 5495,
      "Ġà¬¬à¬ļà¬¨": 5496,
      "à¬£à¬ĺ": 5497,
      "Ġà¬ıà¬Ĩà¬ĩà¬°": 5498,
      "Ġà¬ļà¬ķà¬®": 5499,
      "à¬ıà¬Ĩà¬ĩà¬°": 5500,
      "à¬°à¬£à¬Ĺ": 5501,
      "Ġà¬ĩà¬¨à¬ķ": 5502,
      "à¬°à¬¦à¬ķ": 5503,
      "àŃ±à¬°à¬¬": 5504,
      "Ġà¬¬à¬¡à¬ª": 5505,
      "Ġà¬ªà¬ĩà¬¡": 5506,
      "à¬ĩà¬®à¬²": 5507,
      "à¬¦à¬ľ": 5508,
      "Ġà¬®à¬³à¬¤": 5509,
      "à¬³à¬ļà¬ķ": 5510,
      "à¬Ĺà¬Ĺà¬¡": 5511,
      "Ġà¬ľà¬²à¬ĵ": 5512,
      "à¬ıà¬²à¬ı": 5513,
      "à¬ªà¬¦à¬®": 5514,
      "à¬®à¬¸à¬¨à¬Ļ": 5515,
      "Ġà¬«à¬¡à¬¨à¬Ń": 5516,
      "ent": 5517,
      "Ġ202": 5518,
      "à¬¤à¬¦à¬¨": 5519,
      "à¬ĩà¬ĺà¬£": 5520,
      "à¬ªà¬ĵ": 5521,
      "Ġà¬®à¬Łà¬¨": 5522,
      "à¬³à¬ªà¬ķ": 5523,
      "à¬¡à¬ķà¬Ł": 5524,
      "à¬īà¬ľà¬Ļ": 5525,
      "âĢĭ": 5526,
      "à¬«à¬°à¬®": 5527,
      "Ġà¬¬à¬°à¬ªà¬¦": 5528,
      "Ġà¬Ĩà¬°à¬ıà¬®": 5529,
      "ĠàŃ§àŃ¯àŃ©àŃ¬": 5530,
      "à¬Ĺà¬¨à¬Ĺà¬°à¬°": 5531,
      "ĠàŃ©àŃ¦àŃ«": 5532,
      "ĠVideo": 5533,
      ")/": 5534,
      "à¬®à¬ĸà¬£": 5535,
      "à¬²à¬¬à¬ķ": 5536,
      "à¬Łà¬ªà¬¦": 5537,
      "à¬¦à¬ªà¬¡": 5538,
      "à¬ĸà¬®à¬£": 5539,
      "à¬ªà¬°à¬¬à¬°": 5540,
      "à¬ıà¬®à¬Ĩà¬°": 5541,
      "Ġà¬Ĩà¬²à¬¬à¬°": 5542,
      "ĠàŃ©àŃ¦àŃ®": 5543,
      "à¬¨à¬Ĺà¬°à¬¸": 5544,
      "ĠàŃ¨àŃ¯àŃ©": 5545,
      "Ġà¬¸à¬¦à¬°à¬®à¬¹à¬ķ": 5546,
      "à¬¾àŃĩ": 5547,
      "àŃģ**": 5548,
      "à¬¬à¬¤à¬®": 5549,
      "Ġà¬ªà¬²à¬ķ": 5550,
      "à¬ĩà¬¸à¬°": 5551,
      "Ġà¬¨à¬°à¬¹": 5552,
      "à¬ļà¬ķà¬Ļ": 5553,
      "à¬ıà¬Ĩà¬ĩà¬¸": 5554,
      "à¬¨à¬°à¬¸": 5555,
      "à¬°à¬¶à¬®": 5556,
      "à¬°à¬¨à¬Ĺà¬°à¬°": 5557,
      "à¬ªà¬¦à¬£": 5558,
      "à¬¹à¬²à¬¤": 5559,
      "ĠàŃ¨àŃ¬àŃ¨": 5560,
      "ĠàŃ¨àŃ¬àŃŃ": 5561,
      "Ġà¬ĭà¬£à¬¦": 5562,
      "Ġà¬īà¬ªà¬ķà¬°à¬£à¬Ĺ": 5563,
      "à¬®à¬ĺà¬Łà¬°": 5564,
      "Ġt": 5565,
      "à¬³à¬¬à¬¨": 5566,
      "Ġà¬°à¬ľà¬°": 5567,
      "Ġà¬ľà¬²à¬¦": 5568,
      "à¬Ĩà¬¸à¬°": 5569,
      "ĠàŃ¬àŃ©àŃ¦": 5570,
      "ĠàŃŃàŃ¦àŃ¦àŃ¦": 5571,
      "Ġà¬Ĩà¬°à¬¡à¬¬": 5572,
      "à¬ªà¬¦à¬³à¬¨": 5573,
      "àŃ§àŃ¨àŃ¦": 5574,
      "ĠàŃ¨àŃ§àŃ¦àŃ¦": 5575,
      "Ġà¬ľà¬Ĺà¬°à¬¨à¬Ł": 5576,
      "em": 5577,
      "à¬¤à¬¬à¬¨": 5578,
      "à¬¬à¬¯": 5579,
      "à¬¦à¬®à¬¨": 5580,
      "à¬¡à¬¡": 5581,
      "à¬¶à¬¬à¬°": 5582,
      "ĠàŃ©àŃ¨àŃ®": 5583,
      "à¬Ĩà¬°à¬ıà¬ļ": 5584,
      "à¬¿à¬ģà¥¤âĢĻ": 5585,
      "Ġà¬ıà¬¨à¬ª": 5586,
      "Ġà¬Ĩà¬²à¬ľ": 5587,
      "ĠàŃ§àŃ¯àŃªàŃ¬": 5588,
      "ĠàŃ©àŃ¦àŃ§": 5589,
      "ĠàŃ¨àŃ¬àŃ®": 5590,
      "à¬³à¬¸à¬ļ": 5591,
      "Ġà¬¤à¬Łà¬¬à¬¨": 5592,
      "ĭâĢĭ": 5593,
      "Ġà¬ķà¬¦à¬°": 5594,
      "Ġà¬¬à¬Ń": 5595,
      "à¬£à¬Ł": 5596,
      "à¬³à¬°à¬¤": 5597,
      "à¬Ĺà¬Łà¬¨": 5598,
      "Ġà¬°à¬Ĺà¬¡": 5599,
      "à¬ļà¬°à¬ķ": 5600,
      "à¬īà¬ħà¬Ľ": 5601,
      "à¬ħà¬¬à¬¶": 5602,
      "ĠâĢĭâĢĭ": 5603,
      "Ġà¬¬à¬¡à¬¸": 5604,
      "Ġà¬ľà¬³à¬²": 5605,
      "Ġà¬ľà¬³à¬¶à¬ķ": 5606,
      "à¬¨à¬¤à¬³": 5607,
      "àŃ§àŃ¯àŃ¯àŃ¯": 5608,
      "ĠàŃ¨àŃ¯àŃ§": 5609,
      "ĠàŃ¨àŃ¯àŃ¬": 5610,
      "Ġà¬¬à¬£à¬ª": 5611,
      "ĠàŃ¦àŃ¨": 5612,
      "Ġà¬¨à¬Īà¬°": 5613,
      "Ġb": 5614,
      "à¬ĩà¬«à¬°": 5615,
      "à¬¶à¬¡": 5616,
      "Ġà¬ķà¬¹à¬Ľà¬¨": 5617,
      "à¬®à¬¨à¬¯": 5618,
      "ĠàŃ©àŃ§àŃ©": 5619,
      "à¬ĩà¬¨à¬·": 5620,
      "à¬¾à¬ģ-": 5621,
      "Ġà¬ıà¬¸à¬Ĩà¬ĩà¬Ł": 5622,
      "Ġà¬¸à¬·": 5623,
      "Ġà¬¬à¬Ĺà¬°": 5624,
      "Ġà¬¬à¬Łà¬ķ": 5625,
      "à¬Łà¬ĸ": 5626,
      "Ġà¬ħà¬ªà¬¨": 5627,
      "à¬ľà¬¬à¬³": 5628,
      "à¬¡à¬¸à¬®": 5629,
      "à¬¶à¬§à¬°": 5630,
      "à¬¼(": 5631,
      "à¬°à¬£à¬Ł": 5632,
      "Ġà¬Ľà¬³": 5633,
      "à¬ħà¬¨à¬Ļ": 5634,
      "à¬¶à¬¨à¬¶": 5635,
      "à¬®à¬ķà¬¤": 5636,
      "à¬ıà¬®à¬Ļ": 5637,
      "à¬Ńà¬°à¬ª": 5638,
      "à¬ķà¬Łà¬ľà¬¨à¬ķ": 5639,
      "ĠàŃ©àŃ©àŃ¨": 5640,
      "ation": 5641,
      "à¬®à¬¯à¬ľ": 5642,
      "àŃĢ.": 5643,
      "à¬¥à¬¨à¬ķ": 5644,
      "à¬Ĺà¬°à¬¤": 5645,
      "à¬¶à¬°à¬°": 5646,
      "Ġà¬¦à¬°à¬Ńà¬Ļ": 5647,
      "à¬ļà¬Ń": 5648,
      "ĠàŃ«àŃªàŃ¦": 5649,
      "ĠàŃªàŃ§àŃ¯": 5650,
      "Ġà¬¦à¬³à¬ł": 5651,
      "à¬ĩà¬ķà¬¸": 5652,
      "Ġà¬ľà¬°à¬¡": 5653,
      "ĠàŃ©àŃ¦àŃ¯": 5654,
      "Ġà¬ĵà¬Ńà¬°à¬¸": 5655,
      "ĠàŃ©àŃŃàŃ«": 5656,
      "à¬°à¬¥à¬®à¬¥à¬°à¬ª": 5657,
      "à¬°àŃŁà¬ķ": 5658,
      "à¬¤à¬°à¬¤": 5659,
      "à¬²à¬¤à¬ķ": 5660,
      "à¬ĩà¬¶à¬¹": 5661,
      "à¬Ńà¬ĸ": 5662,
      "à¬ģâĢĻ": 5663,
      "Ġà¬®à¬¹à¬®à¬¬à¬¤": 5664,
      "à¬®à¬°à¬Ļ": 5665,
      "Ġà¬Ĩà¬īà¬Łà¬¸": 5666,
      "Ġà¬ľà¬¨à¬¸à¬¨à¬Ļ": 5667,
      "ĠàŃ¨àŃŃàŃ¬": 5668,
      "ĠàŃ¨àŃ®àŃª": 5669,
      "Ġà¬Ńà¬°à¬¤à¬Ļ": 5670,
      "Ġà¬¯à¬¶à¬ĵ": 5671,
      "Ġ..": 5672,
      "à¬¸à¬®à¬²": 5673,
      "Ġà¬ıà¬²à¬¬": 5674,
      "à¬ļà¬¢": 5675,
      "Ġà¬¤à¬ľ": 5676,
      "Ġà¬¶à¬¤à¬¬": 5677,
      "Ġà¬īà¬¸à¬®": 5678,
      "à¬Łà¬°à¬¸à¬¨": 5679,
      "Ġà¬§à¬ĵ": 5680,
      "à¬ĵà¬¥": 5681,
      "à¬¦à¬°à¬ł": 5682,
      "ĠàŃ®àŃ¦àŃ¦àŃ¦": 5683,
      "àŃĩà¬ģ;": 5684,
      "Ġà¬ķà¬³à¬¹à¬ķ": 5685,
      "àŃŁàŃŁà¬¨à¬°à¬¤": 5686,
      "àŃ¨àŃ¦àŃ¦àŃ©": 5687,
      "à¬Ĳà¬¶": 5688,
      "se": 5689,
      "Ġp": 5690,
      "à¬°à¬ªà¬ķ": 5691,
      "àŃĩàŃĩ": 5692,
      "à¬ªà¬ıà¬£": 5693,
      "à¬Łà¬¬à¬¨": 5694,
      "à¬£à¬²à¬¤": 5695,
      "Ġà¬®à¬¦à¬ķ": 5696,
      "Ġà¬¦à¬¹à¬¨": 5697,
      "Ġà¬ļà¬¹à¬°à¬Ļ": 5698,
      "Ġà¬ĵà¬łà¬°": 5699,
      "Ġà¬ĩà¬ħà¬¨": 5700,
      "à¬¿,âĢĺ": 5701,
      "Ġà¬Ĩà¬¸à¬ķ": 5702,
      "à¬Ĩà¬ĩà¬ıà¬°": 5703,
      "àŃŁà¬¬à¬¤": 5704,
      "à¬ıà¬¨à¬ıà¬¸à¬¸": 5705,
      "à¬ıà¬²à¬¡": 5706,
      "Ġà¬§à¬¨à¬ĸà¬°": 5707,
      "Ġà¬¨à¬ľà¬°à¬¬à¬¨": 5708,
      "à¬ļà¬¸à¬ĸ": 5709,
      "ĠàŃ©àŃŃàŃ§": 5710,
      "ĠIn": 5711,
      "à¬¬à¬¬à¬¤": 5712,
      "Ġà¬ªà¬²à¬Ļ": 5713,
      "à¬¯à¬¯": 5714,
      "Ġà¬²à¬Ľ": 5715,
      "Ġà¬ĵà¬ıà¬¨": 5716,
      "à¬ªà¬°à¬«": 5717,
      "Ġà¬ľà¬¨à¬ħà¬¸à¬¨": 5718,
      "à¬ĩà¬ķà¬³": 5719,
      "ĠàŃ§àŃ¯àŃ¦àŃ¦": 5720,
      "à¬ķà¬²à¬ļà¬°": 5721,
      "à¬¤à¬°à¬ªà¬¶": 5722,
      "Ġà¬¦à¬¶à¬Ł": 5723,
      "à¬¬à¬£à¬Ļ": 5724,
      "Ġà¬Ĩà¬ĩà¬ıà¬¸à¬Ĩà¬ĩ": 5725,
      "un": 5726,
      "à¬°à¬ĺà¬°": 5727,
      "à¬¹à¬ªà¬°": 5728,
      "à¬¸à¬ĩ": 5729,
      "à¬¥à¬°à¬¤": 5730,
      "à¬īà¬·à¬£": 5731,
      "à¬łà¬Ľà¬¡": 5732,
      "à¬°à¬ķà¬ļà¬°": 5733,
      "Ġà¬ıà¬ķà¬²": 5734,
      "à¬¶à¬¨à¬¶à¬ķ": 5735,
      "Ġà¬¬à¬¡à¬Ĺ": 5736,
      "ĠàŃªàŃ¦àŃŃ": 5737,
      "ĠàŃ¨àŃ¬àŃ§": 5738,
      "Ġà¬ħà¬¸à¬°à¬ª": 5739,
      "ĠĠĠĠĠĠĠĠ": 5740,
      "à¬ĩà¬ħà¬Ļ": 5741,
      "Ġà¬®à¬łà¬ķ": 5742,
      "à¬Ĺà¬Łà¬Ļ": 5743,
      "à¬¡à¬¯": 5744,
      "à¬¡à¬¬à¬°": 5745,
      "Ġà¬¶à¬¬à¬°à¬Ļ": 5746,
      "Ġà¬ĸà¬ĩ": 5747,
      "ĠàŃ©àŃ¨àŃ¨": 5748,
      "Ġà¬ıà¬¥à¬°à¬°": 5749,
      "Ġà¬Ĩà¬īà¬ķ": 5750,
      "Ġà¬ħà¬¸à¬¹à¬ľ": 5751,
      "ĠàŃ§àŃ¯àŃ¨àŃ¦": 5752,
      "ĠàŃ¨àŃŃàŃ©": 5753,
      "à¬ĩà¬ĵà¬®": 5754,
      "Ġthe": 5755,
      "ĠW": 5756,
      "Ġà¬¯à¬®à¬°": 5757,
      "à¬ĸà¬ļ": 5758,
      "Ġà¬²à¬²à¬¨": 5759,
      "à¬ŀà¬¸": 5760,
      "Ġà¬ĸà¬ªà¬°": 5761,
      "Ġà¬°à¬¹à¬Ľ": 5762,
      "Ġà¬®à¬¨à¬ķà¬¥": 5763,
      "à¬¼à¬¾âĢĻ": 5764,
      "Ġà¬·à¬¢": 5765,
      "à¬ľàŃŁà¬²": 5766,
      "ĠàŃ§àŃ¯àŃ©àŃª": 5767,
      "à¬¤à¬¦à¬¶": 5768,
      "ĠàŃªàŃ¯àŃ®": 5769,
      "Ġà¬Ĩà¬Ĺà¬®à¬¨à¬ķ": 5770,
      "ĠNEET": 5771,
      "àŃįà¬ģ": 5772,
      "à¬¨à¬ĺ": 5773,
      "à¬£à¬¶": 5774,
      "à¬³à¬¥": 5775,
      "Ġà¬ĵà¬Ĩà¬ĩà¬¸": 5776,
      "Ġà¬§à¬¨à¬¸à¬®": 5777,
      "à¬¬à¬¨à¬Ĺà¬²": 5778,
      "Ġà¬Ĩà¬°à¬ªà¬Ł": 5779,
      "à¬¨à¬ķà¬²": 5780,
      "àŃ§àŃ¨àŃ«": 5781,
      "Ġà¬Ĩà¬ĩà¬Ń": 5782,
      "à¬¨à¬®à¬¸": 5783,
      "ĠàŃ¨àŃŃàŃª": 5784,
      "àŃ§àŃ¬àŃ¦": 5785,
      "Ġà¬Ĩà¬ĩà¬¸à¬ķ": 5786,
      "ĠàŃ©àŃ©àŃ®": 5787,
      "à¬ļà¬®à¬Ł": 5788,
      "ĠàŃ«àŃªàŃ©": 5789,
      "Ġà¬¬à¬Łà¬²à¬°à¬Ļ": 5790,
      "Ġà¬Ĺà¬ľà¬²à¬ķ": 5791,
      "àŃģâĢĻ,": 5792,
      "à¬¬à¬Ľ": 5793,
      "à¬ĩà¬ħà¬Ľ": 5794,
      "Ġà¬Ĩà¬Ĺà¬²à¬ª": 5795,
      "Ġà¬ľàŃŁà¬¬": 5796,
      "à¬ĸà¬¬à¬¨": 5797,
      "à¬Ĩà¬ĩà¬ĵ": 5798,
      "Ġà¬Ĩà¬¸à¬¨à¬Ĺ": 5799,
      "Ġà¬Ĩà¬ĩà¬¨à¬¸": 5800,
      "Ġà¬ľàŃŁà¬Ĺ": 5801,
      "à¬²à¬ĩ": 5802,
      "à¬Łà¬ļà¬°": 5803,
      "à¬ľà¬Ĩà¬¡": 5804,
      "à¬§à¬¶": 5805,
      "à¬§à¬ªà¬°": 5806,
      "à¬¾à¥¤âĢľ": 5807,
      "Ġà¬«à¬¹": 5808,
      "Ġà¬ľà¬£à¬ķà¬°": 5809,
      "Ġà¬ħà¬§à¬¸": 5810,
      "Ġà¬§à¬³à¬Ļ": 5811,
      "à¬°à¬¹à¬ķà¬°": 5812,
      "à¬ĩà¬ķà¬²": 5813,
      "à¬Ĩà¬¨à¬®": 5814,
      "à¬®à¬£à¬®": 5815,
      "à¬¿à¬¿à¬¿": 5816,
      "Ġà¬ľà¬Ĺà¬ľ": 5817,
      "ĠàŃ©àŃªàŃ«": 5818,
      "ĠàŃ¦àŃŃ": 5819,
      "ĠàŃ©àŃ¯àŃ¯": 5820,
      "à¬¬à¬§à¬°": 5821,
      "Ġà¬ªà¬¤à¬°": 5822,
      "à¬ªà¬ļà¬°": 5823,
      "à¬¦à¬¤à¬³": 5824,
      "à¬ĹàŃ±": 5825,
      "Ġà¬°à¬ĩà¬¸": 5826,
      "Ġà¬ľà¬ķ": 5827,
      "à¬°à¬°à¬°": 5828,
      "Ġà¬¸à¬¦à¬°à¬°": 5829,
      "Ġà¬ħà¬ľà¬®": 5830,
      "à¬ĩà¬ľà¬°à¬Ļ": 5831,
      "Ġà¬ħà¬¸à¬®àŃŁà¬°": 5832,
      "Ġà¬ħà¬®à¬°à¬ľ": 5833,
      "àŃ§àŃ§àŃ¨": 5834,
      "à¬¤à¬²à¬Ļ": 5835,
      "à¬ľà¬«": 5836,
      "Ġà¬¹à¬°à¬£": 5837,
      "à¬ļà¬ķà¬®": 5838,
      "Ġà¬Ńà¬¤à¬°": 5839,
      "à¬¼/": 5840,
      "à¬ħà¬³à¬Ļ": 5841,
      "Ġà¬¬à¬¡à¬Ń": 5842,
      "à¬ıà¬®à¬ª": 5843,
      "Ġà¬ľà¬³à¬§à¬°": 5844,
      "àŃŁà¬ªà¬²": 5845,
      "Ġà¬°à¬¨àŃ±": 5846,
      "Ġà¬¸à¬«à¬³à¬¤à¬®": 5847,
      "ĠàŃ¨àŃ«àŃ©": 5848,
      "ĠàŃ¨àŃ«àŃ¯": 5849,
      "ĠàŃ¨àŃ®àŃ¬": 5850,
      "Ġà¬ĭà¬£à¬Ń": 5851,
      "ĠàŃ©àŃ©àŃ«": 5852,
      "Ġà¬¹à¬²à¬ļà¬²": 5853,
      "ĠàŃªàŃ¬àŃ¦": 5854,
      "à¬¬à¬¡à¬¬": 5855,
      "Ġà¬¸à¬ļà¬³": 5856,
      "Ġà¬ķà¬°à¬£à¬Ļ": 5857,
      "à¬¡à¬¨à¬Ļ": 5858,
      "à¬°à¬ķà¬£": 5859,
      "Ġà¬¸à¬¹à¬¸à¬®": 5860,
      "Ġà¬®à¬¹à¬¸": 5861,
      "à¬¬à¬¨à¬¦": 5862,
      "à¬¿à¬ģà¬¿": 5863,
      "à¬·à¬¤à¬¬": 5864,
      "ĠàŃ©àŃ©àŃ¬": 5865,
      "Ġà¬ļà¬ªà¬²à¬°": 5866,
      "ad": 5867,
      "Ġà¬ķà¬ľ": 5868,
      "à¬¹à¬¤à¬ķ": 5869,
      "à¬³à¬Ĺà¬¡": 5870,
      "à¬§à¬ł": 5871,
      "à¬ļà¬³à¬¨": 5872,
      "Ġà¬ľà¬ıà¬¨": 5873,
      "à¬īà¬ķà¬°": 5874,
      "à¬¼à¬¿:": 5875,
      "Ġà¬ıà¬ķà¬¦à¬®": 5876,
      "à¬ĵà¬Ńà¬°": 5877,
      "Ġà¬īà¬ªà¬ª": 5878,
      "à¬ľàŃŁà¬ĵ": 5879,
      "Ġà¬ħà¬£à¬¬": 5880,
      "ĠàŃªàŃ¦àŃ©": 5881,
      "Ġà¬¦à¬®à¬ķà¬³à¬¬": 5882,
      "àŃ§àŃ§àŃ©": 5883,
      "à¬¾âĢĺ": 5884,
      "àŃĩâĢĺ": 5885,
      "à¬¤à¬ªà¬ķ": 5886,
      "à¬¡à¬²à¬°": 5887,
      "à¬ĸà¬ķà¬®": 5888,
      "Ġà¬ļà¬°à¬£à¬Ļ": 5889,
      "Ġà¬ĵà¬ł": 5890,
      "à¬¼à¬¿à¬Ĥ": 5891,
      "âĢĻ(": 5892,
      "ĠàŃ©àŃ¨àŃ¯": 5893,
      "Ġà¬Ľà¬ī": 5894,
      "à¬¢à¬¤": 5895,
      "à¬ļà¬³à¬ļ": 5896,
      "ĠàŃ¨àŃªàŃ®": 5897,
      "ĠàŃ¨àŃŃàŃ¯": 5898,
      "ĠàŃ¬àŃ¬àŃ¨": 5899,
      "à¬¿àŃĩ": 5900,
      "à¬ķà¬Ĩà¬īà¬Ł": 5901,
      "à¬ªà¬Ľà¬°": 5902,
      "Ġà¬®à¬¢": 5903,
      "à¬¶à¬ľ": 5904,
      "à¬¶à¬ĸ": 5905,
      "Ġà¬Ńà¬ī": 5906,
      "Ġà¬¤à¬¨àŃŁ": 5907,
      "à¬ıà¬¡à¬¬": 5908,
      "Ġà¬ĸà¬Łà¬°": 5909,
      "à¬Łà¬°à¬¡": 5910,
      "àŃįâĢĮ!": 5911,
      "Ġà¬¬à¬¡à¬¬à¬¡": 5912,
      "à¬īà¬¨à¬¶": 5913,
      "Ġà¬ħà¬£à¬Ľ": 5914,
      "à¬²à¬®à¬ĸ": 5915,
      "Ġà¬¹à¬Łà¬ļà¬®à¬Ł": 5916,
      "ĠàŃ¨àŃ®àŃ¨": 5917,
      "ĠàŃ©àŃ©àŃª": 5918,
      "Ġà¬ĵà¬Ńà¬°à¬Ł": 5919,
      "àŃ¨àŃ¦àŃ¦àŃ¨": 5920,
      "Ġà¬®à¬¦à¬¨à¬ª": 5921,
      "à¬¨à¬Ĺà¬¡": 5922,
      "à¬®à¬²à¬°": 5923,
      "à¬²à¬ıà¬¡": 5924,
      "à¬Ĺà¬¤à¬®": 5925,
      "à¬Ĺà¬ľà¬®": 5926,
      "à¬¿à¥¤âĢĿ": 5927,
      "Ġà¬ĨàŃŁà¬¬": 5928,
      "Ġà¬¯à¬®à¬ľ": 5929,
      "àŃĤ,": 5930,
      "à¬°à¬ķà¬Ĺ": 5931,
      "àŃŁà¬ķà¬ķ": 5932,
      "à¬¬à¬¨à¬ļà¬°": 5933,
      "àŃŁà¬¤à¬ł": 5934,
      "ĠàŃŃàŃ©àŃŃ": 5935,
      "à¬°à¬¹à¬£à¬ķà¬°": 5936,
      "à¬²à¬Łà¬¨à¬Ļ": 5937,
      "à¬ĩà¬ĵà¬¡à¬¬": 5938,
      "à¬ĸà¬ķà¬·": 5939,
      "ĠàŃªàŃ«àŃ¦àŃ¦": 5940,
      "re": 5941,
      "à¬¤à¬®à¬°": 5942,
      "à¬¬àŃŁà¬¸": 5943,
      "Ġà¬¬à¬ıà¬¸": 5944,
      "Ġà¬¬à¬Ĺà¬ª": 5945,
      "à¬¦à¬¶à¬¨": 5946,
      "à¬·à¬ªà¬£": 5947,
      "à¬Ĺà¬Ńà¬Ļ": 5948,
      "à¬ľà¬Ńà¬°": 5949,
      "à¬§à¬ķà¬®": 5950,
      "à¬§à¬§à¬°": 5951,
      "Ġà¬¹à¬ĩà¬ľ": 5952,
      "Ġà¬ľà¬¬à¬°": 5953,
      "à¬°à¬ķà¬¶à¬¨": 5954,
      "à¬°à¬®à¬®": 5955,
      "Ġà¬¬à¬°à¬¹": 5956,
      "Ġà¬ĺà¬°à¬Ńà¬Ļ": 5957,
      "Ġà¬ıà¬®à¬ľ": 5958,
      "à¬ıà¬¨à¬ª": 5959,
      "Ġà¬īà¬ŃàŃŁà¬ª": 5960,
      "Ġà¬ķà¬Łà¬ķà¬ķ": 5961,
      "Ġà¬ħà¬£à¬ĵà¬¸": 5962,
      "Ġà¬¹à¬Łà¬¸": 5963,
      "ĠàŃ¨àŃ®àŃ§": 5964,
      "àŃ§àŃ®àŃ¦": 5965,
      "àŃ§àŃ©àŃ¦": 5966,
      "ĠàŃ©àŃ«àŃ¨": 5967,
      "ĠàŃ©àŃ©àŃŃ": 5968,
      "inà¬°": 5969,
      "Ġà¬¤à¬«à¬¸": 5970,
      "ĠàŃģ": 5971,
      "à¬¨à¬¬à¬¸": 5972,
      "à¬¸à¬¸à¬°": 5973,
      "à¬ªà¬²à¬ķ": 5974,
      "à¬§à¬¹à¬¸": 5975,
      "Ġà¬¹à¬°à¬¨": 5976,
      "à¬°à¬¤à¬³": 5977,
      "Ġà¬¥à¬¨": 5978,
      "Ġà¬ĺà¬¨à¬¤": 5979,
      "à¬Ĩà¬ĩàŃŁ": 5980,
      "Ġà¬ħà¬¸à¬Ń": 5981,
      "à¬ĩà¬ľà¬®": 5982,
      "Ġà¬ļà¬®à¬ķà¬ª": 5983,
      "Ġà¬ĸà¬¡à¬Ĺà¬ª": 5984,
      "le": 5985,
      "à¬¾âĢľ": 5986,
      "à¬ķà¬¸à¬ķ": 5987,
      "à¬¤à¬ªà¬¤": 5988,
      "à¬®à¬Ńà¬ķ": 5989,
      "à¬īà¬·": 5990,
      "Ġà¬ħà¬ŃàŃŁà¬Ļ": 5991,
      "à¬Ĺà¬¤à¬ķ": 5992,
      "à¬¬à¬³à¬Ńà¬¦": 5993,
      "Ġà¬ıà¬®à¬Ĩà¬ĩ": 5994,
      "Ġà¬¬à¬¡à¬ļà¬£": 5995,
      "à¬ªà¬£à¬ľ": 5996,
      "à¬·à¬®à¬®": 5997,
      "ĠàŃ«àŃ¦àŃ«": 5998,
      "Ġà¬ªà¬£à¬¬à¬¨": 5999,
      "Ġà¬®à¬²à¬¹": 6000,
      "ĠàŃ¨àŃŃàŃ®": 6001,
      "ĠàŃ©àŃŃàŃŃ": 6002,
      "à¬Īà¬Ł": 6003,
      "à¬³à¬Ĺà¬ŀ": 6004,
      "à¬ĩà¬ªà¬°à¬¸": 6005,
      "Ġà¬ªà¬²à¬Ł": 6006,
      "à¬ĨàŃ±": 6007,
      "Ġà¬ħà¬¨à¬Ļ": 6008,
      "à¬¬à¬°à¬¸": 6009,
      "à¬ħà¬¡": 6010,
      "à¬°à¬¬à¬ľ": 6011,
      "à¬²à¬ķà¬Ĺ": 6012,
      "à¬¡à¬°à¬Ł": 6013,
      "à¬Ĩà¬ĩà¬ĵà¬ı": 6014,
      "à¬Ĺà¬²à¬Ļ": 6015,
      "à¬°à¬¹à¬£à¬¯": 6016,
      "ĠàŃ¨àŃ¦àŃ¨àŃ¯": 6017,
      "à¬²à¬¨à¬ĸà¬°": 6018,
      "Ġà¬¹à¬¦à¬Ĺà¬¡": 6019,
      "à¬ķà¬ıà¬¨": 6020,
      "à¬ķà¬¨à¬ķ": 6021,
      "àŃĩà¬¾),": 6022,
      "Ġà¬¬à¬ı": 6023,
      "à¬ĩà¬ıà¬®à¬¸": 6024,
      "àŃĢ?": 6025,
      "Ġà¬®à¬«": 6026,
      "Ġà¬¨à¬¯": 6027,
      "Ġà¬¨à¬ħà¬Ł": 6028,
      "à¬¯à¬®à¬¤": 6029,
      "à¬¼âĢĻ": 6030,
      "Ġà¬īà¬ĩà¬¥": 6031,
      "Ġà¬ĵà¬ıà¬²": 6032,
      "à¬«à¬°à¬¸": 6033,
      "à¬¼à¬¿-": 6034,
      "Ġà¬§à¬£": 6035,
      "Ġà¬¸à¬°à¬ļ": 6036,
      "Ġà¬ķà¬¨à¬¸à¬°": 6037,
      "ĠàŃ¨àŃ®àŃ©": 6038,
      "ĠàŃ©àŃ«àŃŃ": 6039,
      "Ġà¬Ĺà¬¡à¬¸": 6040,
      "Ġà¬Īà¬ª": 6041,
      "ĠàŃªàŃŃàŃ¦": 6042,
      "Ġm": 6043,
      "à¬°à¬ĸà¬£": 6044,
      "à¬¤à¬Ĺà¬£": 6045,
      "à¬¸à¬ĵà¬®": 6046,
      "à¬ĩà¬Ĩà¬²à¬°": 6047,
      "à¬ªàŃ±": 6048,
      "à¬§à¬°à¬°": 6049,
      "à¬§à¬¡à¬ķ": 6050,
      "Ġà¬¯à¬¹": 6051,
      "Ġà¬ªà¬°à¬¨": 6052,
      "à¬°à¬®àŃŁ": 6053,
      "ĠàŃ¨àŃ¦àŃªàŃ¦": 6054,
      "ĠàŃ¨àŃ¦àŃ©àŃ¬": 6055,
      "à¬ħà¬°à¬Ļ": 6056,
      "à¬ħà¬¬à¬¸à¬°": 6057,
      "Ġà¬ĺà¬°à¬ĺà¬°": 6058,
      "Ġà¬ľà¬¨à¬ªà¬¥": 6059,
      "à¬ľàŃŁàŃ±": 6060,
      "àŃ§àŃ¨àŃ¨": 6061,
      "Ġà¬Ĩà¬ĩà¬ĵà¬ı": 6062,
      "ĠàŃ©àŃ©àŃ©": 6063,
      "ĠàŃ©àŃ¯àŃ«": 6064,
      "ut": 6065,
      "à¬¬à¬ļà¬¨": 6066,
      "à¬¸à¬ķà¬°à¬Ļ": 6067,
      "à¬¦à¬ķà¬°à¬Ļ": 6068,
      "à¬ļà¬ł": 6069,
      "Ġà¬²à¬¨": 6070,
      "à¬ĵà¬«": 6071,
      "à¬ľà¬¨à¬ª": 6072,
      "Ġà¬Ľà¬£": 6073,
      "Ġà¬®à¬¨à¬Ńà¬°": 6074,
      "ĠàŃ«àŃ¨àŃ«": 6075,
      "à¬¦à¬°à¬ªà¬¦": 6076,
      "à¬¿.à¥¤": 6077,
      "ĠàŃŁà¬¸": 6078,
      "àŃģà¥¤âĢĻ": 6079,
      "Ġà¬ªà¬¢à¬¨": 6080,
      "Ġà¬§à¬¨à¬ķà¬°": 6081,
      "à¬¨à¬ªà¬¥à¬°": 6082,
      "ĠàŃ¦àŃ¦àŃ¦": 6083,
      "ĠàŃªàŃ©àŃ¬": 6084,
      "Ġà¬ĵà¬Ńà¬°à¬ħà¬²": 6085,
      "àŃ¨àŃ¦àŃ¦àŃª": 6086,
      "à¬ħà¬Ĺà¬°à¬¤": 6087,
      "ĠY": 6088,
      "à¬¤à¬²à¬ķ": 6089,
      "àŃŁà¬ĸ": 6090,
      "à¬ĩà¬¬à¬¸": 6091,
      "à¬Ĺà¬ľà¬¨": 6092,
      "Ġà¬°à¬·": 6093,
      "à¬ĸà¬¬à¬°à¬¦": 6094,
      "Ġà¬²àŃŁ": 6095,
      "à¬°à¬ķà¬¨": 6096,
      "à¬°à¬®à¬¬": 6097,
      "à¬¤à¬°à¬Ń": 6098,
      "Ġà¬¬à¬°à¬ªà¬ķ": 6099,
      "à¬ħà¬Ŀ": 6100,
      "à¬¤à¬¨à¬Ń": 6101,
      "à¬¼à¬¾/": 6102,
      "Ġà¬ľà¬¨à¬§à¬¨": 6103,
      "à¬ķà¬®à¬£": 6104,
      "Ġà¬ĩà¬¨à¬¡": 6105,
      "àŃ§àŃ§àŃ¦": 6106,
      "Ġà¬°à¬ķà¬®à¬°": 6107,
      "ĠàŃ©àŃ«àŃ«": 6108,
      "ĠàŃ©àŃ«àŃ§": 6109,
      "ĠàŃ©àŃªàŃ®": 6110,
      "ĠàŃ©àŃ©àŃ§": 6111,
      "à¬³à¬¦à¬£": 6112,
      "àŃ©àŃŃàŃ¦": 6113,
      "à¬³àŃŁà¬®": 6114,
      "à¬¶à¬§à¬¨à¬ķ": 6115,
      "Ġà¬ħà¬Ńà¬¦": 6116,
      "Ġà¬¦à¬³à¬ª": 6117,
      "à¬¿./": 6118,
      "à¬ªà¬¦à¬ľà¬¨à¬ķ": 6119,
      "Ġà¬¨à¬¬à¬®à¬°": 6120,
      "Ġà¬ıà¬«à¬¡": 6121,
      "Ġà¬¦à¬¶à¬¬à¬°": 6122,
      "ĠàŃ©àŃ®àŃ«": 6123,
      "à¬¤à¬¸à¬ªà¬¨": 6124,
      "ot": 6125,
      "à¬ķà¬¯": 6126,
      "à¬®àŃŁà¬Ļ": 6127,
      "à¬¹à¬¸à¬ķ": 6128,
      "Ġà¬¬à¬£à¬°": 6129,
      "à¬£à¬¬à¬°": 6130,
      "à¬¦à¬ĵ": 6131,
      "à¬ļà¬®à¬°": 6132,
      "à¬Ńà¬°à¬Ļ": 6133,
      "Ġà¬¤à¬¹à¬¬": 6134,
      "à¬ĸà¬®à¬¨": 6135,
      "Ġà¬²à¬¥": 6136,
      "à¬ªà¬°à¬¨": 6137,
      "Ġà¬¬à¬¨à¬ķà¬°": 6138,
      "à¬¦à¬¨à¬¯": 6139,
      "Ġà¬¸à¬¬à¬³": 6140,
      "à¬Ŀà¬ķ": 6141,
      "Ġà¬¬à¬²à¬ĵ": 6142,
      "Ġà¬ħà¬£à¬ª": 6143,
      "à¬¿?**": 6144,
      "ĠàŃªàŃ¬àŃŃ": 6145,
      "à¬¤à¬ļà¬°à¬Ĺ": 6146,
      "ow": 6147,
      "àŃĩ),": 6148,
      "àŃģ),": 6149,
      "àŃģâĢľ": 6150,
      "Ġà¬ķà¬īà¬¡": 6151,
      "Ġà¬¬à¬ī": 6152,
      "à¬Ĺà¬§à¬°": 6153,
      "Ġà¬ķà¬°à¬ĵ": 6154,
      "Ġà¬¹à¬°à¬°": 6155,
      "Ġà¬ľà¬¤": 6156,
      "à¬ĸà¬°à¬ķ": 6157,
      "Ġà¬ªà¬°à¬¤": 6158,
      "Ġà¬ļà¬Łà¬£": 6159,
      "Ġà¬ļà¬īà¬¦": 6160,
      "Ġà¬ĺà¬®": 6161,
      "à¬¤à¬°à¬¬": 6162,
      "Ġà¬¡à¬°à¬°": 6163,
      "à¬®à¬¨à¬¸": 6164,
      "à¬¢à¬®": 6165,
      "Ġà¬®à¬¨à¬¬": 6166,
      "àŃ©àŃ«àŃ¦": 6167,
      "àŃ©àŃªàŃ«": 6168,
      "ĠàŃªàŃ§àŃŃ": 6169,
      "ĠàŃªàŃ§àŃ¬": 6170,
      "àŃŃàŃ«àŃ¦": 6171,
      "à¬²à¬ķà¬¬": 6172,
      "à¬ªà¬ķà¬¤": 6173,
      "Ġà¬ķà¬²à¬ļà¬°": 6174,
      "à¬Ĩà¬ĩà¬ĩ": 6175,
      "à¬ĸà¬°à¬ļà¬£": 6176,
      "à¬¬à¬³à¬ª": 6177,
      "àŃģà¬ģâĢĻ": 6178,
      "à¬ľàŃŁà¬Ńà¬°": 6179,
      "à¬¬à¬ķà¬Ł": 6180,
      "Ġà¬Ĩà¬ĩàŃŁ": 6181,
      "à¬ªà¬Łà¬¨à¬°": 6182,
      "àŃĩà¬¾âĢĻà¥¤": 6183,
      "ĠàŃ©àŃ«àŃ¬": 6184,
      "à¬¦à¬¶à¬®à¬¨": 6185,
      "à¬Īà¬®": 6186,
      "Ġà¬¨à¬Ĺà¬°à¬¸": 6187,
      "ĠJ": 6188,
      "Ġà¬ķàŃŁ": 6189,
      "à¬ĩà¬¬à¬¨": 6190,
      "Ġà¬ħà¬ķà¬°": 6191,
      "à¬§à¬ĵ": 6192,
      "Ġà¬ĵà¬¶": 6193,
      "à¬¬à¬¨à¬Ł": 6194,
      "àŃŁà¬¨à¬Ĺà¬°à¬°": 6195,
      "à¬·à¬£à¬Ń": 6196,
      "Ġà¬ªà¬¡à¬¨": 6197,
      "Ġà¬ıà¬¸àŃŁ": 6198,
      "Ġà¬Ĩà¬īà¬Łà¬°": 6199,
      "Ġà¬ĨàŃŁà¬¤à¬¨": 6200,
      "Ġà¬Ĺà¬£à¬°": 6201,
      "Ġà¬¸à¬®àŃŁà¬ł": 6202,
      "Ġà¬ķà¬¨àŃ±": 6203,
      "à¬ķà¬¶à¬ª": 6204,
      "Ġà¬Ĩà¬īà¬Łà¬ª": 6205,
      "ĠàŃ¦àŃ«": 6206,
      "à¬¶à¬¤à¬ķà¬¡": 6207,
      "Ġà¬Ĩà¬ĩà¬ıà¬«à¬ıà¬¸": 6208,
      "!!": 6209,
      "AI": 6210,
      "Ġà¬£": 6211,
      "à¬¨à¬³": 6212,
      "à¬ªà¬®à¬¨": 6213,
      "Ġà¬®à¬·": 6214,
      "à¬¶àŃŁà¬Ĺ": 6215,
      "Ġà¬¦à¬¦": 6216,
      "Ġà¬¹à¬«": 6217,
      "à¬ģàŃģà¥¤": 6218,
      "Ġà¬²à¬Łà¬ķ": 6219,
      "Ġà¬¥à¬²": 6220,
      "Ġà¬ĸà¬ľà¬£": 6221,
      "Ġà¬«à¬ľà¬²": 6222,
      "ĠàŃ«àŃ¬àŃ¦": 6223,
      "Ġà¬¦à¬³à¬®à¬¤": 6224,
      "à¬ľàŃŁà¬¬à¬°à¬£": 6225,
      "ĠàŃ§àŃ¯àŃªàŃ¦": 6226,
      "à¬°à¬ªà¬Ł": 6227,
      "ĠàŃªàŃ¬àŃ®": 6228,
      "àŃ§àŃ§àŃ¬": 6229,
      "Ġà¬ĸà¬¨à¬¨à¬ķ": 6230,
      "iv": 6231,
      "ĠK": 6232,
      "à¬¿àŃģ": 6233,
      "à¬¬àŃŁà¬®": 6234,
      "à¬®à¬²à¬ķ": 6235,
      "à¬²à¬®à¬¤": 6236,
      "à¬¸à¬Ĺà¬¤": 6237,
      "à¬ĩà¬®à¬¨": 6238,
      "à¬ĩà¬Ŀ": 6239,
      "à¬Ľà¬¸": 6240,
      "à¬Ĺà¬ªà¬¡": 6241,
      "Ġà¬ħàŃŁà¬®": 6242,
      "Ġà¬Ĩà¬Łà¬®": 6243,
      "Ġà¬ľà¬ī": 6244,
      "à¬Ĩà¬ĺ": 6245,
      "à¬īà¬Ń": 6246,
      "à¬°à¬¤à¬°à¬¤": 6247,
      "Ġà¬ĩà¬°à¬®": 6248,
      "à¬ĺà¬Ń": 6249,
      "à¬ħà¬ł": 6250,
      "Ġà¬Ĩà¬°à¬Ĩà¬°": 6251,
      "à¬ıà¬¨à¬ıà¬²": 6252,
      "à¬ĩà¬¸à¬ľ": 6253,
      "à¬¸à¬¹à¬¦": 6254,
      "Ġà¬¸à¬¤à¬¸à¬¤": 6255,
      "ĠàŃ¨àŃªàŃ¦àŃ¦": 6256,
      "Ġà¬Ĭà¬¨à¬¬": 6257,
      "à¬Ĺà¬¬à¬¤à¬°": 6258,
      "Ġà¬Ĺà¬¹à¬®à¬°": 6259,
      "Ġà¬ħà¬¸à¬°à¬¨": 6260,
      "Ġand": 6261,
      "à¬ķà¬²à¬ķ": 6262,
      "à¬ķà¬ļà¬ķ": 6263,
      "à¬¨à¬ªà¬°": 6264,
      "à¬¬à¬ĩ": 6265,
      "à¬¬à¬ĩà¬ļ": 6266,
      "à¬®à¬ĵ": 6267,
      "à¬¶à¬ªà¬¥": 6268,
      "Ġà¬¯à¬ĸà¬ª": 6269,
      "Ġà¬²à¬¬à¬Ļ": 6270,
      "Ġà¬īà¬¥": 6271,
      "Ġà¬ļà¬ĩà¬¤": 6272,
      "àŃ±à¬°à¬®": 6273,
      "àŃ±à¬²à¬ª": 6274,
      "à¬°à¬£à¬¬à¬Ļ": 6275,
      "à¬®à¬¨à¬ª": 6276,
      "à¬¸à¬¨à¬Ń": 6277,
      "ĠàŃªàŃ¨àŃŃ": 6278,
      "Ġà¬ħà¬ªà¬ļ": 6279,
      "àŃ§àŃ¦àŃ«": 6280,
      "Ġà¬ħà¬ķà¬²": 6281,
      "à¬§à¬¨à¬Ĺ": 6282,
      "Ġà¬ħà¬£à¬ľà¬³à¬¸": 6283,
      "Ġà¬ıà¬²à¬ĩà¬¡": 6284,
      "Ġà¬°à¬£à¬§": 6285,
      "Ġà¬¸à¬«à¬¦à¬°": 6286,
      "Ġà¬ħà¬³à¬Ń": 6287,
      "àŃ§àŃ§àŃ«": 6288,
      "Ġà¬ķà¬¨à¬ķà¬²à¬¤": 6289,
      "Ġà¬Ĩà¬ĩà¬ıà¬¨à¬ıà¬¸": 6290,
      "àŃĩàŃģ": 6291,
      "à¬®à¬ªà¬°": 6292,
      "Ġà¬ķà¬·à¬£": 6293,
      "à¬¸àŃŁ": 6294,
      "à¬£à¬¬à¬¨": 6295,
      "à¬¦à¬¯": 6296,
      "à¬Ľà¬ķà¬ł": 6297,
      "à¬łà¬ł": 6298,
      "Ġà¬¡à¬Ĺà¬°": 6299,
      "Ġà¬¬à¬°à¬£à¬®": 6300,
      "Ġà¬®à¬¹à¬²à¬¤": 6301,
      "ĠàŃ«àŃªàŃ«": 6302,
      "à¬·à¬£à¬¬": 6303,
      "à¬°à¬ľà¬®": 6304,
      "Ġà¬®à¬¦à¬¬": 6305,
      "ĠàŃ¨àŃ¯àŃ®": 6306,
      "Ġà¬ªà¬°à¬®à¬¹": 6307,
      "Ġà¬¶à¬ªà¬¥à¬Ĺ": 6308,
      "Ġà¬«à¬¸à¬²à¬¬": 6309,
      "ĠàŃ§àŃ¯àŃ«àŃ©": 6310,
      "Ġà¬ħà¬łà¬°à¬¬": 6311,
      "ch": 6312,
      "Ġ5": 6313,
      "à¬²à¬¯": 6314,
      "Ġà¬¬à¬Ĺà¬²": 6315,
      "à¬¥à¬¨à¬Ļ": 6316,
      "à¬Ĺà¬Ńà¬°": 6317,
      "à¬Ĩà¬¦à¬°": 6318,
      "Ġà¬īà¬ĸ": 6319,
      "Ġà¬Łà¬¨à¬°": 6320,
      "à¬®à¬¨à¬®": 6321,
      "à¬ĺà¬Łà¬¨": 6322,
      "à¬Ĩà¬°à¬ĵ": 6323,
      "à¬¼à¬¾)": 6324,
      "à¬²à¬°à¬¶": 6325,
      "Ġà¬¬à¬¡à¬Ĺà¬¡": 6326,
      "àŃ§àŃ¦àŃ¬": 6327,
      "àŃ§àŃ¨àŃ®": 6328,
      "à¬¨à¬¬à¬Ļ": 6329,
      "Ġà¬Ĩà¬«à¬¤": 6330,
      "à¬Ĺà¬®à¬Ļ": 6331,
      "ĠàŃ¨àŃ¯àŃ¯": 6332,
      "ĠàŃ©àŃ«àŃ®": 6333,
      "à¬¡à¬ªà¬Ĺ": 6334,
      "àŃ§àŃ§àŃ§": 6335,
      "ts": 6336,
      "Ġà¬ªà¬²à¬°": 6337,
      "Ġà¬¬à¬Łà¬°": 6338,
      "à¬Łà¬¬à¬¸": 6339,
      "Ġà¬®à¬²à¬°": 6340,
      "à¬¡à¬ľ": 6341,
      "à¬Ńà¬¨à¬°": 6342,
      "Ġà¬¯à¬¯": 6343,
      "à¬ĸà¬¬à¬°à¬°": 6344,
      "à¬Ĩà¬·": 6345,
      "Ġà¬īà¬¥à¬ª": 6346,
      "Ġà¬¥àŃŁ": 6347,
      "à¬¼à¬¾:": 6348,
      "à¬¿à¬ģà¥¤âĢľ": 6349,
      "Ġà¬Ĩà¬ķà¬Ł": 6350,
      "à¬¡à¬°à¬ĵ": 6351,
      "Ġà¬¸à¬¬à¬¡": 6352,
      "ĠàŃŁà¬¶à¬Ļ": 6353,
      "à¬°à¬«à¬ķà¬°": 6354,
      "ĠàŃ§àŃ¯àŃ©àŃ¨": 6355,
      "àŃ§àŃ¯àŃ¯àŃ¬": 6356,
      "à¬¨à¬¬à¬®": 6357,
      "Ġà¬°à¬£à¬Ń": 6358,
      "à¬¬à¬ļà¬°à¬£": 6359,
      "Ġà¬ªà¬¥à¬Ń": 6360,
      "à¬²à¬ĸà¬¨à¬ª": 6361,
      "à¬°à¬³à¬ķ": 6362,
      "Ġà¬¬à¬«": 6363,
      "à¬£à¬ķà¬°": 6364,
      "à¬Ĺà¬¨à¬Ļ": 6365,
      "Ġà¬ľà¬ĵ": 6366,
      "Ġà¬īà¬£": 6367,
      "âĢĮ": 6368,
      "à¬¿à¬Ĥ/": 6369,
      "à¬Ĩà¬ĩà¬²": 6370,
      "Ġà¬ıà¬¸à¬ıà¬ļà¬ľ": 6371,
      "Ġà¬ħà¬¬à¬ľà¬°à¬Ń": 6372,
      "à¬ľà¬£à¬°": 6373,
      "à¬¤à¬ķà¬Ł": 6374,
      "ĠàŃ¯àŃ¯àŃ¯": 6375,
      "à¬³à¬ķà¬ķ": 6376,
      "Ġà¬ħà¬ªà¬Ĺ": 6377,
      "Ġà¬ħà¬Ĺà¬°à¬¤": 6378,
      "àŃ§àŃ¨àŃ§": 6379,
      "Ġà¬ħà¬£à¬Ń": 6380,
      "à¬ĩà¬¡à¬°à¬°": 6381,
      "à¬¥à¬³à¬¬": 6382,
      "ĠàŃ¨àŃ¯àŃŃ": 6383,
      "à¬²à¬Ńà¬Ń": 6384,
      "AS": 6385,
      "à¬¤à¬ªà¬¦": 6386,
      "à¬¬à¬ľà¬Ĺà¬¤à¬°": 6387,
      "à¬®à¬¸à¬°": 6388,
      "Ġà¬ķà¬Ĺ": 6389,
      "àŃŁà¬ľà¬Ĺà¬¤à¬°": 6390,
      "à¬¸à¬³": 6391,
      "à¬£à¬¬à¬³": 6392,
      "à¬·à¬³": 6393,
      "à¬ľà¬³à¬ķ": 6394,
      "à¬¶à¬£": 6395,
      "Ġà¬°àŃŁà¬¤": 6396,
      "à¬¯à¬¶": 6397,
      "Ġà¬Ńà¬ĩ": 6398,
      "Ġà¬ŃàŃŁà¬ķ": 6399,
      "Ġà¬Ĺà¬¡à¬¨": 6400,
      "à¬Ĩà¬®à¬ķ": 6401,
      "Ġà¬²à¬·": 6402,
      "à¬łà¬¬": 6403,
      "àŃŁà¬°à¬¸": 6404,
      "à¬ļà¬¨à¬ª": 6405,
      "ĠàŃªàŃ§àŃ§": 6406,
      "ĠàŃªàŃ¨àŃ¬": 6407,
      "à¬³à¬¨à¬¸": 6408,
      "Ġà¬īà¬ŃàŃŁà¬°": 6409,
      "Ġà¬ķà¬¨àŃ±à¬°": 6410,
      "Ġ:**": 6411,
      "Ġà¬ľàŃŁà¬²à¬³": 6412,
      "à¬²à¬Ĺà¬Ľ": 6413,
      "ĠàŃ©àŃ¬àŃª": 6414,
      "ĠàŃ©àŃ®àŃ¬": 6415,
      "ĠàŃªàŃŃàŃ§": 6416,
      "Ġà¬ľà¬Ĺà¬¦à¬²à¬ª": 6417,
      "Ġ!...": 6418,
      "?âĢĻ": 6419,
      "à¬¤à¬īà¬Ľà¬¨": 6420,
      "Ġà¬ķà¬¸à¬®": 6421,
      "àŃŁà¬§à¬°": 6422,
      "àŃŁà¬£à¬¨": 6423,
      "à¬¸à¬¤à¬°": 6424,
      "à¬¦à¬¶à¬®": 6425,
      "à¬Ľà¬¦à¬ª": 6426,
      "Ġà¬°à¬°": 6427,
      "à¬ıà¬·": 6428,
      "Ġà¬«à¬ĵ": 6429,
      "Ġà¬¸à¬¹à¬¬à¬¨": 6430,
      "à¬¼à¬¾(": 6431,
      "à¬Łà¬ķà¬Ĺ": 6432,
      "Ġà¬ħà¬«à¬°à¬ķ": 6433,
      "à¬°à¬«à¬³": 6434,
      "à¬ıà¬®à¬ĩ": 6435,
      "ĠàŃ§àŃ¯àŃ¨àŃ§": 6436,
      "ĠàŃ§àŃ¯àŃ¨àŃ¯": 6437,
      "à¬²à¬¬à¬Ĺ": 6438,
      "à¬¥à¬³à¬Ĺ": 6439,
      "à¬ĩà¬Ńà¬°à¬ķ": 6440,
      "Ġà¬ªà¬²à¬¸à¬°": 6441,
      "ĠàŃ©àŃ¬àŃ©": 6442,
      "ĠàŃ©àŃ¯àŃ¦": 6443,
      "Ġà¬Ńà¬Ĺà¬¬à¬¦": 6444,
      "àŃ§àŃ§àŃŃ": 6445,
      "Ġà¬¨à¬°à¬¹à¬¨": 6446,
      "à¬Ľà¬¦à¬ªà¬Łà¬°": 6447,
      "ag": 6448,
      "àŃŁà¬¹à¬°": 6449,
      "Ġà¬¹à¬ī": 6450,
      "Ġà¬Ĩà¬ıà¬¬": 6451,
      "à¬Ńà¬¦à¬°": 6452,
      "à¬ĸà¬ķà¬°": 6453,
      "à¬ıà¬¨à¬°": 6454,
      "Ġà¬¸à¬¹à¬°à¬¤à¬³": 6455,
      "ĠàŃ«àŃ§àŃ¦": 6456,
      "à¬ıà¬¸à¬ıà¬²": 6457,
      "à¬ļà¬³à¬ł": 6458,
      "àŃ§àŃ¦àŃ§": 6459,
      "Ġà¬¶à¬¹à¬¬": 6460,
      "ĠàŃ§àŃ§àŃ§àŃ": 6461,
      "à¬¹à¬³à¬¦": 6462,
      "à¬°à¬£à¬¬à¬¶à¬¤": 6463,
      "àŃ§àŃ§àŃ®": 6464,
      "à¬ķà¬³à¬ķ": 6465,
      "Ġà¬¸à¬°à¬£": 6466,
      "à¬¦à¬¡": 6467,
      "à¬ľà¬°à¬£": 6468,
      "Ġà¬Ĩà¬ªà¬ķ": 6469,
      "Ġà¬°à¬ļàŃŁ": 6470,
      "Ġà¬ľà¬¶à¬ª": 6471,
      "Ġà¬¤à¬¸": 6472,
      "à¬°à¬ķà¬°à¬ľ": 6473,
      "à¬«à¬®": 6474,
      "Ġà¬¬à¬°à¬ľ": 6475,
      "ĠàŃ©àŃ¨àŃ§": 6476,
      "ĠàŃ®àŃŃàŃ¦": 6477,
      "Ġà¬¹à¬ľà¬°à¬¤": 6478,
      "ĠàŃ§àŃ¯àŃ©àŃ«": 6479,
      "Ġà¬ħà¬Ĺà¬°à¬ķà¬°": 6480,
      "àŃ§àŃ¯àŃ¯àŃ¦": 6481,
      "ĠàŃ«àŃ¦àŃª": 6482,
      "à¬°à¬ľà¬¬à¬¨": 6483,
      "ĠàŃ©àŃ«àŃ¯": 6484,
      "ĠàŃ©àŃŃàŃ¯": 6485,
      "Ġà¬¶à¬°à¬¤à¬Ļ": 6486,
      "Ġà¬ıà¬ıà¬¨à¬Ĩà¬ĩ": 6487,
      "ig": 6488,
      "à¬¿à¬¿à¬Ĥ": 6489,
      "à¬°àŃŁà¬Ļ": 6490,
      "à¬ķà¬®à¬²": 6491,
      "àŃŁà¬ļà¬ķ": 6492,
      "à¬Łà¬¬à¬³": 6493,
      "Ġà¬Ĩà¬ĩà¬°": 6494,
      "Ġà¬ľàŃŁà¬¤": 6495,
      "à¬īà¬¦à¬Ļ": 6496,
      "àŃ±à¬¸à¬®": 6497,
      "Ġà¬Łà¬¬": 6498,
      "àŃŁà¬ķà¬²": 6499,
      "Ġà¬¬à¬°à¬¸": 6500,
      "ĠàŃŃàŃ©àŃ¦": 6501,
      "àŃŁà¬¬à¬Ľ": 6502,
      "à¬ļà¬³à¬£": 6503,
      "à¬¸à¬²à¬Ļ": 6504,
      "àŃ§àŃ¦àŃ¯": 6505,
      "Ġà¬Ĩà¬ĩà¬¨à¬¤": 6506,
      "Ġà¬Ĩà¬ĩà¬Ĺ": 6507,
      "àŃ§àŃ¯àŃ®àŃ¦": 6508,
      "à¬®à¬¦à¬³": 6509,
      "à¬®à¬ªà¬Ł": 6510,
      "à¬²à¬¨à¬¦": 6511,
      "à¬¤à¬³à¬·à¬·": 6512,
      "à¬¨à¬¦àŃŁ": 6513,
      "ĠàŃ«àŃ®àŃ¦": 6514,
      "à¬¬à¬Ĺà¬¡à¬°": 6515,
      "Ġà¬ħà¬ĺà¬Łà¬£à¬ķ": 6516,
      "à¬¨à¬¸à¬¨à¬Ń": 6517,
      "àŃĩ):": 6518,
      "à¬¨à¬¬à¬ķ": 6519,
      "à¬¬à¬£à¬ķ": 6520,
      "à¬®à¬ľà¬¨": 6521,
      "à¬®à¬ķà¬®": 6522,
      "à¬¦àŃŁà¬¬": 6523,
      "à¬Ĺà¬¥": 6524,
      "Ġà¬ķà¬°à¬¤à¬ķà¬³": 6525,
      "à¬§à¬ļ": 6526,
      "à¬ĩà¬¥à¬¬": 6527,
      "Ġà¬ĩà¬¸à¬®": 6528,
      "à¬¿à¬ģ!": 6529,
      "Ġà¬®à¬¨à¬Ń": 6530,
      "ĠàŃªàŃ¨àŃ®": 6531,
      "à¬¤à¬®à¬¹": 6532,
      "Ġà¬ľà¬¨à¬Ĺà¬£à¬Ļ": 6533,
      "Ġà¬Ĩà¬°à¬ıà¬®à¬¸": 6534,
      "à¬°à¬®à¬£à¬ľà¬¨": 6535,
      "ĠàŃ¯àŃ«àŃ¦": 6536,
      "ĠàŃ§àŃ¯àŃ¨àŃ®": 6537,
      "ĠàŃ§àŃ¯àŃªàŃª": 6538,
      "à¬¹à¬¨à¬²": 6539,
      "àŃ§àŃ¨àŃª": 6540,
      "Ġà¬¬à¬¦à¬²": 6541,
      "**âĢĺ": 6542,
      "Ġà¬ıà¬²à¬Ń": 6543,
      "ĠàŃ©àŃªàŃŃ": 6544,
      "ĠàŃ©àŃ¬àŃ¬": 6545,
      "Ġà¬īà¬ªà¬ķà¬°à¬£à¬ķ": 6546,
      "Ġà¬ħà¬¹à¬®à¬¦à¬Ļ": 6547,
      "Ġà¬ĹàŃŁà¬³": 6548,
      "Ġà¬Ĺà¬Ĺà¬¨àŃŁ": 6549,
      "à¬°à¬Ĺà¬³": 6550,
      "àŃĩ)à¥¤": 6551,
      "à¬¬à¬Ĺà¬¤": 6552,
      "à¬¬à¬£à¬ª": 6553,
      "à¬®à¬¬à¬¸": 6554,
      "Ġà¬¸à¬ħà¬³": 6555,
      "à¬£à¬Ľ": 6556,
      "à¬·à¬°à¬£": 6557,
      "à¬¡à¬£": 6558,
      "à¬ģ...": 6559,
      "Ġà¬¡à¬®à¬£": 6560,
      "à¬¬à¬¨à¬ł": 6561,
      "ĠàŃ©àŃ¨àŃŃ": 6562,
      "à¬ĩà¬¨à¬®": 6563,
      "Ġà¬®à¬¨à¬Ľ": 6564,
      "Ġà¬īà¬ªà¬¨à¬Ĺà¬°": 6565,
      "ĠàŃªàŃ¨àŃ«": 6566,
      "à¬°à¬¥à¬®à¬¸": 6567,
      "Ġà¬ľà¬¨à¬Ĩà¬¨": 6568,
      "Ġà¬ªà¬¹à¬¡": 6569,
      "Ġà¬ļà¬°à¬ĸ": 6570,
      "àŃ§àŃ¦àŃª": 6571,
      "Ġà¬®à¬¦à¬¦": 6572,
      "à¬¡à¬¬à¬®": 6573,
      "à¬°à¬Ĺà¬ŀ": 6574,
      "Ġà¬ªà¬²à¬¸": 6575,
      "à¬¹à¬°à¬£à¬¸": 6576,
      "ĠàŃ©àŃŃàŃ©": 6577,
      "Ġà¬ıà¬«à¬Ĩà¬ĩà¬ıà¬ļ": 6578,
      "àŃ±à¬ķà¬ªà¬ķ": 6579,
      "à¬Īà¬¹": 6580,
      "ĠàŃªàŃ¯àŃ¯": 6581,
      "Ġà¬¬à¬°à¬¹à¬®à¬ª": 6582,
      "à¬¾à¬¿": 6583,
      "à¬ķà¬¶à¬¨à¬°": 6584,
      "Ġà¬¸à¬¢": 6585,
      "Ġà¬ªà¬ı": 6586,
      "Ġà¬¨à¬ĸà¬°": 6587,
      "à¬¡à¬ªà¬®": 6588,
      "à¬¶à¬ªà¬Ļ": 6589,
      "Ġà¬Ĩà¬ľà¬°à¬¬": 6590,
      "Ġà¬¶à¬Łà¬°": 6591,
      "Ġà¬īà¬¸à¬ķ": 6592,
      "à¬ķà¬°à¬¡": 6593,
      "Ġà¬¸à¬°à¬Ĺ": 6594,
      "à¬Łà¬ķà¬¹": 6595,
      "ĠàŃ¬àŃªàŃ¦": 6596,
      "Ġà¬ĺà¬°à¬Ľ": 6597,
      "Ġà¬¬à¬¡à¬§à¬°à¬£à¬°": 6598,
      "Ġà¬¸à¬¨à¬®": 6599,
      "Ġà¬¹à¬°à¬ľ": 6600,
      "Ġà¬ķà¬³à¬®": 6601,
      "Ġà¬ķà¬Łà¬ķà¬ł": 6602,
      "àŃ§àŃ¯àŃ¯àŃ¨": 6603,
      "Ġà¬Ĺà¬°à¬¡": 6604,
      "à¬ıà¬ļà¬¸": 6605,
      "Ġà¬ľàŃŁà¬¯": 6606,
      "ĠàŃ©àŃŃàŃª": 6607,
      "à¬¬à¬°à¬ķà¬°": 6608,
      "ĠàŃ«àŃªàŃ¨": 6609,
      "Ġà¬¹à¬°à¬Ńà¬ľà¬¨à¬Ļ": 6610,
      "((": 6611,
      ")(": 6612,
      "ce": 6613,
      "à¬¤à¬³à¬°": 6614,
      "à¬¬à¬®à¬£": 6615,
      "à¬²à¬¨à¬°": 6616,
      "à¬Łà¬²à¬®": 6617,
      "à¬Ĺà¬¤à¬°": 6618,
      "Ġà¬¨à¬°à¬£à¬ª": 6619,
      "Ġà¬¹à¬²à¬¦": 6620,
      "Ġà¬ľàŃ±": 6621,
      "Ġà¬¤à¬Ļ": 6622,
      "à¬ıà¬ıà¬²": 6623,
      "Ġà¬¸à¬®à¬°à¬¸": 6624,
      "à¬ĵà¬·": 6625,
      "àŃ©àŃ¨àŃ¦": 6626,
      "ĠàŃªàŃ¨àŃ©": 6627,
      "àŃįâĢį": 6628,
      "à¬¶à¬°à¬«à¬Ļ": 6629,
      "à¬°à¬Ńà¬¦": 6630,
      "Ġà¬Ŀà¬Ļ": 6631,
      "Ġà¬¬à¬¸à¬ķ": 6632,
      "à¬¬à¬ķà¬ľà¬£à¬Ļ": 6633,
      "à¬°à¬ªà¬¦": 6634,
      "Ġà¬ħà¬£à¬®": 6635,
      "Ġà¬Ĩà¬¡à¬ª": 6636,
      "àŃ§àŃªàŃ¦": 6637,
      "Ġà¬ıà¬¡à¬ĵ": 6638,
      "ĠàŃ©àŃ®àŃª": 6639,
      "ĠàŃ©àŃ®àŃ¯": 6640,
      "Ġà¬ħà¬¸à¬¹à¬®à¬¤": 6641,
      "Ġà¬ħà¬ĺà¬Łà¬£à¬°": 6642,
      "Ġà¬¯à¬¶à¬¬à¬¨": 6643,
      "àŃĩ....": 6644,
      "Ġà¬ĵà¬¢à¬£": 6645,
      "Ġà¬¼": 6646,
      "à¬°à¬¶à¬¨": 6647,
      "à¬¤à¬³à¬ķ": 6648,
      "à¬®à¬«à¬³": 6649,
      "à¬²à¬Ľ": 6650,
      "à¬¹à¬¹": 6651,
      "à¬ĩà¬Ĩà¬£": 6652,
      "Ġà¬®à¬Ĺà¬°": 6653,
      "à¬³à¬ļà¬¨": 6654,
      "à¬³à¬¦à¬°": 6655,
      "à¬·à¬ªà¬°": 6656,
      "Ġà¬¨à¬¶": 6657,
      "à¬ľà¬Ĺà¬¡": 6658,
      "Ġà¬ĨàŃŁà¬¬à¬¹": 6659,
      "à¬ģà¬¾à¥¤": 6660,
      "Ġà¬¸à¬®à¬Ń": 6661,
      "Ġà¬ĵà¬¤": 6662,
      "Ġà¬ħà¬¨à¬ĵ": 6663,
      "à¬ĺà¬¸à¬®àŃŁ": 6664,
      "ĠàŃ¬àŃ¨àŃ«": 6665,
      "Ġà¬ĵà¬¡à¬Ĺ": 6666,
      "à¬°à¬«à¬°": 6667,
      "à¬°à¬«à¬ķ": 6668,
      "à¬°à¬¨à¬ª": 6669,
      "Ġà¬Ńà¬²à¬²": 6670,
      "Ġà¬ħà¬ķà¬¸": 6671,
      "...âĢĻ": 6672,
      "ĠàŃ±à¬°": 6673,
      "à¬²à¬¬à¬®": 6674,
      "ĠàŃ«àŃ¦àŃ®": 6675,
      "à¬ķà¬²à¬ľ": 6676,
      "à¬ĩà¬ľà¬¡": 6677,
      "àŃ§àŃ©àŃ«": 6678,
      "àŃ§àŃ©àŃ©": 6679,
      "à¬®àŃŁà¬ķà¬°": 6680,
      "ĠàŃ©àŃªàŃ¬": 6681,
      "Ġà¬ıà¬ļà¬Ĩà¬ĩà¬Ń": 6682,
      "à¬Ĩà¬ĩà¬ıà¬®à¬¡": 6683,
      "Ġà¬°à¬®à¬£à¬Ļ": 6684,
      "à¬°à¬¡à¬¬": 6685,
      "à¬¥à¬¡": 6686,
      "à¬¦àŃŁà¬¤": 6687,
      "Ġà¬®à¬ĸ": 6688,
      "à¬ģ?": 6689,
      "à¬Ĩà¬Ĺà¬¦": 6690,
      "Ġà¬²à¬Ńà¬°": 6691,
      "Ġà¬Łà¬ĵ": 6692,
      "à¬«à¬¸": 6693,
      "à¬«à¬°à¬¨à¬Ĺà¬°": 6694,
      "Ġà¥¤âĢĻ": 6695,
      "à¬°à¬¹à¬Ĺ": 6696,
      "à¬Ĺà¬¤à¬Ń": 6697,
      "à¬¾âĢĻ:": 6698,
      "ĠàŃŃàŃ¬àŃ¦": 6699,
      "Ġà¬¬à¬¡à¬ķ": 6700,
      "à¬ıà¬®à¬¡": 6701,
      "àŃŁà¬¸à¬ķ": 6702,
      "à¬¸à¬ķà¬¬": 6703,
      "àŃ§àŃ¦àŃ©": 6704,
      "àŃ§àŃ¦àŃ®": 6705,
      "à¬¨à¬¨à¬Ĺà¬°": 6706,
      "ĠàŃ«àŃ¦àŃ¯": 6707,
      "Ġà¬ľà¬¬à¬¤à¬ķà¬°": 6708,
      "ĠàŃªàŃ¦àŃ¨": 6709,
      "ĠàŃªàŃ¦àŃ§": 6710,
      "ĠàŃ¨àŃ©àŃ¦àŃ¦": 6711,
      "Ġà¬¬àŃŁà¬¸à¬¸": 6712,
      "Ġà¬¤à¬¤à¬²": 6713,
      "àŃĩà¬¾âĢĻ,": 6714,
      "Ġà¬ħà¬ľà¬¹à¬°": 6715,
      "à¬Ńà¬²à¬ªà¬°": 6716,
      "à¬Ĩà¬ĩà¬ıà¬®à¬ıà¬«": 6717,
      "à¬Ĩà¬°à¬ıà¬¸à¬ıà¬¸": 6718,
      "Ġà¬¸à¬¤à¬ķà¬¥": 6719,
      "oo": 6720,
      "à¬¨à¬Łà¬°": 6721,
      "à¬¨à¬®à¬¤": 6722,
      "àŃŁà¬²à¬°": 6723,
      "à¬£à¬ªà¬ķ": 6724,
      "Ġà¬ħà¬¶à¬°à¬«": 6725,
      "à¬ľà¬ªà¬ķ": 6726,
      "à¬§à¬ªà¬¡": 6727,
      "à¬¯à¬¥": 6728,
      "Ġà¬ľà¬¬à¬ķ": 6729,
      "Ġà¬²à¬ĩà¬ķ": 6730,
      "à¬īà¬³à¬Ļ": 6731,
      "Ġà¬īà¬¨à¬Ļ": 6732,
      "Ġà¬ªà¬°àŃ±": 6733,
      "à¬ıà¬¬à¬Ļ": 6734,
      "ĠàŃ¨àŃ¨àŃ¦àŃ¦": 6735,
      "à¬¬à¬¨à¬Ĺà¬°": 6736,
      "à¬¤à¬¨à¬³": 6737,
      "ĠàŃ«àŃ¨àŃ©": 6738,
      "à¬³à¬¨àŃŁà¬¨": 6739,
      "à¬¨à¬Ĺà¬°à¬ł": 6740,
      "Ġà¬ľàŃŁà¬Ĩà¬²": 6741,
      "ĠàŃ©àŃªàŃ¯": 6742,
      "ĠàŃ©àŃ¬àŃŃ": 6743,
      "Ġà¬¦à¬¶à¬®à¬°": 6744,
      "à¬ĩà¬«à¬¸": 6745,
      "ĠàŃªàŃ¬àŃ«": 6746,
      "ĠàŃªàŃ¯àŃ¦": 6747,
      "à¬ľàŃŁà¬¨à¬Ĺà¬°à¬®": 6748,
      "Ġà¬¦à¬¹à¬²": 6749,
      "à¬Ńà¬°à¬ķà¬°": 6750,
      "Ġà¬ľà¬°à¬¦": 6751,
      "à¬ģà¬ģ": 6752,
      "à¬Ĩà¬¥": 6753,
      "à¬Ĩà¬¬à¬¸": 6754,
      "à¬łà¬ĺà¬°": 6755,
      "Ġà¬¥à¬°à¬ª": 6756,
      "Ġà¬«à¬®": 6757,
      "à¬ĵà¬ķà¬¨": 6758,
      "à¬°à¬¸à¬°à¬ķ": 6759,
      "Ġà¬®à¬¨à¬¨": 6760,
      "à¬ıà¬¸à¬¨à¬°": 6761,
      "Ġà¬¦à¬°à¬ł": 6762,
      "à¬Ĩà¬²à¬®": 6763,
      "à¬²à¬¬à¬¶à¬¤": 6764,
      "ĠàŃªàŃ¦àŃ¬": 6765,
      "à¬¨à¬®àŃŁ": 6766,
      "à¬ªà¬¥à¬Ĺ": 6767,
      "Ġà¬ĵà¬Ńà¬°à¬¨": 6768,
      "àŃ§àŃ©àŃ¨": 6769,
      "ĠàŃ©àŃŃàŃ¨": 6770,
      "Ġà¬ıà¬«à¬¬": 6771,
      "Ġà¬¯à¬¶àŃ±à¬¨": 6772,
      "àŃ§àŃ§àŃª": 6773,
      "Ġà¬ħà¬ªà¬¹à¬°à¬£à¬°": 6774,
      "Ġ3": 6775,
      "àŃĩâĢľ": 6776,
      "à¬²à¬Ŀà¬°": 6777,
      "à¬¸à¬¡à¬°": 6778,
      "à¬£à¬ªà¬£": 6779,
      "à¬·à¬¬à¬¨": 6780,
      "Ġà¬ıà¬°à¬¡": 6781,
      "Ġà¬ķà¬°à¬¨à¬Ļ": 6782,
      "Ġà¬°à¬ĩà¬¤": 6783,
      "à¬Ĩà¬ĩà¬Ľà¬¨": 6784,
      "à¬Ĩà¬²à¬ķ": 6785,
      "à¬Ĩà¬ľà¬ķ": 6786,
      "à¬Ĩà¬Ĩà¬¡": 6787,
      "à¬ıàŃ±": 6788,
      "Ġà¬ħà¬¨à¬Łà¬¨à¬°": 6789,
      "à¬°à¬¤à¬§": 6790,
      "à¬ĺà¬¬à¬Ļ": 6791,
      "ĠàŃªàŃ¨àŃª": 6792,
      "ĠàŃ§àŃ¯àŃ©àŃ§": 6793,
      "à¬ĩà¬¦à¬°à¬Ļ": 6794,
      "Ġà¬®à¬ľà¬²": 6795,
      "Ġà¬Ķà¬·à¬§à¬Ĺ": 6796,
      "ĠàŃ¦àŃ¯": 6797,
      "Ġà¬ĵà¬ªà¬¨à¬°à¬Ļ": 6798,
      "ĠàŃ«àŃŃàŃ¦": 6799,
      "Ġà¬Ńà¬Ĺà¬¬à¬¨": 6800,
      "Ġà¬Ĩà¬ĩà¬ıà¬®à¬¡": 6801,
      "ect": 6802,
      "Ġ2024": 6803,
      "00": 6804,
      "Ġn": 6805,
      "à¬¾âĢĿ": 6806,
      "à¬¤à¬ķà¬°à¬£": 6807,
      "à¬¬à¬¤à¬°à¬£": 6808,
      "à¬²à¬¶à¬¨": 6809,
      "à¬ªàŃŁ": 6810,
      "à¬ªà¬¸à¬ķ": 6811,
      "Ġà¬®à¬Ł": 6812,
      "Ġà¬¨à¬Ľ": 6813,
      "à¬Ĩà¬¬à¬¶": 6814,
      "Ġà¬²àŃŁà¬°": 6815,
      "à¬īà¬ªà¬¸": 6816,
      "à¬¼à¬¿âĢĻ": 6817,
      "Ġà¬ĺà¬¨à¬ķ": 6818,
      "Ġà¬¡à¬ľà¬¨à¬°": 6819,
      "Ġà¬ĩà¬¨à¬°": 6820,
      "à¬¢à¬¬à¬°": 6821,
      "à¬ĺà¬²": 6822,
      "ĠàŃ¬àŃ¬àŃ¦": 6823,
      "à¬ĩà¬Łà¬¸": 6824,
      "Ġà¬ħà¬²à¬£": 6825,
      "ĠàŃ§àŃ®àŃ«àŃŃ": 6826,
      "à¬Ĩà¬ĩà¬¨à¬ľ": 6827,
      "à¬ľà¬®à¬ķà¬°": 6828,
      "à¬¬à¬°à¬ķà¬°à¬Ļ": 6829,
      "ĠàŃ©àŃ¯àŃ®": 6830,
      "ĠX": 6831,
      "Ġa": 6832,
      "àŃĩ/": 6833,
      "à¬¹àŃ±": 6834,
      "à¬¹à¬¤à¬®": 6835,
      "à¬ĩà¬¸à¬¨": 6836,
      "à¬Łà¬²à¬°à¬Ļ": 6837,
      "à¬Łà¬Ĩà¬Ł": 6838,
      "Ġà¬®à¬³à¬¦": 6839,
      "Ġà¬ķà¬°à¬ª": 6840,
      "Ġà¬ħà¬¦à¬¨": 6841,
      "à¬§à¬¦à¬Ĺ": 6842,
      "Ġà¬ļà¬ıà¬¸": 6843,
      "à¬ıà¬ıà¬ļ": 6844,
      "à¬ıà¬Ĩà¬ĩà¬ıà¬®": 6845,
      "Ġà¬°à¬¹à¬®à¬¨": 6846,
      "Ġà¬®à¬¹à¬£": 6847,
      "à¬ľà¬¨à¬¬": 6848,
      "à¬ĺà¬¨à¬°": 6849,
      "Ġà¬®à¬¨à¬ľ": 6850,
      "ĠàŃ«àŃ©àŃ¦": 6851,
      "à¬°à¬¬à¬ŀ": 6852,
      "à¬ĩà¬ªà¬¦à¬°": 6853,
      "Ġà¬ħà¬°à¬¡": 6854,
      "à¬ıà¬¸à¬®": 6855,
      "Ġà¬¸à¬¬à¬ĩà¬¨": 6856,
      "Ġà¬ªà¬¦à¬ļ": 6857,
      "à¬Ŀà¬°à¬ķ": 6858,
      "àŃŁà¬®à¬¨à¬¸": 6859,
      "Ġà¬ľà¬³à¬ļà¬°": 6860,
      "Ġà¬īà¬ªà¬¸à¬ļ": 6861,
      "Ġà¬īà¬ŃàŃŁà¬ªà¬ķ": 6862,
      "Ġà¬¶à¬°à¬¥": 6863,
      "à¬īà¬¤à¬ªà¬¡": 6864,
      "à¬Ĩà¬ĩà¬¨à¬Ń": 6865,
      "à¬ľà¬®à¬¹à¬²à¬°": 6866,
      "Ġà¬ªà¬¥à¬°à¬Ĺ": 6867,
      "ĠàŃ©àŃªàŃ©": 6868,
      "ĠàŃŃàŃ«àŃ¦àŃ¦": 6869,
      "ĠàŃªàŃ®àŃ¨": 6870,
      "ĠàŃ¦àŃª": 6871,
      "ĠàŃ¦àŃ®": 6872,
      "à¬¬à¬ľà¬¨à¬Ļ": 6873,
      "à¬Łà¬«à¬£": 6874,
      "à¬¨à¬¬à¬°à¬ľ": 6875,
      "Ġà¬¸à¬«à¬¦à¬°à¬ľà¬Ļ": 6876,
      "SR": 6877,
      "oc": 6878,
      "à¬¸à¬Łà¬°": 6879,
      "Ġà¬ıà¬ķà¬°à¬ķà¬®": 6880,
      "à¬°à¬£à¬ªà¬¤": 6881,
      "Ġà¬ĩà¬ł": 6882,
      "Ġà¬Ĩà¬¸à¬²": 6883,
      "Ġà¬Ľà¬ħà¬Ł": 6884,
      "Ġà¬īà¬ªà¬¡": 6885,
      "ĠàŃªàŃ¨àŃ§": 6886,
      "à¬Ĩà¬ĩà¬¡à¬¬": 6887,
      "Ġà¬Ĩà¬²à¬ıà¬ľ": 6888,
      "Ġà¬ķà¬¥à¬ķ": 6889,
      "à¬Ĺà¬³à¬®": 6890,
      "à¬¸à¬¹à¬ķ": 6891,
      "à¬ħà¬¨à¬¶": 6892,
      "Ġà¬ħà¬²à¬ľ": 6893,
      "àŃ§àŃ¯àŃ¯àŃ®": 6894,
      "àŃ§àŃ¯àŃ®àŃ¯": 6895,
      "à¬®à¬£à¬°": 6896,
      "Ġà¬¬à¬£à¬ľà¬Ļ": 6897,
      "àŃ¨àŃ®àŃ¦": 6898,
      "ĠàŃ©àŃ¬àŃ®": 6899,
      "ĠàŃªàŃ®àŃ®": 6900,
      "ĠàŃªàŃ©àŃ«": 6901,
      "à¬ĩà¬«à¬ķ": 6902,
      "à¬¬à¬Ĺà¬Ľ": 6903,
      "à¬Ĩà¬łà¬Ĺà¬¡": 6904,
      "Ġà¬²à¬Ľà¬®à¬¨": 6905,
      "id": 6906,
      "à¬®à¬łà¬°": 6907,
      "Ġà¬¬à¬Łà¬®": 6908,
      "à¬¥à¬ľ": 6909,
      "à¬Ńà¬«à¬³": 6910,
      "Ġà¬¤à¬®à¬°": 6911,
      "à¬¼)": 6912,
      "Ġà¬¸à¬¹à¬°à¬®": 6913,
      "Ġà¬¸à¬¹àŃŁà¬¤": 6914,
      "Ġà¬ĩà¬«à¬¤": 6915,
      "ĠàŃªàŃ§àŃª": 6916,
      "à¬¶à¬¨à¬¸": 6917,
      "à¬°à¬§à¬°à¬ª": 6918,
      "Ġà¬Ĩà¬¦à¬°à¬°": 6919,
      "à¬ıà¬®à¬Ĩà¬ĩ": 6920,
      "à¬¤à¬ķà¬¡": 6921,
      "ĠàŃ§àŃ¯àŃ©àŃ®": 6922,
      "à¬°à¬ľà¬³": 6923,
      "à¬¦à¬¶à¬ķà¬°": 6924,
      "Ġà¬ħà¬°à¬¬à¬ªà¬¤": 6925,
      ".)/": 6926,
      "Ġà¬¡à¬®à¬ªà¬¡": 6927,
      "Ġà¬ļà¬°à¬®à¬¸": 6928,
      "ak": 6929,
      "à¬ķà¬²à¬Ļ": 6930,
      "Ġà¬ķà¬³à¬¨": 6931,
      "à¬²à¬ªà¬°à¬Ļ": 6932,
      "àŃŁà¬£à¬¸": 6933,
      "Ġà¬¬à¬°à¬°": 6934,
      "à¬¦à¬³à¬ķ": 6935,
      "à¬ľà¬®à¬¨à¬ķ": 6936,
      "à¬¶àŃŁà¬ķ": 6937,
      "à¬¶à¬°à¬¦": 6938,
      "Ġà¬¹à¬¸à¬°à¬Ļ": 6939,
      "à¬Ńà¬°à¬ķ": 6940,
      "Ġà¬ľà¬²à¬ª": 6941,
      "à¬Ĩà¬Ŀà¬°": 6942,
      "à¬ļà¬¨à¬¬": 6943,
      "ĠàŃªàŃ§àŃ©": 6944,
      "ĠàŃªàŃ¨àŃ¯": 6945,
      "Ġà¬Ĩà¬ķà¬¬à¬°à¬Ļ": 6946,
      "à¬ıà¬¸à¬Ĩà¬°": 6947,
      "à¬ıà¬¨à¬ıà¬¨": 6948,
      "à¬Ĺà¬²à¬Ĺ": 6949,
      "ĠàŃ¯àŃ¦àŃ¦àŃ¦": 6950,
      "à¬¨à¬¸à¬Ł": 6951,
      "Ġà¬¹à¬°à¬ļà¬£": 6952,
      "Ġà¬¨à¬¬à¬Ļ": 6953,
      "à¬³à¬®àŃŁ": 6954,
      "ĠàŃªàŃ¦àŃ«": 6955,
      "ĠàŃ¨àŃ¬àŃ¦àŃ¦": 6956,
      "à¬ıà¬¶à¬¨à¬ķ": 6957,
      "Ġà¬ħà¬®à¬°à¬Ļ": 6958,
      "ĠàŃ«àŃ©àŃ®": 6959,
      "àŃ§àŃ§àŃ¯": 6960,
      "Ġà¬ķà¬¬à¬³à¬ķ": 6961,
      "Ġin": 6962,
      "à¬¿àŃĢ": 6963,
      "à¬ķà¬ľà¬¨": 6964,
      "Ġà¬ķà¬Ľ": 6965,
      "àŃŁà¬¸à¬¨": 6966,
      "Ġà¬ªà¬¨à¬¤": 6967,
      "Ġà¬¬à¬Łà¬²": 6968,
      "à¬¥à¬¦à¬£": 6969,
      "à¬£à¬¨à¬Ļ": 6970,
      "Ġà¬®à¬°à¬¨": 6971,
      "à¬³à¬°à¬ķ": 6972,
      "à¬Ĺà¬¬à¬¸": 6973,
      "Ġà¬ķà¬°à¬®à¬£": 6974,
      "à¬ľà¬Ĺà¬¦": 6975,
      "Ġà¬ªà¬°à¬Ł": 6976,
      "Ġà¬ļà¬ĩà¬¨": 6977,
      "à¬łà¬«": 6978,
      "Ġà¬¥à¬¬": 6979,
      "Ġà¬¡à¬°à¬¨": 6980,
      "Ġà¬Ĩà¬®à¬²": 6981,
      "ĠàŃ¬àŃ¨àŃ¦": 6982,
      "Ġà¬ĺà¬°à¬ª": 6983,
      "à¬ļà¬³à¬®": 6984,
      "Ġà¬ľà¬³à¬Ń": 6985,
      "à¬ĩà¬°à¬²": 6986,
      "ĠàŃ«àŃ¦àŃ§": 6987,
      "Ġà¬¹à¬ķà¬¦": 6988,
      "à¬¿?âĢĻ": 6989,
      "ĠàŃªàŃ«àŃŃ": 6990,
      "ĠàŃ©àŃ¯àŃª": 6991,
      "ĠàŃ«àŃ¯àŃ¦": 6992,
      "Ġà¬ķà¬¨à¬¸à¬²à¬Ł": 6993,
      "Ġà¬¸à¬°à¬¬à¬ľ": 6994,
      "à¬³à¬Ľà¬ªà¬°": 6995,
      "àŃŁà¬ĸà¬¸à¬¡": 6996,
      "pt": 6997,
      "àŃį...": 6998,
      "à¬¤à¬ĺà¬£": 6999,
      "à¬®à¬Ĺà¬¤": 7000,
      "Ġà¬¸à¬°à¬¦": 7001,
      "Ġà¬¬à¬ĩ": 7002,
      "à¬Łà¬ĺ": 7003,
      "à¬¥à¬ķà¬¬": 7004,
      "Ġà¬®à¬īà¬ķ": 7005,
      "à¬ĸà¬¨à¬¨": 7006,
      "à¬Ĩà¬ªà¬°": 7007,
      "Ġà¬ļà¬Ļ": 7008,
      "Ġà¬¡à¬ķà¬°": 7009,
      "ĠàŃ«àŃ¨àŃ¯": 7010,
      "Ġà¬¬à¬¨à¬¦": 7011,
      "à¬²à¬ķà¬ł": 7012,
      "ĠàŃ¬àŃ®àŃ¦": 7013,
      "ĠàŃŃàŃ®àŃ¦": 7014,
      "à¬ļà¬³à¬Ļ": 7015,
      "ĠàŃ§àŃ¯àŃ§àŃ®": 7016,
      "ĠàŃ§àŃ¯àŃ©àŃŃ": 7017,
      "Ġà¬Ĩà¬ĩà¬Ĩà¬°à¬¸": 7018,
      "à¬¨à¬Ĺà¬Ľ": 7019,
      "ĠàŃªàŃ¦àŃ¯": 7020,
      "àŃ¨àŃ¨àŃ®": 7021,
      "à¬¬à¬°à¬£à¬ķ": 7022,
      "à¬®à¬°à¬£à¬¯": 7023,
      "à¬¡à¬°à¬°à¬Ļ": 7024,
      "à¬®à¬ĺà¬Łà¬ķ": 7025,
      "Ġ)à¥¤": 7026,
      "àŃįàŃĥ": 7027,
      "àŃĩâĢĿ": 7028,
      "à¬¬à¬Ńà¬ķ": 7029,
      "à¬²à¬¢": 7030,
      "à¬²àŃŁà¬®": 7031,
      "Ġà¬¸à¬£": 7032,
      "à¥¤âĢĿ": 7033,
      "à¬·à¬ªà¬¥": 7034,
      "Ġà¬¨à¬ĩà¬®": 7035,
      "à¬¡à¬¬à¬Ļ": 7036,
      "à¬§à¬Ł": 7037,
      "à¬ģ)": 7038,
      "à¬łà¬ļ": 7039,
      "à¬°à¬®à¬ª": 7040,
      "à¬ĵà¬ªà¬¨": 7041,
      "à¬¸à¬¨à¬Ĺ": 7042,
      "Ġà¬·à¬ł": 7043,
      "Ġà¬Ĺà¬£à¬¬": 7044,
      "Ġà¬īà¬łà¬¨": 7045,
      "à¬¦à¬ķà¬¦": 7046,
      "à¬¹à¬¤à¬Ĺ": 7047,
      "Ġà¬Ĩà¬¤à¬¯": 7048,
      "à¬ķà¬³à¬¬à¬¨": 7049,
      "Ġà¬ıà¬²à¬Ĩà¬ĩà¬¸": 7050,
      "àŃ§àŃªàŃ«": 7051,
      "à¬ļà¬ķà¬¡": 7052,
      "ĠàŃ©àŃ®àŃ¨": 7053,
      "à¬ıà¬¶à¬¨à¬Ĺ": 7054,
      "ĠàŃ¦àŃ¬": 7055,
      "ĠàŃ©àŃ¯àŃ¬": 7056,
      "Ġà¬ķà¬®à¬³à¬²": 7057,
      "Ġà¬¨à¬Īà¬ķ": 7058,
      "à¬Ķà¬·à¬§": 7059,
      "bse": 7060,
      "ee": 7061,
      "à¬¤à¬Ľ": 7062,
      "à¬®à¬Łà¬°": 7063,
      "à¬¸à¬®à¬¨": 7064,
      "Ġà¬¬àŃŁà¬Ļ": 7065,
      "à¬Łà¬§à¬°": 7066,
      "à¬¶à¬«": 7067,
      "Ġà¬°à¬Ł": 7068,
      "à¬Ńà¬ľ": 7069,
      "à¬Ńà¬ıà¬¸": 7070,
      "Ġà¬¤à¬°à¬¬": 7071,
      "Ġà¬Ĺà¬¦à¬°": 7072,
      "à¬ĨàŃŁà¬°": 7073,
      "àŃŁà¬ķà¬ł": 7074,
      "Ġà¬ĩà¬ıà¬¨": 7075,
      "à¬°à¬¬à¬²": 7076,
      "à¬¦à¬¨à¬Ĺà¬°à¬°": 7077,
      "à¬¤à¬®àŃŁ": 7078,
      "Ġà¬¦à¬³à¬Ń": 7079,
      "Ġà¬Ĩà¬¶à¬²": 7080,
      "Ġà¬ıà¬¨à¬Ĺ": 7081,
      "à¬ıà¬¨à¬Ĩà¬ĩà¬ı": 7082,
      "à¬Ĺà¬²à¬®": 7083,
      "ĠàŃ§àŃ¯àŃ§àŃŃ": 7084,
      "Ġà¬ħà¬²à¬ĵ": 7085,
      "Ġà¬Ĩà¬ĩà¬ıà¬ıà¬«": 7086,
      "àŃ§àŃ¯àŃ¯àŃª": 7087,
      "à¬ķà¬¬à¬ļ": 7088,
      "àŃį)-": 7089,
      "Ġà¬Ĩà¬¡à¬²": 7090,
      "à¬Ĺà¬¬à¬¤à¬Ļ": 7091,
      "àŃ¨àŃ¦àŃ¦àŃ§": 7092,
      "ess": 7093,
      "ĠĠĊĠ": 7094,
      "à¬°à¬¨à¬ķ": 7095,
      "à¬¤à¬®à¬¨": 7096,
      "à¬¹à¬°à¬°": 7097,
      "à¬ŁàŃŁ": 7098,
      "Ġà¬ħà¬łà¬°": 7099,
      "Ġà¬¤à¬°à¬¨": 7100,
      "à¬Ĩà¬ĺà¬°": 7101,
      "Ġà¬¶à¬°à¬¨": 7102,
      "Ġà¬ļà¬ªà¬°": 7103,
      "à¬łà¬Ĺà¬£": 7104,
      "Ġà¬ĵà¬³à¬Ĺ": 7105,
      "à¬°à¬£à¬¦à¬°": 7106,
      "à¬ĺàŃ±": 7107,
      "à¬ħà¬¬à¬ķ": 7108,
      "à¬¸à¬°à¬ª": 7109,
      "ĠàŃªàŃ¨àŃ¨": 7110,
      "àŃ¬àŃ«àŃ¦": 7111,
      "à¬¦à¬°à¬Ń": 7112,
      "à¬ıà¬¸à¬ĵ": 7113,
      "ĠàŃŁà¬¶à¬°": 7114,
      "à¬Łà¬¨à¬®à¬°": 7115,
      "Ġà¬ħà¬¸à¬ľà¬¡": 7116,
      "à¬ıà¬¨à¬¬": 7117,
      "à¬ĩà¬²à¬Łà¬®": 7118,
      "Ġà¬ĨàŃŁà¬¬à¬°": 7119,
      "à¬ķà¬Łà¬®": 7120,
      "àŃ§àŃ¦àŃ¨": 7121,
      "à¬¶à¬¤à¬£": 7122,
      "àŃ§àŃªàŃ¯": 7123,
      "ĠàŃ©àŃŃàŃ®": 7124,
      "ĠàŃ©àŃ¬àŃ§": 7125,
      "ĠàŃ©àŃ®àŃ§": 7126,
      "ND": 7127,
      "SC": 7128,
      "ail": 7129,
      "à¬¨à¬Ńà¬¦": 7130,
      "Ġà¬ķà¬¬à¬°à¬°": 7131,
      "à¬¸à¬¶": 7132,
      "à¬³à¬²à¬ķ": 7133,
      "à¬ľà¬²à¬¬": 7134,
      "à¬¶à¬¢": 7135,
      "Ġà¬¦à¬¬à¬¦": 7136,
      "à¬§à¬°à¬£": 7137,
      "Ġà¬¹à¬ª": 7138,
      "Ġà¬ĨàŃŁà¬¨": 7139,
      "Ġà¬Ńà¬²à¬ķ": 7140,
      "à¬ĸà¬³à¬°": 7141,
      "à¬īà¬ªà¬¯": 7142,
      "Ġà¬¡à¬¹": 7143,
      "Ġà¬ĩà¬Ĺà¬²": 7144,
      "à¬¿à¬Ĥ...": 7145,
      "à¬¢à¬Ļ": 7146,
      "àŃªàŃ«àŃ¦": 7147,
      "à¬ħà¬°à¬ķ": 7148,
      "à¬ħà¬§à¬°": 7149,
      "à¬¤à¬¨à¬Ĺ": 7150,
      "ĠàŃªàŃ§àŃ«": 7151,
      "à¬¶à¬¨à¬ķà¬°": 7152,
      "à¬ıà¬¸à¬ı": 7153,
      "Ġà¬§à¬°à¬¨": 7154,
      "à¬Ĩà¬ĩà¬Ĩà¬°à¬°": 7155,
      "Ġà¬ıà¬¸à¬ĵà¬ª": 7156,
      "ĠàŃ¯àŃ¬àŃ¦": 7157,
      "ĠàŃ§àŃ¯àŃ¨àŃ¬": 7158,
      "Ġà¬Ĺà¬£à¬¦": 7159,
      "à¬·à¬¤à¬ļ": 7160,
      "à¬¸à¬ķà¬¨": 7161,
      "àŃ§àŃ¯àŃ¯àŃ©": 7162,
      "Ġà¬ªà¬¤à¬¨à¬°": 7163,
      "Ġà¬«à¬°àŃ±": 7164,
      "à¬ıà¬ļà¬ª": 7165,
      "àŃ§àŃ®àŃª": 7166,
      "Ġà¬ıà¬²à¬ĵà¬¸": 7167,
      "à¬¦à¬¬à¬ľ": 7168,
      "ĠàŃ©àŃ¬àŃ¨": 7169,
      "ĠàŃªàŃªàŃ«": 7170,
      "ĠàŃªàŃ©àŃª": 7171,
      "Ġà¬Ĩà¬ľà¬®à¬Ĺà¬¡": 7172,
      "ĠAI": 7173,
      "Ġà¬Ĩà¬°à¬ıà¬¸à¬ıà¬¸à¬°": 7174,
      "os": 7175,
      "àŃģà¬¿": 7176,
      "Ġà¬ķà¬¬à¬ķ": 7177,
      "Ġà¬ķà¬Ńà¬°à¬°": 7178,
      "Ġà¬ªà¬ĸà¬¤": 7179,
      "Ġà¬¬à¬¦à¬°": 7180,
      "à¬£à¬«": 7181,
      "Ġà¬¨à¬¸à¬°": 7182,
      "à¬§à¬ĸ": 7183,
      "à¬ļà¬²à¬¬": 7184,
      "à¬ģ(": 7185,
      "à¬ªà¬°à¬ª": 7186,
      "à¬«à¬¨à¬°": 7187,
      "Ġà¬ħà¬§à¬ªà¬¨": 7188,
      "à¬°à¬£à¬Ń": 7189,
      "Ġà¬®à¬¨à¬ĸ": 7190,
      "Ġà¬ıà¬¨à¬Ń": 7191,
      "à¬ļà¬³à¬¸": 7192,
      "Ġà¬ľà¬³à¬®": 7193,
      "ĠàŃ§àŃ¯àŃªàŃ©": 7194,
      "à¬¸à¬¹à¬¯": 7195,
      "Ġà¬¨à¬¬à¬Ĺà¬ł": 7196,
      "ĠàŃ«àŃ¦àŃ¨": 7197,
      "à¬¬à¬¦à¬®": 7198,
      "à¬Ĺà¬łà¬¨à¬®": 7199,
      "àŃ§àŃ©àŃ§": 7200,
      "Ġà¬ħà¬³à¬¤": 7201,
      "ĠàŃ©àŃªàŃª": 7202,
      "Ġà¬ħà¬ĸà¬¤": 7203,
      "Ġà¬§à¬³à¬¸": 7204,
      "à¬¿à¬ĥ,": 7205,
      "Ġà¬ıà¬Ĩà¬ĩàŃŁ": 7206,
      "à¬µà¬°": 7207,
      "dia": 7208,
      "Ġà¬ĸà¬ĩà¬°à¬®": 7209,
      "Ġà¬¦à¬¬à¬¦à¬¬": 7210,
      "har": 7211,
      "ter": 7212,
      "à¬ķà¬ľà¬®à¬ķà¬°": 7213,
      "à¬¤à¬¹à¬¸": 7214,
      "à¬®à¬¥à¬Ļ": 7215,
      "à¬²àŃŁà¬°": 7216,
      "à¬²à¬ªà¬¤": 7217,
      "Ġà¬¸à¬Łà¬°": 7218,
      "Ġà¬¸à¬ĵ": 7219,
      "à¬¸à¬ļà¬°": 7220,
      "Ġà¬¨à¬Ļ": 7221,
      "à¬¶à¬³à¬¤": 7222,
      "Ġà¬ªà¬°à¬ļ": 7223,
      "àŃ¨àŃ¨àŃ¦": 7224,
      "ĠàŃ©àŃ¨àŃ¦àŃ¦": 7225,
      "à¬Ĺà¬°à¬¯": 7226,
      "ĠàŃ¨àŃ¦àŃ©àŃ«": 7227,
      "à¬¬à¬¤à¬ķ": 7228,
      "Ġà¬ħà¬¸à¬²à¬°": 7229,
      "à¬ľàŃŁà¬§": 7230,
      "Ġà¬ĩà¬¨à¬ķà¬®": 7231,
      "Ġà¬ªà¬Łà¬ļ": 7232,
      "Ġà¬¨à¬¬à¬ĺà¬¨": 7233,
      "ĠàŃ«àŃ¦àŃ©": 7234,
      "ĠàŃ©àŃ¯àŃ¨": 7235,
      "ĠàŃªàŃªàŃ®": 7236,
      "à¬īà¬¦àŃŁà¬ª": 7237,
      "ĠàŃªàŃŃàŃ«": 7238,
      "àŃ©àŃŃàŃ¯": 7239,
      "à¬ľà¬Ĺà¬¤à¬¸": 7240,
      "Ġà¬ķà¬®à¬¨àŃ±": 7241,
      "à¬Ĩà¬°à¬Ĩà¬°à¬Ĩà¬°": 7242,
      "à¬¤à¬ĸà¬¤à¬°": 7243,
      "YC": 7244,
      "àŃį!": 7245,
      "à¬°à¬Ŀà¬¡": 7246,
      "à¬ķà¬ľà¬Ļ": 7247,
      "à¬¨àŃŁà¬Ļ": 7248,
      "à¬¨à¬ħà¬³à¬Ļ": 7249,
      "à¬¬à¬¹à¬°": 7250,
      "à¬®à¬°à¬¤": 7251,
      "à¬²à¬®à¬£": 7252,
      "à¬¹à¬ķà¬¤": 7253,
      "à¬¸à¬ĸ": 7254,
      "à¬ĩà¬Ĺà¬¡": 7255,
      "à¬ĩà¬ĸà¬£": 7256,
      "à¬£à¬²": 7257,
      "à¬£à¬°à¬Ļ": 7258,
      "à¬³à¬£à¬°": 7259,
      "Ġà¬ķà¬°à¬¸": 7260,
      "Ġà¬¶à¬«": 7261,
      "à¬īà¬ŀ": 7262,
      "à¬īà¬Łà¬°": 7263,
      "Ġà¬īà¬ĩà¬²": 7264,
      "à¬ıà¬¤à¬°": 7265,
      "à¬ıà¬ĩà¬ķ": 7266,
      "à¬«à¬°à¬¨à¬Ĺà¬°à¬°": 7267,
      "Ġà¬ĺà¬°à¬£": 7268,
      "Ġà¬ĺà¬°à¬¸": 7269,
      "Ġà¬Ľà¬īà¬¨": 7270,
      "Ġà¬īà¬ªà¬°à¬¬": 7271,
      "ĠàŃªàŃ§àŃ¨": 7272,
      "ĠàŃªàŃ©àŃ§": 7273,
      "Ġà¬¬à¬¨à¬¹à¬°à¬ª": 7274,
      "à¬¦à¬°à¬¬à¬¨": 7275,
      "ĠàŃ¬àŃ¨àŃ®": 7276,
      "à¬ıà¬¨àŃŁ": 7277,
      "à¬¤à¬ķà¬Ĺ": 7278,
      "à¬ıà¬²à¬ª": 7279,
      "ĠàŃ§àŃ«àŃ¦àŃ¦àŃ¦": 7280,
      "àŃ§àŃ¦àŃŃ": 7281,
      "à¬¤à¬¬à¬¬": 7282,
      "à¬¹à¬®à¬Ļ": 7283,
      "Ġà¬ªà¬¥à¬°à¬ª": 7284,
      "ĠàŃ©àŃ©àŃ¯": 7285,
      "Ġà¬¨à¬Ĺà¬°à¬ł": 7286,
      "ĠàŃ©àŃ¯àŃ©": 7287,
      "ĠàŃ©àŃ¯àŃŃ": 7288,
      "ĠàŃªàŃªàŃ§": 7289,
      "Ġà¬ķà¬¨à¬ķà¬¬à¬°": 7290,
      "Ġà¬ıà¬Ĩà¬ĩà¬ıà¬®à¬Ĩà¬ĩà¬ıà¬®": 7291,
      "à¬ıà¬®à¬ıà¬²à¬ı": 7292,
      "Ġà¬īà¬ªà¬¨à¬Ĺà¬°à¬ª": 7293,
      "à¬ķà¬ªà¬¤": 7294,
      "à¬¤à¬¶à¬°": 7295,
      "àŃģ..": 7296,
      "à¬Ĺà¬¹à¬®": 7297,
      "Ġà¬ħà¬ıà¬²à¬°": 7298,
      "à¬¡à¬¹à¬¤": 7299,
      "à¬§àŃ±": 7300,
      "Ġà¬¹à¬°à¬¤": 7301,
      "à¬īà¬«": 7302,
      "Ġà¬ļà¬°à¬£à¬°": 7303,
      "Ġà¬ĵà¬¨à¬°": 7304,
      "Ġà¬¥à¬¨à¬¬à¬°": 7305,
      "ĠàŃ«àŃ§àŃ«": 7306,
      "à¬¤à¬®à¬¸": 7307,
      "ĠàŃ¬àŃªàŃ«": 7308,
      "Ġà¬ħà¬¸à¬²à¬®": 7309,
      "à¬°à¬®à¬£à¬ł": 7310,
      "à¬ıà¬®à¬£": 7311,
      "à¬ıà¬®à¬ľ": 7312,
      "à¬ıà¬®à¬ıà¬«": 7313,
      "à¬°à¬¨à¬³": 7314,
      "Ġà¬¨à¬¬à¬Ĺ": 7315,
      "à¬¹à¬¤à¬ķà¬°": 7316,
      "à¬°à¬ľà¬Ń": 7317,
      "ĠàŃªàŃ¦àŃª": 7318,
      "àŃ§àŃ¬àŃ¨": 7319,
      "Ġà¬ıà¬ľà¬¬": 7320,
      "ĠàŃ©àŃ¬àŃ¯": 7321,
      "à¬ļà¬®à¬¹à¬²": 7322,
      "ĠàŃ©àŃ®àŃ©": 7323,
      "ĠàŃ©àŃ®àŃŃ": 7324,
      "ĠàŃ«àŃªàŃ¯": 7325,
      "àŃ¬àŃŃàŃª": 7326,
      "Ġà¬ļà¬°à¬®à¬ªà¬¨": 7327,
      "Ġà¬¦à¬®à¬¨à¬²": 7328,
      "à¬ľàŃŁà¬¨à¬Ĺà¬°": 7329,
      "?**": 7330,
      "à¬ķà¬®à¬¨": 7331,
      "Ġà¬¬à¬ķà¬°": 7332,
      "à¬¦à¬¥": 7333,
      "à¬¦à¬¬à¬ª": 7334,
      "à¬Ĺà¬§": 7335,
      "Ġà¬ħà¬ľà¬Ĺ": 7336,
      "Ġà¬¹àŃŁ": 7337,
      "Ġà¬°à¬ĵ": 7338,
      "à¬ļà¬°à¬£à¬Ļ": 7339,
      "Ġà¬Ĺà¬£à¬¸": 7340,
      "Ġà¬²à¬³à¬¨": 7341,
      "Ġà¬²à¬ĸà¬¨": 7342,
      "à¬īà¬ªà¬¨": 7343,
      "Ġà¬ħà¬¨à¬¶à¬¨à¬ķ": 7344,
      "à¬°à¬®à¬®à¬¨": 7345,
      "à¬°à¬£à¬ķà¬°": 7346,
      "à¬ĺà¬ľ": 7347,
      "à¬ĺà¬ĵ": 7348,
      "à¬ħà¬ļ": 7349,
      "Ġà¬īà¬ªà¬°à¬ł": 7350,
      "ĠàŃ¬àŃ¯àŃ¯": 7351,
      "à¬Ĩà¬ĩà¬ł": 7352,
      "ĠàŃŃàŃªàŃŃ": 7353,
      "à¬°à¬Ńà¬°": 7354,
      "à¬ıà¬¨à¬Ĩà¬°à¬ĩà¬ľ": 7355,
      "àŃĩà¬ģ?": 7356,
      "Ġà¬ĩà¬¨à¬«à¬°": 7357,
      "àŃ§àŃ¯àŃ¯àŃ«": 7358,
      "à¬³à¬®à¬³": 7359,
      "àŃ§àŃ©àŃ®": 7360,
      "àŃ¨àŃ¯àŃ«": 7361,
      "Ġà¬ıà¬¡à¬¸": 7362,
      "ĠàŃªàŃ«àŃ¬": 7363,
      "ĠàŃ©àŃ®àŃ®": 7364,
      "ĠàŃ«àŃ«àŃ©": 7365,
      "ĠàŃªàŃªàŃ¨": 7366,
      "ĠàŃªàŃ¬àŃ¯": 7367,
      "àŃįâĢĮâĢĻ:": 7368,
      "à¬ıà¬®à¬°à¬ľ": 7369,
      "à¬¤à¬£": 7370,
      "à¬®àŃ±": 7371,
      "à¬®à¬ªà¬¡": 7372,
      "Ġà¬ªà¬¦à¬¨": 7373,
      "à¬¸à¬·": 7374,
      "Ġà¬¬à¬·": 7375,
      "à¬ĩà¬ĺ": 7376,
      "à¬ªà¬¸à¬®": 7377,
      "à¬£à¬®à¬¨": 7378,
      "Ġà¬ħà¬¡à¬¬": 7379,
      "à¬¶à¬Ńà¬¦": 7380,
      "Ġà¬°à¬£à¬¸": 7381,
      "Ġà¬Ĺà¬ľà¬¬": 7382,
      "àŃ¦àŃ«àŃ¦": 7383,
      "à¬¼à¬¿)": 7384,
      "à¬¤à¬°à¬ªà¬Ł": 7385,
      "à¬Łà¬°à¬¶": 7386,
      "Ġà¬ĩà¬¡à¬ķ": 7387,
      "à¬¬à¬¨à¬¨": 7388,
      "à¬°à¬¦à¬®": 7389,
      "ĠàŃ«àŃ¨àŃ¨": 7390,
      "à¬·à¬£à¬ľà¬¨": 7391,
      "Ġà¬¸à¬¬à¬ķ": 7392,
      "Ġà¬ıà¬¸à¬ıà¬¸à¬ª": 7393,
      "à¬®à¬ķà¬²": 7394,
      "àŃ¨àŃ¦àŃ¨": 7395,
      "à¬ıà¬®à¬ı": 7396,
      "à¬ıà¬®à¬¡à¬¬": 7397,
      "Ġà¬ħà¬ªà¬¦à¬¸": 7398,
      "àŃ§àŃ¨àŃ¬": 7399,
      "à¬·àŃŁà¬Ł": 7400,
      "Ġà¬ľà¬¨à¬¸à¬®à¬°": 7401,
      "àŃ¨àŃ©àŃ¦": 7402,
      "à¬ľà¬Ĺà¬ŀ": 7403,
      "à¬ķà¬¡à¬®": 7404,
      "Ġà¬Ĳà¬ķ": 7405,
      "ĠàŃªàŃ¬àŃ§": 7406,
      "ĠàŃ«àŃ¬àŃŃ": 7407,
      "à¬³à¬ªà¬¥à¬ķ": 7408,
      "àŃŃàŃŃàŃŃ": 7409,
      "esul": 7410,
      "à¬¨à¬«à¬¸à¬²": 7411,
      "Ġà¬ľà¬¨à¬®à¬¤à¬ķ": 7412,
      "Ġà¬ªà¬ıà¬ľà¬¨": 7413,
      "hi": 7414,
      "à¬½": 7415,
      "Ġà¬ķà¬¨à¬°": 7416,
      "àŃŁà¬¶à¬ķ": 7417,
      "à¥¤à¥¤": 7418,
      "à¬¥à¬¦": 7419,
      "Ġà¬®à¬³à¬°": 7420,
      "Ġà¬¨à¬ľà¬®": 7421,
      "à¬¡à¬°à¬¶": 7422,
      "Ġà¬Ĩà¬ªà¬¨": 7423,
      "à¬ģà¬¿,": 7424,
      "Ġà¬¯à¬¬à¬ķ": 7425,
      "Ġà¬ļà¬īà¬°": 7426,
      "à¬ªà¬°à¬Ł": 7427,
      "Ġà¬ĸà¬¤à¬°": 7428,
      "Ġà¬ĸà¬¨à¬¨à¬°": 7429,
      "à¬ļà¬¨à¬¯": 7430,
      "à¬ĩà¬¨à¬¬": 7431,
      "Ġà¬īà¬ªà¬¶": 7432,
      "ĠàŃªàŃ§àŃ®": 7433,
      "Ġà¬¬à¬¨à¬ķ": 7434,
      "Ġà¬¸à¬¬à¬·": 7435,
      "à¬¾à¬ģ:": 7436,
      "Ġà¬Ĩà¬°à¬ıà¬²à¬¡": 7437,
      "à¬¸à¬²à¬°à¬®": 7438,
      "ĠàŃ§àŃ¯àŃ¨àŃŃ": 7439,
      "Ġà¬°à¬¨à¬Ĩà¬īà¬Ł": 7440,
      "à¬ªà¬¦à¬°à¬°": 7441,
      "à¬°àŃŁà¬¶à¬ķ": 7442,
      "à¬¬à¬¦à¬³à¬¨": 7443,
      "àŃ§àŃ¬àŃŃ": 7444,
      "àŃ§àŃªàŃª": 7445,
      "Ġà¬Ĺà¬¡à¬¤": 7446,
      "ĠàŃªàŃ®àŃŃ": 7447,
      "àŃªàŃ«àŃ¬": 7448,
      "àŃĩ?**": 7449,
      "est": 7450,
      "Ġà¬¸à¬ĩà¬¦à¬Ļ": 7451,
      "ab": 7452,
      "à¬ķà¬ļà¬£": 7453,
      "à¬¬à¬²à¬ķ": 7454,
      "à¬®à¬Ŀ": 7455,
      "àŃŁà¬³àŃŁà¬°": 7456,
      "àŃĩà¬¾à¬Ĥ": 7457,
      "à¬ªà¬Łà¬¨à¬®": 7458,
      "à¬Łà¬ĸà¬£": 7459,
      "Ġà¬ıà¬Ĩà¬ĩà¬¬": 7460,
      "à¬ľà¬ĸ": 7461,
      "Ġà¬¦à¬²à¬ķ": 7462,
      "Ġà¬¤à¬īà¬²": 7463,
      "à¬Ĩà¬ľà¬®": 7464,
      "Ġà¬ļà¬īà¬¤": 7465,
      "Ġà¬ĵà¬ĩà¬Ĩà¬°": 7466,
      "àŃ±àŃŁà¬°": 7467,
      "Ġà¬Łà¬®à¬ķ": 7468,
      "Ġà¬Łà¬³à¬®à¬³": 7469,
      "Ġà¬ħà¬¨à¬Ł": 7470,
      "à¬¬à¬°à¬Ĺ": 7471,
      "à¬ĺà¬ł": 7472,
      "àŃ®àŃ«àŃ¦": 7473,
      "à¬ıà¬¸à¬¡": 7474,
      "ĠàŃ¬àŃ¨àŃŃ": 7475,
      "Ġà¬¸à¬¬à¬ľ": 7476,
      "ĠàŃŃàŃªàŃ¦": 7477,
      "Ġà¬¬à¬¸à¬Ł": 7478,
      "ĠàŃ§àŃ¯àŃ§àŃ¯": 7479,
      "àŃ§àŃ¨àŃŃ": 7480,
      "à¬ķà¬ªà¬Ł": 7481,
      "à¬ıà¬«à¬Ł": 7482,
      "Ġà¬Ĩà¬ĩà¬¡à¬¬": 7483,
      "Ġà¬¨à¬¬à¬°à¬¤": 7484,
      "Ġà¬ħà¬£à¬¹": 7485,
      "à¬īà¬¡à¬ķ": 7486,
      "à¬¿-âĢĺ": 7487,
      "à¬ªà¬¥à¬°à¬°": 7488,
      "à¬°à¬ĸà¬®": 7489,
      "ĠàŃ¨àŃŃàŃ¦àŃ¦": 7490,
      "àŃ§àŃªàŃ¨": 7491,
      "Ġà¬ħà¬³à¬ª": 7492,
      "à¬¿?âĢľ": 7493,
      "Ġà¬¶à¬¬à¬Ĺ": 7494,
      "Ġà¬§à¬®à¬ķà¬ķ": 7495,
      "àŃŁà¬ľà¬³à¬°": 7496,
      "ĠàŃ©àŃ¯àŃ§": 7497,
      "ĠàŃªàŃ©àŃ©": 7498,
      "ĠàŃªàŃŃàŃª": 7499,
      "à¬Ńà¬²à¬Ńà¬°": 7500,
      "à¬°à¬¡à¬ķà¬¸à¬¨": 7501,
      "à¬ĩà¬ªà¬°à¬«à¬°": 7502,
      "?âĢľ": 7503,
      "ID": 7504,
      "op": 7505,
      "Ġ|": 7506,
      "à¬ķà¬ªà¬°": 7507,
      "à¬¬à¬ĩà¬°": 7508,
      "àŃŁà¬Ńà¬°": 7509,
      "à¬ĩà¬ľà¬ķ": 7510,
      "à¬·à¬®à¬£": 7511,
      "à¬Ĺà¬ľà¬ª": 7512,
      "Ġà¬Ĩà¬¯": 7513,
      "Ġà¬°à¬¸à¬°": 7514,
      "Ġà¬¸à¬®à¬·": 7515,
      "Ġà¬ħà¬¨à¬ķ": 7516,
      "Ġà¬Ľà¬ŀ": 7517,
      "Ġà¬®à¬¨à¬ĩà¬Ľ": 7518,
      "à¬¸à¬¨à¬Ĺà¬°à¬°": 7519,
      "à¬īà¬¥à¬®": 7520,
      "à¬·à¬£à¬ª": 7521,
      "ĠàŃ®àŃ©àŃ¦": 7522,
      "àŃ§àŃ¨àŃ©": 7523,
      "à¬¨à¬Łà¬Ļ": 7524,
      "Ġà¬Ĩà¬ĩà¬ļ": 7525,
      "àŃ§àŃ¯àŃ©": 7526,
      "àŃ§àŃ¯àŃ¯àŃŃ": 7527,
      "à¬£à¬¨à¬Ĺà¬°": 7528,
      "Ġà¬ķà¬ªà¬²à¬Ļ": 7529,
      "à¬§à¬ķà¬³": 7530,
      "àŃ§àŃŃàŃ«": 7531,
      "ĠàŃ©àŃ§àŃ¦àŃ¦": 7532,
      "ĠàŃªàŃ«àŃ«": 7533,
      "Ġà¬Ŀà¬¡à¬¬à¬°": 7534,
      "ĠàŃ«àŃ¬àŃ«": 7535,
      "ĠàŃ¬àŃŃàŃ¦": 7536,
      "Ġà¬°à¬ľà¬ªà¬°": 7537,
      "Ġà¬³à¬ķ": 7538,
      "Ġà¬§à¬°à¬®à¬ª": 7539,
      "à¬Ľà¬¦à¬ªà¬Ł": 7540,
      "Ġx": 7541,
      "à¬®à¬¬à¬¨": 7542,
      "Ġà¬¸à¬īà¬°": 7543,
      "Ġà¬ªà¬¤à¬Ļ": 7544,
      "à¬¸à¬«à¬³à¬¤": 7545,
      "à¬¦à¬°à¬¸": 7546,
      "à¬¦à¬®àŃŁ": 7547,
      "à¬Ĺà¬ĸ": 7548,
      "Ġà¬ķà¬°à¬ķ": 7549,
      "à¬ļà¬¶à¬¹": 7550,
      "à¬Ĩà¬īà¬¥": 7551,
      "àŃ±à¬§": 7552,
      "Ġà¬ĩà¬¡à¬¬": 7553,
      "à¬¿à¬ģâĢĻà¥¤": 7554,
      "à¬ĵà¬ł": 7555,
      "Ġà¬Ľà¬³à¬°": 7556,
      "à¬Ĩà¬°à¬ı": 7557,
      "à¬¸à¬¨à¬³": 7558,
      "ĠàŃ«àŃ¨àŃª": 7559,
      "ĠàŃ«àŃ§àŃŃ": 7560,
      "àŃ¯àŃ«àŃ¦": 7561,
      "à¬ĸà¬°à¬¨": 7562,
      "à¬¬à¬³à¬®": 7563,
      "Ġà¬ıà¬®à¬ıà¬¸à¬ª": 7564,
      "àŃ¨àŃ¦àŃ¨àŃ«": 7565,
      "à¬ľàŃŁà¬¨à¬Ļ": 7566,
      "Ġà¬Ĩà¬²à¬Ń": 7567,
      "à¬¨à¬¸à¬¨à¬°": 7568,
      "ĠàŃ§àŃ¯àŃ¨àŃ«": 7569,
      "ĠàŃ§àŃ¯àŃ¦àŃ§": 7570,
      "Ġà¬ħà¬²à¬Ń": 7571,
      "Ġà¬Ĩà¬ĩà¬¨à¬·": 7572,
      "àŃ§àŃ¯àŃ¦": 7573,
      "Ġà¬¤à¬³à¬¸à¬°": 7574,
      "Ġà¬¬à¬³à¬¤": 7575,
      "àŃ¨àŃ¨àŃª": 7576,
      "à¬ıà¬ķà¬ķ": 7577,
      "Ġà¬ķà¬¬àŃŁ": 7578,
      "àŃ§àŃ«àŃª": 7579,
      "ĠàŃªàŃ«àŃ¨": 7580,
      "à¬³à¬¬à¬£à¬°": 7581,
      "ĠàŃªàŃ¯àŃŃ": 7582,
      "ĠàŃªàŃŃàŃ©": 7583,
      "à¬°à¬£àŃŁà¬¨à¬ķ": 7584,
      "Ġà¬Ńà¬ľà¬¨à¬²": 7585,
      "Ġà¬ħà¬£à¬¸à¬Ļ": 7586,
      "ate": 7587,
      "ou": 7588,
      "Ġ4": 7589,
      "à¬¤à¬§à¬°": 7590,
      "à¬¤à¬Ĺà¬Ļ": 7591,
      "à¬¬à¬¥à¬°": 7592,
      "Ġà¬ķà¬ĩà¬¥": 7593,
      "Ġà¬ķà¬¤à¬°": 7594,
      "Ġà¬¸à¬ĩà¬¤": 7595,
      "à¬¸à¬§": 7596,
      "à¬³à¬¡": 7597,
      "à¬§à¬£": 7598,
      "Ġà¬ľà¬²à¬¨": 7599,
      "Ġà¬Ńà¬·": 7600,
      "Ġà¬Ĺà¬¹à¬¨": 7601,
      "à¬Ĩà¬¡à¬ķ": 7602,
      "à¬Ĩà¬ĸà¬¤": 7603,
      "Ġà¬īà¬Ł": 7604,
      "Ġà¬«àŃŁ": 7605,
      "à¬°à¬£à¬®": 7606,
      "à¬°à¬¸à¬ŀ": 7607,
      "à¬¬à¬¸à¬ª": 7608,
      "àŃ©àŃ§àŃ¦": 7609,
      "Ġà¬īà¬ªà¬§": 7610,
      "ĠàŃ«àŃ§àŃ¨": 7611,
      "ĠàŃ«àŃ¨àŃ®": 7612,
      "àŃŁà¬®à¬ŀ": 7613,
      "ĠàŃ¬àŃ¨àŃ©": 7614,
      "ĠàŃ¬àŃ§àŃ«": 7615,
      "à¬¡à¬°àŃ±": 7616,
      "à¬¬à¬³àŃŁà¬°": 7617,
      "à¬ĩà¬Łà¬Ĺ": 7618,
      "Ġà¬ıà¬¸à¬ıà¬¸": 7619,
      "Ġà¬Ĩà¬²à¬Ĺ": 7620,
      "ĠàŃ¯àŃ¨àŃ¯": 7621,
      "ĠàŃ§àŃ¯àŃ©àŃ¯": 7622,
      "àŃŁà¬ªà¬¥à¬°": 7623,
      "Ġà¬Ĩà¬ĩà¬¸à¬²": 7624,
      "àŃ§àŃ¯àŃ«àŃ¦": 7625,
      "àŃ§àŃ¯àŃ¯àŃ§": 7626,
      "Ġà¬ħà¬£à¬²": 7627,
      "Ġà¬Ńà¬°à¬·": 7628,
      "Ġà¬¢à¬Ĺ": 7629,
      "Ġà¬¬à¬³à¬¶": 7630,
      "àŃ¨àŃªàŃ¦": 7631,
      "Ġà¬ľàŃŁà¬¬à¬°": 7632,
      "ĠàŃ«àŃ©àŃ©": 7633,
      "ĠàŃ«àŃªàŃ¬": 7634,
      "Ġà¬ıà¬Ĩà¬ĩà¬ķ": 7635,
      "ĠàŃ¯àŃ¯àŃ¦": 7636,
      "Ġà¬ıà¬ªà¬Łà¬¸": 7637,
      "ĠIP": 7638,
      "Ġà¬ĩà¬¨à¬«à¬°à¬®": 7639,
      "ap": 7640,
      "ri": 7641,
      "à¬°à¬ī": 7642,
      "à¬¤à¬²à¬Ĺ": 7643,
      "àŃģà¬¾": 7644,
      "Ġà¬ķà¬¸à¬¬": 7645,
      "àŃŁà¬ĵ": 7646,
      "à¬¥à¬ªà¬°à¬¤": 7647,
      "à¬¦à¬®à¬Ļ": 7648,
      "Ġà¬ıà¬Ļ": 7649,
      "à¬Ĺà¬Ľà¬°": 7650,
      "à¬§à¬¶à¬¤": 7651,
      "Ġà¬¹à¬²à¬ķ": 7652,
      "à¬ļà¬¡": 7653,
      "Ġà¬¤à¬ĵ": 7654,
      "à¬ģ-": 7655,
      "Ġà¬Ĺà¬¡à¬°": 7656,
      "Ġà¬Ĺà¬ľà¬²": 7657,
      "Ġà¬¶à¬¬à¬¨à¬®": 7658,
      "Ġà¬ĵà¬¤à¬ª": 7659,
      "âĢĶ": 7660,
      "à¬°à¬°à¬Ļ": 7661,
      "à¬¿à¬ģâĢĿ": 7662,
      "à¬ĵà¬ĺà¬°": 7663,
      "àŃĩàŃĸ,": 7664,
      "à¬·à¬£à¬Ĺ": 7665,
      "à¬·à¬£à¬¯": 7666,
      "Ġà¬¸à¬°à¬ľ": 7667,
      "àŃŁà¬®à¬¤": 7668,
      "ĠàŃ¬àŃ§àŃ¦": 7669,
      "Ġà¬¬à¬¹à¬³": 7670,
      "à¬®à¬ķà¬¥": 7671,
      "ĠàŃ®àŃ¨àŃ¦": 7672,
      "ĠàŃ®àŃŃàŃ«": 7673,
      "ĠàŃ§àŃ¯àŃ©àŃ©": 7674,
      "à¬Ĩà¬²à¬Ł": 7675,
      "ĠàŃ§àŃ®àŃ®àŃ«": 7676,
      "Ġà¬Ĩà¬¡à¬¹à¬ķ": 7677,
      "Ġà¬Ľà¬ķà¬Ĺ": 7678,
      "àŃ§àŃ¬àŃ®": 7679,
      "à¬ĩà¬ĵà¬³": 7680,
      "Ġà¬ªà¬¥à¬°à¬¬à¬¨": 7681,
      "Ġà¬¸à¬¦à¬°à¬¥": 7682,
      "à¬īà¬¸à¬ł": 7683,
      "à¬£à¬ªà¬¶": 7684,
      "Ġà¬ĺà¬¨à¬«": 7685,
      "ĠàŃªàŃŃàŃŃ": 7686,
      "ĠàŃ«àŃŃàŃ§": 7687,
      "à¬ĸà¬¬à¬°à¬ª": 7688,
      "à¬ıà¬¸à¬ıà¬«à¬°": 7689,
      "ĠĠĠĠĠĠĠĠĠĠĠĠĠĠĠĠ": 7690,
      "han": 7691,
      "àŃĩàŃĢ": 7692,
      "à¬ķà¬ªà¬¡": 7693,
      "à¬¬àŃŁà¬ķ": 7694,
      "à¬ªà¬®à¬£": 7695,
      "à¬ªà¬¸à¬Ļ": 7696,
      "à¬ªà¬¬à¬¹": 7697,
      "à¬Łà¬·": 7698,
      "à¬¦à¬ªà¬¤": 7699,
      "à¬·à¬°à¬ķ": 7700,
      "Ġà¬ıà¬Ĩà¬°à¬¸": 7701,
      "à¬ľà¬§à¬°": 7702,
      "Ġà¬Ĺà¬Ł": 7703,
      "Ġà¬ªà¬°à¬¹à¬°": 7704,
      "à¬ıà¬ľà¬°": 7705,
      "Ġà¬ĺà¬³": 7706,
      "à¬Łà¬°à¬·": 7707,
      "âĢĻ-": 7708,
      "à¬°à¬¦à¬Ļ": 7709,
      "àŃ¬àŃ§àŃŃ": 7710,
      "à¬°à¬¹à¬¸à¬¨à¬°": 7711,
      "à¬·à¬£à¬¸": 7712,
      "Ġà¬łà¬īà¬°": 7713,
      "ĠàŃ®àŃªàŃ¦": 7714,
      "Ġà¬ħà¬¬à¬ľà¬°": 7715,
      "à¬¸à¬²à¬ķà¬°": 7716,
      "à¬°à¬¨à¬¤": 7717,
      "à¬ıà¬²à¬¬": 7718,
      "à¬ıà¬²à¬ıà¬«": 7719,
      "Ġà¬Ĩà¬ĩà¬ĵ": 7720,
      "Ġà¬Ĩà¬ĩà¬ıà¬ļ": 7721,
      "à¬¡à¬ķà¬¨": 7722,
      "àŃ¨àŃ¨àŃ«": 7723,
      "àŃ§àŃªàŃ®": 7724,
      "à¬¤à¬°à¬ķà¬Ļ": 7725,
      "ĠàŃªàŃ«àŃ©": 7726,
      "Ġà¬ħà¬®à¬°à¬ª": 7727,
      "ĠàŃªàŃªàŃª": 7728,
      "ĠàŃªàŃ¬àŃ©": 7729,
      "Ġà¬®à¬łà¬¸": 7730,
      "iss": 7731,
      "à¬ķà¬¤à¬¨à¬Ĺà¬°": 7732,
      "Ġà¬ľà¬īà¬ķà¬£": 7733,
      "ct": 7734,
      "Ġe": 7735,
      "à¬¿+": 7736,
      "à¬°à¬ľà¬ª": 7737,
      "à¬¨à¬ªà¬¡": 7738,
      "à¬¨à¬Ŀà¬°": 7739,
      "à¬¬à¬ŀ": 7740,
      "Ġà¬ķà¬¬à¬²": 7741,
      "à¬²à¬¬à¬¨": 7742,
      "à¬Łà¬¬à¬°": 7743,
      "à¬£à¬®àŃŁ": 7744,
      "Ġà¬®à¬ĵ": 7745,
      "à¬Ĺà¬ľà¬¬": 7746,
      "à¬¡à¬¨à¬¸": 7747,
      "Ġà¬¤à¬®à¬ķ": 7748,
      "àŃĤ.": 7749,
      "àŃĤà¥¤": 7750,
      "àŃĤâĢĻ": 7751,
      "Ġà¬īà¬ĩà¬Ĺà¬°": 7752,
      "à¬ıà¬ķà¬¤": 7753,
      "Ġà¬¥à¬³": 7754,
      "Ġà¬ĸà¬¡à¬Ĺ": 7755,
      "à¬°à¬®à¬ł": 7756,
      "Ġà¬ķà¬¹à¬¥": 7757,
      "Ġà¬§à¬®à¬¨": 7758,
      "à¬¤à¬¨à¬ķà¬°": 7759,
      "Ġà¬īà¬ªà¬°à¬²": 7760,
      "ĠàŃ«àŃ§àŃ¯": 7761,
      "à¬°à¬¥à¬®à¬¬à¬°": 7762,
      "Ġà¬¬à¬¡à¬ľ": 7763,
      "à¬ıà¬®à¬Ł": 7764,
      "à¬Ĺà¬²à¬¬": 7765,
      "Ġà¬Ĩà¬²à¬Ł": 7766,
      "à¬¨à¬¸à¬ķ": 7767,
      "Ġà¬ĨàŃŁà¬¶": 7768,
      "à¬ħà¬¨à¬²": 7769,
      "àŃ§àŃ¯àŃªàŃŃ": 7770,
      "àŃ§àŃ¯àŃŃàŃ¨": 7771,
      "à¬®à¬£à¬¬": 7772,
      "ĠàŃ§àŃ®àŃ¯àŃŃ": 7773,
      "à¬¿âĢĻ:": 7774,
      "Ġà¬Ĩà¬¡à¬ľà¬·": 7775,
      "àŃ§àŃ®àŃ®": 7776,
      "àŃ§àŃ¬àŃ©": 7777,
      "àŃ§àŃ¬àŃª": 7778,
      "àŃ§àŃ©àŃŃ": 7779,
      "à¬ľà¬®à¬¹": 7780,
      "à¬Ĩà¬¡à¬®": 7781,
      "ĠàŃªàŃ«àŃª": 7782,
      "ĠàŃ¦àŃ§": 7783,
      "ĠàŃªàŃ©àŃ¨": 7784,
      "à¬ĩà¬«à¬²à¬°": 7785,
      "à¬ħà¬²à¬Ĩà¬īà¬Ł": 7786,
      "à¬īà¬ªà¬ħà¬§": 7787,
      "à¬ĩà¬ıà¬¸à¬Ĩà¬°": 7788,
      "ge": 7789,
      "à¬¿à¬¿à¬ģà¥¤": 7790,
      "à¬¨à¬¡à¬°": 7791,
      "à¬¤à¬ľà¬£": 7792,
      "à¬¹à¬ĭà¬£": 7793,
      "àŃĩà¬¾àŃį": 7794,
      "Ġà¬¬à¬Łà¬¬": 7795,
      "à¬Ĺà¬¬à¬¨": 7796,
      "à¬Ĺà¬®à¬¤": 7797,
      "à¬Ĺà¬¨à¬ķ": 7798,
      "Ġà¬ħà¬Ŀ": 7799,
      "à¬¡à¬¬à¬¨": 7800,
      "à¬¡à¬ķà¬ª": 7801,
      "Ġà¬¹à¬°à¬¸": 7802,
      "Ġà¬¯à¬ļ": 7803,
      "à¬ĸàŃ±": 7804,
      "Ġà¬ħà¬¨àŃ±": 7805,
      "à¬°à¬¤à¬Ľ": 7806,
      "à¬¬à¬°à¬ĵ": 7807,
      "Ġà¬«àŃ±": 7808,
      "à¬·à¬°à¬Ļ": 7809,
      "à¬ĵà¬Ĩà¬ĩà¬°": 7810,
      "à¬Ĺà¬°à¬¦": 7811,
      "Ġà¬Ľà¬Ĺà¬¨": 7812,
      "à¬¸à¬°à¬¶": 7813,
      "à¬¸à¬¨à¬¸": 7814,
      "àŃ¯àŃªàŃ¦": 7815,
      "à¬Łà¬ķà¬²": 7816,
      "ĠàŃ¬àŃ§àŃ§": 7817,
      "ĠàŃ¬àŃ¨àŃª": 7818,
      "Ġà¬ľà¬³à¬Ľ": 7819,
      "ĠàŃ¯àŃ¨àŃ¦": 7820,
      "à¬ªà¬¨à¬Ĺà¬°": 7821,
      "Ġà¬Ĩà¬Ĺà¬ªà¬Ľ": 7822,
      "ĠàŃ§àŃ¯àŃ¨àŃ©": 7823,
      "ĠàŃ§àŃ¯àŃ¦àŃ«": 7824,
      "à¬ĥà¥¤": 7825,
      "à¬ķà¬°à¬£à¬Ļ": 7826,
      "à¬Ĺà¬³à¬®àŃŁ": 7827,
      "à¬ķà¬Łà¬°à¬®à¬£": 7828,
      "ĠàŃ«àŃ¦àŃŃ": 7829,
      "Ġà¬ķà¬ªà¬Ł": 7830,
      "à¬³à¬®à¬ŀ": 7831,
      "Ġà¬Ĺà¬Ľà¬ªà¬¤": 7832,
      "àŃ§àŃ©àŃ¯": 7833,
      "Ġà¬ªà¬¥à¬°à¬ĸà¬£": 7834,
      "ĠàŃªàŃ«àŃ®": 7835,
      "ĠàŃªàŃ«àŃ¯": 7836,
      "ĠàŃªàŃ®àŃ¯": 7837,
      "ĠàŃ«àŃ«àŃ«": 7838,
      "ĠàŃ¦àŃ©": 7839,
      "ĠàŃªàŃ¯àŃ¨": 7840,
      "à¬³à¬Ĺà¬Ľà¬°": 7841,
      "ĠàŃ¬àŃ©àŃ¬": 7842,
      "àŃ¯àŃ¯àŃ¦": 7843,
      "Ġà¬¬à¬¬à¬²à¬°": 7844,
      "esults": 7845,
      ":-": 7846,
      "um": 7847,
      "Ġr": 7848,
      "Ġv": 7849,
      "à¬¾....": 7850,
      "à¬°à¬Ŀ": 7851,
      "àŃĩà¥¥": 7852,
      "à¬ķà¬¸à¬¹": 7853,
      "à¬¤à¬ªà¬°": 7854,
      "Ġà¬¸à¬§à¬¬": 7855,
      "Ġà¬ªà¬²à¬®": 7856,
      "Ġà¬ªà¬ĩà¬¤": 7857,
      "à¬¸à¬Ńà¬°": 7858,
      "à¬ĩà¬Ĩà¬ĩ": 7859,
      "à¬ªà¬Łà¬ķ": 7860,
      "Ġà¬ķà¬°à¬¤à¬ķ": 7861,
      "Ġà¬¨à¬¤à¬®à¬¸": 7862,
      "à¬ľà¬¬à¬¨": 7863,
      "Ġà¬¹à¬°à¬¬": 7864,
      "à¬ļà¬ľ": 7865,
      "à¬ļà¬¥à¬°": 7866,
      "à¬īà¬ªà¬Ł": 7867,
      "à¬«à¬ľ": 7868,
      "àŃ¨àŃ§àŃ®": 7869,
      "àŃ¨àŃ§àŃ«": 7870,
      "Ġà¬¡à¬®à¬¶": 7871,
      "à¬ĵà¬Ĩà¬ķ": 7872,
      "Ġà¬Ľà¬Łà¬¨": 7873,
      "ĠàŃ«àŃ¨àŃŃ": 7874,
      "Ġà¬¬à¬¨à¬Ľ": 7875,
      "ĠàŃ¬àŃ§àŃ¯": 7876,
      "à¬ĩà¬ķàŃ±": 7877,
      "à¬Ĺà¬¡à¬®": 7878,
      "ĠàŃ®àŃ¨àŃ¯": 7879,
      "ĠàŃ®àŃ®àŃ¦": 7880,
      "Ġà¬Ĩà¬īà¬¨": 7881,
      "ĠàŃ¯àŃ§àŃ§": 7882,
      "ĠàŃ§àŃ¯àŃ¨àŃ¨": 7883,
      "à¬ªà¬¦à¬ľ": 7884,
      "à¬§à¬¨à¬®": 7885,
      "Ġà¬ħà¬£à¬ļ": 7886,
      "à¬ĩà¬¡à¬¬": 7887,
      "à¬Ĺà¬¬à¬¶à¬¤": 7888,
      "àŃ§àŃ«àŃ©": 7889,
      "àŃ§àŃªàŃ©": 7890,
      "àŃ¨àŃŃàŃ«": 7891,
      "Ġà¬Ĩà¬ķà¬³à¬¨à¬ł": 7892,
      "à¬¨à¬Ńà¬īà¬£": 7893,
      "ĠàŃªàŃ®àŃ¬": 7894,
      "ĠàŃ«àŃ«àŃ¨": 7895,
      "à¬°à¬¡à¬Ļ": 7896,
      "àŃĩ-âĢĺ": 7897,
      "ĠàŃ«àŃ¯àŃ¯": 7898,
      "ĠàŃ¬àŃ¯àŃ¦": 7899,
      "Ġà¬ħà¬łà¬°à¬¨à¬³": 7900,
      "Ġà¬¨àŃŁà¬¨à¬¯": 7901,
      "Ġto": 7902,
      "à¬īà¬ŃàŃŁà¬Ļ": 7903,
      "-âĢĺ": 7904,
      "19": 7905,
      "à¬ķà¬¨à¬Ļ": 7906,
      "à¬ķà¬¸à¬Ļ": 7907,
      "à¬¨à¬ľà¬¨": 7908,
      "Ġà¬ªà¬Łà¬¨": 7909,
      "à¬ĩà¬Ńà¬³": 7910,
      "à¬Łà¬ªà¬°": 7911,
      "à¬·à¬Ńà¬Ļ": 7912,
      "à¬¡à¬¸à¬Ļ": 7913,
      "à¬ļà¬¹": 7914,
      "Ġà¬¤à¬°à¬¤à¬°": 7915,
      "à¬Ĩà¬®à¬¨": 7916,
      "à¬īà¬¹": 7917,
      "à¬īà¬ĩ": 7918,
      "Ġà¬¥à¬°à¬ķà¬°": 7919,
      "Ġà¬ıà¬ķà¬ĺà¬°": 7920,
      "àŃ¨àŃ§àŃŃ": 7921,
      "à¬Łà¬°à¬ľ": 7922,
      "à¬°à¬£à¬¨": 7923,
      "à¬ļà¬¨à¬ł": 7924,
      "àŃ«àŃ«àŃ¦": 7925,
      "à¬¶à¬¨à¬®": 7926,
      "à¬ªà¬¡à¬¨": 7927,
      "à¬Łà¬ķà¬¬": 7928,
      "ĠàŃ¬àŃ¨àŃ¬": 7929,
      "ĠàŃŃàŃ§àŃ¯": 7930,
      "ĠàŃ®àŃ¬àŃ¦": 7931,
      "ĠàŃ¯àŃŃàŃ¦": 7932,
      "à¬ĩà¬¸à¬¬": 7933,
      "Ġà¬°à¬¨à¬ĵ": 7934,
      "à¬ªà¬¦à¬Ĺ": 7935,
      "Ġà¬ħà¬²à¬ª": 7936,
      "Ġà¬Ĩà¬ĩà¬¤": 7937,
      "àŃ§àŃ®àŃ¨": 7938,
      "Ġà¬®à¬¦à¬ª": 7939,
      "àŃ¨àŃ«àŃ«": 7940,
      "à¬²à¬¤à¬Ĺ": 7941,
      "ĠàŃªàŃªàŃŃ": 7942,
      "ĠàŃªàŃ¯àŃ«": 7943,
      "à¬¨à¬¶à¬Ł": 7944,
      "à¬ĩà¬ļà¬¢": 7945,
      "à¬¦à¬²à¬«à¬Ł": 7946,
      "Ġà¬®à¬łà¬Ĺ": 7947,
      "Ġà¬¦à¬¹à¬Ĺà¬ŀ": 7948,
      "end": 7949,
      "Ġà¬ħà¬Ĺà¬°à¬¨": 7950,
      "Ġà¬ħà¬Ĺà¬°à¬¬à¬¤": 7951,
      "Ġà¬ıà¬²à¬ıà¬¸à¬ľ": 7952,
      "àŃģ)à¥¤": 7953,
      "àŃģâĢĿ": 7954,
      "àŃŁà¬¤à¬¨": 7955,
      "Ġà¬¸à¬Ĺ": 7956,
      "à¬ĩà¬¤à¬°": 7957,
      "à¬Łà¬¶à¬®": 7958,
      "à¬Ĺà¬ĩ": 7959,
      "à¬¡à¬¨à¬ķ": 7960,
      "à¬§à¬¯": 7961,
      "Ġà¬Ĩà¬ªà¬Ł": 7962,
      "à¬īà¬ªà¬ķ": 7963,
      "à¬łà¬¤à¬®": 7964,
      "Ġà¬ħà¬¨à¬²à¬ķ": 7965,
      "à¬°à¬®à¬¤": 7966,
      "àŃ¨àŃ§àŃ©": 7967,
      "Ġà¬®à¬¹à¬¦": 7968,
      "Ġà¬®à¬¹à¬°à¬®": 7969,
      "à¬ĵà¬ıà¬²": 7970,
      "à¬®à¬°à¬¡": 7971,
      "à¬®à¬°à¬¨à¬ľ": 7972,
      "àŃ©àŃ©àŃ¦": 7973,
      "à¬¶à¬¨à¬ª": 7974,
      "à¬°à¬¶à¬°à¬°": 7975,
      "Ġà¬īà¬¦à¬¯": 7976,
      "ĠàŃ¬àŃ§àŃ©": 7977,
      "Ġà¬ıà¬®à¬ıà¬²à¬¸": 7978,
      "Ġà¬Ĩà¬°à¬Ĩà¬ĩà¬Ļ": 7979,
      "à¬¨à¬ķà¬Ł": 7980,
      "à¬ĩà¬°à¬¨à¬®": 7981,
      "Ġà¬ħà¬ªà¬¶à¬¬": 7982,
      "à¬Ŀà¬°à¬ł": 7983,
      "à¬¡à¬¬à¬¡": 7984,
      "àŃ§àŃ«àŃŃ": 7985,
      "Ġà¬ĵà¬Ńà¬°à¬ķ": 7986,
      "àŃ¨àŃ¬àŃ¦": 7987,
      "Ġà¬Ĩà¬īà¬Łà¬«": 7988,
      "à¬īà¬¸à¬«": 7989,
      "à¬¦à¬¶à¬ªà¬²": 7990,
      "à¬ľà¬ªà¬¥à¬ł": 7991,
      "ĠàŃªàŃ®àŃ©": 7992,
      "ĠàŃ«àŃ«àŃ¦àŃ¦": 7993,
      "à¬²à¬Ńà¬®": 7994,
      "ĠàŃªàŃ©àŃ®": 7995,
      "ĠàŃªàŃ¯àŃ¬": 7996,
      "ĠàŃ«àŃŃàŃª": 7997,
      "ĠàŃ«àŃ¯àŃ©": 7998,
      "à¬¬à¬Ĺà¬ŀ": 7999,
      "ist": 8000,
      "ain": 8001,
      "if": 8002,
      "à¬¾)-": 8003,
      "àŃįà¬Ĥ": 8004,
      "à¬ķà¬ĸ": 8005,
      "à¬¤à¬§à¬¨": 8006,
      "à¬¬à¬ľà¬®": 8007,
      "à¬¸à¬Łà¬¨": 8008,
      "à¬ĩà¬¸à¬²à¬®": 8009,
      "à¬¥à¬¬à¬³": 8010,
      "à¬¦à¬¤à¬°": 8011,
      "à¬Ľà¬³à¬¤": 8012,
      "Ġà¬ķà¬°à¬®à¬ļ": 8013,
      "Ġà¬¨à¬£": 8014,
      "Ġà¬ħà¬¥à¬¨": 8015,
      "Ġà¬¹à¬²à¬®": 8016,
      "à¬ļà¬ªà¬¦": 8017,
      "à¬ĵà¬ıà¬ıà¬¸": 8018,
      "à¬¢à¬²à¬ķ": 8019,
      "Ġà¬®à¬¨à¬Ł": 8020,
      "àŃ©àŃ§àŃ«": 8021,
      "àŃ©àŃ¬àŃ¦": 8022,
      "à¬°à¬¥à¬®à¬¦": 8023,
      "ĠàŃ¬àŃ©àŃŃ": 8024,
      "Ġà¬¬à¬¹à¬°": 8025,
      "Ġà¬¬à¬¹à¬³à¬¦": 8026,
      "à¬§à¬°à¬¨à¬Ļ": 8027,
      "à¬®à¬¤à¬¦": 8028,
      "àŃ¨àŃ¦àŃ®": 8029,
      "à¬ıà¬¨à¬Ł": 8030,
      "à¬ıà¬®à¬Ń": 8031,
      "à¬ıà¬®à¬ĵà¬Ļ": 8032,
      "àŃĩà¬ģ...": 8033,
      "ĠàŃ§àŃ¯àŃ¨àŃª": 8034,
      "Ġà¬ĨàŃŁà¬ł": 8035,
      "Ġà¬īà¬Ńà¬ı": 8036,
      "à¬¸à¬ķà¬¸": 8037,
      "Ġà¬®à¬¤à¬Ĺà¬£à¬¨": 8038,
      "àŃ§àŃ¨àŃ¯": 8039,
      "Ġà¬ħà¬ķà¬³": 8040,
      "Ġà¬ħà¬£à¬¤": 8041,
      "Ġà¬§à¬¨à¬ĸà¬°à¬Ļ": 8042,
      "àŃ§àŃªàŃ§": 8043,
      "ĠàŃ¬àŃ¦àŃ¯": 8044,
      "àŃ¨àŃŃàŃ¦": 8045,
      "àŃ¨àŃ¯àŃª": 8046,
      "à¬²à¬¸à¬¨à¬Ļ": 8047,
      "Ġà¬ıà¬ĩà¬Ĩ": 8048,
      "Ġà¬ħà¬®à¬°à¬¬à¬°": 8049,
      "ĠàŃªàŃªàŃ©": 8050,
      "ĠàŃªàŃªàŃ¯": 8051,
      "ĠàŃªàŃŃàŃ¨": 8052,
      "ĠàŃªàŃŃàŃ¯": 8053,
      "Ġà¬¨à¬ķà¬Ń": 8054,
      "Ġà¬¶à¬°à¬¦à¬Ļ": 8055,
      "Ġà¬ĵà¬¬à¬°àŃŁ": 8056,
      "CP": 8057,
      "à¬ķà¬ŀ": 8058,
      "à¬¨à¬¤à¬¨": 8059,
      "à¬¬à¬ĺ": 8060,
      "à¬®à¬°à¬®": 8061,
      "Ġà¬ķà¬ķà¬°": 8062,
      "à¬²à¬¨à¬¸": 8063,
      "àŃŁà¬³àŃŁ": 8064,
      "Ġà¬¬à¬Łà¬°à¬«": 8065,
      "à¬¥à¬ł": 8066,
      "à¬Ĺà¬Łà¬ķ": 8067,
      "à¬ľà¬³à¬¨": 8068,
      "Ġà¬¹à¬ĵ": 8069,
      "Ġà¬ľàŃŁà¬®": 8070,
      "Ġà¬²à¬ļ": 8071,
      "Ġà¬īà¬²à¬ķ": 8072,
      "àŃ¦àŃŃàŃ¦": 8073,
      "à¬°à¬¤à¬ĺà¬°": 8074,
      "Ġà¬¥à¬°à¬¹à¬°": 8075,
      "Ġà¬¸à¬¹à¬ļà¬°": 8076,
      "à¬ļà¬¨à¬Ĺ": 8077,
      "Ġà¬§àŃ±à¬¨": 8078,
      "à¬ĵà¬²à¬°": 8079,
      "à¬ĵà¬Ńà¬°à¬°": 8080,
      "Ġà¬ĺà¬°à¬Ń": 8081,
[...]
