{
  "version": "1.0",
  "truncation": null,
  "padding": null,
  "added_tokens": [
    {
      "id": 0,
      "content": "[PAD]",
      "single_word": false,
      "lstrip": false,
      "rstrip": false,
      "normalized": false,
      "special": true
    },
    {
      "id": 1,
      "content": "[UNK]",
      "single_word": false,
      "lstrip": false,
      "rstrip": false,
      "normalized": false,
      "special": true
    },
    {
      "id": 2,
      "content": "[CLS]",
      "single_word": false,
      "lstrip": false,
      "rstrip": false,
      "normalized": false,
      "special": true
    },
    {
      "id": 3,
      "content": "[SEP]",
      "single_word": false,
      "lstrip": false,
      "rstrip": false,
      "normalized": false,
      "special": true
    },
    {
      "id": 4,
      "content": "[MASK]",
      "single_word": false,
      "lstrip": false,
      "rstrip": false,
      "normalized": false,
      "special": true
    },
    {
      "id": 5,
      "content": "<|endoftext|>",
      "single_word": false,
      "lstrip": false,
      "rstrip": false,
      "normalized": false,
      "special": true
    },
    {
      "id": 6,
      "content": "[ENG]",
      "single_word": false,
      "lstrip": false,
      "rstrip": false,
      "normalized": false,
      "special": true
    }
  ],
  "normalizer": {
    "type": "Sequence",
    "normalizers": [
      {
        "type": "Replace",
        "pattern": {
          "Regex": "\\b[A-Za-z]+\\b"
        },
        "content": " [ENG]"
      },
      {
        "type": "NFKD"
      },
      {
        "type": "Replace",
        "pattern": {
          "String": "\\s+"
        },
        "content": " "
      }
    ]
  },
  "pre_tokenizer": {
    "type": "Sequence",
    "pretokenizers": [
      {
        "type": "ByteLevel",
        "add_prefix_space": true,
        "trim_offsets": true,
        "use_regex": true
      }
    ]
  },
  "post_processor": null,
  "decoder": {
    "type": "ByteLevel",
    "add_prefix_space": true,
    "trim_offsets": true,
    "use_regex": true
  },
  "model": {
    "type": "BPE",
    "dropout": null,
    "unk_token": "[UNK]",
    "continuing_subword_prefix": null,
    "end_of_word_suffix": null,
    "fuse_unk": false,
    "byte_fallback": false,
    "ignore_merges": false,
    "vocab": {
      "[PAD]": 0,
      "[UNK]": 1,
      "[CLS]": 2,
      "[SEP]": 3,
      "[MASK]": 4,
      "<|endoftext|>": 5,
      "[ENG]": 6,
      "!": 7,
      "\"": 8,
      "#": 9,
      "$": 10,
      "%": 11,
      "&": 12,
      "'": 13,
      "(": 14,
      ")": 15,
      "*": 16,
      "+": 17,
      ",": 18,
      "-": 19,
      ".": 20,
      "/": 21,
      "0": 22,
      "1": 23,
      "2": 24,
      "3": 25,
      "4": 26,
      "5": 27,
      "6": 28,
      "7": 29,
      "8": 30,
      "9": 31,
      ":": 32,
      ";": 33,
      "<": 34,
      "=": 35,
      ">": 36,
      "?": 37,
      "@": 38,
      "A": 39,
      "B": 40,
      "C": 41,
      "D": 42,
      "E": 43,
      "F": 44,
      "G": 45,
      "H": 46,
      "I": 47,
      "J": 48,
      "K": 49,
      "L": 50,
      "M": 51,
      "N": 52,
      "O": 53,
      "P": 54,
      "Q": 55,
      "R": 56,
      "S": 57,
      "T": 58,
      "U": 59,
      "V": 60,
      "W": 61,
      "X": 62,
      "Y": 63,
      "Z": 64,
      "[": 65,
      "\\": 66,
      "]": 67,
      "^": 68,
      "_": 69,
      "`": 70,
      "a": 71,
      "b": 72,
      "c": 73,
      "d": 74,
      "e": 75,
      "f": 76,
      "g": 77,
      "h": 78,
      "i": 79,
      "j": 80,
      "k": 81,
      "l": 82,
      "m": 83,
      "n": 84,
      "o": 85,
      "p": 86,
      "q": 87,
      "r": 88,
      "s": 89,
      "t": 90,
      "u": 91,
      "v": 92,
      "w": 93,
      "x": 94,
      "y": 95,
      "z": 96,
      "{": 97,
      "|": 98,
      "}": 99,
      "~": 100,
      "¡": 101,
      "¢": 102,
      "£": 103,
      "¤": 104,
      "¥": 105,
      "¦": 106,
      "§": 107,
      "¨": 108,
      "©": 109,
      "ª": 110,
      "«": 111,
      "¬": 112,
      "®": 113,
      "¯": 114,
      "°": 115,
      "±": 116,
      "²": 117,
      "³": 118,
      "´": 119,
      "µ": 120,
      "¶": 121,
      "·": 122,
      "¸": 123,
      "¹": 124,
      "º": 125,
      "»": 126,
      "¼": 127,
      "½": 128,
      "¾": 129,
      "¿": 130,
      "Â": 131,
      "Ã": 132,
      "Ä": 133,
      "Å": 134,
      "Æ": 135,
      "Ç": 136,
      "É": 137,
      "Ê": 138,
      "Ë": 139,
      "Ì": 140,
      "Í": 141,
      "Î": 142,
      "Ï": 143,
      "Ð": 144,
      "Ñ": 145,
      "Ò": 146,
      "Ó": 147,
      "Ô": 148,
      "Õ": 149,
      "Ö": 150,
      "×": 151,
      "Ø": 152,
      "Ù": 153,
      "Ú": 154,
      "Û": 155,
      "Ü": 156,
      "Þ": 157,
      "ß": 158,
      "à": 159,
      "á": 160,
      "â": 161,
      "ã": 162,
      "ä": 163,
      "å": 164,
      "æ": 165,
      "ç": 166,
      "è": 167,
      "é": 168,
      "ê": 169,
      "î": 170,
      "ï": 171,
      "ð": 172,
      "ó": 173,
      "ā": 174,
      "Ă": 175,
      "ă": 176,
      "ĉ": 177,
      "Ċ": 178,
      "č": 179,
      "ě": 180,
      "ğ": 181,
      "Ġ": 182,
      "ġ": 183,
      "Ģ": 184,
      "ģ": 185,
      "Ĥ": 186,
      "ĥ": 187,
      "Ħ": 188,
      "ħ": 189,
      "Ĩ": 190,
      "ĩ": 191,
      "Ī": 192,
      "ī": 193,
      "Ĭ": 194,
      "ĭ": 195,
      "Į": 196,
      "į": 197,
      "İ": 198,
      "ı": 199,
      "Ĳ": 200,
      "ĳ": 201,
      "Ĵ": 202,
      "ĵ": 203,
      "Ķ": 204,
      "ķ": 205,
      "ĸ": 206,
      "Ĺ": 207,
      "ĺ": 208,
      "Ļ": 209,
      "ļ": 210,
      "Ľ": 211,
      "ľ": 212,
      "Ŀ": 213,
      "ŀ": 214,
      "Ł": 215,
      "ł": 216,
      "Ń": 217,
      "ଅ": 218,
      "ଆ": 219,
      "ଇ": 220,
      "ଈ": 221,
      "ଉ": 222,
      "ଊ": 223,
      "ଋ": 224,
      "ଌ": 225,
      "ଏ": 226,
      "ଐ": 227,
      "ଓ": 228,
      "ଔ": 229,
      "କ": 230,
      "ଖ": 231,
      "ଗ": 232,
      "ଘ": 233,
      "ଙ": 234,
      "ଚ": 235,
      "ଛ": 236,
      "ଜ": 237,
      "ଝ": 238,
      "ଞ": 239,
      "ଟ": 240,
      "ଠ": 241,
      "ଡ": 242,
      "ଢ": 243,
      "ଣ": 244,
      "ତ": 245,
      "ଥ": 246,
      "ଦ": 247,
      "ଧ": 248,
      "ନ": 249,
      "ପ": 250,
      "ଫ": 251,
      "ବ": 252,
      "ଭ": 253,
      "ମ": 254,
      "ଯ": 255,
      "ର": 256,
      "ଲ": 257,
      "ଳ": 258,
      "ଵ": 259,
      "ଶ": 260,
      "ଷ": 261,
      "ସ": 262,
      "ହ": 263,
      "ୟ": 264,
      "୦": 265,
      "୧": 266,
      "୨": 267,
      "୩": 268,
      "୪": 269,
      "୫": 270,
      "୬": 271,
      "୭": 272,
      "୮": 273,
      "୯": 274,
      "ୱ": 275,
      "à¬": 276,
      "àŃ": 277,
      "Ġà¬": 278,
      "à¬¾": 279,
      "àŃį": 280,
      "à¬¿": 281,
      "à¬°": 282,
      "àŃĩ": 283,
      "à¬ķ": 284,
      "à¬¨": 285,
      "à¬¤": 286,
      "àŃģ": 287,
      "à¬¬": 288,
      "à¬®": 289,
      "Ġà¬ķ": 290,
      "àŃŁ": 291,
      "Ġà¬¸": 292,
      "à¬²": 293,
      "Ġà¬ª": 294,
      "à¬¹": 295,
      "à¬¸": 296,
      "àŃĩà¬¾": 297,
      "Ġà¬¬": 298,
      "à¥": 299,
      "à¥¤": 300,
      "à¬ĩ": 301,
      "à¬ª": 302,
      "à¬£": 303,
      "àŃĢ": 304,
      "à¬¥": 305,
      "à¬Ł": 306,
      "Ġà¬®": 307,
      "à¬¦": 308,
      "à¬³": 309,
      "à¬Ļ": 310,
      "Ġà¬ı": 311,
      "à¬·": 312,
      "à¬Ľ": 313,
      "à¬Ĺ": 314,
      "Ġà¬ķà¬°": 315,
      "à¬ľ": 316,
      "Ġà¬¨": 317,
      "Ġà¥¤": 318,
      "Ġà¬ħ": 319,
      "à¬¡": 320,
      "à¬¶": 321,
      "Ġà¬¦": 322,
      "à¬§": 323,
      "Ġà¬¹": 324,
      "Ġà¬Ĩ": 325,
      "Ġà¬°": 326,
      "Ġ[": 327,
      "NG": 328,
      "ENG": 329,
      "ĠàŃ": 330,
      "à¬¯": 331,
      "à¬ļ": 332,
      "Ġà¬ľ": 333,
      "à¬Ń": 334,
      "à¬Ĥ": 335,
      "à¬ģ": 336,
      "Ġà¬¤": 337,
      "Ġà¬Ń": 338,
      "Ġà¬¯": 339,
      "Ġà¬Ĺ": 340,
      "à¬ĸ": 341,
      "àŃĤ": 342,
      "à¬Ĩ": 343,
      "âĢ": 344,
      "à¬¼": 345,
      "Ġà¬ī": 346,
      "Ġà¬ıà¬¹": 347,
      "Ġà¬²": 348,
      "Ġà¬¶": 349,
      "Ġà¬ªà¬°": 350,
      "Ġà¬¸à¬®": 351,
      "Ġà¬ļ": 352,
      "Ġà¬ĵ": 353,
      "à¬ī": 354,
      "à¬Ľà¬¨": 355,
      "àŃ±": 356,
      "à¬¿à¥¤": 357,
      "à¬ı": 358,
      "à¬ĩà¬¥": 359,
      "âĢĮ": 360,
      "àŃĥ": 361,
      "à¬ł": 362,
      "àŃįâĢĮ": 363,
      "à¬°à¬ķ": 364,
      "à¬ķà¬°": 365,
      "à¬ªà¬°": 366,
      "àŃŁà¬°": 367,
      "Ġà¬ħà¬¨": 368,
      "àŃ¦": 369,
      "à¬¬à¬°": 370,
      "Ġà¬ıà¬¬": 371,
      "Ġà¬Ł": 372,
      "à¬ŀ": 373,
      "à¬¤à¬°": 374,
      "Ġà¬ĸ": 375,
      "à¬°à¬®": 376,
      "Ġà¬¸à¬¹": 377,
      "à¬¼à¬¿": 378,
      "à¬ĩà¬Ľ": 379,
      "àŃŁà¬ķ": 380,
      "à¬°à¬¤": 381,
      "Ġà¬®à¬§": 382,
      "Ġà¬¥": 383,
      "à¬«": 384,
      "Ġà¬ĺ": 385,
      "à¬°à¬°": 386,
      "ĠàŃ§": 387,
      "Ġà¬«": 388,
      "àŃĩàŃ": 389,
      "à¬¨à¬°": 390,
      "Ġà¬°à¬¹": 391,
      "Ġà¬ľà¬£": 392,
      "Ġà¬ıà¬ķ": 393,
      "ĠàŃ¨": 394,
      "àŃĩà¥¤": 395,
      "à¬¨à¬Ļ": 396,
      "Ġà¬¡": 397,
      "à¬°à¬£": 398,
      "Ġà¬¬à¬°": 399,
      "Ġà¬ħà¬§": 400,
      "à¬Łà¬°": 401,
      "Ġà¬ķà¬¹": 402,
      "ĠàŃ§àŃ": 403,
      "à¬¬à¬¨": 404,
      "à¬ļà¬¨": 405,
      "Ġà¬§": 406,
      "Ġà¬®à¬¹": 407,
      "àŃ§": 408,
      "Ġà¬Ĩà¬¸": 409,
      "Ġ,": 410,
      "à¬¿à¬ģ": 411,
      "à¬³à¬°": 412,
      "Ġà¬ĩ": 413,
      "àŃĩàŃĹ": 414,
      "à¬¢": 415,
      "à¬°à¬¸": 416,
      "àŃ¨": 417,
      "à¬®à¬¨": 418,
      "à¬®à¬°": 419,
      "à¬ľà¬¨": 420,
      "Ġà¬ħà¬Ń": 421,
      "à¬¾à¥¤": 422,
      "à¬Ĺà¬°": 423,
      "Ġà¬Ľ": 424,
      "à¬¬à¬¸": 425,
      "à¬ħ": 426,
      "à¬·à¬°": 427,
      "à¬ĺ": 428,
      "à¬ĩà¬¬": 429,
      "à¬ªà¬¤": 430,
      "à¬¿à¬Ĥ": 431,
      "à¬ĩà¬Ľà¬¨": 432,
      "à¬¿,": 433,
      "Ġà¬®à¬¨": 434,
      "ĠàŃ©": 435,
      "à¬¸à¬¨": 436,
      "Ġà¬īà¬¤": 437,
      "à¬īà¬Ľ": 438,
      "Ġà¬¸à¬°à¬ķ": 439,
      "à¬°à¬¦": 440,
      "à¬¾,": 441,
      "àŃŁà¬¨": 442,
      "Ġà¬īà¬ª": 443,
      "à¬ªà¬£": 444,
      "Ġà¬ĺà¬Ł": 445,
      "à¬ĵ": 446,
      "àŃĩàŃĸ": 447,
      "Ġà¬¸à¬®à¬¸": 448,
      "ĠĠ": 449,
      "Ġ(": 450,
      "à¬¤à¬¨": 451,
      "àŃ«": 452,
      "Ġà¬ķà¬®": 453,
      "Ġ:": 454,
      "..": 455,
      "à¬¸à¬°": 456,
      "àŃĩ,": 457,
      "à¬ľà¬°": 458,
      "àŃª": 459,
      "Ġà¬īà¬ªà¬°": 460,
      "àŃ±à¬°": 461,
      "20": 462,
      "à¬°à¬¶": 463,
      "à¬ķà¬Ļ": 464,
      "à¬Ĩà¬°": 465,
      "Ġà¬Ĩà¬®": 466,
      "Ġà¬Ĩà¬ľ": 467,
      "à¬ĩà¬¨": 468,
      "à¬ĩà¬ª": 469,
      "àŃŁà¬¤": 470,
      "à¬¼à¬¾": 471,
      "Ġà¬°à¬ĸ": 472,
      "Ġà¬ªà¬ķ": 473,
      "Ġà¬Ĩà¬ªà¬£": 474,
      "Ġà¬ĵà¬¡": 475,
      "ĠàŃª": 476,
      "àŃ¯": 477,
      "à¬¦à¬°": 478,
      "à¬Ĩà¬¯": 479,
      "àŃ©": 480,
      "ĠàŃ«": 481,
      "à¬²à¬°": 482,
      "à¬·à¬£": 483,
      "ĠàŃ¨àŃ¦": 484,
      "à¬¶à¬°": 485,
      "Ġà¬ıà¬¥": 486,
      "àŃ®": 487,
      "Ġà¬Ĩà¬ķ": 488,
      "Ġà¬Łà¬Ļ": 489,
      "àŃŃ": 490,
      "à¬¦à¬¨": 491,
      "àŃŁà¬®": 492,
      "Ġà¬¬à¬¨": 493,
      "àŃ¬": 494,
      "à¬³à¬¨": 495,
      "à¬°à¬¬": 496,
      "Ġà¬²à¬ķ": 497,
      "à¬°à¬¹": 498,
      "Ġà¬ł": 499,
      "Ġà¬ªà¬¡": 500,
      "à¬īà¬¥": 501,
      "Ġà¬¸à¬°": 502,
      "à¬°à¬Ļ": 503,
      "Ġà¬¸à¬¬": 504,
      "à¬ªà¬¡": 505,
      "à¬Łà¬ķ": 506,
      "Ġà¬īà¬¦": 507,
      "Ġà¬ĺà¬Łà¬£": 508,
      "Ġà¬¸à¬®àŃŁà¬°": 509,
      "Ġà¬Ĺà¬¤": 510,
      "à¬²à¬ķ": 511,
      "à¬Ĺà¬¤": 512,
      "àŃŁà¬¬": 513,
      "à¬£à¬¸": 514,
      "Ġà¬Ĩà¬°à¬®": 515,
      "à¬¤à¬Ļ": 516,
      "à¬¥à¬®": 517,
      "Ġà¬ķà¬²": 518,
      "Ġà¬ħà¬°": 519,
      "à¬¾à¬ģ": 520,
      "àŃģà¬ģ": 521,
      "à¬ĸà¬°": 522,
      "Ġà¬ĺà¬°": 523,
      "à¬¤à¬®": 524,
      "à¬°à¬Ń": 525,
      "Ġ20": 526,
      "à¬ĥ": 527,
      "ĠàŃ¬": 528,
      "à¬°à¬¥à¬®": 529,
      "à¬Ĺà¬¡": 530,
      "Ġà¬¬à¬¹": 531,
      "àŃŁà¬¬à¬¸": 532,
      "Ġà¬Ĩà¬¬": 533,
      "à¬¨à¬¸": 534,
      "].": 535,
      "à¬ªà¬ķ": 536,
      "Ġà¬¤à¬¥": 537,
      "Ġà¬Ĩà¬ī": 538,
      "Ġà¬ķà¬°à¬¨": 539,
      "à¬®à¬²": 540,
      "à¬¨à¬ķ": 541,
      "Ġà¬§à¬°": 542,
      "Ġ1": 543,
      "à¬Ńà¬³": 544,
      "Ġà¬·": 545,
      "à¬¡à¬°": 546,
      "Ġà¬ħà¬¤": 547,
      "Ġ-": 548,
      "à¬¬à¬³": 549,
      "à¬°à¬§": 550,
      "21": 551,
      "Ġà¬ªà¬¦": 552,
      "à¬®à¬ķ": 553,
      "ĠàŃ§àŃ¦": 554,
      "Ġà¬ªà¬¹": 555,
      "à¬°à¬«": 556,
      "Ġà¬Ŀ": 557,
      "Ġà¬¬à¬¡": 558,
      "Ġà¬Ĩà¬°": 559,
      "Ġà¬¹à¬ľ": 560,
      "àŃĢ,": 561,
      "à¬ķà¬®": 562,
      "ĠàŃŃ": 563,
      "à¬¶à¬¨": 564,
      "à¬°à¬¨": 565,
      "à¬®à¬¤": 566,
      "à¬Łà¬¨": 567,
      "à¬³à¬ķ": 568,
      "à¬¬à¬¤": 569,
      "à¬ĩà¬Ł": 570,
      "à¬¾à¬Ĥ": 571,
      "à¬Ŀ": 572,
      "à¬§à¬°": 573,
      "Ġà¬Ĩà¬¶": 574,
      "à¬°à¬®à¬£": 575,
      "ĠâĢ": 576,
      "Ġà¬ķà¬¥": 577,
      "à¬µ": 578,
      "Ġà¬ĸà¬¬à¬°": 579,
      "ĠàŃ®": 580,
      "Ġà¬¬à¬¢": 581,
      "Ġà¬ļà¬³": 582,
      "Ġà¬ľà¬¨": 583,
      "Ġà¬Ĩà¬ªà¬£à¬Ļ": 584,
      "Ġà¬ħà¬¬à¬¸": 585,
      "à¬ıà¬¸": 586,
      "Ġà¬ħà¬¸": 587,
      "Ġà¬¦à¬³": 588,
      "ĠàŃŁ": 589,
      "à¬¬à¬ķ": 590,
      "âĢĻ": 591,
      "à¬ļà¬³à¬°": 592,
      "à¬«à¬³": 593,
      "à¬ĩà¬²": 594,
      "Ġà¬ħà¬ŀ": 595,
      "àŃŁà¬®à¬¨": 596,
      "Ġà¬Ĩà¬¹": 597,
      "Ġà¬ıà¬®": 598,
      "Ġà¬īà¬ļ": 599,
      "à¬ĩà¬¯": 600,
      "Ġà¬¬à¬¸": 601,
      "Ġà¬ıà¬¸": 602,
      "ĠàŃ±": 603,
      "Ġà¬Ĩà¬¦": 604,
      "àŃģà¥¤": 605,
      "Ġà¬¸à¬ķ": 606,
      "Ġà¬Ĩà¬²": 607,
      "àŃŁà¬¸": 608,
      "Ġà¬¸à¬¨": 609,
      "à¬ľà¬£": 610,
      "àŃŁà¬¬à¬¹": 611,
      "Ġà¬ªà¬¹à¬ŀ": 612,
      "Ġ'": 613,
      "à¬ļà¬°": 614,
      "ĠàŃ¯": 615,
      "à¬¨à¬Ł": 616,
      "à¬³àŃŁ": 617,
      "Ġà¬Ĩà¬£": 618,
      "à¬Ĺà¬²": 619,
      "à¬¤à¬ķ": 620,
      "Ġà¬Ĩà¬¨": 621,
      "Ġ|": 622,
      "Ġà¬Ĩà¬Ĺ": 623,
      "àŃĩà¬ģ": 624,
      "Ġà¬ªà¬ŀ": 625,
      "Ġà¬ıà¬ªà¬°": 626,
      "à¬Ĩà¬ĩ": 627,
      "à¬ªà¬¨": 628,
      "à¬¹à¬°": 629,
      "à¬¿à¬ģà¥¤": 630,
      "Ġà¬¸à¬Ń": 631,
      "Ġà¬ıà¬¨": 632,
      "à¬ħà¬¨": 633,
      "Ġà¬¯à¬¦": 634,
      "Ġà¬ħà¬¬": 635,
      "à¬ĩà¬ķ": 636,
      "Ġà¬Ńà¬²": 637,
      "Ġà¬Ĩà¬¬à¬¶": 638,
      "à¬°à¬¹à¬£": 639,
      "],": 640,
      "à¬ľàŃŁ": 641,
      "à¬¶à¬ķ": 642,
      "Ġà¬¦à¬°": 643,
      "à¬ļà¬³": 644,
      "Ġà¬¸à¬®àŃŁ": 645,
      "à¬ķà¬°à¬£": 646,
      "Ġà¬ľà¬³": 647,
      "Ġà¬ķà¬³": 648,
      "Ġà¬Ĺà¬£": 649,
      "Ġà¬ıà¬Ńà¬³": 650,
      "à¬īà¬Ľà¬¨": 651,
      "à¬ıà¬®": 652,
      "à¬¨à¬®à¬¨": 653,
      "Ġà¬ªà¬¢": 654,
      "à¬·à¬¤": 655,
      "à¬ķà¬Łà¬°": 656,
      "à¬®à¬¬": 657,
      "Ġà¬ħà¬«": 658,
      "Ġ2": 659,
      "Ġà¬Ńà¬³": 660,
      "àŃ¦àŃ¦": 661,
      "...": 662,
      "Ġà¬¹à¬¸": 663,
      "à¬·à¬ķ": 664,
      "ĠàŃ§àŃ¯": 665,
      "Ġà¬Ĩà¬¸à¬¨": 666,
      "Ġà¬ĨàŃŁ": 667,
      "Ġà¬¹à¬°": 668,
      "Ġà¬ªà¬Ł": 669,
      "à¬Ńà¬°": 670,
      "Ġà¬ħà¬ªà¬°": 671,
      "à¬¹à¬¨": 672,
      "ĠàŃ¨àŃ¦àŃ§": 673,
      "à¤": 674,
      "à¬¸à¬²": 675,
      "àŃŁà¬Ļ": 676,
      "à¬ĩà¬°": 677,
      "Ġà¬ķà¬Łà¬ķ": 678,
      "Ġà¬ªà¬¤": 679,
      "àŃŁà¬ª": 680,
      "à¬®à¬ļ": 681,
      "Ġà¬ħà¬ª": 682,
      "à¬°à¬£à¬°": 683,
      "à¬°à¬¤à¬°": 684,
      "Ġà¬¤à¬¦à¬¨": 685,
      "à¬Ĩà¬¦": 686,
      "à¬·àŃŁà¬°": 687,
      "à¬ĩà¬¸": 688,
      "à¬¨à¬¤": 689,
      "à¬¥à¬°": 690,
      "Ġà¬ľà¬®": 691,
      "Ġà¬ħà¬Ĺ": 692,
      "Ġà¬īà¬Ń": 693,
      "Ġà¬īà¬ªà¬¸": 694,
      "Ġà¬ľà¬°": 695,
      "Ġà¬¨à¬¥": 696,
      "ĠàŃ§àŃ¨": 697,
      "Ġà¬ľà¬£à¬Ļ": 698,
      "à¬Łà¬£": 699,
      "à¬ķà¬Ł": 700,
      "Ġà¬¥à¬°": 701,
      "Ġà¬ĩà¬£": 702,
      "Ġà¬¸à¬ļ": 703,
      "Ġà¬¬à¬ľ": 704,
      "Ġà¬ħà¬Ľ": 705,
      "Ġ2021": 706,
      "Ġà¬ıà¬ł": 707,
      "Ġà¬¸à¬¦": 708,
      "àŃģ,": 709,
      "Ġà¬¸à¬«à¬³": 710,
      "à¬īà¬£": 711,
      "Ġà¬²à¬Ĺ": 712,
      "à¬¬à¬²": 713,
      "Ġà¬¸à¬¤": 714,
      "Ġà¬®à¬¸": 715,
      "ĠàŃ§àŃ«": 716,
      "à¬¸à¬ķ": 717,
      "à¬Ĩà¬¨": 718,
      "à¬³àŃŁà¬°": 719,
      "àŃ¨àŃ¦": 720,
      "à¬ĸà¬¨": 721,
      "à¬°à¬ª": 722,
      "Ġà¬īà¬ł": 723,
      "Ġà¬¨à¬¬": 724,
      "àŃŁà¬®à¬°": 725,
      "Ġà¬¬à¬²": 726,
      "à¬īà¬¨": 727,
      "Ġà¬ĸà¬°": 728,
      "Ġà¬°à¬ķ": 729,
      "Ġà¬¸à¬Ļ": 730,
      "Ġà¬ħà¬ķ": 731,
      "âĢį": 732,
      "Ġà¬ĩà¬¨": 733,
      "Ġà¬ªà¬¶": 734,
      "Ġà¬«à¬³à¬°": 735,
      "à¬¾'": 736,
      "Ġà¬ķà¬¨": 737,
      "à¬ľà¬ª": 738,
      "à¬Ńà¬¬": 739,
      "Ġà¬¶à¬°": 740,
      "à¬¸à¬®": 741,
      "àŃįâĢį": 742,
      "ĠàŃ§àŃ§": 743,
      "Ġà¬ħà¬Ľà¬¨": 744,
      "Ġà¬ªà¬¦à¬ķ": 745,
      "Ġà¬¹à¬¤": 746,
      "à¬Ĩà¬²": 747,
      "Ġà¬®à¬¤": 748,
      "Ġà¬ļà¬°": 749,
      "à¬ªà¬¦": 750,
      "2021": 751,
      "à¬¸à¬¹": 752,
      "Ġà¬®à¬£": 753,
      "Ġà¬¶à¬ķ": 754,
      "Ġà¬ħà¬®": 755,
      "ĠàŃ¨àŃª": 756,
      "à¬ªà¬Ł": 757,
      "à¬§à¬¨": 758,
      "à¬¿.": 759,
      "à¬¬à¬¤à¬¨": 760,
      "Ġà¬ĺà¬£": 761,
      "Ġà¬¨à¬®": 762,
      "Ġà¬¦à¬³à¬°": 763,
      "à¬¦à¬ķ": 764,
      "Ġà¬Ńà¬°": 765,
      "à¬Ĺà¬¨": 766,
      "Ġà¬īà¬ŃàŃŁ": 767,
      "Ġà¬īà¬¨": 768,
      "à¬ľà¬ķ": 769,
      "à¬ıà¬²": 770,
      "Ġà¬¦à¬ķ": 771,
      "Ġ/": 772,
      "à¬łà¬¨": 773,
      "à¬¥à¬¨": 774,
      "à¬°à¬ªà¬¤": 775,
      "à¬¶à¬¤": 776,
      "Ġà¬°à¬¨": 777,
      "Ġà¬ħà¬²": 778,
      "Ġà¬ķà¬£": 779,
      "Ġà¬ļà¬¨": 780,
      "Ġà¬ĭ": 781,
      "à¬£à¬°": 782,
      "Ġà¬Ĩà¬§": 783,
      "Ġ.": 784,
      "à¬·àŃŁ": 785,
      "à¬°à¬®à¬°": 786,
      "à¬°àŃŁ": 787,
      "à¬¼àŃĩ": 788,
      "Ġà¬§à¬¨": 789,
      "ĠâĢĺ": 790,
      "Ġà¬ħà¬Ł": 791,
      "]:": 792,
      "à¬®à¬Ĺ": 793,
      "Ġà¬Ĩà¬ĩ": 794,
      "ĠàŃ§àŃ®": 795,
      "Ġà¬Ĺà¬°": 796,
      "ĠàŃ§àŃª": 797,
      "Ġà¬Ĩà¬ĩà¬¨": 798,
      "àŃ±à¬ª": 799,
      "à¬Ĺà¬ķ": 800,
      "Ġà¬¨à¬°": 801,
      "ĠàŃ©àŃ¦": 802,
      "Ġ\"": 803,
      "Ġà¬¸à¬¦à¬¸": 804,
      "Ġà¬īà¬²": 805,
      "à¬ıà¬¹": 806,
      "à¬°à¬Ľ": 807,
      "à¬ľà¬¸": 808,
      "à¬Ĺà¬³": 809,
      "à¬£à¬¨": 810,
      "à¬°à¬¦à¬°": 811,
      "Ġà¬¢": 812,
      "à¬®à¬£": 813,
      "à¬Ĺà¬¦": 814,
      "Ġà¬¸à¬¹à¬¯": 815,
      "Ġà¬Ĩà¬¤": 816,
      "Ġà¬¤à¬³": 817,
      "à¬ĩà¬¦": 818,
      "à¬¦à¬³": 819,
      "à¬ĺà¬°": 820,
      "à¬ĺà¬Łà¬£": 821,
      "Ġà¬°à¬¬": 822,
      "Ġà¬¸à¬ª": 823,
      "à¬¨à¬¬": 824,
      "à¬²à¬Ł": 825,
      "Ġà¬ıà¬¤": 826,
      "à¬¤à¬¬": 827,
      "à¬²à¬¬": 828,
      "])": 829,
      "Ġà¬ªà¬ł": 830,
      "à¬¨à¬¨": 831,
      "à¬¸à¬¬": 832,
      "à¬¿-": 833,
      "Ġà¬¸à¬®à¬°": 834,
      "Ġ3": 835,
      "Ġà¬ĸà¬£": 836,
      "à¬¹à¬¤": 837,
      "à¬¨à¬¥": 838,
      "à¬°à¬ķà¬³": 839,
      "ĠàŃ§àŃ©": 840,
      "à¬¥à¬³à¬°": 841,
      "à¬·à¬®": 842,
      "Ġà¬Ļ": 843,
      "à¬ķà¬³": 844,
      "à¬²à¬Ļ": 845,
      "ĠĠĠ": 846,
      "Ġà¬ªà¬Ľ": 847,
      "à¬¸à¬¦": 848,
      "ĠàŃ§àŃ¬": 849,
      "Ġà¬ľà¬¬à¬¤": 850,
      "ĠàŃ¨àŃ«": 851,
      "Ġà¬ħà¬¶": 852,
      "Ġà¬ħà¬£": 853,
      "à¬ķà¬ª": 854,
      "....": 855,
      "Ġà¬ªà¬£": 856,
      "):": 857,
      "à¬¨à¬Ĺ": 858,
      "Ġà¬«à¬Ł": 859,
      "à¬ıà¬¨": 860,
      "Ġà¬®à¬Ļ": 861,
      "Ġà¬«à¬³": 862,
      "àŃį,": 863,
      "à¬ĩà¬¡": 864,
      "Ġ)": 865,
      "à¬¬à¬¨à¬°": 866,
      "à¬°à¬ļ": 867,
      "Ġà¬¸à¬«à¬³à¬¤": 868,
      "Ġà¬ħà¬¬à¬¸à¬°à¬°": 869,
      "àŃĢ:": 870,
      "à¬ĵà¬¡": 871,
      "ĠâĢĵ": 872,
      "à¬ªà¬·": 873,
      "à¬¨à¬¸à¬Ń": 874,
      "àŃģ:": 875,
      "à¬ķà¬¸": 876,
      "à¬§à¬¬": 877,
      "Ġà¬īà¬ķ": 878,
      "à¬®à¬¦": 879,
      "Ġà¬Ńà¬¦": 880,
      "Ġà¬Ĩà¬ĸ": 881,
      "à¬¤à¬°à¬°": 882,
      "Ġà¬®à¬°": 883,
      "Ġà¬¶à¬¤": 884,
      "Ġà¬Ĺà¬¤à¬ķ": 885,
      "à¬¡à¬ķ": 886,
      "Ġà¬Ĺà¬ŀ": 887,
      "Ġà¬Ĩà¬¤à¬Ļ": 888,
      "ĠàŃ«àŃ¦": 889,
      "à¬¸à¬¨à¬°": 890,
      "àŃŁà¬ķà¬¤": 891,
      "Ġà¬¨à¬¦": 892,
      "ĠàŃ§àŃŃ": 893,
      "à¬¬à¬¦": 894,
      "à¬ķà¬¤": 895,
      "à¬ıà¬«": 896,
      "à¬łà¬ķ": 897,
      "à¬®à¬ª": 898,
      "à¬ķà¬¨": 899,
      "Ġà¬ĩà¬¤": 900,
      "Ġ?": 901,
      "à¬Łà¬®": 902,
      "àŃģà¬ĥ": 903,
      "Ġ0": 904,
      "ĠàŃ¨àŃ¦àŃ¨": 905,
      "]-": 906,
      "à¬¾âĢĻ": 907,
      "à¬Ĺà¬£": 908,
      "Ġà¬ħà¬Ļ": 909,
      "à¬²à¬®": 910,
      "àŃ§àŃ¯": 911,
      "Ġà¬ķà¬Ł": 912,
      "à¬°à¬¸à¬Ļ": 913,
      "à¬¼àŃģ": 914,
      "22": 915,
      "àŃŁà¬¤à¬°": 916,
      "Ġà¬ļà¬¢": 917,
      "Ġ201": 918,
      "Ġà¬ĺà¬°à¬ķ": 919,
      "à¬Ĺà¬®": 920,
      "Ġà¬¸à¬¹à¬°à¬°": 921,
      "à¬łà¬ķà¬°": 922,
      "à¬¸à¬Ļ": 923,
      "Ġà¬°à¬Ļ": 924,
      "Ġà¬ľà¬Ļ": 925,
      "Ġà¬Ĩà¬«": 926,
      "à¬°à¬ľ": 927,
      "à¬¹à¬ķ": 928,
      "ĠàŃ¨àŃ§": 929,
      "ĠàŃ¦": 930,
      "àŃ±à¬¤à¬¨": 931,
      "à¬ļàŃŁ": 932,
      "à¬§à¬ķ": 933,
      "Ġà¬¶à¬¬": 934,
      "à¬ķà¬¬": 935,
      "Ġà¬Ĩà¬ª": 936,
      "à¬¶à¬¨à¬°": 937,
      "à¬ķà¬ł": 938,
      "Ġà¬¬àŃŁ": 939,
      "Ġà¬ķà¬¬": 940,
      "à¬«à¬°": 941,
      "Ġà¬ĩà¬¸": 942,
      "Ġà¬Ĩà¬Ĺà¬ķ": 943,
      "à¬¬à¬²à¬ª": 944,
      "à¬¾:": 945,
      "à¬ĸà¬£": 946,
      "à¬Łà¬Ļ": 947,
      "Ġ//": 948,
      "à¬īà¬¡": 949,
      "à¬³à¬Ļ": 950,
      "Ġà¬¸à¬¹à¬°": 951,
      "à¬¤à¬¦": 952,
      "à¬Ĺà¬ª": 953,
      "ĠàŃ¨àŃ¨": 954,
      "Ġà¬ħà¬Łà¬ķ": 955,
      "Ġà¬ľà¬¨à¬¸": 956,
      "àŃĢà¥¤": 957,
      "Ġà¬ªà¬°à¬¬à¬°": 958,
      "Ġà¬Ńà¬¬": 959,
      "Ġà¬¨à¬ľà¬°": 960,
      "à¬ĸà¬²": 961,
      "à¬³à¬®": 962,
      "à¬¸à¬ª": 963,
      "Ġà¬Ĩà¬®à¬°": 964,
      "Ġà¬¯à¬¥": 965,
      "Ġà¬ªà¬ľ": 966,
      "Ġà¬ķà¬Łà¬ķà¬£": 967,
      "àŃĢ-": 968,
      "ĠàŃ¨àŃ¦àŃ¦": 969,
      "Ġà¬¬à¬¦à¬³": 970,
      "à¬ļà¬¨à¬°": 971,
      "à¬¾-": 972,
      "Ġà¬ķà¬¡": 973,
      "à¬ľà¬§": 974,
      "Ġà¬¬à¬³": 975,
      "à¬¬à¬Ļ": 976,
      "à¬¶à¬®": 977,
      "Ġà¬¬àŃŁà¬¸": 978,
      "Ġà¬īà¬ªà¬ķ": 979,
      "Ġà¬¨à¬ķ": 980,
      "Ġà¬ļà¬ķ": 981,
      "Ġ4": 982,
      "Ġà¬²à¬¢": 983,
      "Ġà¬«à¬°": 984,
      "à¬¤à¬°à¬ĸ": 985,
      "Ġà¬®à¬²": 986,
      "Ġ5": 987,
      "Ġà¬Ĩà¬¹à¬¤": 988,
      "Ġà¬Ĩà¬Ĺà¬°": 989,
      "àŃŁà¬ķà¬Ļ": 990,
      "à¬¹à¬¸": 991,
      "Ġà¬Ĩà¬¡": 992,
      "Ġà¬°à¬¥": 993,
      "à¬ľà¬¨à¬ķ": 994,
      "à¬·à¬®à¬¤": 995,
      "Ġà¬ľà¬£à¬ķ": 996,
      "--": 997,
      "Ġà¬¶à¬¨": 998,
      "à¬¿)": 999,
      "Ġà¬Ĺà¬£à¬®": 1000,
      "Ġà¬īà¬ªà¬¯": 1001,
      "Ġà¬ķà¬ª": 1002,
      "à¬Ĩà¬¸": 1003,
      "Ġà¬ıà¬£": 1004,
      "à¬Ĺà¬łà¬¨": 1005,
      "à¬ħà¬°": 1006,
      "ĠàŃªàŃ¦": 1007,
      "Ġà¬¯à¬¨": 1008,
      "àŃ±à¬°à¬°": 1009,
      "à¬²à¬ķà¬°": 1010,
      "Ġà¬Ķ": 1011,
      "ĠàŃ¨àŃ©": 1012,
      "Ġà¬¬à¬ŀ": 1013,
      "à¬¬à¬¶": 1014,
      "à¬ªà¬®": 1015,
      "à¬¨à¬®": 1016,
      "Ġà¬Ĺà¬¸": 1017,
      "Ġ*": 1018,
      "à¬°à¬ŀ": 1019,
      "à¬ľà¬ªà¬¤": 1020,
      "Ġ2022": 1021,
      "à¬Ŀà¬°": 1022,
      "à¬¹à¬²": 1023,
      "Ġà¬®à¬ŀ": 1024,
      "ĠàŃ¨àŃ¬": 1025,
      "à¬¬à¬ª": 1026,
      "à¬·à¬¦": 1027,
      "à¬¡à¬³": 1028,
      "à¬Ĺà¬¬": 1029,
      "Ġà¬Ĩà¬¶à¬Ļ": 1030,
      "00": 1031,
      "à¬·à¬Ļ": 1032,
      "à¬¹à¬ª": 1033,
      "Ġà¬Ĺà¬Ľ": 1034,
      "à¬°à¬¬à¬³": 1035,
      "Ġà¬ļà¬³à¬ļ": 1036,
      "Ġà¬¶à¬¹": 1037,
      "Ġà¬ħà¬·": 1038,
      "à¬¨à¬ª": 1039,
      "Ġà¬Ńà¬ķ": 1040,
      "Ġà¬¸à¬¤à¬°": 1041,
      "ĠàŃ¨àŃŃ": 1042,
      "Ġà¬ªà¬°à¬®": 1043,
      "à¬¦à¬°à¬Ĺà¬¡": 1044,
      "Ġà¬Ĺà¬łà¬¨": 1045,
      "à¬®àŃŁ": 1046,
      "àŃįâĢĮ,": 1047,
      "àŃŁà¬£": 1048,
      "Ġà¬¦à¬¤": 1049,
      "Ġà¬ľà¬Ĺà¬¤": 1050,
      "à¬¶à¬Ļ": 1051,
      "à¬ķà¬ķ": 1052,
      "Ġà¬ħà¬¦": 1053,
      "àŃ±à¬¬": 1054,
      "ĠàŃ¨àŃ®": 1055,
      "Ġà¬¸à¬ŀ": 1056,
      "Ġà¬Ľà¬¤": 1057,
      "Ġà¬®àŃŁ": 1058,
      "à¬§à¬®": 1059,
      "à¬Łà¬°à¬°": 1060,
      "Ġà¬ªà¬¢à¬¨": 1061,
      "Ġà¬Ĺà¬²": 1062,
      "à¬ªà¬¸": 1063,
      "Ġà¬ıà¬ª": 1064,
      "à¬¥à¬³": 1065,
      "à¬°à¬Ĺ": 1066,
      "à¬°à¬ĸ": 1067,
      "Ġà¬®à¬ľ": 1068,
      "à¬°à¬Ńà¬ŀ": 1069,
      "à¬¬à¬°à¬°": 1070,
      "à¬ªà¬¥": 1071,
      "à¬ıà¬ķ": 1072,
      "Ġà¬ŃàŃŁ": 1073,
      "Ġà¬¤à¬°à¬«": 1074,
      "à¬¬à¬°à¬£": 1075,
      "Ġ8": 1076,
      "Ġà¬¬à¬ķ": 1077,
      "Ġà¬ķà¬·": 1078,
      "à¬¬à¬°à¬Ļ": 1079,
      "à¬īà¬¤": 1080,
      "Ġà¬ªà¬Ľà¬°": 1081,
      "à¬¨àŃŁ": 1082,
      "à¬ĩà¬¨à¬¥": 1083,
      "Ġà¬ĸà¬¸": 1084,
      "à¬¹à¬ľ": 1085,
      "ĠàŃ©àŃ§": 1086,
      "à¬łà¬°": 1087,
      "Ġà¬¤à¬°à¬«à¬°": 1088,
      "Ġà¬¹à¬Ł": 1089,
      "à¬ĩà¬Ń": 1090,
      "àŃ±à¬¨": 1091,
      "àŃŁàŃŁ": 1092,
      "Ġà¬®à¬¦": 1093,
      "à¬ľà¬³": 1094,
      "Ġà¬īà¬ªà¬²à¬¬": 1095,
      "Ġà¬Ķà¬·": 1096,
      "Ġà¬¸à¬«": 1097,
      "Ġà¬Ĩà¬ĩà¬ª": 1098,
      "à¬°à¬³": 1099,
      "à¬Ĺà¬³à¬¬": 1100,
      "ĠâĢľ": 1101,
      "à¬Ĩà¬ľ": 1102,
      "à¬²à¬¨": 1103,
      "à¬Ĩà¬Ļ": 1104,
      "Ġà¤": 1105,
      "ĠàŃ¨àŃ¯": 1106,
      "à¬¹à¬°à¬£": 1107,
      "Ġà¬¨à¬¨": 1108,
      "Ġà¬ªà¬¸à¬¨": 1109,
      "âĢĿ": 1110,
      "Ġ6": 1111,
      "Ġà¬ħà¬Ĺà¬·": 1112,
      "à¬¿à¬¿": 1113,
      "Ġ10": 1114,
      "ĉĊ": 1115,
      "Ġà¬¤à¬¤": 1116,
      "à¬ĩà¬®": 1117,
      "ĠàŃ§àŃ¦àŃ¦": 1118,
      "Ġ7": 1119,
      "Ġà¬¦à¬°à¬ķ": 1120,
      "Ġà¬¨à¬Ń": 1121,
      "à¬Ĩà¬®": 1122,
      "à¬¥à¬ķ": 1123,
      "Ġà¬ªà¬ļ": 1124,
      "ĠĠĠĠ": 1125,
      "àŃŁà¬Ĺà¬¡": 1126,
      "à¦": 1127,
      "àŃŁà¬ªà¬ķ": 1128,
      "Ġà¬¨àŃŁ": 1129,
      "Ġà¬¡à¬ķ": 1130,
      "Ġà¬¨à¬·": 1131,
      "à¬²à¬£": 1132,
      "Ġà¬®à¬¨à¬°": 1133,
      "Ġ9": 1134,
      "à¬·à¬ľ": 1135,
      "à¬®à¬¸": 1136,
      "Ġà¬ľà¬¨à¬¤": 1137,
      "à¬¦à¬¶": 1138,
      "Ġà¬Ĩà¬®à¬ķ": 1139,
      "à¬ľà¬Ĺ": 1140,
      "Ġà¬ĵà¬®": 1141,
      "Ġà¬ıà¬²": 1142,
      "àŃ§àŃ¦": 1143,
      "Ġà¬Ķà¬·à¬§": 1144,
      "à¬¶à¬¬": 1145,
      "),": 1146,
      "Ġà¬¸à¬®à¬Ĺ": 1147,
      "Ġà¬Ĩà¬¨à¬¨": 1148,
      "Ġ!": 1149,
      "à¬ĸà¬³": 1150,
      "à¬ĩà¬Ĺà¬²": 1151,
      "Ġà¬ıà¬¸à¬¬": 1152,
      "à¬®à¬§": 1153,
      "à¬°à¬®à¬£à¬°": 1154,
      "à¬ļà¬ķ": 1155,
      "à¬ĩà¬ªà¬¡": 1156,
      "Ġà¬ļà¬¤": 1157,
      "à¬ĸà¬ķ": 1158,
      "à¬§à¬¤": 1159,
      "Ġà¬Ĺà¬¬": 1160,
      "Ġà¬ıàŃŁ": 1161,
      "à¬°à¬¯": 1162,
      "Ġà¬ħà¬³": 1163,
      "Ġà¬ĭà¬£": 1164,
      "à¬¤à¬°à¬ķ": 1165,
      "à¬£à¬¤": 1166,
      "àŃŁà¬ªà¬Ł": 1167,
      "à¬¬à¬ķà¬Ļ": 1168,
      "à¬®à¬¬à¬Ļ": 1169,
      "Ġ2020": 1170,
      "à¬Ĺà¬¸": 1171,
      "à¬¦à¬¬": 1172,
      "Ġà¬ľà¬Ĺà¬¨": 1173,
      "à¬³à¬¬": 1174,
      "Ġà¬Ĩà¬ļ": 1175,
      "à¬ıà¬£": 1176,
      "à¬ªà¬²": 1177,
      "Ġà¬Ĩà¬ķà¬°": 1178,
      "à¬ĩà¬ľ": 1179,
      "à¬Łà¬Ĺ": 1180,
      "ĠàŃ©àŃ«": 1181,
      "Ġà¬¬à¬£": 1182,
      "Ġà¬Ľà¬ķ": 1183,
      "à¬¨à¬Ĺà¬°": 1184,
      "à¬¿?": 1185,
      "Ġà¬¬à¬°à¬Ĺà¬¡": 1186,
      "à¬Ĩà¬ķ": 1187,
      "à¬µà¬°": 1188,
      "à¬°à¬®à¬¨": 1189,
      "à¬ªà¬ŀ": 1190,
      "ĠàŃ¬àŃ¦": 1191,
      "Ġ19": 1192,
      "Ġà¬Ĺà¬ľà¬ªà¬¤": 1193,
      "Ġà¬īà¬¡": 1194,
      "à¬³à¬¤": 1195,
      "ĠàŃ¨àŃ¦àŃ¨àŃ¦": 1196,
      "àŃ§àŃ§": 1197,
      "Ġà¬ľà¬¡": 1198,
      "à¬®à¬¹à¬¤": 1199,
      "à¬ļà¬¸": 1200,
      "Ġà¬ľà¬Ĺà¬¤à¬¸": 1201,
      "à¬Ĩà¬ªà¬¡": 1202,
      "àŃ¨àŃ§": 1203,
      "à¬ĵà¬°": 1204,
      "Ġà¬ħà¬ªà¬¡": 1205,
      "Ġà¬ķà¬¨à¬ķ": 1206,
      "à¬¿à¬ģ,": 1207,
      "Ġà¬ªà¬¨": 1208,
      "Ġà¬Ĩà¬ĩà¬¸": 1209,
      "à¬Ńà¬ķ": 1210,
      "à¬ľà¬®": 1211,
      "Ġà¬¸à¬ł": 1212,
      "Ġà¬ıà¬¥à¬°": 1213,
      "à¬¸à¬°à¬°": 1214,
      "à¬²à¬Ĺ": 1215,
      "Ġà¬°à¬¸": 1216,
      "Ġà¬Ĳ": 1217,
      "Ġà¬ĩà¬ŀ": 1218,
      "Ġà¬°à¬ĸà¬¨": 1219,
      "à¬ķà¬¡": 1220,
      "Ġà¬¦à¬£": 1221,
      "à¬¡à¬¨": 1222,
      "Ġà¬¬àŃŁà¬¸à¬°": 1223,
      "Ġà¬ĩà¬®": 1224,
      "ĠàŃ¨àŃ¦àŃ§àŃ¯": 1225,
      "Ġà¬ªà¬²": 1226,
      "ĠàŃ¨àŃ¦àŃ¨àŃ§": 1227,
      "à¬²à¬¦": 1228,
      "Ġà¬°à¬£": 1229,
      "Ġà¬īà¬°": 1230,
      "Ġà¬Ńà¬Ĺà¬¬": 1231,
      "]'": 1232,
      "à¬īà¬³": 1233,
      "à¬Ńà¬¦": 1234,
      "Ġà¬¹à¬ł": 1235,
      "Ġà¬ħà¬²à¬Ĺ": 1236,
      "Ġà¬ħà¬ľ": 1237,
      "Ġà¬ľà¬¬": 1238,
      "........": 1239,
      "à¬ģ,": 1240,
      "Ġà¬¯à¬¬": 1241,
      "à¬ķà¬²": 1242,
      "à¬¨à¬¦": 1243,
      "à¬²à¬¸": 1244,
      "à¬¬à¬¹à¬¨": 1245,
      "ĠàŃªàŃ«": 1246,
      "àŃĩà¬ģ,": 1247,
      "Ġà¬ķà¬ł": 1248,
      "à¬¬à¬§": 1249,
      "à¬£à¬ķ": 1250,
      "Ġà¬ªà¬¦à¬¬": 1251,
      "à¬¤à¬¤": 1252,
      "à¬¸à¬¬à¬°": 1253,
      "Ġà¬ªà¬¬": 1254,
      "à¬ħà¬ķ": 1255,
      "Ġà¬¤à¬¹à¬¸": 1256,
      "Ġà¬¨à¬¬à¬°à¬Ļ": 1257,
      "à¬¼à¬¾,": 1258,
      "Ġà¬Ĩà¬Ń": 1259,
      "à¬®à¬¹": 1260,
      "à¬ķà¬Łà¬ķ": 1261,
      "à¬ĩà¬£": 1262,
      "Ġà¬¬à¬¦": 1263,
      "Ġà¬ħà¬¸à¬¨": 1264,
      "Ġà¬¹à¬ķ": 1265,
      "à¬¬à¬¬": 1266,
      "Ġà¬ĭà¬·": 1267,
      "]/": 1268,
      "Ġà¬¨à¬¹": 1269,
      "à¬¤à¬«": 1270,
      "àŃŁà¬¤à¬®": 1271,
      "Ġà¬ªà¬ļà¬°": 1272,
      "à¬ĺà¬¨": 1273,
      "àŃ©àŃ¦": 1274,
      "ĠâĢĮ": 1275,
      "Ġà¬ĩà¬²": 1276,
      "Ġà¬ıà¬ľ": 1277,
      "Ġà¬ħà¬¹": 1278,
      "Ġà¬¬à¬Ļ": 1279,
      "Ġà¬ıà¬¡": 1280,
      "à¬°à¬¬à¬°": 1281,
      "Ġà¬ĩà¬ļ": 1282,
      "Ġà¬Ĩà¬«à¬Ĺ": 1283,
      "àŃĩà¬ģà¥¤": 1284,
      "à¬Ĺà¬ł": 1285,
      "à¬Ĩà¬¡": 1286,
      "Ġà¬Ĺà¬Ń": 1287,
      "Ġà¬ľà¬Ĺ": 1288,
      "à¬¤à¬°à¬ª": 1289,
      "à¬Ĺà¬Ļ": 1290,
      "à¬¤à¬¬à¬°": 1291,
      "Ġà¬łà¬ķ": 1292,
      "Ġ11": 1293,
      "à¬¡à¬¬": 1294,
      "Ġà¬¸à¬ľ": 1295,
      "àŃ±à¬ļ": 1296,
      "à¬Łà¬¸": 1297,
      "à¬ľà¬£à¬Ļ": 1298,
      "à¬°à¬¥": 1299,
      "Ġà¬°à¬®": 1300,
      "àŃ¨àŃ¨": 1301,
      "à¬¤à¬°à¬£": 1302,
      "à¬¤à¬°à¬Ļ": 1303,
      "à¬°à¬£à¬¤": 1304,
      "à¬¥à¬Ļ": 1305,
      "Ġà¬²à¬®": 1306,
      "à¬®à¬¶": 1307,
      "à¬Łà¬ķà¬°": 1308,
      "Ġà¬Ĩà¬ªà¬£à¬®": 1309,
      "à¬³à¬¦": 1310,
      "ĠĊ": 1311,
      "à¬ĩà¬°à¬¸": 1312,
      "à¬Ĺà¬°à¬°": 1313,
      "Ġà¬Ńà¬īà¬£": 1314,
      "à¬¦à¬¨à¬ķ": 1315,
      "à¬²à¬¤": 1316,
      "à¬¬à¬¦à¬°": 1317,
      "Ġà¬Ĩà¬ķà¬³à¬¨": 1318,
      "Ġà¬°à¬ŀ": 1319,
      "à¬¨àŃŁà¬¨": 1320,
      "à¬Ī": 1321,
      "à¬ıà¬ļ": 1322,
      "à¬¼,": 1323,
      "à¬¡à¬ª": 1324,
      "Ġà¬ªà¬³": 1325,
      "Ġ=": 1326,
      "à¬¦à¬®": 1327,
      "à¬Ĩà¬£": 1328,
      "àŃ§àŃ¨": 1329,
      "Ġà¬īà¬ŃàŃŁà¬Ļ": 1330,
      "Ġà¬¸à¬°à¬ªà¬ŀ": 1331,
      "Ġ12": 1332,
      "Ġà¬¡à¬²": 1333,
      "à¬¶à¬Ĺ": 1334,
      "Ġà¬ªà¬¥à¬°": 1335,
      "ĠàŃ§àŃ¯àŃ¯": 1336,
      "Ġà¬ĭà¬¤": 1337,
      "10": 1338,
      "à¬ľà¬Ļ": 1339,
      "àŃĩà¬¾:": 1340,
      "àŃ¦àŃ¦àŃ¦": 1341,
      "Ġà¬ħà¬¨à¬²": 1342,
      "Ġà¬¤à¬®": 1343,
      "Ġà¬®à¬®à¬¤": 1344,
      "à¬¦à¬Ļ": 1345,
      "Ġà¬ľàŃŁ": 1346,
      "à¬°à¬²": 1347,
      "àŃŁà¬ķà¬°": 1348,
      "ĠàŃŃàŃ¦": 1349,
      "àŃį-": 1350,
      "Ġà¬ªà¬°à¬¸": 1351,
      "Ġà¬¨à¬ķà¬°": 1352,
      "à¬ķà¬¶": 1353,
      "Ġà¬ļàŃŁà¬¨": 1354,
      "Ġà¬¶à¬Ļ": 1355,
      "Ġà¬Ĩà¬¸à¬¨à¬°": 1356,
      "Ġà¬§à¬ķ": 1357,
      "Ġà¬Ĺà¬¹": 1358,
      "Ġà¬®à¬¡": 1359,
      "Ġà¬ĵà¬Ń": 1360,
      "Ġà¬¸à¬¹à¬ľ": 1361,
      "à¬ıà¬ł": 1362,
      "à¬Ĩà¬ĩà¬¨": 1363,
      "àŃįà¥¤": 1364,
      "àŃįâĢĮ-": 1365,
      "à¬īà¬°à¬ķ": 1366,
      "à¬£à¬ª": 1367,
      "Ġà¬ªà¬ĩà¬¸": 1368,
      "----": 1369,
      ".)": 1370,
      "Ġà¬ķà¬Łà¬ķà¬°": 1371,
      "àŃŁà¬Ĺ": 1372,
      "à¬°à¬Ł": 1373,
      "à¬ķà¬¸à¬Ń": 1374,
      "Ġà¬Ĳà¬¤": 1375,
      "à¬·à¬ķà¬Ļ": 1376,
      "ĠàŃ©àŃ©": 1377,
      "Ġà¬¦à¬¶": 1378,
      "Ġà¬·à¬¡": 1379,
      "Ġà¬Ĺà¬¡": 1380,
      "ĠàŃ©àŃŃ": 1381,
      "àŃĩ.": 1382,
      "Ġà¬®à¬¤à¬¦": 1383,
      "à¬¶à¬Ĺà¬¡": 1384,
      "ĠàŃ¨àŃ¦àŃ¨àŃ¨": 1385,
      "Ġà¬¨à¬Ĺà¬°": 1386,
      "Ġà¬Ĩà¬īà¬Ł": 1387,
      "Ġà¬Ľà¬¡": 1388,
      "à¬¤à¬³": 1389,
      "Ġà¬§à¬®à¬ķ": 1390,
      "à¬¿:": 1391,
      "à¬®à¬³": 1392,
      "à¬īà¬¸": 1393,
      "àŃŁà¬®à¬ķ": 1394,
      "Ġà¬īà¬ªà¬¨": 1395,
      "Ġà¬«à¬¸": 1396,
      "à¬ıà¬®à¬¸": 1397,
      "àŃ±àŃŁ": 1398,
      "ĠàŃ©àŃ¨": 1399,
      "ĠàŃ®àŃ¦": 1400,
      "àŃ«àŃ¦": 1401,
      "Ġà¬ĺà¬°à¬°": 1402,
      "à¬°à¬¤à¬ķ": 1403,
      "à¬Ĺà¬²à¬°": 1404,
      "à¬ĩà¬¨à¬°": 1405,
      "à¬·à¬£à¬°": 1406,
      "à¬®à¬Ļ": 1407,
      "à¬¿'": 1408,
      "ĠàŃ©àŃ¬": 1409,
      "à¬¾)": 1410,
      "à¬°à¬Ĺà¬¤": 1411,
      "à¬¬à¬Ĺà¬¡": 1412,
      "à¬¤à¬ª": 1413,
      "Ġà¬ħà¬¬à¬¶": 1414,
      "11": 1415,
      "Ġà¬ĩà¬Ł": 1416,
      "Ġà¬®à¬¹à¬®": 1417,
      "Ġà¬ĵà¬¹": 1418,
      "à¬°à¬·": 1419,
      "ĠàŃ¨àŃ¦àŃ§àŃ®": 1420,
      "à¬¤à¬¨à¬¤": 1421,
      "Ġà¬īà¬ªà¬°à¬ķ": 1422,
      "à¬ĩà¬¬à¬°": 1423,
      "ĠàŃ©àŃª": 1424,
      "àŃŁà¬Ł": 1425,
      "Ġà¬Ĩà¬ŀ": 1426,
      "Ġà¬®à¬¹à¬¤": 1427,
      "Ġà¬ĺà¬¨": 1428,
      "Ġ(+": 1429,
      "ÌĬ": 1430,
      "Ġà¬¸à¬¦à¬°": 1431,
      "19": 1432,
      "Ġ2019": 1433,
      "à¬ĩà¬Ļ": 1434,
      "ĠÌĬ": 1435,
      "à¬¶à¬³": 1436,
      "Ġà¬ħà¬¬à¬Ĺà¬¤": 1437,
      "Ġà¬²à¬¹à¬°": 1438,
      "à¬¤à¬ķà¬Ļ": 1439,
      "Ġ+": 1440,
      "à¬Ĩà¬ª": 1441,
      "à¬ıà¬¬": 1442,
      "Ġà¬¨à¬ķà¬²": 1443,
      "à¬Ĩà¬ĩà¬¸": 1444,
      "Ġà¬ľà¬³à¬¸": 1445,
      "12": 1446,
      "à´": 1447,
      "à¬ļà¬®": 1448,
      "à¬ªà¬¢": 1449,
      "à¬Łà¬°à¬¨": 1450,
      "à¬ķà¬£": 1451,
      "Ġà¬²à¬ĺ": 1452,
      "à¬°à¬ķà¬°": 1453,
      "àŃģ-": 1454,
      "Ġà¬ĵà¬ķ": 1455,
      "Ġà¬¦à¬³à¬ķ": 1456,
      "Ġà¬ľàŃŁà¬¨": 1457,
      "Ġà¬¸à¬¹à¬ľà¬°": 1458,
      "Ġ...": 1459,
      "à¬°à¬£à¬Ļ": 1460,
      "Ġà¬ħà¬¡": 1461,
      "Ġà¬Ĩà¬¦à¬°": 1462,
      "à¬¶à¬ķà¬Ļ": 1463,
      "ĠàŃªàŃ®": 1464,
      "à¬³à¬ĸ": 1465,
      "à¬Ľà¬¡": 1466,
      "Ġà¬ıà¬¯": 1467,
      "à¬³àŃŁà¬ķ": 1468,
      "à¬·à¬ķà¬®": 1469,
      "à¬ľà¬¨à¬°": 1470,
      "à¬¯à¬¨": 1471,
      "Ġà¬ħà¬®à¬°": 1472,
      "ĠàŃŃàŃ«": 1473,
      "Ġà¬īà¬ªà¬Ń": 1474,
      "à¬¦àŃŁ": 1475,
      "18": 1476,
      "àŃĩàŃį": 1477,
      "à¬ıà¬°": 1478,
      "Ġà¬«à¬¸à¬²": 1479,
      "à¬ĵà¬¬": 1480,
      "à¬Ĩà¬¹": 1481,
      "à¬ľà¬¬": 1482,
      "Ġà¬§à¬³": 1483,
      "à¬¹à¬Ļ": 1484,
      "Ġà¬Ĺà¬°à¬®": 1485,
      "Ġà¬ªà¬ıà¬£": 1486,
      "àŃģàŃį": 1487,
      "Ġà¬¯à¬¤": 1488,
      "Ġà¬ľàŃŁà¬ª": 1489,
      "àŃ§àŃ®": 1490,
      "à¬ĩà¬Ńà¬°": 1491,
      "ĠàŃ©àŃ®": 1492,
      "à¬Łà¬ª": 1493,
      "à¬¬à¬¬à¬°": 1494,
      "Ġà¬ŃàŃŁà¬Ļ": 1495,
      "Ġà¬Ńà¬Ļ": 1496,
      "à¬°à¬®à¬£à¬ķ": 1497,
      "à¬¬à¬¹": 1498,
      "àŃĩà¬Ĥ": 1499,
      "ĠàŃ¨àŃ¦àŃ§àŃŃ": 1500,
      "Ġà¬¬à¬³à¬°": 1501,
      "Ġà¬Ĭ": 1502,
      "à¬ļà¬¤": 1503,
      "à¬īà¬¡à¬°": 1504,
      "àŃ±à¬¸": 1505,
      "àŃ±à¬ķ": 1506,
      "à¬®à¬ķà¬°": 1507,
      "à¬īà¬Ł": 1508,
      "Ġà¬¥à¬£": 1509,
      "à¬¹à¬ķà¬Ļ": 1510,
      "ĠàŃ¯àŃ¦": 1511,
      "Ġà¬¬à¬¦à¬³à¬°": 1512,
      "Ġà¬Ĺà¬ł": 1513,
      "Ġà¬Ńà¬£": 1514,
      "à¬ķà¬Łà¬¸": 1515,
      "à¬³à¬¸": 1516,
      "Ġà¬ħà¬¨à¬¨": 1517,
      "à¬«à¬³à¬°": 1518,
      "à¬ħà¬Ľ": 1519,
      "à¬ŀà¬ª": 1520,
      "àŃŁà¬Łà¬¨": 1521,
      "àŃ±à¬¤": 1522,
      "àŃ§àŃ«": 1523,
      "à¬īà¬¦": 1524,
      "Ġà¬ħà¬¬à¬¸à¬°": 1525,
      "Ġà¬¦à¬®": 1526,
      "Ġ30": 1527,
      "Ġà¬ıà¬«": 1528,
      "à¬ħà¬ª": 1529,
      "àŃįâĢĮ'": 1530,
      "Ġà¬¸à¬®à¬¬": 1531,
      "Ġà¬Łà¬ª": 1532,
      "Ġà¬ĵà¬Ńà¬°à¬°": 1533,
      "à¬¸à¬³à¬ĸ": 1534,
      "Ġà¬ĵà¬ľà¬¨": 1535,
      "Ġà¬ħà¬¬à¬ķ": 1536,
      "à¬¦à¬ª": 1537,
      "à¬ĩà¬ľà¬°": 1538,
      "Ġà¬īà¬ªà¬ķà¬°à¬£": 1539,
      "Ġà¬ľà¬·": 1540,
      "Ġà¬ĩà¬¨à¬·": 1541,
      "à¬²à¬¡": 1542,
      "ĠàŃªàŃ¨": 1543,
      "Ġà¬¸à¬®à¬¨": 1544,
      "06": 1545,
      "Ġà¬Ĺà¬¢": 1546,
      "àŃŁà¬¸à¬Ń": 1547,
      "àŃĩàŃĩ": 1548,
      "Ġà¬Ĩà¬ĺ": 1549,
      "Ġà¬īà¬ľ": 1550,
      "Ġà¬ķà¬Ļ": 1551,
      "à¬Ńà¬¬à¬¤": 1552,
      "Ġà¬īà¬¦à¬ĺ": 1553,
      "âĢĵ": 1554,
      "à¬¬à¬¨à¬ķ": 1555,
      "à¬¸à¬°à¬ķ": 1556,
      "ĠàŃªàŃª": 1557,
      "Ġà¬ħà¬ļ": 1558,
      "ĠàŃ©àŃ¯": 1559,
      "à¬ħà¬®": 1560,
      "ĠàŃĩ": 1561,
      "Ġà¬ªà¬¦à¬°": 1562,
      "Ġà¬ħà¬¬à¬¦": 1563,
      "à¬¾.": 1564,
      "à¬¸à¬¨à¬ķ": 1565,
      "à¬ĩà¬ĵ": 1566,
      "Ġà¬¤à¬¨": 1567,
      "à¬¿à¬ĥ": 1568,
      "à¬°à¬®à¬ķ": 1569,
      "à¬ŀà¬¤": 1570,
      "05": 1571,
      "à¬¬à¬£": 1572,
      "à¬¬à¬¡": 1573,
      "Ġà¬ªà¬¬à¬¨": 1574,
      "Ġà¬¶à¬ªà¬¥": 1575,
      "Ġà¬¦à¬°à¬®": 1576,
      "07": 1577,
      "à¬ļà¬³à¬ķ": 1578,
      "à¬łà¬ªà¬¢": 1579,
      "à¬ĸà¬¬à¬°": 1580,
      "09": 1581,
      "à¬Ńà¬®": 1582,
      "08": 1583,
      "Ġ18": 1584,
      "ĠàŃ§àŃ¯àŃ®": 1585,
      "à¬īà¬ļà¬°": 1586,
      "à¬¹à¬³": 1587,
      "àŃ§àŃª": 1588,
      "àŃ±à¬ķà¬ª": 1589,
      "04": 1590,
      "à¬ħà¬Ļ": 1591,
      "ĠàŃ¨àŃ¦àŃ§àŃª": 1592,
      "ĠàŃªàŃ©": 1593,
      "à¬²à¬Ń": 1594,
      "àŃŁà¬ķà¬³": 1595,
      "à¬Łà¬²": 1596,
      "Ġà¬Ĺà¬Ļ": 1597,
      "à¬ħà¬§": 1598,
      "Ġà¬ħà¬¬à¬¹": 1599,
      "Ġà¬¹à¬¨": 1600,
      "Ġà¬¤à¬°": 1601,
      "àŃŁà¬§": 1602,
      "à¬¸à¬Ń": 1603,
      "àŃ§àŃŃ": 1604,
      "Ġà¬ħà¬¬à¬§": 1605,
      "à¬¶à¬¹": 1606,
      "Ġà¬Ĺà¬¤à¬¬à¬°": 1607,
      "Ġà¬Ĩà¬ł": 1608,
      "Ġà¬ªà¬¥": 1609,
      "àŃ±à¬³": 1610,
      "à¬ŁàŃ±": 1611,
      "à¬¿à¬Ĥ,": 1612,
      "à¬ĩà¬«": 1613,
      "Ġà¬Ĺà¬³": 1614,
      "Ġà¬¤à¬³à¬ķ": 1615,
      "Ġà¬¹à¬²": 1616,
      "Ġà¬ıà¬ĩ": 1617,
      "à¬¡à¬Ĺ": 1618,
      "à¬ĸà¬ª": 1619,
      "Ġà¬ıà¬¸à¬ª": 1620,
      "ĠàŃ«àŃ«": 1621,
      "Ġ2018": 1622,
      "à¬¾à¬ĥ": 1623,
      "à¬ĩà¬¤": 1624,
      "àŃ¨àŃ«": 1625,
      "à¬³à¬¨à¬°": 1626,
      "Ġà¬²à¬ķà¬¡": 1627,
      "Ġà¬ıà¬ķà¬°": 1628,
      "Ġà¬Ĺà¬£à¬¤": 1629,
      "à¬·à¬ķà¬°": 1630,
      "à¬īà¬¨à¬¸": 1631,
      "à¬°à¬¸à¬¨": 1632,
      "ĠàŃªàŃ¬": 1633,
      "Ġ15": 1634,
      "àŃ§àŃ¬": 1635,
      "Ġà¬Ńà¬¡": 1636,
      "Ġà¬ħà¬¯": 1637,
      "Ġà¬īà¬®": 1638,
      "Ġà¬¹à¬³à¬¦": 1639,
      "à¬³à¬¨à¬ķ": 1640,
      "âĢĭ": 1641,
      "âĢĺ": 1642,
      "Ġà¬ļà¬®": 1643,
      "à¬¬à¬®": 1644,
      "àŃ¨àŃ©": 1645,
      "à¬¦à¬°à¬°": 1646,
      "à¬¬à¬°à¬¦": 1647,
      "ÌĤ": 1648,
      "Ġà¬ħà¬¸à¬®": 1649,
      "Ġà¬ıà¬ķà¬®": 1650,
      "Ġà¬ħà¬ĸ": 1651,
      "à¬²à¬ª": 1652,
      "Ġà¬¦à¬¶à¬®": 1653,
      "à¬ľà¬ªà¬¥": 1654,
      "03": 1655,
      "à¬¤àŃŁà¬¨": 1656,
      "à¤¾": 1657,
      "à¬¸à¬¦à¬°": 1658,
      "Ġà¬Łà¬¨": 1659,
      "à¬ıà¬¡": 1660,
      "à¬ıà¬¤": 1661,
      "à¬°à¬ł": 1662,
      "Ġà¬ľà¬¨à¬ľ": 1663,
      "àŃ§àŃ©": 1664,
      "Ġà¬§à¬°à¬£à¬°": 1665,
      "Ġà¬ľà¬³à¬¬": 1666,
      "à¬·àŃŁà¬ķ": 1667,
      "Ġà¬®à¬Ŀ": 1668,
      "Ġà¬Ĺà¬®": 1669,
      "à¬£à¬®": 1670,
      "Ġà¬ĩà¬¡": 1671,
      "à¬īà¬°": 1672,
      "àŃŁà¬ľ": 1673,
      "à¬ĩà¬Łà¬°": 1674,
      "àŃįâĢĮ.": 1675,
      "Ġà¬ķà¬¶": 1676,
      "à¬¥à¬¬": 1677,
      "à¬¨à¬Ń": 1678,
      "Ġà¬ıà¬ķà¬¤": 1679,
      "ĠàŃ¨àŃ¦àŃ§àŃ¬": 1680,
      "àŃįâĢĮà¥¤": 1681,
      "Ġà¬ıà¬¤à¬²": 1682,
      "Ġà¬ħà¬ľàŃŁ": 1683,
      "Ġà¬¶à¬¤à¬ķ": 1684,
      "à¬¬à¬ķà¬®": 1685,
      "à¬ıà¬²à¬°": 1686,
      "âĢ¢": 1687,
      "Ġà¬ľà¬Ł": 1688,
      "Ġà¬®à¬®": 1689,
      "ĠàŃªàŃŃ": 1690,
      "Ġ26": 1691,
      "Ġà¬°à¬¤": 1692,
      "à¬ķà¬°à¬£à¬°": 1693,
      "ĠàŃªàŃ¯": 1694,
      "à¬¥à¬¤": 1695,
      "Ġà¬°à¬£à¬¨": 1696,
      "Ġà¬ħà¬¸à¬¹": 1697,
      "à¬¬à¬°à¬ķ": 1698,
      "à¬¾):": 1699,
      "à¬³à¬ª": 1700,
      "Ġà¬ħà¬ªà¬°à¬ªà¬ķ": 1701,
      "à¬ªà¬ļ": 1702,
      "à¬Ĺà¬łà¬¨à¬°": 1703,
      "à¬¨à¬¬à¬¨": 1704,
      "Ġà¬Ĭà¬°": 1705,
      "àŃĩ'": 1706,
      "Ġà¬¨à¬ľ": 1707,
      "à¬ĺà¬£": 1708,
      "Ġà¬°à¬¹à¬¸": 1709,
      "à¬¯à¬¦": 1710,
      "à¬¡à¬®": 1711,
      "à¬¨à¬²": 1712,
      "Ġà¬°à¬¨à¬°": 1713,
      "à¬¿...": 1714,
      "àŃŁà¬¬à¬ļ": 1715,
      "Ġ24": 1716,
      "Ġà¬ªà¬°à¬¦": 1717,
      "à¬·à¬¦à¬°": 1718,
      "à¬Ĺà¬ľà¬ªà¬¤": 1719,
      "Ġà¬¶à¬¸": 1720,
      "à¬ıà¬Ł": 1721,
      "Ġà¬¸à¬¡": 1722,
      "à¬¬à¬ľà¬¨": 1723,
      "à¬ĩà¬ľà¬£": 1724,
      "à¬Łà¬°à¬Ļ": 1725,
      "Ġ25": 1726,
      "Ġà¬¸à¬°à¬³": 1727,
      "à¬®à¬ľ": 1728,
      "à¬¤à¬²": 1729,
      "Ġ27": 1730,
      "Ġà¬®à¬¹à¬Ļ": 1731,
      "Ġà¬ıà¬¨à¬¸": 1732,
      "àŃªàŃ¦": 1733,
      "à¬²à¬ľ": 1734,
      "Ġà¬ħà¬Łà¬¨": 1735,
      "ĠàŃ¬àŃ«": 1736,
      "Ġà¬°à¬¥à¬¯": 1737,
      "Ġà¬ĩà¬°": 1738,
      "ĠàŃ«àŃ¦àŃ¦": 1739,
      "Ġà¬ªà¬°à¬ł": 1740,
      "à¬Ĩà¬ĩà¬Ł": 1741,
      "à¬ĩà¬®à¬¬": 1742,
      "à¬Ĺà¬ľ": 1743,
      "Ġà¬ľà¬¬à¬°à¬¦": 1744,
      "àŃĩà¬¾,": 1745,
      "Ġà¬ļà¬°à¬£": 1746,
      "Ġà¬¦àŃŁ": 1747,
      "Ġ29": 1748,
      "à¬Ĩà¬ªà¬£": 1749,
      "àŃŁàŃŁà¬¨": 1750,
      "Ġà¬°àŃŁ": 1751,
      "à¬¨à¬¶": 1752,
      "Ġà¬¯à¬¶": 1753,
      "Ġà¬Ĩà¬³": 1754,
      "Ġ\"\"": 1755,
      "ĠàŃ«àŃ©": 1756,
      "Ġà¬Ī": 1757,
      "à¬°à¬£à¬ķ": 1758,
      "Ġ[+": 1759,
      "ĠàŃ«àŃ¨": 1760,
      "à¬īà¬ķ": 1761,
      "àŃĩ...": 1762,
      "à¬¥à¬Ĺ": 1763,
      "àŃŁà¬°à¬¤": 1764,
      "Ġà¬Ĩà¬ĩà¬Ł": 1765,
      "à¬®à¬°à¬£": 1766,
      "ĠàŃ§àŃ¯àŃŃ": 1767,
      "à¥Ģ": 1768,
      "Ġà¬®à¬¹à¬²à¬°": 1769,
      "Ġà¬Ĩà¬ĸà¬ª": 1770,
      "àŃįâĢĮ)": 1771,
      "à¬Ľà¬¤": 1772,
      "Ġà¬Ľà¬ķà¬°": 1773,
      "àŃŁà¬Łà¬ķ": 1774,
      "Ġà¬īà¬ªà¬¦": 1775,
      "à¬ĸà¬¯": 1776,
      "àŃĩ-": 1777,
      "à¬Łà¬«à¬°": 1778,
      "Ġà¬ĸà¬Ł": 1779,
      "Ġà¬ĵà¬ª": 1780,
      "Ġ17": 1781,
      "à¬Łà¬«": 1782,
      "Ġà¬°à¬¶": 1783,
      "à¬°à¬¹à¬°": 1784,
      "àŃ¨àŃª": 1785,
      "àŃĩà¬¾):": 1786,
      "Ġà¬¬à¬¸à¬¨": 1787,
      "Ġà¬ĵà¬²à¬Ł": 1788,
      "Ġà¬¸à¬²à¬®": 1789,
      "//": 1790,
      "à¬³à¬Ĺ": 1791,
      "Ġà¬ļà¬£": 1792,
      "à¬°àŃ±": 1793,
      "Ġ;": 1794,
      "à¬ªà¬Ļ": 1795,
      "à¬¬à¬ľ": 1796,
      "à¬¬à¬¸à¬°": 1797,
      "Ġà¬ĩà¬Ń": 1798,
      "Ġ#": 1799,
      "Ġ16": 1800,
      "Ġà¬ħà¬ªà¬®": 1801,
      "Ġà¥¤âĢ¢": 1802,
      "Ġà¬Ŀà¬¡": 1803,
      "à¬ªà¬¦à¬°": 1804,
      "ĠàŃªàŃ§": 1805,
      "Ġà¬¨à¬ª": 1806,
      "à¬ĵà¬Ļ": 1807,
      "Ġà¬īà¬ªà¬¹": 1808,
      "ĠàŃ«àŃ¬": 1809,
      "àŃŁà¬¶": 1810,
      "Ġ14": 1811,
      "à¬¼àŃĩà¬¾": 1812,
      "Ġà¬Ĩà¬ĩà¬¨à¬ľ": 1813,
      "Ġ%": 1814,
      "àŃĩà¬¿": 1815,
      "Ġ&": 1816,
      "Ġà¬ŃàŃŁà¬°": 1817,
      "Ġ28": 1818,
      "àŃ¨àŃ®": 1819,
      "Ġà¬ıà¬Ł": 1820,
      "à¬Ĩà¬§": 1821,
      "Ġà¬ĵà¬²": 1822,
      "Ġà¬°à¬ĺ": 1823,
      "Ġà¬ħà¬ªà¬¹à¬°à¬£": 1824,
      "à¬¡à¬³à¬°": 1825,
      "Ġà¬ªà¬°à¬²": 1826,
      "Ġà¬¨à¬¡": 1827,
      "à¬Łà¬¡": 1828,
      "à¬ĩà¬ļ": 1829,
      "ĠàŃ«àŃª": 1830,
      "àŃ¨àŃ¬": 1831,
      "ĠàŃ«àŃŃ": 1832,
      "àŃŁà¬¬à¬§": 1833,
      "àŃ¯àŃ¯": 1834,
      "Ġà¬Ĺà¬£à¬¤à¬¨": 1835,
      "à¬ªà¬¶": 1836,
      "à¬¤à¬ķà¬°": 1837,
      "àŃĩà¬¾'": 1838,
      "àª": 1839,
      "à¬¶à¬¦": 1840,
      "Ġà¬¡à¬Ļ": 1841,
      "Ġà¬²à¬£": 1842,
      "Ġà¬Ńà¬¤": 1843,
      "à¬ħà¬Ł": 1844,
      "Ġà¬²à¬Ļ": 1845,
      "à¬ľà¬¨à¬Ĺà¬°": 1846,
      "ĠàŃ¨àŃ¦àŃ§àŃ«": 1847,
      "à¬ıà¬¦": 1848,
      "Ġà¬ıà¬ļ": 1849,
      "Ġà¬ļà¬®à¬¤": 1850,
      "à¬Ĩà¬Ĺà¬²": 1851,
      "Ġà¬ĵà¬Ńà¬°": 1852,
      "à¬¡à¬·": 1853,
      "à¬ķà¬¦": 1854,
      "Ġà¬ħà¬°à¬¬": 1855,
      "àŃĩà¬¾-": 1856,
      "Ġà¬¸à¬¹à¬ķ": 1857,
      "à¬¥à¬ª": 1858,
      "ĠàŃ«àŃ®": 1859,
      "à¬ħà¬ªà¬°": 1860,
      "Ġ13": 1861,
      "Ġà¬²à¬¹": 1862,
      "Ġà¬ħà¬¬à¬°": 1863,
      "àŃį)": 1864,
      "à¬Ńà¬²": 1865,
      "]\"": 1866,
      "à¬¼àŃĢ": 1867,
      "Ġà¬®à¬ĩ": 1868,
      "Ġà¬ħà¬ŃàŃŁ": 1869,
      "àŃĩàŃĸà¬¾": 1870,
      "à¬¦à¬£": 1871,
      "Ġà¬ŃàŃŁà¬Ń": 1872,
      "Ġà¬Ĺà¬Ľà¬°": 1873,
      "à¬Ĩà¬ĩà¬°": 1874,
      "à¬ľà¬Ĺà¬¨": 1875,
      "Ġà¬®à¬ķà¬°": 1876,
      "ĠàŃ¬àŃª": 1877,
      "]?": 1878,
      "Ġà¬¤à¬¦": 1879,
      "à¬ľà¬²": 1880,
      "à¬Ĩà¬³": 1881,
      "à¬¦à¬¨à¬°": 1882,
      "Ġà¬Ĺà¬¨": 1883,
      "à¬¶à¬¤à¬ķ": 1884,
      "Ġà¬Ĩà¬Ļ": 1885,
      "à¬¿âĢĻ": 1886,
      "Ġà¬¹à¬¬": 1887,
      "à¬ĵà¬ķ": 1888,
      "Ġà¬¸à¬ªà¬ķ": 1889,
      "à¬īà¬¨à¬¥": 1890,
      "Ġà¬ļà¬²": 1891,
      "à¬ĩà¬¡à¬²": 1892,
      "Ġà¬ľà¬Ĺà¬¤à¬°": 1893,
      "Ġà¬īà¬ªà¬ľ": 1894,
      "àŃ¨àŃ¯": 1895,
      "Ġà¬ĺà¬¡": 1896,
      "ĠàŃ«àŃ¯": 1897,
      "àŃŁà¬Ń": 1898,
      "à¬¤à¬ľ": 1899,
      "à¬®à¬®": 1900,
      "àŃŁà¬¬à¬°": 1901,
      "à¬¥à¬®à¬¨": 1902,
      "Ġà¬¢à¬Ļ": 1903,
      "ĠàŃ¬àŃŃ": 1904,
      "à¬²àŃ±": 1905,
      "à¬ıà¬¸à¬¨": 1906,
      "à¬°à¬¡": 1907,
      "Ġà¬ķà¬ķ": 1908,
      "Ġà¬¬à¬Ł": 1909,
      "ew": 1910,
      "àŃ¬àŃ¦": 1911,
      "à¬¬à¬¨à¬ļà¬°": 1912,
      "Ġ21": 1913,
      "àŃį.": 1914,
      "àŃĩ?": 1915,
      "à¬¨à¬¸à¬¨": 1916,
      "Ġ22": 1917,
      "à¬ķà¬°à¬Ļ": 1918,
      "Ġà¬īà¬·": 1919,
      "à¬¾âĢĮ": 1920,
      "Ġà¬Ĺà¬£à¬¨": 1921,
      "àŃ¨àŃŃ": 1922,
      "ews": 1923,
      "Ġà¬īà¬ªà¬¸à¬Ń": 1924,
      "à¬¤à¬¨à¬°": 1925,
      "Ġà¬ĨàŃŁà¬°": 1926,
      "Ġà¬¨à¬°à¬¸": 1927,
      "àŃ©àŃ«": 1928,
      "--------": 1929,
      "Ġà¬ĩà¬¶": 1930,
      "à¬ıà¬ıà¬¸": 1931,
      "à¬Ĩà¬°à¬¸": 1932,
      "à¬Łà¬°à¬ķ": 1933,
      "à¬¾...": 1934,
      "Ġà¬¬à¬²à¬°": 1935,
      "Ġà¬¶à¬¶": 1936,
      "Ġà¬ĩà¬ķ": 1937,
      "ĠàŃ®àŃ«": 1938,
      "ĠàŃ¯àŃ®": 1939,
      "à¬ªà¬°à¬ķ": 1940,
      "ĠàŃ¬àŃ®": 1941,
      "Ġà¬ĵà¬Ł": 1942,
      "Ġà¬®à¬¹à¬²": 1943,
      "àŃŁà¬²": 1944,
      "Ġà¬ħà¬¬à¬²à¬®": 1945,
      "Ġà¬ĵà¬¸": 1946,
      "Ġà¬¸à¬²": 1947,
      "Ġà¬¸à¬¶à¬ķ": 1948,
      "Ġà¬¸à¬¸": 1949,
      "à¬¡à¬¸": 1950,
      "]://": 1951,
      ".)-": 1952,
      "à¬®à¬ļà¬¨": 1953,
      "âĢĮàŃį": 1954,
      "Ġà¬ħà¬ĺà¬Łà¬£": 1955,
      "Ġ23": 1956,
      "Ġà¬ªà¬®": 1957,
      "à¤°": 1958,
      "Ġà¬ķà¬«": 1959,
      "à¬¦à¬¨à¬¶": 1960,
      "àŃ¦àŃ®": 1961,
      "à¬ħà¬Ń": 1962,
      "à¬Ńà¬°à¬Ļ": 1963,
      "à¬¸à¬ķà¬Ļ": 1964,
      "Ġà¬ķà¬ıà¬¦": 1965,
      "àŃªàŃ«": 1966,
      "Ġà¬²à¬ŀ": 1967,
      "à²": 1968,
      "Ġà¬¶à¬¤à¬ªà¬¥": 1969,
      "à®": 1970,
      "Ġà¬¦à¬¸": 1971,
      "à¬¸à¬¤": 1972,
      "à¬ªà¬Ĺ": 1973,
      "à¬³à¬ªà¬¤": 1974,
      "à¬ĸà¬¦": 1975,
      "Ġà¬Ĺà¬£à¬¶": 1976,
      "Ġà¬¾": 1977,
      "âĨ": 1978,
      "à¬¼àŃį": 1979,
      "Ġà¬ħà¬¹à¬®": 1980,
      "................": 1981,
      "à¬ļà¬¨à¬ķ": 1982,
      "Ġà¬Ĩà¬¡à¬ķ": 1983,
      "à¬ıà¬¸à¬ª": 1984,
      "ĠàŃ©àŃ¦àŃ¦": 1985,
      "à¬¸à¬«": 1986,
      "Ġà¬ķà¬¹à¬¨": 1987,
      "ĠàŃ§àŃ«àŃ¦": 1988,
      "Ġà¬¡à¬°": 1989,
      "Ġ_": 1990,
      "Ġà¬Ĩà¬ĩà¬¨à¬°": 1991,
      "à¬¬à¬Ń": 1992,
      "Ġà¬ķà¬®à¬³": 1993,
      "ĠàŃ¬àŃ©": 1994,
      "Ġà¬¨à¬ļ": 1995,
      "Ġà¬Ĩà¬ļà¬°à¬£": 1996,
      "à¬¹à¬ķà¬®": 1997,
      "Ġà¬¦à¬²": 1998,
      "à¬³à¬ļ": 1999,
      "à¬Ĩà¬Ĺ": 2000,
      "à¬°à¬³à¬°": 2001,
      "Ġà¬ıà¬¨à¬¡": 2002,
      "Ġà¬Īà¬¶": 2003,
      "à¬ļà¬°à¬£": 2004,
      "àŃŁà¬ľà¬¨à¬ķ": 2005,
      "à¬¾àŃĩ": 2006,
      "ĠN": 2007,
      "à¬īà¬ľ": 2008,
      "à¬£à¬Ļ": 2009,
      "Ġà¬²à¬¦": 2010,
      "à¬¡à¬Ļ": 2011,
      "Ġà¬°à¬ļà¬¨": 2012,
      "Ġà¬Łà¬°": 2013,
      "àŃ¦àŃŃ": 2014,
      "à¬¿;": 2015,
      "à¬¸à¬²à¬®": 2016,
      "à¬£à¬¬": 2017,
      "à¬·àŃŁà¬¬à¬¸": 2018,
      "à¨": 2019,
      "Ġà¬īà¬ĩà¬ķ": 2020,
      "Ġà¬Ńà¬¬à¬¨": 2021,
      "Ġà¬°à¬ļ": 2022,
      "Ġà¬ıà¬Ĺ": 2023,
      "Ġà¬ħà¬ľà¬£": 2024,
      "Ġà¬ĵà¬°à¬«": 2025,
      "ĠàŃŃàŃŃ": 2026,
      "à¬°à¬ķà¬Ł": 2027,
      "ĠàŃ¯àŃ¯": 2028,
      "àŃ¦àŃ©": 2029,
      "Ġà¬ıà¬ķà¬¥": 2030,
      "](": 2031,
      "Ġà¬Ĩà¬®à¬¦": 2032,
      "Ġà¬ıà¬ªà¬Ł": 2033,
      "ĠàŃŃàŃ¨": 2034,
      "à¬°à¬¶à¬¸": 2035,
      "ĠàŃ¬àŃ¬": 2036,
      "àŃ¦àŃ«": 2037,
      "Ġà¬ļà¬®à¬ķ": 2038,
      "ĠàŃŃàŃ©": 2039,
      "àŃ¤": 2040,
      "à¬Ńà¬Ļ": 2041,
      "à¬Łà¬¨à¬°": 2042,
      "à¬¹à¬®à¬¨": 2043,
      "Ġà¬Ńà¬Ĺ": 2044,
      "àŃ¦àŃ¯": 2045,
      "Ġà¬µ": 2046,
      "Ġà¬¸à¬°à¬¸": 2047,
      "Ġà¬·à¬·": 2048,
      "Ġà¬²à¬ľ": 2049,
      "Ġà¬Ĩà¬°à¬¬": 2050,
      "Ġà¬°à¬ª": 2051,
      "Ġà¬¨à¬Ĺà¬¦": 2052,
      "ĠÂ": 2053,
      "Ġà¬¬à¬®": 2054,
      "Ġà¬ħà¬³à¬Ļ": 2055,
      "à¬¾(": 2056,
      "ĠàŃ«àŃ§": 2057,
      "Ġà¬°à¬ľ": 2058,
      "ĠàŃ¯àŃª": 2059,
      "Ġà¬¹à¬·": 2060,
      "à¥ĩ": 2061,
      "ĠàŃ¯àŃ«": 2062,
      "000": 2063,
      "Ġà¬ıà¬°": 2064,
      "à¬¸à¬°à¬£": 2065,
      "Ġà¬Łà¬®": 2066,
      "à¬Ńà¬¬à¬¨à¬°": 2067,
      "à¬¥à¬²": 2068,
      "Ġà¬¶à¬¬à¬ķ": 2069,
      "Ġà¬¬à¬Ĺ": 2070,
      "à¬¿(": 2071,
      "à¥ĭ": 2072,
      "à¬Ńà¬£": 2073,
      "à¬ıà¬¥": 2074,
      "à¬ĩà¬ķà¬°": 2075,
      "à¬ľà¬ªà¬¥à¬°": 2076,
      "à¥į": 2077,
      "à¬¹à¬£": 2078,
      "Ġà¬Łà¬¸": 2079,
      "ĠàŃ§àŃ¯àŃ¬": 2080,
      "ĠàŃ¬àŃ¯": 2081,
      "Ġà¬ľà¬³à¬°": 2082,
      "à¬ķà¬¥": 2083,
      "Ġà¬ķà¬ŀ": 2084,
      "Ġà¬¶à¬°à¬¤": 2085,
      "ĠàŃŃàŃ¬": 2086,
      "à¬¸à¬ļ": 2087,
      "à¤Ĥ": 2088,
      "ĠàŃŃàŃ®": 2089,
      "à¬£à¬ļà¬¨": 2090,
      "à¬°à¬¬à¬¨": 2091,
      "à¬ļà¬¶": 2092,
      "Ġà¬ıà¬ķà¬ķ": 2093,
      "Ġà¬Ńà¬°à¬¸": 2094,
      "à¬£à¬ªà¬¤": 2095,
      "23": 2096,
      "Ġà¬ıà¬ıà¬¸": 2097,
      "Ġà¬¬à¬¹à¬¨": 2098,
      "à¬¸à¬¸": 2099,
      "Ġà¬¬à¬¨à¬¬": 2100,
      "àŃģ...": 2101,
      "Ġà¬®à¬ľà¬¬": 2102,
      "Ġà¬¹à¬¸à¬ª": 2103,
      "ĠàŃ®àŃŃ": 2104,
      "Ġà¬ĸà¬²": 2105,
      "Ġà¬Ĩà¬ĩà¬Ĩà¬ĩà¬¸": 2106,
      "Ġà¬ħà¬ļà¬³": 2107,
      "Ġà¬®à¬¨à¬®": 2108,
      "Ġà¬Ńà¬¬à¬¨à¬°": 2109,
      "àŃį'": 2110,
      "àŃªàŃŃ": 2111,
      "àŃ©àŃŃ": 2112,
      "Ġà¬Ĩà¬²à¬°": 2113,
      "Ġà¬ĵà¬°": 2114,
      "13": 2115,
      "ĠâĢĭ": 2116,
      "à¬®à¬Ł": 2117,
      "àŃŁà¬Łà¬ķà¬Ļ": 2118,
      "24": 2119,
      "Ġà¬¬à¬ļ": 2120,
      "à¬Ńà¬°à¬¶": 2121,
      "Ġà¬¶à¬¯": 2122,
      "ĠàŃ¬àŃ¨": 2123,
      "à¬ķà¬Ĺ": 2124,
      "ĠàŃ®àŃ¬": 2125,
      "à¬Ĺà¬¦à¬°": 2126,
      "àŃŁàŃŁà¬°": 2127,
      "àŃ¨àŃ¦àŃ¨àŃ§": 2128,
      "Ġà¬Ńà¬ŀ": 2129,
      "Ġà¬°à¬£à¬¬": 2130,
      "Ġà¥¤[": 2131,
      "Ġà¬Ŀà¬Ĺà¬¡": 2132,
      "à¬Łà¬¬": 2133,
      "àŃ©àŃ®": 2134,
      "Ġà¬ĩà¬·": 2135,
      "Ġà¬ľà¬¬à¬°à¬¦à¬¸": 2136,
      ")à¥¤": 2137,
      "à¬¶à¬ª": 2138,
      "ĠàŃ§àŃ¯àŃ«": 2139,
      "à¬ĩà¬Ĺ": 2140,
      "Ġà¬®à¬¶": 2141,
      "ĠàŃ¨àŃ¦àŃ§àŃ©": 2142,
      "àŃ¦àŃ¬": 2143,
      "à¬ľà¬¨à¬Ļ": 2144,
      "Ġ2017": 2145,
      "à¬³à¬ķà¬Ļ": 2146,
      "à¬īà¬¤à¬°": 2147,
      "à¬ıà¬¸à¬Ł": 2148,
      "Ġà¬²à¬°": 2149,
      "à¬¤à¬°à¬®": 2150,
      "Ġà¬Ńà¬Ł": 2151,
      "Ġà¬¨à¬¬à¬®": 2152,
      "àŃ¦àŃª": 2153,
      "à¬¬à¬¦à¬³": 2154,
      "à¬Ĩà¬°à¬ª": 2155,
      "à¬Łà¬¬à¬²": 2156,
      "ĠàŃŃàŃ¯": 2157,
      "Ġà¬ħà¬«à¬°": 2158,
      "à¬¥à¬³à¬ķ": 2159,
      "ĠàŃŃàŃª": 2160,
      "Ġà¬¦à¬ĸà¬²": 2161,
      "]âĢĻ": 2162,
      "à¬ĵà¬ª": 2163,
      "à¬ĺà¬¦": 2164,
      "à¬°à¬¸à¬°": 2165,
      "Ġà¬ĨàŃŁà¬¤": 2166,
      "àŃŁà¬¦": 2167,
      "Ġà¬¸à¬¹à¬®à¬¤": 2168,
      "à¬¶à¬¤à¬°": 2169,
      "à¬¤à¬ļ": 2170,
      "à¬Ńà¬¸": 2171,
      "à¬¤à¬¸": 2172,
      "Ġà¬īà¬ªà¬ĸà¬£": 2173,
      "ĠàŃ¯àŃŃ": 2174,
      "Ġà¬ħà¬®à¬³": 2175,
      "16": 2176,
      "à¬§à¬¨à¬°": 2177,
      "Ġà¬¦à¬¶à¬¨": 2178,
      "à¬¶à¬¨à¬Ļ": 2179,
      "ĠàŃ®àŃ®": 2180,
      "à¬ķà¬¸à¬¨": 2181,
      "ĠàŃ®àŃª": 2182,
      "à¬¸à¬Ĺ": 2183,
      "Ġà¬ĸà¬¬à¬°à¬ķ": 2184,
      "à¬ŀà¬®": 2185,
      "ĠàŃ¯àŃ¬": 2186,
      "15": 2187,
      "àŃĢà¬ĥ": 2188,
      "Ġà¬Ńà¬°à¬ª": 2189,
      "àŃ¢": 2190,
      "à°": 2191,
      "à¬¬à¬Ĺ": 2192,
      "à¬³à¬ľ": 2193,
      "Ġà¬Ĩà¬ªà¬¤": 2194,
      "Ġà¬ľà¬Ĺà¬¦": 2195,
      "à¬¡à¬²": 2196,
      "Ġà¬Ŀà¬Łà¬ķ": 2197,
      "à¬ĩà¬ł": 2198,
      "à¬ļà¬³à¬¬": 2199,
      "à¬īà¬ļ": 2200,
      "à¬°à¬¬à¬£": 2201,
      "à¬Ĩà¬ī": 2202,
      "à¬¹à¬¦": 2203,
      "àŃģàŃģ": 2204,
      "àŃ©àŃª": 2205,
      "à¬¾?": 2206,
      "à¬ĵà¬®": 2207,
      "Ġà¬¨à¬¬à¬ľ": 2208,
      "ĠàŃ®àŃ¯": 2209,
      "à¬Ĩà¬ĸ": 2210,
      "]+": 2211,
      "Ġà¬®à¬ĩà¬¦": 2212,
      "Ġà¬ıà¬¸à¬¡": 2213,
      "Ġà¬ķà¬¦à¬³": 2214,
      "ĠàŃ¨àŃ¦àŃ§àŃ¨": 2215,
      "à¬Łà¬ĩà¬£": 2216,
      "Ġà¬ªà¬Ľà¬ķ": 2217,
      "à¬īà¬ł": 2218,
      "à¬¿àŃį": 2219,
      "à¬ĸà¬Ļ": 2220,
      "Ġà¬ĵà¬ªà¬¨": 2221,
      "àŃ©àŃ¬": 2222,
      "à¬Ĺà¬ŀ": 2223,
      "Ġà¬¬à¬°à¬£": 2224,
      "à¬ĩà¬²à¬°": 2225,
      "àŃ¦àŃ¨": 2226,
      "Ġà¬¦à¬°à¬°": 2227,
      "\"\"": 2228,
      "Ġà¬¦à¬¹": 2229,
      "à¬Ŀà¬°à¬°": 2230,
      "à¬ĵà¬Ł": 2231,
      "Ġà¬¦à¬«": 2232,
      "à¦¾": 2233,
      "Ġà¬ķà¬®à¬°": 2234,
      "Ġà¬®à¬¨à¬ķ": 2235,
      "Ġà¬ħà¬¬à¬¸à¬°à¬ª": 2236,
      "à¬Ĺà¬¨à¬¬": 2237,
      "à¬¾;": 2238,
      "à¬°à¬¦à¬¤": 2239,
      "Ġà¬ķà¬¨à¬«à¬°": 2240,
      "ĠàŃ§àŃ¦àŃ®": 2241,
      "]=": 2242,
      "àŃŁà¬ķà¬®": 2243,
      "Ġà¬ªà¬Ļ": 2244,
      "à¬²à¬«": 2245,
      "Ġà¬Ĺà¬ľ": 2246,
      "à¬ĩà¬²à¬Ł": 2247,
      "à¬Łà¬®à¬°": 2248,
      "à¬ľàŃŁà¬°": 2249,
      "à¬ļà¬Ł": 2250,
      "à¬ŀà¬Ļ": 2251,
      "à¬¬à¬ļ": 2252,
      "à¬ļà¬²": 2253,
      "Ġà¬Ĩà¬¡à¬Ń": 2254,
      "17": 2255,
      "ĠàŃ¨àŃ¦àŃ¦àŃ¦": 2256,
      "à¬ķà¬¨à¬ķ": 2257,
      "à¬°à¬£à¬¬": 2258,
      "à¬ĵà¬¸": 2259,
      "Ġà¬Ĩà¬¡à¬®": 2260,
      "14": 2261,
      "Ġà¬ħà¬¥à¬¬": 2262,
      "à¬·à¬£à¬ķ": 2263,
      "à¬¸à¬Ł": 2264,
      "à¬Ĺà¬®à¬¨": 2265,
      "àŃĩà¬¾âĢĻ": 2266,
      "à¬¸à¬Ńà¬¬à¬¨à¬°": 2267,
      "à±": 2268,
      "ĠàŃ¨àŃ¦àŃ§àŃ§": 2269,
      "Ġà¬Ĩà¬Ł": 2270,
      "à¬ĺà¬Ł": 2271,
      "à¬²à¬°à¬Ļ": 2272,
      "Ġà¬ıà¬¨à¬ıà¬¸": 2273,
      "ĠàŃªàŃ¦àŃ¦": 2274,
      "âĢĭâĢĮ": 2275,
      "Ġà¬®à¬ł": 2276,
      "Ġà¬®à¬¤à¬°": 2277,
      "Ġà¬°à¬¥à¬°": 2278,
      "àŃŁà¬¯": 2279,
      "Ġà¬ĸà¬¡": 2280,
      "à¬ľàŃŁà¬¨": 2281,
      "Ġà¬®à¬¸à¬²": 2282,
      "à¬¸à¬°à¬Ļ": 2283,
      "à¬¦à¬Ĺ": 2284,
      "50": 2285,
      "àŃªàŃ®": 2286,
      "Ġà¬¬à¬¸à¬¬": 2287,
      "à¬¨à¬¹": 2288,
      "Ġà¬Łà¬ķ": 2289,
      "Ġ:-": 2290,
      "à¬¡à¬°à¬°": 2291,
      "à¬Ĩà¬ĩà¬ª": 2292,
      "à¬ħà¬¤": 2293,
      "à¬Ĺà¬Ĺ": 2294,
      "à¬Ńà¬¨": 2295,
      "à¬¨à¬¸à¬°": 2296,
      "Ġà¬¦à¬¬": 2297,
      "Ġà¬¹à¬ĩà¬°": 2298,
      "à¬¬à¬¨à¬¶": 2299,
      "à¬¨à¬ķà¬°": 2300,
      ")-": 2301,
      "Ġà¬ĵà¬¬": 2302,
      "à¬°à¬ļà¬³": 2303,
      "Ġà¬ªà¬¬à¬¨à¬°": 2304,
      "à¬īà¬²": 2305,
      "Ġà¬Ĩà¬ĩà¬¨à¬Ĺà¬¤": 2306,
      "Ġà¬¬à¬°à¬«": 2307,
      "àŃŁà¬¦à¬°": 2308,
      "...]": 2309,
      "à¬¬àŃŁ": 2310,
      "Ġà¬¸à¬¹à¬ķà¬°": 2311,
      "à¬¤à¬Ĺà¬¤": 2312,
      "Ġ[...]": 2313,
      "Ġà¬²à¬¤": 2314,
      "à¬¶à¬¨à¬ķ": 2315,
      "à¬Ĺà¬°à¬®": 2316,
      "à¬§à¬Ļ": 2317,
      "à¬§à¬¶à¬¤à¬ķ": 2318,
      "ĊĊ": 2319,
      "à¬Ĩà¬īà¬Ł": 2320,
      "à¬Ĺà¬®à¬°": 2321,
      "Ġà¬īà¬Ĺ": 2322,
      "ĠâĢĿ": 2323,
      "à¬ĩà¬Ĩà¬¸": 2324,
      "Ġà¬ħà¬£à¬¦": 2325,
      "à¬¨à¬ł": 2326,
      "Ġà¬Ĩà¬ĩà¬ıà¬ıà¬¸": 2327,
      "à¬·à¬ª": 2328,
      "Ġà¬ıà¬¨à¬ķ": 2329,
      "Ġ(@": 2330,
      "Ġà¬«à¬£": 2331,
      "Ġà¬Ĩà¬łà¬Ĺà¬¡": 2332,
      "à¬°à¬ªà¬¡": 2333,
      "à¬¬à¬ķà¬ª": 2334,
      "àŃĢ'": 2335,
      "à¬¨à¬ļ": 2336,
      "à¬Ĩà¬¬": 2337,
      "âĢľ": 2338,
      "àŃ©àŃ©": 2339,
      "à¬ªà¬¬à¬¨": 2340,
      "à¬¦àŃŁà¬°": 2341,
      "àŃŃàŃ«": 2342,
      "Ġà¬¸à¬¡à¬ķ": 2343,
      "à¬«à¬³à¬¤": 2344,
      "Ġà¬ķà¬°à¬£": 2345,
      "à¬®à¬¨à¬Ĺà¬°": 2346,
      "à¬§à¬¹": 2347,
      "ĠàŃ¬àŃ§": 2348,
      "àŃ¦àŃ§": 2349,
      "Ġà¬¤à¬ªà¬¸": 2350,
      "Ġà¬®à¬¨à¬¸": 2351,
      "à¬¶à¬¸": 2352,
      "Ġà¬ľà¬¨à¬ķ": 2353,
      "Ġà¬ķà¬ªà¬¡": 2354,
      "Ġà¬Ĩà¬°à¬ķ": 2355,
      "àŃĩ:": 2356,
      "Ġà¬¸à¬Ł": 2357,
      "à¬¡à¬ªà¬°": 2358,
      "à¬ģà¥¤": 2359,
      "à¬¦à¬²": 2360,
      "à¬ªà¬ľ": 2361,
      "à¬¦à¬¬à¬Ļ": 2362,
      "Ġà¬īà¬¦à¬¬": 2363,
      "Ġà¤ķ": 2364,
      "à¬¤à¬Ĺ": 2365,
      "30": 2366,
      "ar": 2367,
      "à¬¹à¬®": 2368,
      "à¬ĩà¬¡à¬°": 2369,
      "à¬ħà¬²": 2370,
      "Ġà¬Ĩà¬¹à¬¤à¬Ļ": 2371,
      "ĠàŃŃàŃ§": 2372,
      "à¬ļà¬¨à¬®à¬£": 2373,
      "Ġà¬®à¬³": 2374,
      "âĨĳ": 2375,
      ").": 2376,
      "à¬ªà¬¸à¬¨": 2377,
      "an": 2378,
      "Ġà¬¦à¬¨": 2379,
      "ĠàŃ®àŃ©": 2380,
      "Ġà¬Ĩà¬¬à¬°": 2381,
      "àŃŁà¬¶à¬Ļ": 2382,
      "à¬ħà¬£": 2383,
      "ti": 2384,
      "Ġà¬Ľà¬¬": 2385,
      "ĠâĢĭâĢĭ": 2386,
      "à¬¬à¬¨à¬¸": 2387,
      "Ġà¬Ĺà¬¦": 2388,
      "Ġà¬¸à¬°à¬ª": 2389,
      "àŃŁà¬¥": 2390,
      "Ġà¬¡à¬¬à¬²": 2391,
      "25": 2392,
      "Ġà¬Ĩà¬ĩà¬¨à¬ķ": 2393,
      "Ġà¬°à¬¦": 2394,
      "Ġà¬¨à¬ľà¬°à¬°": 2395,
      "à¬ªà¬ª": 2396,
      "Ġ31": 2397,
      "àµ": 2398,
      "Ġà¬¸à¬¹à¬°à¬ķ": 2399,
      "àŃįâĢĻ": 2400,
      "**": 2401,
      "àŃ¨àŃ¦àŃ¦": 2402,
      "Ġà¬Ĩà¬Ĺà¬¤": 2403,
      "Ġà¬Ľà¬¨": 2404,
      "ĠàŃ§àŃªàŃª": 2405,
      "à¬Ľà¬ķ": 2406,
      "Ġà¬ĨàŃŁà¬ķà¬°": 2407,
      "àŃ©àŃ§": 2408,
      "ĠàŃ§àŃ¨àŃ¦": 2409,
      "Ġà¬Ĺà¬¹à¬³": 2410,
      "à¬¹à¬¬": 2411,
      "Ġà¬Ĺà¬¹à¬£": 2412,
      "Ġà¬Ĩà¬ĩà¬¡": 2413,
      "àŃ±à¬Ń": 2414,
      "Ġà¬ĵà¬¹à¬°": 2415,
      "à¬¨à¬ªà¬¤": 2416,
      "à¬¿âĢĮ": 2417,
      "ĠàŃ¨àŃ¦àŃ¦àŃ¯": 2418,
      "Ġà¬ĩà¬¸à¬²": 2419,
      "Ġà¬«à¬³à¬ª": 2420,
      "Ġà¬Ńà¬°à¬¤": 2421,
      "àŃªàŃ¬": 2422,
      "à¬ĭ": 2423,
      "à¬£à¬¬à¬¤": 2424,
      "àŃŃàŃ®": 2425,
      "à¬Ĩà¬¤": 2426,
      "Ġà¬¥à¬®": 2427,
      "Ġà¬¡à¬¬": 2428,
      "à¬²à¬ĺ": 2429,
      "à¬¯à¬°": 2430,
      "àŃģà¬Ĥ": 2431,
      "àŃ«àŃ«": 2432,
      "]>": 2433,
      "ĠàŃ§àŃ¦àŃ¦àŃ¦": 2434,
      "à¬¯à¬ķ": 2435,
      "àŃªàŃ¯": 2436,
      "Ġà¬ķà¬²à¬°": 2437,
      "Ġà¬ħà¬¬à¬¤à¬°à¬£": 2438,
      "à¬³à¬ķà¬°": 2439,
      "à¬¨à¬¯": 2440,
      "Ġà¬ħà¬¬à¬¤": 2441,
      "àŃ©àŃ¯": 2442,
      "Ġà¬ľà¬ľ": 2443,
      "Ġà¬īà¬ªà¬²à¬ķ": 2444,
      "à¬«à¬Ł": 2445,
      "Ġà¬Ľà¬ħ": 2446,
      "26": 2447,
      "à¬Łà¬Ł": 2448,
      "à¬²à¬¤à¬¬": 2449,
      "Ġà¬ħà¬Łà¬³": 2450,
      "à¤ķ": 2451,
      "Ġà¬Ŀà¬°": 2452,
      "à¤¿": 2453,
      "ĊĠ": 2454,
      "à¬¸à¬¦à¬Ļ": 2455,
      "Ġà¬Ĩà¬°à¬Ł": 2456,
      "Ġà¬¦à¬®à¬ķ": 2457,
      "Ġà¬¸à¬¹à¬Ń": 2458,
      "Ġà¬ħà¬¢": 2459,
      "ĠàŃ®àŃ¨": 2460,
      "à¬¸à¬ķà¬®": 2461,
      "âĢĶ": 2462,
      "à¬°à¬¥à¬®à¬¥à¬°": 2463,
      "||": 2464,
      "à¬ĺà¬ķ": 2465,
      "àŃ±à¬ľ": 2466,
      "Ġà¬ľàŃŁà¬¦": 2467,
      "Ġà¬Ĩà¬ĩà¬ľ": 2468,
      "à¬ķà¬Łà¬¤à¬°": 2469,
      "Ġà¬¬à¬¬": 2470,
      "à¬¾à¬ģ,": 2471,
      "à¬īà¬Ļ": 2472,
      "à¬ľà¬°à¬Ļ": 2473,
      "à¬°à¬¥à¬®à¬°": 2474,
      "à¬ķà¬°à¬£à¬ķ": 2475,
      "à¬Łà¬°à¬®": 2476,
      "Ġà¬ļà¬°à¬®": 2477,
      "ĠNews": 2478,
      "à¬ĸà¬¤": 2479,
      "à¬ªà¬¬": 2480,
      "29": 2481,
      "à¬Ĺà¬¬à¬¤": 2482,
      "Ġà¬¨à¬³": 2483,
      "di": 2484,
      "Ġà¬®à¬ľà¬Ń": 2485,
      "Ġà¬ľà¬¨à¬Ĺ": 2486,
      "àŃŁà¬¤à¬ķ": 2487,
      "ĠàŃ¯àŃ¨": 2488,
      "à¬ªà¬¥à¬°": 2489,
      "Ġà¬²à¬¹à¬°à¬°": 2490,
      "ĠàŃ¨àŃ«àŃ¦": 2491,
      "ĠàŃ¨àŃ¦àŃ§àŃ¦": 2492,
      "]...": 2493,
      "Ġà¬®à¬¤à¬¬": 2494,
      "Ġà¬¤à¬°à¬³": 2495,
      "ĠàŃ¯àŃ§": 2496,
      "Ġà¬Ĺà¬£à¬¦": 2497,
      "Ġà¬ķà¬ļ": 2498,
      "Ġà¦": 2499,
      "àŃ©àŃ¨": 2500,
      "40": 2501,
      "à¬²à¬¤à¬°": 2502,
      "Ġà¬¦à¬®à¬¦": 2503,
      "àŃ±à¬¶": 2504,
      "Ġà¬ħà¬¬à¬ª": 2505,
      "à¬¬à¬¦à¬ķ": 2506,
      "à¬°à¬£àŃŁà¬¨": 2507,
      "à¬¶à¬²": 2508,
      "te": 2509,
      "à¬£àŃŁ": 2510,
      "Ġà¬®à¬¥": 2511,
      "Ġà¬īà¬ªà¬ļ": 2512,
      "Ġà¬®à¬ķ": 2513,
      "Ġà¬ªà¬ª": 2514,
      "Ġà¬īà¬¤à¬°": 2515,
      "Ġà¬ıà¬Ĩà¬ĩ": 2516,
      "28": 2517,
      "à¬ľà¬Ĺà¬¤": 2518,
      "àŃ¨àŃ¦àŃ¨àŃ¦": 2519,
      "Ġà¬¥à¬ĩà¬¥": 2520,
      "àŃģ)": 2521,
      "àŃŁà¬°à¬°": 2522,
      "01": 2523,
      "à¬ĩà¬Łà¬²": 2524,
      "à¬ĺà¬¡": 2525,
      "àŃŁà¬¨à¬°": 2526,
      "à¬¬à¬Ł": 2527,
      "àŃĢ)": 2528,
      "à¬ıà¬ª": 2529,
      "][": 2530,
      "Ġà¬Ĩà¬ĩà¬ıà¬¸": 2531,
      "Ġà¬Ńà¬²à¬ª": 2532,
      "à¤²": 2533,
      "Ġà¬Ńà¬°à¬£": 2534,
      "Ġà¬ħà¬¯à¬¥": 2535,
      "àŃ®àŃ¦": 2536,
      "Ġà¤¸": 2537,
      "à¬ĩàŃ±": 2538,
      "Ġà¬¬à¬³à¬ķ": 2539,
      "àŃ¬àŃ«": 2540,
      "Ġà¬ħà¬¸à¬²": 2541,
      "',": 2542,
      "à¬¸àŃ±": 2543,
      "à¬Ĩà¬¬à¬°": 2544,
      "Ġà¬®à¬°à¬£": 2545,
      "Ġà¬ķà¬ĩ": 2546,
      "à¬Ĩà¬¶": 2547,
      "à¬Ĺà¬¡à¬°": 2548,
      "ĠàŃ¨àŃ¦àŃ¦àŃ®": 2549,
      "Ġà¬Ĩà¬ĩà¬Ĩà¬ĩà¬Ł": 2550,
      "à¬ıà¬ľ": 2551,
      "à¬°à¬¡à¬ķ": 2552,
      "Ġà¬°à¬¹à¬¨": 2553,
      "à¬¶à¬ķà¬®": 2554,
      "àŃªàŃ¨": 2555,
      "à¬Ĩà¬ĩà¬Ĩà¬°": 2556,
      ":-": 2557,
      "Ġà¬°à¬ľà¬¨": 2558,
      "à¬¬à¬³à¬¤": 2559,
      "à¬īà¬¨à¬²": 2560,
      "ðŁ": 2561,
      "à¬¬à¬¹à¬¨à¬°": 2562,
      "02": 2563,
      "à¤¨": 2564,
      "ĠàŃ®àŃ§": 2565,
      "à¬ĩà¬ħà¬Ľ": 2566,
      "à¬¬à¬ªà¬°": 2567,
      "àŃŃàŃ¦": 2568,
      "à¬ķà¬ľ": 2569,
      "Ġ}": 2570,
      "Ġà¬īà¬ªà¬¬": 2571,
      "à¬°à¬¬à¬³à¬°": 2572,
      "ĠàŃ¯àŃ©": 2573,
      "Ġ100": 2574,
      "à¬µà¬ª": 2575,
      "27": 2576,
      "Ġà¬ķà¬¸": 2577,
      "Ġà¬ĵà¬ªà¬¨à¬°": 2578,
      "Ġà¬ħà¬ľà¬¬": 2579,
      ".):": 2580,
      "àŃį:": 2581,
      "à¬°à¬¸à¬¬": 2582,
      "àŃ®àŃ«": 2583,
      "Ġà¬¦à¬°à¬¬": 2584,
      "àŃŃàŃ¯": 2585,
      "àŃ¨àŃ¦àŃ¨àŃ¨": 2586,
      "àŃĩ)": 2587,
      "âĢĮà¬¾": 2588,
      "Ġà¬®à¬¸à¬ľ": 2589,
      "àŃŃàŃ¬": 2590,
      "]),": 2591,
      "à¬¸à¬¡": 2592,
      "Ġà¬®à¬Ĺ": 2593,
      "Ġà¬Ńà¬²à¬Ń": 2594,
      "Ġà¬Ĩà¬®à¬¨": 2595,
      "à¬ļà¬£": 2596,
      "Ġà¬ĸà¬¨à¬¨": 2597,
      "Ġà¬®à¬¹à¬ķ": 2598,
      "Ġà¬§à¬¸": 2599,
      "38": 2600,
      "à¬¿/": 2601,
      "Ġà¬Ĩà¬ĩà¬ıà¬®": 2602,
      "Ġà¬¦à¬®à¬ķà¬³": 2603,
      "à¬Ĥ.": 2604,
      "Ġà¬Ĳà¬¶": 2605,
      "à¬¤à¬Ł": 2606,
      "à¬ľà¬£à¬ķ": 2607,
      "à¬¬à¬¦à¬¨": 2608,
      "sh": 2609,
      "Â©": 2610,
      "à¬²à¬¬à¬°": 2611,
      "àŃŁà¬¤à¬Ļ": 2612,
      "Ġà¬¦à¬¶à¬ķà¬°": 2613,
      "Ġà¬ıà¬¸à¬¸": 2614,
      "Ġà¬²à¬³": 2615,
      "à¬®à¬¸à¬®à¬°": 2616,
      "à¬¾!": 2617,
      "Ġà¬Ľà¬Ł": 2618,
      "45": 2619,
      "à¤¤": 2620,
      "à¬¶àŃŁ": 2621,
      "à¬Ĩà¬ªà¬£à¬Ļ": 2622,
      "Ġ''": 2623,
      "à¬ĵà¬²": 2624,
      "Ġà¬ħà¬ıà¬²": 2625,
      "àŃ±à¬°à¬Ļ": 2626,
      "37": 2627,
      "àŃŁà¬ľà¬¨": 2628,
      "Ġà¬¸à¬®àŃŁà¬ķ": 2629,
      ");": 2630,
      "Ġà¬¨à¬¯": 2631,
      "Ġà¬Ĺà¬®à¬¨": 2632,
      "Ġà¬Ĩà¬²à¬Ĺ": 2633,
      "''": 2634,
      "àŃªàŃª": 2635,
      "àŃįâĢĮâĢĻ": 2636,
      "Ġà¬¤à¬²": 2637,
      "à¬Ĩà¬Ł": 2638,
      "àŃŁàŃŁà¬¨à¬°": 2639,
      "Ġà¬®à¬¹à¬ľ": 2640,
      "Ġà¬ĩà¬ľ": 2641,
      "à¬ľà¬Ĺà¬¤à¬¸": 2642,
      "Ġà¬ĩà¬¨à¬«": 2643,
      "à¬¸à¬¨à¬Ļ": 2644,
      "àŃ¬àŃ¯": 2645,
      "Ġà¬Ĩà¬Ĺà¬®à¬¨": 2646,
      "Ġà¬¹à¬ľà¬®": 2647,
      "à¬¿à¬¾": 2648,
      "à¬¶à¬³à¬°": 2649,
      "à¬¬à¬°à¬Ĺà¬¡": 2650,
      "à¬Ĺà¬·": 2651,
      "Ġà¬®à¬¦à¬¨": 2652,
      "à¬®à¬Ń": 2653,
      "35": 2654,
      "Ġà¬ľà¬³à¬Ńà¬£": 2655,
      "Ġà¬¸à¬ķà¬°": 2656,
      "àŃĢ(": 2657,
      "à¬ļà¬Ļ": 2658,
      "Ġ@": 2659,
      "Ġ{": 2660,
      "36": 2661,
      "]!": 2662,
      "à¬¨à¬¬à¬°à¬Ļ": 2663,
      "àŃ¬àŃ®": 2664,
      "Ġà¬¡à¬®": 2665,
      "Ġà¬Ĺà¬Ńà¬°": 2666,
      "à¬Ľà¬°": 2667,
      "àŃĩâĢĻ": 2668,
      "àŃŁà¬°à¬ŀ": 2669,
      "à¬¼à¬¿,": 2670,
      "Ġà¬¯à¬ľ": 2671,
      "à¬¦à¬ĺ": 2672,
      "à¬®à¬ŀ": 2673,
      "Ġà¬«à¬²": 2674,
      "à¬ªà¬¯": 2675,
      "2022": 2676,
      "Ġà¬ıà¬ķà¬¦": 2677,
      "Ġà¬Ĺà¬¹à¬®": 2678,
      "à¬·à¬Ń": 2679,
      "à¬°à¬®à¬¶": 2680,
      "à¬ªà¬¦à¬ķ": 2681,
      "à¬īà¬¤à¬Ļ": 2682,
      "à¬¸à¬Ĩà¬ª": 2683,
      "47": 2684,
      "à¬ķà¬ħà¬ª": 2685,
      "àŃŁà¬¹": 2686,
      "à¬·àŃŁà¬¤": 2687,
      "à¬¸à¬ľ": 2688,
      "à±ģ": 2689,
      "Ġà¬ķà¬¬à¬³à¬°": 2690,
      "à¬¨à¬¡": 2691,
      "Ġà¬ķà¬¨à¬·": 2692,
      "à¬ĩà¬¥à¬°": 2693,
      "àŃŁà¬®àŃŁ": 2694,
      "à¬¨à¬Ĺà¬°à¬°": 2695,
      "Ġà¬¨à¬¬à¬¨": 2696,
      "Ġà¬ıà¬ķà¬ª": 2697,
      "Ġà¬ªà¬¦à¬¯": 2698,
      "à«": 2699,
      "à©": 2700,
      "à¬¸à¬«à¬°": 2701,
      "àŃ¬àŃŃ": 2702,
      "Ġà¬ķà¬²à¬®": 2703,
      "à²¨": 2704,
      "Ġà¬¹à¬°à¬Ń": 2705,
      "à¬ĩà¬°à¬Ļ": 2706,
      "Ġà¬¯à¬ķ": 2707,
      "à¬ĸà¬°à¬ª": 2708,
      "à¬ľà¬¤": 2709,
      "Ġà¬¡à¬Ł": 2710,
      "Ø±": 2711,
      "à¬³à¬ªà¬¥": 2712,
      "à¬³à¬¬à¬°": 2713,
      "à¬łà¬¤": 2714,
      "à¬Ĩà¬ĩà¬ıà¬®": 2715,
      "àŃ®àŃ®": 2716,
      "Ġà¬·à¬¡à¬¯à¬¨": 2717,
      "Ġà¬īà¬ªà¬¤": 2718,
      "à¬Ĩà¬°à¬ıà¬«": 2719,
      "à¬ªà¬°à¬·": 2720,
      "à¬Ńà¬²à¬ªà¬®": 2721,
      "Ġà¬ļà¬³à¬¨": 2722,
      "Ġ$": 2723,
      "56": 2724,
      "Ġà¬ıà¬ķà¬ľ": 2725,
      "Ġà¬¨à¬Ĺà¬°à¬°": 2726,
      "Ġà¬°à¬¹à¬£": 2727,
      "Ġà¬Ńà¬¸": 2728,
      "àŃ±à¬ķà¬ªà¬°": 2729,
      "à¬Ĩà¬ĩà¬ıà¬¸": 2730,
      "Ġà¬¹à¬Ļ": 2731,
      "Ġà¬ľà¬³à¬ķ": 2732,
      "à¬¡à¬ĸà¬£": 2733,
      "Ġà¬²à¬Ń": 2734,
      "àŃªàŃ©": 2735,
      "âĢĻâĢĻ": 2736,
      "àŃĩàŃģ": 2737,
      "à¬ĵà¬¨": 2738,
      "àŃĩâĢĮ": 2739,
      "59": 2740,
      "à¬¨à¬¤à¬®": 2741,
      "ĠàŃ§àŃ¦àŃ«": 2742,
      "à¬ĵà¬Ĺ": 2743,
      "à¬¿àŃĩ": 2744,
      "à¬¸à¬®à¬¸": 2745,
      "à¬µà¬¤à¬¨": 2746,
      "à¬¤à¬°à¬¦": 2747,
      "à§": 2748,
      "àŃģ.": 2749,
      "Ġà¬ħà¬¹à¬®à¬¦": 2750,
      "];": 2751,
      "39": 2752,
      "à¬§à¬ª": 2753,
      "à¬Ĩà¬¸à¬¨": 2754,
      "le": 2755,
      "àŃ¯àŃ«": 2756,
      "----------------": 2757,
      "Ġà¬«à¬Ļ": 2758,
      "à¬³à¬ªà¬¡": 2759,
      "à¬¬à¬¸à¬®": 2760,
      "Ġ50": 2761,
      "à¬¤à¬°à¬ŀ": 2762,
      "31": 2763,
      "à¬Łà¬¤": 2764,
      "à¬·à¬Ĺ": 2765,
      "Ġà¬Ńà¬²à¬°": 2766,
      "à¬ĺà¬®": 2767,
      "ĠàŃ¨àŃ¦àŃ¦àŃŃ": 2768,
      "Ġà¬ħà¬ªà¬¬": 2769,
      "àŃĩ;": 2770,
      "àŃģ'": 2771,
      "re": 2772,
      "Ġà¬¸à¬®àŃŁà¬¸": 2773,
      "Ġà¬Ŀà¬°à¬ķ": 2774,
      "Ġà¬¬à¬³à¬¬à¬¤": 2775,
      "àŃªàŃ§": 2776,
      "Ġà¬ħà¬¥": 2777,
      "Ġà¬¹à¬²à¬°": 2778,
      "à¬ħà¬¸": 2779,
      "à¬¬à¬³àŃŁ": 2780,
      "à¬ķà¬Łà¬¬à¬°": 2781,
      "Ġà¬ķà¬³à¬¹": 2782,
      "à¬ķà¬«": 2783,
      "àŃ±à¬¦": 2784,
      "th": 2785,
      "à¬ķà¬®à¬°": 2786,
      "à¬°àŃŁà¬¸": 2787,
      "àŃ¬àŃ¬": 2788,
      "àŃŃàŃŃ": 2789,
      "Ġà¬¸à¬¬à¬¸": 2790,
      "Ġà¬·à¬¡à¬Ļ": 2791,
      "à¬Ĩà¬ĩà¬ķ": 2792,
      "à¬¨à¬ľà¬¨à¬ķ": 2793,
      "Ġà¬¤à¬°à¬Ļ": 2794,
      "ĠàŃ¬àŃ¦àŃ¦": 2795,
      "Ġà¬¬à¬¤": 2796,
      "à¬ľà¬¨à¬¶": 2797,
      "à¬¹à¬ļ": 2798,
      "Ġà¬ĨàŃ±": 2799,
      "ĠĠĠĠĠ": 2800,
      "Ġà¬¥à¬ķ": 2801,
      "48": 2802,
      "Ġà¬¨à¬³à¬ķ": 2803,
      "à¬«à¬²": 2804,
      "Ġà¬ĭà¬·à¬°": 2805,
      "à¬¸à¬Ńà¬¬à¬¨": 2806,
      "ĠĊĠ": 2807,
      "à¥¤\"": 2808,
      "Ġà¬īà¬ªà¬®": 2809,
      "Ġà¬ħà¬ªà¬²": 2810,
      "Ġà¬¤à¬ķ": 2811,
      "Ġà¬¸à¬®à¬²": 2812,
      "Ġà¬ıà¬¸à¬Ł": 2813,
      "Ġà¬®à¬¹à¬¨": 2814,
      "Ġà¬Łà¬£": 2815,
      "Ġà¥¤'": 2816,
      "Ġà¬«à¬ķ": 2817,
      "à¬°à¬ļà¬¨": 2818,
      "à¬°à¬ľà¬°": 2819,
      "Ġà¬Ĩà¬¥à¬²": 2820,
      "à¬Łà¬ħà¬ª": 2821,
      "à¬°à¬ľà¬¨": 2822,
      "Ġà¬ħà¬¸à¬¦": 2823,
      "à¬ªà¬°à¬°": 2824,
      "Ġà¬ĩà¬Ľ": 2825,
      "Ġà¬²à¬¸": 2826,
      "à¬ľà¬¶": 2827,
      "Ġà¬ªà¬Ľà¬ªà¬Ł": 2828,
      "à¬ªà¬°à¬¤": 2829,
      "à¬Ĩà¬°à¬¡": 2830,
      "à¬¤à¬¶": 2831,
      "à¬Ĩà¬ĩà¬ı": 2832,
      "à¬Ĺà¬²à¬ķ": 2833,
      "Ġà¬¬à¬¨à¬ĸà¬£": 2834,
      "Ġà¬¹à¬®": 2835,
      "àŃ±à¬¸à¬¨": 2836,
      "ĠàŃ§àŃ¨àŃ«": 2837,
      "à¬¦à¬¦": 2838,
      "àŃ®àŃ¯": 2839,
      "49": 2840,
      "Ġà¬ķà¬¬à¬ľ": 2841,
      "Ġà¬¦à¬®à¬¨": 2842,
      "in": 2843,
      "Ġà¬¦à¬°à¬¦": 2844,
      "Ġà¬ħà¬²à¬°": 2845,
      "ĠàŃ§àŃ§àŃ¦": 2846,
      "Ġà¬ļà¬Ł": 2847,
      "à¬·à¬¨": 2848,
      "àŃŁà¬Łà¬ķà¬®": 2849,
      "à¬ıà¬ĩ": 2850,
      "Ġà¬Ĩà¬ķà¬¸": 2851,
      "à¬ıà¬Łà¬°": 2852,
      "Ġà¬Ĩà¬¬à¬£": 2853,
      "Ġà¬ľà¬³à¬ĸ": 2854,
      "à¬Ĺà¬ľà¬°": 2855,
      "àŃįâĢĮ:": 2856,
      "à¬·à¬¸": 2857,
      "58": 2858,
      "à¬ķà¬°à¬°": 2859,
      "à¬ŃàŃŁ": 2860,
      "Ġà¬īà¬ªà¬ķà¬£": 2861,
      "ĠàŃ¨àŃ¦àŃ¦àŃª": 2862,
      "à¬³àŃŁà¬Ĺ": 2863,
      "à¤¸": 2864,
      "Ġà¬¬à¬¸à¬°": 2865,
      "33": 2866,
      "à¬®àŃŁà¬°": 2867,
      "à¬¯à¬®": 2868,
      "Ġà¬¸à¬Łà¬¡": 2869,
      "à¬ĩà¬ķà¬®": 2870,
      "Ġ^": 2871,
      "Ġà¬ĩà¬¨à¬¸": 2872,
      "Ġà¬ľà¬²": 2873,
      "Ġà¬ħà¬¬à¬¨": 2874,
      "à¬łà¬Ń": 2875,
      "Ġà¬Ĩà¬ªà¬°": 2876,
      "à¬Łà¬¦": 2877,
      "à¬¹à¬Ł": 2878,
      "46": 2879,
      "à¬Ĺà¬¨àŃ±": 2880,
      "àŃŁà¬¨à¬Ļ": 2881,
      "ĠâĢĺâĢĺ": 2882,
      "à¬¥à¬¨à¬°": 2883,
      "à¬īà¬ª": 2884,
      "à¬¡à¬¨à¬°": 2885,
      "Ġà¬¬à¬§": 2886,
      "à¬ľà¬Ń": 2887,
      "à¬ĩà¬°à¬¸à¬°": 2888,
      "43": 2889,
      "].[": 2890,
      "à¬¤à¬Ń": 2891,
      "Ġà¬¶à¬°à¬£": 2892,
      "ĠàŃ§àŃ©àŃ¦": 2893,
      "Ġà¬¨à¬®à¬¸": 2894,
      "Ġà¬°à¬£à¬ª": 2895,
      "57": 2896,
      "à¬Ĩà¬Ĺà¬ķ": 2897,
      "à¬Ĩà¬°à¬°": 2898,
      "Ġà¬¦à¬³à¬Ĺ": 2899,
      "Ġà¬¤à¬¹": 2900,
      "à¬¬à¬³à¬°": 2901,
      "à¬³à¬®à¬£": 2902,
      "à¬ĩà¬ĩ": 2903,
      "Ġà¬«à¬³à¬ķ": 2904,
      "à¬Ńà¬ª": 2905,
      "Ġà¬ªà¬¹à¬£": 2906,
      "Ġà¬ĸà¬ĩà¬°": 2907,
      "Ġà¬¶à¬¤à¬ķà¬¡": 2908,
      "à¬łà¬¶": 2909,
      "àŃ®àŃª": 2910,
      "ĠàŃ§àŃ¦àŃª": 2911,
      "à¬¤à¬ĸà¬¤": 2912,
      "à¬Łà¬ļ": 2913,
      "à¬«à¬³à¬ķ": 2914,
      "à¬¬à¬²à¬®": 2915,
      "à¬¹à¬ľà¬¨à¬ķ": 2916,
      "Ġà¬ľà¬¹": 2917,
      "à¬¼à¬ĥ": 2918,
      "à¬ĩà¬ĸ": 2919,
      "à¬Ĩà¬ĩà¬ľ": 2920,
      "à¬¨à¬¦à¬£": 2921,
      "55": 2922,
      "à¬ıà¬¸à¬¸": 2923,
      "Ġà¬¨à¬¬à¬°": 2924,
      "àŃŁàŃŁà¬¬à¬°": 2925,
      "Ġà¬¨à¬¬à¬ķ": 2926,
      "Ġà¬¸à¬°à¬Ĺà¬°à¬®": 2927,
      "Ġà¬ľà¬Łà¬£": 2928,
      "Ġà¬¨à¬ľà¬°à¬ķ": 2929,
      "me": 2930,
      "Ġ199": 2931,
      "àŃį):": 2932,
      "Ġà¬ķà¬®à¬²": 2933,
      "à¬µà¬¨": 2934,
      "ĠàŃ§àŃ¯àŃ¯àŃ¯": 2935,
      "à¬«à¬Ļ": 2936,
      "à¬°à¬¬à¬ķ": 2937,
      "Ġà¬Ĩà¬°à¬ª": 2938,
      "à¬¥à¬³à¬Ń": 2939,
      "à¬ĩà¬¦à¬°": 2940,
      "ĠÂ·": 2941,
      "Ġ40": 2942,
      "à¬¿!": 2943,
      "à¬ľà¬¤à¬ķ": 2944,
      "à¬ĩà¬ľà¬£à¬Ļ": 2945,
      "ve": 2946,
      "]\".": 2947,
      "àŃ«àŃŃ": 2948,
      "àŃ«àŃ¯": 2949,
      "Ġà¬ľà¬¬à¬°à¬¦à¬ĸà¬²": 2950,
      "Ġà¬Ŀà¬°à¬£": 2951,
      "Ġà¬ķà¬°à¬ŀ": 2952,
      "Ġà¬ĸà¬ľ": 2953,
      "ĠâĢ¢": 2954,
      "àŃĢâĢĻ": 2955,
      "Ġà¬¤à¬£": 2956,
      "à¬°à¬ļà¬³à¬¨": 2957,
      "à¬¸à¬ķà¬°": 2958,
      "Ġà¬ķà¬¤": 2959,
      "à¬ıà¬Ĩà¬ĩ": 2960,
      "à¬ģà¬¾": 2961,
      "st": 2962,
      "à¬¼:": 2963,
      "à¬¶à¬¨à¬°à¬Ļ": 2964,
      "Ġà¬Ńà¬ľà¬¨": 2965,
      "à¬ĩà¬ªà¬°": 2966,
      "Ġà¬¬à¬Ľ": 2967,
      "à¬ľàŃŁà¬Ļ": 2968,
      "Ġà¬ľàŃ±": 2969,
      "à¬ĩà¬Ńà¬°à¬Ļ": 2970,
      "Ġà¬¬à¬³à¬Ńà¬¦": 2971,
      "ĠàŃ¨àŃ¦àŃ¦àŃ¬": 2972,
      "Ġà¬ľà¬³à¬®à¬Ĺ": 2973,
      "à¬¥à¬ķà¬Ļ": 2974,
      "Ġà¬Ĩà¬¹à¬¤à¬®": 2975,
      "à¬ıà¬¨à¬¡": 2976,
      "]@": 2977,
      "Ġà¬ıà¬¬à¬°": 2978,
      "Ġà¬¨à¬Ĺ": 2979,
      "à¬ĸà¬¡": 2980,
      "à¬°à¬ļà¬£": 2981,
      "Ġà¬°à¬£à¬ľ": 2982,
      "àŃ¯àŃ¦": 2983,
      "à¬°à¬¨à¬°": 2984,
      "Ġà¬¤à¬ªà¬¨": 2985,
      "à¬ķà¬¹": 2986,
      "à¬ĺà¬°à¬°": 2987,
      "ay": 2988,
      "Ġ2016": 2989,
      "à¬¾\"": 2990,
      "Ġà¬ħà¬²à¬®": 2991,
      ".......": 2992,
      "Ġà¬¦à¬Ļ": 2993,
      "Ġà¬īà¬ªà¬Ĺ": 2994,
      "à¬²à¬¥": 2995,
      "Ġà¥¤âĢĿ": 2996,
      "44": 2997,
      "àŃĩà¬¼": 2998,
      "ĠàŃŃàŃ¦àŃ¦": 2999,
      "ĠàŃ¦àŃ¨": 3000,
      "à¬ĩà¬¨à¬ª": 3001,
      "Ġà¬¦à¬¶à¬¹à¬°": 3002,
      "ĠàŃ§àŃ¦àŃ©": 3003,
      "à¬Ńà¬ľà¬¨à¬ķ": 3004,
      "àŃ®àŃ¬": 3005,
      "à¬Łà¬¬à¬³": 3006,
      "ĠàŃ§àŃ¦àŃ¨": 3007,
      "ĠàŃ¨àŃ¦àŃ¨àŃª": 3008,
      "à¬ĩà¬Ĺà¬°": 3009,
      "à¬¿à¬¼": 3010,
      "à¬ĩà¬Ĺà¬£": 3011,
      "ĠàŃ§àŃ¦àŃ¬": 3012,
      "Ġà¬ĺà¬īà¬¡": 3013,
      "à¬¨à¬ľ": 3014,
      "à¬ħà¬«": 3015,
      "Ġà¬¬à¬°à¬¦": 3016,
      "à¬ªà¬¨à¬°": 3017,
      "Ġà¬ĩà¬ª": 3018,
      "à¬®à¬¡": 3019,
      "Ġà¬¬à¬¸à¬·": 3020,
      "ĠàŃ¨àŃ¦àŃ¦àŃ«": 3021,
      "Ġà¬ħà¬ªà¬¹": 3022,
      "à¬ŁàŃ±à¬°": 3023,
      "à¬¸à¬¬à¬ķ": 3024,
      "à¬¬à¬°à¬¤": 3025,
      "à¬ªà¬Łà¬ª": 3026,
      "à¬¡àŃ±": 3027,
      "ĠàŃ¦àŃ®": 3028,
      "54": 3029,
      "à¬¤à¬¬à¬¤": 3030,
      "à¬ĥ,": 3031,
      "Ġà¬ĸà¬¬à¬°à¬ª": 3032,
      "Ġà¬¨à¬ĸ": 3033,
      "34": 3034,
      "à¬®à¬ªà¬ŀ": 3035,
      "Ġà¬ħà¬«à¬²": 3036,
      "à¬²à¬¸à¬°": 3037,
      "ĠàŃ©àŃŃàŃ¦": 3038,
      "Ġà¬¦à¬īà¬¡": 3039,
      "àŃ¯àŃª": 3040,
      "Ġà¬¶à¬¬à¬°": 3041,
      "àŃ«àŃ¨": 3042,
      "Ġà¬¸à¬¶à¬¸": 3043,
      "]]": 3044,
      "àŃ«àŃ¬": 3045,
      "à¬ķà¬¸à¬°": 3046,
      "Ġà¬Ĩà¬£à¬¬": 3047,
      "à¬§à¬¸": 3048,
      "'à¥¤": 3049,
      "à¬¿à¥¤\"": 3050,
      "52": 3051,
      "ĠàŃ§àŃ¨àŃ®": 3052,
      "à¬°à¬¬à¬¤": 3053,
      "Ġà¬Ĩà¬¦à¬®": 3054,
      "à¬ķà¬ļ": 3055,
      "Ġà¬ļà¬¢à¬ī": 3056,
      "à¬¿),": 3057,
      "à¬²à¬®à¬°": 3058,
      "à¬¤à¬¨à¬ķ": 3059,
      "àŃŃàŃª": 3060,
      "àŃ«àŃ®": 3061,
      "Ġà¬ľà¬¨à¬¨": 3062,
      "à¬¬à¬¤à¬Ł": 3063,
      "à¬ĩà¬¨à¬ķ": 3064,
      "Ġà¬Łà¬³": 3065,
      "à¬Łà¬°à¬Ł": 3066,
      "News": 3067,
      "à¬Ĩà¬ĩà¬¬": 3068,
      "Ġà¬ıà¬²à¬ª": 3069,
      "Ġà¬ľà¬ª": 3070,
      "à¬Ĺà¬Ł": 3071,
      "à¬°à¬ıà¬¡": 3072,
      "ĠàŃ¦àŃ¬": 3073,
      "àŃį(": 3074,
      "àŃ¯àŃ®": 3075,
      "à¬²à¬Ĺà¬¡": 3076,
      "Ġà¥¤\"": 3077,
      "à¬ľà¬¦": 3078,
      "Ġà¬ħà¬¦à¬³": 3079,
      "à¬¬à¬¨à¬¯": 3080,
      "à¬ļà¬ķà¬°": 3081,
      "Ġà¬ħà¬§à¬ķ": 3082,
      "Ø§": 3083,
      "à¬ĩà¬²à¬ķ": 3084,
      "Ġà¬Ĺà¬Ľà¬ķ": 3085,
      "Ġà¬ķà¬¦": 3086,
      "Ġà¬Ĺà¬ļ": 3087,
      "Ġà¬ļà¬¹à¬²": 3088,
      "àŃ¯àŃ¬": 3089,
      "à¬²à¬¹": 3090,
      "Ġà¬ªà¬¤à¬¨": 3091,
      "à¬īà¬¸à¬°": 3092,
      "ĠàŃ§àŃ¦àŃ§": 3093,
      "ĠàŃ§àŃ¦àŃŃ": 3094,
      "à¬Ĩà¬®à¬°": 3095,
      "à¬°à¬ĵ": 3096,
      "32": 3097,
      "Ġà¬¨à¬Ł": 3098,
      "à¬¿\"": 3099,
      "à¬īà¬¨à¬°": 3100,
      "67": 3101,
      "Ġà¬Ĩà¬¸à¬¬": 3102,
      "Ġà¬¬à¬¶": 3103,
      "41": 3104,
      "Ġà¬ªà¬ĸ": 3105,
      "ĠàŃ¨àŃ¦àŃ¨àŃ©": 3106,
      "Ġà¬Ĩà¬³à¬¤": 3107,
      "à¬Łà¬°à¬¸": 3108,
      "à¬ıà¬¸à¬ıà¬«": 3109,
      "42": 3110,
      "Ġà¬ħà¬¸à¬®à¬°": 3111,
      "à¬®à¬ĺ": 3112,
      "Ġà¬®à¬ķà¬¦": 3113,
      "Ġà¬Ĩà¬·": 3114,
      "ĠàŃ¦àŃ«": 3115,
      "Ġà¬ļà¬³à¬ļà¬ŀ": 3116,
      "àŃŁà¬°à¬Ļ": 3117,
      "à¬£à¬¦": 3118,
      "Ġà¬ĭà¬·à¬Ń": 3119,
      "à¬Ĺà¬Ńà¬°": 3120,
      "Ġà¬ķà¬®à¬¨": 3121,
      "àŃ¯àŃŃ": 3122,
      "à¬Ĺà¬łà¬¨à¬ķ": 3123,
      "Ġà¬Ĩà¬°à¬¸": 3124,
      "Ġà¬°à¬®à¬£": 3125,
      "à¬ľà¬¤à¬°": 3126,
      "Ġà¬¯à¬®": 3127,
      "Ġà¬ıà¬¤à¬¦": 3128,
      "à¬¤à¬¹": 3129,
      "Ġ<": 3130,
      "à¬ıà¬ĩà¬°": 3131,
      "à¬Ĩà¬ł": 3132,
      "à¬¶à¬¯": 3133,
      "Ġà¬ľà¬³à¬ª": 3134,
      "Ġà¬¹à¬³": 3135,
      "Ġà¬²à¬²": 3136,
      "Ġà¬ķà¬Ńà¬°": 3137,
      "Ġà¬ªà¬Łà¬°": 3138,
      "à¬°à¬¹à¬£à¬ķ": 3139,
      "Ġà¬ıà¬ıà¬¸à¬Ĩà¬ĩ": 3140,
      "à¬ķà¬¸à¬®": 3141,
      "Ġà¬¸à¬¹à¬°à¬¬": 3142,
      "53": 3143,
      "Ġà¬ħà¬Ĺà¬£": 3144,
      "ĠàŃ§àŃªàŃ¦": 3145,
      "Ġà¬¹à¬°à¬®": 3146,
      "Ġà¬«à¬¸à¬²à¬°": 3147,
      "Ġà¬Ĩà¬°à¬¡": 3148,
      "Ġà¬ħà¬ĸà¬£": 3149,
      "or": 3150,
      "Ġà¬Ĩà¬°à¬ľ": 3151,
      "àŃ®àŃ©": 3152,
      "à¬®à¬¸à¬¨": 3153,
      "àŃ«àŃª": 3154,
      "ĠàŃ¦àŃ¦àŃ¦": 3155,
      "à¬ıà¬¨à¬¸": 3156,
      "à¬¬à¬ķà¬ķ": 3157,
      "à¬²à¬·": 3158,
      "à¬Ĩà¬°à¬ıà¬¸": 3159,
      "Ġà¬«à¬³à¬¸": 3160,
      "Ġà¬¬à¬³à¬¦": 3161,
      "à¤ª": 3162,
      "Ġà¬Ĩà¬ĩà¬°à¬¨": 3163,
      "àŃ±à¬°à¬ķ": 3164,
      "à¬¸à¬¦à¬®": 3165,
      "li": 3166,
      "Ġà¬ĩà¬¬": 3167,
      "Ġà¬¬à¬°à¬®": 3168,
      "à¬¦à¬¨à¬ª": 3169,
      "àŃ±à¬¤à¬Ļ": 3170,
      "âĢĮàŃĩ": 3171,
      "ĠàŃ®àŃ¦àŃ¦": 3172,
      "ĠàŃ¦àŃ¯": 3173,
      "ĠàŃ¦àŃ©": 3174,
      "à¬¦à¬°à¬²": 3175,
      "51": 3176,
      "à¬Łà¬¸à¬®": 3177,
      "ĠàŃ¦àŃŃ": 3178,
      "à¬ªà¬¸à¬°": 3179,
      "à¬®à¬Ĺà¬¡": 3180,
      "à¬£à¬¹": 3181,
      "à¬Ĺà¬ªà¬¹à¬£": 3182,
      "Ġà¬Ĩà¬¬à¬¦": 3183,
      "Ġà¬ļà¬ŀ": 3184,
      "à¬¤à¬Ľà¬¡": 3185,
      "à¬¦à¬¸": 3186,
      "Ġà¬Ķà¬·à¬§à¬°": 3187,
      "àŃįâĢĮ):": 3188,
      "Ġà¬«à¬¨": 3189,
      "àŃ±à¬°à¬¸": 3190,
      "Ġà¬ķà¬°à¬¯": 3191,
      "ĠàŃ¦àŃ§": 3192,
      "à¬ıà¬®à¬°": 3193,
      "à¬¬à¬Ńà¬³": 3194,
      "Ġà¬ľà¬¨à¬Ĺà¬£à¬¨": 3195,
      "à¬³à¬®à¬¨": 3196,
      "à¬ľàŃ±": 3197,
      "Ġà¬®à¬¤à¬ª": 3198,
      "à¬īà¬ªà¬°": 3199,
      "àŃŁà¬¸à¬°à¬ķ": 3200,
      "Ġà¬ıà¬ķà¬¨": 3201,
      "à¬¦à¬Ń": 3202,
      "à¦¿": 3203,
      "Ġà¬łà¬ª": 3204,
      "Ġà¬¬à¬¦à¬¨": 3205,
      "Ġà¬§à¬¨à¬°": 3206,
      "Ġà¬Ĩà¬³à¬°": 3207,
      "à¬°à¬ªà¬°": 3208,
      "ĠàŃ§àŃ§àŃ¨": 3209,
      "Ġà¬¶à¬¹à¬¶à¬¹": 3210,
      "àŃ¬àŃ¨": 3211,
      "àŃŃàŃ©": 3212,
      "Ġà¬ªà¬¤à¬³": 3213,
      "à¬¡à¬ªà¬¤": 3214,
      "à¬Ĺà¬¶": 3215,
      "à¬®à¬¨à¬°": 3216,
      "Ġà¬ıà¬®à¬¸": 3217,
      "Ġà¬ĩà¬¨à¬ª": 3218,
      "Ġà¬Ńà¬Ĺà¬¤": 3219,
      "àŃŁà¬ħà¬¤": 3220,
      "à¬¦à¬¤": 3221,
      "à¬¦à¬¹": 3222,
      "Ġà¬ħà¬¬à¬®": 3223,
      "Ġà¬¨àŃ±": 3224,
      "Ġà¬¨à¬®à¬¨": 3225,
      "à¬¹à¬¨à¬°": 3226,
      "Ġà¬īà¬ªà¬°à¬®": 3227,
      "Ġà¬ħà¬¥à¬ļ": 3228,
      "àŃ«àŃ©": 3229,
      "................................": 3230,
      "Ġà¬ĩà¬¦": 3231,
      "ĠàŃ¦àŃª": 3232,
      "Ġà¬¶à¬°à¬¦": 3233,
      "Ġà¬ľà¬³à¬¯": 3234,
      "à¬¾]": 3235,
      "à¬ĸà¬³à¬¨": 3236,
      "ĠàŃ¨àŃ¦àŃ¦àŃ¨": 3237,
      "Ġà¬®à¬¤à¬Ń": 3238,
      "Ġà¤¹": 3239,
      "à¬¤à¬¥": 3240,
      "à¬¹à¬ļà¬¹à¬ļ": 3241,
      "àŃ±à¬³à¬¨": 3242,
      "à¬ķà¬Łà¬¤à¬®": 3243,
      "ĠàŃ§àŃ¯àŃ¯àŃ¦": 3244,
      "à¬ªà¬Ľ": 3245,
      "Ġà¬ħà¬§à¬°": 3246,
      "à¬Ńà¬Ĺ": 3247,
      "Ġà¬ĸà¬®": 3248,
      "à¬°à¬¤à¬¬à¬°": 3249,
      "Ġà¬¦à¬ĸ": 3250,
      "Ġà¬ħà¬¤à¬°": 3251,
      "à¬ĩà¬«à¬²": 3252,
      "Ġà¬¨à¬°à¬®": 3253,
      "Ġà¬²à¬¬": 3254,
      "àŃįâĢį,": 3255,
      "Ġà¬Ĺà¬ª": 3256,
      "àŃŁà¬Ĺà¬¤": 3257,
      "Ġà¬Ĺà¬łà¬¨à¬°": 3258,
      "Ġ198": 3259,
      "à¬ĵàŃŁ": 3260,
      "Ìģ": 3261,
      "àŃŁà¬ķà¬°à¬£": 3262,
      "à¬¬à¬¸à¬¤": 3263,
      "Ġà¬īà¬¦àŃŁ": 3264,
      "Ġà¬ľà¬¨à¬ª": 3265,
      "Ġà¬ıà¬¸à¬®": 3266,
      "ĠàŃ§àŃ¦àŃ¯": 3267,
      "ÌĤà¬¾": 3268,
      "à¬¹à¬²à¬Ł": 3269,
      ".....": 3270,
      "à¬¿àŃ¤": 3271,
      "à¬Ńà¬¬à¬ªà¬°": 3272,
      "àŃ¬àŃ©": 3273,
      "à¬¸à¬®à¬°": 3274,
      "Ġà¬ļà¬ªà¬²": 3275,
      "àŃ«àŃ§": 3276,
      "70": 3277,
      "à¬¦à¬ªà¬¤": 3278,
      "Ø±Ø": 3279,
      "Ġà¬ĩà¬Ļ": 3280,
      "Ġà¬Ĩà¬°à¬¤": 3281,
      "à¬īà¬ħà¬Ľ": 3282,
      "à¬ľà¬¸à¬ľ": 3283,
      "Ġà¬²à¬ĸ": 3284,
      "à¬¥à¬¯": 3285,
      "à¬Łà¬¨à¬®": 3286,
      "à¬¸à¬ł": 3287,
      "Ġà¬ĹàŃŁ": 3288,
      "ĠàŃ§àŃ®àŃ¦": 3289,
      "àŃĢ/": 3290,
      "àŃįâĢĮ(": 3291,
      "Ġà¬¤à¬°à¬¬à¬°": 3292,
      "à¬§à¬¶": 3293,
      "Ġà¬¹à¬¡": 3294,
      "Ġà¬ĵà¬¦": 3295,
      "à¬Ĩà¬ĩà¬ıà¬¨à¬¡": 3296,
      "Ġà¬ĵà¬Ŀ": 3297,
      "à¬³à¬§": 3298,
      ".......................................": 3299,
      "àŃ®àŃŃ": 3300,
      "Ġà¬¬à¬ļà¬¸": 3301,
      "à¤Ĺ": 3302,
      "Ġà¬Ĺà¬¹à¬£à¬°": 3303,
      "à¬¦à¬°à¬Ĺà¬¡à¬°": 3304,
      "Ġà¬Ńà¬Ĺà¬¬à¬¤": 3305,
      "Ġà¬ĵà¬ıà¬¸": 3306,
      "à¬¬à¬ªà¬¤": 3307,
      "Ġà¬ĵà¬ľà¬¨à¬°": 3308,
      "à¬°à¬ľà¬¨à¬¨": 3309,
      "à¬²à¬ĸ": 3310,
      "Ġà¬®à¬Łà¬°": 3311,
      "à¬ıà¬¸à¬ĩ": 3312,
      "à¬®à¬²à¬Ļ": 3313,
      "ÎĶ": 3314,
      "à¬ªà¬°à¬Ń": 3315,
      "Ġà¬ħà¬ªà¬¸": 3316,
      "à¬¬à¬°à¬®": 3317,
      "Ġà¬ªà¬¥à¬°à¬°": 3318,
      "à¬°à¬ķà¬ķ": 3319,
      "âĨĴ": 3320,
      "à¯": 3321,
      "68": 3322,
      "à¬¥à¬ķà¬®": 3323,
      "Ġà¬®àŃŁà¬Ļ": 3324,
      "àŃ¬àŃª": 3325,
      "à¬²à¬ĵ": 3326,
      "à¬²à¬ļ": 3327,
      "Ġà¤®": 3328,
      "à¬¿âĢĿ": 3329,
      "à¬°à¬£à¬¤à¬¨": 3330,
      "ĠâĨĴ": 3331,
      "à¬¬à¬ķà¬°": 3332,
      "àŃĢ...": 3333,
      "Ġà¬ĵàŃŁ": 3334,
      "Ġà¬ľà¬¨à¬¸à¬®": 3335,
      "ĠàŃ¨àŃ¦àŃ¦àŃ©": 3336,
      "à¬Ĺà¬ļ": 3337,
      "à¬°à¬Ĺà¬¡": 3338,
      "Ġà¬īà¬¸": 3339,
      "à¬¬à¬¦à¬¤": 3340,
      "à¬¨à¬¨à¬°": 3341,
      "Ġà¬¨à¬ĩ": 3342,
      "àŃ¯àŃ©": 3343,
      "àŃŁà¬¦à¬ķ": 3344,
      "à¬·à¬°à¬¤": 3345,
      "à¬°à¬§à¬°": 3346,
      "Ġà¬¸à¬®à¬¤": 3347,
      "Ġà¬Ŀà¬Ł": 3348,
      "à¬ĩà¬¶": 3349,
      "Ġà¬Ľà¬Łà¬ªà¬Ł": 3350,
      "à¬²à¬Ŀà¬°": 3351,
      "à¬ķà¬³à¬°": 3352,
      "Ġà¬ĸà¬¬à¬°à¬°": 3353,
      "à¬Ńà¬°à¬¸": 3354,
      "Ġà¬ľà¬Ĺà¬¬à¬¨": 3355,
      "Ġà¬ľà¬¨à¬¸à¬¨": 3356,
      "Ġà¬¬à¬ĸ": 3357,
      "àŃ¬àŃ§": 3358,
      "à¬ķà¬Łà¬ª": 3359,
      "Ġà¬īà¬¤à¬ķ": 3360,
      "à¬¨à¬ĸ": 3361,
      "àŃ±à¬¯": 3362,
      "à¬ĩà¬Łà¬ķ": 3363,
      "à¬¶à¬¶": 3364,
      "à¬Ĩà¬ªà¬²": 3365,
      "à¬ļà¬¬": 3366,
      "à¬ļà¬¨à¬Ļ": 3367,
      "Ġà¬īà¬ļà¬°": 3368,
      "]',": 3369,
      "Ġà¬Ľà¬ª": 3370,
      "Ġar": 3371,
      "Ġà¬¬à¬³àŃŁ": 3372,
      "Ġà¬ķà¬¡à¬°": 3373,
      "à¬ıà¬ªà¬°": 3374,
      "àŃ«àŃ¦àŃ¦": 3375,
      "Ġà¬Ķà¬ªà¬ļ": 3376,
      "à¬°à¬¹à¬ķ": 3377,
      "à¬Ńà¬¤": 3378,
      "2019": 3379,
      "Ġà¬ĸà¬ª": 3380,
      "tw": 3381,
      "à¬ĩà¬īà¬ł": 3382,
      "ĠàŃ©àŃ«àŃ¦": 3383,
      "à¬¦à¬°à¬ķ": 3384,
      "à¤¦": 3385,
      "ĠC": 3386,
      "Ġà¬ıà¬¸à¬Ĩà¬°à¬¸": 3387,
      "Ġà¬ıà¬Ĩà¬ĩà¬¸": 3388,
      "à¬ªà¬£à¬¨": 3389,
      "à¬°à¬«à¬¦": 3390,
      "****": 3391,
      "à¬¶à¬Ĺà¬¡à¬°": 3392,
      "à¬³à¬ķà¬£": 3393,
      "à¤¹": 3394,
      "à¬łà¬ķà¬Ļ": 3395,
      "à¬¦à¬ķà¬°": 3396,
      "Ġà¬¦à¬³à¬®": 3397,
      "Ġà¬§à¬®": 3398,
      "Ġà¬¤à¬¬": 3399,
      "àŃŁà¬ľà¬³": 3400,
      "à¬·à¬¬": 3401,
      "à¬§à¬°à¬£à¬°": 3402,
      "Ġà¬³": 3403,
      "Ġà¬ħà¬Łà¬ķà¬³": 3404,
      "Ġà¬¬à¬°à¬ª": 3405,
      "àŃŃàŃ¨": 3406,
      "Ġà¬Ĩà¬ªà¬²": 3407,
      "àŃ±à¬ķà¬°": 3408,
      "Ġà¬ĸà¬ŀ": 3409,
      "Ġà¬Ĩà¬ľà¬®": 3410,
      "à¤¯": 3411,
      "âĢĻ,": 3412,
      "à¬®à¬ķà¬°à¬£": 3413,
      "à¬·à¬ľà¬®": 3414,
      "à¬¯à¬¤": 3415,
      "ĠàŃ§àŃ§àŃ«": 3416,
      "à¬Ĥ-": 3417,
      "àŃ±à¬²": 3418,
      "à³": 3419,
      "ĠàŃ¨àŃ¦àŃ¦àŃ§": 3420,
      "ÙĪ": 3421,
      "Ġà¬¸à¬¨à¬°": 3422,
      "Ġà¬¦à¬¶à¬°": 3423,
      "à¬°à¬¸à¬®": 3424,
      "Ġà¬·à¬£": 3425,
      "%,": 3426,
      "àµį": 3427,
      "Ġà¬¤à¬ª": 3428,
      "à¬¹à¬¨à¬Ļ": 3429,
      "à¬°à¬ķà¬ªà¬¤": 3430,
      "à¬Ńà¬«à¬³": 3431,
      "à¬ļà¬³à¬Ĺ": 3432,
      "à¬¨à¬¬à¬°": 3433,
      "à¬īà¬®": 3434,
      "Ġà¬¬à¬°à¬¯": 3435,
      "à¤®": 3436,
      "Ġà¬¯à¬¶à¬ª": 3437,
      "ĠàŃ§àŃ«àŃ¦àŃ¦": 3438,
      "àŃŁà¬¬à¬¶à¬¤": 3439,
      "à¬ıà¬«à¬ĵ": 3440,
      "àŃŃàŃ§": 3441,
      "à¬Ĩà¬Ń": 3442,
      "àŃ±à¬²à¬ª": 3443,
      ",(": 3444,
      "à¬¾/": 3445,
      "à¬µà¬¬": 3446,
      "Ġà¬ķà¬ıà¬¨": 3447,
      "à¬¦à¬¨à¬Ĺà¬°": 3448,
      "à¬ĩà¬¸à¬²": 3449,
      "à¬ªà¬£à¬°": 3450,
      "Ġà¬¹à¬°à¬Ńà¬Ļ": 3451,
      "Ġà¬¦à¬³à¬Ļ": 3452,
      "à¬ĩà¬°à¬¹": 3453,
      "à¬ĺà¬°à¬ķ": 3454,
      "à¬¨à¬¸à¬®": 3455,
      "ĠàŃ§àŃ§àŃª": 3456,
      "ĠàŃ§àŃ¬àŃ¦": 3457,
      "à¬ªà¬ªà¬¤": 3458,
      "à¬·à¬¯": 3459,
      "Ġà¬ľà¬¨à¬Ĺà¬¹à¬³": 3460,
      "ĠâĢĻ": 3461,
      "Ġà¬Ĩà¬ĩà¬«": 3462,
      "Ġà¬ĸà¬¤": 3463,
      "ĠàŃ§àŃ§àŃ§": 3464,
      "à¬ªà¬°à¬¹": 3465,
      "Ġà¬ħà¬ªà¬ª": 3466,
      "ta": 3467,
      "Ġà¬īà¬®à¬°à¬ķ": 3468,
      "à¬¨à¬°à¬Ļ": 3469,
      "Ġà¬°à¬¥à¬ķ": 3470,
      "Ġà¬®à¬łà¬°": 3471,
      "Ġà¬ĩà¬¥": 3472,
      "à¬¸à¬ªà¬°": 3473,
      "Ġ60": 3474,
      "Ġà¬ªà¬°à¬ĸ": 3475,
      "Ġà¤¬": 3476,
      "à¬·à¬ľà¬¨à¬ķ": 3477,
      "]à¥¤": 3478,
      "à¬ıà¬¸à¬ıà¬¸": 3479,
      "à¬Ĩà¬ĩà¬¡": 3480,
      "Ġà¬«à¬¤": 3481,
      "à¬Ńà¬¬à¬Ļ": 3482,
      "à¬¸à¬ŀ": 3483,
      "à¬ĺà¬¬": 3484,
      "Ġà¬ĵà¬·": 3485,
      "Ġà¬Ŀà¬²à¬ķ": 3486,
      "Ġà¬Ĩà¬ĩà¬¨à¬¶": 3487,
      "à¬·à¬¬à¬°": 3488,
      "Ġà¬¤à¬¡": 3489,
      "à¬ħà¬¨à¬¸": 3490,
      "à¦²": 3491,
      "à¬¿.......................................": 3492,
      "à¬¦à¬¶à¬°": 3493,
      "à¬ıà¬®à¬ķ": 3494,
      "à¬Łà¬°à¬ª": 3495,
      "à¬³à¬£": 3496,
      "Ġà¬ľà¬³à¬¸à¬®": 3497,
      "à¬¨à¬°à¬°": 3498,
      "à¬°à¬¤à¬®": 3499,
      "àŃ®àŃ§": 3500,
      "à¬¸à¬®àŃŁ": 3501,
      "à¬¬à¬¤à¬°": 3502,
      "Ġà¬Ńà¬ıà¬¸": 3503,
      "]âĢĵ": 3504,
      "tic": 3505,
      "à¬¤à¬¤à¬¨": 3506,
      "à¬ªà¬¦à¬ª": 3507,
      "à¯į": 3508,
      "]).": 3509,
      "60": 3510,
      "à¬°à¬ķà¬®": 3511,
      "àŃŁà¬¬à¬ķ": 3512,
      "à¬¼à¥¤": 3513,
      "à¬µà¬¤": 3514,
      "à¬¼-": 3515,
      "Ġ2015": 3516,
      "78": 3517,
      "à¬ĩà¬¹": 3518,
      "Ġà¬Ĺà¬Ĺà¬¨": 3519,
      "à¬ĩà¬®à¬°": 3520,
      "à¬·àŃŁà¬Ĺ": 3521,
      "Ġà¬ħà¬¥à¬°": 3522,
      "ĠàŃ§àŃ¨àŃ©": 3523,
      "à¬¼à¬¾:": 3524,
      "Ġà¬£": 3525,
      "àŃ¯àŃ¨": 3526,
      "à¬²à¬°à¬®": 3527,
      "ĠS": 3528,
      "Ġà¬īà¬ªà¬ķà¬°à¬£à¬°": 3529,
      "à³į": 3530,
      "ĠàŃ¨àŃ¨àŃ¦": 3531,
      "Ġà¤¨": 3532,
      "àŃ®àŃ¨": 3533,
      "Ġà¬ıà¬®à¬ıà¬¸": 3534,
      "Ġà¬¬à¬ľà¬°à¬Ļ": 3535,
      "à¬ľàŃŁà¬ķ": 3536,
      "ĠàŃ§àŃ§àŃ©": 3537,
      "Ø±Ø¯": 3538,
      "àŃŁà¬ŀ": 3539,
      "à¬¦à¬¨à¬Ļ": 3540,
      "à¬łà¬ª": 3541,
      "à¬³àŃŁà¬Ļ": 3542,
      "à¬§à¬ķà¬°": 3543,
      "à¬¨à¬¤à¬¤": 3544,
      "à¦¾à¦": 3545,
      "à¬ªà¬ķà¬Ļ": 3546,
      "Ġà¬ķà¬¨à¬¸": 3547,
      "à¬ıà¬¨à¬ľ": 3548,
      "ticle": 3549,
      "à¬°à¬¬à¬ļ": 3550,
      "à¬¤à¬°à¬ķà¬¨": 3551,
      "à¬¸à¬²à¬Ļ": 3552,
      "Ġà¬ıà¬«à¬Ĩà¬ĩà¬Ĩà¬°": 3553,
      "à¦¾à¦Ĥ": 3554,
      "ĠàŃ§àŃ§àŃŃ": 3555,
      "Ġà¬ħà¬®à¬³à¬°": 3556,
      "à¬Ĺà¬°à¬Ļ": 3557,
      "à°¤": 3558,
      "Ġà¬¤à¬°à¬Ń": 3559,
      "à¬¾âĢĿ": 3560,
      "Ġà¬²à¬¡": 3561,
      "Ġà¬¶à¬®": 3562,
      "ĠàŃ§àŃ¯àŃ®àŃ¦": 3563,
      "Ġà¬ĵà¬ľ": 3564,
      "Ġà¬¦àŃŁà¬¨": 3565,
      "Ġà¬ħà¬²à¬Ĩà¬īà¬Ł": 3566,
      "Ġà¬ĵà¬Ńà¬°à¬¬": 3567,
      "à°²": 3568,
      "ĠA": 3569,
      "Ġà¬¤à¬°à¬ķ": 3570,
      "à¬µà¬°à¬°": 3571,
      "àŃįàŃį": 3572,
      "à¬¦à¬°à¬Ļ": 3573,
      "Ġà¬Ĩà¬Ĺà¬§": 3574,
      "à¬ĵà¬Ĺà¬¡": 3575,
      "à¬Łà¬°à¬Ń": 3576,
      "Ø±Ø¯ÙĪ": 3577,
      "Ġà¬¨à¬ħ": 3578,
      "à¬³à¬Ń": 3579,
      "à¬«à¬£": 3580,
      "àŃį\"": 3581,
      "à±Ĩ": 3582,
      "à¬°à¬¶à¬°": 3583,
      "Ġà¬¨à¬Ī": 3584,
      "à¬¿à¥¤'": 3585,
      "à²ķ": 3586,
      "à°Ĺ": 3587,
      "Ġà¬ªà¬°à¬ķ": 3588,
      "Ġà¬¨à¬¬à¬¸": 3589,
      "à¬¦àŃŁà¬ķ": 3590,
      "àª¾": 3591,
      "ate": 3592,
      "Ġà¬ĺà¬Łà¬Ĺ": 3593,
      "à¦¯": 3594,
      "à¦¼": 3595,
      "à¬ĩà¬°à¬²": 3596,
      "ss": 3597,
      "Ġà¬ĩà¬¨à¬Ń": 3598,
      "àŃĩà¬¾à¥¤": 3599,
      "à¬³à¬ķà¬®": 3600,
      "Ġà¬ĩà¬ı": 3601,
      "à¬ıà¬«à¬¸": 3602,
      "à¨¾": 3603,
      "à¬¤à¬¸à¬¨": 3604,
      "à¬¨àŃŁà¬°": 3605,
      "Ġà¬ķà¬³à¬¸": 3606,
      "à¬°à¬ĸà¬¨": 3607,
      "àŃŁà¬Łà¬¨à¬¸": 3608,
      "àŃĩ!": 3609,
      "à¬ıà¬¸à¬°": 3610,
      "ĠI": 3611,
      "à¦®": 3612,
      "à²¡": 3613,
      "à¤¡": 3614,
      "àŃ¯àŃ§": 3615,
      "Ġà¬ľàŃŁà¬¶à¬Ļ": 3616,
      "à¬£à¬¤à¬°": 3617,
      "à²¨à²¡": 3618,
      "à²ķà²¨": 3619,
      "à®¿": 3620,
      "à¬Ńà¬¡": 3621,
      "à¬³à¬ķà¬ķ": 3622,
      "àª°": 3623,
      "Ġà¬Ńà¬°à¬¤à¬ª": 3624,
      "à©Ģ": 3625,
      "àŃŁà¬ł": 3626,
      "Ġà¬¦à¬ĩà¬¤": 3627,
      "Ġà¬ħà¬¦à¬³à¬¬à¬¦à¬³": 3628,
      "à¬·à¬§": 3629,
      "àŃŁà¬¬à¬Ľ": 3630,
      "à«Ģ": 3631,
      "àª¤": 3632,
      "Ġà¬ıà¬¨à¬ľ": 3633,
      "ĠàŃ§àŃ¯àŃ¯àŃ®": 3634,
      "à©°": 3635,
      "à¬Ľà¬¬": 3636,
      "à¨ľ": 3637,
      "à¨ª": 3638,
      "Ġï": 3639,
      "Ġà¬īà¬¦à¬³": 3640,
      "à§Ģ": 3641,
      "Ġà¬¸à¬¹à¬¸": 3642,
      "àªľ": 3643,
      "à®¤": 3644,
      "Ġà¬ľà¬ĺà¬¨": 3645,
      "Ġà¬ĸà¬³": 3646,
      "à¨¬": 3647,
      "Ġà¬²à¬Ł": 3648,
      "Ġà¬¬àŃŁà¬¨": 3649,
      "à«ģ": 3650,
      "Ġà¬®à¬¦à¬°": 3651,
      "à¬ľà¬¨à¬®": 3652,
      "Ġà¬Ĩà¬²à¬®": 3653,
      "àªĹ": 3654,
      "à¬¤à¬Ńà¬£": 3655,
      "Ġ2005": 3656,
      "à¬ıà¬®à¬ıà¬¸": 3657,
      "ĠàŃ§àŃ¯àŃ¯àŃ¬": 3658,
      "à¬¸à¬°à¬®": 3659,
      "à¬ªà¬°à¬®": 3660,
      "à¬¨à¬¸à¬Ļ": 3661,
      "Ġà¬ķà¬¬à¬³": 3662,
      "à¥¤à¥¤": 3663,
      "Ġarticle": 3664,
      "à¦¼à¦¾": 3665,
      "Ġà¬ľàŃŁà¬°": 3666,
      "à¦¸": 3667,
      "àªľàª°": 3668,
      "on": 3669,
      "Ġà¬īà¬¦àŃŁà¬ª": 3670,
      "à¬°à¬ĸà¬°": 3671,
      "ĠàŃ«àŃ¦àŃ¦àŃ¦": 3672,
      "à¥¥": 3673,
      "à¬ªà¬¤à¬°": 3674,
      "99": 3675,
      "ĠàŃ§àŃ¯àŃ¯àŃ«": 3676,
      "]âĢĿ": 3677,
      "à®®": 3678,
      "à´ķ": 3679,
      "Ġà¬«à¬°à¬ķ": 3680,
      "Ġà¬ĩà¬«": 3681,
      "à¬ıà¬ķà¬Ļ": 3682,
      "es": 3683,
      "Ġà¬ªà¬¸": 3684,
      "Ġà¬ħà¬¨à¬°": 3685,
      "à¬¥à¬¸": 3686,
      "âķ": 3687,
      "à¬ıà¬Ń": 3688,
      "à´¾": 3689,
      "à¬¦àŃŁà¬Ļ": 3690,
      "ħà¦¸": 3691,
      "ħà¦¸à¦®": 3692,
      "à¬ľà¬Ńà¬¬à¬¨": 3693,
      "àŃ±à¬¤à¬¤": 3694,
      "Ġà¬ıà¬¸à¬Ĩà¬ĩ": 3695,
      "âķĲ": 3696,
      "à¬¿à¬ģ?": 3697,
      "à¬ĩà¬¨à¬¸": 3698,
      "Ġ2014": 3699,
      "Ġà¦¬": 3700,
      "Ġà¬ļà¬ª": 3701,
      "Ġà¬§à¬īà¬³": 3702,
      "Ġà¬Ĩà¬¥": 3703,
      "à¬¶à¬¬à¬¹": 3704,
      "Ġà¬ľà¬¨à¬¶": 3705,
      "à¬¶à¬§": 3706,
      "\"\"\"": 3707,
      "à¬³à¬·": 3708,
      "Ð°": 3709,
      "Ġà¬°à¬¬à¬°": 3710,
      "Ġà¬ľà¬¨à¬¬à¬¸à¬¤": 3711,
      "à¬ļà¬ª": 3712,
      "Ġà¬ıà¬¸à¬Ĩà¬ĩà¬Ł": 3713,
      "Ġà¬¸à¬°à¬ŀ": 3714,
      "à¤¼": 3715,
      "à¥¤'": 3716,
      "à¬Łà¬Ń": 3717,
      "Ġ2006": 3718,
      "Ġà¬ľà¬³à¬¬à¬¨": 3719,
      "à¬¡à¬¤": 3720,
      "âĢĮàŃįâĢĮ": 3721,
      "à¬®à¬ł": 3722,
      "à¥ĭà¤Ĥ": 3723,
      "Ġà¬ħà¬¨à¬²à¬ķ": 3724,
      "Ġà¬ħà¬¸à¬°": 3725,
      "Ġà¬Ńà¬ľ": 3726,
      "Ġà¬ıà¬¨à¬°": 3727,
      "àŃĢ;": 3728,
      "à®´": 3729,
      "Ġà¬®à¬°à¬¶à¬°": 3730,
      "à¬·à¬ł": 3731,
      "à¬¾),": 3732,
      "Ġà¬ıà¬Ń": 3733,
      "Ġà¬¦à¬°à¬ĸ": 3734,
      "àŃĩà¬¾)": 3735,
      "à¬¬à¬ĩ": 3736,
      "Ġà¬ħà¬£à¬¸": 3737,
      "Ġà¬§à¬¨à¬²": 3738,
      "à¬łà¬ķà¬ķ": 3739,
      "à®¤à®®": 3740,
      "ĠàŃ§àŃŃàŃ¦": 3741,
      "ĠàŃ§àŃ§àŃ¯": 3742,
      "âĢĻà¥¤": 3743,
      "Ġ80": 3744,
      "Ġà°¤": 3745,
      "Ġà¬īà¬¦à¬¯": 3746,
      "à¬¡à¬°à¬Ļ": 3747,
      "Ġà¬Ĩà¬£à¬¨": 3748,
      "Ġà¬°à¬£à¬¦": 3749,
      "à¬ĭà¬¤": 3750,
      "à¬ĺà¬¸": 3751,
      "à¬ıà¬®à¬Ĩà¬°": 3752,
      "Ġà²ķà²¨": 3753,
      "ĠàŃ§àŃ¨àŃ¬": 3754,
      "à¬ľà¬ľ": 3755,
      "Ġà¬°à¬¥à¬Ļ": 3756,
      "Ġà¬§à¬°à¬£": 3757,
      "à¬¡à¬«à¬²": 3758,
      "Ġà¬¹à¬®à¬²": 3759,
      "à¬ĥ.": 3760,
      "Ġà¬¨à¬Ĩà¬¸": 3761,
      "à¬Łà¬¸à¬Ĩà¬ª": 3762,
      "à¬īà¬Ĺ": 3763,
      "ĠàŃ§àŃ§àŃ®": 3764,
      "Ġà¨ª": 3765,
      "à¬ľà¬ķà¬Ļ": 3766,
      "Ġà¬ĸà¬Ĺ": 3767,
      "ĠàŃ§àŃ¨àŃª": 3768,
      "Ġà¬¤à¬Ł": 3769,
      "àŃŁà¬¨à¬Ĺà¬°": 3770,
      "à¬ĩà¬ıà¬¸": 3771,
      "à¬ıà¬®à¬ĵ": 3772,
      "à¬®à¬§à¬¨": 3773,
      "Ġà¬¬à¬ĸà¬°": 3774,
      "à¬ıà¬Ļ": 3775,
      "à¬¡à¬Ń": 3776,
      "à¬¦à¬¶à¬ķ": 3777,
      "à¬§à¬¬à¬Ļ": 3778,
      "àŃĩà¥¤\"": 3779,
      "à¬ĸà¬Ł": 3780,
      "Ġà¬ķà¬¬à¬°": 3781,
      "Ġà¬¸à¬¹à¬°à¬Ĺ": 3782,
      "Ġà¬¬à¬³à¬ª": 3783,
      "Ġà¬°à¬¸à¬Ĺ": 3784,
      "à¬°à¬¹à¬²": 3785,
      "Ġà¬°à¬¡": 3786,
      "Ġà¬¹à¬°à¬ª": 3787,
      "Ġà¬ıà¬¦": 3788,
      "à¬ĩà¬Ńà¬īà¬£": 3789,
      "ĠàŃ§àŃ¯àŃ¯àŃŃ": 3790,
      "Ġà¬ļà¬īà¬¡": 3791,
      "Ġà¬²à¬¬à¬Ļ": 3792,
      "à¬¶à¬¹à¬°": 3793,
      "à¬¬à¬³à¬ķ": 3794,
      "Ġà¬ıà¬®à¬¬": 3795,
      "à¬ªà¬°à¬ł": 3796,
      "Ġà¬¸à¬°à¬¬à¬°": 3797,
      "Ġà¬ķà¬³à¬Ļ": 3798,
      "à¬ħà¬ľ": 3799,
      "à¬Ńà¬ķà¬°": 3800,
      "à¬ĸà¬¶": 3801,
      "à¬¡à¬ªà¬¡": 3802,
      "à¬ħà¬·": 3803,
      "à¬¨à¬«": 3804,
      "à¬ĸà¬®àŃŁ": 3805,
      "à¬Ĺà¬¤à¬ķ": 3806,
      "Ġà¬¨à¬°à¬¹": 3807,
      "Ġà¬ıà¬ĩà¬ł": 3808,
      "Ġà¬«à¬ĩà¬¸à¬²": 3809,
      "ĠàŃ§àŃ¯àŃ¯àŃ¨": 3810,
      "ĠðŁ": 3811,
      "àŃģâĢĻ": 3812,
      "Ġà¬ľà¬Ĺà¬®": 3813,
      "ly": 3814,
      "ĠàŃ§àŃ¨àŃŃ": 3815,
      "à¬ķà¬³à¬¨": 3816,
      "à¬ıà¬¸à¬ķ": 3817,
      "]):": 3818,
      "ĠàŃ§àŃ«àŃ§": 3819,
      "Ġà¬ıà¬ıà¬¨": 3820,
      "à¬°à¬ĸà¬£": 3821,
      "ĠàŃ§àŃ¨àŃ¨": 3822,
      "ĠàŃ§àŃ¨àŃ¯": 3823,
      "ĠàŃ§àŃ©àŃ«": 3824,
      "Ġ200": 3825,
      "Ġà¬ıà¬ķà¬¬": 3826,
      "day": 3827,
      "ra": 3828,
      "Ġà¬ħà¬¨à¬¸": 3829,
      "Ġ..": 3830,
      "Ġà¬Ĩà¬ĩà¬ıà¬¨": 3831,
      "à¬¸à¬²à¬°": 3832,
      "à¬°à¬¥à¬®à¬¤": 3833,
      "Ġà¬¦à¬°à¬ľ": 3834,
      "Ġà¬ªà¬ĩà¬ł": 3835,
      "à¬Łà¬¶": 3836,
      "à¬¶à¬ķà¬°": 3837,
      "à¬ıà¬Ńà¬³": 3838,
      "Ġà¬°à¬¤à¬¨": 3839,
      "à¬£à¬Ń": 3840,
      "àŃŁà¬Ĺà¬£": 3841,
      "Ġà¬ĩà¬®à¬°": 3842,
      "à¬µà¬¸": 3843,
      "à¬¦à¬ķà¬¤": 3844,
      "àŃĩàŃĹ:": 3845,
      "àŃģ!": 3846,
      "Ġà¬¯à¬¶à¬¸": 3847,
      "à¬Ĩà¬«": 3848,
      "à¬īà¬¦àŃŁà¬Ĺ": 3849,
      "Ġà¬ıà¬¨à¬Ł": 3850,
      "Ġà¬¹à¬¸à¬ĸ": 3851,
      "ĠàŃ§àŃ¯àŃŃàŃ§": 3852,
      "à¬ıà¬«à¬°": 3853,
      "à¬®à¬¦à¬Ļ": 3854,
      "à¬·à¬ķà¬¤": 3855,
      "ĠàŃ©àŃ§àŃª": 3856,
      "à¬°à¬¦à¬ª": 3857,
      "ĠÂ©": 3858,
      "Ġà¬ļà¬¹à¬°": 3859,
      "à¬ľà¬ķà¬¨": 3860,
      "à¬ªà¬¹": 3861,
      "àŃŁà¬£à¬Ļ": 3862,
      "à¬¾à¬¾": 3863,
      "à¬¬à¬¹à¬¤": 3864,
      "à¬¶à¬§à¬¨": 3865,
      "css": 3866,
      "àŃŁà¬£à¬ª": 3867,
      "76": 3868,
      "à¬¸à¬°à¬Ń": 3869,
      "à¬£à¬Ĺ": 3870,
      "à¬ĨàŃŁ": 3871,
      "Ġà¬¸à¬¹à¬¦": 3872,
      "àŃ¢à¬¾": 3873,
      "Ġà¬ªà¬£à¬¸": 3874,
      "à¬Łà¬ĵ": 3875,
      "àŃįà¬ĥ": 3876,
      "àŃģ?": 3877,
      "à¬¬à¬³à¬Ļ": 3878,
      "Ġt": 3879,
      "àŃįà¬¾": 3880,
      "à¥ģ": 3881,
      "à¬·à¬°à¬°": 3882,
      "Ġs": 3883,
      "Ġà¬Ĭà¬¦": 3884,
      "Ġ35": 3885,
      "àŃŁà¬ļ": 3886,
      "Ġà¬Ľà¬ķà¬ł": 3887,
      "Ġà¬Ĩà¬¹à¬°à¬£": 3888,
      "à¬ķà¬²à¬°": 3889,
      "à¬¦à¬°à¬ª": 3890,
      "à¬ļà¬¤à¬®": 3891,
      "96": 3892,
      "à¬Ĺà¬°à¬ķ": 3893,
      "ĠàŃ¯àŃ¦àŃ¦": 3894,
      "à¬ĵà¬ľ": 3895,
      "àŃ¨àŃ¦àŃ§àŃ¯": 3896,
      "Ġà¬ĺà¬·": 3897,
      "à¬¼àŃĢ,": 3898,
      "Ġà¬ĸà¬¦": 3899,
      "Ġà¬¬à¬°à¬Ĺà¬¡à¬°": 3900,
      "Ġà¬¤à¬³à¬°": 3901,
      "ĠàŃ§àŃ¨àŃ§": 3902,
      "Ġà¬¬à¬¨à¬®": 3903,
      "à¬¤à¬ķà¬®": 3904,
      "à¬¡à¬Ł": 3905,
      "à¬°à¬²à¬°": 3906,
      "à¬²à¬¡à¬°": 3907,
      "Ġà¬¦à¬ĩ": 3908,
      "à¤¥": 3909,
      "à¬ĩà¬ļà¬ĩ": 3910,
      "à¬ħà¬¬": 3911,
      "àŃģ(": 3912,
      "àŃ§àŃ¦àŃ¦": 3913,
      "Ġà¬¶à¬¹à¬°": 3914,
      "à¬¶à¬³à¬ķ": 3915,
      "à¬Ĺà¬£à¬¤": 3916,
      "Ġà¬¸à¬¹à¬¨à¬¶": 3917,
      "Ġà¬ķà¬¢": 3918,
      "à¬łà¬¸": 3919,
      "à¬²à¬ķà¬¤": 3920,
      "Ġà¬¹à¬ĩà¬ļà¬ĩ": 3921,
      "ĠàŃŁà¬¶": 3922,
      "à¬³à¬Ł": 3923,
      "Ġà¬ħà¬®à¬²": 3924,
      "àŃ±àŃŁà¬¨": 3925,
      "à¬ĩà¬²à¬ĸ": 3926,
      "]âĢĻ,": 3927,
      "à¬Ĺà¬°à¬£": 3928,
      "ĠàŃ§àŃ¯àŃ¯àŃ§": 3929,
      "à¬ķà¬¨à¬ªà¬¤": 3930,
      "à¬Ĺà¬£à¬°": 3931,
      "Ġà¬Ĺà¬°à¬¦à¬ª": 3932,
      "ĠàªĹ": 3933,
      "Ġà¬§à¬¬à¬³": 3934,
      "Ġà¬ħà¬¨à¬¶à¬¨": 3935,
      "Ġà®¤à®®": 3936,
      "Ġà¬ıà¬¸à¬ĵà¬ª": 3937,
      "ĠàŃ§àŃ¯àŃ¯àŃª": 3938,
      "àŃŁà¬ľà¬£": 3939,
      "Ġà¤ª": 3940,
      "à¤µ": 3941,
      "à¬Łà¬°à¬«": 3942,
      "Ġà¬Ĩà¬²à¬¬à¬®": 3943,
      "Ġà¬ħà¬ł": 3944,
      "Ġà¬¦à¬¶à¬ªà¬²": 3945,
      "Ġà¬ħà¬¨à¬Ĺ": 3946,
      "Ġà¬Ĩà¬ĩà¬ķ": 3947,
      "Ġà¬¬à¬Łà¬²à¬°": 3948,
      "à¬°à¬¨à¬Ĺà¬°": 3949,
      "Ġà¬ĸà¬¬à¬°à¬¦": 3950,
      "à¬ĵà¬ıà¬¸": 3951,
      "]('": 3952,
      "à¬¦à¬°à¬¤": 3953,
      "Ġà¬ļà¬®à¬¡": 3954,
      "à¬®à¬ªà¬¨": 3955,
      "àŃģà¬ģ,": 3956,
      "à¬Ńà¬§": 3957,
      "à¬²à¬ªà¬°": 3958,
      "à¬ļà¬°à¬°": 3959,
      "Ġ2013": 3960,
      "à¬īà¬³à¬°": 3961,
      "Ġà¬¤à¬³à¬®": 3962,
      "à¬¦à¬³à¬°": 3963,
      "Ġà¬Ĩà¬łà¬®à¬²": 3964,
      "à¬§à¬°à¬Ļ": 3965,
      "ĠàŃ§àŃªàŃŃ": 3966,
      "à¬¼àŃĩà¥¤": 3967,
      "ĠàŃ§àŃ§àŃ¬": 3968,
      "Ġà¬ĩàŃŁà¬°": 3969,
      "ĠàŃ©àŃ¦àŃ¦àŃ¦": 3970,
      "à¬°à¬ĸà¬ª": 3971,
      "Ġà¬ļà¬·à¬®": 3972,
      "79": 3973,
      "à¬Ĺà¬Ń": 3974,
      "Ġà¬¦à¬³à¬Ĺà¬¤": 3975,
      "Ġà¬°à¬ľà¬¤": 3976,
      "à¬®à¬¥": 3977,
      "à¤£": 3978,
      "Ġà¬®à¬ĩà¬³": 3979,
      "àŃĩàŃ¤": 3980,
      "ĠàŃ§àŃ¯àŃ¯àŃ©": 3981,
      "à¬Ĺà¬Ľ": 3982,
      "à¬ĺà¬¬à¬°": 3983,
      "à¬Ĩà¬°à¬ķ": 3984,
      "Ġà¬«à¬¡": 3985,
      "à¬łà¬®": 3986,
      "à¬¤à¬®à¬ª": 3987,
      "Ġà¬¹à¬£": 3988,
      "Ġà¬ıà¬®à¬ıà¬¸à¬ª": 3989,
      "àŃŁà¬¶à¬¸": 3990,
      "à¬¬à¬¸à¬ķ": 3991,
      "ĠàŃ§àŃ¬àŃª": 3992,
      "à¬ıà¬¨à¬ı": 3993,
      "Ġà¬ľà¬Ĺà¬¤à¬ª": 3994,
      "à¬ĩà¬Łà¬°à¬°": 3995,
      "àŃŁà¬¡": 3996,
      "àŃģà¬ģà¥¤": 3997,
      "ĠàŃ§àŃ©àŃ¨": 3998,
      "âĢĶâĢĶ": 3999,
      "à¬ķà¬Ń": 4000,
      "à¬¹à¬°à¬Ļ": 4001,
      "Ġà¬īà¬§": 4002,
      "Ġà¬Ĺà¬¤à¬®": 4003,
      "à¬¤à¬ļà¬°": 4004,
      "75": 4005,
      "Ġà¬ĺà¬ŀ": 4006,
      "Ġà¬ķà¬ªà¬°": 4007,
      "Ġ70": 4008,
      "ĠàŃ§àŃªàŃ«": 4009,
      "Ġà¬¶à¬Ł": 4010,
      "à¬Ĩà¬°à¬¬": 4011,
      "ĠàŃ§àŃ©àŃª": 4012,
      "à¬¬à¬¸à¬¨": 4013,
      "Ġ36": 4014,
      "à¬ıà¬¸à¬¬": 4015,
      "ĠàŃ§àŃ¯àŃ¦": 4016,
      "ĠĠĠĠĠĠ": 4017,
      "Ġà¬Ĩà¬Łà¬²": 4018,
      "àŃĢ):": 4019,
      "Ġà¬ľà¬¨à¬®": 4020,
      "à¬ĩà¬ķà¬²": 4021,
      "Ġà¬ħà¬ľà¬Ĺà¬°": 4022,
      "à¬ĩà¬²à¬Łà¬Ļ": 4023,
      "à¬ıà¬¸à¬¨à¬°": 4024,
      "à¬·à¬ªà¬¤": 4025,
      "à¬ªà¬ķà¬°": 4026,
      "à¬īà¬¥à¬°": 4027,
      "Ġà¬ħà¬ĺ": 4028,
      "à¬°à¬¨à¬ķ": 4029,
      "à¬«à¬³à¬¨": 4030,
      "à¬°à¬¹à¬®": 4031,
      "Ġà¬īà¬¦àŃŁà¬Ĺ": 4032,
      "à¬¨à¬Ńà¬£": 4033,
      "à¬®à¬ĺà¬Ł": 4034,
      "à¬Ŀà¬¡": 4035,
      "à¬·à¬¥à¬°": 4036,
      "à¬¤à¬²à¬°": 4037,
      "à¬ļàŃŁà¬ªà¬¤": 4038,
      "Ġà¬Ĩà¬łà¬Ł": 4039,
      "ĠàŃ§àŃ«àŃ«": 4040,
      "à¬ļà¬Ĺ": 4041,
      "--------------------------------": 4042,
      "Ġà¬¹à¬°à¬ķ": 4043,
      "à¬ħà¬°à¬°": 4044,
      "80": 4045,
      "à¬¥à¬¹": 4046,
      "à¬ľà¬ªà¬ķ": 4047,
      "à¬µàŃŁ": 4048,
      "à¬ªà¬ł": 4049,
      "à¬Ĺà¬ľà¬¨à¬ķ": 4050,
      "ĠàŃ§àŃŃàŃ«": 4051,
      "ĠàŃį": 4052,
      "Ðº": 4053,
      "à¬Ĩà¬ĩà¬Ń": 4054,
      "à¬¹à¬¯": 4055,
      "Ġà¬ļà¬¡": 4056,
      "à¬ªà¬³": 4057,
      "à¬Ńà¬°à¬°": 4058,
      "Ġà¬¹à¬°à¬Ńà¬ľà¬¨": 4059,
      "Ġà¬ħà¬®à¬°à¬¨": 4060,
      "Ġà¬ħà¬²à¬Ł": 4061,
      "Ġà¬ľàŃŁà¬¸": 4062,
      "Ġà¬ļà¬³à¬ª": 4063,
      "Ġà¬ĸà¬¨": 4064,
      "à¥Ī": 4065,
      "à¬ħà¬Ĺ": 4066,
      "à¬¦à¬Ł": 4067,
      "à¬°à¬«à¬³": 4068,
      "Ġà¬īà¬Ľ": 4069,
      "à¬®à¬¯": 4070,
      "à¬Ĺà¬¨à¬Ĺà¬°": 4071,
      "à¬³à¬ªà¬¥à¬°": 4072,
      "Ġà¬ħà¬£à¬¸à¬°": 4073,
      "à¬§à¬¨à¬ķ": 4074,
      "à¬¿à¬Ĥà¥¤": 4075,
      "àŃĢ.": 4076,
      "Ġà¬ĺà¬°à¬Ł": 4077,
      "à¬Ĩà¬ªà¬£à¬®": 4078,
      "à¬ľà¬°à¬°": 4079,
      "Ġà¬īà¬ªà¬¶à¬®": 4080,
      "à¬²à¬¤à¬Ļ": 4081,
      "à¬łà¬Ļ": 4082,
      "à¬°à¬ķà¬Ļ": 4083,
      "à¬¤à¬¬à¬¹": 4084,
      "Ġà¬ķà¬°à¬ľ": 4085,
      "à¬¤à¬¨à¬Ł": 4086,
      "âķĲâķĲ": 4087,
      "bi": 4088,
      "à¬·à¬Ł": 4089,
      "Ġà¬¶à¬¬à¬¦": 4090,
      "à¬īà¬ľà¬°": 4091,
      "ĠàŃ§àŃ©àŃ§": 4092,
      "Ġà¬ªà¬Łà¬¨": 4093,
      "Ġà¬¢à¬³": 4094,
      "à¬¨àŃŁà¬¨à¬®": 4095,
      "Ġà¬ªà¬Ľà¬ĺ": 4096,
      "à¬ĩà¬ķà¬°à¬£": 4097,
      "ĠàŃªàŃ«àŃ¦": 4098,
      "Ġà¬ĺà¬¸": 4099,
      "Ġà¬ıà¬²à¬¨": 4100,
      "Ġ*:": 4101,
      "dia": 4102,
      "Ġ45": 4103,
      "Ġ()": 4104,
      "ĠàŃ§àŃ¬àŃ«": 4105,
      "à¬ĩà¬Ńà¬°à¬ķ": 4106,
      "à¬ĸà¬°à¬°": 4107,
      "Ġà¬ĵà¬³": 4108,
      "à¬°à¬¬à¬£à¬¤": 4109,
      "àŃĩàŃĢ": 4110,
      "Ġà¬ĩà¬¨à¬ķ": 4111,
      "Ñģ": 4112,
      "à¬ĩà¬ĵà¬Ļ": 4113,
      "àŃŁà¬ľà¬¨à¬Ļ": 4114,
      "à¬¾àŃ¤": 4115,
      "à¬Ĺà¬³à¬Ļ": 4116,
      "Ġà¬¸à¬¹à¬ª": 4117,
      "à¬°à¬ĺà¬Ł": 4118,
      "Ġà¬¬à¬°à¬ķ": 4119,
      "à¬²à¬Łà¬°": 4120,
      "à¬Ľà¬³": 4121,
      "à¬¬à¬£à¬°": 4122,
      "à¬ĸà¬ł": 4123,
      "ĠàŃ§àŃ«àŃ©": 4124,
      "Ġà¬¹à¬¡à¬ª": 4125,
      "Ġ2023": 4126,
      "à¦°": 4127,
      "ĠB": 4128,
      "à¬ľà¬ķà¬®": 4129,
      "à¬²à¬Ńà¬°": 4130,
      "à¬ľà¬®à¬¹à¬²": 4131,
      "Ġà¬ħà¬¤à¬¨": 4132,
      "à¬ħà¬Ľà¬¨": 4133,
      "Ġ(_": 4134,
      "à¬¤à¬°à¬«": 4135,
      "Ġà¬ķà¬°à¬¤": 4136,
      "àŃŁà¬®à¬Ĺ": 4137,
      "ĠàŃ§àŃ¯àŃ®àŃ«": 4138,
      "à´Ĥ": 4139,
      "ĠàŃ§àŃ¯àŃ®àŃ¯": 4140,
      "àŃŁà¬ķà¬ķ": 4141,
      "Ġà¬¸à¬¸à¬ª": 4142,
      "89": 4143,
      "à¬¸à¬°à¬¤": 4144,
      "à¬ħà¬³": 4145,
      "Ġà¬ľà¬³à¬¨": 4146,
      "Ġ2012": 4147,
      "Ġà¬¬à¬³à¬Ļ": 4148,
      "ĠàŃ§àŃ®àŃ«": 4149,
      "Ġà¬¸à¬®à¬ķà¬ķ": 4150,
      "à¬Ĺà¬«": 4151,
      "à¥ĥ": 4152,
      "ĠÂ»": 4153,
      "69": 4154,
      "à¬¬à¬¨à¬§": 4155,
      "Ġà¬ľà¬¨à¬ķà¬²": 4156,
      "Ġà¬¸à¬³à¬ĸ": 4157,
      "Ġà¬ķà¬¸à¬°à¬¤": 4158,
      "Ġà¬¿": 4159,
      "Ġà¬¨à¬¬à¬ķà¬³": 4160,
      "àŃ¨àŃ¦àŃ§àŃ®": 4161,
      "Ġà¬ķà¬ħ": 4162,
      "à¬Ķ": 4163,
      "Ġà¬īà¬¹": 4164,
      "ĠàŃ§àŃ©àŃŃ": 4165,
      "ur": 4166,
      "ĠàŃ§àŃ¯àŃ§": 4167,
      "Ġà¬ıà¬ķà¬¤à¬°à¬«": 4168,
      "à¬ľà¬°à¬²": 4169,
      "à¬¥à¬ªà¬°": 4170,
      "Ġà¬ıà¬¨à¬ıà¬ļ": 4171,
      "ĠàŃ§àŃ¯àŃ®àŃª": 4172,
      "à¬Ľà¬§à¬°": 4173,
      "à¬ĸà¬ķà¬Ļ": 4174,
      "Âģ": 4175,
      "à¬ķà¬°à¬¨": 4176,
      "à¬¼à¬¾-": 4177,
      "atest": 4178,
      "Latest": 4179,
      "à¬Ĺà¬łà¬¨à¬Ĺ": 4180,
      "à¬ħà¬¶": 4181,
      "ĠàŃ§àŃ©àŃ¯": 4182,
      "</": 4183,
      "Ġà¬¶à¬Ĺà¬¡": 4184,
      "2020": 4185,
      "à¬°à¬¹à¬Ļ": 4186,
      "Ġà¬ĵà¬ıà¬ıà¬¸": 4187,
      "à¬®à¬ĸ": 4188,
      "Ġà¬Ľà¬ħà¬Ł": 4189,
      "Â°": 4190,
      "àŃ±à¬Ļ": 4191,
      "àŃŁà¬¬à¬¨": 4192,
      "à¬²à¬ªà¬¡": 4193,
      "Ġà¬²à¬ĸà¬¨": 4194,
      "à¬¿):": 4195,
      "à¬ıà¬¤à¬¨": 4196,
      "Ġà¬¸à¬¦à¬Ĺà¬¤": 4197,
      "Ġà¬¸àŃŁà¬¦": 4198,
      "à¬®à¬ķà¬¤": 4199,
      "Ġà¬ıà¬®à¬ª": 4200,
      "??": 4201,
      "Ġà¬°à¬«": 4202,
      "Ġà¬¬à¬¡à¬¦": 4203,
      "Ġà¬Ĩà¬ĩà¬ıà¬®à¬¡": 4204,
      "à¬Ĩà¬°à¬Ł": 4205,
      "Ġà¬ıà¬²à¬ĩà¬¡": 4206,
      "Ġâ": 4207,
      "à¬§à¬ľ": 4208,
      "ĠàŃ§àŃ¯àŃ®àŃ®": 4209,
      "am": 4210,
      "Ġà¬²à¬¬à¬£": 4211,
      "à¬ľàŃŁà¬ª": 4212,
      "à¬ķà¬§": 4213,
      "à¬ªà¬¦à¬¬": 4214,
      "Ġ2010": 4215,
      "à¬¾',": 4216,
      "à¬¸à¬®àŃŁà¬°": 4217,
      "Ġà¬ıà¬®à¬¡": 4218,
      "Âı": 4219,
      "à¬°à¬ķà¬°à¬£": 4220,
      "à¬¾:-": 4221,
      "à¬Ĩà¬²à¬°": 4222,
      "à¬³àŃŁà¬ł": 4223,
      "Ġà¬¨à¬°àŃ±": 4224,
      "à¬Ĺà¬³à¬ª": 4225,
      "àŃĩâĢĭâĢĮ": 4226,
      "à¬ĺà¬¬à¬¦": 4227,
      "Ġà¬ļàŃŁà¬¨à¬ķà¬°": 4228,
      "à¬Ľà¬£": 4229,
      "Ġà¬¶à¬¤à¬ª": 4230,
      "Ġà¬¸à¬ªà¬¨": 4231,
      "à¬ĩà¬ıà¬¨": 4232,
      "à¬Łà¬«à¬£": 4233,
      "ĠàŃ§àŃªàŃ¯": 4234,
      "Ġ$(": 4235,
      "ĠÙ": 4236,
      "à¬ľà¬¡": 4237,
      "à¬°à¬Ńà¬Ļ": 4238,
      "Ġà¬ķà¬°à¬Ļ": 4239,
      "Ġà¬Īà¬°": 4240,
      ")/": 4241,
      "Ġà¬ħà¬ªà¬¹à¬ŀ": 4242,
      "ĠàŃ§àŃ©àŃ¬": 4243,
      "Ġà¬ıà¬®à¬ķ": 4244,
      "Ġ75": 4245,
      "Ġà¬Ĩà¬īà¬Łà¬ª": 4246,
      "ĠàŃ§àŃªàŃ®": 4247,
      "àŃ±à¬¹": 4248,
      "Ġà¬Ĩà¬³à¬¸": 4249,
      "à¬Ĺà¬łà¬ķ": 4250,
      "à¬ıà¬ı": 4251,
      "Ġà¬ĸà¬³à¬¨": 4252,
      "Ġà¬¬à¬¸à¬Ł": 4253,
      "%)": 4254,
      "à¬¸à¬°à¬¸": 4255,
      "à¬ĭà¬·": 4256,
      "Ġ09": 4257,
      "64": 4258,
      "Ġà¬ĭà¬£à¬°": 4259,
      "àŃŁà¬¨à¬¶": 4260,
      "à¬Ĩà¬°à¬®": 4261,
      "à¬ĸà¬²à¬°": 4262,
      "Ġà¬ħà¬³à¬ķ": 4263,
      "à¬Ńà¬°à¬®": 4264,
      "à¬·à¬§à¬°": 4265,
      "à¬Ĺà¬ªà¬¤": 4266,
      "Ġà¬ħà¬£à¬¨": 4267,
      "ĠàŃ§àŃ©àŃ®": 4268,
      "Ġà¬¡à¬¨": 4269,
      "er": 4270,
      "à¬Ĩà¬ªà¬¦": 4271,
      "Ġà¬ļà¬ķà¬Ł": 4272,
      "à§ģ": 4273,
      "à¬¨à¬®à¬£": 4274,
      "à¬ļà¬ķà¬¤": 4275,
      "à¬¹à¬°à¬²": 4276,
      "Ġà¬¸à¬ķà¬³": 4277,
      "à¬¬à¬¨à¬¬": 4278,
      "Ġà¬Ĩà¬ĸà¬¡": 4279,
      "à¬®à¬¸à¬Ļ": 4280,
      "à¦¨": 4281,
      "à¬«à¬¤": 4282,
      "à¬¬à¬·": 4283,
      "Ġà¬ķà¬¨à¬«": 4284,
      "àŃŁà¬¯à¬¨": 4285,
      "à¬Īà¬Ļ": 4286,
      "à¬ľà¬¨à¬¸": 4287,
      "à¬Ńà¬īà¬£": 4288,
      "Ġà¬¬à¬¡à¬®": 4289,
      "à¬Ŀà¬¨": 4290,
      "Ġà¬¬à¬Łà¬¨": 4291,
      "Ġà¬ĺà¬¨à¬¶": 4292,
      "à¬¸à¬¹à¬°": 4293,
      "à¬ħà¬¦": 4294,
      "à¬®à¬°à¬ķ": 4295,
      "Ġ90": 4296,
      "Ġà¬¸à¬ĸ": 4297,
      "Ġà¬®à¬¨à¬ĩà¬ļ": 4298,
      "ĠàŃŃàŃ«àŃ¦": 4299,
      "ĠàŃ§àŃ¨àŃ¦àŃ¦": 4300,
      "90": 4301,
      "à¬¬à¬Ľ": 4302,
      "àŃªàŃ¦àŃ¦": 4303,
      "à¬Łà¬³": 4304,
      "à¬®à¬£à¬Ļ": 4305,
      "Ġà¬Ľà¬ªà¬°": 4306,
      "à¬Łà¬¹": 4307,
      "Ġà¬¨àŃŁà¬¨": 4308,
      "àŃŁà¬¤à¬¬": 4309,
      "à¬¤à¬¸à¬°": 4310,
      "Ġ500": 4311,
      "à¬¸à¬Ńà¬¬à¬¨à¬ķ": 4312,
      "ĠO": 4313,
      "Ġà¬Ĩà¬ĩà¬¬": 4314,
      "Ġà¬¬à¬¶à¬¤": 4315,
      "!!": 4316,
      "àŃį...": 4317,
      "Ġà¬¨à¬Ĺà¬°à¬ª": 4318,
      "Ġà¬ªà¬°à¬®à¬¬": 4319,
      "Ġ32": 4320,
      "à¬¦à¬«": 4321,
      "Ġà¬Ĩà¬ĩà¬ĵà¬¸": 4322,
      "à¬ıà¬®à¬ĩ": 4323,
      "ĥĺ": 4324,
      "Ġà¤¡": 4325,
      "à¬¸à¬¨à¬°à¬Ļ": 4326,
      "à¬īà¬ŃàŃŁ": 4327,
      "à¬ĵà¬¡à¬¬": 4328,
      "Ġ2011": 4329,
      "Ġà¬Ĩà¬ľà¬ķ": 4330,
      "ĠàŃ§àŃ©àŃ©": 4331,
      "à¬Ńà¬¬à¬¨": 4332,
      "Ġà¬¦à¬¶à¬Ł": 4333,
      "à¬£à¬§": 4334,
      "à¬Ńà¬Ł": 4335,
      "Ġà¬ıà¬®à¬Ń": 4336,
      "65": 4337,
      "àŃŁà¬Łà¬¨à¬°": 4338,
      "à¬¶à¬Ĺà¬¤": 4339,
      "à¬§à¬¦": 4340,
      "Ġà¬ħà¬¸à¬¹à¬¯": 4341,
      "ĠàŃ§àŃ¬àŃ®": 4342,
      "Ġà¬¦à¬Ĺ": 4343,
      "à¬¿à¥¤âĢĿ": 4344,
      "à¦ª": 4345,
      "à¬ĩà¬Łà¬¨": 4346,
      "à¬ªà¬ĺà¬°": 4347,
      "à¬Łà¬°à¬Ĺ": 4348,
      "àŃ±à¬®": 4349,
      "ĠàŃ§àŃ¯àŃ®àŃ©": 4350,
      "ĠàŃ§àŃ¯àŃªàŃŃ": 4351,
      "Ġà¬®à¬¹à¬°": 4352,
      "à¬ĺà¬¨à¬ķ": 4353,
      "à¬ĵà¬«": 4354,
      "ĠàŃ§àŃ«àŃ®": 4355,
      "Ġà¬Ĩà¬īà¬¥à¬°": 4356,
      "Ġà¬ħà¬ĩ": 4357,
      "Ġà¬ªà¬°à¬¬": 4358,
      "à¬¹à¬³à¬¦": 4359,
      "à¤Ĺà¤°": 4360,
      "à¬³à¬¶": 4361,
      "à¬²à¬ķà¬°à¬Ļ": 4362,
      "ĠĠĠĠĠĠĠĠ": 4363,
      "à¬¨à¬·": 4364,
      "Ġà¬²à¬¹à¬°à¬ķ": 4365,
      "à¬¨à¬¬à¬¤": 4366,
      "à¬ĸà¬¸": 4367,
      "Ġà¬ľà¬¨à¬®à¬¤": 4368,
      "à¬¿à¬¿à¥¤": 4369,
      "à¬°à¬¹à¬£à¬°": 4370,
      "Ġà¦®": 4371,
      "Ġà¬ıà¬·": 4372,
      "ter": 4373,
      "à¬Ĩà¬¨à¬Ļ": 4374,
      "Ġà¬ĺà¬¡à¬ĺà¬¡": 4375,
      "Ġà¬¶à¬²": 4376,
      "Ġà¬§àŃ±à¬¨": 4377,
      "à¬ĩà¬¸à¬°": 4378,
      "àµģ": 4379,
      "ĠàŃ§àŃ«àŃ¬": 4380,
      "Ġà¬«à¬¸à¬«": 4381,
      "à¬Łà¬ł": 4382,
      "ĠàŃ§àŃªàŃ¬": 4383,
      "Ø´": 4384,
      "yes": 4385,
      "Ġin": 4386,
      "à¬¦à¬ķà¬Ļ": 4387,
      "ĠàŃ§àŃ«àŃª": 4388,
      "à¬ķà¬Łà¬²": 4389,
      "à¬¬à¬¶à¬ķ": 4390,
      "Ġà¬ĸà¬¬à¬°à¬Ł": 4391,
      "à¬Łà¬Ľ": 4392,
      "ÙĶ": 4393,
      "à¬¡à¬°à¬ķ": 4394,
      "à¬¶à¬ļ": 4395,
      "91": 4396,
      "à¬łà¬ķà¬®": 4397,
      "à¬°à¬¬à¬¦": 4398,
      "Ġà¬Ĩà¬¸à¬°": 4399,
      "ĠàŃ§àŃ«àŃ¨": 4400,
      "à¬¼.": 4401,
      "à¬īà¬ĩà¬ķ": 4402,
      "ĠàŃ©àŃ¦àŃ¨": 4403,
      "Ġà¬¨à¬¬à¬¦": 4404,
      "ĠàŃ¨àŃ«àŃ¦àŃ¦": 4405,
      "à¬°à¬Łà¬°": 4406,
      "ĠàŃ§àŃ¯àŃŃàŃŃ": 4407,
      "à¬¹à¬ļà¬¹à¬ļà¬¹à¬ļà¬¹à¬ļ": 4408,
      "77": 4409,
      "àŃŁà¬ªà¬¨": 4410,
      "Ġà¬«à¬¡à¬¨": 4411,
      "ĠàŃ§àŃªàŃ©": 4412,
      "Ġà¬ĸà¬°à¬¸": 4413,
      "à¬¨à¬®à¬¸": 4414,
      "à¬Ľà¬ª": 4415,
      "ĠàŃªàŃ¨àŃ¦": 4416,
      "Ġà¬ªà¬§": 4417,
      "Ġà¬ªà¬°à¬°": 4418,
      "Ġà¬¬àŃŁà¬«": 4419,
      "Ġà¬¶à¬¦": 4420,
      "Ġà¬¬à¬°à¬ĸ": 4421,
      "à¬ĩà¬ķà¬ķ": 4422,
      "Ġà¬ħà¬ĸà¬¤à¬°": 4423,
      "ĠàŃ§àŃ«àŃŃ": 4424,
      "Ġà¬ıà¬¨à¬Ĩà¬ĩà¬ı": 4425,
      "ĠàŃ§àŃ¯àŃ®àŃ¬": 4426,
      "Ùı": 4427,
      "à¬Ńà¬¶": 4428,
      "à¤ķà¤£": 4429,
      "Ġà¬ļà¬°à¬£à¬ľ": 4430,
      "à¬Īà¬ķ": 4431,
      "à¬¨àŃ±": 4432,
      "ĠàŃ§àŃŃàŃ®": 4433,
      "ĠàŃ¨àŃ§àŃ¦": 4434,
      "à¬Ĺà¬¨à¬°": 4435,
      "Ġà¬Ĩà¬ļà¬°à¬£à¬ķ": 4436,
      "ĠÙĥ": 4437,
      "à¬ªà¬ķà¬®": 4438,
      "Ġà¬īà¬®à¬°": 4439,
      "Ġà¬Ĩà¬ĩà¬ıà¬«": 4440,
      "Ġà¬°à¬¥à¬ĸà¬³": 4441,
      "à¬²à¬°à¬°": 4442,
      "ĠĠĊ": 4443,
      "Ġà¬ķà¬³à¬ķ": 4444,
      "à¬²à¬¹à¬¡": 4445,
      "à¤¼à¥ĭ": 4446,
      "à¬·àŃŁà¬Ļ": 4447,
      "à¬¿à¬Ĥ:": 4448,
      "ĠÙĥØ§": 4449,
      "à¬łà¬¦": 4450,
      "Ġ&&": 4451,
      "à¬·à¬²": 4452,
      "Ġà¦®à¦¨": 4453,
      "à¬Ńà¬°à¬¯": 4454,
      "àŃŁà¬ĸà¬£": 4455,
      "Ġà¬¦à¬¶à¬ķ": 4456,
      "Ġà¬Ĩà¬°à¬Ĩà¬ĩ": 4457,
      "Ġà¬ıà¬°à¬¸à¬®": 4458,
      "Ġà¬¨à¬Łà¬°": 4459,
      "à¬°à¬®à¬¹": 4460,
      "ĠØ±Ø¯ÙĪ": 4461,
      "Ġà¬ħà¬«à¬°à¬¡": 4462,
      "à¬Łà¬¸à¬°": 4463,
      "à¬ªà¬¸à¬¨à¬°": 4464,
      "à¬°à¬¶à¬ķ": 4465,
      "Ġà¬ľàŃŁà¬ķ": 4466,
      "Ġà¬ªà¬¦à¬¸": 4467,
      "Ġà¦ħà¦¸à¦®": 4468,
      "Ġà¬¹à¬°à¬ķà¬¤": 4469,
      "ĠàŃ¨àŃªàŃ¦": 4470,
      "Ġà¬®à¬īà¬ľ": 4471,
      "Ġà¬ªà¬°à¬«": 4472,
      "nc": 4473,
      "Ġà¬«à¬Ĺ": 4474,
      "à¬Łà¬²à¬°": 4475,
      "Ġà¬Ĩà¬ªà¬ķ": 4476,
      "à¬ĩà¬ªà¬²": 4477,
      "Ġà¬§à¬¨à¬ľ": 4478,
      "Ġà¬ħà¬¬à¬¨à¬¤": 4479,
      "à¬®à¬¨à¬Ļ": 4480,
      "Ġà¬ľà¬²à¬¦": 4481,
      "à¬ıà¬Ĺ": 4482,
      "Ġà¬¸à¬¶": 4483,
      "ĠàŃŁà¬Ļ": 4484,
      "da": 4485,
      "ĠàŃ§àŃ¯àŃ®àŃŃ": 4486,
      "Ġà¬ħà¬¬à¬¬": 4487,
      "Ġà¬ľà¬Ĺà¬¤à¬ķ": 4488,
      "à¬Ĺà¬³à¬°": 4489,
      "Ġà¬ĵà¬Ĺ": 4490,
      "Ġà¬Ĺà¬¡à¬ķà¬°": 4491,
      "ka": 4492,
      "Ġà¬¬à¬¸à¬¤": 4493,
      "à¬§à¬³": 4494,
      "Ġà¬¬à¬Łà¬°": 4495,
      "ĠàŃ§àŃ«àŃ¯": 4496,
      "Ð¸": 4497,
      "à¬ĸà¬¬": 4498,
      "ĠàŃ§àŃŃàŃŃ": 4499,
      "]\\": 4500,
      "Ġà¬ħà¬¸à¬«à¬³": 4501,
      "à¬ľà¬Ł": 4502,
      "Ġà¬¦à¬ª": 4503,
      "à¬Ĺà¬Ĺà¬¤": 4504,
      "Ġà¬¹à¬Łà¬¹à¬Ł": 4505,
      "à¬ıà¬ķà¬°": 4506,
      "ĠàŃ¨àŃŃàŃ¦": 4507,
      "à¬¤à¬¥à¬°": 4508,
      "à¬¹à¬°à¬ķ": 4509,
      "à¬ĩà¬°à¬ıà¬¡": 4510,
      "Ġà¬¥à¬°à¬°": 4511,
      "àŃŁà¬®à¬¸à¬¨": 4512,
      "Ġà¬Ĩà¬ļà¬°à¬£à¬°": 4513,
      "à¬¬à¬Ĺà¬¨": 4514,
      "à¬¬à¬¨à¬Ļ": 4515,
      "Ġà¬¸à¬¢": 4516,
      "à¬Ĺà¬°à¬ª": 4517,
      "à¬ľà¬¨à¬Ĺà¬°à¬°": 4518,
      "à¬ľàŃŁà¬²à¬ķ": 4519,
      "sha": 4520,
      "à¬¬à¬¨à¬ľ": 4521,
      "news": 4522,
      "à¬£à¬ļ": 4523,
      "à¬°à¬®à¬£à¬Ļ": 4524,
      "98": 4525,
      "à¬Ľà¬¦": 4526,
      "ĠàŃ§àŃ¯àŃ«àŃ¦": 4527,
      "Ġà¥¤...": 4528,
      "Ġà¬¡à¬·": 4529,
      "ĠàŃ§àŃ¬àŃ§": 4530,
      "Ġà¬¸à¬®à¬¤à¬³": 4531,
      "Ġà¬ľà¬£à¬ķà¬°": 4532,
      "Ġà¬¬à¬³à¬¬à¬¨": 4533,
      "Ġà¬«à¬¶": 4534,
      "ĠàŃ§àŃªàŃ¨": 4535,
      "à¬ıà¬¨à¬ıà¬²": 4536,
      "à¬ªà¬Ĺà¬¡": 4537,
      "à¬«à¬¨": 4538,
      "à¬ħà¬¨à¬°": 4539,
      "à¬°à¬ľà¬Ļ": 4540,
      "Ġà¬ĸà¬¸à¬¡": 4541,
      "àŃĢ\"": 4542,
      "ĠàŃ§àŃ®àŃ¬": 4543,
      "Ġà¬ľàŃŁà¬¶": 4544,
      "à¬¦à¬ķà¬°à¬Ļ": 4545,
      "à¬Ńà¬Ĺà¬¬": 4546,
      "à¬¼àŃįâĢĮ": 4547,
      "à¬¬à¬¤à¬®": 4548,
      "\\'": 4549,
      "Ġà¬§à¬¨à¬ķ": 4550,
      "à¬¡à¬§": 4551,
      "à¬¹à¬¸à¬°": 4552,
      "Ġà¬ķà¬³à¬¹à¬°": 4553,
      "Ġà¬°à¬®à¬¨": 4554,
      "Ġà¬¤à¬²à¬¬": 4555,
      "à¬«à¬ķ": 4556,
      "à¬ķà¬ĺà¬°": 4557,
      "Ġà¬ıà¬ķà¬¦à¬®": 4558,
      "à¬®à¬¹à¬°": 4559,
      "Ġà¬¸à¬ªà¬°": 4560,
      "Ġà¬¨à¬¤": 4561,
      "Ġà¬¸à¬®à¬ķ": 4562,
      "Ġà¬²à¬¹à¬¡": 4563,
      "ÌĪ": 4564,
      "à¬¸o": 4565,
      "à¬·à¬£à¬Ļ": 4566,
      "Ġà¬®à¬ľà¬¦": 4567,
      "à¬¶à¬Ľ": 4568,
      "Ġà¬ĩà¬ıà¬¸": 4569,
      "Ġà¬Ĺà¬§": 4570,
      "à¬Ĩà¬ĩà¬ıà¬²": 4571,
      "ĠàŃ±à¬°": 4572,
      "à¬¨à¬¬à¬ľ": 4573,
      "Ġà¬ľà¬¨à¬¸à¬ļ": 4574,
      "à¬¹à¬Ń": 4575,
      "ĠàŃ§àŃªàŃ§": 4576,
      "Ġ\"\"\"": 4577,
      "]#": 4578,
      "Ġà¬ıà¬ĩà¬Ł": 4579,
      "Ġà¬ıà¬¨à¬«": 4580,
      "àŃĩà¬ĥ": 4581,
      "Ġà¬ľà¬¸": 4582,
      "ĠP": 4583,
      "Ġà¬ªà¬Łà¬ķ": 4584,
      "àŃĤ,": 4585,
      "ĠàŃ§àŃ¬àŃ¬": 4586,
      "à¬¶à¬¥": 4587,
      "en": 4588,
      "à¬ªà¬¦à¬¸": 4589,
      "Ġà¬ªà¬ĩ": 4590,
      "à¬§à¬Ĺ": 4591,
      "à¬²à¬ķà¬ķ": 4592,
      "Ġà¬ħà¬³à¬¸": 4593,
      "......": 4594,
      "ĠàŃ§àŃ¯àŃŃàŃ¦": 4595,
      "à¬ķà¬³à¬®à¬£": 4596,
      "Â»": 4597,
      "Ġà¬¬à¬¡à¬¬": 4598,
      "à¬²àŃŁ": 4599,
      "à¬°à¬£àŃŁ": 4600,
      "ĉĠ": 4601,
      "à¬¿à¥¤...": 4602,
      "Ġà¬ķà¬ĸ": 4603,
      "Ġà¬ıà¬®à¬°": 4604,
      "à¬ĸà¬°à¬Ļ": 4605,
      "Ġ08": 4606,
      "Ġà¬Ńà¬£à¬ľ": 4607,
      "Ġïĥĺ": 4608,
      "à¬²à¬ł": 4609,
      "à¬ıàŃŁ": 4610,
      "72": 4611,
      "à¬³à¬ł": 4612,
      "Ġà¬Ĩà¬®à¬®": 4613,
      "Ġ48": 4614,
      "95": 4615,
      "ĠD": 4616,
      "Ġà¬īà¬¤à¬°à¬ª": 4617,
      "Ġà¬ªà¬łà¬¨": 4618,
      "100": 4619,
      "Ġà¬īà¬Ļ": 4620,
      "Ġà¬ļà¬¹à¬³": 4621,
      "Ġà¬¨à¬°à¬ĸ": 4622,
      "à¬ıà¬ļà¬¡": 4623,
      "Ġà¬ıà¬ļà¬¡": 4624,
      "à¬ģ...": 4625,
      "à¬ķàŃŁ": 4626,
      "à¬®à¬¸à¬Ń": 4627,
      "à¬¥à¬°à¬ķ": 4628,
      "Ġà´": 4629,
      "à¬ĸà¬®": 4630,
      "à¬Ĺà¬¤à¬¯": 4631,
      "à¬µà¬ļ": 4632,
      "media": 4633,
      "Ġà¬«à¬¸à¬²à¬ķ": 4634,
      "Ġà¬ķà¬°à¬¬": 4635,
      "à¬¬à¬ķà¬¯": 4636,
      "Ġà¬¸à¬¨à¬¸": 4637,
      "Ġà¬¸à¬ľà¬¬": 4638,
      "Ġà¬§à¬¨à¬ª": 4639,
      "à¬Īà¬°": 4640,
      "à¬°à¬ĺ": 4641,
      "à¬³à¬¦à¬°": 4642,
      "Ġà¬§à¬¨à¬ŀ": 4643,
      "Ġà¬¦à¬¬à¬Ļ": 4644,
      "ĠàŃ§àŃŃàŃª": 4645,
      "Ġà¬Łà¬ıà¬²": 4646,
      "Ġp": 4647,
      "Ġà¬¨à¬²": 4648,
      "Ġà¬Ĺà¬£à¬ªà¬¤": 4649,
      "Ġà¬ĩà¬ĵà¬¡à¬¬": 4650,
      "ĠàŃ§àŃ¯àŃ¬àŃ¨": 4651,
      "ĠàŃ¨àŃ¨àŃ«": 4652,
      "][\"": 4653,
      "86": 4654,
      "à¬ªà¬¬à¬¦": 4655,
      "à¬°à¬Ĺà¬£": 4656,
      "disha": 4657,
      "Ġà¬¦à¬¬à¬¦": 4658,
      "Ġà¬ļà¬ī": 4659,
      "à¬¬à¬°à¬¦à¬¸": 4660,
      "àŃ±à¬¡": 4661,
      "à¬³à¬ªà¬ķ": 4662,
      "Ġà¬ıà¬¸à¬ıà¬ļ": 4663,
      "Ġà¬ĩà¬¨à¬¡": 4664,
      "ĠàŃ¨àŃ¨àŃ®": 4665,
      "à¬¿..": 4666,
      "ĠàŃ¨àŃ¦àŃ©àŃ¦": 4667,
      "Ġà¬²à¬®à¬¤": 4668,
      "Ġà¬ľà¬¨à¬¹": 4669,
      "](/": 4670,
      "ĠL": 4671,
      "Ġà¬ĨàŃŁà¬ķ": 4672,
      "à¬°à¬§à¬¨": 4673,
      "à¬Łà¬¬à¬£": 4674,
      "àŃŁà¬²àŃŁà¬²": 4675,
      "à¬¨à¬Ĺà¬²": 4676,
      "à¬®à¬ļà¬³": 4677,
      "à¬¬à¬¢": 4678,
      "ĠàŃ§àŃ¯àŃª": 4679,
      "Ġà¬°à¬¥à¬Łà¬£": 4680,
      "al": 4681,
      "Ġà¬¬à¬¨à¬¸": 4682,
      "ĠE": 4683,
      "Ġà¬¥à¬Ł": 4684,
      "à¬¥à¬°à¬¸": 4685,
      "à¤Ł": 4686,
      "à¬°à¬®à¬Ļ": 4687,
      "àŃĩàŃĹ,": 4688,
      "à¬¨à¬Ĺà¬¦": 4689,
      "ĠàŃ§àŃ¬àŃ¨": 4690,
      "Ġà¬īà¬¬": 4691,
      "à¬ĩà¬¥à¬²": 4692,
      "Ġà¬Ĩà¬ĸà¬£": 4693,
      "à¬¹à¬Ĺ": 4694,
      "à¬£à¬¬à¬Ļ": 4695,
      "im": 4696,
      "à¬¸à¬ĺ": 4697,
      "Ġà¬ĵà¬Ĩà¬°": 4698,
      "Ġà¬Ĩà¬°à¬¬à¬°": 4699,
      "àŃĤ-": 4700,
      "àŃįâĢĿ": 4701,
      "àŃŁà¬°à¬ķ": 4702,
      "à¬Łà¬®à¬ķ": 4703,
      "à¬¡à¬°à¬¸à¬¨": 4704,
      "à¬¼à¬¿à¬¿": 4705,
      "à¸": 4706,
      "Ġà¬ªà¬¦à¬ªà¬¦à¬¬": 4707,
      "Ġà¬ĵàŃ±": 4708,
      "ĠàŃ§àŃ¯àŃ©": 4709,
      "à¬¶à¬Ł": 4710,
      "à¬£à¬ªà¬ķ": 4711,
      "à¬ľà¬Ńà¬¬à¬¨à¬°": 4712,
      "73": 4713,
      "àŃĩ..": 4714,
      "Ġà¬īà¬¤à¬®": 4715,
      "àŃŁà¬®à¬£": 4716,
      "à¬ħà¬¨à¬¨": 4717,
      "à´¿": 4718,
      "ĠàŃ§àŃ¯àŃŃàŃ«": 4719,
      "à¬µà¬ķ": 4720,
      "à¬²à¬¸à¬¨": 4721,
      "àŃĩà¬¾âĢĮ": 4722,
      "à¬ķà¬°à¬®": 4723,
      "à¬§à¬¶à¬ķ": 4724,
      "Ġà¬£à¬¸": 4725,
      "à¬ªà¬°à¬¬à¬°": 4726,
      "ĠàŃ§àŃŃàŃ§": 4727,
      "à¬¿|": 4728,
      "àŃĩ(": 4729,
      "àŃŁàŃŁà¬¬à¬¹": 4730,
      "à¬ĵà¬Ńà¬°": 4731,
      "à¬Ĺà¬¹à¬£": 4732,
      "àŃĸ": 4733,
      "àŃįâĢį.": 4734,
      "à¬Ĥ,": 4735,
      "Ġà¬¦à¬¬à¬¦à¬¬": 4736,
      "à¬¼à¬¾à¥¤": 4737,
      "the": 4738,
      "Ġà¥¤âĢĻ": 4739,
      "àŃ¨àŃ¦àŃ§àŃŃ": 4740,
      "ĠàŃ©àŃ¨àŃ¦": 4741,
      "à¬µà¬³": 4742,
      "ĠNe": 4743,
      "à¬¤à¬°à¬£à¬°": 4744,
      "Ġà¬Ĩà¬ĩà¬²": 4745,
      "ÌĤà¬¿": 4746,
      "à¬ıà¬®à¬ľ": 4747,
      "ĠàŃ§àŃ¯àŃ¬àŃ¦": 4748,
      "à¬²à¬¦à¬£": 4749,
      "Ġà¬ħà¬§à¬ĺà¬£": 4750,
      "à¬¤à¬ķà¬¤": 4751,
      "Ġà¬īà¬²à¬Ĺ": 4752,
      "ĠàŃ¨àŃ©àŃ¦": 4753,
      "Ġà¬¸à¬¬à¬ķ": 4754,
      "Ġà¬¦à¬³à¬¬": 4755,
      "à¬§à¬ķà¬ķ": 4756,
      "à¬¯à¬¬à¬¸": 4757,
      "Ġà¬ļà¬ķà¬°": 4758,
      "Ġà¬Ĩà¬ĩà¬ķà¬¨": 4759,
      "Ġà¬¤à¬¤à¬ķ": 4760,
      "à¬¾'à¥¤": 4761,
      "ĠàŃ§àŃ®àŃ®": 4762,
      "à¬Ĺà¬²à¬ª": 4763,
      "Ġà¬ļà¬ķà¬¡": 4764,
      "à¬¥à¬°à¬°": 4765,
      "à¤ľ": 4766,
      "Ġà¬¬à¬īà¬³": 4767,
      "ork": 4768,
      "Ġà¬¹à¬¸à¬¨": 4769,
      "ĠàŃ§àŃ¬àŃ¯": 4770,
      "à¬ĭà¬£": 4771,
      "à¬ļà¬¦à¬¶": 4772,
      "à¬¬à¬Ĺà¬¡à¬°": 4773,
      "à¬ıà¬¶à¬¨": 4774,
      "à¬Ĩà¬ªà¬¥à¬°": 4775,
      "à¬Łà¬ĸ": 4776,
      "ÑĢ": 4777,
      "Ġà¬ĺà¬°à¬¦": 4778,
      "à´³": 4779,
      "à¥¤âĢĿ": 4780,
      "à¬Ĺà¬®à¬ķ": 4781,
      "Ġà¬§à¬°à¬®": 4782,
      "®à´": 4783,
      "à¬®à¬¹à¬®": 4784,
      "àŃĩ|": 4785,
      "à¬¸à¬¨à¬Ĺà¬°": 4786,
      "à¬¯à¬¬à¬¹": 4787,
      "àŃŁà¬°à¬®": 4788,
      "Ġà¬°à¬£à¬ķ": 4789,
      "à¬¾àŃį": 4790,
      "à¬Ĩà¬°à¬Ĩà¬ĩ": 4791,
      "à¬·à¬¶": 4792,
      "Ġà¬¹à¬°à¬¡": 4793,
      "Ġà¬¨à¬¸": 4794,
      "à¬Ĩà¬ªà¬°": 4795,
      "à¬ķà¬·": 4796,
      "à¬ªà¬¨à¬ķ": 4797,
      "ĠàŃ§àŃ®àŃ¯": 4798,
      "ĠàŃ¨àŃ«àŃ«": 4799,
      "Ġà¬Ĩà¬ĩà¬Łà¬®": 4800,
      "Ġà¬ªà¬°à¬·": 4801,
      "Ġà¬¨à¬¬à¬¬à¬°": 4802,
      "==": 4803,
      "pli": 4804,
      "Ġ34": 4805,
      "ĠàŃ¨àŃ¨àŃ¯": 4806,
      "àŃĩ\"": 4807,
      "à¬ĩàŃŁ": 4808,
      "à¬ŀà¬°": 4809,
      "Ġà¬ħà¬¨à¬ķ": 4810,
      "à¬³à¬¨à¬°à¬¤": 4811,
      "ÌĢ": 4812,
      "Ġà¬Ĩà¬ĵ": 4813,
      "à¬Ĭ": 4814,
      "àŃģâĢĮ": 4815,
      "à¬Ĺà¬¢": 4816,
      "à¬¡à¬«": 4817,
      "Ġà¬ıà¬«à¬¸": 4818,
      "ĠM": 4819,
      "Ġà¬Ĺà¬¤à¬¥à¬°": 4820,
      "Cà¬°": 4821,
      "à¬¶àŃ±": 4822,
      "àŃ¨àŃ¦àŃ§àŃª": 4823,
      "ĠàŃ§àŃ¯àŃŃàŃ¨": 4824,
      "à¬¶àŃŁà¬°": 4825,
      "à¬ķà¬Łà¬ķà¬°": 4826,
      "ĠàŃ¨àŃ§àŃ®": 4827,
      "à¬¡à¬ł": 4828,
      "à¬°à¬¹à¬°à¬°": 4829,
      "à¬¾à¬ģà¥¤": 4830,
      "à¬ĩà¬²à¬Ĺ": 4831,
      "àŃ¨àŃ¦àŃ§àŃ¬": 4832,
      "66": 4833,
      "red": 4834,
      "Ġà¬¨à¬ķà¬°à¬¨": 4835,
      "twork": 4836,
      "à¬ĩà¬ĺà¬°": 4837,
      "à¬¨à¬ĩ": 4838,
      "Ġ01": 4839,
      "à¬ķà¬ķà¬³": 4840,
      "ĠNetwork": 4841,
      "Ġà¬®à¬¦à¬¨à¬®": 4842,
      "Ġà¬ľà¬¨à¬¸à¬Ń": 4843,
      "à¬®à¬ķà¬¦": 4844,
      "®à´²": 4845,
      "®à´²à´": 4846,
      "Ġà¬ªà¬ĩà¬¡": 4847,
      "à¬¬à¬°à¬£à¬°": 4848,
      "à¬®à¬¸à¬®": 4849,
      "Ġà¬Ľà¬¦": 4850,
      "Ġà¬īà¬ªà¬¢": 4851,
      "Ġà¬ĺà¬¨à¬¤": 4852,
      "à¬¡à¬ªà¬ķ": 4853,
      "theme": 4854,
      "Ġà¬¶àŃŁà¬¨": 4855,
      "à¬Ĩà¬ĩà¬Ļ": 4856,
      "àŃŁà¬ªà¬°": 4857,
      "tit": 4858,
      "Ġà¬ħà¬¬à¬¢": 4859,
      "à¬°à¬¶à¬®à¬¨": 4860,
      "Ġà¬ļà¬ķà¬®": 4861,
      "Ġà¬¸à¬¦à¬¨à¬°": 4862,
      "Ġà¬ķà¬¨à¬Ń": 4863,
      "à¬ľà¬·": 4864,
      "Ġà¬Ĺà¬£à¬§": 4865,
      "Ġà¬ħà¬¬à¬ľ": 4866,
      "Ġà¬®à¬³àŃŁ": 4867,
      "Ġà¬®à¬¡à¬°": 4868,
      "ĠàŃ§àŃŃàŃ¯": 4869,
      "à¬ķà¬ļà¬°": 4870,
      "Ġà¬¶à¬°à¬§": 4871,
      "à¬īà¬ªà¬ķ": 4872,
      "à¬®à¬ªà¬¤": 4873,
      "Ġà¬®à¬·": 4874,
      "à¬ªà¬¦à¬ľà¬¨à¬ķ": 4875,
      "à¬µà¬Ń": 4876,
      "Ġà¬Ķà¬°à¬Ļ": 4877,
      "à¬ķà¬¡à¬°": 4878,
      "à¬®àŃ±": 4879,
      "à¬ªà¬°à¬Ļ": 4880,
      "à¬§à¬°à¬ª": 4881,
      "ĠàŃ§àŃ¯àŃ®àŃ¨": 4882,
      "Ġà¬Ńà¬°à¬¦": 4883,
      "à¬ķà¬°à¬ķ": 4884,
      "Ġà¬Ĺà¬łà¬¨à¬®": 4885,
      "Ġà¬ļà¬¹": 4886,
      "à¬ħà¬Ĺà¬·": 4887,
      "ĠàŃ§àŃ®àŃ¦àŃ¦": 4888,
      "ĠàŃ¨àŃ§àŃ¯": 4889,
      "à¬¤à¬§à¬°": 4890,
      "à¬ªà¬Łà¬°": 4891,
      "à¬¯à¬¬": 4892,
      "à¬¡à¬³à¬®à¬£": 4893,
      "à¬Ĳ": 4894,
      "Ġà¬ĵà¬ł": 4895,
      "Ġà¬ľà¬£à¬°": 4896,
      "Ġà¬ħà¬°à¬£": 4897,
      "ĠàŃ§àŃ¯àŃªàŃ®": 4898,
      "à¬Ĺà¬£à¬Ļ": 4899,
      "à¬¿'à¥¤": 4900,
      "ĠàŃ©àŃ¦àŃŃ": 4901,
      "à¬ľà¬³à¬¸": 4902,
      "Ġà¬ıà¬Ńà¬°": 4903,
      "Ġà¬ıà¬²à¬ľ": 4904,
      "Ġà¬ĩà¬ıà¬®": 4905,
      "Ġà¬§à¬¨à¬¤": 4906,
      "âĸ": 4907,
      "Ġà¬Ŀà¬²à¬¸": 4908,
      "à¥ĩà¤Ĥ": 4909,
      "à¬¤à¬ļà¬¨": 4910,
      "à¬¤à¬¤à¬®": 4911,
      "ĠàŃ§àŃ¬àŃ©": 4912,
      "Ġà¬¸àŃŁ": 4913,
      "Ġà¬®à¬ļ": 4914,
      "Ġà¬ıà¬ŀ": 4915,
      "à¬¤à¬ªà¬¡": 4916,
      "à¬ĩà¬®à¬£": 4917,
      "Ġà¬ħà¬¤à¬¡": 4918,
      "à¬ļàŃŁà¬°": 4919,
      "à¬ļàŃŁà¬ķ": 4920,
      "Ġà¬ĵà¬¢": 4921,
      "Ġà¬¬à¬¬à¬²": 4922,
      "Ġà¬¸à¬ĩ": 4923,
      "ĠàŃ§àŃ¬àŃŃ": 4924,
      "Ġà¬¬à¬²à¬ķ": 4925,
      "à¬¶à¬°à¬¥": 4926,
      "Ġà¬Ĩà¬ĩà¬Ĩà¬°à¬¸": 4927,
      "à¬ıà¬®à¬ıà¬²": 4928,
      "title": 4929,
      "à¬ªà¬°à¬¸": 4930,
      "à¬ħà¬ľà¬£": 4931,
      "à¬¤à¬ķà¬ķ": 4932,
      "ĠàŃ¨àŃ©àŃ¬": 4933,
      "à¬¿à¬ģ;": 4934,
      "à¬°à¬¬à¬ļà¬¨": 4935,
      "ari": 4936,
      "Ġà¬¶à¬³": 4937,
      "Ġà¬«à¬³à¬¨": 4938,
      "à¬³à¬¯": 4939,
      "Ġà¬¬à¬¨à¬ª": 4940,
      "à¬¤à¬°à¬ªà¬¶": 4941,
      ",...": 4942,
      "à¬®à¬¨à¬Ĺà¬°à¬°": 4943,
      "ĠàŃ¨àŃ§àŃ«": 4944,
      "Ġà¤ľ": 4945,
      "Ġà¬ªà¬¥à¬ķ": 4946,
      "à¬ªà¬ĩà¬¸": 4947,
      "Ġà¬ĵà¬łà¬°": 4948,
      "__": 4949,
      "Ġà¬¨à¬Ĺà¬¡": 4950,
      "à¬Ĩà¬ĩà¬ıà¬ļ": 4951,
      "à¬¬à¬ĩà¬°": 4952,
      "à¬¨àŃŁà¬ķ": 4953,
      "à¬°àŃŁà¬®": 4954,
      "à¬°à¬ľà¬¬à¬°à¬¦à¬¸": 4955,
      "à¬°à¬ªà¬²": 4956,
      "ĠĊĊ": 4957,
      "àŃģ;": 4958,
      "Ġ)-": 4959,
      "à¬Ĩà¬ķà¬°": 4960,
      "à¬¾âĢĻ,": 4961,
      "àŃģà¥¤\"": 4962,
      "à¬Ĩà¬®à¬ķ": 4963,
      "Ġà¬¹à¬Łà¬¸": 4964,
      "à¬¸à¬ĵ": 4965,
      "Ġà¬Ĩà¬°à¬ıà¬¸": 4966,
      "àŃ±à¬°à¬ª": 4967,
      "à¬Łà¬¬à¬¡": 4968,
      "Ġ2008": 4969,
      "à¬ļà¬¦": 4970,
      "Ġà¬Ĩà¬ĩà¬¸à¬ķ": 4971,
      "à¬·à¬¹": 4972,
      "Ġà¬¹à¬°à¬¦": 4973,
      "à¬®à¬ļà¬ŀ": 4974,
      "500": 4975,
      "à¬³àŃŁà¬®": 4976,
      "Ġà¬¨à¬«": 4977,
      "Ġà¬ķà¬¬à¬ļ": 4978,
      "Ġà¬ķà¬°à¬¥": 4979,
      "à¬Ńà¬®à¬¨": 4980,
      "Ġà¬ĩà¬°à¬«": 4981,
      "à¬ıà¬®à¬ĩà¬Ł": 4982,
      "à¬²à¬³": 4983,
      "à¬°à¬®à¬Ĺ": 4984,
      "à¬ľà¬°à¬Ń": 4985,
      "ĠàŃ§àŃŃàŃ¬": 4986,
      "à¬Ķà¬·à¬§": 4987,
      "à¬¬à¬¯": 4988,
      "à¬®à¬·": 4989,
      "ĠàŃ¨àŃ¦àŃ«": 4990,
      "àŃģ\"": 4991,
      "Ġà¬ħàŃŁ": 4992,
      "à¬ĩà¬¦à¬°à¬ķ": 4993,
      "Ġà¬ħà¬®à¬Ļ": 4994,
      "Ġ});": 4995,
      "à¬ļà¬¤à¬°": 4996,
      "ĠàŃ¨àŃ¦àŃ¨àŃ«": 4997,
      "ch": 4998,
      "à¬Ĺà¬£à¬¨": 4999,
      "ĠàŃ«àŃ«àŃ¦": 5000,
      "ĠàŃ§àŃ®àŃ¨": 5001,
      "à¬¾à¬ģ'": 5002,
      "Ġà¬¡à¬²à¬«": 5003,
      "à¬ķà¬°à¬ª": 5004,
      "Ġà¬®à¬īà¬³": 5005,
      "à¬³à¬¹": 5006,
      "à¬Ĺà¬¯": 5007,
      "ĠàŃ¬àŃ«àŃ¦": 5008,
      "Ġnews": 5009,
      "Ġà¬¸à¬ľà¬¨": 5010,
      "Ġà¬Ĩà¬¸à¬¨à¬ķ": 5011,
      "ĠàŃ¨àŃªàŃ¬": 5012,
      "Ġà¬Ĩà¬ĩà¬ıà¬²": 5013,
      "Ġà¬ķà¬Łà¬°": 5014,
      "Ġà¬Ńà¬°à¬£à¬ª": 5015,
      "Ġà¬ħà¬¹à¬°à¬¹": 5016,
      "à¬Īà¬Ĺ": 5017,
      "Ġà¬ļà¬Łà¬£": 5018,
      "Ġà¬¸à¬¦à¬³": 5019,
      "à¬°àŃŁà¬°": 5020,
      "Ġà¥¥": 5021,
      "62": 5022,
      "ĠàŃ§àŃ®àŃ©": 5023,
      "ĠàŃ«àŃ¦àŃ¬": 5024,
      "à¬¡à¬³à¬ķ": 5025,
      "Î¼": 5026,
      "Ġà¬Ķà¬ªà¬¨": 5027,
      "à¬Ĩà¬ŀ": 5028,
      "Ġà¬¸à¬īà¬ķ": 5029,
      "Ġà¬ıà¬¸à¬ıà¬®à¬ıà¬¸": 5030,
      "Ġà¤¦": 5031,
      "ng": 5032,
      "Ġà¬¬à¬ĺ": 5033,
      "à¬ıà¬²à¬ķ": 5034,
      "ĠT": 5035,
      "Ġà¬ªà¬¥à¬ª": 5036,
      "Ġà¬¦à¬¶à¬°à¬¥à¬ª": 5037,
      "àŃ¯àŃ¯àŃ¯": 5038,
      "63": 5039,
      "Ġà¬²à¬·": 5040,
      "ĠàŃ§àŃ®àŃŃ": 5041,
      "à¬ĩà¬Ĩà¬°": 5042,
      "à¬īà¬³à¬ķ": 5043,
      "à¬¾..": 5044,
      "à¬ĩà¬·": 5045,
      "à¬Ĺà¬¹": 5046,
      "à¬ļà¬³à¬ª": 5047,
      "àŃį),": 5048,
      "Ġà¬¬à¬°à¬¬": 5049,
      "àŃįâĢĮ...": 5050,
      "um": 5051,
      "Ġà¬Ķà¬¦": 5052,
      "à¬ľà¬ł": 5053,
      "à¬¿à¬ģ:": 5054,
      "à¬ĩà¬Ĩ": 5055,
      "ĠàŃ¨àŃ¦àŃ©": 5056,
      "Ġà¬Ĩà¬°à¬ıà¬¸à¬ıà¬¸": 5057,
      "à¬ľà¬³à¬¬": 5058,
      "Ġà¬Ĩà¬ľà¬¬": 5059,
      "ĠàŃ©àŃ¨àŃ©": 5060,
      "88": 5061,
      "à¬Ĩà¬¨à¬¨": 5062,
      "ĠàŃ§àŃŃàŃ¨": 5063,
      "à¬Ĩà¬ĩà¬¥": 5064,
      "à¬¥à¬³à¬¸": 5065,
      "Ġà¬·à¬¢": 5066,
      "à¬¸à¬¯": 5067,
      "à¬®à¬¨à¬¬à¬®": 5068,
      "Ġà¬°à¬¸à¬°": 5069,
      "à¬ĩà¬²à¬®": 5070,
      "et": 5071,
      "Ġà¬Ĩà¬¬à¬°à¬£": 5072,
      "à¬°à¬¸à¬°à¬ķ": 5073,
      "Ġà¬¬à¬£à¬Ń": 5074,
      "Ġà¬ªà¬°à¬ľà¬Ļ": 5075,
      "Ġà¬ıà¬ķà¬°à¬°": 5076,
      "Ġà¬ħà¬¤à¬ıà¬¬": 5077,
      "Ġà¬Ĩà¬²à¬«": 5078,
      "********": 5079,
      "à¬¯à¬¶": 5080,
      "ĠĊĠĠ": 5081,
      "ĠàŃ¨àŃ®àŃ¦": 5082,
      "Ġà¬ļà¬ķà¬²": 5083,
      "ĠàŃ¨àŃ¯àŃª": 5084,
      "Ġà¬®à¬¨à¬¦": 5085,
      "Ġà¬«à¬°à¬¹": 5086,
      "ĠàŃ¨àŃ¬àŃ¦": 5087,
      "ea": 5088,
      "Ġà¬®à¬¨à¬ª": 5089,
      "ĠàŃ§àŃ¯àŃŃàŃª": 5090,
      "à¬ķà¬¸à¬¦": 5091,
      "Ġ120": 5092,
      "Ġ150": 5093,
      "Ġ2007": 5094,
      "à¬ĵà¬Łà¬°": 5095,
      "ĠàŃ¨àŃ§àŃ¬": 5096,
      "à¬¤à¬®à¬Ļ": 5097,
      "Ġà¬ħà¬Łà¬ķà¬³à¬°": 5098,
      "Ġà¬Ĺà¬Ľà¬Ĺ": 5099,
      "Ġà¬¸à¬¦à¬¨": 5100,
      "àŃŁà¬¬à¬¤": 5101,
      "la": 5102,
      "à¬ħà¬¬à¬¸": 5103,
      "](\"": 5104,
      "à¬ķà¬¤à¬¨": 5105,
      "Ġà¬Ńà¬¬à¬¨à¬ł": 5106,
      "à¬ľà¬¨à¬¤": 5107,
      "à¬¾à¥¤\"": 5108,
      "Ġà¬ķà¬²à¬®à¬ª": 5109,
      "Ġà¬ªà¬ı": 5110,
      "Ġà¬ĵà¬ıà¬®": 5111,
      "400": 5112,
      "à¬ıà¬²à¬ª": 5113,
      "Ġà¬Ĩà¬Ŀ": 5114,
      "àŃŁà¬¨à¬ķ": 5115,
      "tive": 5116,
      "Ġà¬¬à¬¶à¬¬à¬°": 5117,
      "ĠàŃ§àŃŃàŃ©": 5118,
      "na": 5119,
      "âĢĿ,": 5120,
      "à¬ĩà¬ı": 5121,
      "à¬¶à¬Ń": 5122,
      "àŃ±àŃŁà¬°": 5123,
      "Ġà¬ļà¬³à¬£": 5124,
      "Ã·": 5125,
      "à¬¦à¬¯": 5126,
      "à¬ļà¬¬à¬°": 5127,
      "à¬²à¬²à¬¹à¬¡": 5128,
      "à¬ĸà¬²à¬ķ": 5129,
      "Ġ1000": 5130,
      "à¬¤à¬Ĺà¬£à¬¤": 5131,
      "àŃ¨àŃ¦àŃ§àŃ«": 5132,
      "img": 5133,
      "à¬¿)à¥¤": 5134,
      "Ġà¬ıà¬²à¬ıà¬¸": 5135,
      "Ġà¬¤à¬¸": 5136,
      "oday": 5137,
      "à¬¥à¬¶": 5138,
      "Ġà¬īà¬²à¬Ļ": 5139,
      "à¬¾âĢĭâĢĮ": 5140,
      "Ġà¬²à¬«": 5141,
      "à¬·à¬²à¬ķ": 5142,
      "co": 5143,
      "Ġ38": 5144,
      "Ġ300": 5145,
      "Ġà¬Ĩà¬ķà¬¬à¬°": 5146,
      "àŃįâĢĮâĢĮ": 5147,
      "à¬Ĩà¬ľà¬°": 5148,
      "Ġà¬ĺà¬®": 5149,
      "à¬ªà¬£à¬ķ": 5150,
      "ĠàŃ©àŃ«àŃª": 5151,
      "ĠàŃ©àŃŃàŃ¬": 5152,
      "may": 5153,
      "à¬ħà¬®à¬°": 5154,
      "à¬ĺà¬Ļ": 5155,
      "Ġà¬ĺà¬¨à¬ĺà¬¨": 5156,
      "Ġà¬ıà¬®à¬ıà¬¸à¬ıà¬®à¬ĩ": 5157,
      "ÌĦ": 5158,
      "âĢĺâĢĺ": 5159,
      "à¬ķà¬¨à¬°": 5160,
      "Ġà¬Ńà¬¬à¬¨à¬ķ": 5161,
      "à¬Ĩà¬³à¬°": 5162,
      "Ġà¬ħà¬¨à¬¶à¬¨à¬°": 5163,
      "Ġà¬¥à¬°à¬ķ": 5164,
      "Ġà¬ıà¬ķà¬Ľà¬¤": 5165,
      "à¤ł": 5166,
      "ĠàŃ¨àŃ¦àŃª": 5167,
      "à¬Ĩà¬Ĺà¬¡": 5168,
      "à¬¨à¬°à¬®": 5169,
      "Ġ33": 5170,
      "à¬¹à¬°à¬ª": 5171,
      "à¬ªà¬²à¬¤": 5172,
      "Ġà¬ħà¬¦à¬°à¬ķ": 5173,
      "à¬ķà¬¥à¬°": 5174,
      "à´°": 5175,
      "ĠàŃ§àŃ¯àŃ«àŃ¬": 5176,
      "Ġà¬¦à¬ĸà¬²à¬°": 5177,
      "à¬ķà¬¬à¬°": 5178,
      "à¬«à¬¸": 5179,
      "Ġà¬¸à¬¬à¬°": 5180,
      "Ġà¬¨à¬ķà¬¹": 5181,
      "à¬Łà¬§": 5182,
      "à¬¦à¬¬à¬¹": 5183,
      "à¬ıà¬¬à¬²": 5184,
      "Ġà¬¬à¬¡à¬ļà¬£": 5185,
      "Ġà¬ľà¬¬à¬°": 5186,
      "Ġà¬ħà¬ŃàŃŁà¬ķ": 5187,
      "à¬Łà¬¨à¬ķ": 5188,
      "à¬¯à¬ľ": 5189,
      "ĠàŃ§àŃ®àŃ§": 5190,
      "à¬¨à¬¬à¬¬": 5191,
      "Ġà¬¤à¬¨à¬ĸ": 5192,
      "]}": 5193,
      "Ġà¬Ķà¬·à¬§à¬ķ": 5194,
      "à¬¤à¬¨à¬¶": 5195,
      "à¬Ĩà¬°à¬ľ": 5196,
      "à¬°à¬³àŃŁ": 5197,
      "Ġà¬¬à¬ļà¬¨": 5198,
      "àŃ±à¬¨à¬Ļ": 5199,
      "Ġà¬°à¬¹à¬®": 5200,
      "à¬·à¬®à¬Ļ": 5201,
      "Ġ39": 5202,
      "à¥Ĥ": 5203,
      "à¬Ĺà¬ķà¬°": 5204,
      "à¬ªà¬ĸ": 5205,
      "Ġà¬ķà¬¦à¬®": 5206,
      "Ġà¬ĩà¬īà¬°": 5207,
      "à¬¡à¬¶": 5208,
      "Ġà¬Ĩà¬²à¬ķ": 5209,
      "ĠàŃ©àŃ©àŃ¦": 5210,
      "à¬Ĩà¬ĩà¬ıà¬«": 5211,
      "àŃŁà¬£à¬°": 5212,
      "àŃĩà¬ģ;": 5213,
      "à¬¥à¬ªà¬¤": 5214,
      "Ġà¬ķà¬ªà¬²": 5215,
      "rep": 5216,
      "à¬ľà¬ķà¬¤": 5217,
      "ÑģÐº": 5218,
      "à¬®à¬«": 5219,
      "à¬ĩà¬ŀ": 5220,
      "ĠàŃ©àŃ¬àŃ¦": 5221,
      "à¬ļà¬Ń": 5222,
      "]&": 5223,
      "à¬®à¬¦à¬°": 5224,
      "àŃ©àŃ¦àŃ¦": 5225,
      "Ġà¬¸à¬°à¬³à¬¤": 5226,
      "ĠàŃ¨àŃ¯àŃ¦": 5227,
      "ĠàŃ§àŃ¯àŃ¨": 5228,
      "Ġà¥¤âĢĻâĢĻ": 5229,
      "ĠàŃ¬àŃ¨àŃ§": 5230,
      "Ġà¬īà¬£": 5231,
      "Ġà¬ľà¬¹à¬°": 5232,
      "à¬¬à¬®à¬¨": 5233,
      "Ġà¥¤à¥¤": 5234,
      "tion": 5235,
      "Ġà¬Ĩà¬°àŃŁà¬¨": 5236,
      "Ġ07": 5237,
      "/-": 5238,
      "ĠàŃ§àŃ¯àŃ¬àŃ§": 5239,
      "81": 5240,
      "à¬ĩà¬ıà¬®": 5241,
      "Ġà¬§à¬®à¬¨": 5242,
      "ĠàŃªàŃ¦àŃ¦àŃ¦": 5243,
      "àŃįâĢį-": 5244,
      "74": 5245,
      "Ġà¬¡à¬Ĺ": 5246,
      "àŃĩà¬¾à¬ģ": 5247,
      "ĠàŃ¨àŃ¨àŃ§": 5248,
      "Ġà¬¸à¬¦à¬³à¬¬à¬³": 5249,
      "à¬ľà¬ªà¬¥à¬ķ": 5250,
      "Ġà¬«à¬¸à¬«à¬°à¬¸": 5251,
      "à¬°à¬¬à¬Ļ": 5252,
      "à¤¶": 5253,
      "à¬®à¬®à¬¨": 5254,
      "Â·": 5255,
      "Ġà¬«à¬°àŃ±": 5256,
      "à¬¾|": 5257,
      "à¬ĵà¬¥": 5258,
      "ĠàŃ§àŃ®àŃª": 5259,
      "àŃįâĢĮ),": 5260,
      "Ġ`": 5261,
      "Ġà¬ªà¬°à¬ľ": 5262,
      "Ġà¬ıà¬²à¬Ĩà¬ĩà¬¸": 5263,
      "ĠàŃ¤": 5264,
      "à¬°à¬¦à¬ķ": 5265,
      "ĠàŃ¨àŃ¦àŃŃ": 5266,
      "à¬Ĩà¬Ĺà¬°": 5267,
      "Ġà¬Ĩà¬²à¬¬": 5268,
      "Ġà¬ıà¬¸à¬ıà¬ļà¬ľ": 5269,
      "71": 5270,
      "shan": 5271,
      "àŃŁà¬ªà¬Łà¬°": 5272,
      "à¬¬à¬°à¬¸": 5273,
      "à¬°à¬¤à¬¬": 5274,
      "ĠF": 5275,
      "à¬·à¬·": 5276,
      "àŃŁà¬¤à¬¨": 5277,
      "à¬Ĩà¬ļ": 5278,
      "Ġà¬ķà¬²à¬¬à¬²": 5279,
      "à¬®à¬¬à¬°": 5280,
      "Ġà¬ĩà¬¹": 5281,
      "à¬¬àŃŁà¬¸": 5282,
      "à¬ıà¬ļà¬ĵ": 5283,
      "à¬Ĺà¬®à¬¨à¬°": 5284,
      "94": 5285,
      "à¬¼àŃģ,": 5286,
      "Ġ2000": 5287,
      "Ġb": 5288,
      "à¬¦à¬ł": 5289,
      "àŃŁà¬¨à¬¸": 5290,
      "ĠàŃ¨àŃªàŃ©": 5291,
      "ĠàŃ§àŃ¯àŃŃàŃ®": 5292,
      "à¬¬à¬²à¬°": 5293,
      "à¬®à¬¨à¬ķ": 5294,
      "Ġà¬ħà¬ķà¬¥à¬¨": 5295,
      "Ġà¬Ĩà¬Ĺà¬®à¬¨à¬°": 5296,
      "à¬¯à¬®à¬¤": 5297,
      "terday": 5298,
      "yesterday": 5299,
      "àŃ±à¬°à¬ł": 5300,
      "à¬Ĩà¬°à¬ıà¬®": 5301,
      "à¬ħà¬¨à¬²": 5302,
      "à¬²à¬ķà¬¸": 5303,
      "Ġà¬ªà¬¥à¬ļ": 5304,
      "Ġà¬¨à¬¶": 5305,
      "Ġà¬Ĺà¬°à¬®à¬°": 5306,
      "Ġà¬²à¬ķà¬°": 5307,
      "à¬¸à¬¨à¬¸": 5308,
      "Ġà¤µ": 5309,
      "Ġà¬ħà¬ªà¬¹à¬°à¬£à¬ķ": 5310,
      "ĠàŃ§àŃ¯àŃ¬àŃŃ": 5311,
      "à¬®à¬²à¬¤": 5312,
      "Ġà¬ªà¬¤à¬ŀ": 5313,
      "ĠàŃ¨àŃ¨àŃ¨": 5314,
      "àŃŁà¬¬à¬°à¬£": 5315,
      "Ġ400": 5316,
      "Ġà¬ħà¬¨à¬§": 5317,
      "à¬ļà¬³à¬¨": 5318,
      "âĢĮàŃįâĢį": 5319,
      "à¬¬à¬³à¬¨": 5320,
      "à¬ıà¬ļà¬¸": 5321,
      "Ġà¬ıà¬ĩà¬¥": 5322,
      "à¬¢à¬°": 5323,
      "Ġdi": 5324,
      "Ġà¬Ľà¬³à¬¨": 5325,
      "à¬³à¬¬à¬£": 5326,
      "Ġà¬ĺà¬°à¬ł": 5327,
      "ĠàŃ¨àŃ¬àŃ¨": 5328,
      "Ġà¬Ĩà¬®à¬°à¬£": 5329,
      "à¬³à¬²": 5330,
      "àŃŁà¬®à¬Ļ": 5331,
      "url": 5332,
      "Ġà¬ħà¬®à¬¨": 5333,
      "Ġà¬Ĩà¬¢": 5334,
      "Ġà¬¶à¬¤à¬¬": 5335,
      "à¬¿à¬ģà¥¤\"": 5336,
      "Ġà¬¦à¬ĸà¬²à¬ķ": 5337,
      "àŃŁà¬³àŃŁ": 5338,
      "ĠàŃ§àŃ¯àŃªàŃ¨": 5339,
      "ĠàŃ¨àŃ§àŃ§": 5340,
      "à¬ªà¬²à¬Ļ": 5341,
      "ĠàŃªàŃ¦àŃŃ": 5342,
      "ĠàŃ¨àŃ©àŃŃ": 5343,
      "Ġà¬ķà¬Łà¬ķà¬¸": 5344,
      "Ġà¬®à¬ĩà¬²à¬®": 5345,
      "à¬īà¬ªà¬¸": 5346,
      "Ġà¬ĩà¬Ĺ": 5347,
      "84": 5348,
      "Ġà¬¨à¬Ľ": 5349,
      "à¬¿à¬Ĥ)": 5350,
      "®à´²à´¯": 5351,
      "à¬¬à¬°à¬ª": 5352,
      "ĠàŃ¯àŃ¯àŃ¯": 5353,
      "'\"": 5354,
      "à¬®à¬°à¬¨": 5355,
      "Ġà¬¸à¬¤à¬ķ": 5356,
      "à¬·à¬®à¬ķ": 5357,
      "bit": 5358,
      "à¬¾à¬¼": 5359,
      "à¬®à¬°à¬¸": 5360,
      "à¬°à¬¬à¬®àŃŁ": 5361,
      "Ġsu": 5362,
      "ĠàŃ¨àŃ¦àŃ®": 5363,
      "Ġà¬ıà¬®à¬ĵàŃŁ": 5364,
      "Ġ06": 5365,
      "âĢĿà¥¤": 5366,
      "à¬§à¬¨à¬Ļ": 5367,
      "âĢĮâĢĮ": 5368,
      "ĠàŃ§àŃ¯àŃŃàŃ¯": 5369,
      "bitly": 5370,
      "àŃĩàŃĩà¥¤": 5371,
      "à¬Ĺà¬¸à¬°": 5372,
      "Ġà¬ķà¬Łà¬¨": 5373,
      "Ġà¬²à¬Ĺà¬ĩà¬¨": 5374,
      "Ġ04": 5375,
      "áĢ": 5376,
      "à¬Łà¬Ĺà¬¡": 5377,
      "Ġ2009": 5378,
      "Ġà¬¨à¬¬à¬¬à¬§": 5379,
      "Ġà¬īà¬ªà¬ª": 5380,
      "Ġà¬ħà¬¸à¬Ļ": 5381,
      "Ġà¬ıà¬¤à¬¦à¬¬": 5382,
      "à¬°à¬®à¬¸": 5383,
      "ĠàŃ§àŃ¯àŃ«àŃ¨": 5384,
      "Ġà¬¸à¬īà¬¦": 5385,
      "Ġà¬Ĩà¬ķà¬³à¬¨à¬°": 5386,
      "à¬¾*": 5387,
      "à¬µà¬°à¬Ļ": 5388,
      "Ġà¬ıà¬¸à¬ķ": 5389,
      "Ġà¬ĨàŃŁà¬°à¬Ļ": 5390,
      "àŃ¨àŃ¦àŃ¦àŃ¯": 5391,
      "ĠàŃ¨àŃ¦àŃ¯": 5392,
      "Ġ42": 5393,
      "Ġà¬īà¬ªà¬ķà¬°à¬£à¬Ĺ": 5394,
      "Ø§Ø±Ø¯ÙĪ": 5395,
      "àŃĩà¬¾àŃĸ": 5396,
      "ĠàŃ¨àŃ¦àŃ¬": 5397,
      "à¬¿àŃģ": 5398,
      "à¬ĩà¬ħà¬ķ": 5399,
      "àŃĢ?": 5400,
      "ĠàŃ¨àŃ«àŃ¨": 5401,
      "ĠàŃ§àŃ¯àŃŃàŃ©": 5402,
      "WS": 5403,
      "ĠàŃ¨àŃ§àŃ¨": 5404,
      "Ġà¬ħà¬Ĺà¬°": 5405,
      "à¬°à¬°à¬°": 5406,
      "Ġà¬¨à¬ĵ": 5407,
      "à¬Ĺà¬¨à¬ĵ": 5408,
      "ĠàŃ©àŃ§àŃ«": 5409,
      "Ġà¬ħà¬ľàŃŁà¬Ļ": 5410,
      "Ġ55": 5411,
      "à¬ĹàŃ±": 5412,
      "tash": 5413,
      "à¬ļà¬ªà¬¦à¬¸": 5414,
      "shantash": 5415,
      "Ġsushantash": 5416,
      "à¬ıà¬¸à¬ıà¬²": 5417,
      "à¬¹à¬ªà¬°": 5418,
      "Ġà¬¨à¬ªà¬¡": 5419,
      "ĠàŃ¨àŃ¨àŃª": 5420,
      "Ġà¬¤à¬Łà¬°": 5421,
      "Ġà¬ĺà¬Łà¬¨": 5422,
      "Ġà¬®à¬īà¬ķ": 5423,
      "Ġà¬ħà¬²à¬ķ": 5424,
      "à¬ľà¬¹": 5425,
      "Ġà¬ĺà¬°à¬²": 5426,
      "ĠàŃ®àŃ«àŃ¦": 5427,
      "Ġà¬ľà¬³à¬ªà¬¥": 5428,
      "à¬ĩà¬°à¬¸à¬ķ": 5429,
      "Ġà¬ıà¬«à¬¡": 5430,
      "at": 5431,
      "à¬ľà¬ĵ": 5432,
      "à¬ªà¬¤à¬Ļ": 5433,
      "ĠàŃ§àŃ¯àŃªàŃ¬": 5434,
      "à¬¹àŃ±": 5435,
      "à¬Ĩà¬¬à¬¶": 5436,
      "à¬³à¬¨à¬Ĺà¬°": 5437,
      "à¬²à¬®à¬ĸ": 5438,
      "CA": 5439,
      "Ġà¬Ĩà¬ĩà¬Ĩà¬ĩà¬ıà¬®": 5440,
      "Ġà¬ħà¬£à¬ķ": 5441,
      "ĠàŃ§àŃ¯àŃ®àŃ§": 5442,
      "à¬ĸà¬¥": 5443,
      "àŃģ....": 5444,
      "àŃģ):": 5445,
      "Ġà¬Łà¬ªà¬°": 5446,
      "Ġà¬łà¬ķà¬Ļ": 5447,
      "Ġà¬¬à¬¸à¬ķ": 5448,
      "ol": 5449,
      "à¬ıà¬¥à¬°": 5450,
      "Ġà¬ħà¬¨à¬¬à¬°à¬¤": 5451,
      "à¬ıà¬¸à¬ıà¬¨à¬ıà¬²": 5452,
      "].\"": 5453,
      "ĠU": 5454,
      "Ġà¬ķà¬²à¬ķ": 5455,
      "Ġà¬§à¬°à¬ªà¬Ĺà¬¡": 5456,
      "Odisha": 5457,
      "Ġà¬ıà¬ķà¬®à¬¤": 5458,
      "à¬Łà¬¸à¬¨": 5459,
      "à¬¡à¬¦": 5460,
      "Ġà¬ħà¬¬à¬¸à¬°à¬ķ": 5461,
      "61": 5462,
      "à¬ĩà¬¥à¬¨": 5463,
      "ĠàŃ©àŃ¨àŃ¬": 5464,
      "à¬¬à¬¨à¬®": 5465,
      "à¬°à¬¥à¬®à¬Ł": 5466,
      "Ġà¬ħà¬ªà¬ļàŃŁ": 5467,
      "à¤¬": 5468,
      "à¬¬à¬¦à¬³à¬°": 5469,
      "ĠàŃ¨àŃ§àŃŃ": 5470,
      "93": 5471,
      "à¬¬à¬¹à¬¨à¬ķ": 5472,
      "]=\"": 5473,
      "\").": 5474,
      "à¬Ńà¬²à¬ķ": 5475,
      "ĠàŃ¬àŃ¦àŃ¦àŃ¦": 5476,
      "àŃį?": 5477,
      "Ġà¬¦à¬®àŃŁà¬¨": 5478,
      "à¬¤à¬ĸ": 5479,
      "à¬«à¬¸à¬²": 5480,
      "Ġà¬§à¬¡": 5481,
      "dy": 5482,
      "à¬®à¬ļà¬°": 5483,
      "à¬²à¬°à¬ķ": 5484,
      "Ġà¬¬à¬³àŃŁà¬°": 5485,
      "ĠàŃ§àŃ¯àŃ«àŃŃ": 5486,
      "à¬ļà¬®à¬ķ": 5487,
      "Ġà¬Ĺà¬£à¬ªà¬°": 5488,
      "Ġà¬Ķà¬°": 5489,
      "ĠàŃ¨àŃ¬àŃª": 5490,
      "Ġà¬ĵà¬®à¬«": 5491,
      "Ġà¬ĺà¬°à¬¬": 5492,
      "à¬ĵà¬Ĩà¬°": 5493,
      "Ġà¬ªà¬¯": 5494,
      "Ġà¬¹à¬°à¬®à¬¨à¬ª": 5495,
      "à¬²à¬ĸà¬®": 5496,
      "à¬£à¬Ľ": 5497,
      "à¬Łà¬ľ": 5498,
      "à¬·à¬£à¬Ĺ": 5499,
      "à¬ıà¬¸à¬ı": 5500,
      "Ġà¬Ĩà¬ĩà¬Ĩà¬°": 5501,
      "à¬¥à¬Ł": 5502,
      "Ġà¬¯à¬¹": 5503,
      "à¬ĸà¬Ń": 5504,
      "à¬¼à¬¿à¥¤": 5505,
      "Ġà¬¦à¬¶à¬°à¬¥": 5506,
      "Ġà¬Łà¬ļ": 5507,
      "àŃ®àŃ¦àŃ¦": 5508,
      "à¬ĸà¬¸à¬®": 5509,
      "à¬ıà¬®à¬ı": 5510,
      "Ġ65": 5511,
      "ĠàŃ©àŃ®àŃ¦": 5512,
      "àŃ¬àŃ¦àŃ¦": 5513,
      "Ġ37": 5514,
      "ĠàŃ©àŃ¨àŃ«": 5515,
      "à¬¦à¬§": 5516,
      "àŃŁà¬¸à¬°": 5517,
      "ĠàŃ©àŃ¬àŃ«": 5518,
      "ĠàŃªàŃ®àŃ¦": 5519,
      "à¬¹à¬¨à¬ķ": 5520,
      "à¬ľà¬ĺ": 5521,
      "à¬¶à¬Ńà¬ķ": 5522,
      "Ġà¬Ńà¬°à¬·": 5523,
      "à¬ªà¬¦à¬¸à¬Ļ": 5524,
      "àŃģàŃĤ": 5525,
      "à¬Łà¬ķà¬ķ": 5526,
      "Ġ02": 5527,
      "Ġ03": 5528,
      "Ġà¬ªà¬¹à¬°": 5529,
      "Ġà¬ıà¬¸àŃŁ": 5530,
      "à¬¹à¬¨à¬ª": 5531,
      "àŃ±àŃŁà¬Ļ": 5532,
      "à¬¹à¬²à¬°": 5533,
      "à¬£à¬ªà¬¦à¬ķ": 5534,
      "ri": 5535,
      "à¬°à¬¥à¬°": 5536,
      "ĠàŃ§àŃ¯àŃŃàŃ¬": 5537,
      "Ġà¬ľà¬¸à¬ª": 5538,
      "à¬¬à¬°à¬®à¬Ļ": 5539,
      "à¬ıà¬²à¬Ļ": 5540,
      "à¬ĵà¬Ń": 5541,
      "Ġà¬°à¬®à¬ľ": 5542,
      "Ġà¬ľà¬¬à¬°à¬¦à¬ĸà¬²à¬ķ": 5543,
      "Ġà¬¹à¬°à¬¤": 5544,
      "Ġà¬ľà¬ıà¬£": 5545,
      "à¬Ĩà¬Ĺà¬ŀ": 5546,
      "à¬¸à¬«à¬³à¬¤": 5547,
      "à¬¼àŃĩ,": 5548,
      "ĠG": 5549,
      "à¬°à¬¬à¬¸": 5550,
      "Ġà¬°à¬°": 5551,
      "Ġà¬ļà¬¬": 5552,
      "à¬¨à¬¸à¬°à¬°": 5553,
      "à¬¡à¬³à¬Ļ": 5554,
      "à¬¦à¬®àŃŁ": 5555,
      "Ġà¬¸à¬¨à¬¤": 5556,
      "à¬®à¬¨à¬°à¬ŀ": 5557,
      "Ġà¬ħà¬ªà¬¸à¬¨": 5558,
      "àŃĩà¥¤'": 5559,
      "Ġà¬Ĺà¬£à¬°": 5560,
      "Ġà¬®à¬¨à¬¨à¬¶": 5561,
      "Ġà¬ļàŃŁà¬¨à¬°": 5562,
      "à¬¼à¬¿à¬Ĥ": 5563,
      "fe": 5564,
      "Ġà¬Ĩà¬Łà¬°": 5565,
      "Ġà¬ıà¬¨à¬ª": 5566,
      "ï¸": 5567,
      "Ġà¬ķà¬³à¬°": 5568,
      "Ġà¬ħà¬²à¬¬": 5569,
      "à¬ļà¬ľà¬£": 5570,
      "à¬°à¬ľà¬ķ": 5571,
      "Ġà¬¨à¬°à¬¹à¬°": 5572,
      "à¬³à¬¨à¬ª": 5573,
      "à¬¸à¬¹à¬¯": 5574,
      "àŃŁà¬ķà¬¸": 5575,
      "à¬¸à¬¦à¬ķ": 5576,
      "Ġà¬ıà¬¡à¬¸": 5577,
      "à¬ķà¬Ńà¬°": 5578,
      "à¬²à¬²": 5579,
      "à¬¹à¬¬à¬¨": 5580,
      "à¬¸à¬³": 5581,
      "ĠàŃ¨àŃŃàŃ«": 5582,
      "à¬Łà¬¬à¬²à¬°": 5583,
      "ï¸ı": 5584,
      "Ġà¬¯à¬¶àŃ±à¬¨": 5585,
      "à¬¯à¬¥": 5586,
      "Ġà¬§à¬®à¬ķà¬ª": 5587,
      "à¬ĩà¬«à¬·": 5588,
      "à¬¶à¬ļà¬¨": 5589,
      "83": 5590,
      "Lea": 5591,
      "à¬¹à¬¤à¬Ļ": 5592,
      "à¬ĩà¬¨à¬ļ": 5593,
      "183": 5594,
      "à¬¤à¬¯": 5595,
      "à¬¤à¬¨à¬³": 5596,
      "à¬Ĺà¬³à¬ķ": 5597,
      "Ġ....": 5598,
      "ĠàŃ©àŃªàŃ§": 5599,
      "Ġà¬ĩà¬¨à¬«à¬°": 5600,
      "à¬ĥ-": 5601,
      "');": 5602,
      "à¬ľà¬¨à¬¨": 5603,
      "Ġà¬ĩà¬ķà¬¬": 5604,
      "Ġà¬¬à¬²à¬¬": 5605,
      "àŃĩ....": 5606,
      "ĠNE": 5607,
      "à¬®à¬¨à¬°à¬ŀà¬ľà¬¨": 5608,
      "Ġ>": 5609,
      "à¬¦à¬®à¬°": 5610,
      "à¬³à¬°à¬¤": 5611,
      "Ġà¬¯à¬¬à¬ķ": 5612,
      "à¬ķà¬§à¬°": 5613,
      "àŃ±à¬°à¬ŀ": 5614,
      "à¬ĸà¬ķà¬°": 5615,
      "à¬ħà¬ŀ": 5616,
      "àŃŃàŃ¦àŃ¦": 5617,
      "Ġà¬ķà¬°à¬¦": 5618,
      "ĠâĢĭâĢĮ": 5619,
      "Ġtan": 5620,
      "à¬ħà¬ªà¬°à¬ªà¬ķ": 5621,
      "Ġà¬Ńà¬ĹàŃ±à¬¨": 5622,
      "à¬«à¬°à¬ª": 5623,
      "à¬·à¬£à¬¶": 5624,
      "Ġli": 5625,
      "à¬¤à¬§": 5626,
      "reddy": 5627,
      "maya": 5628,
      "Ġtanmaya": 5629,
      "Ġà¬®à¬¤à¬ķ": 5630,
      "à¬ļà¬°à¬ķ": 5631,
      "ag": 5632,
      "Ġimg": 5633,
      "Ġà¬¨à¬Ĺà¬£": 5634,
      "ĠàŃ¨àŃ¬àŃ«": 5635,
      "àŃŁàŃŁà¬ķ": 5636,
      "à¬³à¬¥": 5637,
      "Ġà¬ªà¬¸à¬°": 5638,
      "à¬§à¬¡": 5639,
      "Ġà¬Ĩà¬Ĺà¬°à¬ªà¬¡": 5640,
      "à¬Ĩà¬«à¬Ĺ": 5641,
      "Ġà¬¨à¬ħà¬Ł": 5642,
      "à¬¤à¬°à¬£à¬ķ": 5643,
      "Ià¬°": 5644,
      "à¬¦à¬¶à¬®": 5645,
      "à¬Ĺà¬ľà¬ķ": 5646,
      "à¬¡à¬¸à¬°": 5647,
      "Ġà¬²à¬ĸà¬¨à¬ª": 5648,
      "ÌĮ": 5649,
      "Ġà¬¬à¬°à¬Ĺ": 5650,
      "à¬¦à¬°à¬ªà¬¦": 5651,
      "à¬ļà¬ķà¬Ł": 5652,
      "à¬Ĺà¬®à¬£": 5653,
      "à¬Ĩà¬¸à¬°": 5654,
      "à¬ıà¬®à¬¡": 5655,
      "Ġà¬īà¬ªà¬ķà¬°à¬£à¬ķ": 5656,
      "ĠàŃ§àŃ¯àŃ«àŃ®": 5657,
      "à¬¸à¬®à¬Ĺ": 5658,
      "ĠàŃ§àŃ¯àŃ¬àŃª": 5659,
      "Ġà¬ķà¬¨à¬¸à¬°": 5660,
      "ĠàŃ¨àŃ«àŃ¬": 5661,
      "ĠàŃ§àŃ¯àŃ¬àŃ¯": 5662,
      "Ġ56": 5663,
      "à¬¹à¬¡": 5664,
      "àŃŁà¬¤à¬¸": 5665,
      "Ġà¬ħà¬Ĺà¬¸": 5666,
      "à¬¬à¬³à¬Ńà¬¦": 5667,
      "à¬·à¬¦à¬ķ": 5668,
      "Ġà¬¦à¬§": 5669,
      "à¬¢à¬¤": 5670,
      "à¬ªà¬Łà¬¨": 5671,
      "Ġà¬¸à¬®à¬¦": 5672,
      "Ġà¬ħà¬¦à¬®": 5673,
      "Ġà¤°": 5674,
      "âĿ": 5675,
      "87": 5676,
      "Ġà¬Łà¬²": 5677,
      "à¬ĩà¬¬à¬£": 5678,
      "à¬¹à¬ł": 5679,
      "Ġà¬¦à¬¹à¬¨": 5680,
      "à¬īà¬¬": 5681,
      "à¬¤à¬ķà¬³": 5682,
      "ĠàŃ¨àŃªàŃ«": 5683,
      "à¬²à¬¶": 5684,
      "à¬£à¬°à¬Ļ": 5685,
      "à¬Ĺà¬®à¬ŀ": 5686,
      "GB": 5687,
      "à¬ıà¬²à¬¸": 5688,
      "Ġà¬®à¬īà¬¸": 5689,
      "à¬°à¬®à¬ľ": 5690,
      "à¬Ĺà¬łà¬¨à¬®": 5691,
      "Ġà¬ĸà¬ĩà¬°à¬ª": 5692,
      "Ġà¬¬à¬¨à¬ķà¬²": 5693,
      "Ġà¬ľà¬¨à¬¬": 5694,
      "Ġà¬¨à¬¬à¬¯": 5695,
      "àŃ¨àŃ¦àŃ§àŃ§": 5696,
      "ted": 5697,
      "ĠàŃ¨àŃ©àŃ©": 5698,
      "Ġà¬Ľà¬³": 5699,
      "Ġà¬Ľà¬¨à¬ķ": 5700,
      "ĠàŃ§àŃ¯àŃ©àŃ¬": 5701,
      "à¬Ńà¬¬à¬ķ": 5702,
      "Ġà¬Ĩà¬°àŃŁà¬¨à¬Ļ": 5703,
      "àŃ¨àŃ¦àŃ¦àŃ§": 5704,
      "à¬¡à¬°à¬¸": 5705,
      "âĢįàŃį": 5706,
      "Ġà¬ªà¬²à¬¸à¬°": 5707,
      "Ġà¬Ľà¬£": 5708,
      "Ġà¬°à¬¸à¬ķ": 5709,
      "Ġà¬ħà¬¨à¬Łà¬¨": 5710,
      "à¬¼à¬¿.": 5711,
      ",,": 5712,
      ")(": 5713,
      "ĠR": 5714,
      "à¬¬à¬¶à¬Ļ": 5715,
      "Ġà¬ħà¬ªà¬¸à¬°": 5716,
      "ĠàŃ¨àŃ«àŃŃ": 5717,
      "à¬®à¬¹à¬²": 5718,
      "à¬¡à¬ķà¬°": 5719,
      "à¬ıà¬®à¬Ļ": 5720,
      "à¬¦à¬ľ": 5721,
      "ĠàŃ¬àŃ©àŃ¦": 5722,
      "Ġà¬ķà¬³à¬¹à¬ķ": 5723,
      "ĠàŃ¨àŃ¨àŃ¬": 5724,
      "Ġpm": 5725,
      "ĠNEWS": 5726,
      "à¬ıà¬ıà¬«": 5727,
      "à¬Łà¬¨à¬°à¬Ļ": 5728,
      "à¬ľà¬³à¬°": 5729,
      "Ġà¬ªà¬¦à¬ļ": 5730,
      "Ġà¬īà¬ªà¬®à¬¹": 5731,
      "Ġà¬Ĩà¬°à¬ıà¬®": 5732,
      "ĠàŃ¨àŃ§àŃ©": 5733,
      "à¬¶à¬°à¬°": 5734,
      "à¬ĺà¬¤à¬®": 5735,
      "à¬¯à¬¸": 5736,
      "Ġà¬īà¬ªà¬ħà¬§": 5737,
      "ĠàŃ§àŃ¯àŃ¬àŃ®": 5738,
      "Ġ\\": 5739,
      "à¬¿',": 5740,
      "85": 5741,
      "today": 5742,
      "à¬¬à¬ķà¬¨": 5743,
      "à¬¬à¬ł": 5744,
      "à¬¦àŃŁà¬¸": 5745,
      "Ġà¬ĵà¬²à¬Łà¬ª": 5746,
      "à¬¥à¬£": 5747,
      "ĠÂ®": 5748,
      "%à¥¤": 5749,
      "Ġ41": 5750,
      "âĸº": 5751,
      "prep": 5752,
      "à¬¸à¬¤à¬°": 5753,
      "à¦ħà¦¸à¦®": 5754,
      "CAprep": 5755,
      "à¬¬à¬¨à¬¨": 5756,
      "Ġà¬ĺà¬°à¬Ĺ": 5757,
      "ĠàŃ©àŃ¦àŃª": 5758,
      "à¬¹à¬³à¬°": 5759,
      "à¬Ĩà¬ĩà¬Ĩà¬ĩ": 5760,
      "Ġà¬¨à¬Łà¬¬à¬°": 5761,
      "à¬ĩà¬¨à¬Ļ": 5762,
      "àŃŁà¬®à¬ł": 5763,
      "à¬ľà¬¤à¬¨": 5764,
      "à¬ħà¬ŃàŃŁ": 5765,
      "ĠàŃŁà¬°": 5766,
      "àŃĥ-": 5767,
      "Ġà¬ħà¬¹à¬Ļ": 5768,
      "à¬łà¬¯": 5769,
      "Ġ('": 5770,
      "Ġlive": 5771,
      "Ġà¬ĸà¬ļ": 5772,
      "à¬³à¬¸à¬ļ": 5773,
      "(\\'": 5774,
      "à¬Łà¬¯": 5775,
      "à¬¡à¬²à¬°": 5776,
      "Ġà¬ļà¬¹à¬²à¬Ļ": 5777,
      "vi": 5778,
      "à¬¬à¬°à¬®à¬¤": 5779,
      "à¬ľà¬Ĺà¬¤à¬°": 5780,
      "àŃŁà¬¥à¬°": 5781,
      "ĠàŃ¨àŃªàŃ¯": 5782,
      "92": 5783,
      "Ġà¬ķà¬ľ": 5784,
      "Ġà¬¬à¬Ĺà¬²": 5785,
      "à¬ĵà¬ı": 5786,
      "áĥ": 5787,
      "à¬®à¬ļà¬£": 5788,
      "ĠàŃ¨àŃ¨àŃ©": 5789,
      "ĠàŃ¨àŃŃàŃ¨": 5790,
      "Ġà¬ĵà¬¨": 5791,
      "Ġà¬ĩà¬¨à¬ķà¬®": 5792,
      "à¬Ĩà¬°à¬Ļ": 5793,
      "à¬·à¬£à¬®": 5794,
      "à¬ĩà¬°à¬¨": 5795,
      "Ġà¬¬à¬°à¬«à¬°": 5796,
      "ĠàŃ©àŃ¦àŃ§": 5797,
      "])à¥¤": 5798,
      "àŃį;": 5799,
      "à¬°à¬®à¬¥": 5800,
      "spli": 5801,
      "Ġ44": 5802,
      "Ġtd": 5803,
      "]\\(\\'": 5804,
      "Ġà¬ļà¬īà¬¦": 5805,
      "àŃįÂı": 5806,
      "Ġà¬ķà¬²à¬®à¬°": 5807,
      "à¬ħà¬ľà¬Ĺà¬°": 5808,
      "Ġà¬ħà¬¸à¬¤": 5809,
      "à¬¨à¬ªà¬°": 5810,
      "ĠàŃ¨àŃªàŃª": 5811,
      "Ġà¬ħà¬¬à¬²": 5812,
      "Ġà¬ĩà¬¨à¬ļ": 5813,
      "àŃĩâĢĿ": 5814,
      "à¬ľàŃŁàŃ±": 5815,
      "à¬¤à¬¬à¬¸": 5816,
      "à¬Ĩà¬¨à¬°": 5817,
      "à¬§à¬Ń": 5818,
      "âĢĶâĢĶâĢĶâĢĶ": 5819,
      "Ġ40183": 5820,
      "Ġà¬Ĩà¬ĩà¬ıà¬¨à¬ıà¬¸": 5821,
      "Ġà¬¬à¬Łà¬ķ": 5822,
      "Ġà¬īà¬¦àŃŁà¬¨": 5823,
      "Ġà¬ħà¬¸à¬Ń": 5824,
      "à¬¬à¬¶à¬¤": 5825,
      "Ġà¬Ĺà¬ľà¬°": 5826,
      "Ġà¬Ĺà¬Ľà¬Ł": 5827,
      "Ġà¬Ĩà¬īà¬Łà¬²": 5828,
      "à¬¿à¥¤à¥¤": 5829,
      "à¬®à¬³à¬®à¬¤": 5830,
      "\".": 5831,
      "Ġà¬¤à¬³à¬¸": 5832,
      "à¬ķà¬ķà¬¥": 5833,
      "lo": 5834,
      "ĠĠĠĠĠĠĠ": 5835,
      "à¬°à¬ĩ": 5836,
      "à¬Ľà¬Ļ": 5837,
      "ĠàŃ«àŃ¨àŃ©": 5838,
      "ĠàŃ©àŃ¦àŃ¬": 5839,
      "à¬®à¬®àŃŁ": 5840,
      "Ġà¤²": 5841,
      "\"]": 5842,
      "à¬°à¬¡à¬¬": 5843,
      "à¬ĩà¬«à¬°": 5844,
      "ĠàŃł": 5845,
      "Ġà¬ľà¬ľà¬Ļ": 5846,
      "Ġà¬¹à¬³à¬§à¬°": 5847,
      "à¬¸à¬ªà¬¨": 5848,
      "âĢĭâĢĮàŃĩâĢĭâĢĮ": 5849,
      "Ġà¤ħ": 5850,
      "à¬ıà¬ªà¬Ł": 5851,
      "àŃŁà¬®à¬¨à¬¸": 5852,
      "Ġà¬®à¬Łà¬¨": 5853,
      "à¬ıà¬Łà¬°à¬°": 5854,
      "]');": 5855,
      "\",": 5856,
      "à¬®à¬¤à¬ķ": 5857,
      "Ġ05": 5858,
      "ĠàŃ¨àŃŃàŃ¬": 5859,
      "à¬²à¬Łà¬¨": 5860,
      "à¬¸à¬ħà¬ª": 5861,
      "à¬Ľà¬®": 5862,
      "Ġà¬¤à¬Łà¬°à¬ķ": 5863,
      "ĠàŃ§àŃ¯àŃ«àŃ«": 5864,
      "à¬ıà¬¨à¬¬": 5865,
      "ĠàŃ§àŃ¯àŃ¬àŃ«": 5866,
      "Ġà¬¬à¬¡à¬¬à¬¡": 5867,
      "Ġà¬Ĩà¬Ĺà¬Ńà¬°": 5868,
      "Ġà¬ľà¬³à¬§": 5869,
      "à¬Łà¬ĺ": 5870,
      "àŃ¨àŃ¦àŃ§àŃ©": 5871,
      "Ġà¬ļà¬°à¬£à¬°": 5872,
      "à¬ªà¬°à¬¦": 5873,
      "ĠàŃ¨àŃªàŃ®": 5874,
      "à¬ĸà¬ķà¬®": 5875,
      "âĢĮà¬¿": 5876,
      "ĠàŃ©àŃªàŃ¦": 5877,
      "Ġà¬¨à¬¸à¬°": 5878,
      "âĢĮàŃĩà¬¾": 5879,
      "à¬«à¬°à¬Ļ": 5880,
      "Ġà¬ĺà¬°à¬Ńà¬¡": 5881,
      "Tà¬°": 5882,
      "Ġà¬¬à¬ħ": 5883,
      "àŃįâĢĮàŃįâĢĮ": 5884,
      "à¬°à¬¤à¬°à¬¤": 5885,
      "mp": 5886,
      "à¬ªà¬¹à¬°": 5887,
      "à¬§à¬ķà¬¤": 5888,
      "ĠàŃ§àŃ¯àŃ¨àŃ§": 5889,
      "ĠàŃ¨àŃ¨àŃŃ": 5890,
      "à¬¨à¬¬à¬¸à¬®": 5891,
      "Ġà¬ħà¬¨à¬¤": 5892,
      "ĠàŃ©àŃªàŃ¨": 5893,
      "Ġà¬ıà¬Ĩà¬ĩà¬ıà¬®": 5894,
      "Ġà¬ħà¬ĺà¬Łà¬£à¬°": 5895,
      "àŃįâĢį)": 5896,
      "ĠĊĠĊ": 5897,
      "Ġà¬ĩàŃŁ": 5898,
      "Ġà¬ķà¬®à¬²à¬¨": 5899,
      "ĠàŃ«àŃªàŃ¦": 5900,
      "it": 5901,
      "à¬īà¬¨à¬ķ": 5902,
      "à¬ļà¬³à¬®": 5903,
      "à¬³à¬ľàŃŁ": 5904,
      "Ġà¬Ĩà¬¯": 5905,
      "ĠàŃ©àŃ§àŃ¦": 5906,
      "Ġ53": 5907,
      "àŃŁà¬²à¬Ļ": 5908,
      "Ġà¬ªà¬°à¬¨": 5909,
      "à¬Łà¬ªà¬¤à¬Ļ": 5910,
      "Ġà¬ªà¬°à¬¶": 5911,
      "âĢĻ:": 5912,
      "]|": 5913,
      "à¬¿à¬ģàŃ¤": 5914,
      "àŃĦ": 5915,
      "133": 5916,
      "à¬·à¬®à¬ķà¬Łà¬ķ": 5917,
      "97": 5918,
      "à¬²à¬ĺà¬°": 5919,
      "ĠàŃ¬àŃ¯àŃ¯": 5920,
      "à¬ļà¬³à¬ļ": 5921,
      "à´¨": 5922,
      "Ġà¬Ĩà¬ĩà¬¨à¬¸": 5923,
      "Ġà¬°à¬Ĺ": 5924,
      "ĠàŃ¨àŃ§àŃª": 5925,
      "à¬¦àŃŁà¬¬": 5926,
      "Ġà¬Ĺà¬²àŃ±": 5927,
      "à¬¿,\"": 5928,
      "à¬¤àŃŁ": 5929,
      "Ġà¬¨à¬ĸà¬°": 5930,
      "à¬§à¬°à¬£": 5931,
      "Ġà¬¸à¬¹à¬°à¬®": 5932,
      "Ġ2004": 5933,
      "à¬Ĩà¬¨à¬¸": 5934,
      "Ġà¬¬à¬¡à¬Ń": 5935,
      "à¬¶à¬§à¬°": 5936,
      "à¬łà¬Ĺà¬¡": 5937,
      "Ġ78": 5938,
      "à¬ıà¬²à¬ı": 5939,
      "à¬ĩà¬Ńà¬°à¬®": 5940,
      "ðŁĩ": 5941,
      "fere": 5942,
      "à¬·à¬²à¬¤": 5943,
      "ĠàŃ©àŃŃàŃ¨": 5944,
      "à´Ł": 5945,
      "àµĨ": 5946,
      "Ġà¬ıà¬Ĩà¬°": 5947,
      "à¬ľà¬°à¬®": 5948,
      "à¬ıà¬¨à¬ıà¬¸": 5949,
      "Âį": 5950,
      "à¬ŃàŃŁà¬°": 5951,
      "àŃĥàŃį": 5952,
      "Ġà¬¸à¬Ĺ": 5953,
      "Ġà¬°à¬ľà¬°": 5954,
      "àŃ¯àŃ¦àŃ¦": 5955,
      "à¬Ĩà¬¨à¬¯": 5956,
      "à¬°à¬³àŃŁà¬Ļ": 5957,
      "à¬Ńà¬¬à¬°": 5958,
      "Ġà¬ķà¬²à¬ļà¬°": 5959,
      "à¬°à¬°à¬ķ": 5960,
      "à¬·à¬ĺà¬°": 5961,
      "Ġà¬ĵà¬ľà¬¨à¬ķ": 5962,
      "àµĩ": 5963,
      "à¤ļ": 5964,
      "ĠàŃ¨àŃ©àŃ®": 5965,
      "à¬ķà¬Ĩà¬īà¬Ł": 5966,
      "à¬Ľà¬Ł": 5967,
      "à¬¡à¬¬à¬²": 5968,
      "à¬¨à¬°à¬ŀ": 5969,
      "Ġà¬ħà¬ªà¬ļ": 5970,
      "]%": 5971,
      "Ġà¬§à¬¨à¬¬": 5972,
      "]\",": 5973,
      "')": 5974,
      "à¬¤à¬¸à¬°à¬°": 5975,
      "à¬¡à¬°à¬®": 5976,
      "Ġà¬ħà¬ªà¬Ĺ": 5977,
      "Ġ64": 5978,
      "Ġà¤®à¤°": 5979,
      "ĠàŃ§àŃ¯àŃ«àŃª": 5980,
      "à¬¶à¬ł": 5981,
      "àŃģàŃĩ": 5982,
      "à¬£à¬ł": 5983,
      "Aà¬°": 5984,
      "ID": 5985,
      "Ġà¬ŁàŃŁ": 5986,
      "ĠàŃ¨àŃ©àŃ«": 5987,
      "nd": 5988,
      "à¬£à¬²à¬¤": 5989,
      "Ġà¬ķà¬²à¬Ńà¬°": 5990,
      "Ġà¬ıà¬®à¬ľ": 5991,
      "Ġ47": 5992,
      "Ġà¬ħà¬¨à¬Ń": 5993,
      "àŃ±à¬Ĺ": 5994,
      "Ġà¬Ĩà¬ĩà¬ıà¬¸à¬Ĩà¬ĩ": 5995,
      "¿½": 5996,
      "à¬ªà¬¥à¬ķ": 5997,
      "àµĩà´¾": 5998,
      "à¬°à¬®à¬¬": 5999,
      "ĠàŃ¨àŃŃàŃ¯": 6000,
      "Ġ):": 6001,
      "à¬¨à¬°à¬ķ": 6002,
      "Ġà¬¹à¬°à¬£": 6003,
      "ĠàŃ¨àŃ©àŃª": 6004,
      "Ġà¬ľà¬ŀ": 6005,
      "Ġà¬ķà¬Ń": 6006,
      "Ġà¬¸à¬¬à¬¡": 6007,
      "à¬¨à¬§à¬°": 6008,
      "Ġà¬ªà¬¡à¬¨": 6009,
      "Ġà¤Ĩ": 6010,
      "Ġà¬¸à¬®à¬·": 6011,
      "à¬¾à¬¿": 6012,
      "ÑģÐºÐ¸": 6013,
      "à¬¸à¬¨à¬Ĺ": 6014,
      "ĠàŃ¨àŃ¯àŃ«": 6015,
      "ĠàŃ§àŃ¯àŃ«àŃ§": 6016,
      "ĠàŃ¨àŃ«àŃ§": 6017,
      "ĠàŃ¨àŃŃàŃ§": 6018,
      "Ġà¬¡à¬ľà¬¨": 6019,
      "Ġà¬¶à¬ªà¬¥à¬ª": 6020,
      "à¬¤à¬ķà¬°à¬£": 6021,
      "à¬°à¬¤à¬Ļ": 6022,
      "àŃŁà¬¬à¬¦": 6023,
      "ĠàŃ§àŃ¯àŃ¬àŃ©": 6024,
      "à¬ªà¬ľà¬¨": 6025,
      "àŃ±à¬ľà¬¨": 6026,
      "Ġà´®à´²à´¯": 6027,
      "Ìĥ": 6028,
      "à¬ľà¬¬à¬°": 6029,
      "àŃ§àŃ§àŃ¬": 6030,
      "à¬ĩà¬¥à¬¬": 6031,
      "ĠàŃ§àŃ¯àŃ©àŃ¦": 6032,
      "à¬ļà¬®à¬Ł": 6033,
      "Ġà¬Ĩà¬®à¬ª": 6034,
      "à¬ĩà¬ļà¬ķ": 6035,
      "ĠàŃ¨àŃ«àŃª": 6036,
      "à¬ķà¬ķà¬°": 6037,
      "Ġà¬ªàŃ±à¬¨": 6038,
      "\"à¥¤": 6039,
      "à¬Ĺà¬¬à¬¸": 6040,
      "Ġà¬ıà¬ķà¬²à¬¬": 6041,
      "à¬²à¬ªà¬¤": 6042,
      "à¬¸à¬¹à¬°à¬°": 6043,
      "Ġà¬®à¬²à¬¹": 6044,
      "àŃĩà¬¾à¬Ĥ": 6045,
      "ĠàŃ¨àŃªàŃ§": 6046,
      "Ġà¬ıà¬¤à¬¤": 6047,
      "à¬ĩà¬ľà¬°à¬²": 6048,
      "à¬¿âĢĻ,": 6049,
      "ĠàŃ¨àŃ©àŃ¨": 6050,
      "àŃįàŃĩ": 6051,
      "Ġà¬Ĩà¬ĩà¬°": 6052,
      "Ġà¬Ĩà¬ĩà¬¸à¬²": 6053,
      "à¬¬à¬ķà¬ªà¬°": 6054,
      "àŃŁà¬¸à¬®": 6055,
      "à¬Īà¬®": 6056,
      "CO": 6057,
      "à¬¤à¬ķà¬Ł": 6058,
      "ĠàŃ¨àŃ©àŃ§": 6059,
      "à¬ıàŃ±": 6060,
      "à¬¸à¬¬à¬®": 6061,
      "ĠàŃ¨àŃ®àŃ®": 6062,
      "ĠàŃ§àŃ¯àŃ«àŃ¯": 6063,
      "àŃįâĢĮ;": 6064,
      "à¬¬à¬¨à¬¹": 6065,
      "Ġà¬ħà¬¹à¬²": 6066,
      "à¬¦à¬¨à¬ªà¬¤": 6067,
      "Ġà¬¨à¬¬à¬¬": 6068,
      "à¬¨à¬¦àŃŁ": 6069,
      "à¬¢à¬ķ": 6070,
      "Ġà¬ªà¬²à¬Ļ": 6071,
      "à¬¶à¬²à¬Ļ": 6072,
      "à¬°à¬£à¬Ĺ": 6073,
      "ĠàŃ©àŃ§àŃ¨": 6074,
      "à¬¶à¬¬à¬°": 6075,
      "à¬¶à¬¡": 6076,
      "Ġà¬ªà¬°àŃ±": 6077,
      "Ġà¬§à¬®à¬ķà¬ļà¬®à¬ķ": 6078,
      "Ġà¬ıà¬Ĩà¬ĩà¬ıà¬¡": 6079,
      "ĠàŃ§àŃ¯àŃ¬àŃ¬": 6080,
      "Ġà¬¬à¬¨à¬ľ": 6081,
      "Ġà¬ĵà¬ıà¬²": 6082,
      "Ġà¬Ĺà¬ľà¬²à¬ķ": 6083,
      "à¬¤à¬³à¬Ńà¬£": 6084,
      "300": 6085,
      "Ġ978": 6086,
      "Ġà¬ľà¬¬à¬²à¬ª": 6087,
      "Ġà¬¸à¬ħà¬³": 6088,
      "àŃĩà¬¾(": 6089,
      "à¬łà¬Ĺ": 6090,
      "Ġà¬ľàŃŁà¬¯": 6091,
      "ÃĹ": 6092,
      "à¬ĩà¬§à¬°": 6093,
      "à¬·à¬¤à¬°": 6094,
      "à¬ªà¬°à¬²": 6095,
      "à¬¿.):": 6096,
      "à¬¨à¬®à¬Ļ": 6097,
      "Ġà¬ķà¬°à¬¡": 6098,
      "à¬ĵà¬·": 6099,
      "Ġà¬Ĩà¬²à¬¬à¬°": 6100,
      "ĠàŃ©àŃŃàŃŃ": 6101,
      "à¬³à¬ļà¬ķ": 6102,
      "Ġà¬ĨàŃŁà¬¬": 6103,
      "200": 6104,
      "à¬ľà¬¯": 6105,
      "à¬īà¬¦à¬Ļ": 6106,
      "Ġà¬łà¬ķà¬®": 6107,
      "()": 6108,
      "ĊĠĊ": 6109,
      "Ġà¬ħà¬°à¬®": 6110,
      "Ġà¬¯à¬¶à¬¬à¬¨": 6111,
      "Ġà¬¬à¬¡à¬ª": 6112,
      "Ġà¥¤''": 6113,
      "à¬¬à¬ļà¬¨": 6114,
      "Ġà¬ħà¬Ĺà¬£à¬¤": 6115,
      "àŃį/": 6116,
      "à¬®à¬ĩ": 6117,
      "Ġ800": 6118,
      "ĠàŃ©àŃ§àŃ®": 6119,
      "ĠàŃ©àŃ§àŃ¯": 6120,
      "Ġà¬¹à¬Łà¬ļà¬®à¬Ł": 6121,
      "Ġà¬ıà¬ķà¬ļ": 6122,
      "à¬Ĩà¬°à¬Ĩà¬°": 6123,
      "Ġà¬¡à¬®à¬ªà¬¡": 6124,
      "à¬¸à¬ķà¬°à¬Ļ": 6125,
      "Ġà¬ıà¬¸à¬ĵà¬ľ": 6126,
      "Ġ49": 6127,
      "Ġà¤Ń": 6128,
      "ani": 6129,
      "à¬Ńà¬²à¬ª": 6130,
      "ĠàŃ¨àŃŃàŃ©": 6131,
      "à¬ħà¬¯": 6132,
      "Ġà¬ķà¬®à¬¬": 6133,
      "à¬¨à¬¸à¬¬": 6134,
      "à¬§à¬°à¬¨": 6135,
      "àŃŁà¬ªà¬¦": 6136,
      "Ġà¬¡à¬¹": 6137,
      "à¬³àŃŁà¬Ł": 6138,
      "Ġà¬®à¬ľà¬²": 6139,
      "Ġà¬ªà¬°à¬Ń": 6140,
      "Ġà¬ľà¬¨à¬¬à¬¹": 6141,
      "à¬ªà¬²à¬°": 6142,
      "Ġà¬ıà¬®à¬ıà¬®": 6143,
      "ĠàŃªàŃ§àŃ¯": 6144,
      "Ġ46": 6145,
      "Ġà¬¸à¬Łà¬°": 6146,
      "Ġà¬ļà¬·": 6147,
      "à¬¹à¬ļà¬¹à¬ļà¬¹à¬ļà¬¹à¬ļà¬¹à¬ļà¬¹à¬ļà¬¹à¬ļà¬¹à¬ļ": 6148,
      "Ġà¬Ĩà¬īà¬ķ": 6149,
      "Ġà¬°à¬¨àŃ±": 6150,
      "Ġà¬¹à¬ķà¬°": 6151,
      "à¬ļà¬°à¬Ļ": 6152,
      "à¬ıà¬®à¬ıà¬®": 6153,
      "àŃĢâĢĿ": 6154,
      "à¬²à¬ķà¬ļ": 6155,
      "Ġà¬¨à¬£à¬¨": 6156,
      "Ġà¬ľàŃŁà¬²à¬³": 6157,
      "IP": 6158,
      "à¬ıà¬¸à¬¡": 6159,
      "à¬¦à¬ķà¬®": 6160,
      "ĠàŃ¨àŃ®àŃ«": 6161,
      "à¬¸à¬²à¬ķ": 6162,
      "ĠàŃ§àŃ¬àŃ¦àŃ¦": 6163,
      "Ġà¬®à¬¹à¬®à¬¬à¬¤": 6164,
      "à¬¤à¬¨à¬Ĺà¬°": 6165,
      "àŃŁà¬ªà¬Ļ": 6166,
      "à¤ı": 6167,
      "ĠàŃ§àŃªàŃ¦àŃ¦": 6168,
      "nce": 6169,
      "eet": 6170,
      "Ġà¬ĨàŃŁà¬¨": 6171,
      "à¬°à¬£à¬ª": 6172,
      "à¬ıà¬¨à¬Ł": 6173,
      "àŃįâĢĮ/": 6174,
      "Ġà¬ĭà¬¦": 6175,
      "ub": 6176,
      "Ġà¬ħà¬ŃàŃŁà¬Ļ": 6177,
      "Ġà¬®à¬²à¬°": 6178,
      "ding": 6179,
      "Ġà¬ħà¬ľà¬¨": 6180,
      "ĠàŃ¨àŃ¬àŃ§": 6181,
      "ĠàŃ¨àŃ¯àŃ¬": 6182,
      "Ġà¬ħà¬°à¬ķ": 6183,
      "àŃŁà¬ıà¬ķ": 6184,
      "à¬¹à¬²à¬¤": 6185,
      "ĠàŃ¨àŃŃàŃª": 6186,
      "Ġà¬Ĩà¬ļà¬®": 6187,
      "Ġà¬ħà¬¨à¬Ļ": 6188,
      "ĠàŃ¨àŃ¯àŃŃ": 6189,
      "à¬¸à¬ļà¬°": 6190,
      "Ġ43": 6191,
      "Ġà¬¤à¬®à¬¨": 6192,
      "àŃ¨àŃ¦àŃ§àŃ¨": 6193,
      "pa": 6194,
      "ĠàŃ¨àŃ©àŃ¯": 6195,
      "Ġà¬Ĺà¬£à¬¸": 6196,
      "à¬ĨàŃ±": 6197,
      "à¬ħà¬¡": 6198,
      "à¬µà¬ľ": 6199,
      "Ġà¬Ĩà¬¸à¬²": 6200,
      "à¬¨à¬¨à¬Ļ": 6201,
      "à¤·": 6202,
      "Ġà¬ħà¬³à¬¤": 6203,
      "à¬ľàŃŁà¬¨à¬Ĺà¬°à¬®": 6204,
      "Ġà¬ķà¬°à¬Ľà¬¨": 6205,
      "àŃ¨àŃ¦àŃ¦àŃ¦": 6206,
      "à¬ľà¬²à¬ķ": 6207,
      "à¬¹à¬²à¬Łà¬Ļ": 6208,
      "à¬Ńà¬°à¬¤": 6209,
      "ĠàŃ©àŃ¨àŃ¨": 6210,
      "ĠàŃ¨àŃ®àŃ¨": 6211,
      "]='": 6212,
      "Ġà¬¸à¬°à¬¬": 6213,
      "Ġà¬ľà¬¤": 6214,
      "Ġà¬¤à¬¤à¬²": 6215,
      "Ġ!!": 6216,
      "ĠK": 6217,
      "ĠH": 6218,
      "Ġà¬ļà¬īà¬°": 6219,
      "Ġà¬®à¬¨à¬ªà¬¸à¬¨": 6220,
      "ĠàŃ®àŃ©àŃ¦": 6221,
      "Ġà¬¸à¬¦à¬Ń": 6222,
      "Ð°Ñ": 6223,
      "à¬Ľà¬³à¬¤": 6224,
      "à¬Ńà¬¹": 6225,
      "à¬¬à¬°à¬£à¬ķ": 6226,
      "----------------------------------------------------------------": 6227,
      "ive": 6228,
      "à¬īà¬¸à¬ķ": 6229,
      "Ġà¬Ŀà¬Ļ": 6230,
      "Ġ250": 6231,
      "82": 6232,
      "Ġà¬¬à¬Ĺà¬°": 6233,
      "Ġà¬Ĺà¬¤à¬°": 6234,
      "à¬ľà¬°à¬ķ": 6235,
      "Ġà¬®à¬¨à¬²": 6236,
      "ĠàŃ¨àŃ¬àŃŃ": 6237,
      "à¬Łà¬¨à¬°à¬¸": 6238,
      "Ġà¬ıà¬ļà¬Ĩà¬ĩà¬Ń": 6239,
      "à¬¡à¬¯": 6240,
      "Ġà¬īà¬ĩ": 6241,
      "à¬®à¬°à¬°": 6242,
      "ĠâĢĶ": 6243,
      "Ġà¬¬à¬°à¬Ĺà¬Ľ": 6244,
      "ĠàŃ©àŃ¯àŃ¯": 6245,
      "ĠàŃ©àŃ«àŃ©": 6246,
      "Ġà¬īà¬¥": 6247,
      "Ġà¬«à¬³à¬¦": 6248,
      "Ġà¬ĩà¬¡à¬ķ": 6249,
      "ĠàŃ¨àŃªàŃ¨": 6250,
      "à¬ķà¬¬à¬Ļ": 6251,
      "tweet": 6252,
      "Ġà¬¹à¬ī": 6253,
      "à¬¯à¬Ļ": 6254,
      "à¬¶à¬ľ": 6255,
      "Ġà¬ľàŃŁà¬¬": 6256,
      "à¬ĩà¬¨à¬®": 6257,
      "ĠàŃ©àŃ©àŃ¯": 6258,
      "ro": 6259,
      "à¬ªàŃ±": 6260,
      "Ġà¬ħà¬ªà¬¨": 6261,
      "à¬ķà¬°à¬¬à¬°": 6262,
      "Ġà¬ªà¬¦à¬ķà¬°": 6263,
      "Ġà¬ıà¬¨à¬¬": 6264,
      "à¬°à¬®à¬¬à¬°": 6265,
      "à¬¨à¬Łà¬Ļ": 6266,
      "à¬ĩà¬¦à¬°à¬°": 6267,
      "Leading": 6268,
      "Ġà¬°à¬Ĺà¬¬": 6269,
      "à¬¼(": 6270,
      "ĠàŃªàŃ©àŃ¦": 6271,
      "à¬¦à¬°à¬¬à¬¨": 6272,
      "ĠàŃ©àŃ¦àŃ©": 6273,
      "ĠàŃ©àŃ«àŃ¯": 6274,
      "à¬§à¬¬à¬¨": 6275,
      "Ġà¬°à¬Ĺà¬¡": 6276,
      "à¬Ńà¬²à¬ªà¬°": 6277,
      "Ġf": 6278,
      "àŃĢ),": 6279,
      "Ġà¬Ķà¬ªà¬¦": 6280,
      "Ġà¬Ĩà¬ĩà¬ĩà¬¡": 6281,
      "ĠâĢĭâĢĭà¥¤": 6282,
      "à¬°à¬ķà¬ļà¬°": 6283,
      "Ġà¬ıà¬¨à¬Ń": 6284,
      "Ġà¬Ĩà¬īà¬Łà¬¡": 6285,
      "àŃģ/": 6286,
      "à¬®à¬ªà¬°": 6287,
      "à¬²à¬¯": 6288,
      "Ġà¬¤à¬®à¬ķ": 6289,
      "Ġà¬ıà¬ķà¬¬à¬°": 6290,
      "à¬īà¬ľà¬Ļ": 6291,
      "à¤§": 6292,
      "à¬ĩà¬¡à¬¸": 6293,
      "LatestLeading": 6294,
      "à¬ıà¬«à¬ĵà¬Ļ": 6295,
      "à¬Ľà¬ļ": 6296,
      "ĠàŃŃàŃ¨àŃ¦": 6297,
      "Ġà¬ĵà¬Ńà¬°à¬¸": 6298,
      "à¬¿....": 6299,
      "à¬¬à¬¤à¬Ļ": 6300,
      "Ġ(-": 6301,
      "ĠàŃ¨àŃªàŃŃ": 6302,
      "ĠàŃ¨àŃ¬àŃ¬": 6303,
      "ĠâĢĮàŃĩ": 6304,
      "Ġà¬ªà¬²à¬ķ": 6305,
      "Ġà¬¨à¬Ĺà¬²": 6306,
      "ference": 6307,
      "Na": 6308,
      "Ġà¬²à¬Ńà¬²": 6309,
      "Ġà¬§à¬³à¬Ļ": 6310,
      "ĠàŃ©àŃ«àŃ¦àŃ¦": 6311,
      "à¬ķà¬°à¬ªà¬¡": 6312,
      "ĠàŃ¨àŃ®àŃ¯": 6313,
      ".[": 6314,
      "Ã¸": 6315,
      "à¬Ĺà¬Łà¬¨": 6316,
      "fference": 6317,
      "à¬¤à¬ĭà¬¤": 6318,
      "Ġà¬¦à¬³à¬®à¬¤": 6319,
      "Ġà¬ħà¬£à¬ĵà¬¡": 6320,
      "à¬Łà¬Ĺà¬£à¬¤": 6321,
      "Ġà¬Łà¬¨à¬°": 6322,
      "à¬ľàŃŁà¬¶": 6323,
      "àŃįà¬¿": 6324,
      "Ġà¬¸à¬°à¬¦": 6325,
      "Ġà¬ħà¬ªà¬ķà¬®": 6326,
      "ĠàŃ¨àŃŃàŃ®": 6327,
      "à¬ªà¬ļà¬°": 6328,
      "à¬¡à¬¸à¬¨": 6329,
      "à¬¨à¬ĵ": 6330,
      "ĠàŃ©àŃ©àŃ¨": 6331,
      "Ġà¬¹à¬¸à¬°": 6332,
      "à¬ĩà¬²à¬¡": 6333,
      "ĠàŃ¨àŃ«àŃ®": 6334,
      "ĠàŃ¨àŃ®àŃ¬": 6335,
      "arik": 6336,
      "áħ": 6337,
      "à¬¹à¬ķà¬°": 6338,
      "à¬¿à¬ģ-": 6339,
      "à¬¨à¬¬à¬®": 6340,
      "ĠàŃ¨àŃ«àŃ¯": 6341,
      "%),": 6342,
      "à¬¤à¬Ĺà¬£": 6343,
      "Ġà¬ªà¬¦à¬®à¬°": 6344,
      "ĠàŃ§àŃ¯àŃ¨àŃ¯": 6345,
      "à¬£à¬Ł": 6346,
      "à¬ıà¬¸à¬Ĩà¬°": 6347,
      "ĠàŃ§àŃ¯àŃªàŃ¯": 6348,
      "Ġà¬Ĺà¬łà¬¨à¬ķ": 6349,
      "à¬¤à¬³à¬°": 6350,
      "Ġà¬ıà¬ķà¬ķà¬°": 6351,
      "Ġà¬Ĩà¬¤à¬¸à¬¬": 6352,
      "kash": 6353,
      "ck": 6354,
      "à¬¡à¬¹": 6355,
      "Ġà¬Ĺà¬£à¬¹à¬¤": 6356,
      "Ġà¬¨à¬Īà¬°": 6357,
      "Ġà¥¤(": 6358,
      ",\"": 6359,
      "Ġà¬¬à¬¤à¬ķ": 6360,
      "à¬ıà¬ŀ": 6361,
      "Ġ.à¥¤": 6362,
      "Ġà¬ľà¬¨à¬¸à¬¨à¬Ļ": 6363,
      "ĠàŃ©àŃ©àŃ®": 6364,
      "áĦ": 6365,
      "à¬¦à¬®à¬ķ": 6366,
      "ĠàŃ§àŃ§àŃ¦àŃ¦": 6367,
      "ĠàŃ©àŃ©àŃ«": 6368,
      "ĠàŃ©àŃªàŃ®": 6369,
      "Ġl": 6370,
      "Ġà¬ĵà¬Ĩà¬ĩà¬¸": 6371,
      "à¬°à¬ķà¬¸": 6372,
      "à¬°à¬¶à¬¨": 6373,
      "ph": 6374,
      "à¬ĩà¬Łà¬¸": 6375,
      "Ġà¬ľà¬¨à¬§à¬¨": 6376,
      "à´¤": 6377,
      "âĨĲ": 6378,
      ":(": 6379,
      "à¬¤à¬¨à¬Ļ": 6380,
      "à¬ĹàŃŁ": 6381,
      "à¬Ĺà¬¤à¬Ļ": 6382,
      "ĠàŃ§àŃ¯àŃªàŃ«": 6383,
      "à¬¨à¬¸à¬ķ": 6384,
      "à¬®à¬®à¬¤": 6385,
      "à¬īà¬¸à¬¨": 6386,
      "Ġà¬«à¬³à¬¨à¬ķ": 6387,
      "à¬§à¬ķà¬Ļ": 6388,
      "à¬°à¬®àŃŁ": 6389,
      "à¬¼à¬¾à¬ĥ": 6390,
      "Ġà¬¹à¬ķà¬¦": 6391,
      "à¬Ńà¬ŀ": 6392,
      "],âĢĿ": 6393,
      "à¬°à¬Ĺà¬¸": 6394,
      "Ġà¬®à¬¦à¬¨à¬ª": 6395,
      "Ġà¬Ńà¬¨": 6396,
      "Ġà¬Ńà¬ī": 6397,
      "à¬¸à¬¨à¬ł": 6398,
      "Ġ54": 6399,
      "à¬¨à¬®à¬§": 6400,
      "Ġà¬īà¬¸o": 6401,
      "àŃĤàŃĤ": 6402,
      "Ġà¬ĺà¬°à¬®": 6403,
      "à¬Ĩà¬¬à¬¨": 6404,
      "Ġà¬¸à¬¬à¬ľ": 6405,
      "ĠàŃªàŃ¯àŃ®": 6406,
      "ma": 6407,
      "à¬£à¬ķà¬°": 6408,
      "à¬ªà¬¦à¬£": 6409,
      "Ġà¬ªà¬¥à¬°à¬ķ": 6410,
      "ĠàŃŁà¬¸": 6411,
      "Ġ?à¥¤": 6412,
      "Ġà¬ľà¬Ĺà¬¦à¬²à¬ª": 6413,
      "à¬¾à¬ģ:": 6414,
      "à¬ıà¬®à¬ıà¬«à¬¸": 6415,
      "ĠàŃªàŃ¦àŃ©": 6416,
      "à¬¨à¬Ŀ": 6417,
      "Ġà¬Ĺà¬īà¬¡": 6418,
      "à¬¼à¬¿-": 6419,
      "à¬¶à¬£": 6420,
      "Ġà¬Ĺà¬£à¬¬à¬³": 6421,
      "àŃ±à¬¬à¬°": 6422,
      "Ġà¬¶à¬ª": 6423,
      "à¬°à¬¤à¬ł": 6424,
      "Ġà¬Ľà¬¤à¬°": 6425,
      "Ġ||": 6426,
      "à¬¬à¬²à¬Ļ": 6427,
      "à¬°à¬¨à¬Ļ": 6428,
      "Ġà¬¤à¬¬à¬²": 6429,
      "Ġà¬®à¬¨à¬ľ": 6430,
      "ig": 6431,
      "Ġà¬ħà¬łà¬°": 6432,
      "Ġà¬¤à¬°à¬£": 6433,
      "Ġà¬Ĩà¬ĩà¬¨à¬·": 6434,
      "ĠàŃģ": 6435,
      "à¬¬à¬ķà¬Ł": 6436,
      "à¬®à¬ļà¬°à¬£": 6437,
      "Ġà¬ķà¬īà¬¡": 6438,
      "à¬°à¬¤à¬¨": 6439,
      "à¬°à¬®à¬¦": 6440,
      "Ġà¬īà¬ŃàŃŁà¬°": 6441,
      "ĠàŃªàŃ§àŃ¦": 6442,
      "ĠàŃ«àŃ¨àŃ¦": 6443,
      "à¬¹à¬Ńà¬°": 6444,
      "à¬£à¬²": 6445,
      "Ġà¬Łà¬¸à¬°": 6446,
      "ĠàŃ©àŃ©àŃŃ": 6447,
      "àŃªàŃ¯àŃ¯": 6448,
      "àŃģà¥¤'": 6449,
      "à¬Ĺà¬³à¬¸": 6450,
      "à¬®à¬£à¬®": 6451,
      "ĠàŃ¨àŃ¯àŃ¨": 6452,
      "Sà¬°": 6453,
      "ĠàŃ«àŃ§àŃ¦": 6454,
      "àŃŁà¬²àŃŁà¬²àŃŁà¬²àŃŁà¬²": 6455,
      "Ġà¬ħà¬Ńà¬¦": 6456,
      "à¬°àŃŁà¬ķ": 6457,
      "ĠàŃ©àŃ©àŃ¦àŃ¦": 6458,
      "à¬¬à¬Ĺà¬¨à¬Ļ": 6459,
      "à¬¨à¬³": 6460,
      "à¬¶à¬³à¬¤": 6461,
      "ĠàŃ©àŃŃàŃ«": 6462,
      "à¬¤à¬£": 6463,
      "àŃģ..": 6464,
      "à¬¡à¬¡": 6465,
      "à¬°à¬«à¬Ļ": 6466,
      "ĠàŃ¨àŃ¯àŃ¯": 6467,
      "Ġà¬ªà¬Ĺà¬¡": 6468,
      "à¬¦à¬¶à¬¨": 6469,
      "Ġà¬°à¬ķà¬®à¬°": 6470,
      "à¬ıà¬¨àŃŁ": 6471,
      "Ġà¬īà¬¸à¬ķ": 6472,
      "à¬ıà¬Ĩà¬°": 6473,
      "Ġà¬ıà¬¥à¬°à¬°": 6474,
      "à¬¦à¬°à¬®": 6475,
      "Ġà¬¸Î¼": 6476,
      "à¬¹à¬°à¬£à¬°": 6477,
      "àŃŁà¬¸à¬¨": 6478,
      "à¬²à¬¤à¬ķ": 6479,
      "Ġà¤¤": 6480,
      "ĠàŃ¨àŃ¯àŃ§": 6481,
      "ĠàŃªàŃªàŃ¦": 6482,
      "bikash": 6483,
      "Ġbarik": 6484,
      "Ġbarikbikash": 6485,
      "ĠV": 6486,
      "à¬Łà¬ªà¬¡": 6487,
      "à¬·à¬³": 6488,
      "à¬¿.,": 6489,
      "Ġà¬°à¬·": 6490,
      "Ġà¬Ĩà¬īà¬ľà¬£": 6491,
      "Ġà¬¸à¬¦à¬°à¬¥": 6492,
      "à¬²à¬Ĺà¬°": 6493,
      "Â«": 6494,
      "à¬ĩà¬ľà¬°à¬°": 6495,
      "ĠàŃ¨àŃ¬àŃ®": 6496,
      "ĠàŃ©àŃ§àŃŃ": 6497,
      "ĠàŃ©àŃ§àŃ¬": 6498,
      "àŃŁà¬²à¬®": 6499,
      "à¬Ĺà¬Ńà¬Ļ": 6500,
      "Ġà¬ħà¬«à¬°à¬°": 6501,
      "ï¿½": 6502,
      "à¬¾,(": 6503,
      "à¬¦à¬®à¬¨": 6504,
      "à¬ľà¬²à¬Ļ": 6505,
      "ĠW": 6506,
      "Ġà¬¶à¬¬à¬Ł": 6507,
      "ĠàŃ©àŃ§àŃ§": 6508,
      "à¬¸à¬Ĩà¬ªà¬°": 6509,
      "Ġà¬ħà¬ķà¬¸": 6510,
      "Ġà¬ĭà¬£à¬ķ": 6511,
      "à¬ªà¬ıà¬£": 6512,
      "ĠàŃªàŃ®àŃ§": 6513,
      "à¬¡à¬¸à¬®": 6514,
      "ĠàŃ©àŃ¨àŃª": 6515,
      "Ġà¬ĩà¬¨à¬¸à¬ª": 6516,
      "à¬Ĺà¬¤à¬°": 6517,
      "Ġà¬¦à¬¦à¬°": 6518,
      "Ġà¬ľà¬®à¬¨à¬ķ": 6519,
      "àŃŁà¬ķà¬Ł": 6520,
      "Ġ52": 6521,
      "à¬®à¬¤à¬°": 6522,
      "àŃĤàŃį": 6523,
      "ĠàŃ¨àŃ¬àŃ¯": 6524,
      "Ġà¬¦à¬¶à¬®à¬¨": 6525,
      "à¬Łà¬¬à¬³à¬Ļ": 6526,
      "Ġà¬¬à¬«": 6527,
      "ĠLive": 6528,
      "Ġà¬ķà¬¦à¬°": 6529,
      "à¬ľà¬¹à¬°": 6530,
      "à¬ıà¬ļà¬ª": 6531,
      "Ġà¬ľà¬ĵ": 6532,
      "Ġà¬Ĩà¬¦à¬°à¬£": 6533,
      "à¬ļà¬¯": 6534,
      "Ġà¬ħà¬ķà¬²": 6535,
      "ÌĨ": 6536,
      "Ġà¬®à¬¦à¬ķ": 6537,
      "à¬ĩà¬Łà¬®": 6538,
      "à¬ªà¬¦à¬®": 6539,
      "à¬Ľà¬²": 6540,
      "Ġà¬¸à¬°à¬¨": 6541,
      "Ġà¬ĺà¬°à¬¡": 6542,
      "Ġà¬¨à¬¬à¬®à¬°": 6543,
      "Ġ57": 6544,
      "Ġà¬Ĺà¬Ľà¬®": 6545,
      "à¬®à¬¸à¬°": 6546,
      "Ġà¬¸à¬¤à¬¸à¬Ļ": 6547,
      "Ġà¬¬à¬ĩà¬£": 6548,
      "Ġà¬¹à¬ĩà¬ľ": 6549,
      "à¬¨à¬ķà¬ķ": 6550,
      "à¬¿àŃĢ": 6551,
      "ĠàŃ¯àŃªàŃ©àŃŃ": 6552,
      "à¬°à¬ĺà¬°": 6553,
      "Ġà¬«à¬³à¬®": 6554,
      "à¬ĸà¬°à¬ķ": 6555,
      "à¬Ĩà¬ĩà¬Ĩà¬ĩà¬Ł": 6556,
      "Ġà¬ĭà¬·à¬ķ": 6557,
      "Ġà¬«à¬³à¬ķà¬°": 6558,
      "de": 6559,
      "àŃĢâĢĮ": 6560,
      "à¬¤à¬°à¬Ń": 6561,
      "à¬¿à¬ģ...": 6562,
      "ĠàŃ§àŃ¦àŃŃàŃ®": 6563,
      "Ġà¬¬à¬¡à¬¸": 6564,
      "à¬¨à¬¸à¬¨à¬°": 6565,
      "à¬¼à¬ĥ.": 6566,
      "ĠàŃŃàŃ¬àŃ¦": 6567,
      "ĠàŃ©àŃ¦àŃ«": 6568,
      "Ġà¬¬à¬ı": 6569,
      "Ġà¬ľà¬³à¬ľà¬³": 6570,
      "Ì§": 6571,
      "àŃŁà¬«à¬³": 6572,
      "à¬ĩà¬ľà¬¡": 6573,
      "àŃĩà¬¾âĢį": 6574,
      "Ġà¬¸à¬¬à¬ĩà¬¨": 6575,
      "à¬Ĩà¬¤à¬Ļ": 6576,
      "àŃģâĢĿ": 6577,
      "à¬¿:-": 6578,
      "Ġà¬²àŃŁ": 6579,
      "Ġà¬¸à¬¹à¬°à¬ł": 6580,
      "ĠàŃ©àŃŃàŃ¯": 6581,
      "à¬¬à¬¬à¬¤": 6582,
      "à¬®à¬²à¬°": 6583,
      "ĠàŃ§àŃ©àŃ¦àŃ¦": 6584,
      "ĠàŃ«àŃªàŃ¬": 6585,
      "ts": 6586,
      "Ġà¬Ĩà¬ĩà¬ĵà¬ıà¬¸": 6587,
      "Ġà¬¬à¬¦à¬²": 6588,
      "Ġà¬¸à¬¬à¬³": 6589,
      "ĠâĢį": 6590,
      "Ġ1990": 6591,
      "ily": 6592,
      "à¬£à¬¬à¬³": 6593,
      "à¬·à¬¤à¬®": 6594,
      "Ġà¬ªà¬°à¬·à¬¨": 6595,
      "Ġà¬¹à¬²à¬ļà¬²": 6596,
      "à¬ĩà¬®à¬¨": 6597,
      "ĠàŃ¨àŃ¯àŃ®": 6598,
      "àŃįâĢĮâĢĿ": 6599,
      "].,": 6600,
      "Ġà¬ħà¬§à¬¸": 6601,
      "à¬¬à¬¨à¬ª": 6602,
      "à¬®à¬ªà¬¦": 6603,
      "à¬«à¬®": 6604,
      "Ġà¬īà¬łà¬¨": 6605,
      "Ġà¬ªà¬Ľà¬ª": 6606,
      "ĠàŃ¨àŃ«àŃ©": 6607,
      "à¬īà¬¡à¬¸": 6608,
      "à¬¨à¬°à¬¸": 6609,
      "à¬¡à¬°à¬Ĺ": 6610,
      "Ġà¬Ńà¬¤à¬°": 6611,
      "à¬°à¬¶à¬®": 6612,
      "à¬Ĺà¬®à¬¨à¬ķ": 6613,
      "à¬ħà¬°à¬¬": 6614,
      "à¬¤à¬³à¬·à¬·": 6615,
      "Ġà¬Ĩà¬ĩà¬ıà¬«à¬ıà¬¸": 6616,
      "Ġà¬§à¬ĵ": 6617,
      "à¬Ĺà¬¤à¬¬à¬°": 6618,
      "à¬¶à¬·": 6619,
      "à¬ªà¬¹à¬°à¬°": 6620,
      "à¬Łà¬ªà¬¦": 6621,
      "Ġà¬®à¬¨à¬Ĺà¬¢": 6622,
      "à¬¤à¬ķà¬¬": 6623,
      "Ġà¬ķà¬Łà¬ķà¬ķ": 6624,
      "Ġ600": 6625,
      "Ġ|,": 6626,
      "àŃŁà¬ļà¬ķ": 6627,
      "Ġà¬¹à¬°à¬¨": 6628,
      "à¬¡à¬¸à¬Ń": 6629,
      "àŃ§àŃ«àŃ¦": 6630,
      "à¬¡à¬°à¬ª": 6631,
      "Ġà¬®à¬¹à¬²à¬¤": 6632,
      "Ġ59": 6633,
      "Ġà¬Ĭà¬£": 6634,
      "gra": 6635,
      "ĠàŃ§àŃ¯àŃªàŃ¦": 6636,
      "Ġà¬ħà¬Ĺà¬°à¬¤": 6637,
      "à¬Ĺà¬®à¬¤": 6638,
      "ĠàŃ¨àŃ¬àŃ©": 6639,
      "Ġà¬¦à¬®à¬ķà¬³à¬¬": 6640,
      "à¬¥à¬ķà¬°": 6641,
      "à¬¦à¬ļà¬²": 6642,
      "à¬ıà¬ĵ": 6643,
      "Ġà¬¶à¬°à¬£à¬ķ": 6644,
      "ĠàŃ¨àŃ®àŃª": 6645,
      "Ġà¬¸à¬ĩà¬¦": 6646,
      "à¬ĸà¬®à¬£": 6647,
      "à¬²à¬ķà¬®": 6648,
      "à¬·à¬®àŃŁ": 6649,
      "Ġ51": 6650,
      "Ġà¬ĩà¬ķà¬®": 6651,
      "ĠàŃ©àŃ©àŃ§": 6652,
      "ĠàŃŃàŃ¦àŃ¦àŃ¦": 6653,
      "ĠàŃªàŃ¯àŃ¯": 6654,
      "si": 6655,
      "à¬¾....": 6656,
      "à¬Ńà¬°à¬ķ": 6657,
      "à¬Łà¬ķà¬Ł": 6658,
      "Ġà¬«à¬³à¬¤": 6659,
      "ĠàŃ§àŃŃàŃ¦àŃ¦": 6660,
      "Ġà¬«à¬¡à¬¨à¬¬": 6661,
      "Ġà¬¤à¬®à¬°": 6662,
      "ge": 6663,
      "ĠàŃ©àŃ¨àŃ§": 6664,
      "Ġà¬¬à¬°à¬°": 6665,
      "à¬Łà¬¬à¬¨": 6666,
      "Ġà¬Ĩà¬Ī": 6667,
      "à¬ıà¬ĵà¬Ńà¬°": 6668,
      "à¬¬à¬ĸ": 6669,
      "à¬ģ:": 6670,
      "Ġà¬¡à¬®à¬£": 6671,
      "ĠàŃ©àŃ¦àŃ®": 6672,
      "ĠàŃ©àŃ¯àŃ¦": 6673,
      "à¬¡à¬°àŃ±": 6674,
      "Ġà¬Ĩà¬Ĺà¬¨": 6675,
      "àŃ¨àŃ¦àŃ§àŃ¦": 6676,
      "à¬Ĺà¬¬à¬£": 6677,
      "Ġ86": 6678,
      "à¬īà¬¡à¬ķ": 6679,
      "Ġà¬ĸà¬Łà¬°": 6680,
      "Ġà¬Ĩà¬°à¬ıà¬®à¬¸": 6681,
      "]);": 6682,
      "????": 6683,
      "à¬ĩà¬®à¬²": 6684,
      "Ġà¬§à¬°à¬¨": 6685,
      "à¬ģ-": 6686,
      "à¬°à¬ķà¬£": 6687,
      "Ġ99": 6688,
      "Ð¾": 6689,
      "Ġà¬ľà¬ķ": 6690,
      "à¤Ń": 6691,
      "Ġà¬Ĩà¬ĩà¬¨à¬®à¬¨": 6692,
      "ðŁĳ": 6693,
      "à¬§à¬¡à¬ķ": 6694,
      "Ġà¬Ńà¬Łà¬²": 6695,
      "Ġà¬¸à¬¹àŃŁà¬¤": 6696,
      "Ġà¬¥à¬²": 6697,
      "à¬¬à¬¦à¬³à¬¨": 6698,
      "Ġ72": 6699,
      "Ġ1970": 6700,
      "à¬Ĳà¬¤": 6701,
      "Ġbitly": 6702,
      "à¬ªà¬¤à¬¨": 6703,
      "Ġà¬¬à¬¹à¬³": 6704,
      "ĠàŃŁà¬ľ": 6705,
      "Ġ58": 6706,
      "àŃįâĢĮ',": 6707,
      "Ġà¬¤à¬Łà¬¬à¬°": 6708,
      "Ġà¬ħà¬¸à¬¹à¬ľ": 6709,
      "Ġà¤ķà¤°": 6710,
      "Ġà¬¬à¬¡à¬§à¬°à¬£à¬°": 6711,
      "à¬ķà¬¦à¬³": 6712,
      "à¥¤\"\"\"": 6713,
      "Ġà¬ıà¬ıà¬«": 6714,
      "à¬ļo": 6715,
      "à¬Ĺà¬°à¬¸": 6716,
      "Ġà¬ħà¬¶à¬°": 6717,
      "à¬ħà¬¬à¬¶": 6718,
      "âģ": 6719,
      "Ġà¬¸à¬Ĺà¬°": 6720,
      "à¬Łà¬®à¬£": 6721,
      "à¬¦à¬²à¬Ļ": 6722,
      "Ġà¬ĸà¬¤à¬°": 6723,
      "daily": 6724,
      "à¬®à¬Łà¬°": 6725,
      "str": 6726,
      "à¬ķà¬ŀ": 6727,
      "à¬³à¬¸à¬°": 6728,
      "à¬Ĩà¬¬à¬ľ": 6729,
      "àŃģàŃ¤": 6730,
      "Ġà¬ħà¬ĸà¬°": 6731,
      "]\").": 6732,
      "à¬Łà¬¬à¬Ł": 6733,
      "Ġà¬Ńà¬¬à¬¤": 6734,
      "ĠàŃ§àŃ¯àŃ©àŃª": 6735,
      "à¬¨à¬Łà¬°": 6736,
      "à¬ģ)": 6737,
      "Ġà¬ıà¬¥à¬°à¬ķ": 6738,
      "ĠàŃ«àŃ§àŃ¨": 6739,
      "Ġà¬¡à¬ļ": 6740,
      "à¬°à¬¹à¬¸à¬¨": 6741,
      "ĠàŃ¯àŃ«àŃ¦": 6742,
      "à¬ªà¬¦à¬³à¬¨": 6743,
      "mm": 6744,
      "à¬ªà¬¸à¬ķ": 6745,
      "Ġà¬¹à¬¦": 6746,
      "à¬°à¬£à¬®": 6747,
      "Ġà¬ıà¬®à¬°à¬ľ": 6748,
      "àŃŁà¬³àŃŁà¬°": 6749,
      "à¬ħà¬²à¬Ĺ": 6750,
      "Ġà¬Ńà¬²à¬®à¬¨": 6751,
      "ĠàŃ¯àŃ¨àŃ¨": 6752,
      "à¬ĩà¬¡à¬ķ": 6753,
      "àŃŁà¬Łà¬¨à¬ķ": 6754,
      "Ġà¬®à¬³à¬¤": 6755,
      "à¬ĺà¬Łà¬¨": 6756,
      "ĠàŃªàŃ§àŃ«": 6757,
      "ĠàŃ©àŃ©àŃ¬": 6758,
      "Ġà¬ĨàŃŁà¬°à¬²": 6759,
      "Ġà¬¤à¬¨àŃŁ": 6760,
      "à¬°à¬ķà¬¸à¬¨": 6761,
      "Ġà¬ªà¬¹à¬ļ": 6762,
      "ĠàŃ©àŃ«àŃŃ": 6763,
      "àŃįâĢįà¥¤": 6764,
      "600": 6765,
      "Ñĥ": 6766,
      "à¬Ĩà¬ĺ": 6767,
      "Ġà¬īà¬ľà¬¬": 6768,
      "Ġà¬ľà¬³à¬Ľà¬¤": 6769,
      "à¬£à¬§à¬°": 6770,
      "à¬ĸà¬³à¬°": 6771,
      "à¬·à¬¤à¬¬": 6772,
      "à¬¿.)-": 6773,
      "à¬ıà¬²à¬Ĺ": 6774,
      "ĠàŃ©àŃ¦àŃ¯": 6775,
      "à¬§à¬¹à¬¸": 6776,
      "Ġà¬°àŃŁà¬Ļ": 6777,
      "Ġà¬®à¬°à¬£à¬¯à¬¨": 6778,
      "Ġà¬ıà¬ıà¬®": 6779,
      "Ġà¬§à¬¨à¬¶": 6780,
      "àŃŁà¬§à¬°": 6781,
      "graph": 6782,
      "à¬ľà¬ªà¬°": 6783,
      "à¬ªà¬ķà¬¤": 6784,
      "ĠàŃ¨àŃ®àŃ©": 6785,
      "Ġà¬Ĩà¬ļà¬°à¬£à¬¬": 6786,
      "à¬Łà¬ĸà¬£": 6787,
      "Ġà¬ªà¬°à¬Ł": 6788,
      "Ġà¬¡à¬ķà¬°": 6789,
      "à¬Ĺà¬£à¬®": 6790,
      "à¬¼àŃįâĢį": 6791,
      "à¬¾à¥¤'": 6792,
      "Ġà¬¸à¬°à¬ľà¬®": 6793,
      "à¬°à¬ľà¬Ĺà¬¤": 6794,
      "à¬³à¬¡": 6795,
      "à¬īà¬ªà¬¨": 6796,
      "à¬ķà¬ķà¬·": 6797,
      "à¬ħà¬¬à¬¦": 6798,
      "Ġà¬Ĩà¬®à¬ł": 6799,
      "à¬®à¬ķà¬²": 6800,
      "àŃŁà¬¸à¬¬": 6801,
      "Ġà¬ŃàŃŁà¬ķ": 6802,
      "à¬®à¬¯à¬ľ": 6803,
      "Ġà¬®à¬¨à¬Ľ": 6804,
      "Ġà¬ķà¬¨à¬¸à¬²à¬Ł": 6805,
      "\"#": 6806,
      "à¬ķà¬®à¬³": 6807,
      "à¬¡à¬ĵ": 6808,
      "à¬ĩà¬®à¬¸": 6809,
      "Ġ2002": 6810,
      "Ġà¬§à¬¨à¬ĸà¬¡": 6811,
      "à¬¯à¬ª": 6812,
      "2018": 6813,
      "ĠàŃ©àŃ¨àŃ¯": 6814,
      "Ġà¬ħà¬§à¬°à¬ªà¬£": 6815,
      "à¬ĩà¬¬à¬°à¬°": 6816,
      "Ġà¬¸à¬¦à¬°à¬®": 6817,
      "Ġdifference": 6818,
      "à¬¿âĢĭâĢĮ": 6819,
      "àŃĢà¬Ĥ": 6820,
      "âĢ²": 6821,
      "Ġà¬ĵà¬°à¬®": 6822,
      "à¬¾à¬ģâĢĻ": 6823,
      "à¬·à¬ªà¬¥à¬°": 6824,
      "Ġà¬ħà¬ľà¬¬à¬ĸà¬¬à¬°": 6825,
      "Ġà¬ªà¬°à¬«à¬°": 6826,
      "Ġ=\"": 6827,
      "à¬ªà¬Ń": 6828,
      "à¬ıà¬®à¬ª": 6829,
      "àŃģà¬¿": 6830,
      "à¬¤à¬°à¬¤": 6831,
      "ÛĮ": 6832,
      "Ġà¬¶à¬¤à¬ķà¬°": 6833,
      "Ġà¬¬à¬Ń": 6834,
      "Ġà¬ħà¬ķà¬°": 6835,
      "à¬ħà¬°à¬ķ": 6836,
      "à¬¿à¬ģ!": 6837,
      "à¬ĩà¬¨à¬«": 6838,
      "à¬®à¬¤à¬¤": 6839,
      "Ġà¬ıà¬ķà¬°à¬ķà¬®": 6840,
      "à¬ĩà¬ķà¬Ł": 6841,
      "ĠàŃ§àŃ¯àŃ¨àŃ¦": 6842,
      "Ġà¬ľà¬³à¬ľ": 6843,
      "ĠàŃ©àŃ©àŃª": 6844,
      "àŃĩàŃĸàŃĩ": 6845,
      "à¬³à¬¦à¬£": 6846,
      "àŃģà¬¾": 6847,
      "ĠàŃ«àŃ¨àŃ«": 6848,
      "à¬³à¬Ľ": 6849,
      "à¬¸à¬®à¬¹": 6850,
      "à¬°à¬Ĺà¬³": 6851,
      "à¬¤à¬ł": 6852,
      "Ġà¬ĵà¬¤": 6853,
      "Ġà¬§à¬¨à¬¸à¬®": 6854,
      "Ġà¬Ľà¬ī": 6855,
      "à¬ĩà¬¸à¬ľ": 6856,
      "Ġà¬ħà¬Ľà¬ª": 6857,
      "]*": 6858,
      "Ġ63": 6859,
      "à¬Ĺà¬§à¬°": 6860,
      "Ġà¬ħà¬ľà¬¸": 6861,
      "Ġà¬¥à¬¬": 6862,
      "à¬³à¬ķà¬Ł": 6863,
      "Ġà¬¬à¬³à¬¬": 6864,
      "Ġ$(\"#": 6865,
      "à¬¨à¬ļà¬°": 6866,
      "ĠĠĊĊ": 6867,
      "à¬·à¬£à¬¬": 6868,
      "à¬¾âĢĻà¥¤": 6869,
      "ĠàŃ¨àŃŃàŃŃ": 6870,
      "Ġà¬ħà¬¸à¬®àŃŁà¬°": 6871,
      "))": 6872,
      "à¬ıà¬·": 6873,
      "ĠàŃªàŃ§àŃ¬": 6874,
      "Ġà¬¡à¬°à¬°": 6875,
      "Ġà¬ľà¬Ĺà¬¨à¬®": 6876,
      "Ġà¬ıà¬«à¬Ĩà¬ĩ": 6877,
      "àŃĤàŃģ": 6878,
      "à¬¤à¬¨à¬ľà¬¨": 6879,
      "Ġà¬ħà¬ªà¬¦à¬¸": 6880,
      "Ġ85": 6881,
      "à¬¹o": 6882,
      "à¬ĩà¬ıà¬«": 6883,
      "Ġà¬ķà¬°à¬®": 6884,
      "Ġà¬Ĩà¬¸à¬ķ": 6885,
      "àŃ±à¬°à¬¬": 6886,
      "à¬¡à¬°à¬Ł": 6887,
      "ĠàŃªàŃ¬àŃ¦": 6888,
      "à¬Łà¬¨à¬Ļ": 6889,
      "ĠàŃ«àŃ«àŃª": 6890,
      "àŃ¦àŃ®àŃª": 6891,
      "à¬¸à¬Ĺà¬¤": 6892,
      "à¬·à¬°à¬ķ": 6893,
      "à¬ĺà¬Ľ": 6894,
      "ĠàŃªàŃ¨àŃª": 6895,
      "Ġà¬ħà¬¡à¬¬": 6896,
      "Ġà¬ĸà¬ĩ": 6897,
      "à¬°à¬®à¬Ł": 6898,
      "à¬®à¬Ŀ": 6899,
      "à¬¼à¬¼": 6900,
      "à¬ħà¬ĸ": 6901,
      "à¬¿à¬ģà¥¤'": 6902,
      "ĠàŃ¨àŃ®àŃŃ": 6903,
      "ĠàŃ®àŃ¬àŃª": 6904,
      "Ġ1994": 6905,
      "Âģà¬¾": 6906,
      "LI": 6907,
      "à¬ģ?": 6908,
      "ĠàŃªàŃ§àŃ®": 6909,
      "Ġà¬ħà¬£à¬¶": 6910,
      "à¬ĩà¬¶à¬¹": 6911,
      "Ġà¬ľà¬³à¬¶à¬ķ": 6912,
      "ĠàŃ©àŃªàŃ«": 6913,
      "à¬¥à¬ķà¬¬": 6914,
      "Ġà¬ľà¬²àŃ±": 6915,
      "ĠàŃ®àŃ¦àŃ¦àŃ¦": 6916,
      "ĠàŃ©àŃ¬àŃ¬": 6917,
      "tal": 6918,
      "VID": 6919,
      "Ĺı": 6920,
      "àŃĩà¬¾à¬ĥ": 6921,
      "à¬Ĺà¬ľà¬¨": 6922,
      "à¬Ĩà¬ľà¬ķ": 6923,
      "Ġà¬Ńà¬·": 6924,
      "Ġ1980": 6925,
      "àŃŁà¬²à¬ķ": 6926,
      "Ġà¬¬à¬«à¬°": 6927,
      "à¬¿,âĢľ": 6928,
      "à¬¦à¬°à¬Ĺ": 6929,
      "à¬ªà¬°à¬«": 6930,
      "ĠàŃªàŃ§àŃŃ": 6931,
      "Ġà¬ıà¬¸à¬ıà¬¸": 6932,
      "].'": 6933,
      "à¬Ĩà¬ĩà¬ıà¬¨": 6934,
      "à¬·à¬ķà¬¤à¬¤": 6935,
      "Ġà¬ĭà¬£à¬Ń": 6936,
      "à¬ıà¬ıà¬¨": 6937,
      "à¬¨à¬¸à¬¨à¬Ń": 6938,
      "Ġà¬¸à¬¦à¬°à¬®à¬¹à¬ķ": 6939,
      "à¬ªà¬°à¬ľ": 6940,
      "à¬Łà¬ķà¬²": 6941,
      "ĠàŃ©àŃ«àŃ§": 6942,
      "à¬²à¬īà¬¡": 6943,
      "Ġà¬¶à¬·": 6944,
      "Ġà¬¥à¬³": 6945,
      "Ġà¬Ĺà¬Ľà¬²à¬¤": 6946,
      "àŃŁà¬¸à¬Ļ": 6947,
      "à¬ķà¬²à¬ļà¬°": 6948,
      "ĠàŃ©àŃ®àŃ¬": 6949,
      "à¬·à¬°à¬£": 6950,
      "à¬¼à¬¾.": 6951,
      "à¬ķà¬¸à¬¨à¬°": 6952,
      "';": 6953,
      "ĠàŃ©àŃ¬àŃª": 6954,
      "ĠàŃªàŃŃàŃ§": 6955,
      "àŃ¨àŃ¦àŃ¦àŃ®": 6956,
      "Ġà¬ķà¬¸à¬®": 6957,
      "à¬§à¬¦à¬Ĺ": 6958,
      "ĠàŃªàŃŃàŃ¦": 6959,
      "à¬Ĺà¬¹à¬°": 6960,
      "ĠàŃ§àŃ¯àŃ©àŃ§": 6961,
      "à¬¶à¬¤à¬Ļ": 6962,
      "à¬ıà¬ļà¬°": 6963,
      "à¬ĩà¬Ĩà¬²à¬°": 6964,
      "à¬¦à¬°à¬¬": 6965,
      "Ġà¬¬à¬Łà¬²à¬°à¬Ļ": 6966,
      "à¬³à¬ĺà¬°": 6967,
      "Ġ83": 6968,
      "Ġà¬ĵà¬¹à¬³": 6969,
      "à¬¨à¬ĺ": 6970,
      "à¬¹à¬³à¬ª": 6971,
      "Ġà¬¬àŃŁà¬¨à¬¶": 6972,
      "à¬īà¬ªà¬ķà¬°à¬£": 6973,
      "à¬¤à¬ľà¬¨": 6974,
      "à¬¦à¬¨à¬¯": 6975,
      "à¬Ĩà¬°à¬ıà¬«à¬°": 6976,
      "Ġà¬ļà¬īà¬¤": 6977,
      "Ġà¬¸à¬¹à¬§à¬°": 6978,
      "Ð½": 6979,
      "à¬¹à¬¤à¬®": 6980,
      "àŃŁà¬°à¬¸": 6981,
      "àŃĩà¬¾)-": 6982,
      "àŃģ:-": 6983,
      "à¬¨à¬§": 6984,
      "à¬ĩà¬Ĩà¬°à¬¸": 6985,
      "àŃ±à¬³à¬¤": 6986,
      "à¬ıà¬¨à¬°": 6987,
      "Ġà¬¸à¬¹à¬°à¬¸": 6988,
      "Ġà¬¥àŃŁ": 6989,
      "àŃ¯àŃ®àŃ¦": 6990,
      "Ġà¬ľà¬³à¬²": 6991,
      "Ġà¬ļàŃŁà¬¨à¬ķ": 6992,
      "Ġà¬®à¬¤à¬Ĺà¬£à¬¨": 6993,
      "Ġà¤Ĺ": 6994,
      "à¬ļà¬²à¬°": 6995,
      "Ġà¬ĩà¬ħà¬¨": 6996,
      "à¬ĩà¬Ńà¬°à¬°": 6997,
      "ĠàŃªàŃ¬àŃ§": 6998,
      "à¬®à¬ĺà¬Łà¬°": 6999,
      "à¬¤à¬¬à¬¨": 7000,
      "Ġà¬¸à¬ļà¬³": 7001,
      "Ġà¬Ĩà¬®à¬¤": 7002,
      "à¬¨à¬ķà¬²": 7003,
      "à¬µà¬¦": 7004,
      "à¬ıà¬®à¬¡à¬¬": 7005,
      "Ġ68": 7006,
      "ĠàŃªàŃ¨àŃ«": 7007,
      "Ġà¬®à¬ĩà¬°": 7008,
      "Ġà¬Ĩà¬īà¬¨": 7009,
      "Ġà¤¯": 7010,
      "ĠàŃªàŃªàŃ©": 7011,
      "Ġà¥¤........": 7012,
      "Ġà¬ľà¬¨à¬Ļ": 7013,
      "à¬łà¬ķà¬Ł": 7014,
      "ĠàŃ©àŃ®àŃª": 7015,
      "à¬ħà¬¹à¬®": 7016,
      "à¬ıà¬¸à¬ĵ": 7017,
      "Ġà¤¶": 7018,
      "à¬¤à¬ªà¬¤": 7019,
      "Ġà¬Ĩà¬Ńà¬°": 7020,
      "à¬¸à¬¦à¬¸": 7021,
      "Ġà¬®à¬¢": 7022,
      "à¬¿)-": 7023,
      "ĠàŃ©àŃ¯àŃ«": 7024,
      "ĠàŃ§àŃ¯àŃ«àŃ©": 7025,
      "Ðµ": 7026,
      "Ġà¬¯à¬¯": 7027,
      "Ġà¬ĺà¬¨à¬«": 7028,
      "à¬ľàŃŁà¬²": 7029,
      "ĠàŃªàŃ®àŃ®": 7030,
      "Ġà¬ıà¬²à¬Ł": 7031,
      "ĠàŃ§àŃ¯àŃ©àŃ®": 7032,
      "á±": 7033,
      "à¬²à¬ªà¬®": 7034,
      "à¬ĸà¬ªà¬¤": 7035,
      "à¬Ĩà¬°à¬ıà¬²": 7036,
      "àŃ¦àŃ§àŃª": 7037,
      "ĠàŃªàŃ¨àŃ¨": 7038,
      "Ġà¬¸à¬«à¬³à¬¤à¬®": 7039,
      "à¬Ŀà¬°à¬Ĺà¬¡": 7040,
      "à¬¿.)": 7041,
      "ĠàŃªàŃ©àŃ¬": 7042,
      "à¬¬àŃŁà¬¨": 7043,
      "à¬¹à¬°à¬°": 7044,
      "Ġà¬®à¬ª": 7045,
      "ĠàŃ©àŃªàŃ¬": 7046,
      "Ġà¬ħà¬¨à¬®": 7047,
      "Ġ),": 7048,
      "àŃ¨àŃ§àŃ¬": 7049,
      "à¬®à¬¨à¬¬": 7050,
      "à¬ıà¬®à¬ıà¬«": 7051,
      "à¬®àŃŁà¬ķ": 7052,
      "à¬§à¬ªà¬°": 7053,
      "Ġà¬ľà¬¨à¬¶à¬ķ": 7054,
      "à´Ļ": 7055,
      "à¬ģà¬ģ": 7056,
      "à¬īà¬·": 7057,
      "àŃĩà¥¤à¥¤": 7058,
      "à¬¤à¬¦à¬¶": 7059,
      "à¬īà¬²à¬Ļ": 7060,
      "à¬µà¬²": 7061,
      "Ġà¬Ĩà¬ĩà¬¡à¬²": 7062,
      "Ġà¬Ĺà¬łà¬¬à¬¨": 7063,
      "à¬Ľà¬ķà¬°": 7064,
      "à¬ŀà¬¸": 7065,
      "Ġà¬®à¬¨à¬¬": 7066,
      "à¬³à¬¨à¬²": 7067,
      "à´ª": 7068,
      "Ġà¬ĸà¬¡à¬Ĺ": 7069,
      "ĠàŃ«àŃ©àŃ¦": 7070,
      "ĠàŃ«àŃ¬àŃ¦": 7071,
      "à¬°à¬®à¬®": 7072,
      "à¬ħà¬Ŀ": 7073,
      "yesà¬ıà¬®": 7074,
      "ĠEyesà¬ıà¬®": 7075,
      "àŃŁà¬ľà¬£à¬Ļ": 7076,
      "à¬ªà¬°à¬¨": 7077,
      "Ġà¬®à¬¸à¬Ĺ": 7078,
      "à¬¦à¬®à¬Ļ": 7079,
      "à¬¥à¬¨à¬ķ": 7080,
      "àŃ¨àŃ«àŃ¦": 7081,
      "à¬¤à¬¨à¬ł": 7082,
      "ĠàŃªàŃ¦àŃ§": 7083,
      "Ġà¬ªà¬¥à¬°à¬®": 7084,
      "Ġà¬ļà¬®à¬ķà¬ª": 7085,
      "is": 7086,
      "à¬ªà¬Ľà¬°": 7087,
      "à¬Ĩà¬²à¬ķ": 7088,
      "Ġà¬ļà¬ıà¬¸": 7089,
      "à¬Łà¬°à¬¡": 7090,
      "ĠàŃ©àŃ«àŃ«": 7091,
      "Ġà¬ķà¬³à¬®": 7092,
      "ĠàŃ§àŃ¯àŃ¦àŃ¦": 7093,
      "Ġà¬Ĺà¬¹à¬®à¬°": 7094,
      "à¬°à¬ªà¬Ł": 7095,
      "à¬°à¬ľà¬®": 7096,
      "ĠàŃªàŃ«àŃ¦àŃ¦": 7097,
      "ha": 7098,
      "à¬¸à¬¬à¬²": 7099,
      "àŃĢ!": 7100,
      "ĠàŃ©àŃŃàŃ©": 7101,
      "à´£": 7102,
      "à´ŀ": 7103,
      "ĠàŃ©àŃ®àŃ«": 7104,
      "à¬¶à¬ĵ": 7105,
      "à´ļ": 7106,
      "Ġà¬¹à¬°à¬°": 7107,
      "ĠàŃ©àŃªàŃ¯": 7108,
      "àµ¼": 7109,
      "IPR": 7110,
      "à¬¿,âĢĿ": 7111,
      "Ġà¬ıà¬®à¬Ł": 7112,
      "ĠàŃ«àŃ¦àŃ¯": 7113,
      "ĠàŃ¬àŃŃàŃ¦": 7114,
      ",.": 7115,
      "à¬¸àŃŁ": 7116,
      "à¬¯à¬ī": 7117,
      "In": 7118,
      "Ġà¬¬à¬¡à¬Ĺà¬¡": 7119,
      "Ġà¬¦à¬³à¬ªà¬¤": 7120,
      "à¬¿à¬¿à¬ģ": 7121,
      "àŃĩà¥¤âĢĿ": 7122,
      "à¬°à¬£à¬Ł": 7123,
      "Ġà¬Ĩà¬¤à¬¤": 7124,
      "Ġà¬¬à¬°à¬ķà¬¨": 7125,
      "à¬ļà¬ķà¬®": 7126,
      "ĠàŃ§àŃ¯àŃ©àŃ¨": 7127,
      "---": 7128,
      "à¬ľà¬®à¬¹à¬²à¬°": 7129,
      "à´Ĺ": 7130,
      "xt": 7131,
      "à¬Ĩà¬¬à¬¸": 7132,
      "à¬¿à¬Ĥ-": 7133,
      "Ġà¬ħà¬«à¬¤": 7134,
      "à¬¾[": 7135,
      "à¬īà¬ªà¬¯": 7136,
      "à¬°à¬ªà¬¦": 7137,
      "Ġ62": 7138,
      "à¬ĩà¬ªà¬ķ": 7139,
      "Ġ67": 7140,
      "Ġà¬¬à¬£à¬°": 7141,
      "à¬®à¬¦à¬³": 7142,
      "ĠàŃ©àŃ©àŃ©": 7143,
      "à¬¿à¥¤âĢĻ": 7144,
      "à¬ıà¬ıà¬®": 7145,
      "ĠàŃªàŃ§àŃª": 7146,
      "Ġà¬ĭà¬£à¬Ĺ": 7147,
      "Ġà¬ªà¬¬à¬ľ": 7148,
      "ÌĤàŃĢ": 7149,
      "à¬³à¬Ĺà¬¡": 7150,
      "Ġà¬ªà¬¤à¬¨à¬ł": 7151,
      "à¬Ĺà¬²à¬ľ": 7152,
      "ĠàŃ©àŃ®àŃŃ": 7153,
      "ĠàŃ«àŃ§àŃª": 7154,
      "à¬ķà¬Łà¬ľà¬¨à¬ķ": 7155,
      "àŃŁàŃŁà¬¨à¬°à¬¤": 7156,
      "]].": 7157,
      "Ġà¬īà¬²à¬ķ": 7158,
      "],[": 7159,
      "ĠàŃ©àŃŃàŃ®": 7160,
      "Ġ1960": 7161,
      "à¬£à¬¬à¬°": 7162,
      "à¬¼à¬¾(": 7163,
      "Ġà¬¶à¬¬à¬Ĺ": 7164,
      "ĠàŃ«àŃ®àŃ¦": 7165,
      "à¬Ĺà¬ĩ": 7166,
      "à¬ĸà¬ľ": 7167,
      "Ġà¬īà¬ªà¬¶": 7168,
      "à¬ıà¬¸àŃŁ": 7169,
      "Ġà¬ĨàŃŁà¬¤à¬¨": 7170,
      "ĠàŃ¨àŃ®àŃ§": 7171,
      "à¬°à¬ªà¬¨": 7172,
      "Ġà¬ļà¬īà¬ķ": 7173,
      "ĠàŃ©àŃ§àŃ©": 7174,
      "àŃ¨àŃ¦àŃ¦àŃª": 7175,
      "à¬¡à¬£": 7176,
      "àŃĥàŃĥ": 7177,
      "à¬²à¬ķà¬Ĺ": 7178,
      "Ġà¬¸à¬ľà¬¡": 7179,
      "ĠàŃ®àŃ«àŃ©": 7180,
      "ĠàŃªàŃ§àŃ§": 7181,
      "à¬¾à¬ģ-": 7182,
      "Ġà¬Ĩà¬¡à¬ª": 7183,
      "à¬ŀà¬¬à¬¦": 7184,
      "Ġà¬ıà¬ķà¬¸à¬Ļ": 7185,
      "à¬¿à¬Ĥà¬ĥ": 7186,
      "Ġ3000": 7187,
      "Ġà¬ħà¬®à¬³à¬ķ": 7188,
      "Là¬°": 7189,
      "à¬°à¬ķà¬²": 7190,
      "Ġà¬īà¬ªo": 7191,
      "ĠàŃ¬àŃ§àŃ¦": 7192,
      "Ġà¬īà¬¨à¬¬": 7193,
      "ĠàŃ¬àŃ«àŃ«": 7194,
      "ie": 7195,
      "à¬ªà¬ĺà¬°à¬ķ": 7196,
      "Ġà¬ľà¬¨à¬Ĩà¬¨": 7197,
      "à¬ıà¬®à¬ĵà¬®": 7198,
      "Ġà¬®à¬¦à¬®": 7199,
      "Ġà¬²à¬¶": 7200,
      "Ġà¬®à¬¨à¬Ńà¬°": 7201,
      "Ġà¬ľà¬³à¬ªà¬¥à¬°": 7202,
      "Ġ125": 7203,
      "Ġ2001": 7204,
      "ĠàŃ¬àŃ¨àŃ®": 7205,
      "Ġà¬¬à¬¹à¬³à¬¦": 7206,
      "Ġà¬¸à¬¹à¬¨": 7207,
      "ĠàŃ¬àŃ®àŃ©": 7208,
      "Ġà¬§à¬³à¬¸": 7209,
      "à¬Ĩà¬ĩà¬ıà¬¸à¬ıà¬«": 7210,
      "Ġà¬ķà¬ħà¬£": 7211,
      "Ġà¬¬àŃŁà¬ķà¬Ł": 7212,
      "à¬ļà¬®à¬°": 7213,
      "à¬¦à¬¨à¬Ĺà¬°à¬°": 7214,
      "àŃ§àŃ¦àŃ®": 7215,
      "Ġà¬Ńà¬Ĺà¬¬à¬¨": 7216,
      "ðŁĩ³": 7217,
      "à¬¨à¬Ĺà¬¡": 7218,
      "Ġà¬ıà¬®à¬¤": 7219,
      "Ġ--": 7220,
      "Ġà¬ħà¬ªà¬°à¬ª": 7221,
      "à¬¿à¬¿à¬¿": 7222,
      "Ġà¬Ĩà¬ĩà¬ıà¬²à¬ıà¬¸": 7223,
      "Ġ........": 7224,
      "Ġà¬ļà¬ĩà¬¤": 7225,
      "àŃįâĢĮ?": 7226,
      "à¬ľà¬¨à¬ª": 7227,
      "Ġà¬ıà¬¨à¬Ĩà¬ĩà¬Ł": 7228,
      "Ì£": 7229,
      "àŃģàŃįâĢĮ": 7230,
      "à¬ĩà¬¥à¬¨à¬°": 7231,
      "àŃ§àŃ¨àŃ¦": 7232,
      "àŃŁà¬¤à¬Ĺ": 7233,
      "à¬Ĺà¬¤à¬Ń": 7234,
      "ĠàŃªàŃ¬àŃ®": 7235,
      "à¬¤à¬®à¬°": 7236,
      "Ġà¬®à¬łà¬ķ": 7237,
      "Ġà¬¦à¬®à¬°": 7238,
      "à¬ħà¬°à¬Ļ": 7239,
      "Ġà¬ľà¬¨à¬ªà¬¥": 7240,
      "anc": 7241,
      "pi": 7242,
      "Ġà¬¬à¬Łà¬®": 7243,
      "à¬ĩà¬ĺà¬£": 7244,
      "à¬·à¬ªà¬°": 7245,
      "à¬¬à¬¨à¬¦": 7246,
      "à¬¬à¬¤à¬ķ": 7247,
      "à¬µà¬¶": 7248,
      "®ðŁĩ³": 7249,
      "ĠàŃŁà¬ķ": 7250,
      "àŃŁà¬·": 7251,
      "à¬¼à¬¼à¬¿": 7252,
      "Ġà¬ªà¬°à¬ª": 7253,
      "à¬ıà¬¨à¬ķ": 7254,
      "à¬²à¬ķà¬¡": 7255,
      "Ġà¬Ĩà¬°à¬ªà¬Ł": 7256,
      "ĠàŃªàŃ¦àŃ¬": 7257,
      "Ġà¬īà¬ªà¬§": 7258,
      "ĠàŃ©àŃ«àŃ¬": 7259,
      "àŃįâĢĮ'à¥¤": 7260,
      "Ġà¬ħà¬ªà¬¹à¬°à¬£à¬°": 7261,
      "à¬®à¬ªà¬Ł": 7262,
      "Ġà¬¸à¬¦à¬°à¬°": 7263,
      "àŃ¨àŃ¦àŃ¦àŃŃ": 7264,
      "Ġà¬ķà¬ķà¬Ł": 7265,
      "àŃ±à¬°à¬®": 7266,
      "Ġà¬Ľà¬ķà¬ķ": 7267,
      "à¬ľà¬£à¬°": 7268,
      "Ġà¬ħà¬«à¬¸": 7269,
      "à¬¨à¬¨à¬Ĺà¬°": 7270,
      "ĠàŃ©àŃ¬àŃ®": 7271,
      "Ð»": 7272,
      "Ġà¬ıà¬¸à¬®à¬¸": 7273,
      "Ġà¬°à¬ļàŃŁ": 7274,
      "à¬¤à¬°à¬ħà¬¨": 7275,
      "Ġà¬¬à¬¨à¬°": 7276,
      "à¬ĩà¬¬à¬¨": 7277,
      "à¬®à¬Ĺà¬¤": 7278,
      "Ġà¬¨à¬īà¬ł": 7279,
      "àŃ±à¬§": 7280,
      "à¬¹à¬°à¬£à¬¸": 7281,
      "Ġà¬ħà¬ĸà¬¤à¬°à¬Ļ": 7282,
      "Ġà¬īà¬¤à¬°à¬°": 7283,
      "Ġ?âĢĿ": 7284,
      "Ġà¬ıà¬²à¬ĵà¬¸": 7285,
      "eb": 7286,
      "àŃĩ)à¥¤": 7287,
      "Ġà¬ħà¬ªà¬£": 7288,
      "Ġà¬¤àŃŁ": 7289,
      "à¬ķà¬¸à¬¹": 7290,
      "à¬Łà¬°à¬¬": 7291,
      "Ġ76": 7292,
      "àŃĹ": 7293,
      "ĠàŃ¬àŃ¨àŃ«": 7294,
      "Ġ69": 7295,
      "ĠàŃ©àŃ«àŃ®": 7296,
      "Ġà¬Ĳà¬ķ": 7297,
      "*,": 7298,
      "à¬³à¬ªà¬¦": 7299,
      "ĠàŃªàŃ§àŃ©": 7300,
      "à¬Īà¬¶": 7301,
      "Ġ=-": 7302,
      "Ġà¬ıà¬ļà¬ª": 7303,
      "ÑĢÐ": 7304,
      "Ch": 7305,
      "à¬°à¬¬à¬ľ": 7306,
      "Ġà¤ªà¤°": 7307,
      "àŃ«àŃ¨àŃ¯": 7308,
      "ĠàŃ«àŃ¦àŃ§": 7309,
      "ĠàŃ¦àŃ¦": 7310,
      "Ġ73": 7311,
      "Ġà¬ıà¬²à¬¬": 7312,
      "Ġà¬Ĩà¬Ĺà¬²à¬ª": 7313,
      "Ġà¬¬à¬¸à¬Ĺ": 7314,
      "Ġ1940": 7315,
      "àŃĢ',": 7316,
      "à¬ķà¬²à¬ķ": 7317,
      "Ġà¬¬à¬īà¬¦": 7318,
      "à¬®à¬¸à¬¨à¬Ļ": 7319,
      "à¬¤à¬ĵ": 7320,
      "à¬£à¬ĺ": 7321,
      "à¬ĸà¬¬à¬¨": 7322,
      "à¬°à¬¸à¬ķà¬£": 7323,
      "âĿģ": 7324,
      "à¬ıà¬«à¬Ĩà¬ĩ": 7325,
      "Ġ5000": 7326,
      "Ġà¬Ĩà¬ĩà¬ıà¬¸à¬Ĩà¬ĩà¬ıà¬¸": 7327,
      "à¬·à¬ªà¬£": 7328,
      "à¬ĵà¬ıà¬²": 7329,
      "Ġà¬Ĩà¬īà¬ıà¬ķ": 7330,
      "Ġà¬Ĩà¬īà¬Łà¬«": 7331,
      "Ġà¬ĹàŃŁà¬³": 7332,
      "ĠàŃ©àŃ®àŃ¨": 7333,
      "ĠÂ°": 7334,
      "àŃ¨àŃ¦àŃ¦àŃ«": 7335,
      "Ġà¬ıà¬ıà¬¨à¬ıà¬®": 7336,
      "à¬¨à¬ķà¬Ļ": 7337,
      "àŃŁà¬ĸ": 7338,
      "150": 7339,
      "Ġ1989": 7340,
      "à¬īà¬³à¬Ļ": 7341,
      "Ġà¬¸à¬¹à¬¸à¬®": 7342,
      "Ġà¬ªà¬²à¬Ł": 7343,
      "Ġà¬ªà¬ĩà¬¤": 7344,
      "ĠàŃ®àŃ§àŃ¯": 7345,
      "à¬Īà¬Ł": 7346,
      "Ġà¬ľà¬³à¬ªà¬¤": 7347,
      "Ġà¬¹à¬¤à¬¬": 7348,
      "ĠàŃ«àŃ¦àŃ«": 7349,
      "ĠàŃ©àŃ«àŃ¨": 7350,
      "à¬ĩà¬ľà¬°à¬Ļ": 7351,
      "Ġà¬ħà¬¸à¬°à¬ª": 7352,
      "à¬ıà¬¸à¬¡à¬¬": 7353,
      "ĠàŃ©àŃ®àŃ®": 7354,
      "Ġà¬¸à¬ĩà¬¤": 7355,
      "à¬ĩà¬ªà¬¦à¬°": 7356,
      "à¬Ľà¬Ĺ": 7357,
      "à¬ħà¬¸à¬¨": 7358,
      "à¬¬à¬£à¬Ļ": 7359,
      "ĠàŃ«àŃŃàŃ¦": 7360,
      "àŃĩà¬¾.": 7361,
      "à¬ıà¬®à¬ĵà¬Ļ": 7362,
      "Ġà¬¨à¬¬à¬ĺà¬¨": 7363,
      "ĠâĢĭâĢĭ|": 7364,
      "à¬ķà¬¯": 7365,
      "Ġà¬¸à¬°à¬£": 7366,
      "à¬ħà¬ļ": 7367,
      "Ġà¬ħà¬£à¬®": 7368,
      "à¬ĸà¬³à¬¨à¬°": 7369,
      "ðŁĮ": 7370,
      "td": 7371,
      "Ġà¬ľà¬°à¬¡": 7372,
      "]()": 7373,
      "à¬¬à¬°à¬Ł": 7374,
      "Ġà¬¨à¬ľà¬£": 7375,
      "à¬¸à¬¨à¬³": 7376,
      "Ġà¬ıà¬ļà¬Ł": 7377,
      "Ġà¬ıà¬Ļ": 7378,
      "à¬ļà¬¸à¬ĸ": 7379,
      "ĠàŃ©àŃ¬àŃ©": 7380,
      "Ġà¬Ĩà¬°à¬ıà¬¸à¬ª": 7381,
      "Ġà¬ħà¬Ĺà¬®": 7382,
      "à¬§à¬¨à¬Ĺ": 7383,
      "à¬¨à¬®à¬¤": 7384,
      "à¬³àŃŁà¬¸": 7385,
      "àŃŁà¬®à¬¸à¬¨à¬Ļ": 7386,
      "à¥¤''": 7387,
      "à¬¦à¬¤à¬³": 7388,
      "Ġà¬¸à¬¹à¬¬à¬¨": 7389,
      "à¬·àŃŁà¬¸": 7390,
      "Ġà¬¤à¬«": 7391,
      "à¬³à¬®àŃŁ": 7392,
      "Ġà¬Īà¬ª": 7393,
      "Ġà¬ĵà¬¢à¬£": 7394,
      "à¬®à¬¢": 7395,
      "à¬ĸà¬ļ": 7396,
      "Ġà¬ªà¬¹à¬¡": 7397,
      "à¬ıà¬®à¬Ł": 7398,
      "ĠĠĠĊ": 7399,
      "Ġà¬ŀ": 7400,
      "à¬¬à¬£à¬ķ": 7401,
      "àŃŁà¬Łà¬°": 7402,
      "Ġà¬ķà¬°à¬£à¬Ļ": 7403,
      "Ġà¬ķà¬²à¬¸à¬¨": 7404,
      "Ġà¬¨à¬¬à¬Ĺà¬ł": 7405,
      "Ġà¬Ĩà¬ĩà¬Ń": 7406,
      "Ġà¬¬àŃŁà¬¸à¬ķ": 7407,
      "à¬¨à¬¨à¬ķ": 7408,
      "Ġà¬¨à¬Ļ": 7409,
      "à¬ħà¬¹": 7410,
      "à¬°à¬¹à¬£à¬¯": 7411,
      "Ġà¬¬à¬¡à¬Ĺ": 7412,
      "674": 7413,
      "end": 7414,
      "Ġà¬ļà¬¹à¬°à¬Ļ": 7415,
      "Ġà¬¬à¬°à¬·": 7416,
      "Ġà¬¬à¬°à¬ľ": 7417,
      "Ġà¬Ĩà¬īà¬Łà¬¸": 7418,
      "Ġà¬ıà¬¨à¬Ĩà¬ĩ": 7419,
      "Ġ88": 7420,
      "Ġà¬ıà¬Ĩà¬ĩà¬Ł": 7421,
      "Ġà¬ľà¬¶à¬ª": 7422,
      "à¬µà¬ķà¬ª": 7423,
      "à¬Łà¬°à¬Ĩà¬ķ": 7424,
      "à¬ĺà¬ł": 7425,
      "2017": 7426,
      "Ġà¬«à¬³à¬¬à¬¤": 7427,
      "Ġà¬ĺà¬°à¬ķà¬°à¬£": 7428,
      "ĠàŃªàŃ¦àŃ«": 7429,
      "à¬°à¬¯à¬¤": 7430,
      "Re": 7431,
      "Ġà¬ĸà¬ľà¬£": 7432,
      "à¬¶à¬¨à¬¶à¬ķ": 7433,
      "à¬²à¬¬à¬¶à¬¤": 7434,
      "Ġà¬®à¬ĸ": 7435,
      "Ġà¬°à¬£à¬¸": 7436,
      "Ġà¬ħà¬§à¬ªà¬¨": 7437,
      "Ġà¬°à¬£à¬Ń": 7438,
      "Pà¬°": 7439,
      "Ġre": 7440,
      "Ġà¬ħà¬Łà¬³à¬ľ": 7441,
      "Ġà¬ĩà¬ıà¬®à¬Ĩà¬ĩ": 7442,
      "Bà¬°": 7443,
      "à¬Ńà¬¦à¬°": 7444,
      "ĠàŃªàŃ§àŃ¨": 7445,
      "ĠàŃªàŃªàŃ®": 7446,
      "à¬¸à¬ĩ": 7447,
      "Ġà¬¸à¬²à¬«": 7448,
      "Ġà¬¤à¬«à¬¸": 7449,
      "à¬°à¬¸à¬¤": 7450,
      "ĠàŃ¬àŃ¬àŃ¦": 7451,
      "ĠàŃ«àŃ¦àŃª": 7452,
      "à¬ªà¬¥à¬Ĺ": 7453,
      "âķĲâķĲâķĲ": 7454,
      "à¬·à¬Ĩà¬ľ": 7455,
      "Ġà¬ªà¬°à¬®à¬ª": 7456,
      "Ġà¬ĵà¬Łà¬°": 7457,
      "à¬²à¬¬à¬®": 7458,
      "gu": 7459,
      "ke": 7460,
      "à¬²à¬¨à¬°": 7461,
      "à¬¿âĢĵ": 7462,
      "à¬ĩà¬Ĩà¬°à¬Ł": 7463,
      "àŃĢâĢĭâĢĮ": 7464,
      "ĠàŃ«àŃ§àŃ§": 7465,
      "à¬¬à¬³à¬¦": 7466,
      "à¬¹à¬¨à¬Ĺ": 7467,
      "ĠàŃ©àŃŃàŃª": 7468,
      "àŃĩ'à¥¤": 7469,
      "à¬¬à¬§à¬°": 7470,
      "à¬ģà¬¿": 7471,
      "]').": 7472,
      "à¬ĩà¬ªà¬°à¬¸": 7473,
      "à¬ıà¬¸à¬Ļ": 7474,
      "ĠàŃªàŃ¯àŃ¦": 7475,
      "orm": 7476,
      "à¬¾//": 7477,
      "àŃĩ),": 7478,
      "Ġà¬¤à¬°à¬¤à¬°": 7479,
      "ĠàŃ§àŃ¯àŃªàŃ©": 7480,
      "à¬¤à¬¬à¬¬": 7481,
      "à¬ıà¬¨à¬ıà¬®": 7482,
      "à¬¿âĢį": 7483,
      "Ġ1995": 7484,
      "à¬Ĥ/": 7485,
      "Ġ1950": 7486,
      "à¬£à¬«": 7487,
      "Ġà¬®à¬³à¬®": 7488,
      "à¬°à¬£à¬¬à¬Ļ": 7489,
      "ĠàŃ®àŃ¨àŃ«": 7490,
      "Ġà¬ıà¬¨à¬ıà¬«": 7491,
      "Ġ94": 7492,
      "inà¬°": 7493,
      "à¬²à¬¢": 7494,
      "à¬¸à¬°à¬ªà¬ŀ": 7495,
      "à¬Ĩà¬°à¬ĵ": 7496,
      "ĠàŃ¬àŃ¨àŃ¦": 7497,
      "Ġà¬Ĩà¬²à¬Ł": 7498,
      "Ġà¬¸à¬¤à¬ªà¬¥": 7499,
      "ĠàŃªàŃ¨àŃ®": 7500,
      "Ġà¬Ĩà¬łà¬Ĺà¬¡à¬°": 7501,
      "à¬¾âĢĵ": 7502,
      "Ġà¬ľà¬¨à¬®à¬Ļ": 7503,
      "ĠàŃ©àŃ¯àŃ¨": 7504,
      "à¬ľà¬¬à¬³": 7505,
      "à¬®à¬¨à¬¯": 7506,
      "Ġ2003": 7507,
      "Ġ108": 7508,
      "à¬Ĩà¬łà¬Ĺà¬¡": 7509,
      "Ġà¬¸à¬ĩà¬¨": 7510,
      "à¬Ńà¬ľ": 7511,
      "Ġà¬ħà¬£à¬¬": 7512,
      "à¬ľà¬¬à¬ķ": 7513,
      "Ġà¬ľà¬¬à¬¦": 7514,
      "à¬ªà¬Łà¬ªà¬°": 7515,
      "Ġ\">": 7516,
      "CS": 7517,
      "Ļı": 7518,
      "Ġà¬īà¬¸à¬®": 7519,
      "Ġà¬īà¬ªà¬¨à¬Ĺà¬°": 7520,
      "Ġà¬Ĩà¬®à¬²": 7521,
      "Ġà¬Ĩà¬ķà¬³à¬¨à¬ķ": 7522,
      "Ġà¬¬à¬¥": 7523,
      "à¬ªàŃŁ": 7524,
      "à¬°à¬ķà¬Ĺ": 7525,
      "ĠàŃŃàŃ©àŃ¦": 7526,
      "à¬Ŀà¬ķ": 7527,
      "àŃĩ',": 7528,
      "à¬¿âĢĻà¥¤": 7529,
      "à¬¾âĢĭ": 7530,
      "Ġà¬ªà¬¤à¬ķ": 7531,
      "Ġà¬īà¬¦à¬°": 7532,
      "Ġ66": 7533,
      "ĠàŃ©àŃªàŃŃ": 7534,
      "Oà¬°": 7535,
      "àŃį!": 7536,
      "Ġà¬Ĩà¬Ĺà¬®à¬¨à¬ķ": 7537,
      "à¬£à¬¬à¬¸": 7538,
      "àŃ§àŃ§àŃ¦": 7539,
      "Ġ95": 7540,
      "à¬ŃàŃŁà¬Ļ": 7541,
      "ĠàŃ¬àŃ®àŃ¦": 7542,
      "138": 7543,
      "à¬ľà¬°à¬£": 7544,
      "Ġà¬¬à¬°à¬¡": 7545,
      "à¬¿à¬ģ.": 7546,
      "ĠàŃ®àŃ¬àŃ¦": 7547,
      "Ġà¬Ĩà¬ĩà¬Ĺ": 7548,
      "Ġà¬¶à¬¬à¬¬": 7549,
      "Ġà¬ĵà¬ıà¬ļ": 7550,
      "Ġà¬ķà¬¥à¬ķ": 7551,
      "à¬Łà¬¸à¬Ĩà¬ªà¬°": 7552,
      "ĠàŃªàŃ©àŃª": 7553,
      "à¬¸à¬®à¬¨": 7554,
      "Ġà¬Ĩà¬¬à¬¸": 7555,
      "à¬¶à¬¨à¬¨à¬Ĺà¬°": 7556,
      "Ġà¬ħà¬¬à¬ľà¬°": 7557,
      "ĠàŃ©àŃ¨àŃ®": 7558,
      "áĨ": 7559,
      "àŃģà¥¤âĢĿ": 7560,
      "à¬Ĺà¬¨à¬Ĺà¬°à¬°": 7561,
      "ĠCO": 7562,
      "Ġà¬Ĺà¬£à¬¸à¬®": 7563,
      "ata": 7564,
      "ľ§": 7565,
      "à¬ħà¬¬à¬ķ": 7566,
      "Ġà¬«à¬³à¬Ĺ": 7567,
      "à¬¡à¬ªà¬ł": 7568,
      "à¬¸à¬¸à¬°": 7569,
      "à¬Ĩà¬¦à¬°": 7570,
      "Ġà¬²à¬ķà¬°à¬°": 7571,
      "Ġà¬Ĩà¬ķà¬Ł": 7572,
      "ĠàŃ¬àŃªàŃ¦": 7573,
      "Ġ74": 7574,
      "Ġà¬ıà¬®à¬ıà¬²": 7575,
      "fu": 7576,
      "à¬¨à¬Ĩà¬ľ": 7577,
      "à¬¬à¬ŀ": 7578,
      "à¬¦à¬ªà¬¡": 7579,
      "Ġà¬ıà¬¨à¬Ĺ": 7580,
      "ĠàŃ§àŃ¨àŃ®àŃ®": 7581,
      "Ġà¬Ĩà¬ªà¬Ł": 7582,
      "à¬«à¬°à¬®": 7583,
      "à¬¿à¬Ĥ'": 7584,
      "ĠàŃªàŃ«àŃŃ": 7585,
      "Ġà¬īà¬ªà¬¨à¬¦": 7586,
      "ĠàŃ«àŃ¯àŃ¦": 7587,
      "Ġà¬ħà¬ľà¬®": 7588,
      "à¬§àŃ±": 7589,
      "Ġà¬§à¬£": 7590,
      "ĠàŃªàŃ®àŃ¨": 7591,
      "à¬¹à¬¤à¬ķ": 7592,
      "à¬¦à¬ļ": 7593,
      "à¬¿à¬ģ'": 7594,
      "ĠàŃ©àŃ¨àŃŃ": 7595,
      "ĠàŃªàŃŃàŃ«": 7596,
      "à¬īà¬Łà¬°": 7597,
      "ĠàŃ¨àŃ¦àŃ«àŃ¦": 7598,
      "Ġà¬ıà¬¸à¬ıà¬¸à¬ª": 7599,
      "Ġà¬¨à¬ķà¬Ń": 7600,
      "à¬£à¬¬à¬¨": 7601,
      "Ġà¬īà¬¬à¬°": 7602,
      "ĠàŃ§àŃ¯àŃªàŃª": 7603,
      "Ġà¬īà¬²à¬ĺ": 7604,
      "à¬²à¬ļà¬¨": 7605,
      "à¬²à¬ĸà¬£": 7606,
      "à¬¦à¬³à¬ķ": 7607,
      "à¬Łà¬°à¬²": 7608,
      "à¬ħà¬¨à¬¶": 7609,
      "à¬Ĺà¬²à¬Ļ": 7610,
      "(?": 7611,
      "à¬¤à¬²à¬ķ": 7612,
      "Ġà¬ªà¬¤à¬°": 7613,
      "à¬Ĩà¬·": 7614,
      "à¤ĸ": 7615,
      "à¬ķà¬¸à¬ķ": 7616,
      "Ġà¬¸à¬īà¬°": 7617,
      "Ġà¬ĨàŃŁà¬¬à¬¹": 7618,
      "à¬ĩà¬Łà¬Ĺ": 7619,
      "à¬¹à¬ľà¬®": 7620,
      "à¬¾)à¥¤": 7621,
      "à¬¤à¬¦à¬¨": 7622,
      "Ġ77": 7623,
      "ĠàŃ©àŃ¯àŃª": 7624,
      "Ġà¬¬à¬Łà¬²": 7625,
      "Ġà¬Ĩà¬īà¬Łà¬°": 7626,
      "Ġà¬ķà¬¤à¬°": 7627,
      "à¬ľà¬ķà¬°": 7628,
      "àŃ§àŃ¯àŃ¯àŃ¯": 7629,
      "à¬¿à¬Ĥ(": 7630,
      "Ġà¬īà¬¤à¬¥": 7631,
      "Ġà¬Ĩà¬ľà¬®à¬Ĺà¬¡": 7632,
      "ĠàŃ«àŃ¨àŃ¨": 7633,
      "à¬°à¬¹à¬Ł": 7634,
      "àŃĩàŃįâĢĮ": 7635,
      "à¬Ĺà¬ªà¬¡": 7636,
      "Ġà¬°à¬ı": 7637,
      "à¬ĺà¬²": 7638,
      "Ġà¬īà¬ªà¬°à¬¸": 7639,
      "à¬ĩà¬Ĺà¬¡": 7640,
      "Ġà¬Ĺà¬°à¬¬": 7641,
      "à¬²à¬ķà¬¨": 7642,
      "800": 7643,
      "à¬·à¬£à¬¸": 7644,
      "Ġà¬Ĩà¬Ĺà¬®": 7645,
      "à¬¸à¬²à¬Ł": 7646,
      "Ġà¬Ĩà¬¡à¬²": 7647,
      "Ġà¬ħà¬®à¬°à¬ľ": 7648,
      "âķĲâķĲâķĲâķĲâķĲ": 7649,
      "à¥¤âĢĻ": 7650,
      "Ġà¬¬à¬¡à¬ķà¬¥": 7651,
      "ĠàŃªàŃ¦àŃ¯": 7652,
      "à¬¨à¬®à¬ľ": 7653,
      "ĠàŃªàŃ«àŃ¨": 7654,
      "à¬¿âĢĿà¥¤": 7655,
      "/'": 7656,
      "]]>": 7657,
      "po": 7658,
      "àŃĩà¬¾Ã·": 7659,
      "Ġà¬ıà¬ķà¬¸": 7660,
      "Ġà¬ĨàŃŁà¬¬à¬°": 7661,
      "à¬¤à¬Ľ": 7662,
      "àŃģ),": 7663,
      "Ġà¬¶à¬¬à¬°à¬Ļ": 7664,
      "Ġà¬ĵà¬ĩà¬Ĩà¬°à¬¸": 7665,
      "ĠàŃ«àŃ§àŃ©": 7666,
      "Ġ81": 7667,
      "ĠàŃ«àŃ©àŃ©": 7668,
      "Ġà¬«à¬®": 7669,
      "à¬ĩà¬²à¬¸": 7670,
      "ĠàŃ¯àŃ©àŃ¦": 7671,
      "à¬®àŃŁà¬ķà¬°": 7672,
      "Ġà¬ħà¬ıà¬²à¬°": 7673,
      "à¬ķà¬¸à¬Ļ": 7674,
      "à¬¬à¬ľà¬Ĺà¬¤": 7675,
      "à¬¨à¬¬à¬ķ": 7676,
      "Ġà¬ķà¬°à¬ª": 7677,
      "à¬¡à¬ľ": 7678,
      "à¬ļà¬ł": 7679,
      "Ġà¬ľà¬ī": 7680,
      "àŃŃàŃ«àŃ¦": 7681,
      "à¬¤à¬ªà¬¦": 7682,
      "Ġà¬®à¬¨à¬¬à¬³": 7683,
      "Ġà¬¬à¬³à¬¬à¬¤à¬°": 7684,
      "ĠàŃªàŃ¬àŃŃ": 7685,
      "Ĥ¹": 7686,
      "Ġà¬ĵà¬¬à¬°": 7687,
      "à¬°à¬¨à¬³": 7688,
      "Ġà¬ªà¬°à¬®à¬¹": 7689,
      "text": 7690,
      "à¥Īà¤Ĥ": 7691,
      "Ġà¬ķà¬Ľ": 7692,
      "Ġà¬Ĺà¬¹à¬¨": 7693,
      "ĠàŃ«àŃ®àŃ«": 7694,
      "à¬¸à¬®à¬²": 7695,
      "Ġà¬¬à¬ĩ": 7696,
      "Ġà¬¹à¬²à¬®": 7697,
      "à¬·àŃŁà¬Ł": 7698,
      "ĠàŃŃàŃ«àŃ¦àŃ¦": 7699,
      "Ġà¬¨à¬Ĺà¬°à¬ķ": 7700,
      "à¬ıà¬¸à¬ıà¬«à¬°": 7701,
      "path": 7702,
      "ÙĦ": 7703,
      "àŃŁà¬¹à¬°": 7704,
      "à¬ıà¬¬à¬°": 7705,
      "Ġà¬ıà¬ķà¬²": 7706,
      "ĠàŃ«àŃ§àŃ®": 7707,
      "Ġà¬¸à¬¬à¬·": 7708,
      "ĠàŃªàŃ¦àŃ¨": 7709,
      "à¬®à¬¬à¬³": 7710,
      "Ġà¬ķà¬¡à¬ķ": 7711,
      "Ġ(\"": 7712,
      "],\"": 7713,
      "...âĢĻ": 7714,
      "Ġà¬ĸà¬°à¬Ĺ": 7715,
      "Ġà¬ıà¬ĩà¬Ĩ": 7716,
      "à¬°à¬ªà¬ķ": 7717,
      "Ġà¬¹à¬²à¬ķ": 7718,
      "àŃĩà¬ģ?": 7719,
      "ĠàŃªàŃ©àŃ©": 7720,
      "ÙĬ": 7721,
      "à¬ķàŃ±": 7722,
      "Ġà¬ķà¬¬à¬ķ": 7723,
      "à¬Ĩà¬¹à¬¤": 7724,
      "ĠàŃ±à¬ķ": 7725,
      "ĠàŃ§àŃ¯àŃ©àŃ¯": 7726,
      "Ġ+=": 7727,
      "à¬ĩà¬«à¬²à¬°": 7728,
      "Ġà¬ķà¬®à¬¨àŃ±": 7729,
      "ĠCS": 7730,
      "Ġà¬®à¬Ł": 7731,
      "Ġà¬«à¬¸à¬°": 7732,
      "Ġà¬®à¬¨à¬ķà¬¥": 7733,
      "Ġà¬¸à¬«à¬¦à¬°": 7734,
      "ated": 7735,
      "à¬¸à¬·": 7736,
      "à¬ıà¬¡à¬°": 7737,
      "à¬łà¬ł": 7738,
      "à¬Łà¬°à¬¯": 7739,
      "Ġà¬ªà¬²à¬¸": 7740,
      "1111": 7741,
      "Ġ91": 7742,
      "à¬ĩà¬ĵà¬®": 7743,
      "à¬¨à¬¬à¬¸": 7744,
      "à¬¶à¬Ńà¬¦": 7745,
      "Ġà¬ľà¬°à¬ªà¬¡": 7746,
      "Ġarr": 7747,
      "Ð°ÑĢ": 7748,
      "nt": 7749,
      "à¬Ńà¬ł": 7750,
      "Ġà¬ĵà¬ĵ": 7751,
      "à¬°à¬®à¬¶à¬ķ": 7752,
      "Ġà¬Ĩà¬ĩà¬¨à¬¤": 7753,
      "ĠàŃŃàŃ©àŃŃ": 7754,
      "à¬¤à¬³à¬ķ": 7755,
      "à¬ıà¬Ĩà¬ĩà¬°": 7756,
      "à¬«à¬Ĺ": 7757,
      "à¬·à¬®à¬®": 7758,
      "Ġ128": 7759,
      "ĠàŃ©àŃ¯àŃ§": 7760,
      "Ġà¬ĵà¬Ńà¬°à¬Ł": 7761,
      "àŃ¨àŃ¦àŃ¦àŃ¬": 7762,
      "ort": 7763,
      "à¬¤àŃ±": 7764,
      "à¬°à¬ķà¬°à¬£à¬°": 7765,
      "]();": 7766,
      "Ġà¬²à¬¨": 7767,
      "à¬ĩà¬ªà¬¦": 7768,
      "Ġà¬ķà¬²à¬°à¬°": 7769,
      "Ġà¬Ķà¬°à¬¸à¬°": 7770,
      "à¬®à¬¬à¬°à¬¦": 7771,
      "ĠàŃ°": 7772,
      "ĠàŃ¬àŃ§àŃ¬": 7773,
      "Ġà¬ıà¬®à¬Ĩà¬ĩ": 7774,
      "àŃ§àŃ¯àŃ¯àŃ¦": 7775,
      "Ġà¬ķà¬¨à¬ķà¬²à¬¤": 7776,
      "Ġà¬ļà¬īà¬ł": 7777,
      "à¬¿à¥¤\"\"\"": 7778,
      "à¬ıà¬¨à¬ª": 7779,
      "nction": 7780,
      "à¬ļà¬¢": 7781,
      "à¬Ĩà¬ĵ": 7782,
      "ĠĊĊĠ": 7783,
      "ĠàŃ©àŃ¬àŃ¯": 7784,
      "139": 7785,
      "à¬ĸà¬®à¬¨": 7786,
      "à¬łà¬¯à¬¨": 7787,
      "Ġà¬§à¬īà¬°": 7788,
      "àŃ§àŃ©àŃ¦": 7789,
      "Ġ'/'": 7790,
      "ĠàŃ¨àŃ¯àŃ©": 7791,
      "Ġà¬®à¬¨à¬Ł": 7792,
      "Ġà¬ľà¬Ĺà¬ľ": 7793,
      "##": 7794,
      "Ġà¬®à¬¹à¬£": 7795,
      "2009": 7796,
      "Ġà¬ĺà¬°à¬ª": 7797,
      "ĠàŃ§àŃ¯àŃ©àŃŃ": 7798,
      "àŃį',": 7799,
      "ĠJ": 7800,
      "Ġka": 7801,
      "à¬®à¬«à¬³à¬ķ": 7802,
      "à¬°à¬®à¬¤": 7803,
      "à¬·à¬£à¬¯": 7804,
      "Ġà¬ħà¬ĸà¬¤": 7805,
      "====": 7806,
      "à¬ķà¬¤à¬°": 7807,
      "à¬£à¬®à¬£": 7808,
      "à¬Ĺà¬¨à¬ķ": 7809,
      "Ġà¬Ĩà¬Ľ": 7810,
      "Ġà¬ĵà¬ıà¬«": 7811,
      "à¬°à¬¨à¬ª": 7812,
      "],''": 7813,
      "0000": 7814,
      "Ġà¬Ńà¬Ĺà¬¤à¬Ļ": 7815,
      "Ġà¬«à¬³à¬¨à¬Ł": 7816,
      "Ġà¬Ĩà¬°à¬ıà¬®à¬Ĩà¬°à¬¸": 7817,
      "Ġform": 7818,
      "function": 7819,
      "Ġà¬®à¬Łà¬°à¬¸": 7820,
      "Ġà¬¡à¬¹à¬³": 7821,
      "Ġà¬§àŃ±à¬¨à¬Ļ": 7822,
      "à¬·à¬£à¬Ń": 7823,
      "à¬°à¬¹à¬Ĺ": 7824,
      "à¬ĩà¬ķà¬³": 7825,
      "ĠàŃªàŃ¬àŃ«": 7826,
      "](/\\": 7827,
      "^\\": 7828,
      "ce": 7829,
      "|\\": 7830,
      "Ķà¤°": 7831,
      "à¬ļà¬¡": 7832,
      "à¬°à¬¸à¬ŀ": 7833,
      "Ġà¬ľà¬³à¬¦": 7834,
      "$/": 7835,
      "ner": 7836,
      "](\\": 7837,
      ":)/": 7838,
      "Ġà¬ķà¬ĩà¬¥": 7839,
      "Ġà¤ı": 7840,
      "Ġà¬¦à¬¶à¬®à¬°": 7841,
      "à¤¾à¤Ĥ": 7842,
      "Ġ\"\";": 7843,
      "]+|\\": 7844,
      "]+$/": 7845,
      "Ġ})(": 7846,
      "Ġ'').": 7847,
      "Ġà¬ľà¬³à¬ķà¬·": 7848,
      "Ġspli": 7849,
      "]\\:)/": 7850,
      "](/^\\": 7851,
      "Ġdir": 7852,
      "splited": 7853,
      "splits": 7854,
      "]\\(\\'/": 7855,
      "]\\(\\'(?": 7856,
      "gex": 7857,
      "Ġregex": 7858,
      "],'');": 7859,
      "Ġformated": 7860,
      "](\\''": 7861,
      "Ġ})();": 7862,
      "Ġsplited": 7863,
      "]\\(\\'(?!": 7864,
      "Ġà¬ĵà¬ıà¬®à¬¸": 7865,
      "à¬®à¬°à¬Ļ": 7866,
      "Ġà¬¹à¬Łà¬·": 7867,
      "ĊĊĊĊ": 7868,
      "ish": 7869,
      "Ġà¬¬à¬°à¬«à¬ª": 7870,
      "à¬ķà¬Ĺà¬¨": 7871,
      "à¬¬àŃŁà¬°": 7872,
      "Ġà¬¯à¬¬à¬¨": 7873,
      "à¬¨à¬¸à¬®à¬¨": 7874,
      "à¬ķà¬°à¬£à¬¯": 7875,
      "ĠàŃ§àŃ¯àŃ¨àŃ®": 7876,
      "Ġà¬ĵà¬Ńà¬°à¬¹": 7877,
      "631": 7878,
      "à¬¤à¬ªà¬¸": 7879,
      "ĠàŃ¬àŃ¨àŃ©": 7880,
      "ĠàŃªàŃ¬àŃ¯": 7881,
      "à¬Ĩà¬ĩà¬²": 7882,
      "à¬¡à¬¬à¬®": 7883,
      "àŃ¯àŃ¯àŃ¦": 7884,
      "ĠàŃŃàŃ®àŃ¦": 7885,
      "oo": 7886,
      "Ġà¬ıà¬®à¬ı": 7887,
      "])-": 7888,
      "à¬ķà¬²à¬ľ": 7889,
      "Ġà¬¸à¬§à¬¬": 7890,
      "à¬Ĺà¬²à¬®": 7891,
      "à¬²à¬ıà¬¡": 7892,
      "à¬ĩà¬Ńà¬³": 7893,
      "àŃŁà¬¨à¬Ĺà¬°à¬°": 7894,
      "à¬°à¬«à¬°": 7895,
      "à¬ıà¬¸à¬ĩà¬°": 7896,
      "à¬Ĺà¬łà¬¬à¬¨": 7897,
      "à¬¿âĢĮàŃĩ": 7898,
      "pari": 7899,
      "Ġà¬ħà¬ªà¬ķ": 7900,
      "Ġà¬ĩà¬Ĩà¬¨": 7901,
      "à¬ıà¬²à¬ľ": 7902,
      "Ġà¬ıà¬²à¬¸": 7903,
      "à¬¬à¬¥à¬°": 7904,
      "Ġà¬¸à¬¤à¬¨": 7905,
      "à¬£à¬ľ": 7906,
      "àŃ«àŃªàŃ©": 7907,
      "à¬Ĩà¬°à¬ı": 7908,
      "à¬¯à¬®à¬°": 7909,
      "Ġà¬ħà¬£à¬ª": 7910,
      "ĠàŃ©àŃŃàŃ§": 7911,
      "ĠàŃ©àŃ¯àŃ©": 7912,
      "ĠàŃ¯àŃ®àŃ¨": 7913,
      "à¬¬à¬Ĺà¬¤": 7914,
      "à¥¤âĢĻâĢĻ": 7915,
      "à¬¥à¬¡": 7916,
      "Ġà¬ļà¬Ļ": 7917,
      "à¬¬à¬°à¬ł": 7918,
      "2014": 7919,
      "à¬ıà¬²à¬ıà¬¸": 7920,
      "à¬¹à¬¤à¬Ĺ": 7921,
      "Ġ1999": 7922,
      "____": 7923,
      "NN": 7924,
      "à¬¡à¬¬à¬°": 7925,
      "Ġà¬¬à¬¨à¬°à¬ķ": 7926,
      "Ġà¬ħà¬¸à¬«à¬³à¬¤": 7927,
      "à¬ĩà¬ıà¬¸à¬Ĩà¬°": 7928,
      "àŃģ|": 7929,
      "à¬¡à¬¬à¬Ļ": 7930,
      "Ġà¬¸à¬¬à¬®": 7931,
      "Ġà¬Ĩà¬¡à¬ľà¬·": 7932,
      "à¬ľà¬Ĩà¬¡": 7933,
      "lyani": 7934,
      "à¬²à¬¬à¬ķ": 7935,
      "à¬¶à¬ªà¬¥": 7936,
      "Ġà¤Ķà¤°": 7937,
      "Ġkalyani": 7938,
      "parida": 7939,
      "Ġkalyaniparida": 7940,
      "à¬²à¬ªà¬²": 7941,
      "à¬¯à¬²": 7942,
      "Ġà¬¤à¬¹à¬¬": 7943,
      "à¬¤à¬®à¬¸": 7944,
      "à¬·à¬ķà¬¶": 7945,
      "à¤Ī": 7946,
      "ĠàŃªàŃ©àŃ§": 7947,
      "cri": 7948,
      "Ġà¬°à¬ıà¬Łà¬°": 7949,
      "à¬ļà¬¨à¬ª": 7950,
      "à¬Ĺà¬°à¬ªà¬¡": 7951,
      "Ġà¬¹à¬ľà¬°à¬¤": 7952,
      "àŃŁà¬£à¬¤": 7953,
      "Ġà¬ĭà¬£à¬¦": 7954,
      "à¬¾)-": 7955,
      "à¬¿à¥¤''": 7956,
      "ĠàŃ«àŃ§àŃ¬": 7957,
      "Ġà¬®à¬ķà¬°à¬¨": 7958,
      "Ġà¬·à¬¢à¬Ļ": 7959,
      "Gà¬°": 7960,
      "à¬®à¬¬à¬¨": 7961,
      "ĠàŃªàŃ«àŃ¯": 7962,
      "à¬ķà¬ªà¬°": 7963,
      "à¬§à¬®àŃŁ": 7964,
      "Ġà¬¸à¬®à¬Ń": 7965,
      "Ġ93": 7966,
      "à¬®àŃŁà¬Ļ": 7967,
      "à¬£à¬¶": 7968,
      "àŃįâĢĮà¬¾": 7969,
      "ĠàŃ«àŃ§àŃŃ": 7970,
      "ĠàŃ©àŃ¯àŃ®": 7971,
      "à¬°à¬³à¬ķ": 7972,
      "Ġà¬Ĺà¬¡à¬°": 7973,
      "Ġà¬īà¬ĩà¬²": 7974,
      "à¬¬à¬ķà¬ľà¬£à¬ķ": 7975,
      "Ġà¤ī": 7976,
      "Ġà¬ıà¬²à¬ıà¬¨à¬ľ": 7977,
      "ĠàŃ©àŃ¬àŃ¨": 7978,
      "ĠàŃ®àŃŃàŃŃàŃª": 7979,
      "].;": 7980,
      "à¬ľà¬³à¬¨": 7981,
      "à¬¶à¬°à¬¤": 7982,
      "Ġà¬²àŃŁà¬°": 7983,
      "à¬²à¬ķà¬¬à¬·": 7984,
      "ĠàŃ¨àŃ¦àŃ¨àŃ¬": 7985,
      "Ġà¬Ĺà¬Ľà¬ķà¬Ł": 7986,
      "ĠàŃªàŃ¨àŃ¯": 7987,
      "ĠàŃ¯àŃ¯àŃ¦": 7988,
      "Ĥ·": 7989,
      "Ġà¬¬à¬°à¬ªà¬¦": 7990,
      "Ġà¬īà¬ŃàŃŁà¬ķ": 7991,
      "Ġà¬¸à¬¡à¬ķà¬°": 7992,
      "à¬¨à¬ľà¬°": 7993,
      "à¬®à¬ľà¬¨": 7994,
      "à¬¹à¬ŀ": 7995,
      "Ġà¬ķà¬°à¬Ľ": 7996,
      "Ġà¬¨à¬ĺà¬Ł": 7997,
      "ĠàŃ«àŃ¦àŃ®": 7998,
      "àŃ§àŃ§àŃ®": 7999,
      "Ġà¬²à¬ĸà¬¨à¬ī": 8000,
      "Ġà¬ķàŃŁ": 8001,
      "Ġà¬¹à¬¸à¬°à¬Ļ": 8002,
      "Ġà¬īà¬ĩà¬£": 8003,
      "ĠàŃ¨àŃ¨àŃ¦àŃ¦": 8004,
      "àŃįàŃģ": 8005,
      "Ġà¥¤................": 8006,
      "Ġà¬¬à¬¡à¬ķ": 8007,
      "Ġà¬ªà¬£à¬¬à¬¨": 8008,
      "Ġà¬ĩà¬¨à¬°": 8009,
      "Ġà¬ļà¬ªà¬²à¬°": 8010,
      "Ġà¬ĩà¬¨à¬Ł": 8011,
      "Ġ'&": 8012,
      "à¬¥à¬ķà¬¤": 8013,
      "Ġà¬®à¬ķà¬¡": 8014,
      "Ġà¬¯à¬®à¬°": 8015,
      "ĠàŃ©àŃ®àŃ¯": 8016,
      "ĠàŃ©àŃ®àŃ©": 8017,
      "Ġà¬¶à¬ªà¬¥à¬Ĺ": 8018,
      "Ġà¬ĵà¬Ńà¬°à¬²": 8019,
      "Ġà¥¤)": 8020,
      "Ġ?\"": 8021,
      "ĠàŃªàŃ¨àŃŃ": 8022,
      "Ġ130": 8023,
      "Ġà¬¸à¬¹à¬¬": 8024,
      "Ġà¬Ĩà¬¸à¬¨à¬Ł": 8025,
      "Ġà¬Ľà¬ķà¬¸": 8026,
      "Ġà¬®à¬¨à¬Ń": 8027,
      "Ġ\"'\"": 8028,
      "Name": 8029,
      "à¬®à¬®à¬£": 8030,
      "Ġà¬®à¬²à¬Ł": 8031,
      "à¬¿à¬ģ)": 8032,
      "ĠàŃ¬àŃ§àŃ«": 8033,
      "à¬ķà¬¸à¬ª": 8034,
      "ĠàŃ«àŃ¦àŃŃ": 8035,
      "','\"": 8036,
      "à¬¿\"à¥¤": 8037,
      "à¬ķà¬ļà¬ķ": 8038,
      "à¬¤à¬²à¬Ļ": 8039,
      "Ġà¬ķà¬¨àŃ±": 8040,
      "Ġ\"','\"": 8041,
      "à¬°à¬ľà¬¬à¬¨": 8042,
      "ĠàŃªàŃ¦àŃª": 8043,
      "àŃŁàŃŁà¬¸": 8044,
      "Ġà¬²à¬Łà¬ķ": 8045,
      "Ġà¬¸à¬¹à¬ľà¬¸": 8046,
      "Ġà¬Ľà¬³à¬°": 8047,
      "à¬°à¬¦à¬Ļ": 8048,
      "Ġà¬ªà¬¤à¬¨à¬°": 8049,
      "Ġà¬¡à¬¹à¬³à¬¬": 8050,
      "Ġà¬ªà¬¤à¬Ļ": 8051,
      "Ġà¬®à¬³à¬¦": 8052,
      "Ġà¬īà¬Ł": 8053,
      "à¬«à¬°à¬¨à¬Ĺà¬°": 8054,
      "Ġà¬¬à¬°à¬¹": 8055,
      "Ġà¬¦à¬¶à¬¬à¬°": 8056,
      "Ġà¬¸à¬°à¬¸à¬¤": 8057,
      "ĠàŃ¬àŃ¯àŃ¦": 8058,
      "132": 8059,
      "Ġ1998": 8060,
      "Po": 8061,
      "dà¬°": 8062,
      "Ġà¬ıà¬ķà¬²à¬ķ": 8063,
      "Ġ1979": 8064,
      "ĠĊĠĠĠ": 8065,
      "à¬®à¬ĺà¬Łà¬ķ": 8066,
      "Ac": 8067,
      "Ġà¬¤à¬īà¬²": 8068,
      "Ġà¬ľà¬£à¬ķà¬Ļ": 8069,
      "à¬¬à¬¨à¬Ł": 8070,
      "Ġà¬Ĩà¬Ĺà¬Ńà¬³": 8071,
      "...à¥¤": 8072,
      "ĠàŃªàŃ«àŃ¬": 8073,
      "Ġà¬ıà¬«à¬ıà¬Ł": 8074,
      "ĠàŃªàŃªàŃ¨": 8075,
      "ĠàŃ¯àŃ®àŃ¬": 8076,
      "à¬ķà¬«à¬°": 8077,
      "à¬¤à¬ªà¬Ł": 8078,
      "à¬¢à¬Ļ": 8079,
      "à¬¬à¬ªà¬²": 8080,
      "ĠàŃªàŃŃàŃŃ": 8081,
      "Ġà¬ħà¬ĺà¬Łà¬£à¬ķ": 8082,
      "ula": 8083,
      "à¬¯àŃŁ": 8084,
      "Ġà¬ħà¬¸à¬°à¬«": 8085,
      "à¬²à¬¡à¬¨": 8086,
      "ĠàŃ¨àŃ§àŃ¦àŃ¦": 8087,
      "Ġà¬ĭà¬·à¬¬": 8088,
      "ĠàŃªàŃ¯àŃŃ": 8089,
      "à¬¥àŃ±": 8090,
      "à¬®à¬°à¬¤": 8091,
      "à¬ľà¬Ĺà¬¦": 8092,
      "à¬¤à¬¨à¬Ĺ": 8093,
      "à¬ĩà¬¨à¬·": 8094,
      "à¬Ľà¬¦à¬ªà¬Ł": 8095,
      "se": 8096,
      "Ġà¬ľàŃŁà¬¤": 8097,
      "Ġà¬ĸà¬ªà¬°": 8098,
      "à¬ķà¬Łà¬®": 8099,
      "Ġà¬ķà¬¨àŃ±à¬°": 8100,
      "Ġ87": 8101,
      "ĠàŃªàŃ«àŃ©": 8102,
      "ĠàŃ©àŃªàŃ©": 8103,
      "Ġà¬¸à¬§": 8104,
      "2010": 8105,
      "ĠàŃ«àŃ§àŃ«": 8106,
      "Ġ'%": 8107,
      "à¬ķà¬ªà¬Ł": 8108,
      "à¬ĩà¬¬à¬¸": 8109,
      "Ġà¬®à¬°à¬ķ": 8110,
      "à¬§à¬°à¬®": 8111,
      "à¬ħà¬®à¬³": 8112,
      "à¬µà¬¬à¬¸": 8113,
      "à¬·à¬ķà¬ķ": 8114,
      "ĠàŃ«àŃªàŃ¨": 8115,
      "à¬ħà¬¨à¬Ļ": 8116,
      "à¬ľà¬°à¬¬": 8117,
      "ĠàŃªàŃ©àŃŃ": 8118,
      "à¬¥à¬ľ": 8119,
      "à¬ħà¬ľàŃŁ": 8120,
      "ĠàŃŃàŃ§àŃ¦": 8121,
      "ĠàŃ§àŃ¯àŃ¨àŃ¨": 8122,
      "à¬ªà¬Łà¬¦": 8123,
      "ĠàŃ§àŃ¬àŃ«àŃ¨": 8124,
      "àŃ§àŃ¯àŃ®àŃ¦": 8125,
      "Ġà¬Ĺà¬²à¬ĵ": 8126,
      "Ġ61": 8127,
      "Ġà¬ħà¬¶à¬°à¬«": 8128,
      "à¬®à¬Ńà¬ķ": 8129,
      "à¬Łà¬§à¬°": 8130,
      "à¬°à¬ķà¬°à¬Ļ": 8131,
      "à¬ķà¬¨à¬Ĺ": 8132,
      "à¬®à¬ĭà¬¤": 8133,
      "Ġà¬ıà¬Ńà¬²": 8134,
      "à¬ģàŃģ": 8135,
      "Ġà¬¨à¬°à¬ĵ": 8136,
      "ĠàŃ¬àŃ¬àŃ¨": 8137,
      "ĠOU": 8138,
      "Ġà¬°à¬¹à¬Ľ": 8139,
      "à¬¤à¬ķà¬Ĺ": 8140,
      "Ġà¬ħà¬¸à¬¹à¬®à¬¤": 8141,
      "728": 8142,
      "Ġà¬¬àŃŁà¬¸à¬¸": 8143,
      "Ġà¬ķà¬·à¬¨": 8144,
      "à¬¤à¬®à¬¹": 8145,
      "ĠàŃ©àŃªàŃª": 8146,
      "ĠX": 8147,
      "àŃĩàŃĸà¥¤": 8148,
      "ĠàŃªàŃ«àŃ®": 8149,
      "ĠàŃªàŃªàŃ§": 8150,
      "à¬ªà¬²à¬ķ": 8151,
      "Ġ2024": 8152,
      "à¬ıà¬²à¬¡": 8153,
      "Ġ79": 8154,
      "àŃ§àŃ¦àŃ©": 8155,
      "Ġà¬ľà¬¬à¬ķ": 8156,
      "à¬łà¬¬": 8157,
      "à¬°à¬¶àŃŁ": 8158,
      "Ġà¬Ĩà¬ķà¬¬à¬°à¬Ļ": 8159,
      "Ġà¬¬à¬¨à¬ķà¬°": 8160,
      "à¬°à¬¨à¬Ĺà¬°à¬°": 8161,
      "Ġà¬³à¬ķ": 8162,
      "120": 8163,
      "à¬²à¬®à¬ķ": 8164,
      "Ġà¬Ľà¬ªà¬¨": 8165,
      "àŃ±à¬ķà¬ªà¬ķ": 8166,
      "à¬®à¬°à¬£à¬¶à¬ķ": 8167,
      "ĠàŃ¬àŃ¯àŃ«": 8168,
      "ĠàŃªàŃ¨àŃ§": 8169,
      "à¬īà¬¥à¬®": 8170,
      "Ġà¬ıà¬¸à¬ľ": 8171,
      "à¬²à¬¦à¬°": 8172,
      "à¬ļà¬®à¬¨": 8173,
      "ĠàŃªàŃ«àŃª": 8174,
      "àŃį)-": 8175,
      "à¬§à¬§à¬°": 8176,
      "àŃ¨àŃ¦àŃ¨àŃ©": 8177,
      "Ġà¬ĭà¬ľ": 8178,
      "ĠàŃ§àŃ®àŃ«àŃŃ": 8179,
      "ĠàŃ«àŃ©àŃ®": 8180,
      "ĠàŃ®àŃŃàŃ¦": 8181,
      "Ġ]": 8182,
      "à¬Łà¬ªà¬°": 8183,
      "ĠàŃ«àŃ¯àŃ¯": 8184,
      "Ġà¬īà¬¦à¬Ĺ": 8185,
      "Ġà¬īà¬ªà¬¸à¬ļ": 8186,
      "ËĪ": 8187,
      "à¬Ĩà¬ªà¬¤": 8188,
      "à¬¸à¬ķà¬¬": 8189,
      "ĠàŃªàŃ©àŃ«": 8190,
      "Ġà¬ķà¬³à¬¨": 8191,
      "à¬¸à¬Łà¬°": 8192,
      "Ġà¬¬à¬·": 8193,
      "à¬ģ.": 8194,
      "Ġà¬ħà¬¸à¬²à¬®": 8195,
      "Ġà¬Ĩà¬²à¬ľ": 8196,
      "Ġ84": 8197,
      "Ġà¬ħà¬¸à¬°à¬¨": 8198,
      "Ġà¬¹à¬¦à¬Ĺà¬¡": 8199,
      "Ġà¬¸à¬°à¬¹": 8200,
      "Ġà¬¹à¬Ĺ": 8201,
      "à¬ĵà¬²à¬Ļ": 8202,
      "à¬°à¬Ńà¬¦": 8203,
      "Ġà¬ħà¬¬à¬ľà¬°à¬Ń": 8204,
      "Ġà¬¨à¬¬à¬Ĺ": 8205,
      "ital": 8206,
      "Ġà¬¤à¬Łà¬ķ": 8207,
      "Ġ1500": 8208,
      "à¬¶àŃŁà¬Ļ": 8209,
      "à¬§à¬¯": 8210,
      "à¬°à¬¬à¬§": 8211,
      "à¬Ĺà¬¤à¬®": 8212,
      "ĠàŃ¯àŃ¨àŃ¦": 8213,
      "Ġà¬ħà¬ķà¬³à¬°": 8214,
      "ĠðŁĩ": 8215,
      "Ġà¬¨àŃŁà¬¨à¬¤": 8216,
      "à¬¹à¬¸à¬ķ": 8217,
      "Ġà¬ĵà¬®à¬ª": 8218,
      "àŃŁà¬®à¬§à¬°à¬£à¬°": 8219,
      "ĠZ": 8220,
      "à¬¦àŃŁà¬¤": 8221,
      "à¬¿à¥¤âĢĻâĢĻ": 8222,
      "Ġà¬ļà¬®à¬ķà¬¦": 8223,
      "àŃ¨àŃ¦àŃ¦àŃ¨": 8224,
      "ĠðŁĳ": 8225,
      "à¬¡à¬¨à¬Ļ": 8226,
      "à¬ŀà¬ķ": 8227,
      "à¬¼à¬¿)": 8228,
      "àŃŁà¬¸à¬ļ": 8229,
      "à¬¿-âĢľ": 8230,
      "sitive": 8231,
      "Ġà¬ıà¬ļà¬¸": 8232,
      "à¬°à¬£à¬²": 8233,
      "à¬Ĩà¬ĩà¬ĵà¬¸": 8234,
      "Ġà¬īà¬ªà¬¸à¬®": 8235,
      "ĠàŃ¬àŃ¦àŃ¯": 8236,
      "ĠàŃªàŃ¯àŃ«": 8237,
      "àŃŁà¬Ńà¬£": 8238,
      "be": 8239,
      "Ġà¬¬à¬°à¬ªà¬ķ": 8240,
      "ĠàŃŁà¬¶à¬Ļ": 8241,
      "Ġà¬¸à¬¨à¬®": 8242,
      "à¬³à¬ļà¬¨": 8243,
      "ĠàŃ®àŃ¦àŃ¯": 8244,
      "odisha": 8245,
      "à¬ĩà¬ļà¬¨": 8246,
      "Ġà¬ħàŃŁà¬°": 8247,
      "à¬īà¬·à¬£": 8248,
      "ĠàŃ®àŃ¨àŃ®": 8249,
      "]'.": 8250,
      "ĠàŃªàŃ©àŃ¨": 8251,
      "à¬¹à¬ķà¬¤": 8252,
      "à¬ĸo": 8253,
      "Ġà¬ļà¬¡à¬ķ": 8254,
      "à¬¬à¬°à¬Ĺ": 8255,
      "Ġà¬ľà¬¨à¬ªà¬¥à¬°": 8256,
      "Ġà¬¦à¬°à¬ĺ": 8257,
      "Ġà¬¸à¬®àŃŁà¬ł": 8258,
      "Ġà¬¸à¬²à¬«à¬°": 8259,
      "Ġà¬ıà¬¨à¬Ĩà¬°à¬¸": 8260,
      "à§ĩ": 8261,
      ":.": 8262,
      "à¬¿.....": 8263,
      "à¬¬à¬¬à¬¸": 8264,
      "à¬¤à¬®àŃŁ": 8265,
      "ĠàŃ©àŃ¯àŃ¬": 8266,
      "à¬¬à¬¨à¬Ĺà¬°": 8267,
      "ĠàŃªàŃªàŃŃ": 8268,
      "ĠàŃ«àŃªàŃ¯": 8269,
      "àŃįâĢĻ,": 8270,
      "px": 8271,
      "à¬¨à¬Ńà¬°": 8272,
      "Ġà¬¬à¬Ĺà¬³": 8273,
      "ĠàŃŃàŃ§àŃ«": 8274,
      "Ġà¬¬à¬²àŃ±à¬¨": 8275,
      "Ġà¬ľà¬¨à¬¸à¬®à¬°": 8276,
      "ĠàŃ¨àŃ©àŃ©àŃ®": 8277,
      "à¬°à¬¥à¬¯": 8278,
      "Ġà¬ªà¬ıà¬ľà¬¨": 8279,
      "Ġà¬ıà¬µ": 8280,
      "ĠàŃ«àŃ«àŃ©": 8281,
      "Ġà¬ıà¬«à¬Ĩà¬ĩà¬Ĩà¬°à¬°": 8282,
      "àŃ¦àŃ¨àŃ®": 8283,
      "Ġà¬Ĩà¬®à¬·": 8284,
      "Ġà¬¬à¬¨à¬ķ": 8285,
      "ĠàŃŃàŃ¯àŃ¬": 8286,
      "à¬¸à¬ľà¬¨": 8287,
      "à¬¥o": 8288,
      "Ġà¬¡à¬°à¬¨": 8289,
      "à¬¤à¬®à¬¬": 8290,
      "èª": 8291,
      "Ġ89": 8292,
      "ĠàŃ©àŃ¬àŃŃ": 8293,
      "Eà¬°": 8294,
      "à¬·à¬®à¬£": 8295,
      "Ġà¬²à¬ĩà¬ķ": 8296,
      "Ġà¬§à¬¨à¬¹": 8297,
      "àŃ§àŃ¦àŃ¬": 8298,
      "àŃ§àŃ®àŃ¦": 8299,
      "ĠàŃ«àŃªàŃ«": 8300,
      "Ġ1988": 8301,
      "à¬³à¬²à¬¹à¬¡": 8302,
      "Ġà¬Ĺà¬¡à¬¨": 8303,
      "Ġà¬ľà¬³à¬Ń": 8304,
      "Ġà¬Ĩà¬ªà¬²à¬°": 8305,
      "èªŀ": 8306,
      "à¬ķà¬ĸ": 8307,
      "Ġà¬ªà¬¦à¬¨": 8308,
      "à¬¿-\"": 8309,
      "ĠàŃ«àŃ¨àŃ¬": 8310,
      "à¬Ĺà¬¨à¬Ļ": 8311,
      "à¬¬à¬²à¬¡à¬¨": 8312,
      "à¬°à¬µ": 8313,
      "Ġà¥¤-": 8314,
      "Ġà¬¦à¬°à¬Ńà¬Ļ": 8315,
      "à¬ģ'": 8316,
      "àŃ®àŃ«àŃ¦": 8317,
      "Ġà¬ħà¬£à¬Ľ": 8318,
[...]
