{
  "version": "1.0",
  "truncation": null,
  "padding": null,
  "added_tokens": [
    {
      "id": 0,
      "content": "[PAD]",
      "single_word": false,
      "lstrip": false,
      "rstrip": false,
      "normalized": false,
      "special": true
    },
    {
      "id": 1,
      "content": "[UNK]",
      "single_word": false,
      "lstrip": false,
      "rstrip": false,
      "normalized": false,
      "special": true
    },
    {
      "id": 2,
      "content": "[CLS]",
      "single_word": false,
      "lstrip": false,
      "rstrip": false,
      "normalized": false,
      "special": true
    },
    {
      "id": 3,
      "content": "[SEP]",
      "single_word": false,
      "lstrip": false,
      "rstrip": false,
      "normalized": false,
      "special": true
    },
    {
      "id": 4,
      "content": "[MASK]",
      "single_word": false,
      "lstrip": false,
      "rstrip": false,
      "normalized": false,
      "special": true
    },
    {
      "id": 5,
      "content": "<|endoftext|>",
      "single_word": false,
      "lstrip": false,
      "rstrip": false,
      "normalized": false,
      "special": true
    }
  ],
  "normalizer": {
    "type": "Sequence",
    "normalizers": [
      {
        "type": "NFKD"
      },
      {
        "type": "Replace",
        "pattern": {
          "String": "\\s+"
        },
        "content": " "
      }
    ]
  },
  "pre_tokenizer": {
    "type": "Sequence",
    "pretokenizers": [
      {
        "type": "ByteLevel",
        "add_prefix_space": true,
        "trim_offsets": true,
        "use_regex": true
      }
    ]
  },
  "post_processor": null,
  "decoder": {
    "type": "ByteLevel",
    "add_prefix_space": true,
    "trim_offsets": true,
    "use_regex": true
  },
  "model": {
    "type": "BPE",
    "dropout": null,
    "unk_token": "[UNK]",
    "continuing_subword_prefix": null,
    "end_of_word_suffix": null,
    "fuse_unk": false,
    "byte_fallback": false,
    "vocab": {
      "[PAD]": 0,
      "[UNK]": 1,
      "[CLS]": 2,
      "[SEP]": 3,
      "[MASK]": 4,
      "<|endoftext|>": 5,
      "!": 6,
      "\"": 7,
      "#": 8,
      "$": 9,
      "%": 10,
      "&": 11,
      "'": 12,
      "(": 13,
      ")": 14,
      "*": 15,
      "+": 16,
      ",": 17,
      "-": 18,
      ".": 19,
      "/": 20,
      "0": 21,
      "1": 22,
      "2": 23,
      "3": 24,
      "4": 25,
      "5": 26,
      "6": 27,
      "7": 28,
      "8": 29,
      "9": 30,
      ":": 31,
      ";": 32,
      "<": 33,
      "=": 34,
      ">": 35,
      "?": 36,
      "@": 37,
      "A": 38,
      "B": 39,
      "C": 40,
      "D": 41,
      "E": 42,
      "F": 43,
      "G": 44,
      "H": 45,
      "I": 46,
      "J": 47,
      "K": 48,
      "L": 49,
      "M": 50,
      "N": 51,
      "O": 52,
      "P": 53,
      "Q": 54,
      "R": 55,
      "S": 56,
      "T": 57,
      "U": 58,
      "V": 59,
      "W": 60,
      "X": 61,
      "Y": 62,
      "Z": 63,
      "[": 64,
      "\\": 65,
      "]": 66,
      "^": 67,
      "_": 68,
      "`": 69,
      "a": 70,
      "b": 71,
      "c": 72,
      "d": 73,
      "e": 74,
      "f": 75,
      "g": 76,
      "h": 77,
      "i": 78,
      "j": 79,
      "k": 80,
      "l": 81,
      "m": 82,
      "n": 83,
      "o": 84,
      "p": 85,
      "q": 86,
      "r": 87,
      "s": 88,
      "t": 89,
      "u": 90,
      "v": 91,
      "w": 92,
      "x": 93,
      "y": 94,
      "z": 95,
      "{": 96,
      "|": 97,
      "}": 98,
      "~": 99,
      "¡": 100,
      "¢": 101,
      "£": 102,
      "¤": 103,
      "¥": 104,
      "¦": 105,
      "§": 106,
      "¨": 107,
      "©": 108,
      "ª": 109,
      "«": 110,
      "¬": 111,
      "®": 112,
      "¯": 113,
      "°": 114,
      "±": 115,
      "²": 116,
      "³": 117,
      "´": 118,
      "µ": 119,
      "¶": 120,
      "·": 121,
      "¸": 122,
      "¹": 123,
      "º": 124,
      "»": 125,
      "¼": 126,
      "½": 127,
      "¾": 128,
      "¿": 129,
      "Â": 130,
      "Ã": 131,
      "Ä": 132,
      "Å": 133,
      "Æ": 134,
      "É": 135,
      "Ê": 136,
      "Ë": 137,
      "Ì": 138,
      "Í": 139,
      "Î": 140,
      "Ï": 141,
      "Ð": 142,
      "Ñ": 143,
      "Ò": 144,
      "Ô": 145,
      "Õ": 146,
      "Ö": 147,
      "×": 148,
      "Ø": 149,
      "Ù": 150,
      "Ú": 151,
      "Û": 152,
      "à": 153,
      "á": 154,
      "â": 155,
      "ã": 156,
      "ä": 157,
      "å": 158,
      "æ": 159,
      "ç": 160,
      "è": 161,
      "é": 162,
      "î": 163,
      "ï": 164,
      "ð": 165,
      "Ċ": 166,
      "Ġ": 167,
      "Ģ": 168,
      "ģ": 169,
      "Ĥ": 170,
      "ĥ": 171,
      "Ħ": 172,
      "ħ": 173,
      "Ĩ": 174,
      "ĩ": 175,
      "Ī": 176,
      "ī": 177,
      "Ĭ": 178,
      "ĭ": 179,
      "Į": 180,
      "į": 181,
      "İ": 182,
      "ı": 183,
      "Ĳ": 184,
      "ĳ": 185,
      "Ĵ": 186,
      "ĵ": 187,
      "Ķ": 188,
      "ķ": 189,
      "ĸ": 190,
      "Ĺ": 191,
      "ĺ": 192,
      "Ļ": 193,
      "ļ": 194,
      "Ľ": 195,
      "ľ": 196,
      "Ŀ": 197,
      "ŀ": 198,
      "Ł": 199,
      "ł": 200,
      "Ń": 201,
      "à¬": 202,
      "àŃ": 203,
      "Ġà¬": 204,
      "à¬¾": 205,
      "àŃį": 206,
      "à¬°": 207,
      "à¬¿": 208,
      "àŃĩ": 209,
      "à¬¨": 210,
      "à¬¤": 211,
      "à¬ķ": 212,
      "àŃģ": 213,
      "à¬¬": 214,
      "à¬®": 215,
      "àŃŁ": 216,
      "Ġà¬¸": 217,
      "à¬²": 218,
      "à¬¹": 219,
      "Ġà¬ķ": 220,
      "Ġà¬ª": 221,
      "à¥": 222,
      "à¥¤": 223,
      "à¬¸": 224,
      "àŃĢ": 225,
      "à¬¥": 226,
      "Ġà¥¤": 227,
      "Ġà¬¬": 228,
      "à¬¦": 229,
      "àŃĩà¬¾": 230,
      "à¬£": 231,
      "Ġà¬®": 232,
      "à¬ª": 233,
      "à¬Ł": 234,
      "à¬ĩ": 235,
      "à¬³": 236,
      "à¬Ĺ": 237,
      "Ġà¬ı": 238,
      "Ġà¬ħ": 239,
      "à¬·": 240,
      "à¬Ļ": 241,
      "à¬¶": 242,
      "à¬¡": 243,
      "à¬§": 244,
      "à¬ľ": 245,
      "Ġà¬¨": 246,
      "Ġà¬ķà¬°": 247,
      "ĠàŃ": 248,
      "Ġà¬¹": 249,
      "Ġà¬¦": 250,
      "à¬ļ": 251,
      "Ġà¬°": 252,
      "Ġà¬ľ": 253,
      "Ġà¬Ń": 254,
      "Ġà¬ĵ": 255,
      "à¬Ń": 256,
      "ĠĊ": 257,
      "à¬¯": 258,
      "à¬Ĥ": 259,
      "Ġà¬Ĩ": 260,
      "Ġà¬¤": 261,
      "à¬¼": 262,
      "à¬ı": 263,
      "Ġà¬Ĺ": 264,
      "§àŃ": 265,
      "àŃ±": 266,
      "Ġà¬ıà¬¹": 267,
      "à¬ĸ": 268,
      "Ġà¬¶": 269,
      "à¬Ĩ": 270,
      "Ġà¬¯": 271,
      "àŃĤ": 272,
      "à¬Ľ": 273,
      "à¬ĩà¬¥": 274,
      "à¬ł": 275,
      "àŃ¦": 276,
      "à¬¼à¬¿": 277,
      "Ġà¬ī": 278,
      "à¬ģ": 279,
      "ĠàŃ§àŃ": 280,
      "Ġà¬ļ": 281,
      "àŃĥ": 282,
      "Ġà¬ªà¬°": 283,
      "à¬¬à¬°": 284,
      "Ġà¬²": 285,
      "à¬ķà¬°": 286,
      "à¬°à¬¤": 287,
      "Ġà¬¸à¬®": 288,
      "Ġ(": 289,
      "Ġà¬ıà¬ķ": 290,
      "Ġà¬ħà¬¨": 291,
      "à¬ī": 292,
      "¯àŃ": 293,
      "Ġà¬¥": 294,
      "âĢ": 295,
      "à¬°à¬°": 296,
      "àŃŁà¬°": 297,
      "à¬ŀ": 298,
      "ĠàŃ¨": 299,
      "Ġà¬ĵà¬¡": 300,
      "en": 301,
      "te": 302,
      "à¬°à¬®": 303,
      "Ġà¬ıà¬¬": 304,
      "à¬¤à¬°": 305,
      "à¬ªà¬°": 306,
      "àŃĩàŃ": 307,
      "ĠàŃ§àŃ¯àŃ": 308,
      "of": 309,
      "à¬°à¬ķ": 310,
      "Ġà¬®à¬§": 311,
      "Ġà¬®à¬¸": 312,
      "end": 313,
      "xt": 314,
      "Ġ<": 315,
      "text": 316,
      "|>": 317,
      "oftext": 318,
      "endoftext": 319,
      "Ġ<|": 320,
      "à¬¨à¬°": 321,
      "âĢĮ": 322,
      "Ġà¬ľà¬£": 323,
      "àŃ¦àŃ": 324,
      "Ġà¬®à¬¹": 325,
      "à¬«": 326,
      "Ġà¬«": 327,
      "à¬°à¬£": 328,
      "Ġà¬ĸ": 329,
      "à¬¨à¬Ļ": 330,
      "àŃŁà¬ķ": 331,
      "Ġà¬¸à¬¹": 332,
      "Ġà¬ĩ": 333,
      "Ġà¬ľà¬¨": 334,
      "à¬°à¬¸": 335,
      "à¬ľà¬¨": 336,
      "à¬¬à¬¸": 337,
      "Ġà¬°à¬¹": 338,
      "Ġà¬§": 339,
      "Ġà¬¬à¬°": 340,
      "à¬Ĺà¬°": 341,
      "Ġà¬®à¬¨": 342,
      "Ġà¬¡": 343,
      "àŃĩàŃĹ": 344,
      "à¬ħ": 345,
      "à¬°à¬¹": 346,
      "à¬¾,": 347,
      "Ġà¬¸à¬Ń": 348,
      "à¬¦à¬°": 349,
      "à¬®à¬°": 350,
      "à¬³à¬°": 351,
      "Ġà¬ħà¬§": 352,
      "à¬ļà¬¨": 353,
      "à¬®à¬¨": 354,
      "à¬Ľà¬¨": 355,
      "Ġà¬ħà¬Ń": 356,
      "à¬Łà¬°": 357,
      "Ġà¬Ł": 358,
      "à¬Ĩà¬°": 359,
      "Ġ_": 360,
      "àŃįâĢĮ": 361,
      "àŃ¨": 362,
      "àŃ±à¬°": 363,
      "à¬¬à¬¨": 364,
      "àŃĩàŃĸ": 365,
      "Ġà¬ķà¬¥": 366,
      "à¬¸à¬°": 367,
      "ĠàŃ¨àŃ¦àŃ": 368,
      "Ġà¬Ľ": 369,
      "àŃĩ,": 370,
      "à¬¸à¬¨": 371,
      "àŃŁà¬¬": 372,
      "à¬ĺ": 373,
      "Ġà¬ĺ": 374,
      "à¬¤à¬¨": 375,
      "à¬°à¬¥": 376,
      "Ġà¬īà¬ª": 377,
      "Ġà¬ħà¬Ł": 378,
      "Ġà¬īà¬¤": 379,
      "Ġ,": 380,
      "à¬¢": 381,
      "àŃŁà¬¨": 382,
      "àŃ«": 383,
      "Ġà¬ħà¬¬à¬¸": 384,
      "à¬¤à¬®": 385,
      "ĠàŃ¨àŃ¦": 386,
      "à¬°à¬¦": 387,
      "Ġà¬ķà¬²": 388,
      "à¬¿,": 389,
      "àŃª": 390,
      "à¬°à¬¥à¬®": 391,
      "àŃŃ": 392,
      "àŃ©": 393,
      "à¬ĸà¬°": 394,
      "àŃ®": 395,
      "in": 396,
      "à¬¿à¬Ĥ": 397,
      "àŃ¬": 398,
      "Ġ\"": 399,
      "ĠàŃ¨àŃ¦àŃ§àŃ": 400,
      "Ġà¬¸à¬®àŃŁà¬°": 401,
      "à¬·à¬£": 402,
      "àŃŁà¬¤": 403,
      "à¬¶à¬¨": 404,
      "àŃ§àŃ": 405,
      "à¬ĵ": 406,
      "à¬³à¬¨": 407,
      "à¬ľà¬°": 408,
      "à¬¿à¬ģ": 409,
      "à¬¶à¬°": 410,
      "à¬¼à¬¾": 411,
      "à¬°à¬¹à¬£": 412,
      "Ġà¬Ĩà¬¦": 413,
      "à¬ªà¬¤": 414,
      "à¬ĩà¬Ľ": 415,
      "Ġà¬Ĩà¬°à¬®": 416,
      "àŃ§": 417,
      "ĠàŃ©": 418,
      "àŃŁà¬¬à¬¹": 419,
      "à¬īà¬¥": 420,
      "ĠàŃ¨àŃ¦àŃ¦àŃ": 421,
      "àŃŁà¬®": 422,
      "Ġà¬īà¬ªà¬°": 423,
      "à¬ĥ": 424,
      "Ġà¬Ĩà¬¸": 425,
      "Ġà¬¸à¬°": 426,
      "Ġà¬ķà¬®": 427,
      "à¬°à¬¬": 428,
      "Ġà¬®à¬£": 429,
      "ti": 430,
      "à¬īà¬Ľ": 431,
      "à¬°à¬Ń": 432,
      "à¬°à¬Ļ": 433,
      "à¬Ĩà¬¯": 434,
      "à¬·à¬°": 435,
      "Ġà¬ħà¬°": 436,
      "on": 437,
      "al": 438,
      "àŃĢ,": 439,
      "à¬ĩà¬¨": 440,
      "Ġà¬¸à¬Ļ": 441,
      "àŃĩà¥¤": 442,
      "à¬¿à¥¤": 443,
      "à¬ĩà¬ª": 444,
      "Ġà¬¤à¬¥": 445,
      "à¬¤à¬ķ": 446,
      "Ġà¬¸à¬°à¬ķ": 447,
      "Ġà¬Ķ": 448,
      "Ġà¬ļà¬³": 449,
      "Ġà¬īà¬ļ": 450,
      "Ġà¬¬à¬¹": 451,
      "à¬Ĺà¬²": 452,
      "à¬¬à¬¤": 453,
      "à¬°à¬Ł": 454,
      "à¬¾à¬Ĥ": 455,
      "Ġà¬ľà¬Ĺ": 456,
      "),": 457,
      "Ġà¬ħà¬¤": 458,
      "à¬ĩà¬¬": 459,
      "an": 460,
      "à¬°à¬¤à¬°": 461,
      "Ġà¬§à¬°": 462,
      "Ġà¬Ĩà¬ķ": 463,
      "à¬·à¬§": 464,
      "à¬ĩà¬Ł": 465,
      "àŃ¯": 466,
      "Ġà¬ķà¬³": 467,
      "Ġà¬īà¬¦": 468,
      "Ġà¬Ķà¬·à¬§": 469,
      "Ġà¬ªà¬¤": 470,
      "Ġà¬ªà¬¦": 471,
      "à¬®à¬ķ": 472,
      "Ġà¬¬à¬¨": 473,
      "à¬¦à¬¨": 474,
      "à¬³à¬ķ": 475,
      "à¬¨àŃŁ": 476,
      "à¬Łà¬ķ": 477,
      "Ġà¬¸à¬¨": 478,
      "à¬¿.": 479,
      "à¬ªà¬¨": 480,
      "Ġà¬ļà¬³à¬ļ": 481,
      "à¬¥à¬°": 482,
      "àŃ¦àŃ¦": 483,
      "Ġà¬Ĩà¬®": 484,
      "à¬®à¬Ĺ": 485,
      "Ġà¬Ĩà¬¨": 486,
      "Ġà¬²à¬ķ": 487,
      "à¬Ĺà¬¤": 488,
      "à¬§à¬°": 489,
      "Ġà¬ħà¬ķ": 490,
      "Ġà¬ħà¬Ľ": 491,
      "Ġà¬¸à¬¬": 492,
      "Ġà¬ıà¬ł": 493,
      "à¬¡à¬³": 494,
      "à¬¨à¬¤": 495,
      "à¬³àŃŁ": 496,
      "er": 497,
      "Ġà¬¸à¬®à¬¸": 498,
      "Ġà¬°à¬ĸ": 499,
      "ĠàŃª": 500,
      "à¬¬à¬ķ": 501,
      "à¬°à¬¨": 502,
      "à¬£à¬¨": 503,
      "ĠàŃ«": 504,
      "Ġà¬ķà¬°à¬¨": 505,
      "Ġà¬°à¬ķ": 506,
      "à¬£à¬°": 507,
      "à¬¬à¬³": 508,
      "Ġà¬Ŀ": 509,
      "Ġ-": 510,
      "à¬¾à¥¤": 511,
      "à¬£à¬¸": 512,
      "ar": 513,
      "ĠàŃ§àŃ®": 514,
      "à¬³àŃŁà¬°": 515,
      "à¬¬à¬¶": 516,
      "à¬ķà¬Ł": 517,
      "Ġà¬ħà¬¸": 518,
      "or": 519,
      "ic": 520,
      "Ġà¬ħà¬ŀ": 521,
      "à¬ĩà¬²": 522,
      "Ġà¬Ĩà¬°": 523,
      "Ġà¬Ĩà¬²": 524,
      "Ġà¬¥à¬°": 525,
      "Ġà¬°à¬¥": 526,
      "ĠâĢ": 527,
      "à¤": 528,
      "is": 529,
      "à¬Ŀ": 530,
      "ĠàŃ§àŃ¯àŃ¯àŃ": 531,
      "à¬®à¬£": 532,
      "à¬¹à¬°": 533,
      "à¬¡à¬°": 534,
      "ĠàŃ§àŃ¯àŃ«": 535,
      "Ġ'": 536,
      "Ġà¬·": 537,
      "ĠàŃ§àŃ¯àŃ®": 538,
      "à¬ĩà¬ķ": 539,
      "ĠàŃŃ": 540,
      "ĠàŃ§àŃ¯àŃŃ": 541,
      "à¬ķà¬¦": 542,
      "Ġà¬¬à¬¸": 543,
      "Ġà¬°à¬ļà¬¨": 544,
      "th": 545,
      "Ġà¬ĩà¬¤": 546,
      "Ġà¬ħà¬ª": 547,
      "Ġà¬ļà¬¨": 548,
      "à¬²à¬°": 549,
      "Ġà¬¬à¬¡": 550,
      "Ġà¬¦à¬ķ": 551,
      "Ġà¬ķà¬¹": 552,
      "à¬ļà¬¨à¬°": 553,
      "Ġà¬ķà¬¬": 554,
      "âĢĻ": 555,
      "à¬Łà¬¨": 556,
      "Ġà¬ªà¬ķ": 557,
      "ĠàŃ®": 558,
      "Ġà¬ķà¬£": 559,
      "Ġà¬ıà¬¥": 560,
      "à¬°à¬ª": 561,
      "ĠàŃ§àŃ¯àŃ¬": 562,
      "ĠàŃ§àŃ¦": 563,
      "à¬ªà¬ķ": 564,
      "ĠàŃ¬": 565,
      "Ġà¬ªà¬¡": 566,
      "Ġà¬ħà¬Ĺ": 567,
      "à¬ļà¬³": 568,
      "à¬°à¬¶": 569,
      "à¬Ĺà¬³": 570,
      "à¬ķà¬®": 571,
      "à¬ķà¬³": 572,
      "Ġà¬ªà¬ŀ": 573,
      "es": 574,
      "âĢį": 575,
      "Ġà¬Ĩà¬£": 576,
      "à¬¶à¬ķ": 577,
      "à¬Ĺà¬¡": 578,
      "Ġà¬ľà¬³": 579,
      "à¬¸à¬¬": 580,
      "Ġà¬ł": 581,
      "à¬Ĩà¬¨": 582,
      "Ġà¬¦à¬°": 583,
      "à¬¸à¬²": 584,
      "Ġà¬ľà¬¨à¬¤": 585,
      "tion": 586,
      "ĠàŃŁ": 587,
      "ĠàŃ§àŃ¯àŃª": 588,
      "à¬ķà¬Ļ": 589,
      "à¬¨à¬¸": 590,
      "à¬¬à¬²": 591,
      "à¬¬à¬¦": 592,
      "àŃŁà¬¬à¬¸": 593,
      "Ġà¬ªà¬Ł": 594,
      "àŃįâĢį": 595,
      "ĠàŃ§": 596,
      "à¬ħà¬¨": 597,
      "Ġà¬¯à¬¥": 598,
      "à¬¬à¬Ļ": 599,
      "Ġà¬Ĺà¬£": 600,
      "à¬°àŃŁ": 601,
      "à¬®à¬¤": 602,
      "à¬¬à¬¦à¬°": 603,
      "àŃ±à¬¬": 604,
      "Ġà¬¶à¬¤": 605,
      "àŃģà¬ģ": 606,
      "à¬¹à¬¨": 607,
      "Ġà¬ªà¬¶": 608,
      "ĠàŃ¨àŃ¦àŃ¨": 609,
      "à¬¨à¬ķ": 610,
      "à¬¾à¬ģ": 611,
      "Ġà¬¸à¬ķ": 612,
      "Ġà¬Ĩà¬ī": 613,
      "à¬²à¬ķ": 614,
      "à¬°à¬®à¬£": 615,
      "à¬ªà¬£": 616,
      "Ġà¬¶à¬ķ": 617,
      "Ġà¬¨à¬¦": 618,
      "Ġà¬ıà¬®": 619,
      "Ġà¬¸à¬¹à¬°à¬°": 620,
      "Ġà¬Ńà¬³": 621,
      "à¬ĸà¬¨": 622,
      "à¬°à¬¦à¬°": 623,
      "Ġà¬¬à¬Ļ": 624,
      "Ġà¬ľà¬Ĺà¬¨": 625,
      "Ġà¬¹à¬°": 626,
      "àŃ¯àŃ": 627,
      "ĠàŃ§àŃ«": 628,
      "à¬°à¬ľ": 629,
      "Ġà¬ħà¬²": 630,
      "à¬¨à¬¨": 631,
      "Ġà¬ľà¬¨à¬¸": 632,
      "Ġà¬¬àŃŁ": 633,
      "Ġà¬ľà¬°": 634,
      "à¬ļà¬³à¬°": 635,
      "à¬¾'": 636,
      "Ġà¬ħà¬®": 637,
      "àŃį,": 638,
      "à¬§à¬¨": 639,
      "Ġà¬¦à¬³": 640,
      "à¬ķà¬ł": 641,
      "à¬ĩà¬¸": 642,
      "à¬·à¬ķ": 643,
      "Ġà¬ıà¬¸": 644,
      "Ġà¬ĩà¬¨": 645,
      "Ġà¬¸à¬¤": 646,
      "Ġà¬ķà¬¨": 647,
      "à¬Ńà¬°": 648,
      "à¬ĩà¬¯": 649,
      "Ġà¬¶à¬¬": 650,
      "Ġà¬¦à¬³à¬°": 651,
      "ĠàŃ§àŃ¨": 652,
      "Ġà¬ªà¬¹": 653,
      "ĠàŃ±": 654,
      "à¬ķà¬°à¬£": 655,
      "àŃŁà¬Ļ": 656,
      "Ġà¬¸à¬¹à¬°": 657,
      "à¬°à¬«": 658,
      "ĠàŃ§àŃ¯àŃ©": 659,
      "à¬Łà¬®": 660,
      "à¬·à¬¤": 661,
      "Ġà¬ĺà¬°": 662,
      "à¬ľàŃŁ": 663,
      "Ġà¬¸à¬®àŃŁ": 664,
      "à¬ģ,": 665,
      "à¬ļà¬¤": 666,
      "as": 667,
      "ro": 668,
      "Ġà¬ĩà¬£": 669,
      "à¬ļà¬°": 670,
      "àŃ§àŃ¯àŃ": 671,
      "Ġà¬Ĺà¬°": 672,
      "ed": 673,
      "à¬°à¬§": 674,
      "Ġà¬ħà¬£": 675,
      "à¬ªà¬¦": 676,
      "à¬Ĺà¬®": 677,
      "Ġà¬Ĩà¬§": 678,
      "àŃģ,": 679,
      "à¬Ĺà¬¨": 680,
      "à¬¦à¬¶": 681,
      "à¬Łà¬£": 682,
      "à¬ıà¬¸": 683,
      "Ġs": 684,
      "le": 685,
      "ĠàŃ§àŃŃ": 686,
      "àŃŁà¬ª": 687,
      "à¬ľà¬ķ": 688,
      "Ġà¬ĸà¬£": 689,
      "ation": 690,
      "Ġà¬ªà¬°à¬®": 691,
      "à¬®à¬¦": 692,
      "à¬¾)": 693,
      "à¬ĩà¬°": 694,
      "à¬¬à¬°à¬£": 695,
      "à¬®à¬¸": 696,
      "Ġà¬¬à¬³": 697,
      "Ġà¬ĨàŃŁ": 698,
      "ĠàŃ§àŃ¬": 699,
      "Ġà¬ľà¬¨à¬Ĺ": 700,
      "us": 701,
      "re": 702,
      "Ġà¬ħà¬«": 703,
      "Ġà¬ļà¬°": 704,
      "it": 705,
      "Ġà¬¸à¬¦": 706,
      "Ġà¬Ĩà¬¶": 707,
      "ĠàŃ¨àŃ¦àŃ¦àŃ§": 708,
      "Ġà¬°à¬Ļ": 709,
      "Ġà¬Ĩà¬¬à¬¶": 710,
      "à¬°à¬ļ": 711,
      "àŃŁà¬£": 712,
      "Ġà¬ľà¬¨à¬Ĺà¬£à¬¨": 713,
      "Ġà¬ħà¬¬": 714,
      "Ġà¬ħà¬ªà¬°": 715,
      "à¬łà¬¨": 716,
      "Ġà¬ªà¬£": 717,
      "Ġà¬īà¬Ń": 718,
      "Ġà¬®à¬°": 719,
      "à¬¥à¬Ļ": 720,
      "à¬«à¬³": 721,
      "Ġà¬¶à¬°": 722,
      "ch": 723,
      "ĠàŃ§àŃª": 724,
      "Ġà¬¯à¬¨": 725,
      "à¬īà¬£": 726,
      "à¬·àŃŁà¬°": 727,
      "à¬®à¬ķà¬°": 728,
      "à¬ªà¬¡": 729,
      "Ġà¬ªà¬¢": 730,
      "ĠàŃ§àŃ¯àŃ¨": 731,
      "à¬ķà¬¤": 732,
      "à¬¾âĢĻ": 733,
      "Ġà¬ĭ": 734,
      "Ġà¬īà¬²": 735,
      "Ġ1": 736,
      "lo": 737,
      "Ġà¬Ńà¬Ĺ": 738,
      "à¬¸à¬®": 739,
      "à¬¸à¬ķ": 740,
      "Ġà¬¯à¬¦": 741,
      "Ġà¬ļà¬ķ": 742,
      "à¦": 743,
      "à¬łà¬°": 744,
      "un": 745,
      "ing": 746,
      "Ġà¬¦à¬¶": 747,
      "à¬¥à¬¨": 748,
      "ĠàŃ§àŃ©": 749,
      "ĠàŃ§àŃ¯": 750,
      "à¬ĩà¬¡": 751,
      "Ġà¬¤à¬¤": 752,
      "Ġà¬ªà¬°à¬¬à¬°": 753,
      "à¬°à¬³": 754,
      "à¬ķà¬Łà¬°": 755,
      "àŃ±à¬ª": 756,
      "Ġà¬Ńà¬ķ": 757,
      "à¬¨à¬¬": 758,
      "Ġà¬¨à¬¬": 759,
      "à¬ıà¬ķ": 760,
      "Ġà¬ħà¬Ĺà¬·": 761,
      "Ġà¬Ĩà¬¬": 762,
      "à¬¤à¬Ļ": 763,
      "Ġà¬ľà¬Ĺà¬¤à¬°": 764,
      "à¬ĩà¬Ľà¬¨": 765,
      "Ġà¬ħà¬³": 766,
      "àŃŁà¬®à¬°": 767,
      "am": 768,
      "à¬¹à¬¤": 769,
      "à¬Łà¬ķà¬°": 770,
      "at": 771,
      "àŃĩà¬ģ": 772,
      "ĠâĢĺ": 773,
      "Ġà¬®à¬¤": 774,
      "à¬°à¬£à¬°": 775,
      "à¬²à¬¬": 776,
      "à¬®à¬²": 777,
      "ĠàŃ¯": 778,
      "Ġà¬¨à¬Ń": 779,
      "à¬¸à¬Ļ": 780,
      "id": 781,
      "à¬ķà¬ª": 782,
      "Ġà¬īà¬ŃàŃŁ": 783,
      "Ġà¬¬à¬¢": 784,
      "ac": 785,
      "Ġà¬Ĩà¬Ĺ": 786,
      "à¬Ī": 787,
      "à¬¼àŃĩ": 788,
      "Ġà¬Ĺà¬¤": 789,
      "à¬ķà¬¨": 790,
      "à¬·àŃŁ": 791,
      "à¬¦à¬ķ": 792,
      "à¬¥à¬³": 793,
      "Ġà¬ħà¬Ļ": 794,
      "à¬Ńà¬¬": 795,
      "Ġà¬¬àŃŁà¬¸à¬°": 796,
      "Ġà¬ľà¬®": 797,
      "à¬°à¬£à¬¤": 798,
      "àŃŁà¬¸": 799,
      "à¬¤à¬°à¬°": 800,
      "Ġà¬īà¬ĩà¬ķ": 801,
      "à¬ľà¬ª": 802,
      "Ġà¬Ńà¬²": 803,
      "Ġà¬Ĩà¬ľ": 804,
      "ĠS": 805,
      "Ġà¬®à¬ĩ": 806,
      "à¬°à¬¯": 807,
      "àŃ±à¬¤à¬¨": 808,
      "Ġà¬ķà¬Łà¬ķ": 809,
      "à¬¾_": 810,
      "ĠA": 811,
      "à¬Ĩà¬²": 812,
      "ĠàŃ¨àŃ¦àŃ§àŃª": 813,
      "à¬Ĩà¬¸": 814,
      "à¬ħà¬°": 815,
      "Ġà¬īà¬¨": 816,
      "ĠM": 817,
      "Ġm": 818,
      "Ġ:": 819,
      "Ġà¬Ĺà¬¬": 820,
      "à¬ľà¬¸": 821,
      "à¬Ĺà¬¦": 822,
      "à¬ĺà¬°": 823,
      "Ġof": 824,
      "ĠC": 825,
      "à¬ĸà¬ķ": 826,
      "à¬°à¬¸à¬Ļ": 827,
      "à¬ĵà¬¡": 828,
      "Ġà¬Ĩà¬ĩà¬¨": 829,
      "à¬ıà¬¡": 830,
      "àŃ±à¬¤": 831,
      "à¬īà¬Ľà¬¨": 832,
      "àŃŁà¬¤à¬®": 833,
      "om": 834,
      "Ġà¬¨à¬¥": 835,
      "Ġà¬ļà¬¤": 836,
      "he": 837,
      "ĠàŃ¨àŃ«": 838,
      "à¬¾:": 839,
      "ĠP": 840,
      "Ġp": 841,
      "Ġà¬¢": 842,
      "Ġc": 843,
      "Ġà¬Ĺà¬ľ": 844,
      "à¬°à¬ªà¬¤": 845,
      "à¬¦à¬³": 846,
      "ĠàŃ¨àŃ¦àŃ¦àŃ¯": 847,
      "à¬Ĺà¬£": 848,
      "à¬¸à¬ª": 849,
      "à¬ħà¬®": 850,
      "à¬ĸà¬£": 851,
      "Ġd": 852,
      "Ġà¬¸à¬¦à¬¸": 853,
      "à¬īà¬¤": 854,
      "Ġà¬ªà¬¤à¬¨": 855,
      "Ġà¬¸à¬ª": 856,
      "à¬·à¬®": 857,
      "Ġà¬ħà¬Ľà¬¨": 858,
      "Ġà¬ĩà¬ŀ": 859,
      "ĠàŃ§àŃ§": 860,
      "à¬īà¬³": 861,
      "Ġà¬«à¬³à¬°": 862,
      "à¬®à¬¹": 863,
      "à¬Ĺà¬ķ": 864,
      "Ġà¬ħà¬·": 865,
      "Ġà¬Ĺà¬Ľ": 866,
      "ur": 867,
      "Ġà¬ħà¬¶": 868,
      "à¬Ńà¬ķ": 869,
      "Ġà¬ĺà¬Ł": 870,
      "Ġà¬¤à¬³": 871,
      "Ġà¬Ĩà¬¡": 872,
      "àŃ±à¬¨": 873,
      "Ġà¬Ĩà¬¹": 874,
      "Ġà¬¬à¬ľ": 875,
      "Ġà¬Ĩà¬ĸ": 876,
      "Ġ2": 877,
      "à¬®à¬ª": 878,
      "Ġà¬ħà¬Łà¬¨": 879,
      "Ġà¬ıà¬ªà¬°": 880,
      "à¬Ĺà¬Ł": 881,
      "Ġà¬īà¬ªà¬¨": 882,
      "ĠàŃ§àŃ¯àŃ§àŃ": 883,
      "Ġà¬«à¬³": 884,
      "Ġà¬ªà¬¹à¬ŀ": 885,
      "à¬ıà¬²": 886,
      "Ġà¬®à¬ŀ": 887,
      "ol": 888,
      "à¬²à¬¸": 889,
      "Ġb": 890,
      "Ġà¬¹à¬¸": 891,
      "ve": 892,
      "Ġà¬ªà¬¤à¬¨à¬ł": 893,
      "à¬ªà¬Ł": 894,
      "il": 895,
      "Ġà¬¨à¬°": 896,
      "ĠI": 897,
      "à¬¬à¬¨à¬°": 898,
      "ĠàŃ©àŃ¦": 899,
      "Ġà¬¸à¬«à¬³": 900,
      "à¬ľà¬£": 901,
      "à¬ľà¬®": 902,
      "à¬Ĺà¬ł": 903,
      "um": 904,
      "à¬§à¬¬": 905,
      "à¬ļà¬ķ": 906,
      "à¬ıà¬¹": 907,
      "à¬ıà¬¨": 908,
      "ip": 909,
      "à¬²à¬Ļ": 910,
      "Ġà¬ľà¬Ļ": 911,
      "àŃ±à¬°à¬°": 912,
      "Ġin": 913,
      "tr": 914,
      "à¬ªà¬¸": 915,
      "to": 916,
      "Ġ)": 917,
      "à¬¶à¬®": 918,
      "à¬¾-": 919,
      "à¬¨à¬®": 920,
      "àŃį.": 921,
      "Ġà¬Ĺà¬łà¬¨": 922,
      "ĠàŃ¨àŃ¨": 923,
      "Ġà¬°à¬ļ": 924,
      "Ġà¬¸à¬®à¬°": 925,
      "Ġà¬¨à¬¨": 926,
      "Ġà¬¤à¬¨": 927,
      "Ġà¬īà¬ªà¬¸": 928,
      "à¬¤à¬¬": 929,
      "à¬Ńà¬¦": 930,
      "à¬ľà¬§": 931,
      "à¬¬à¬²à¬ª": 932,
      "ĠàŃ¨àŃŃ": 933,
      "Ġà¬®à¬Ļ": 934,
      "Ġà¬¶à¬Ļ": 935,
      "Ġà¬Ńà¬Ĺà¬¬": 936,
      "Ġà¬®à¬ł": 937,
      "Ġà¬ķà¬ª": 938,
      "Ġà¬°à¬¥à¬¯": 939,
      "àŃ¦àŃ¦àŃ¦": 940,
      "à¬§à¬ķ": 941,
      "à¬¥à¬®": 942,
      "à¬¬à¬£": 943,
      "ĠE": 944,
      "Ġà¬Ĳ": 945,
      "à¬®à¬³": 946,
      "Ġà¬ħà¬¦": 947,
      "à¬°à¬®à¬°": 948,
      "ec": 949,
      "ĠàŃ¨àŃª": 950,
      "Ġà¬Ĩà¬ĩ": 951,
      "à¬¨à¬ª": 952,
      "à¬īà¬°": 953,
      "à¬²à¬®": 954,
      "à¬ľà¬Ĺà¬¨": 955,
      "el": 956,
      "Ġà¬®à¬¹à¬¤": 957,
      "os": 958,
      "à¬¿-": 959,
      "à¬°à¬ł": 960,
      "ĠàŃ¨àŃ¦àŃ§àŃ¯": 961,
      "Ġà¬¨à¬ķ": 962,
      "ia": 963,
      "ĠâĢĵ": 964,
      "ĠL": 965,
      "ter": 966,
      "Ġà¬ķà¬®à¬¨": 967,
      "à¬¨à¬¥": 968,
      "à¬¸à¬¦": 969,
      "Ġth": 970,
      "od": 971,
      "ys": 972,
      "à¬Ĩà¬ĩ": 973,
      "à¬ªà¬®": 974,
      "Ġà¬Ĩà¬¤": 975,
      "àŃį_": 976,
      "Ġà¬ĩà¬¸": 977,
      "à¬®à¬Ļ": 978,
      "Ġà¬¬à¬£": 979,
      "à¬¨à¬Ł": 980,
      "àŃĢ_": 981,
      "ine": 982,
      "à¬®àŃŁ": 983,
      "à¬ħà¬§": 984,
      "Ġà¬²à¬Ĺ": 985,
      "Ġà¬īà¬ł": 986,
      "à¬ķà¬¸": 987,
      "à¬¶à¬¨à¬°": 988,
      "àŃį-": 989,
      "à¬¿)": 990,
      "à¬¶à¬¬": 991,
      "ul": 992,
      "àŃ¨àŃ¦": 993,
      "ĠH": 994,
      "à¬ħà¬Ľ": 995,
      "ĠàŃ¨àŃ©": 996,
      "ĠàŃ¨àŃ§": 997,
      "Ġà¬¦à¬£": 998,
      "à¬¼àŃģ": 999,
      "ĠàŃ¨àŃ¬": 1000,
      "à¬ĩà¬¦": 1001,
      "Ġf": 1002,
      "Ġà¬īà¬ªà¬ķ": 1003,
      "Ġà¬īà¬ķ": 1004,
      "Ġà¬²à¬®": 1005,
      "à¬³à¬¦": 1006,
      "ĠàŃ¨àŃ¦àŃ§àŃ«": 1007,
      "à¬łà¬¦": 1008,
      "Ġ/": 1009,
      "Ġà¬Ĺà¬ľà¬ªà¬¤": 1010,
      "Ġà¬ªà¬¬": 1011,
      "Ġà¬ĺà¬£": 1012,
      "ĠàŃ¨àŃ®": 1013,
      "Ġà¬ħà¬²à¬Ĺ": 1014,
      "à¬¤à¬¸": 1015,
      "Ġà¬²à¬¢": 1016,
      "Ġà¬°à¬¸": 1017,
      "Ġà¬ĸà¬°": 1018,
      "àŃ§àŃ®": 1019,
      "à¬°à¬«à¬°": 1020,
      "Ġà¬¬à¬²": 1021,
      "à¬¤à¬³": 1022,
      "Ġà¬¤à¬°à¬«à¬°": 1023,
      "Ġ>": 1024,
      "à¬¤à¬ª": 1025,
      "à¬³à¬¤": 1026,
      "à¬²à¬Ń": 1027,
      "àŃ±àŃŁ": 1028,
      "Ġà¬ªà¬¦à¬ķ": 1029,
      "Ġà¬§à¬¨": 1030,
      "ld": 1031,
      "ag": 1032,
      "ĠT": 1033,
      "à¬ĩà¬®": 1034,
      "Ġà¬®à¬²": 1035,
      "edic": 1036,
      "à¬¨à¬¦": 1037,
      "ĠàŃ¨àŃ¦àŃ§àŃ§": 1038,
      "tic": 1039,
      "Ġà¬Ĩà¬¨à¬¨": 1040,
      "alth": 1041,
      "à¬łà¬¶": 1042,
      "orld": 1043,
      "Ġà¬ħà¬¹": 1044,
      "à¬§à¬¤": 1045,
      "ity": 1046,
      "à¬¡à¬ª": 1047,
      "Ġà¬Ĩà¬«": 1048,
      "à¬£à¬Ļ": 1049,
      "ĠD": 1050,
      "ir": 1051,
      "à¬¸à¬«": 1052,
      "à¬¾\"": 1053,
      "Ġà¬°à¬¤": 1054,
      "Ġà¬¸à¬ŀ": 1055,
      "à¬Ńà¬³": 1056,
      "Ġà¬ªà¬ł": 1057,
      "Ġà¬ªà¬¥à¬°": 1058,
      "à¬¸à¬¨à¬°": 1059,
      "ad": 1060,
      "¯àŃ¦": 1061,
      "Ġà¬Ĺà¬Ļ": 1062,
      "and": 1063,
      "iz": 1064,
      "Ġà¬Ĺà¬²": 1065,
      "Ġà¬¬àŃŁà¬¸": 1066,
      "à¬ĩà¬Ĺà¬²": 1067,
      "à¬®à¬§": 1068,
      "à¬¡à¬¨": 1069,
      "ĠO": 1070,
      "Ġà¬ıà¬£": 1071,
      "à¬ľà¬¬": 1072,
      "ĠàŃ¯àŃ": 1073,
      "Ġà¬Łà¬Ļ": 1074,
      "ĠâĢľ": 1075,
      "Ġà¬ħà¬¨à¬¨": 1076,
      "à¬ļà¬®": 1077,
      "Ġà¬Ĩà¬ķà¬°": 1078,
      "à¬³à¬¨à¬°": 1079,
      "ĠàŃ¨àŃ¦àŃ¨àŃ¦": 1080,
      "Ġà¬®àŃŁ": 1081,
      "Ġà¬Ĳà¬¤": 1082,
      "ĠàŃ¨àŃ¦àŃ¦àŃª": 1083,
      "Ġà¬ĩà¬²": 1084,
      "ap": 1085,
      "ĠB": 1086,
      "à¬¥à¬ķ": 1087,
      "Ġà¬ıà¬ª": 1088,
      "à¬¡à¬ķ": 1089,
      "Ġà¬°à¬¥à¬°": 1090,
      "Ġà¬Ľà¬¤": 1091,
      "à¬Ĺà¬łà¬¨à¬°": 1092,
      "Ġà¬ķà¬Łà¬ķà¬°": 1093,
      "Ġà¬Ĺà¬ł": 1094,
      "Ġà¬Ńà¬¬": 1095,
      "em": 1096,
      "à¬¬à¬®": 1097,
      "Ġà¬ĺà¬Łà¬£": 1098,
      "00": 1099,
      "Ġà¬Ĩà¬ª": 1100,
      "à¬°à¬Ĺ": 1101,
      "à¬²à¬¨": 1102,
      "à¬£à¬¤": 1103,
      "ĠàŃ¨àŃ¦àŃ§àŃ©": 1104,
      "à¬¿_": 1105,
      "ent": 1106,
      "à¬²à¬¤": 1107,
      "à¬³à¬®": 1108,
      "ĠàŃ¨àŃ¦àŃ¦àŃ¦": 1109,
      "Ġà¬«à¬°": 1110,
      "Ġà¬īà¬ªà¬²à¬¬": 1111,
      "à¬·à¬®à¬¤": 1112,
      "à¬Ĩà¬Ļ": 1113,
      "ist": 1114,
      "à¬¬à¬ª": 1115,
      "à¬ķà¬²": 1116,
      "à¬ªà¬¥": 1117,
      "à¬īà¬¡": 1118,
      "Ġà¬ľàŃŁ": 1119,
      "à¬¹à¬¸": 1120,
      "à¬¶à¬Ļ": 1121,
      "ĠâĢĮ": 1122,
      "Ġà¬Ĩà¬Ĺà¬°": 1123,
      "ĠàŃ§àŃ¯àŃ¯àŃ¦": 1124,
      "Ġw": 1125,
      "Ġà¤": 1126,
      "Ġà¬ħà¬¬à¬¦": 1127,
      "àŃŁà¬Ń": 1128,
      "Ġà¬°à¬¬": 1129,
      "Ġà¬ĭà¬·": 1130,
      "Ġà¬Ĺà¬¡": 1131,
      "Ġà¬īà¬ªà¬¯": 1132,
      "à¬Ĩà¬®": 1133,
      "à¬ķà¬£": 1134,
      "à¬®à¬¬": 1135,
      "Ġà¬Ńà¬¦": 1136,
      "Ġà¬¹à¬ľ": 1137,
      "Ġà¬ıà¬¤": 1138,
      "àŃ§àŃ¦": 1139,
      "Ġà¬Ĺà¬³": 1140,
      "unic": 1141,
      "à¬®à¬ļà¬¨": 1142,
      "ph": 1143,
      "ipal": 1144,
      "à¬®à¬ļ": 1145,
      "à¬°à¬ķà¬³": 1146,
      "Ġà¬ªà¬¥": 1147,
      "Ġà¬īà¬°": 1148,
      "àŃ©àŃ¦": 1149,
      "à¬°à¬ļà¬³": 1150,
      "unicipal": 1151,
      "Ġà¬ķà¬·": 1152,
      "Ġà¬ªà¬Ľ": 1153,
      "à¬ıà¬®": 1154,
      "à¬ľà¬Ļ": 1155,
      "Ġà¬¹à¬¤": 1156,
      "Ġà¬ĵà¬·": 1157,
      "àŃŁà¬Ĺ": 1158,
      "à¬°à¬¬à¬°": 1159,
      "Ġà¬¸à¬ļ": 1160,
      "Ġà¬Ńà¬īà¬£": 1161,
      "ĠàŃ¨àŃ¦àŃ§àŃ¬": 1162,
      "Ġà¬ĭà¬¤": 1163,
      "et": 1164,
      "à¬ĩà¬¤": 1165,
      "âĢĿ": 1166,
      "à¬«à¬°": 1167,
      "Municipal": 1168,
      "àŃģà¬ĥ": 1169,
      "Ġà¬Ńà¬°": 1170,
      "ate": 1171,
      "à¬Ĺà¬ª": 1172,
      "ab": 1173,
      "Ġà¬ħà¬ľ": 1174,
      "Ġà¬ıà¬¨": 1175,
      "à¬¤à¬ķà¬°": 1176,
      "à¬¬à¬¬": 1177,
      "à¬®à¬¶": 1178,
      "Ġà¬¸à¬ľ": 1179,
      "à¬¦à¬®": 1180,
      "à¬£à¬ķ": 1181,
      "ĠàŃ§àŃ¯àŃ®àŃ¦": 1182,
      "Ġà¬¸à¬®à¬Ĺ": 1183,
      "Ġà¬¸à¬°à¬¸": 1184,
      "à¬ķà¬ķ": 1185,
      "ĠàŃ§àŃ¯àŃ¦àŃ": 1186,
      "à¬¡à¬¬": 1187,
      "Â°": 1188,
      "à¬ķà¬¸à¬¨": 1189,
      "à¬ļà¬°à¬£": 1190,
      "à¬°à¬ĸ": 1191,
      "ĠàŃ¨àŃ¦àŃ§àŃ¨": 1192,
      "à¬³à¬¬": 1193,
      "Ġà¬ľà¬¡": 1194,
      "Ġà¬Ĩà¬ªà¬£": 1195,
      "Ġà¬ĸà¬¬à¬°": 1196,
      "à¬Ĩà¬ķ": 1197,
      "à¬·à¬Ļ": 1198,
      "à¬ıà¬ļ": 1199,
      "Ġà¬¡à¬ķ": 1200,
      "àŃ¨àŃ¦àŃ": 1201,
      "ĠàŃ¨àŃ¦àŃ§àŃ¦": 1202,
      "à¬ĩà¬ľ": 1203,
      "Ġà¬¡à¬²": 1204,
      "Ġthe": 1205,
      "àŃ±à¬³": 1206,
      "Ġà¬¨à¬Ĺà¬°": 1207,
      "Ġà¬¤à¬°à¬³": 1208,
      "à¬¼àŃĢ": 1209,
      "à¬¹à¬ķ": 1210,
      "Ġà¬ļà¬°à¬£": 1211,
      "Ġà¬Ĩà¬ł": 1212,
      "'s": 1213,
      "à¬ķà¬¬": 1214,
      "Ġà¬ĩà¬®": 1215,
      "Ġà¬¯à¬ķ": 1216,
      "à¬Łà¬°à¬°": 1217,
      "à¬¦à¬Ļ": 1218,
      "à¬°à¬¹à¬°": 1219,
      "à¬¨à¬Ĺ": 1220,
      "ĠàŃ¨àŃ¦àŃ¦àŃŃ": 1221,
      "ay": 1222,
      "Ġà¬ªà¬²": 1223,
      "àŃ§àŃ¨": 1224,
      "à¬¿\"": 1225,
      "à¬¤à¬Ĺ": 1226,
      "ĠàŃ¨àŃ¯": 1227,
      "ĠàŃ¨àŃ¦àŃ§àŃ®": 1228,
      "Ġà¬¬à¬ķ": 1229,
      "ĠàŃ¨àŃ¦àŃ§àŃŃ": 1230,
      "Ġà¬®à¬¡": 1231,
      "àŃ§àŃ«": 1232,
      "Ġà¬ķà¬Ł": 1233,
      "à¬£à¬¬": 1234,
      "im": 1235,
      "ĠR": 1236,
      "de": 1237,
      "à¬²à¬Ł": 1238,
      "tem": 1239,
      "à¬ļàŃŁ": 1240,
      "Ġà¬ªà¬¨": 1241,
      "à®": 1242,
      "àŃŁàŃŁà¬¨": 1243,
      "Ġà¬ĩà¬ļ": 1244,
      "ĠàŃ¦": 1245,
      "Ġà¬¬à¬ŀ": 1246,
      "_)": 1247,
      "à¬·à¬¦": 1248,
      "Ġà¬Ľà¬¡": 1249,
      "à¬£à¬ª": 1250,
      "àŃĢ)": 1251,
      "àŃŁà¬ķà¬Ļ": 1252,
      "Ġà¬Ĺà¬¢": 1253,
      "à¬īà¬¨": 1254,
      "Ġà¬¬à¬¦à¬³": 1255,
      "Ġà¬Ńà¬ŀ": 1256,
      "ĠN": 1257,
      "ĠàŃ§àŃ¯àŃ¯àŃ«": 1258,
      "Ġà¬ħà¬¬à¬¶": 1259,
      "à¬¬à¬§": 1260,
      "Ġà¬¬à¬¦": 1261,
      "à¬¬à¬¦à¬¨": 1262,
      "à¬ľà¬³": 1263,
      "Ġà¬§à¬³": 1264,
      "ĠàŃ¨àŃ¦àŃ¦àŃ®": 1265,
      "ig": 1266,
      "Ġà¬ħà¬¬à¬¤": 1267,
      "à¬¼,": 1268,
      "à¬Ĺà¬łà¬¨": 1269,
      "à¬²à¬Ĺ": 1270,
      "àŃĢ:": 1271,
      "Ġà¬¨à¬®": 1272,
      "\\.": 1273,
      "àŃŁà¬§": 1274,
      "Ġà¬¯à¬ľ": 1275,
      "Ġà¬¬à¬¸à¬¨": 1276,
      "à¬²à¬£": 1277,
      "à¤¾": 1278,
      "à¬Ĺà¬¬": 1279,
      "Ġn": 1280,
      "à¬°à¬¹à¬®": 1281,
      "à¬°à¬²": 1282,
      "à¬¨à¬®à¬¨": 1283,
      "ĠàŃ§àŃ¯àŃ«àŃŃ": 1284,
      "àŃį)": 1285,
      "à¬¬à¬¹": 1286,
      "à¬Ĺà¬Ļ": 1287,
      "Ġà¬ļà¬®": 1288,
      "Ġl": 1289,
      "nd": 1290,
      "à¬¬à¬ķà¬®": 1291,
      "à¬ĩà¬¥à¬°": 1292,
      "à¬Ĺà¬ľ": 1293,
      "ĠàŃ§àŃ¯àŃ¬àŃ§": 1294,
      "Ġà¬ıà¬²": 1295,
      "àŃ§àŃŃ": 1296,
      "Ġ19": 1297,
      "à¬¤à¬¤": 1298,
      "à¬¹à¬°à¬£": 1299,
      "Ġà¬®à¬¤à¬°": 1300,
      "ĠàŃ§àŃ¯àŃŃàŃ§": 1301,
      "à¬¦à¬£": 1302,
      "àŃĩ.": 1303,
      "Ġà¬¤à¬°à¬Ļ": 1304,
      "ĠàŃ§àŃ¯àŃŃàŃŃ": 1305,
      "ĠàŃ§àŃ¯àŃŃàŃª": 1306,
      "Ġà¬¨à¬¡": 1307,
      "à¬Ŀà¬°": 1308,
      "ĠàŃ«àŃ¦": 1309,
      "Ġà¬¸à¬¹à¬¯": 1310,
      "à¬īà¬¸": 1311,
      "ĠàŃ¨àŃ¦àŃ¦àŃ«": 1312,
      "Ġà¬¨à¬·": 1313,
      "Ġà¬ªà¬¹à¬£": 1314,
      "à¬£à¬®": 1315,
      "ĠàŃ§àŃ¯àŃ¬àŃŃ": 1316,
      "Ġh": 1317,
      "gl": 1318,
      "à¬ķà¬¶": 1319,
      "ard": 1320,
      "Ġà¬Ĩà¬ļ": 1321,
      "Ġà¬ıà¬ķà¬¤": 1322,
      "oc": 1323,
      "àŃŁà¬®à¬¨": 1324,
      "Ġà¬ıà¬¡": 1325,
      "Ġà¬¸à¬«": 1326,
      "à¬Ĩà¬£": 1327,
      "Ġà¬¸à¬«à¬³à¬¤": 1328,
      "ish": 1329,
      "à¬¶àŃŁ": 1330,
      "ĠàŃ§àŃ¯àŃ¯àŃ¯": 1331,
      "Ġdis": 1332,
      "à¬Ĺà¬°à¬°": 1333,
      "Ġ(_": 1334,
      "ĠàŃ§àŃ¯àŃ®àŃ«": 1335,
      "ĠàŃ§àŃ¦àŃ¦": 1336,
      "ystem": 1337,
      "à¬¤à¬ļ": 1338,
      "àŃŁà¬¦": 1339,
      "à¬Łà¬¸": 1340,
      "à¬³à¬¸": 1341,
      "ĠàŃ¨àŃ¦àŃ¨àŃª": 1342,
      "World": 1343,
      "gan": 1344,
      "à¬°à¬Ńà¬ŀ": 1345,
      "Ġà¬Ĺà¬ŀ": 1346,
      "à¬¹à¬¦": 1347,
      "Ġà¬°à¬®": 1348,
      "Municipality": 1349,
      "àŃĢ.": 1350,
      "à¬¹à¬ª": 1351,
      "Ġà¬¹à¬³à¬¦": 1352,
      "Ġà¬ľà¬Ł": 1353,
      "à¬£àŃŁ": 1354,
      "ĠàŃ¨àŃ¦àŃ¨àŃ¨": 1355,
      "Ġà¬°à¬ľ": 1356,
      "Ġà¬ĵà¬ľà¬¨": 1357,
      "Ġà¬īà¬¡": 1358,
      "Ġà¬®à¬ľ": 1359,
      "ĠàŃ¨àŃ¦àŃ¦àŃ¬": 1360,
      "à¬ĩà¬¨à¬¥": 1361,
      "ĠOr": 1362,
      "ines": 1363,
      "ion": 1364,
      "à¬¶à¬Ĺ": 1365,
      "à¬¬à¬¤à¬¨": 1366,
      "à¬ķà¬Łà¬¸": 1367,
      "à¬¦à¬¬": 1368,
      "à¬¿à¬ģ,": 1369,
      "ĠàŃ§àŃ®àŃ¯àŃ": 1370,
      "Ġà¬¨à¬³": 1371,
      "Ġà¬Ĩà¬Ļ": 1372,
      "Ġà¬¤à¬°": 1373,
      "ĠàŃ§àŃ§àŃ": 1374,
      "ĠàŃ¨àŃ¦àŃ¨àŃ§": 1375,
      "op": 1376,
      "ĠF": 1377,
      "Ġà¬Ī": 1378,
      "ĠàŃ§àŃ¯àŃ«àŃ¨": 1379,
      "av": 1380,
      "Ġà¬ħà¬¬à¬¸à¬°": 1381,
      "à¨": 1382,
      "à¬Łà¬ª": 1383,
      "ĠG": 1384,
      "à¬¯à¬¨": 1385,
      "à¬ĩà¬£": 1386,
      "à¬·à¬£à¬°": 1387,
      "àŃ§àŃª": 1388,
      "à¬¹à¬Ļ": 1389,
      "Ġà¬¬à¬³à¬°": 1390,
      "Ġà¬¹à¬¨": 1391,
      "à¬°à¬¬à¬¨": 1392,
      "enti": 1393,
      "Ġà¬ļà¬¢": 1394,
      "Ġà¬¸à¬¦à¬°": 1395,
      "à¬ľà¬Ĺ": 1396,
      "ection": 1397,
      "à¬ªà¬²": 1398,
      "Ġà¬ıà¬ķà¬®": 1399,
      "Ġà¬Ĺà¬£à¬¨": 1400,
      "ver": 1401,
      "à¬¿:": 1402,
      "Ġà¬®à¬Ŀ": 1403,
      "Ġà¬°à¬¨": 1404,
      "gen": 1405,
      "Ġsystem": 1406,
      "àŃ§àŃ¬": 1407,
      "à¬°à¬ŀ": 1408,
      "à¬¶à¬¤": 1409,
      "à¬¼à¬¾,": 1410,
      "àŃ«àŃ¦": 1411,
      "ĠHe": 1412,
      "âĢ²": 1413,
      "ization": 1414,
      "ĠàŃ§àŃ®àŃ®": 1415,
      "à¬ĩà¬Ļ": 1416,
      "à¬¨à¬¡": 1417,
      "à¬¤à¬°à¬ķ": 1418,
      "à¬¤à¬°à¬£": 1419,
      "Ġà¬Ĺà¬Ń": 1420,
      "à¬ľà¬¨à¬°": 1421,
      "Ġà¬ªà¬°à¬¦": 1422,
      "Ġà¬ĵà¬ķ": 1423,
      "àŃĩà¬¾,": 1424,
      "àŃ§àŃ¯": 1425,
      "Ġà¬¨à¬¬à¬®": 1426,
      "à¬³à¬Ĺ": 1427,
      "ĠàŃ§àŃ¯àŃ«àŃ§": 1428,
      "àŃ¨àŃ¦àŃ§àŃ": 1429,
      "Ġà¬¦à¬°à¬ķ": 1430,
      "ĠàŃ¨àŃ¦àŃ¦àŃ¨": 1431,
      "Ġ3": 1432,
      "à¬°à¬®à¬£à¬°": 1433,
      "Ġà¬·à¬·": 1434,
      "Ġà¬ļà¬īà¬¤": 1435,
      "Ġà¬Ĩà¬¸à¬¨": 1436,
      "Ġa": 1437,
      "à¬Łà¬Ļ": 1438,
      "à¬Ĺà¬²à¬°": 1439,
      "up": 1440,
      "à¬¸à¬²à¬®": 1441,
      "ÉĻ": 1442,
      "à¬ķà¬¡": 1443,
      "à¬ªà¬¶": 1444,
      "ĠEs": 1445,
      "à¬¹à¬³": 1446,
      "à¬łà¬ķ": 1447,
      "à¬ĵà¬°": 1448,
      "ĠMedic": 1449,
      "Ġà¬Ĩà¬ĺ": 1450,
      "ĠàŃ§àŃ¯àŃ¯àŃ®": 1451,
      "ĠHealth": 1452,
      "àŃ¨àŃ«": 1453,
      "ential": 1454,
      "ganization": 1455,
      "ĠW": 1456,
      "Ġà¬ªà¬°à¬¸": 1457,
      "Ġà¬ĩà¬°": 1458,
      "à¬¸à¬¬à¬°": 1459,
      "àŃĩ)": 1460,
      "àŃ§àŃ©": 1461,
      "Ġand": 1462,
      "Ġà¬ħà¬¬à¬¸à¬°à¬°": 1463,
      "Ġà¬ķà¬²à¬°": 1464,
      "àŃ¨àŃ¦àŃ¦àŃ": 1465,
      "ĠOrganization": 1466,
      "à§": 1467,
      "Ġà¬ľà¬¬": 1468,
      "à¬Ĩà¬Ĺà¬²": 1469,
      "ĠList": 1470,
      "ant": 1471,
      "health": 1472,
      "Ġà¬Ĩà¬ŀ": 1473,
      "à¬¹à¬£": 1474,
      "Ġà¬¦à¬¶à¬®": 1475,
      "à¬¬à¬¡": 1476,
      "à¬®à¬ķà¬°à¬£": 1477,
      "Ġà¬¬à¬Ł": 1478,
      "Ġà¬®à¬¦": 1479,
      "lop": 1480,
      "à¬¸à¬¹": 1481,
      "Ġto": 1482,
      "Ġà¬ļà¬£": 1483,
      "tis": 1484,
      "à¬¡à¬³à¬°": 1485,
      "io": 1486,
      "Ġà¬ªà¬¸à¬¨": 1487,
      "à¬ıà¬«": 1488,
      "à¬Ĩà¬¦": 1489,
      "à¬°à¬ļà¬³à¬¨": 1490,
      "Ġà¬²à¬Ļ": 1491,
      "àŃ¨àŃª": 1492,
      "ĠEsential": 1493,
      "ĠMedicines": 1494,
      "ĠàŃ§àŃ¯àŃ«àŃ¦": 1495,
      "à¬®à¬ľ": 1496,
      "ĠàŃ¨àŃ¦àŃ¦àŃ©": 1497,
      "ra": 1498,
      "Ġà¬ķà¬ł": 1499,
      "Ġà¬ıà¬ĩ": 1500,
      "ĠàŃ©àŃ§": 1501,
      "à¬Ĺà¬¬à¬¤": 1502,
      "Ġà¬¶à¬¹": 1503,
      "àŃ±à¬°à¬ł": 1504,
      "rom": 1505,
      "à¬Łà¬²": 1506,
      "à¬īà¬¦": 1507,
      "ĠàŃ§àŃ¯àŃªàŃ®": 1508,
      "Ġà¬Ĩà¬¦à¬°": 1509,
      "àŃ§àŃ§": 1510,
      "ne": 1511,
      "àŃĩ_": 1512,
      "à¬ķà¬Łà¬ķ": 1513,
      "Ġà¬ħà¬ŃàŃŁ": 1514,
      "Ġà¬ķà¬¹à¬¨": 1515,
      "Ġà¬Ĺà¬Ľà¬°": 1516,
      "àŃĢ-": 1517,
      "ËĪ": 1518,
      "à¬ªà¬·": 1519,
      "Ġà¬®à¬¹à¬ķ": 1520,
      "ep": 1521,
      "Ġà¬°à¬ĺ": 1522,
      "àŃŁà¬ķà¬¤": 1523,
      "ĠàŃªàŃ¦": 1524,
      "ase": 1525,
      "ath": 1526,
      "Ġà¬ıà¬ļ": 1527,
      "Ġà¬īà¬ªà¬¦": 1528,
      "ĠàŃ§àŃ®àŃ¬": 1529,
      "ĠàŃ§àŃ¯àŃªàŃŃ": 1530,
      "à¬¡à¬ªà¬°": 1531,
      "res": 1532,
      "Ġà¬Ľà¬ħ": 1533,
      "Ġà¬¸à¬²": 1534,
      "Ġà¬Ķà¬·à¬§à¬°": 1535,
      "ĠàŃ¬àŃ¦": 1536,
      "ĠàŃ§àŃ¯àŃ¯àŃ§": 1537,
      "Ġà¬ĺà¬°à¬ķ": 1538,
      "Ġ!": 1539,
      "à¬ıà¬¬": 1540,
      "à¬ıà¬Ł": 1541,
      "Ġà¬²à¬£": 1542,
      "à¬¬à¬°à¬°": 1543,
      "ĠàŃ©àŃ«": 1544,
      "ut": 1545,
      "à¬ĩà¬«": 1546,
      "Ġà¬Ĩà¬Ń": 1547,
      "Ġà¬īà¬·": 1548,
      "ngl": 1549,
      "ĠàŃ¨àŃ¦àŃ¨àŃ©": 1550,
      "ure": 1551,
      "edication": 1552,
      "à¬°à¬ķà¬°": 1553,
      "Ġà¬®à¬¹à¬®": 1554,
      "Ġ\"_": 1555,
      "Ġà¬ľà¬³à¬°": 1556,
      "ĠàŃ§àŃ¯àŃ¯àŃ¨": 1557,
      "Ġà¬ªà¬¦à¬¬": 1558,
      "à¬ķà¬³à¬¨": 1559,
      "Ġ20": 1560,
      "àŃ±à¬ķ": 1561,
      "à¬°à¬¤à¬ķ": 1562,
      "Ġà¬ĩà¬·": 1563,
      "ĠàŃ§àŃ¯àŃªàŃ¬": 1564,
      "à¬ĸà¬³": 1565,
      "Ġà¬īà¬ªà¬Ĺ": 1566,
      "ot": 1567,
      "ow": 1568,
      "Ġà¬¬à¬³à¬Ńà¬¦": 1569,
      "à¬¨à¬Ĺà¬°": 1570,
      "ĠàŃ§àŃ¯àŃ®àŃª": 1571,
      "nglish": 1572,
      "àŃŁà¬Łà¬ķ": 1573,
      "à¬¦à¬ª": 1574,
      "à¬¶à¬³": 1575,
      "à¬¶à¬¶": 1576,
      "anc": 1577,
      "ĠàŃŃàŃ«": 1578,
      "àŃŁà¬Ĺà¬¡": 1579,
      "àŃ§àŃ¯àŃ®": 1580,
      "Ġà¬®à¬łà¬°": 1581,
      "pl": 1582,
      "à¬¸à¬¦à¬°": 1583,
      "ĠàŃ§àŃ¯àŃªàŃ¨": 1584,
      "àŃŁà¬¶": 1585,
      "àŃ±à¬ļ": 1586,
      "ĠK": 1587,
      "Ġà¬°à¬ŀ": 1588,
      "Ġà¬¸à¬°à¬³": 1589,
      "velop": 1590,
      "à¬ķà¬°à¬£à¬°": 1591,
      "ĠU": 1592,
      "Ġà¬¸à¬ł": 1593,
      "Ġà¬¦à¬¶à¬ķà¬°": 1594,
      "à¬ħà¬¸": 1595,
      "à¬°à¬ľà¬¨": 1596,
      "à¥į": 1597,
      "Ġà¬«à¬£": 1598,
      "Ġà¬ľà¬¨à¬ľ": 1599,
      "à¬¨à¬¶": 1600,
      "à¬²à¬ķà¬°": 1601,
      "ĠàŃ§àŃ¯àŃ¯àŃª": 1602,
      "à¬¸à¬°à¬ķ": 1603,
      "à¬¨à¬ł": 1604,
      "ĠàŃ©àŃ¨": 1605,
      "Ġà¬¤à¬®": 1606,
      "ĠàŃ§àŃ¯àŃ¬àŃ¦": 1607,
      "ÌĦ": 1608,
      "à¬°à¬ıà¬¡": 1609,
      "Ġà¬īà¬ªà¬ķà¬°à¬£": 1610,
      "à¬¾à¬¼": 1611,
      "ium": 1612,
      "ĠàŃ§àŃ¯àŃŃàŃ«": 1613,
      "à¬¥à¬¬": 1614,
      "à¬Ĩà¬³": 1615,
      "ĠàŃ§àŃ¯àŃ¯àŃ©": 1616,
      "Ġà¬¨à¬°à¬¸": 1617,
      "Ġmedication": 1618,
      "Ġà¬Ĩà¬°à¬¬": 1619,
      "à¬īà¬®": 1620,
      "à¬ķà¬Łà¬¤à¬®": 1621,
      "English": 1622,
      "àŃĩà¬¾-": 1623,
      "ĠàŃ§àŃ¯àŃ¯àŃŃ": 1624,
      "à¬¤à¬ľ": 1625,
      "Ġà¬¬à¬®": 1626,
      "Ġà¬Ńà¬£": 1627,
      "à¬ħà¬Ļ": 1628,
      "uc": 1629,
      "Ġ%": 1630,
      "Ġà¬ıà¬°": 1631,
      "à¬°à¬¬à¬£": 1632,
      "ĠàŃ§àŃ¯àŃ¬àŃ¨": 1633,
      "Ġà¬Ĺà¬®": 1634,
      "àŃĢ\"": 1635,
      "Ġà¬Ĩà¬·": 1636,
      "Ġv": 1637,
      "Ġà¬ľàŃŁà¬ª": 1638,
      "Ġà¬ħà¬³à¬Ļ": 1639,
      "Ġà¬¯à¬¤": 1640,
      "à¬§à¬®": 1641,
      "Ġà¬Ńà¬Ļ": 1642,
      "ub": 1643,
      "àŃŁà¬Łà¬¨": 1644,
      "Ġà¬ķà¬ķ": 1645,
      "à¬¦àŃŁ": 1646,
      "ĠàŃ§àŃ¯àŃ®àŃŃ": 1647,
      "ĠàŃ§àŃ¯àŃ¯àŃ¬": 1648,
      "Ġà¬¬à¬¸à¬¬": 1649,
      "Ġà¦": 1650,
      "à¬īà¬Ł": 1651,
      "der": 1652,
      "Ġ?": 1653,
      "âĢĵ": 1654,
      "à¬Łà¬°à¬¨": 1655,
      "Ġà¬īà¬ªà¬°à¬ķ": 1656,
      "ens": 1657,
      "ĠàŃ§àŃ¯àŃ©àŃ¦": 1658,
      "àŃ§àŃ¯àŃŃ": 1659,
      "à¬ľà¬¨à¬ķ": 1660,
      "ĠàŃ§àŃ®àŃŃ": 1661,
      "Ġà¬ıà¬ķà¬¦": 1662,
      "st": 1663,
      "àŃ±à¬°à¬Ļ": 1664,
      "ĠàŃ©àŃ©": 1665,
      "à¬¬à¬²à¬®": 1666,
      "à¬ªà¬ļ": 1667,
      "àŃ±à¬ľ": 1668,
      "Ġà¬ĩà¬Ł": 1669,
      "ĠàŃ©àŃª": 1670,
      "ib": 1671,
      "Ġ5": 1672,
      "à¬¸à¬¤": 1673,
      "ĠàŃ§àŃ¯àŃŃàŃ¨": 1674,
      "Ġà¬ĸà¬¬à¬°à¬ķ": 1675,
      "Ġworld": 1676,
      "ak": 1677,
      "à¬£à¬ļà¬¨": 1678,
      "à¬ªà¬¥à¬°": 1679,
      "Ġà¬°à¬£": 1680,
      "à¬ªà¬¬": 1681,
      "Ġà¬ıà¬Ńà¬³": 1682,
      "Ġà¬«à¬ķ": 1683,
      "à¬¿),": 1684,
      "Ġà¬®à¬¨à¬°": 1685,
      "Ġà¬ħà¬£à¬¸à¬°": 1686,
      "à¬³à¬Ļ": 1687,
      "ary": 1688,
      "ĠàŃ§àŃ¯àŃ«àŃ¬": 1689,
      "à¬¥à¬²": 1690,
      "à¬ļà¬¸": 1691,
      "à¬ıà¬£": 1692,
      "ĠàŃ§àŃ¯àŃŃàŃ¦": 1693,
      "ĠàŃ§àŃ¯àŃ«àŃ«": 1694,
      "develop": 1695,
      "à¤°": 1696,
      "à¬ĩà¬Ĺ": 1697,
      "à¬ķà¬°à¬Ļ": 1698,
      "à¬īà¬ł": 1699,
      "à¬¡à¬®": 1700,
      "ĠàŃ®àŃ¦": 1701,
      "à¬¨à¬²": 1702,
      "Ġà¬ªà¬ļ": 1703,
      "àŃ¬àŃ¦": 1704,
      "Ġà¬Ļ": 1705,
      "àŃŁà¬ķà¬°": 1706,
      "ĠàŃ§àŃ¯àŃ®àŃ¯": 1707,
      "Ġà¬¯à¬®": 1708,
      "ĠàŃ§àŃ¯àŃ®àŃ®": 1709,
      "ian": 1710,
      "Ġà¬°à¬¹à¬¨": 1711,
      "à¬Łà¬¬à¬²": 1712,
      "àŃ¨àŃ©": 1713,
      "ËĲ": 1714,
      "Ġà¬Ĺà¬¨": 1715,
      "Ġà¬Ĺà¬°à¬®": 1716,
      "anti": 1717,
      "à¬·à¬ľ": 1718,
      "à¬ĭ": 1719,
      "à¬Łà¬¬": 1720,
      "à¬°à¬·": 1721,
      "Ġà¬¨àŃŁ": 1722,
      "à¬Ĩà¬ľ": 1723,
      "à¬ľà¬ªà¬¥": 1724,
      "à¬¶à¬¦": 1725,
      "Ġà¬¥à¬£": 1726,
      "à¬ĩà¬Ń": 1727,
      "Ġà¬Ńà¬Ł": 1728,
      "à¬¨à¬Ń": 1729,
      "à¬¶à¬Ĺà¬¡": 1730,
      "à¬ªà¬ŀ": 1731,
      "Ġà¬¬à¬¤": 1732,
      "à¬ħà¬ķ": 1733,
      "Ġà¬§à¬°à¬£à¬°": 1734,
      "àŃ§àŃ¯àŃ¯àŃ": 1735,
      "à¬¿'": 1736,
      "ĠàŃ®àŃ©àŃ¦": 1737,
      "ĠàŃ§àŃ¯àŃ¬àŃª": 1738,
      "Ġà¬¬à¬¦à¬³à¬°": 1739,
      "àŃ¨àŃŃ": 1740,
      "à¬¬à¬ľà¬¨": 1741,
      "à¬¸à¬°à¬°": 1742,
      "one": 1743,
      "à°": 1744,
      "Ġà¬ıàŃŁ": 1745,
      "Ìģ": 1746,
      ")_": 1747,
      "ĠàŃ§àŃ¯àŃ¬àŃ¯": 1748,
      "ĠV": 1749,
      "developing": 1750,
      "à¬ĩà¬ªà¬°": 1751,
      "à¬³à¬ľ": 1752,
      "à¬ıà¬°": 1753,
      "àŃ¨àŃ®": 1754,
      "à¬Łà¬¦": 1755,
      "Ġà¬Ĺà¬¦": 1756,
      "à¥¥": 1757,
      "ain": 1758,
      "Ġt": 1759,
      "Ġà¬¤à¬ªà¬¸": 1760,
      "per": 1761,
      "Ġà¬¬à¬°à¬£": 1762,
      "à¬łà¬ª": 1763,
      "Ġà¬¡à¬¬": 1764,
      "ĠàŃ§àŃ¯àŃ«àŃ®": 1765,
      "Ġà¬ħà¬ĸ": 1766,
      "àŃį\"": 1767,
      "à¬ªà¬¬à¬¨": 1768,
      "Ġà¬ħà¬ļ": 1769,
      "art": 1770,
      "ĠàŃ§àŃ¯àŃ®àŃ©": 1771,
      "à¬Ľà¬¡": 1772,
      "à¬ıà¬Łà¬°": 1773,
      "à¬¬à¬¸à¬°": 1774,
      "à¬Ĩà¬ª": 1775,
      "Ġà¬ľà¬Ĺà¬¤": 1776,
      "ĠàŃ§àŃ¯àŃ©àŃ¬": 1777,
      "ial": 1778,
      "à¬ľà¬¤": 1779,
      "à¬ĵà¬ª": 1780,
      "Ġ8": 1781,
      "àŃĩ-": 1782,
      "à¬ĸà¬²": 1783,
      "Ġà¬®à¬¸à¬²": 1784,
      "if": 1785,
      "à¬¤à¬¦": 1786,
      "Ġà¬ªà¬°à¬ł": 1787,
      "ast": 1788,
      "lood": 1789,
      "à²": 1790,
      "à¬ŁàŃ±": 1791,
      "à¬ĺà¬Łà¬£": 1792,
      "à¬ĵà¬Ļ": 1793,
      "Ġà¬¹à¬ķ": 1794,
      "à¬°à¬¬à¬³": 1795,
      "Ġà¬ľà¬Ĺà¬®": 1796,
      "ĠàŃ§àŃ¯àŃ«àŃª": 1797,
      "à¦¾": 1798,
      "à¬īà¬ķ": 1799,
      "Ġà¬ħà¬¸à¬®": 1800,
      "à¬°à¬¸à¬¨": 1801,
      "ell": 1802,
      "co": 1803,
      "Ġà¬ķà¬®à¬³": 1804,
      "àŃŁà¬¤à¬°": 1805,
      "Ġà¬īà¬ªà¬¬": 1806,
      "Ġà¬Ĺà¬£à¬¤à¬¨": 1807,
      "ide": 1808,
      "Ġà¬ŃàŃŁ": 1809,
      "Ġà¬Ĩà¬Ł": 1810,
      "Ġà¬ľà¬³à¬¬": 1811,
      "à´": 1812,
      "à¬¬à¬ľ": 1813,
      "à¬®à¬®": 1814,
      "à¬°à¬£à¬Ļ": 1815,
      "Ġà¬ıà¬Ĺ": 1816,
      "à¬Ńà¬¬à¬¤": 1817,
      "àŃ¨àŃ¬": 1818,
      "àŃŁà¬ľ": 1819,
      "à¬ĺà¬ķ": 1820,
      "à¬¤à¬Ł": 1821,
      "à¬Ĺà¬¸": 1822,
      "ang": 1823,
      "ĠàŃ§àŃ¯àŃ¬àŃ©": 1824,
      "áĢ": 1825,
      "àŃŁà¬°à¬¤": 1826,
      "anch": 1827,
      "ĠàŃ§àŃ¯àŃ®àŃ¨": 1828,
      "à¬¿à¬ĥ": 1829,
      "à¬ĩà¬Ĩà¬¸": 1830,
      "ĠàŃ§àŃ¯àŃ«àŃ©": 1831,
      "Ġar": 1832,
      "àŃĢà¥¤": 1833,
      "ĠàŃ§àŃ¯àŃ¬àŃ«": 1834,
      "Ġ.": 1835,
      "Ġ4": 1836,
      "Ġà¬ħà¬®à¬°": 1837,
      "ĠàŃ§àŃ¯àŃ®àŃ§": 1838,
      "Ġ;": 1839,
      "à¬¥à¬³à¬°": 1840,
      "à¬ªà¬¨à¬°": 1841,
      "ĠàŃ§àŃ¯àŃ®àŃ¬": 1842,
      "àŃ¦àŃ©": 1843,
      "à¬¿à¬ģà¥¤": 1844,
      "ĠàŃ§àŃ¯àŃªàŃ¦": 1845,
      "à¬·à¬¦à¬°": 1846,
      "à¬ľà¬¦": 1847,
      "Ġà¬¦à¬¹": 1848,
      "ĠàŃ©àŃ¬": 1849,
      "àŃŁà¬ķà¬³": 1850,
      "ite": 1851,
      "ment": 1852,
      "Ġor": 1853,
      "à¬®à¬°à¬£": 1854,
      "àŃ±à¬¸": 1855,
      "all": 1856,
      "igh": 1857,
      "ease": 1858,
      "àŃªàŃ¦": 1859,
      "Ġre": 1860,
      "àŃĩ;": 1861,
      "Ġà¬¹à¬ł": 1862,
      "àŃ±à¬¯": 1863,
      "ĠàŃ§àŃ¯àŃ«àŃ¯": 1864,
      "Ġ201": 1865,
      "\",": 1866,
      "à¬ļà¬¤à¬®": 1867,
      "à¬¤à¬°à¬ĸ": 1868,
      "à¬ĺà¬¨": 1869,
      "àŃ§àŃ¯àŃ¬": 1870,
      "Ġà¬«à¬Ł": 1871,
      "à¬¹à¬®": 1872,
      "Ġà¬ĵà¬¸": 1873,
      "àŃ«àŃŃ": 1874,
      "ans": 1875,
      "ĠàŃ§àŃ¯àŃŃàŃ¬": 1876,
      "à¬¸à¬°à¬£": 1877,
      "à¬ļà¬³à¬ķ": 1878,
      "Ġà¬īà¬ľ": 1879,
      "àŃ¨àŃ¨": 1880,
      "yl": 1881,
      "à¬Ĩà¬¡": 1882,
      "àŃ¦àŃ¨": 1883,
      "àŃŁàŃŁ": 1884,
      "à¬ĩà¬ļ": 1885,
      "Ġà¬ªà¬ľ": 1886,
      "à¬ļà¬Ł": 1887,
      "eric": 1888,
      "ox": 1889,
      "à¬®à¬¬à¬Ļ": 1890,
      "tive": 1891,
      "àŃ¯àŃ«": 1892,
      "àŃģ-": 1893,
      "à¬¸à¬Ł": 1894,
      "Ġà¬ĩà¬¸à¬²": 1895,
      "ill": 1896,
      "Ġà¬ħà¬¹à¬®": 1897,
      "ayat": 1898,
      "àŃ±à¬¦": 1899,
      "à¬³à¬ķà¬°": 1900,
      "Ġà¬Ńà¬°à¬¤": 1901,
      "Ġ\\": 1902,
      "Ġà¬ıà¬ľ": 1903,
      "Ġà¬ĵà¬®": 1904,
      "àŃģ_": 1905,
      "à¬ĩà¬¶": 1906,
      "Ġà¬¹à¬²": 1907,
      "à¬ĩà¬°à¬ıà¬¡": 1908,
      "ĠàŃŃàŃ¦": 1909,
      "ĠàŃ§àŃ¯àŃŃàŃ¯": 1910,
      "ĠàŃ§àŃ¯àŃªàŃ¯": 1911,
      "à¬¸à¬¸": 1912,
      "à¬¤à¬¨à¬³": 1913,
      "ĠàŃ§àŃ¯àŃªàŃ«": 1914,
      "àŃ±à¬ķà¬°": 1915,
      "àŃ©àŃ©": 1916,
      "ĠPanch": 1917,
      "à¬¬à¬°à¬Ļ": 1918,
      "Ġà¬²à¬°": 1919,
      "Ġà¬ĩà¬īà¬°": 1920,
      "ri": 1921,
      "Ġà¬ľàŃŁà¬¨": 1922,
      "à¬ĵà¬¨": 1923,
      "ĠPanchayat": 1924,
      "Ġe": 1925,
      "à¬īà¬ľ": 1926,
      "Ġà¬ĸà¬¡": 1927,
      "Ġà¬Ĩà¬²à¬¬à¬®": 1928,
      "Ġà¬ĩà¬¨à¬·": 1929,
      "jection": 1930,
      "à¬¬à¬¤à¬°": 1931,
      "Ġà¬®à¬¦à¬¨": 1932,
      "àŃ¦àŃ«": 1933,
      "Ġà¬ħà¬¬à¬§": 1934,
      "ĠàŃ¯àŃ¦": 1935,
      "ud": 1936,
      "à¬¿/": 1937,
      "àŃĢ'": 1938,
      "Ġà¬ľà¬³à¬ª": 1939,
      "àŃŁà¬Ł": 1940,
      "Ġà¬ľà¬Ĺà¬¤à¬¸": 1941,
      "ĠàŃ§àŃ¯àŃŃàŃ®": 1942,
      "Ġà¬ªà¬Ľà¬°": 1943,
      "à¬ªà¬ª": 1944,
      "Ġà¬Ľà¬¬": 1945,
      "à¬²à¬ª": 1946,
      "Ġà¬ıà¬«": 1947,
      "Ġà¬¨à¬¹": 1948,
      "Ġà¬·à¬¡": 1949,
      "àŃ¯àŃ®": 1950,
      "à¬¿à¬¼": 1951,
      "àŃŁà¬ŀ": 1952,
      "à¬¶à¬ª": 1953,
      "ĠàŃ«àŃ¦àŃ¦": 1954,
      "àŃģà¥¤": 1955,
      "à¬²à¬¡": 1956,
      "à¬§à¬Ļ": 1957,
      "àŃªàŃ«": 1958,
      "ĠàŃ§àŃ¯àŃ¨àŃ¦": 1959,
      "Ġà¬¨à¬¬à¬ľ": 1960,
      "Ġà¬Ĩà¬®à¬°": 1961,
      "à¬ĩà¬¨à¬°": 1962,
      "à¬Ńà¬Ļ": 1963,
      "à¬¼à¬¿,": 1964,
      "enc": 1965,
      "Ġà¬īà¬ªà¬¤": 1966,
      "Ġ[": 1967,
      "Ġà¬¬à¬§": 1968,
      "àŃģ:": 1969,
      "à¬ıà¬¸à¬¨": 1970,
      "Ġà¬īà¬¤à¬ķ": 1971,
      "àŃ¯àŃ¨": 1972,
      "qu": 1973,
      "Ġâ": 1974,
      "Ġà¬ķà¬ŀ": 1975,
      "Ġà¬²à¬³": 1976,
      "àŃ©àŃ®": 1977,
      "Ġà¬¹à¬°à¬®": 1978,
      "à¬īà¬³à¬°": 1979,
      "à¬°à¬£à¬ķ": 1980,
      "ĠàŃ§àŃ¯àŃ¬àŃ¬": 1981,
      "apy": 1982,
      "Ġà¬Īà¬¶": 1983,
      "ical": 1984,
      "à¬ķà¬Ĺ": 1985,
      "Ġà¬ªà¬®": 1986,
      "Ġà¬ħà¬¬à¬°": 1987,
      "ĠàŃ§àŃ¯àŃ©àŃª": 1988,
      "à¬¾;": 1989,
      "à¬°à¬³à¬°": 1990,
      "Ġà¬ĺà¬¨": 1991,
      "Ġdisease": 1992,
      "àŃ¦àŃª": 1993,
      "ĠàŃ§àŃ¯àŃ¨àŃ®": 1994,
      "àŃĩà¬ģ,": 1995,
      "à¬¬à¬ªà¬°": 1996,
      "Ġà¬ªà¬³": 1997,
      "Ġà¬¶à¬°à¬¤": 1998,
      "ĠàŃ¨àŃ¦àŃ¦": 1999,
      "erapy": 2000,
      "Ġà¬¸à¬¹à¬ľà¬°": 2001,
      "àŃ¨àŃ§": 2002,
      "ĠàŃªàŃ«": 2003,
      "ĠàŃ§àŃ¯àŃŃàŃ©": 2004,
      "Ġinto": 2005,
      "àŃĩ:": 2006,
      "à¬ĩà¬ħà¬Ľ": 2007,
      "Ġà¬¨à¬¬à¬ķ": 2008,
      "inf": 2009,
      "Ġà¬Ĩà¬ªà¬£à¬Ļ": 2010,
      "ĠJ": 2011,
      "à¬¹à¬²": 2012,
      "à¥Ģ": 2013,
      "Ġà¬¸à¬®à¬¨": 2014,
      "ĠàŃŃàŃŃ": 2015,
      "Ġà¬Ĩà¬Ĺà¬ķ": 2016,
      "Ġà¬Ĩà¬łà¬®à¬²": 2017,
      "se": 2018,
      "à¬¾(": 2019,
      "à¬²à¬ľ": 2020,
      "Ġà¬Ĩà¬³": 2021,
      "Ġk": 2022,
      "Ġà¬¶à¬¸": 2023,
      "à¬Ĩà¬Ł": 2024,
      "àŃ¯àŃª": 2025,
      "Ġsy": 2026,
      "à¬¿;": 2027,
      "à¬Ńà¬Ĺ": 2028,
      "à¬īà¬¤à¬°": 2029,
      "à¬°à¬¸à¬°": 2030,
      "à¬ķà¬Łà¬¬à¬°": 2031,
      "à¬°à¬¡": 2032,
      "Ġà¬ıà¬¸à¬¬": 2033,
      "Ġà¬ħà¬¥à¬¬": 2034,
      "àŃ¦àŃ¬": 2035,
      "ous": 2036,
      "àŃ©àŃ«": 2037,
      "à¬°à¬Ľ": 2038,
      "Ġà¬Ńà¬ľà¬¨": 2039,
      "Ġà¬Ńà¬Ĺà¬¬à¬¤": 2040,
      "à¬°à¬£àŃŁà¬¨": 2041,
      "Ġà¬¬à¬¹à¬¨": 2042,
      "ÉĶ": 2043,
      "à¬°à¬Ĺà¬¤": 2044,
      "Ġà¬ªà¬¦à¬°": 2045,
      "Ġà¬ħà¬°à¬£": 2046,
      "Ġà¬īà¬®": 2047,
      "àŃ¦àŃŃ": 2048,
      "ĠàŃ§àŃ¯àŃ¬àŃ®": 2049,
      "àŃ¯àŃ©": 2050,
      "Ġr": 2051,
      "à¬¸à¬Ń": 2052,
      "ĠàŃ©àŃ®": 2053,
      "à¬·à¬ķà¬°": 2054,
      "Ġà¬¦à¬®": 2055,
      "Ġà¬²à¬¬à¬£": 2056,
      "hy": 2057,
      "Ġà¬ĸà¬Ł": 2058,
      "à¬¨à¬ļ": 2059,
      "à¬¬à¬Ń": 2060,
      "à¬Ĺà¬ŀ": 2061,
      "à¬¯à¬°": 2062,
      "à¬ĵà¬¸": 2063,
      "à¬°à¬ľà¬¨à¬¨": 2064,
      "à¬¬à¬¹à¬¨": 2065,
      "Ġà¬®à¬¶": 2066,
      "ĠàŃ§àŃ¯àŃªàŃ©": 2067,
      "Ġà¬ķà¬¡": 2068,
      "à¬¦à¬ķà¬°": 2069,
      "Ġà¬²à¬Ń": 2070,
      "à¬¦à¬°à¬Ĺà¬¡": 2071,
      "ace": 2072,
      "Ġà¬®à¬ķà¬°": 2073,
      "à¬¤à¬°à¬ª": 2074,
      "ĠàŃŃàŃ®": 2075,
      "Ġà¬ªà¬¥à¬°à¬°": 2076,
      "Ġà¬¬à¬¬": 2077,
      "à¬ļà¬¶": 2078,
      "à¬·à¬ķà¬®": 2079,
      "ĠàŃ§àŃ¯àŃªàŃª": 2080,
      "à¬ıà¬¤": 2081,
      "à¬ĺà¬¬": 2082,
      "oth": 2083,
      "yc": 2084,
      "à¬·à¬¸": 2085,
      "àŃ¦àŃ®": 2086,
      "Ġ{": 2087,
      "à¬³à¬ª": 2088,
      "à¬³à¬Ń": 2089,
      "à¬Ĩà¬ĸ": 2090,
      "Ġinf": 2091,
      "\")": 2092,
      "à¬ĩà¬¹": 2093,
      "Ġà¬¦àŃŁ": 2094,
      "Ġà¬īà¬ªà¬Ń": 2095,
      "àŃ§àŃ¯àŃ«": 2096,
      "iv": 2097,
      "à¬®à¬Ł": 2098,
      "Ġà¬ħà¬¬à¬ķ": 2099,
      "à¬ļà¬£": 2100,
      "àŃ¯àŃ¦": 2101,
      "àŃ¯àŃŃ": 2102,
      "à¬³à¬ĸ": 2103,
      "à¬°à¬¹à¬Ļ": 2104,
      "à¬ĺà¬®": 2105,
      "ron": 2106,
      "à¬ķà¬¥": 2107,
      "à¬ĩà¬ľà¬£": 2108,
      "Ġà¬Ĩà¬³à¬¤": 2109,
      "ĠàŃ§àŃ¯àŃ©àŃ§": 2110,
      "ĠàŃ§àŃ¯àŃ¨àŃ§": 2111,
      "Ġhe": 2112,
      "Ġà¬¸à¬¦à¬¨": 2113,
      "Ġà¬ıà¬ķà¬°": 2114,
      "orm": 2115,
      "àŃ§àŃ¯àŃª": 2116,
      "à¬®à¬Ń": 2117,
      "à¬ħà¬Ł": 2118,
      "àŃŃàŃ®": 2119,
      "àŃįâĢĮâĢĮ": 2120,
      "Ġà¬ħà¬¸à¬¹": 2121,
      "Ġg": 2122,
      "àŃģ)": 2123,
      "àŃŁà¬¬à¬°": 2124,
      "Ġà¬ĸà¬¸": 2125,
      "ĠàŃŃàŃ¬": 2126,
      "ĠàŃ§àŃ¯àŃ©àŃ®": 2127,
      "Ġà¬Ĩà¬ĩà¬¨à¬°": 2128,
      "ef": 2129,
      "à¬¤à¬¨à¬°": 2130,
      "Ġà¬ķà¬¦à¬³": 2131,
      "Ġà¬Ĺà¬¸": 2132,
      "Ġà¬ļà¬³à¬¨": 2133,
      "ĠàŃ§àŃ¯àŃ©àŃ¯": 2134,
      "Ø§": 2135,
      "à¬°à¬¸à¬¬": 2136,
      "àŃį'": 2137,
      "Ġà¬¦à¬¶à¬¨": 2138,
      "Ġà¬¬à¬°à¬Ĺà¬¡": 2139,
      "Ġà¬ĺà¬°à¬°": 2140,
      "Ġà¬īà¬ªà¬®à¬¹": 2141,
      "Ġà¬¤à¬ª": 2142,
      "à¬Ľà¬¤": 2143,
      "àŃ©àŃ¬": 2144,
      "à¬ıà¬²à¬Ń": 2145,
      "à¬¨à¬¸à¬¨": 2146,
      "à¬³à¬ķà¬£": 2147,
      "ĠàŃ§àŃ¯àŃ©àŃ¨": 2148,
      "ug": 2149,
      "à¬¦à¬Ł": 2150,
      "à¬¡à¬¸": 2151,
      "Ġà¬¦à¬¤": 2152,
      "Ġà¬¦à¬³à¬ķ": 2153,
      "Ġà¬ªà¬°à¬²": 2154,
      "à¬¬à¬¨à¬ķ": 2155,
      "à¬ĵà¬²": 2156,
      "àŃģ.": 2157,
      "à¬¸à¬ľ": 2158,
      "Ġà¬ĵà¬°": 2159,
      "Ġà¬¶à¬¨": 2160,
      "àŃ¬àŃ®": 2161,
      "own": 2162,
      "oun": 2163,
      "Ġ7": 2164,
      "Ġà¬®à¬¨à¬¸": 2165,
      "à¬°à¬®à¬£à¬ķ": 2166,
      "ĠàŃ§àŃ¯àŃ©àŃŃ": 2167,
      "SA": 2168,
      "à¬ĩà¬ł": 2169,
      "ĠàŃ§àŃ¯àŃ©àŃ«": 2170,
      "los": 2171,
      "rome": 2172,
      "tro": 2173,
      "àŃŁà¬¯": 2174,
      "Ġà¬ªà¬Ļ": 2175,
      "àŃ«àŃ®": 2176,
      "àŃ¯àŃ¬": 2177,
      "ĠCh": 2178,
      "Ġà¬ħà¬¹à¬®à¬¦": 2179,
      "à¬¬à¬¤à¬®": 2180,
      "à¬ħà¬ª": 2181,
      "àŃ§àŃ§àŃ": 2182,
      "Ġà¬¸à¬¡": 2183,
      "à¬ħà¬Ń": 2184,
      "à¬·à¬ķà¬¤": 2185,
      "vein": 2186,
      "generic": 2187,
      "à¬¤à¬¬à¬°": 2188,
      "àŃŁà¬²": 2189,
      "à¬ªà¬¤à¬°": 2190,
      "Ġà¬²à¬¤": 2191,
      "ĠàŃ§àŃ¯àŃ¨àŃ¯": 2192,
      "ĠIn": 2193,
      "nes": 2194,
      "Ġà¬ķà¬Ļ": 2195,
      "Ġà¬¦à¬ĩà¬¤": 2196,
      "àŃ±à¬ķà¬ª": 2197,
      "Ġà¬¯à¬¶": 2198,
      "Ġà¬ľà¬£à¬Ļ": 2199,
      "à¬¬à¬ķà¬Ļ": 2200,
      "ort": 2201,
      "itis": 2202,
      "Ġà¬Ĭ": 2203,
      "à¬¤à¬«": 2204,
      "Ġà¬¤à¬³à¬ķ": 2205,
      "Ġà¬ĺà¬¡": 2206,
      "à¬¤à¬¨à¬¤": 2207,
      "àŃ©àŃŃ": 2208,
      "Ġà¬ļàŃŁà¬¨": 2209,
      "Ġà¬ªà¬°à¬ľ": 2210,
      "ches": 2211,
      "à¬°àŃ±": 2212,
      "à¬¸à¬°à¬¸": 2213,
      "Ġà¬¦à¬īà¬¡": 2214,
      "à¬īà¬°à¬ķ": 2215,
      "àŃ¬àŃ¯": 2216,
      "à¬ĩà¬Ĺà¬£": 2217,
      "Ġà¬ĩà¬¨à¬«": 2218,
      "ĠàŃ§àŃ¯àŃ¨àŃª": 2219,
      "Ġà¬¸à¬¹à¬ľ": 2220,
      "àŃªàŃ®": 2221,
      "àŃ±à¬²": 2222,
      "Ġà¬°à¬¥à¬Łà¬£": 2223,
      "Ġà¬Ĺà¬®à¬¨": 2224,
      "Ġà¬ļà¬Ł": 2225,
      "Ġà¬ĩà¬ķ": 2226,
      "à¤¿": 2227,
      "Ġ200": 2228,
      "az": 2229,
      "à¬°à¬ļà¬¨": 2230,
      "à¬¦à¬¦": 2231,
      "Ġà¬¸à¬®àŃŁà¬ķ": 2232,
      "à¯": 2233,
      "à¬³à¬ªà¬ķ": 2234,
      "à¬¡à¬Ĺ": 2235,
      "Ġà¬°à¬ľà¬¨": 2236,
      "Ġà¬Ĩà¬¶à¬Ļ": 2237,
      "Ġà¬¦à¬¶à¬¹à¬°": 2238,
      "Ġà¬¬à¬Ĺ": 2239,
      "àŃ¬àŃŃ": 2240,
      "Ġà¬¶à¬¤à¬ªà¬¥": 2241,
      "me": 2242,
      "à¬¦à¬Ĺ": 2243,
      "à¬¡à¬¨à¬°": 2244,
      "Ġà¬¶à¬¶": 2245,
      "àŃ¨àŃ¯": 2246,
      "Ġvein": 2247,
      "à¬¹à¬ľ": 2248,
      "à¬Ľà¬¦": 2249,
      "à¬īà¬²": 2250,
      "ĠàŃ§àŃ¯àŃªàŃ§": 2251,
      "Ġà¬Ľà¬¨": 2252,
      "àŃ§àŃ¯àŃ©": 2253,
      "ular": 2254,
      "agar": 2255,
      "Ġà¬Ĺà¬¹": 2256,
      "ndrome": 2257,
      "ov": 2258,
      "»¿": 2259,
      "ï»¿": 2260,
      "Ġ6": 2261,
      "àŃ¦àŃ¯": 2262,
      "Ġà¬°à¬ĸà¬¨": 2263,
      "ational": 2264,
      "act": 2265,
      "ea": 2266,
      "lu": 2267,
      "ty": 2268,
      "Ġà¬¶à¬°à¬£": 2269,
      "âĢĮâĢĮ": 2270,
      "Ġà¬¡à¬Ļ": 2271,
      "injection": 2272,
      "age": 2273,
      "Ġà¬®à¬¥": 2274,
      "à¬Ĺà¬¶": 2275,
      "à¬§à¬ª": 2276,
      "inal": 2277,
      "àŃŁà¬£à¬Ļ": 2278,
      "à¬¤à¬²": 2279,
      "ĠàŃ©àŃŃ": 2280,
      "ob": 2281,
      "og": 2282,
      "Ġ=": 2283,
      "Ġà¬°à¬¶": 2284,
      "Ġà¬§à¬®à¬¨": 2285,
      "Ġà¬Łà¬°": 2286,
      "ĠàŃªàŃ®": 2287,
      "Ġtr": 2288,
      "à¬ªà¬¦à¬°": 2289,
      "à¬³à¬ªà¬¤": 2290,
      "Ġà¬¶à¬¤à¬ķ": 2291,
      "àŃĢâĢĻ": 2292,
      "à¬¤à¬°à¬Ļ": 2293,
      "Ġà¬īà¬ªà¬ª": 2294,
      "à¬®à¬£à¬Ļ": 2295,
      "à¬¹à¬°à¬²": 2296,
      "à¬¨àŃŁà¬¨": 2297,
      "àŃ«àŃ¬": 2298,
      "Ġà¬Ķà¬ªà¬¨": 2299,
      "Ġà¬ľà¬³à¬¸": 2300,
      "à¬·àŃŁà¬ķ": 2301,
      "usc": 2302,
      "ĠInd": 2303,
      "Ġsyndrome": 2304,
      "à¬¾),": 2305,
      "à¬¬à¬Ĺ": 2306,
      "à¬Ĩà¬ł": 2307,
      "à¬ķà¬³à¬°": 2308,
      "à¬®à¬¹à¬¤": 2309,
      "Ġà¬¬à¬ļ": 2310,
      "Ġà¬Ńà¬ľ": 2311,
      "à¬ħà¬£": 2312,
      "Ġà¬¬à¬³à¬¦": 2313,
      "ory": 2314,
      "iver": 2315,
      "',": 2316,
      "The": 2317,
      "Ġà¬¶à¬¬à¬°": 2318,
      "Ġà¬Ŀà¬°à¬£": 2319,
      "áŀ": 2320,
      "Ġà¥¥": 2321,
      "Ġà¬¹à¬¬": 2322,
      "à¬Ńà¬£": 2323,
      "Ġà¬ĹàŃŁ": 2324,
      "Ġà¬¸à¬¹à¬ķ": 2325,
      "ĠàŃŃàŃª": 2326,
      "Ġà¬ħà¬ªà¬Ń": 2327,
      "ĠàŃ®àŃ«": 2328,
      "ĠàŃ®àŃª": 2329,
      "à¬°à¬¶à¬¸": 2330,
      "Ġà¬Ĩà¬¡à¬ķ": 2331,
      "Ġ\\-": 2332,
      "à¬ªà¬¹": 2333,
      "à¬Ĺà¬ľà¬°": 2334,
      "Ġà¬ħà¬¨à¬¤": 2335,
      "à¬ħà¬²": 2336,
      "à¬°à¬¦à¬¤": 2337,
      "à¬ĵà¬®": 2338,
      "Ġà¬®à¬¹à¬²": 2339,
      "Ġà¬ħà¬¯": 2340,
      "à¬ĩà¬ªà¬¡": 2341,
      "ĠàŃ®àŃ¬": 2342,
      "low": 2343,
      "Ġà¬Ĩà¬ĸà¬ª": 2344,
      "osis": 2345,
      "Ġch": 2346,
      "à¬ķà¬ľ": 2347,
      "àŃ¦àŃ§": 2348,
      "ers": 2349,
      "à¬¨à¬¯": 2350,
      "àŃŁà¬£à¬°": 2351,
      "Ġà¬ªà¬¬à¬¨": 2352,
      "Ġà¬ħà¬°à¬¬": 2353,
      "à¬īà¬ļ": 2354,
      "Ġà¬ĸà¬²": 2355,
      "omm": 2356,
      "iet": 2357,
      "ple": 2358,
      "Ġà¬Ĩà¬ĩà¬¸": 2359,
      "àŃ¬àŃª": 2360,
      "à¬³à¬¨à¬ķ": 2361,
      "à¬¦à¬¨à¬ķ": 2362,
      "à¬·à¬ķà¬Ļ": 2363,
      "à¬¡à¬Ļ": 2364,
      "àŃ±à¬®": 2365,
      "Ġà¬ıà¬ķà¬ķ": 2366,
      "order": 2367,
      "àŃŁà¬¹": 2368,
      "Ġà¬¸à¬¹à¬¸": 2369,
      "ge": 2370,
      "à¬¥à¬ª": 2371,
      "à¬Ńà¬¨": 2372,
      "Ġà¬īà¬ªà¬¶à¬®": 2373,
      "Ġà¬ªà¬¤à¬³": 2374,
      "à¤¨": 2375,
      "à¬łà¬ªà¬¢": 2376,
      "Ġà¬¨à¬ķà¬°": 2377,
      "à¬¼àŃĩà¬¾": 2378,
      "Ġà¬¨à¬¬à¬ķà¬³": 2379,
      "ct": 2380,
      "dom": 2381,
      "à¬³àŃŁà¬ķ": 2382,
      "Ġà¬ĩà¬¶": 2383,
      "Ġà¬°à¬¹à¬¸": 2384,
      "àŃ«àŃ«": 2385,
      "Ġcon": 2386,
      "Nagar": 2387,
      "ma": 2388,
      "Ġà¬®à¬³": 2389,
      "Ġà¬ĨàŃ±": 2390,
      "à¬Ĩà¬¹": 2391,
      "Ġà¬ĩà¬¨à¬¸": 2392,
      "à¬ħà¬Ĺ": 2393,
      "àŃ©àŃª": 2394,
      "à¬®à¬£à¬®": 2395,
      "ĠàŃ§àŃ¯àŃ¨àŃ¨": 2396,
      "Ġà¥¤âĢĻ": 2397,
      "Ġà¬ħà¬¡": 2398,
      "Ġà¬Ĩà¬²à¬°": 2399,
      "log": 2400,
      "ci": 2401,
      "dis": 2402,
      "ith": 2403,
      "Ġà¬ļà¬ī": 2404,
      "Ġà¬ħà¬ªà¬®": 2405,
      "ha": 2406,
      "Ġà¬Łà¬¨": 2407,
      "Ġ18": 2408,
      "à¸": 2409,
      "à¬£à¬Ĺà¬°": 2410,
      "à¬¡à¬²": 2411,
      ")à¥¤": 2412,
      "à¬¿(": 2413,
      "Ġà¬ķà¬¢": 2414,
      "Ġà¬¬à¬Ľ": 2415,
      "Ġà¬ĸà¬ŀ": 2416,
      "à¬®à¬ŀ": 2417,
      "Ġà¬¤à¬°à¬ķ": 2418,
      "Ġà¬ľàŃŁà¬¦": 2419,
      "20": 2420,
      "con": 2421,
      "à¬¨à¬¹": 2422,
      "Ġà¬ķà¬¸": 2423,
      "à¬·à¬Ń": 2424,
      "Ġà¬¸à¬¹à¬°à¬ł": 2425,
      "ĠàŃ§àŃ¯àŃ§àŃ¯": 2426,
      "kin": 2427,
      "Ġac": 2428,
      "à¬¥à¬¤": 2429,
      "à¬¸à¬¨à¬ķ": 2430,
      "à¬¸à¬Ĩà¬ª": 2431,
      "Ġà¬ĵà¬²": 2432,
      "Ġà¬²à¬¸": 2433,
      "àŃ¯àŃ¯": 2434,
      "à¬°à¬«à¬³": 2435,
      "oma": 2436,
      "Ġinfection": 2437,
      "à¬³à¬ł": 2438,
      "à¬ľà¬²": 2439,
      "à¬·à¬£à¬®": 2440,
      "Ġà¬¬à¬¨à¬¬": 2441,
      "àŃŁà¬¯à¬¨": 2442,
      "Ġà¬¸à¬ķà¬³": 2443,
      "àŃ®àŃ®": 2444,
      "Ġdisorder": 2445,
      "à¬¾âĢĮ": 2446,
      "Ġà¬ªà¬ĩà¬¸": 2447,
      "Ġà¬¦à¬¨": 2448,
      "à¬¼àŃį": 2449,
      "àŃ±à¬Ń": 2450,
      "à¬ıà¬¸à¬ıà¬²à¬Ń": 2451,
      "Ġà¬ĨàŃŁà¬¤à¬¨": 2452,
      "ect": 2453,
      "à¬Ĺà¬Ń": 2454,
      "àŃŃàŃ«": 2455,
      "tit": 2456,
      "roid": 2457,
      "ack": 2458,
      "Ġà¬°à¬ļàŃŁ": 2459,
      "sp": 2460,
      "Ġà¬ªà¬ĸ": 2461,
      "à¬Ĺà¬Ĺ": 2462,
      "à¬Ńà¬ķà¬°": 2463,
      "Ġà¬¦à¬°à¬¬": 2464,
      "Ġà¬ıà¬ķà¬¥": 2465,
      "âĢĺ": 2466,
      "Ġà¬ľà¬£à¬ķ": 2467,
      "Ġà¬īà¬ŃàŃŁà¬Ļ": 2468,
      "ĠàŃ§àŃ¯àŃ¨àŃŃ": 2469,
      "à¬³à¬§": 2470,
      "à¬¶à¬¸": 2471,
      "Ġà¬¡à¬°": 2472,
      "Ġà¬ķà¬²à¬®": 2473,
      "Ġblood": 2474,
      "yp": 2475,
      "Ġà¬ķà¬«": 2476,
      "Ġà¬ĵà¬¹": 2477,
      "Ġà¬¯à¬¯": 2478,
      "Ġà¬«à¬¸à¬²": 2479,
      "ear": 2480,
      "oph": 2481,
      "à¬¹à¬¨à¬°": 2482,
      "à¬¶à¬¹": 2483,
      "Ġà¬ľà¬¹": 2484,
      "Ġà¬®à¬¹à¬¨": 2485,
      "Ġà¬«à¬¤": 2486,
      "ĠàŃ©àŃ¦àŃ¦": 2487,
      "Éª": 2488,
      "Ġle": 2489,
      "Ġà¬¦à¬®à¬¨": 2490,
      "à¬¯à¬ķ": 2491,
      "à¬¼àŃĢ,": 2492,
      "ĠàŃ¬àŃ«": 2493,
      "wn": 2494,
      "à¬²à¬¦": 2495,
      "à¬¦à¬Ń": 2496,
      "Ġà¬ĵà¬Ŀ": 2497,
      "à¬Ĩà¬ĩà¬¨": 2498,
      "Ġà¬Ľà¬ª": 2499,
      "ĠÎ": 2500,
      "à¬¬à¬Ł": 2501,
      "à¬¸à¬ķà¬®": 2502,
      "à¬ªà¬Ļ": 2503,
      "à¬Łà¬Ń": 2504,
      "Ġà¬°à¬£à¬ľ": 2505,
      "ight": 2506,
      "ou": 2507,
      "ute": 2508,
      "Ġà¨": 2509,
      "à¬¹à¬¨à¬Ļ": 2510,
      "àŃĩà¬¾âĢį": 2511,
      "Ġà¬¹à¬Ł": 2512,
      "à¬¯à¬¤": 2513,
      "put": 2514,
      "à¬¶à¬¯": 2515,
      "Ġà¬ļà¬²": 2516,
      "à¬ªà¬¦à¬ķ": 2517,
      "Ġal": 2518,
      "à¬¦à¬¤": 2519,
      "à¬·à¬ł": 2520,
      "àŃ©àŃ§": 2521,
      "Ġà¬ļà¬³à¬£": 2522,
      "àŃĩ\"": 2523,
      "à¬³à¬ļ": 2524,
      "à¬³à¬®à¬£": 2525,
      "Ġà¬ħà¬¬à¬²à¬®": 2526,
      "Ġà¬Ĩà¬¹à¬¤": 2527,
      "à¬īà¬¨à¬¥": 2528,
      "ĠAl": 2529,
      "ĠàŃ§àŃ¯àŃ§àŃŃ": 2530,
      "tric": 2531,
      "ensus": 2532,
      "aur": 2533,
      "eg": 2534,
      "ev": 2535,
      "Ġà¬ķà¬¨à¬ķ": 2536,
      "à¬¦à¬°à¬°": 2537,
      "Ġà¬¸à¬®à¬¤à¬³": 2538,
      "à¬īà¬ħà¬Ľ": 2539,
      "àŃŃàŃª": 2540,
      "à¬·à¬£à¬ķ": 2541,
      "000": 2542,
      "Ġà¬ªà¬Łà¬°": 2543,
      "à¬¥à¬¸": 2544,
      "Ġà¬®à¬¨à¬®": 2545,
      "ĠàŃªàŃ¦àŃ¦": 2546,
      "ies": 2547,
      "sh": 2548,
      "à¬¸à¬³à¬ĸ": 2549,
      "àŃĤ.": 2550,
      "à¬łà¬®": 2551,
      "ĠàŃ§àŃ®àŃª": 2552,
      "ĠàŃ§àŃ¯àŃ¨àŃ«": 2553,
      "Ġà¬Ĩà¬«à¬Ĺ": 2554,
      "ik": 2555,
      "sc": 2556,
      "à¬¸à¬ļ": 2557,
      "à¬ıà¬²à¬°": 2558,
      "à¬ĸà¬¯": 2559,
      "ind": 2560,
      "ta": 2561,
      "à¬¾.": 2562,
      "à¬¦à¬¨à¬°": 2563,
      "ĠàŃªàŃŃ": 2564,
      "à¤®": 2565,
      "Ġà¬Ĺà¬£à¬®": 2566,
      "Ġpro": 2567,
      "Ġà¬ıà¬¤à¬¦": 2568,
      "val": 2569,
      "à¬·àŃŁà¬¬à¬¸": 2570,
      "Ġà¬ķà¬ļ": 2571,
      "Ġà¥¤à¥¤": 2572,
      "Ġà¬¨à¬ħ": 2573,
      "Ġà¬ŃàŃŁà¬Ļ": 2574,
      "à¬Ńà¬°à¬¶": 2575,
      "Ġà¬¤à¬¹": 2576,
      "Ġà¬¤à¬¦à¬¨": 2577,
      "à¬ıà¬ľ": 2578,
      "àŃ®àŃ¦": 2579,
      "Ġà¬Ĩà¬ķà¬³à¬¨": 2580,
      "hel": 2581,
      "Ġà¬«à¬³à¬ª": 2582,
      "Ġfor": 2583,
      "lam": 2584,
      "pro": 2585,
      "Ġà¬ħà¬ĩ": 2586,
      "Ġà¬ķà¬°à¬£": 2587,
      "Ġà¬¸à¬®à¬²": 2588,
      "à¬īà¬Ļ": 2589,
      "à¬ľà¬¨à¬Ĺà¬°": 2590,
      "Ġtown": 2591,
      "oard": 2592,
      "ted": 2593,
      "Ġà¬¸à¬¹à¬°à¬ķ": 2594,
      "ĠàŃªàŃª": 2595,
      "à¬¬à¬³à¬¤": 2596,
      "ĠàŃ§àŃ¦àŃ®": 2597,
      "à¬Ĩà¬ĩà¬Ń": 2598,
      "ly": 2599,
      "àŃĢ(": 2600,
      "à¬¸à¬¨à¬³": 2601,
      "à¤¤": 2602,
      "Ġ+": 2603,
      "à¬°à¬®à¬¶": 2604,
      "àŃ©àŃ¯": 2605,
      "Ġà¬īà¬¦àŃŁ": 2606,
      "eb": 2607,
      "har": 2608,
      "na": 2609,
      "à¬¬à¬¬à¬°": 2610,
      "Ġà¬¤à¬¹à¬¸": 2611,
      "Ġà¬²à¬¡": 2612,
      "Ġà¬ħà¬Łà¬ķ": 2613,
      "àŃ¬àŃ«": 2614,
      "ĠàŃ§àŃ¦àŃ¦àŃ¦": 2615,
      "ĠàŃ§àŃ¯àŃ©àŃ©": 2616,
      "à¬Ľà¬¦à¬ªà¬Ł": 2617,
      "Census": 2618,
      "Ġà¬ħà¬¬à¬¨": 2619,
      "Ġà¬¹à¬°à¬£": 2620,
      "à¬°à¬ķà¬Ł": 2621,
      "Ġà¬ĸà¬³à¬¨": 2622,
      "àŃįâĢĮ_": 2623,
      "àŃ©àŃ¨": 2624,
      "Ġà¬Ĩà¬²à¬ķ": 2625,
      "à§ĩ": 2626,
      "à¥ĩ": 2627,
      "à¬°à¬®à¬ķ": 2628,
      "Ġà¬ķà¬³à¬¸": 2629,
      "à¬¨à¬¤à¬¤": 2630,
      "Ġà¬Ŀà¬¡": 2631,
      "Ġà¬ħà¬¨à¬Ļ": 2632,
      "ĠâĢĻ": 2633,
      "ĠàŃ§àŃ¯àŃ¨àŃ©": 2634,
      "loc": 2635,
      "Ì£": 2636,
      "à©": 2637,
      "à¬¯à¬¥": 2638,
      "à¬Ĩà¬ªà¬¡": 2639,
      "Ġà¬ĩà¬¡": 2640,
      "Ġà¬ľà¬¨à¬ª": 2641,
      "Ġà¬ľà¬Ĺà¬¦": 2642,
      "ĠàŃ§àŃ«àŃ¦": 2643,
      "àŃ§àŃ¯àŃ¨": 2644,
      "Ġtherapy": 2645,
      "Ġà¬¹à¬®": 2646,
      "Ġà¬ĵà¬ª": 2647,
      "à¬Ńà¬ª": 2648,
      "Ġà¬¥à¬ķ": 2649,
      "ĠThe": 2650,
      "eth": 2651,
      "à¬£à¬Ń": 2652,
      "à¬ĩà¬¬à¬°": 2653,
      "Ġà¬Łà¬£": 2654,
      "erv": 2655,
      "Ġà¬Ĩà¬ĩà¬¨à¬Ĺà¬¤": 2656,
      "âĢ²âĢ²": 2657,
      "ole": 2658,
      "Ġà¬īà¬¦àŃŁà¬Ĺ": 2659,
      "à¦¿": 2660,
      "ĠâĨ": 2661,
      "Ġà¬¸à¬ĸ": 2662,
      "Ġà¬ķà¬ªà¬¡": 2663,
      "Ġà¬Ĩà¬¤à¬Ļ": 2664,
      "Ġà¬ĸà¬³": 2665,
      "à¬ĺà¬Ł": 2666,
      "à¬¶à¬ķà¬Ļ": 2667,
      "Ġà¬®à¬¦à¬¨à¬®": 2668,
      "ach": 2669,
      "ram": 2670,
      "Ġà¬ħà¬¬à¬¹": 2671,
      "Ġpain": 2672,
      "fi": 2673,
      "our": 2674,
      "Ġan": 2675,
      "à¬¨à¬¬à¬¨": 2676,
      "Ġà¬¨à¬ª": 2677,
      "Ġà¬§à¬°à¬£": 2678,
      "à¬°à¬¹à¬Ł": 2679,
      "Ġà¬īà¬ªà¬ļ": 2680,
      "àŃ®àŃª": 2681,
      "ĠàŃ§àŃ¯àŃ¨àŃ¬": 2682,
      "ĠàŃ§àŃ¯àŃ§àŃª": 2683,
      "Ġà¬Ĳà¬¶": 2684,
      "Ġà¬ħà¬¸à¬¹à¬¯": 2685,
      "uscle": 2686,
      "Ġ),": 2687,
      "à¬¶àŃŁà¬°": 2688,
      "Ġà¬¤à¬¦": 2689,
      "à¬ĸà¬¦": 2690,
      "à¬ħà¬Ľà¬¨": 2691,
      "à¬ĺà¬£": 2692,
      "à¦°": 2693,
      "à¬¿à¬¿": 2694,
      "à¬¤à¬Ń": 2695,
      "à¬¸à¬Ĺ": 2696,
      "à¬³à¬¬à¬°": 2697,
      "Ġà¬ĵà¬Ł": 2698,
      "à¬°à¬£à¬¬": 2699,
      "Ġà¬¬à¬°à¬«": 2700,
      "ĠàŃ«àŃ©": 2701,
      "à¬ķà¬Łà¬ª": 2702,
      "ĠâĨĳ": 2703,
      "à¬Ĺà¬§": 2704,
      "à¬Ĩà¬Ĺ": 2705,
      "Ġà¬ľà¬¨à¬ķ": 2706,
      "Ġà¬Ĩà¬²à¬«": 2707,
      "à¬Īà¬°": 2708,
      "Ġmm": 2709,
      "ati": 2710,
      "Ġà¬¶à¬ªà¬¥": 2711,
      "Ġà¬ĩà¬¬": 2712,
      "àŃŃàŃ¦": 2713,
      "ĠàŃŃàŃ¯": 2714,
      "ancer": 2715,
      "ile": 2716,
      "à¬¦à¬¸": 2717,
      "à¬¶à¬²": 2718,
      "Ġà¬°à¬®à¬£": 2719,
      "Ġà¬ĨàŃŁà¬¤": 2720,
      "à¬ıà¬ł": 2721,
      "à¬īà¬¨à¬¸": 2722,
      "à¬«à¬³à¬°": 2723,
      "Ġà¬ĸà¬¨à¬¨": 2724,
      "Ġà¬ľà¬Ĺà¬¬à¬¨": 2725,
      "Ġà¬ķà¬Łà¬ķà¬ł": 2726,
      "gn": 2727,
      "ric": 2728,
      "vir": 2729,
      "à¬²à¬¹": 2730,
      "Ġà¬ªà¬ª": 2731,
      "Ġà¬ĵà¬Ń": 2732,
      "à¬ĺà¬Ļ": 2733,
      "à¬ļà¬³à¬ļ": 2734,
      "à¬¾à¬ģ,": 2735,
      "bio": 2736,
      "ym": 2737,
      "Ġà¬¶à¬¯": 2738,
      "Ġ(/": 2739,
      "ĠàŃ«àŃ«": 2740,
      "ĠàŃ®àŃ©": 2741,
      "por": 2742,
      "à¬¾/": 2743,
      "àŃģ\"": 2744,
      "à¬£à¬ªà¬ķ": 2745,
      "à¬Ĺà¬®à¬¨": 2746,
      "Ġà¬¨à¬¬à¬°": 2747,
      "à¬ļà¬¬": 2748,
      "Ġà¬°àŃŁ": 2749,
      "Ġà¬ľà¬·": 2750,
      "Ġà¬Ńà¬¸": 2751,
      "Ġà¬Ĺà¬Ńà¬°": 2752,
      "àŃ±à¬°à¬ķ": 2753,
      "inches": 2754,
      "rop": 2755,
      "à¬¾:-": 2756,
      "à¬Ĺà¬£à¬Ļ": 2757,
      "ĠàŃ§àŃ¯àŃ§àŃ¨": 2758,
      "ĠâĢĮâĢĮ": 2759,
      "com": 2760,
      "Ġà¬ªà¬ıà¬£": 2761,
      "à¬¥à¬Ĺ": 2762,
      "àŃ±à¬°à¬¸": 2763,
      "àŃŃàŃŃ": 2764,
      "àŃ®àŃ¬": 2765,
      "à¤²": 2766,
      "Ġà¬ħà¬ªà¬¸": 2767,
      "ĠàŃ¬àŃ¨": 2768,
      "à¬ıà¬¸à¬Ł": 2769,
      "Ġà¬ĭà¬£": 2770,
      "dr": 2771,
      "les": 2772,
      "à¬²à¬¤à¬°": 2773,
      "Ġà¬ľà¬³à¬Ńà¬£": 2774,
      "Ġboard": 2775,
      "àŃŁà¬Łà¬ķà¬Ļ": 2776,
      "In": 2777,
      "ax": 2778,
      "à¬¥à¬¯": 2779,
      "à¬¦à¬²": 2780,
      "Ġà¬ľà¬³à¬ķ": 2781,
      "Ġà¬Ĩà¬¸à¬¨à¬°": 2782,
      "à³": 2783,
      "àŃŁà¬¥": 2784,
      "à¬²à¬«": 2785,
      "Ġà¬ıà¬¯": 2786,
      "Ġà¬°à¬¬à¬°": 2787,
      "Ġà¬ļà¬īà¬ł": 2788,
      "ĠàŃªàŃ©": 2789,
      "ĠàŃ§àŃ¯àŃ§àŃ«": 2790,
      "blood": 2791,
      "à¬¨à¬¬à¬°": 2792,
      "à¬Łà¬ıà¬¡": 2793,
      "à¬¶à¬¨à¬Ļ": 2794,
      "Ġà¬¦à¬¸": 2795,
      "Ġà¬¦à¬§": 2796,
      "Ġà¬°à¬£à¬ª": 2797,
      "àŃ®àŃ«": 2798,
      "ism": 2799,
      "à§į": 2800,
      "Ġà¬ıà¬ļà¬Ĩà¬ĩà¬Ń": 2801,
      "à¬¾à¬ĥ": 2802,
      "à¬łà¬Ń": 2803,
      "Ġà¬Ŀà¬°": 2804,
      "Ġà¬¦à¬°à¬ľ": 2805,
      "ence": 2806,
      "19": 2807,
      "ËĮ": 2808,
      "Ġas": 2809,
      "à¬¨à¬¸à¬°": 2810,
      "à¬ĩà¬ŀ": 2811,
      "Ġà¬¦à¬°à¬®": 2812,
      "Ġà¬®à¬¹à¬°": 2813,
      "Ġà¬ĩà¬ľ": 2814,
      "Ġà¬®à¬¨à¬ķ": 2815,
      "à¬ħà¬®à¬°": 2816,
      "are": 2817,
      "Ġnam": 2818,
      "Ã¦": 2819,
      "à¬ķà¬ļ": 2820,
      "à¬Łà¬¡": 2821,
      "à¬ĩà¬°à¬¸": 2822,
      "Ġà¬Ĺà¬ª": 2823,
      "Ġà¬ħà¬¨à¬²": 2824,
      "à¬ļà¬¨à¬ķ": 2825,
      "ong": 2826,
      "à¬ĩà¬²à¬Ł": 2827,
      "Ġà¬°à¬¥à¬ķ": 2828,
      "ĠàŃ§àŃ¯àŃ§àŃ®": 2829,
      "Ġà¬ªà¬Ľà¬ķ": 2830,
      "à¬¿âĢĻ": 2831,
      "à¬®à¬ł": 2832,
      "Ġà¬®à¬®à¬¤": 2833,
      "Ġà¬¦à¬ĸà¬²": 2834,
      "à¬ļà¬Ĺ": 2835,
      "Ġà¬ªà¬°à¬¶": 2836,
      "à¬ĵà¬Ĺ": 2837,
      "Ġà¬¦à¬¶à¬°à¬¥": 2838,
      "ĠAn": 2839,
      "àŃŁà¬Łà¬ķà¬®": 2840,
      "à¬°à¬Ĺà¬³": 2841,
      "Ġà¬ķà¬®à¬°": 2842,
      "à¬¡à¬ªà¬ķ": 2843,
      "Ġà¬¨à¬Ĺà¬°à¬°": 2844,
      "à¬ĩà¬¥à¬²": 2845,
      "Ġà¬¸à¬®à¬¤": 2846,
      "Ġà¬ħà¬¬à¬¤à¬°à¬£": 2847,
      "tics": 2848,
      "']": 2849,
      "ff": 2850,
      "pres": 2851,
      "ue": 2852,
      "ye": 2853,
      "Ùħ": 2854,
      "à¬Ķ": 2855,
      "à¬¤à¬¶": 2856,
      "Ġà¬¨à¬°à¬®": 2857,
      "Ġà¬¨à¬¬à¬°à¬Ļ": 2858,
      "à¬ıà¬Łà¬°à¬°": 2859,
      "inval": 2860,
      "àŃ¬àŃ¬": 2861,
      "ĠàŃŃàŃ¨": 2862,
      "ĠàŃŃàŃ©": 2863,
      "ĠàŃ§àŃ¬àŃ¬àŃ¯": 2864,
      "ĠàŃ§àŃ¯àŃ§àŃ¬": 2865,
      "Ġinput": 2866,
      "Ġ{\\": 2867,
      "à¯į": 2868,
      "invalid": 2869,
      "ll": 2870,
      "àŃģà¬Ĥ": 2871,
      "àŃŁà¬¨à¬°": 2872,
      "à¬ĩà¬ľà¬°": 2873,
      "Ġà¬Ńà¬¬à¬¨": 2874,
      "à¬¬à¬°à¬ķ": 2875,
      "Ġà¬¸à¬®à¬¬": 2876,
      "Ġà¬Łà¬ķ": 2877,
      "à¤ķ": 2878,
      "ĠàŃ®àŃŃ": 2879,
      "à¬Īà¬Ļ": 2880,
      "ĠComm": 2881,
      "Ġcancer": 2882,
      "ĠØ": 2883,
      "Ġà¬¶à¬®": 2884,
      "int": 2885,
      "ĠàŃ¬àŃŃ": 2886,
      "lec": 2887,
      "ited": 2888,
      "ID": 2889,
      "uk": 2890,
      "à¬²àŃŁ": 2891,
      "Ġ(\"": 2892,
      "ung": 2893,
      "ated": 2894,
      "oti": 2895,
      "Ġj": 2896,
      "ĠËĪ": 2897,
      "à¬®à¬¥": 2898,
      "à¬Ĩà¬§": 2899,
      "à¬°à¬¤à¬¬à¬°": 2900,
      "Ġà¬Ľà¬ķ": 2901,
      "ĠàŃªàŃ¨": 2902,
      "Ġà¬Ĺà¬£à¬¤": 2903,
      "ĠAr": 2904,
      "àŃŁà¬Ńà¬Ł": 2905,
      "ÉĻs": 2906,
      "ĠUn": 2907,
      "à¬ĭà¬¤": 2908,
      "iety": 2909,
      "help": 2910,
      "à¬°à¬§à¬°": 2911,
      "à¬ĩà¬Ĩ": 2912,
      "à¬¶à¬ķà¬®": 2913,
      "à¬§à¬¨à¬°": 2914,
      "à¬ļà¬²": 2915,
      "à¬ıà¬¥": 2916,
      "ex": 2917,
      "Ġà¬ķà¬ªà¬°": 2918,
      "Ġà¥¤\"": 2919,
      "à¬Łà¬°à¬ķ": 2920,
      "à¬ĩà¬Łà¬°": 2921,
      "Ġà¬¦à¬¬": 2922,
      "à¬ķà¬°à¬¨": 2923,
      "à¬¬à¬¸à¬¤": 2924,
      "àŃ®àŃ©": 2925,
      "Ġsp": 2926,
      "acter": 2927,
      "ĠàŃ§àŃ¯àŃ§àŃ©": 2928,
      "à¬ıà¬ļà¬¡": 2929,
      "ail": 2930,
      "ays": 2931,
      "be": 2932,
      "ce": 2933,
      "ho": 2934,
      "olog": 2935,
      "à¬ªà¬¸à¬¨": 2936,
      "Ġà¬ľà¬²": 2937,
      "Ġà¬Ĩà¬Ĺà¬¤": 2938,
      "à¬ĸà¬¸": 2939,
      "à¬ĺà¬¸": 2940,
      "àŃ®àŃŃ": 2941,
      "à¬ĵà¬ķ": 2942,
      "Ġà¬īà¬¦à¬ĺ": 2943,
      "à¬Ĺà¬³à¬¬": 2944,
      "asis": 2945,
      "ĠàŃ¯àŃ«": 2946,
      "à¬ķà¬ķà¬¥": 2947,
      "ry": 2948,
      "àŃĩà¬¾_": 2949,
      "à¬ªà¬ľ": 2950,
      "Ġà¬Ńà¬¬à¬¨à¬°": 2951,
      "Ġà¬Ĩà¬¬à¬°": 2952,
      "Ġà¬īà¬ªà¬¹": 2953,
      "Ġ\",": 2954,
      "ĠàŃ«àŃª": 2955,
      "ari": 2956,
      "àŃ¯àŃ§": 2957,
      "Ġà¬®à¬łà¬ķ": 2958,
      "tern": 2959,
      "Ġà¬Ĺà¬łà¬¨à¬°": 2960,
      "')": 2961,
      "Town": 2962,
      "à·": 2963,
      "Ġà¬¸à¬ªà¬ķ": 2964,
      "à¥ģ": 2965,
      "Ġà¬Ĩà¬°à¬¤": 2966,
      "est": 2967,
      "Ġst": 2968,
      "tt": 2969,
      "Ġà¬ħà¬¥": 2970,
      "emia": 2971,
      "àŃ±à¬ķà¬ªà¬°": 2972,
      "RL": 2973,
      "Un": 2974,
      "las": 2975,
      "ps": 2976,
      "ÙĦ": 2977,
      "Ġà®": 2978,
      "à¬¨à¬ķà¬°": 2979,
      "Ġà¬¬à¬¶": 2980,
      "àŃªàŃª": 2981,
      "à¬¿à¬Ĥ,": 2982,
      "ĠàŃ¬àŃª": 2983,
      "à¬Ĺà¬®à¬ŀ": 2984,
      "à¬¹à¬°à¬°": 2985,
      "à¬·à¬°à¬¤": 2986,
      "à¬īà¬³à¬ķ": 2987,
      "âĢĭ": 2988,
      "Ġà¬ľà¬¨à¬¨": 2989,
      "Ġà¬ĺà¬ŀ": 2990,
      "Ġà¬Ķà¬°à¬¸à¬°": 2991,
      "à¬¿.)": 2992,
      "ision": 2993,
      "Ġà¬®à¬¤à¬¬": 2994,
      "àŃŁà¬¸à¬Ń": 2995,
      "Ġà¬Ĩà¬ľà¬®": 2996,
      "NH": 2997,
      "ood": 2998,
      "à¬¹à¬Ń": 2999,
      "Ġà¬ħà¬ľà¬¨": 3000,
      "Ġà¬ĵà¬ªà¬¨": 3001,
      "Ġà¬¤à¬Łà¬°": 3002,
      "alc": 3003,
      "Ġà¬ħà¬¬à¬Ĺà¬¤": 3004,
      "ĠSt": 3005,
      "):": 3006,
      "mun": 3007,
      "à¬°à¬Ĺà¬¡": 3008,
      "à¬ªà¬Ĺ": 3009,
      "à¬Łà¬ł": 3010,
      "Ġà¬ıà¬¨à¬¸": 3011,
      "à¬ıà¬ª": 3012,
      "Ġà¬ĸà¬Ĺ": 3013,
      "à¬¤à¬¨à¬ł": 3014,
      "à¬³àŃŁà¬Ł": 3015,
      "ĠàŃ«àŃ¨": 3016,
      "ĠàŃ®àŃ®": 3017,
      "àŃ¨àŃ¦àŃ¨": 3018,
      "tyle": 3019,
      "''": 3020,
      "à¬¨à¬ľà¬¨à¬ķ": 3021,
      "Ġà¬¸à¬¸": 3022,
      "Ġà¬®à¬ķ": 3023,
      "Ġà¬ķà¬°à¬¯": 3024,
      "Ġà¬īà¬¦à¬°": 3025,
      "ene": 3026,
      "Ġà¬ħà¬Ĺà¬£": 3027,
      "Ġà¬ħà¬¬à¬®": 3028,
      "Ġà¬Ńà¬²à¬Ń": 3029,
      "ĠCon": 3030,
      ".)": 3031,
      "ae": 3032,
      "àµ": 3033,
      "à¬¿âĢĮ": 3034,
      "àŃŁà¬ļ": 3035,
      "à¬·à¬¯": 3036,
      "à¬§à¬¹": 3037,
      "Ġà¬¨à¬Ĺ": 3038,
      "Ġà¬¹à¬³": 3039,
      "Ġà¬Ĩà¬®à¬¨": 3040,
      "à¬Ľà¬°": 3041,
      "Ġà¬²à¬ŀ": 3042,
      "Ġà¬īà¬ªà¬ľ": 3043,
      "ĠàŃ«àŃ§": 3044,
      "à¤Ĥ": 3045,
      "ros": 3046,
      "ree": 3047,
      "Ġà¬°à¬¸à¬Ĺ": 3048,
      "par": 3049,
      "àŃĩà¬¾à¬Ĥ": 3050,
      "Ġà¬¦à¬«": 3051,
      "Ġà¬ĨàŃŁà¬°": 3052,
      "Ġà¬¶à¬Ĺà¬¡": 3053,
      "Ġà¬ļà¬ķà¬Ł": 3054,
      "Ġ10": 3055,
      "Ġacid": 3056,
      "aw": 3057,
      "à¬¨àŃŁà¬°": 3058,
      "à¬¦à¬ªà¬¤": 3059,
      "Ġà¬ħà¬£à¬¨": 3060,
      "à¬¡à¬¦": 3061,
      "Ġà¬¶àŃŁà¬¨": 3062,
      "à¬ŀà¬¤": 3063,
      "Ġà¬ĩà¬Ń": 3064,
      "à¬¬à¬³à¬Ńà¬¦": 3065,
      "Ġà¬Ŀà¬Ļ": 3066,
      "Ġà¬Ĩà¬ĩà¬¨à¬ľ": 3067,
      "ĠàŃ¯àŃ¨": 3068,
      "Ġà¬ħà¬¸à¬¨": 3069,
      "à¬¯à¬¦": 3070,
      "à¬ģà¬ģ": 3071,
      "à¬ŀà¬°": 3072,
      "Ġà¬īà¬ªà¬²à¬ķ": 3073,
      "à¬³àŃŁà¬Ļ": 3074,
      "à¤µ": 3075,
      "à¬°à¬¡à¬ķ": 3076,
      "à¬²à¬ıà¬¡": 3077,
      "Ġà¬ħà¬ł": 3078,
      "à¬¡à¬¬à¬®": 3079,
      "Ġà¬ĵà¬ľà¬¨à¬°": 3080,
      "à¬ĸà¬®": 3081,
      "à¤¦": 3082,
      "à¤¸": 3083,
      "ital": 3084,
      "ĠàŃ§àŃ¯àŃ¦àŃ¦": 3085,
      "ĠPro": 3086,
      "à¬¡à¬¬à¬¥": 3087,
      "à¬Ńà¬§": 3088,
      "à¬ĸà¬¶": 3089,
      "Ġà¬īà¬ĩà¬²": 3090,
      "à¬°à¬¥à¬®à¬°": 3091,
      "inc": 3092,
      "amin": 3093,
      "à¬¾âĢĿ": 3094,
      "àŃįàŃį": 3095,
      "àŃįâĢĿ": 3096,
      "Ġà¬ħà¬ĸà¬£": 3097,
      "à¬¤à¬°à¬ŀ": 3098,
      "Ġà¬¬à¬¨à¬®": 3099,
      "atory": 3100,
      "plays": 3101,
      "Ġtrans": 3102,
      "displays": 3103,
      "aurus": 3104,
      "displaystyle": 3105,
      ");": 3106,
      "CL": 3107,
      "ĠY": 3108,
      "Ġà¬¸à¬ľà¬¨": 3109,
      "à¬²àŃ±": 3110,
      "à¬·à¬ª": 3111,
      "à¬ļà¬¦": 3112,
      "à¬Ńà¬°à¬¸": 3113,
      "Ġà¬ĩà¬Ľ": 3114,
      "Ġà¬ħà¬®à¬³": 3115,
      "Ġ15": 3116,
      "à¬ıà¬¡à¬¸": 3117,
      "ĠàŃ§àŃ¯àŃ¦àŃ¬": 3118,
      "à¬ªà¬¬à¬Ł": 3119,
      "An": 3120,
      "àŃį(": 3121,
      "àŃĩ(": 3122,
      "à¬²à¬¬à¬°": 3123,
      "Ġà¬¨à¬ľà¬°": 3124,
      "Ġà¬¹à¬°à¬ª": 3125,
      "Ġà¬ļà¬®à¬¤": 3126,
      "Ġà¬ªà¬°à¬·": 3127,
      "à¬°à¬¤à¬®": 3128,
      "à¬ªà¬°à¬ł": 3129,
      "à¬ħà¬ªà¬°": 3130,
      "àŃ«àŃ¯": 3131,
      "ĠàŃ®àŃ§": 3132,
      "ĠàŃ§àŃ¯àŃ¦àŃ«": 3133,
      "lor": 3134,
      "rac": 3135,
      "à¬¤à¬°à¬®": 3136,
      "à¬³à¬¶": 3137,
      "à¬¡à¬°à¬°": 3138,
      "Ġà¬īà¬Ĺ": 3139,
      "à¬īà¬ª": 3140,
      "à¬«à¬Ł": 3141,
      "Ġà¬¸à¬¹à¬®à¬¤": 3142,
      "à¬°à¬¹à¬ķ": 3143,
      "àŃªàŃ¬": 3144,
      "Ġà¬ĩà¬¨à¬¹": 3145,
      "ose": 3146,
      "ĠàŃ¯àŃ®": 3147,
      "à¬¬à¬£à¬°": 3148,
      "Ġà¬®à¬°à¬¹à¬Ł": 3149,
      "Ġà¬°à¬ª": 3150,
      "Ġà¬®à¬¸à¬ľ": 3151,
      "àŃªàŃ¯": 3152,
      "à¬®à¬Ĺà¬¡": 3153,
      "chem": 3154,
      "Ġà¬Ĩà¬Ĺà¬®à¬¨": 3155,
      "lamm": 3156,
      "ton": 3157,
      "à¬¤à¬¹": 3158,
      "Ġà¬¸à¬¤à¬°": 3159,
      "àŃĩà¬¾à¬ģ": 3160,
      "à¬Łà¬³": 3161,
      "à¬ľà¬¶": 3162,
      "Ġà¬¹à¬īà¬¥": 3163,
      "Ġà¬Ĩà¬®à¬ķ": 3164,
      "àŃ±àŃŁà¬®": 3165,
      "ane": 3166,
      "eral": 3167,
      "à¬°à¬¨à¬³": 3168,
      "Ġà¬ªà¬Łà¬³": 3169,
      "Ġà¬Ĺà¬ľà¬²": 3170,
      "Ġà¬Ĩà¬¡à¬®": 3171,
      "ĠàŃ§àŃ¯àŃ¦àŃ¯": 3172,
      "Ġà¬¶à¬¤à¬ķà¬¡": 3173,
      "/;": 3174,
      "Al": 3175,
      "Ġat": 3176,
      "à¬ªà¬³": 3177,
      "Ġà¬ĵà¬²à¬Ł": 3178,
      "enz": 3179,
      "Ġà¬ĸà¬ª": 3180,
      "àŃŃàŃ¬": 3181,
      "ĠàŃ«àŃ®": 3182,
      "ĠàŃ®àŃ¨": 3183,
      "à¬¥à¬³à¬Ń": 3184,
      "ok": 3185,
      "à¬¸à¬®à¬°": 3186,
      "à¬Łà¬¨à¬°": 3187,
      "à¬·à¬ªà¬¥à¬°": 3188,
      "à¬¯à¬®": 3189,
      "Ġà¬ĸà¬®": 3190,
      "àŃŁà¬®àŃŁ": 3191,
      "Ġà¬°à¬¥à¬Ļ": 3192,
      "Ġà¬ħà¬ªà¬¸à¬°": 3193,
      "ĠàŃ¨àŃ«àŃ¦": 3194,
      "urg": 3195,
      "à¬¬à¬®à¬¨": 3196,
      "Ġà¬ªà¬£à¬¸": 3197,
      "Ġà¬¤à¬Ł": 3198,
      "Ġà¬ļà¬īà¬°": 3199,
      "Ġà¬²à¬ľ": 3200,
      "à¬°à¬¥à¬®à¬¥à¬°": 3201,
      "ĠàŃ©àŃ¯": 3202,
      "ice": 3203,
      "ison": 3204,
      "àŃ¯àŃ¯àŃ": 3205,
      "ĠàŃ§àŃ¯àŃ§àŃ¦": 3206,
      "ĠKing": 3207,
      "ËĲr": 3208,
      "ĠIndia": 3209,
      "dro": 3210,
      "à¬Ĺà¬°à¬®": 3211,
      "à¬ĸà¬¤": 3212,
      "à¬Ĩà¬ĩà¬Ł": 3213,
      "teroid": 3214,
      "Ġà¬ĸà¬ľ": 3215,
      "à¬°à¬¦à¬ķ": 3216,
      "Ġ''": 3217,
      "ĠàŃ§àŃ¯àŃ§àŃ§": 3218,
      "ĠàŃ¯àŃŃ": 3219,
      ";/": 3220,
      "II": 3221,
      "fer": 3222,
      "ition": 3223,
      "ive": 3224,
      "man": 3225,
      "ww": 3226,
      "à¬£à¬ªà¬¦à¬ķ": 3227,
      "à¬¶à¬³à¬°": 3228,
      "Ġà¬¨à¬¬à¬¦": 3229,
      "Ġà¬Ĩà¬²à¬Ł": 3230,
      "ual": 3231,
      "à¶": 3232,
      "Ġim": 3233,
      "àŃĩ'": 3234,
      "à¬®à¬«": 3235,
      "à¬¶à¬§à¬°": 3236,
      "Ġà¬¨à¬ľ": 3237,
      "Ġà¬Ĩà¬ļà¬°à¬£": 3238,
      "à¬ĵà¬Ł": 3239,
      "ĠàŃ«àŃŃ": 3240,
      "und": 3241,
      "à¬Ńà¬¬à¬ªà¬°": 3242,
      "Ġde": 3243,
      "ney": 3244,
      "Ind": 3245,
      "rad": 3246,
      "ya": 3247,
      "ÊĬ": 3248,
      "Î±": 3249,
      "à¬¹à¬¬": 3250,
      "à¬¦à¬ł": 3251,
      "àŃĩà¬¾'": 3252,
      "à¬ªà¬£à¬°": 3253,
      "à¬ĩàŃŁ": 3254,
      "Ġà¬ħà¬ľàŃŁ": 3255,
      "à¬·à¬¨": 3256,
      "à¬¡à¬¬à¬Ļ": 3257,
      "à¬ľà¬Ł": 3258,
      "Ġà¬¦à¬¶à¬ķ": 3259,
      "à¬ĸà¬ķà¬Ļ": 3260,
      "à¬Ĩà¬¶": 3261,
      "Ġà¬²à¬²": 3262,
      "Ġà¬ľà¬¨à¬¬à¬¸à¬¤": 3263,
      "ĠâĢĭ": 3264,
      "Ġdef": 3265,
      "Ġhy": 3266,
      "avir": 3267,
      "ĠURL": 3268,
      "lock": 3269,
      "Ch": 3270,
      "pace": 3271,
      "à±": 3272,
      "Ġx": 3273,
      "Ġte": 3274,
      "à¬£à¬¦": 3275,
      "à¬Łà¬«": 3276,
      "à¬§à¬ķà¬°": 3277,
      "à¬°à¬®à¬¨": 3278,
      "Ġà¬ķà¬¥à¬ķ": 3279,
      "àŃŁà¬¬à¬¤": 3280,
      "à¬ĺà¬°à¬°": 3281,
      "à¬Ĺà¬²à¬ķ": 3282,
      "à¬¦à¬¨à¬¶": 3283,
      "ĠàŃªàŃ§": 3284,
      "ĠàŃ§àŃ¨àŃ¦": 3285,
      "Ġ17": 3286,
      "Ġà¬īà¬ªà¬¨à¬¦": 3287,
      "Ġà¬Ĩà¬łà¬Ł": 3288,
      "otherapy": 3289,
      "_),": 3290,
      "aj": 3291,
      "mon": 3292,
      "ĠQ": 3293,
      "à¬Łà¬°à¬®": 3294,
      "à¬³à¬Ł": 3295,
      "Ġà¬¨à¬Ł": 3296,
      "à¬ĸà¬ª": 3297,
      "à¬Ĩà¬ĩà¬¡": 3298,
      "Ġà¬¸à¬¹à¬¦": 3299,
      "à¬ħà¬·": 3300,
      "àŃ«àŃª": 3301,
      "ins": 3302,
      "Ġà¬Ĩà¬®à¬¦": 3303,
      "àŃ§àŃ¯àŃ§àŃ": 3304,
      "Ġà¬ªà¬°à¬®à¬¬": 3305,
      "ĠàŃ¯àŃª": 3306,
      "Ġà¬¸à¬²à¬«": 3307,
      "ble": 3308,
      "ts": 3309,
      "àª": 3310,
      "à¬®à¬¯": 3311,
      "à¬²à¬·": 3312,
      "à¬¸à¬ķà¬Ļ": 3313,
      "à¬ĩà¬®à¬¸": 3314,
      "à¬¶à¬¬à¬°": 3315,
      "à¬§à¬¬à¬Ļ": 3316,
      "Ġà¬Ńà¬°à¬£": 3317,
      "à¬Ńà¬®": 3318,
      "à¬łà¬¸": 3319,
      "à¬łà¬ķà¬°": 3320,
      "à¬ħà¬¤": 3321,
      "àŃ«àŃ©": 3322,
      "ĠàŃªàŃ¬": 3323,
      "Ġà¬¶à¬¤à¬ķà¬°": 3324,
      "Ġheart": 3325,
      "à¬ĩà¬¸à¬°": 3326,
      "Ġà¬ıà¬Ń": 3327,
      "Ġà¬ħà¬³à¬ķ": 3328,
      "Ġà¬¹à¬Ļ": 3329,
      "à¬¬à¬¸à¬¨": 3330,
      "Ġà¬§à¬¬à¬³": 3331,
      "à¬®à¬Ĺà¬¤": 3332,
      "Ġà¬ħà¬²à¬®": 3333,
      "ĠSoc": 3334,
      "Ġbre": 3335,
      "CA": 3336,
      "bl": 3337,
      "red": 3338,
      "à¬¦àŃŁà¬°": 3339,
      "à¬Ĺà¬Ľ": 3340,
      "à¬§à¬¨à¬Ļ": 3341,
      "à¬¼à¬¼": 3342,
      "ale": 3343,
      "arb": 3344,
      "ust": 3345,
      "ĠAc": 3346,
      "Ġà¬Ĩà¬łà¬Ĺà¬¡": 3347,
      "PA": 3348,
      "pos": 3349,
      "Ġà¬ªà¬Łà¬ķ": 3350,
      "Ġà¬ħà¬¬à¬²": 3351,
      "Ġà¬Ĩà¬ĩà¬¬": 3352,
      "Ġà¬°à¬¹à¬®": 3353,
      "Ġà¬¬à¬°à¬¦": 3354,
      "àŃ«àŃ¨": 3355,
      "à¬ĵà¬¬": 3356,
      "à¬ĩà¬²à¬®": 3357,
      "Ġà¬Ĩà¬²à¬¬": 3358,
      "Ġà¬Ĩà¬īà¬Ł": 3359,
      "ĠEn": 3360,
      "ĠàŃ§àŃ§àŃ¦": 3361,
      "antibio": 3362,
      "ĠâĢĭâĢĭ": 3363,
      "ater": 3364,
      "ew": 3365,
      "ever": 3366,
      "ÙĨ": 3367,
      "ÛĮ": 3368,
      "à¬¨à¬ªà¬°": 3369,
      "àŃŁà¬¦à¬°": 3370,
      "Ġà¬®à¬°à¬£": 3371,
      "à¬¡à¬Ł": 3372,
      "à¬ľàŃŁà¬¨": 3373,
      "Ġà¬¤à¬¤à¬ķ": 3374,
      "à¬ıà¬ŀ": 3375,
      "à¬Ĩà¬¤": 3376,
      "àŃ¦àŃ§àŃ": 3377,
      "àŃŃàŃ¯": 3378,
      "erc": 3379,
      "ĠàŃ§àŃ®àŃ«àŃŃ": 3380,
      "ĠAm": 3381,
      "Ġà¬¨à¬ķà¬²": 3382,
      "à¬ıà¬ļà¬ıà¬¸": 3383,
      "Ġ198": 3384,
      "so": 3385,
      "à¬£à¬¬à¬¸": 3386,
      "à¬³à¬ļà¬ķ": 3387,
      "à¬³à¬ªà¬¥": 3388,
      "àŃŁà¬¬à¬§": 3389,
      "ord": 3390,
      "à¬ªà¬£à¬¯": 3391,
      "Éĳ": 3392,
      "Ġ9": 3393,
      "à¬®à¬¡": 3394,
      "àŃŁà¬²à¬®": 3395,
      "à¬¹à¬¡": 3396,
      "à¬¡àŃ±": 3397,
      "à¬¡à¬ªà¬¡": 3398,
      "àŃ±à¬·": 3399,
      "Ġà¬°à¬¥à¬ĸà¬³": 3400,
      "à¬«à¬³à¬¤": 3401,
      "atin": 3402,
      "Ġà¬«à¬³à¬¸": 3403,
      "ance": 3404,
      "Ġarea": 3405,
      "NHS": 3406,
      "ber": 3407,
      "Ġy": 3408,
      "àŃŁà¬ľà¬¨": 3409,
      "Ġà¬ķà¬¦": 3410,
      "à¬¸à¬ł": 3411,
      "à¬¦à¬ķà¬°à¬Ļ": 3412,
      "Ġà¬«à¬¸à¬«": 3413,
      "à¬ľà¬°à¬²": 3414,
      "ĠàŃ«àŃ¬": 3415,
      "ors": 3416,
      "Ġà¬Ĩà¬²à¬Ĺ": 3417,
      "Ġà¬ħà¬ªà¬¬": 3418,
      "âĢĻ,": 3419,
      "ations": 3420,
      "Ġà¬Ĺà¬¡à¬ľ": 3421,
      "ÃĹ": 3422,
      "à¬¨à¬¤à¬®": 3423,
      "Ġà¥¤.": 3424,
      "Ġà¬¬à¬īà¬³": 3425,
      "à¬¦à¬§": 3426,
      "à¬Ĺà¬£à¬°": 3427,
      "Ġà¬ŃàŃŁà¬°": 3428,
      "Ġà¬Ĩà¬ĩà¬Ł": 3429,
      "Ġà¬ľà¬¨à¬¶": 3430,
      "àŃŃàŃ§": 3431,
      "ĠàŃªàŃ¯": 3432,
      "Ġà¬·à¬£": 3433,
      "usion": 3434,
      "ome": 3435,
      "Ġà¬Ĩà¬¹à¬°à¬£": 3436,
      ":/": 3437,
      "LV": 3438,
      "ST": 3439,
      "àŃį:": 3440,
      "à¬¤àŃŁ": 3441,
      "Ġà¬ķà¬ĩ": 3442,
      "Ġà¬ªà¬łà¬¨": 3443,
      "àŃĤ-": 3444,
      "Ġà¬Ľà¬¦": 3445,
      "à¬ĵà¬Ĩà¬°": 3446,
      "ark": 3447,
      "à¤¯": 3448,
      "lob": 3449,
      "à¬¸à¬®àŃŁà¬°": 3450,
      "ency": 3451,
      "United": 3452,
      "Noti": 3453,
      "cer": 3454,
      "à¬°à¬Ĺà¬£": 3455,
      "à¬²à¬ĸ": 3456,
      "à¬¹à¬ŀ": 3457,
      "àŃ±à¬°à¬®": 3458,
      "à¬Ĩà¬¬": 3459,
      "Ġà¬īà¬ĩà¬£": 3460,
      "Ġà¬«à¬³à¬ķ": 3461,
      "Ġà¬īà¬ªà¬ĸà¬£": 3462,
      "àŃŃàŃ¨": 3463,
      "à¬¸à¬®àŃŁ": 3464,
      "Ġcell": 3465,
      "isten": 3466,
      "fied": 3467,
      "Notified": 3468,
      "ah": 3469,
      "Ø±": 3470,
      "à¬¨à¬ħà¬°": 3471,
      "àŃĢâĢĮ": 3472,
      "Ġà¬®à¬Ĺ": 3473,
      "Ġà¬ħà¬¢": 3474,
      "Ġà¬Ĩà¬¬à¬°à¬£": 3475,
      "Ġà¬Ĺà¬ļ": 3476,
      "àŃ±àŃŁà¬°": 3477,
      "âĢĮàŃį": 3478,
      "ĠàŃ¬àŃ¯": 3479,
      "Ġà¬īà¬ªà¬ķà¬£": 3480,
      "ized": 3481,
      "Ġà¬ıà¬¤à¬¦à¬¬": 3482,
      "ates": 3483,
      "Ġ199": 3484,
      "over": 3485,
      "Â·": 3486,
      "à¬ĩà¬°à¬¹": 3487,
      "à¬¤à¬°à¬ļ": 3488,
      "à¬ªà¬°à¬ķ": 3489,
      "Ġà¬ĸà¬ĩà¬°": 3490,
      "Ġà¬¡à¬®": 3491,
      "Ġà¬ħà¬§à¬ķ": 3492,
      "Ġà¬Łà¬®": 3493,
      "Ġà¬Ľà¬£": 3494,
      "Ġà¬ªà¬¦à¬¯": 3495,
      "ore": 3496,
      "idney": 3497,
      "oll": 3498,
      "à¬¨à¬®à¬£": 3499,
      "à¬²à¬®à¬°": 3500,
      "à¬¸à¬ķà¬°": 3501,
      "Ġà¬ħà¬ļà¬³": 3502,
      "à¬·à¬¬": 3503,
      "à¬ľà¬ħà¬°": 3504,
      "Ġà¬Ńà¬°à¬¦": 3505,
      "Ġà¬Ĩà¬ĸà¬£": 3506,
      "Ġà¬¸à¬®à¬ķ": 3507,
      "Ġà¬ĩà¬Ļ": 3508,
      "Ġà¬°à¬¹à¬£": 3509,
      "à¬¦à¬°à¬¬": 3510,
      "àŃ«àŃ§": 3511,
      "Ġà¬²à¬ķà¬¡": 3512,
      "Ġsc": 3513,
      "à§ģ": 3514,
      "li": 3515,
      "à¬¹à¬¯": 3516,
      "Ġà¬ķà¬¦à¬®": 3517,
      "à¬¥à¬ªà¬¤": 3518,
      "à¬ĩà¬Ĺà¬°": 3519,
      "à¬·à¬¶": 3520,
      "à¬§à¬Ĺ": 3521,
      "Ġà¬ľà¬³à¬¨": 3522,
      "Ġà¬Ĩà¬¥à¬²": 3523,
      "Ġà¬Ĺà¬īà¬¡": 3524,
      "Ġà¬ļà¬ķà¬°": 3525,
      "àŃ®àŃ§": 3526,
      "àŃ¬àŃ¨": 3527,
      "ana": 3528,
      "à¬ıà¬¸à¬¸": 3529,
      "itte": 3530,
      "amil": 3531,
      "ĠàŃ§àŃ®àŃ¯àŃ¯": 3532,
      "ean": 3533,
      "oh": 3534,
      "tom": 3535,
      "Ġà¬ķà¬¬à¬ķ": 3536,
      "Ġà¬ľà¬ª": 3537,
      "Ġà¬ĸà¬¨": 3538,
      "àŃįâĢĮ,": 3539,
      "Ġà¬ĺà¬¸": 3540,
      "til": 3541,
      "à¬ĩà¬¨à¬«": 3542,
      "ĠàŃ¬àŃ©": 3543,
      "roc": 3544,
      "à¬ıà¬¸à¬ı": 3545,
      "Ġ16": 3546,
      "amp": 3547,
      "ĠTr": 3548,
      "17": 3549,
      "ech": 3550,
      "à¬ķà¬¸à¬°": 3551,
      "à¬¦à¬ĺ": 3552,
      "à¬Łà¬Ĺ": 3553,
      "Ġà¬ıà¬Ł": 3554,
      "à¬ľà¬®à¬¹": 3555,
      "àŃªàŃ©": 3556,
      "àŃ®àŃ¯": 3557,
      "ĠâĢĿ": 3558,
      "à¬ĩà¬ķà¬®": 3559,
      "ĠàŃŃàŃ§": 3560,
      "àŃ¯àŃ§àŃ": 3561,
      "Ġsup": 3562,
      "acc": 3563,
      "Ġà¤®": 3564,
      "Ġà¬Īà¬°": 3565,
      "plant": 3566,
      "ittee": 3567,
      "ÏĢ": 3568,
      "àŃŁà¬ł": 3569,
      "à¬¸à¬¡": 3570,
      "Ġà¬®à¬³àŃŁ": 3571,
      "Ġà¬ħà¬ľà¬£": 3572,
      "à¬ļà¬ª": 3573,
      "Ġà¬ļà¬ĩà¬¤": 3574,
      "àŃ¬àŃ©": 3575,
      "Ġà¬Ĩà¬²à¬¬à¬°": 3576,
      "Ġà¬ħà¬®à¬³à¬°": 3577,
      "ash": 3578,
      "Ġà¬¨à¬¬à¬Ĺ": 3579,
      "ĠâĢĺâĢĺ": 3580,
      "ĠàŃ¯àŃ¬": 3581,
      "Ġwith": 3582,
      "ĠàŃ§àŃ¯àŃ¦àŃŃ": 3583,
      "info": 3584,
      "ĠCommittee": 3585,
      "Ar": 3586,
      "atic": 3587,
      "stit": 3588,
      "Ġen": 3589,
      "à¬¬à¬Ĺà¬¡": 3590,
      "Ġà¬ķà¬¤": 3591,
      "à¬¥à¬¶": 3592,
      "à¬§à¬¸": 3593,
      "à¬ļà¬Ń": 3594,
      "Ġà¬Ĩà¬¬à¬¦": 3595,
      "à¬ĸà¬°à¬°": 3596,
      "Ġà¬ĸà¬¦": 3597,
      "Ġà¬Łà¬ª": 3598,
      "àŃªàŃ§": 3599,
      "à¤¹": 3600,
      "à¦®": 3601,
      "à¦¼": 3602,
      "urin": 3603,
      "Ġhtt": 3604,
      "ivers": 3605,
      "br": 3606,
      "Î¿": 3607,
      "Ġab": 3608,
      "à¬®à¬¦à¬¨": 3609,
      "Ġà¬¸à¬¡à¬ķ": 3610,
      "à¬²à¬¦à¬£": 3611,
      "à¬¦à¬¨à¬Ļ": 3612,
      "à¬·à¬Ĺ": 3613,
      "à¬ľà¬ªà¬°": 3614,
      "à¬łà¬¤": 3615,
      "à¬īà¬ªà¬°": 3616,
      "à¬īà¬Łà¬¨": 3617,
      "tes": 3618,
      "àŃĩàŃĹ),": 3619,
      "à¬®à¬¨à¬Ĺà¬°": 3620,
      "ina": 3621,
      "àŃŁà¬®à¬ķ": 3622,
      "à¬ĩà¬¨à¬¸": 3623,
      "Ġà¬¬à¬¹à¬³": 3624,
      "ere": 3625,
      "à¬ħà¬¨à¬¨": 3626,
      "Ġ12": 3627,
      "ata": 3628,
      "Ġmuscle": 3629,
      "Ġà¬¢à¬Ļ": 3630,
      "Ġà¬¬à¬£à¬Ń": 3631,
      "à®¾": 3632,
      "à®¿": 3633,
      "ĠàŃ§àŃ®àŃ¯àŃ©": 3634,
      "Ġinfections": 3635,
      "Î¹": 3636,
      "Ġis": 3637,
      "à¬¨à¬°à¬°": 3638,
      "à¬²à¬ļ": 3639,
      "à¬¶à¬ļ": 3640,
      "à¬ľàŃŁà¬°": 3641,
      "Ġà¬¹à¬£": 3642,
      "à¬Ńà¬²": 3643,
      "Ġ_\"": 3644,
      "Ġskin": 3645,
      "Ġà¬¨à¬¬à¬Ĺà¬ł": 3646,
      "Ġà¬ļà¬®à¬¡": 3647,
      "à¨¾": 3648,
      "à¬ĩà¬«à¬²": 3649,
      "à¬ĭà¬·": 3650,
      "cogn": 3651,
      "ĠKingdom": 3652,
      "10": 3653,
      "à¬£à¬¹": 3654,
      "à¬³à¬¹": 3655,
      "à¬ļà¬¤à¬°": 3656,
      "à¬ļà¬¦à¬¶": 3657,
      "Ġà¬Ńà¬¡": 3658,
      "Ġà¬ļà¬·à¬®": 3659,
      "Ġà¬²à¬¬à¬Ļ": 3660,
      "Ġà¬ħà¬¨à¬¸": 3661,
      "Ġà¬ĩà¬¥": 3662,
      "àŃªàŃŃ": 3663,
      "àŃŁà¬®à¬£": 3664,
      "Ġà¬Ķà¬°": 3665,
      "Ġà¬Ĩà¬ķà¬¬à¬°": 3666,
      "à¬Ŀà¬°à¬°": 3667,
      "à¬Ńà¬¬à¬¨à¬°": 3668,
      "ĠAs": 3669,
      "à¬¾\",": 3670,
      "ÉĻËĪ": 3671,
      "à¬ļà¬¸à¬ĸ": 3672,
      "12": 3673,
      "listen": 3674,
      "à¬ªà¬°à¬®": 3675,
      "à¬³à¬·": 3676,
      "à¬·à¬°à¬°": 3677,
      "à¬·à¬°à¬£": 3678,
      "à¬¶à¬Ł": 3679,
      "Ġà¬ľàŃŁà¬°": 3680,
      "Ġà¬¤à¬£": 3681,
      "à¬ģà¥¤": 3682,
      "Ġà¬ªà¬°à¬°": 3683,
      "à¬°à¬£à¬¤à¬¨": 3684,
      "àŃ®àŃ¨": 3685,
      "eding": 3686,
      "Ġà¬®à¬¤à¬¦": 3687,
      "ures": 3688,
      "trav": 3689,
      "ĠàŃ¯àŃ©": 3690,
      "ĠàŃ§àŃ¯àŃ¦àŃ§": 3691,
      "àŃ¨àŃ¦àŃ§àŃ§": 3692,
      "NS": 3693,
      "NSA": 3694,
      "bre": 3695,
      "ĠX": 3696,
      "Ġti": 3697,
      "à¬¿?": 3698,
      "àŃĩà¬Ĥ": 3699,
      "à¥ĭ": 3700,
      "Ġà¬®à¬ĩà¬²à¬®": 3701,
      "à¬ªà¬¯": 3702,
      "à¬Łà¬¶": 3703,
      "à¬Ĺà¬®à¬°": 3704,
      "Ġà¬¦à¬²": 3705,
      "à¬Ńà¬¸": 3706,
      "Ġà¬Ĩà¬ĩà¬¡": 3707,
      "Ġà¬ħà¬¬à¬¸à¬°à¬ª": 3708,
      "ani": 3709,
      "Ġà¬¬à¬¸à¬¤": 3710,
      "à¬Īà¬®": 3711,
      "ĠàŃ§àŃ®àŃ¯àŃ§": 3712,
      "ound": 3713,
      "IA": 3714,
      "ative": 3715,
      "ms": 3716,
      "àŃįà¥¤": 3717,
      "àŃŁà¬ªà¬°": 3718,
      "Ġà¬¸à¬¶à¬ķ": 3719,
      "à¬¸à¬Ĩ": 3720,
      "à¬Ĺà¬°à¬£": 3721,
      "à¬Ĺà¬¦à¬°": 3722,
      "à¬¡à¬ł": 3723,
      "à¬ľà¬¨à¬Ļ": 3724,
      "Ġà¬§à¬ķ": 3725,
      "à¬ħà¬¶": 3726,
      "ery": 3727,
      "Ġ14": 3728,
      "amine": 3729,
      "tos": 3730,
      "ysis": 3731,
      "à¬®à¬ļà¬£": 3732,
      "Ġ196": 3733,
      "Ġà¬Ĭà¬¨à¬¬": 3734,
      "Ġalso": 3735,
      "à¬ıà¬ļà¬ıà¬¸à¬ķ": 3736,
      "ces": 3737,
      "min": 3738,
      "Î½": 3739,
      "Ġ0": 3740,
      "àŃŁà¬¬à¬°à¬£": 3741,
      "Ġà¬¬à¬°à¬ķ": 3742,
      "à¬³à¬¯": 3743,
      "à¬ľà¬¤à¬¨": 3744,
      "Ġà¬¤à¬¡": 3745,
      "Ġà¬īà¬¨à¬¬": 3746,
      "à¬ķà¬°à¬®": 3747,
      "enous": 3748,
      "à¬Ĺà¬°à¬Ļ": 3749,
      "à¬°à¬¹à¬ª": 3750,
      "à¬īà¬¥à¬°": 3751,
      "Ġà¬ħà¬¤à¬ıà¬¬": 3752,
      "ick": 3753,
      "Ġà¬Ĺà¬£à¬ªà¬¤": 3754,
      "Ġpres": 3755,
      "Ġcom": 3756,
      "Ġà¬Ĩà¬ĩà¬ľ": 3757,
      "ĠàŃ§àŃ®àŃ¯àŃŃ": 3758,
      "ÉĶËĲr": 3759,
      ").": 3760,
      "af": 3761,
      "lic": 3762,
      "oint": 3763,
      "ution": 3764,
      "à¬¨à¬ľ": 3765,
      "àŃģ'": 3766,
      "àŃģàŃį": 3767,
      "à¬¶à¬§": 3768,
      "à¬¶à¬Ń": 3769,
      "à¬ľà¬³à¬¨": 3770,
      "Ġà¬¦à¬Ļ": 3771,
      "à¬ıà¬Ń": 3772,
      "Ġà¬ħà¬¨à¬°": 3773,
      "Ġà¬ĩà¬īà¬¨": 3774,
      "arc": 3775,
      "à¦¨": 3776,
      "à¬ľà¬ªà¬¥à¬°": 3777,
      "Ġà¬ķà¬Łà¬ķà¬£": 3778,
      "ĠCor": 3779,
      "Ġà¬Ĺà¬Ľà¬ķ": 3780,
      "Ġblock": 3781,
      "ĠTh": 3782,
      "ĠZ": 3783,
      "àŃĩà¬¼": 3784,
      "à¬®à¬ĺ": 3785,
      "Ġà¬¬à¬¨à¬°": 3786,
      "à¬ŁàŃ±à¬°": 3787,
      "à¬ľà¬Ĺà¬¤": 3788,
      "Ġà¬Ĩà¬īà¬¥à¬°": 3789,
      "Ġà¬Ĺà¬¹à¬£": 3790,
      "à¬°à¬¤à¬¨": 3791,
      "Ġà¬¸à¬¹à¬°à¬Ł": 3792,
      "àŃŃàŃ©": 3793,
      "Ġà¬¸à¬°à¬¬à¬°": 3794,
      "à¬Ĺà¬²à¬®": 3795,
      "ann": 3796,
      "Ġà¬Ķà¬·à¬§à¬®": 3797,
      "ĠàŃ«àŃ¯": 3798,
      "Ġà¬ħà¬¸à¬®à¬°": 3799,
      "ĠàŃ§àŃ¨àŃ«": 3800,
      "row": 3801,
      "Ġà¬®à¬ĩà¬¦": 3802,
      "ĠàŃ§àŃ®àŃ®àŃ®": 3803,
      "ĠàŃ§àŃ®àŃ¬àŃ¬": 3804,
      "inflamm": 3805,
      "ĠIndian": 3806,
      "alcium": 3807,
      "duc": 3808,
      "iasis": 3809,
      "Ġz": 3810,
      "à¬¨à¬·": 3811,
      "à¬¤à¬¸à¬°": 3812,
      "à¬¤à¬¦à¬¶": 3813,
      "Ġà¬ķà¬ħà¬£": 3814,
      "à¬ĩà¬°à¬Ļ": 3815,
      "à¬ĩà¬¡à¬°": 3816,
      "à¬¡à¬¶": 3817,
      "Ġà¬®à¬¹à¬²à¬°": 3818,
      "Ġà¬ĩà¬¹": 3819,
      "à¬ħà¬°à¬°": 3820,
      "à¬°à¬¬à¬¤": 3821,
      "Ġà¬ķà¬Łà¬ķà¬¸": 3822,
      "Ġpo": 3823,
      "rain": 3824,
      "Ġbreath": 3825,
      "50": 3826,
      "str": 3827,
      "à¬Ĳ": 3828,
      "Ġà¬¸à¬³à¬ĸ": 3829,
      "Ġà¬ķà¬ĸ": 3830,
      "à¬¸àŃ±": 3831,
      "à¬ªàŃŁ": 3832,
      "Ġà¬ĵà¬ľ": 3833,
      "Ġà¬«à¬Ĺ": 3834,
      "à¬ħà¬¦": 3835,
      "Ġà¬ħà¬§à¬ķà¬ª": 3836,
      "à¬¬à¬¨à¬¯": 3837,
      "à¬ĺà¬¦": 3838,
      "Ġà¬ĺà¬¨à¬¶": 3839,
      "àŃ©àŃ¬àŃ¦": 3840,
      "Ġà¬·à¬¢": 3841,
      "âĢĻâĢĻ": 3842,
      "ulin": 3843,
      "izard": 3844,
      "Ġ83": 3845,
      "ife": 3846,
      "au": 3847,
      "bacter": 3848,
      "di": 3849,
      "nown": 3850,
      "Ġon": 3851,
      "à¬°àŃŁà¬°": 3852,
      "à¬²à¬¸à¬¨": 3853,
      "Ġà¬ķà¬¶": 3854,
      "à¬ªà¬°à¬°": 3855,
      "à¬ĩà¬ĵ": 3856,
      "à¬Ĺà¬«": 3857,
      "Ġà¬ħà¬¥à¬°": 3858,
      "à¬¡à¬·": 3859,
      "à¬ľà¬Ń": 3860,
      "à¬īà¬¸à¬°": 3861,
      "Ġà¬ľà¬Ĺà¬¤à¬ķ": 3862,
      "Ġà¬Ĩà¬ķà¬¬à¬°à¬Ļ": 3863,
      "ici": 3864,
      "ĠàŃ¬àŃ®": 3865,
      "Ġbe": 3866,
      "odium": 3867,
      "ĠàŃ¯àŃ§": 3868,
      "ign": 3869,
      "à¬Ĺà¬¬à¬¤à¬°": 3870,
      "àŃ¨àŃ¦àŃ¦àŃ¯": 3871,
      "ction": 3872,
      "ward": 3873,
      "à¬¨à¬īà¬¤": 3874,
      "à¬®à¬®àŃŁ": 3875,
      "à¬²àŃŁà¬²": 3876,
      "à¬ªà¬ł": 3877,
      "à¬Ĺà¬¯": 3878,
      "à¬Ĺà¬¤à¬°": 3879,
      "Ġà¬ıà¬ıà¬«": 3880,
      "à¬ľà¬ł": 3881,
      "Ġà¬īà¬¸": 3882,
      "Ġà¬«à¬²": 3883,
      "Ġà¬ľà¬¨à¬®": 3884,
      "à¬¬à¬¸à¬®": 3885,
      "à¬Łà¬°à¬Ł": 3886,
      "Ġà¬ħà¬Łà¬³": 3887,
      "à¬·à¬£à¬¶": 3888,
      "à¬ĵà¬·": 3889,
      "ĠàŃ«àŃ¦àŃ¦àŃ¦": 3890,
      "Ġà¬Ĩà¬²à¬®": 3891,
      "ĠàŃ¬àŃ§": 3892,
      "Ġà¬Ĩà¬£à¬¬": 3893,
      "à¬Ĺà¬łà¬ķ": 3894,
      "umb": 3895,
      "Ġà¬ıà¬¨à¬ıà¬ļà¬ıà¬¸à¬ķ": 3896,
      "ĠàŃ§àŃ¯àŃ¦àŃª": 3897,
      "ĠàŃ§àŃ®àŃ®àŃ¦": 3898,
      "athy": 3899,
      "chemotherapy": 3900,
      "Ġpresure": 3901,
      "RS": 3902,
      "oid": 3903,
      "ven": 3904,
      "àŃģ(": 3905,
      "à¬²à¬ł": 3906,
      "Ġà¬ķà¬Ń": 3907,
      "à¬¸à¬Ńà¬¬à¬¨à¬°": 3908,
      "à¬£à¬Ĺ": 3909,
      "à¬Łà¬°à¬¸": 3910,
      "à¬ıà¬¨à¬¸": 3911,
      "àŃ±à¬¶": 3912,
      "à¬Ĩà¬ĩà¬¸": 3913,
      "Ġà¬¯à¬¬à¬ķ": 3914,
      "à¬īà¬¡à¬°": 3915,
      "à¬¤à¬°à¬¦": 3916,
      "Ġà¬ħà¬ªà¬¹à¬°à¬£": 3917,
      "ĠàŃ¬àŃ¦àŃ¦": 3918,
      "à¬°à¬ļà¬£": 3919,
      "ĠSh": 3920,
      "Ġcol": 3921,
      "Ġflu": 3922,
      "àŃ§àŃ¦àŃ¦": 3923,
      "trol": 3924,
      "ymph": 3925,
      "Ġname": 3926,
      "ĠSociety": 3927,
      "ÉĳËĲ": 3928,
      "CC": 3929,
      "ML": 3930,
      "Éµ": 3931,
      "ÏĤ": 3932,
      "á±": 3933,
      "Ġun": 3934,
      "Ġï»¿": 3935,
      "ĠÃĹ": 3936,
      "à¬¿âĢĿ": 3937,
      "à¬£à¬¬à¬¤": 3938,
      "à¬Łà¬®à¬°": 3939,
      "Ġà¬ıà¬Ńà¬°": 3940,
      "à¬§à¬£": 3941,
      "Ġà¬Ĩà¬ĩà¬ª": 3942,
      "à¬ĸà¬ķà¬®": 3943,
      "à¬łà¬¯": 3944,
      "Ġà¬ļà¬ŀ": 3945,
      "Ġà¬ļà¬°à¬®": 3946,
      "Ġ([": 3947,
      "à¬«à¬Ļ": 3948,
      "Ġ_(": 3949,
      "à¬ĺà¬°à¬ķ": 3950,
      "ĠàŃ§àŃ®àŃ¦àŃ©": 3951,
      "à¬ķà¬Łà¬¤à¬°": 3952,
      "à¬¹à¬¨à¬¦": 3953,
      "à¬®à¬¦à¬Ļ": 3954,
      "à¬¾âĢĻ,": 3955,
      "Ġ11": 3956,
      "ody": 3957,
      "Ġfrom": 3958,
      "ĠDis": 3959,
      "new": 3960,
      "pen": 3961,
      "Ġgl": 3962,
      "Ġanti": 3963,
      "à¬°à¬ľà¬°": 3964,
      "à¬²à¬ĺ": 3965,
      "Ġà¬ķà¬¬à¬°": 3966,
      "Ġà¬ķà¬ľà¬³": 3967,
      "àŃĢ/": 3968,
      "Ġà¬ŃàŃŁà¬Ń": 3969,
      "Ġà¬Ĺà¬£à¬°": 3970,
      "Ġà¬¬à¬°à¬ª": 3971,
      "à¬ħà¬°à¬Ļ": 3972,
      "à¬°à¬¹à¬²": 3973,
      "ĠàŃ©àŃ¦àŃ¦àŃ¦": 3974,
      "à¬¿.,": 3975,
      "à¤¡": 3976,
      "Ġà¬ħà¬¬à¬¢": 3977,
      "ument": 3978,
      "tres": 3979,
      "ulf": 3980,
      "able": 3981,
      "ĠàŃ§àŃ¯àŃ¦àŃ®": 3982,
      "à¬ĩà¬Ńà¬īà¬£": 3983,
      "Ġknown": 3984,
      "ortal": 3985,
      "chest": 3986,
      "Indian": 3987,
      "Lang": 3988,
      "SLV": 3989,
      "ire": 3990,
      "rit": 3991,
      "sÉĶËĲr": 3992,
      "à¬¤à¬¤à¬¨": 3993,
      "à¬®à¬¨à¬Ļ": 3994,
      "Ġà¬®à¬ķà¬¦": 3995,
      "à¬¡à¬ªà¬Ł": 3996,
      "Ġà¬¨à¬Īà¬°": 3997,
      "à¬ıà¬Ļ": 3998,
      "Ġà¬²à¬¦": 3999,
      "Ġà¬¸à¬®à¬·": 4000,
      "Ġà¬¸à¬¹à¬ķà¬°": 4001,
      "à¬°à¬¸à¬®": 4002,
      "Ġà¬ĺà¬·": 4003,
      "Ġà¬ĺà¬¨à¬¤": 4004,
      "à¤¶": 4005,
      "Ġà¬ħà¬Ĺà¬¸": 4006,
      "Ġper": 4007,
      "à¬ľà¬£à¬Ļ": 4008,
      "ĠàŃ§àŃ§àŃ®": 4009,
      "Ġex": 4010,
      "ĠâĪ": 4011,
      "earch": 4012,
      "sÉĶËĲrÉĻs": 4013,
      "/)": 4014,
      "NA": 4015,
      "ke": 4016,
      "ÌĪ": 4017,
      "à½": 4018,
      "Ġres": 4019,
      "àŃĩà¬¾)": 4020,
      "à¬³àŃŁà¬®": 4021,
      "Ġà¬¨à¬ĸ": 4022,
      "Ġà¬Ńà¬¨": 4023,
      "Ġà¬ĵà¬¬": 4024,
      "Ġà¬ļà¬īà¬¡": 4025,
      "Ġà¬ļà¬īà¬¦": 4026,
      "Ġà¬«à¬¸": 4027,
      "Ġà¬§à¬īà¬³": 4028,
      "Ġà¬¡à¬¬à¬²": 4029,
      "à¬¦à¬°à¬Ļ": 4030,
      "à¬°à¬ªà¬¡": 4031,
      "à¬Ĺà¬®à¬¨à¬°": 4032,
      "unci": 4033,
      "à¬®à¬²à¬¤": 4034,
      "ĠàŃ¨àŃ¨àŃ¦": 4035,
      "ĠRes": 4036,
      "ronunci": 4037,
      "ronunciation": 4038,
      "21": 4039,
      "ET": 4040,
      "high": 4041,
      "ror": 4042,
      "rim": 4043,
      "Ġ#": 4044,
      "Ġà¬ªà¬ĩà¬¡": 4045,
      "à¬¥à¬°à¬°": 4046,
      "Ġà¬ĵà¬³": 4047,
      "à¬Ńà¬°à¬®": 4048,
      "Ġà¬Ĩà¬Łà¬²": 4049,
      "à¬Ĩà¬°à¬°": 4050,
      "à¬Ĩà¬°à¬¸": 4051,
      "à¬Ľà¬ķ": 4052,
      "Ġà¬ĸà¬ĩ": 4053,
      "àŃ«àŃ¦àŃ¦": 4054,
      "à¬¶à¬¨à¬¦": 4055,
      "tiv": 4056,
      "à¬ĩà¬Łà¬²": 4057,
      "ĠàŃ§àŃ®àŃ¦": 4058,
      "à¬ķà¬Łà¬²": 4059,
      "ĠàŃ§àŃ«àŃ¦àŃ¦": 4060,
      "amb": 4061,
      "ĠLe": 4062,
      "ock": 4063,
      "ology": 4064,
      "iversity": 4065,
      "fusion": 4066,
      "tin": 4067,
      "ÉĽ": 4068,
      "Ġà¬ķà¬īà¬¡": 4069,
      "à¬ŀà¬ķ": 4070,
      "à¬¸à¬¨à¬¦": 4071,
      "à¤ľ": 4072,
      "Ġà¬Ĩà¬ĩà¬¨à¬·": 4073,
      "Ġà¬ĺà¬Łà¬Ĺ": 4074,
      "Ġlizard": 4075,
      "dominal": 4076,
      "Th": 4077,
      "tor": 4078,
      "É¨": 4079,
      "à¬¬à¬¤à¬ķ": 4080,
      "à¬¸à¬¹à¬°": 4081,
      "àŃĢ),": 4082,
      "à¬Ĺà¬ļ": 4083,
      "à¬·à¬Ł": 4084,
      "à¬§à¬§à¬°": 4085,
      "Ġà¬ķà¬°à¬¤": 4086,
      "Ġà¬Ńà¬°à¬ª": 4087,
      "Ġà¬¤à¬ķ": 4088,
      "Ġà¬¯à¬®à¬¦": 4089,
      "à¬łà¬ķà¬®": 4090,
      "Ġà¬ıà¬ķà¬ª": 4091,
      "à¬ŀà¬ª": 4092,
      "àŃ¦àŃ¯àŃ": 4093,
      "Ġà¬īà¬ªà¬ķà¬°à¬£à¬°": 4094,
      "àŃ¬àŃ§": 4095,
      "ics": 4096,
      "à¤Ĺ": 4097,
      "Ġà¬ħà¬¬à¬¬": 4098,
      "Ġà¬¨à¬¬à¬¬à¬°": 4099,
      "ural": 4100,
      "33": 4101,
      "gr": 4102,
      "iation": 4103,
      "la": 4104,
      "muscle": 4105,
      "à¬ķà¬Ń": 4106,
      "à¬¬à¬ļ": 4107,
      "Ġà¬¸à¬¶à¬¸": 4108,
      "à¬¸à¬¨à¬Ļ": 4109,
      "Ġà¬¬à¬³àŃŁ": 4110,
      "à¬Łà¬«à¬°": 4111,
      "à¬ĩà¬ķà¬°": 4112,
      "à¬ĩà¬¦à¬°": 4113,
      "Ġà¬ħà¬ħ": 4114,
      "Ġà¬°à¬¤à¬¨": 4115,
      "Ġà¬¤à¬³à¬°": 4116,
      "Ġà¬Ĺà¬¹à¬³": 4117,
      "à¬ķà¬°à¬°": 4118,
      "à¬°à¬ķà¬®": 4119,
      "à¬ľà¬¨à¬¨": 4120,
      "à¬ħà¬ľ": 4121,
      "à¬ľà¬°à¬Ļ": 4122,
      "orr": 4123,
      "Ġà¬Ĩà¬¬à¬£": 4124,
      "à¬ľà¬¸à¬ľ": 4125,
      "ĠàŃ§àŃ¯àŃ¦àŃ©": 4126,
      "ĠàŃ§àŃ®àŃ¬àŃ¯": 4127,
      "isoning": 4128,
      "stitute": 4129,
      "iciency": 4130,
      "cor": 4131,
      "à¬ķà¬ļà¬°": 4132,
      "Ġà¬ªà¬²à¬®": 4133,
      "à¬¥à¬³à¬ķ": 4134,
      "Ġà¬¨à¬°à¬¨": 4135,
      "Ġà¬¨à¬®à¬¸": 4136,
      "Ġà¬Ĩà¬¥": 4137,
      "Ġà¬ªà¬°à¬¬": 4138,
      "à¬¤à¬¨à¬¶": 4139,
      "à¬°à¬¹à¬£à¬ķ": 4140,
      "à¬¤à¬ķà¬Ł": 4141,
      "Ġà¬īà¬¦à¬¬": 4142,
      "Ġà¬°à¬¥à¬¤": 4143,
      "à¤¬": 4144,
      "ther": 4145,
      "Ġà¬¬à¬³à¬ª": 4146,
      "use": 4147,
      "iting": 4148,
      "omy": 4149,
      "Ġpre": 4150,
      "vel": 4151,
      "Ġinjection": 4152,
      "irth": 4153,
      "ĠàŃ§àŃ¯àŃ¦àŃ¨": 4154,
      "occ": 4155,
      "Ġà¬Ĭà¬°": 4156,
      "ĠWorld": 4157,
      "Ġà°": 4158,
      "Ġà¬ªà¬¬à¬¨à¬°": 4159,
      "Ġà¬¬à¬¶à¬¤": 4160,
      "à¬ĩà¬®à¬¨": 4161,
      "à¬Ĺà¬¢": 4162,
      "à¬Ĺà¬®à¬£": 4163,
      "à¬§à¬¦": 4164,
      "à¬§à¬°à¬Ļ": 4165,
      "à¬Ĩà¬ĩà¬°": 4166,
      "Ġà¬®à¬§à¬°": 4167,
      "Ġà¬ĩà¬«": 4168,
      "à¬Ĩà¬°à¬ıà¬¸": 4169,
      "Ġà¬Ľà¬ī": 4170,
      "à¬¤à¬®à¬Ļ": 4171,
      "Ġà¬ļà¬³à¬ª": 4172,
      "à¤¼": 4173,
      "à¬°à¬ªà¬²": 4174,
      "reat": 4175,
      "Ġà¬¨à¬¬à¬¯": 4176,
      "osph": 4177,
      "Ġfr": 4178,
      "à®®": 4179,
      "Ġà¬ıà¬ĩà¬ł": 4180,
      "ronic": 4181,
      "Ġnames": 4182,
      "travenous": 4183,
      "16": 4184,
      "CO": 4185,
      "non": 4186,
      "É¡": 4187,
      "Ïģ": 4188,
      "Ġà¬¬à¬ļà¬¨": 4189,
      "Ġà¬ıà¬ŀ": 4190,
      "à¬ıà¬¤à¬¨": 4191,
      "à¬ħà¬¬": 4192,
      "à¬¦à¬°à¬¨": 4193,
      "àŃŁà¬¨à¬¸": 4194,
      "ond": 4195,
      "à¬Łà¬¨à¬®": 4196,
      "Ġà¬ªà¬°à¬®à¬¹": 4197,
      "its": 4198,
      "amide": 4199,
      "ild": 4200,
      "iaz": 4201,
      "Ġfever": 4202,
      "ĠàŃ¯àŃ¯": 4203,
      "Ġà¤¸": 4204,
      "Ġlymph": 4205,
      "ĠàŃ§àŃ®àŃ®àŃŃ": 4206,
      "Ġà¬Ľà¬ħà¬Ł": 4207,
      "air": 4208,
      "mall": 4209,
      "pir": 4210,
      "ptom": 4211,
      "Ġà´": 4212,
      "ĠØ§": 4213,
      "à¬¤à¬¬à¬¤": 4214,
      "Ġà¬¬à¬£à¬°": 4215,
      "à¬¦à¬³à¬°": 4216,
      "Ġà¬¨à¬ļ": 4217,
      "à¬Ńà¬Ł": 4218,
      "Ġà¬²à¬¬": 4219,
      "eng": 4220,
      "Ġà¬ľà¬¨à¬¹": 4221,
      "à¬¦à¬°à¬²": 4222,
      "àŃŁà¬¨à¬³": 4223,
      "ĠàŃ©àŃ«àŃ¦": 4224,
      "Ġ'_": 4225,
      "ĠAct": 4226,
      "ĠPr": 4227,
      "Ġ24": 4228,
      "ters": 4229,
      "Ġà¬§à¬¨à¬ŀ": 4230,
      "à§Ģ": 4231,
      "à¬ĩà¬«à¬ıà¬¡": 4232,
      "àŃ§àŃ¯àŃ¯àŃ¯": 4233,
      "bin": 4234,
      "eas": 4235,
      "hi": 4236,
      "hol": 4237,
      "land": 4238,
      "ran": 4239,
      "ych": 4240,
      "{\\": 4241,
      "Ġi": 4242,
      "à¬¬à¬³à¬°": 4243,
      "Ġà¬¸à¬īà¬°": 4244,
      "à¬¥à¬¨à¬°": 4245,
      "Ġà¬®à¬Łà¬°": 4246,
      "à¬Łà¬Ł": 4247,
      "à¬ĩà¬¸à¬²": 4248,
      "Ġà¬ıà¬Ĩà¬ĩ": 4249,
      "à¬·à¬·": 4250,
      "Ġà¬ķà¬°à¬ŀ": 4251,
      "à¬ļà¬ķà¬°": 4252,
      "Ġà¬°à¬£à¬¬": 4253,
      "Ġà¬ľàŃŁà¬¬": 4254,
      "Ġà¬Ńà¬ī": 4255,
      "Ġà¬Ńà¬Ĺà¬¤": 4256,
      "àŃ±à¬¬à¬°": 4257,
      "âĢĮà¬¿": 4258,
      "Ġà¬ħà¬§à¬°": 4259,
      "àŃ¨àŃ¦àŃ¦": 4260,
      "àŃ¨àŃ¦àŃ¦àŃ¦": 4261,
      "Ġà¬Ĩà¬īà¬°à¬Ļ": 4262,
      "à¦¯": 4263,
      "à¦ķ": 4264,
      "ĠIs": 4265,
      "Ġà¤ª": 4266,
      "à¬¼àŃĢà¬¼": 4267,
      "Ġà¬¦à¬¶à¬°à¬¥à¬Ļ": 4268,
      "antibiotic": 4269,
      "NSAID": 4270,
      "Ġà¬ķà¬ľà¬³à¬ª": 4271,
      "SS": 4272,
      "St": 4273,
      "ie": 4274,
      "we": 4275,
      "Ïĥ": 4276,
      "Ġà¬¸àŃŁà¬¦": 4277,
      "à¬ĩà¬Ńà¬°": 4278,
      "Ġà¬ħàŃŁ": 4279,
      "Ġà¬ħà¬°à¬ķ": 4280,
      "à¬¶à¬ľ": 4281,
      "à¬¯à¬¬à¬¹": 4282,
      "à¬ĨàŃŁ": 4283,
      "à¬Ĩà¬«": 4284,
      "Ġà¬ıà¬ķà¬ľ": 4285,
      "à¬°à¬£à¬Ĺ": 4286,
      "à¬ħà¬³": 4287,
      "à¬ħà¬ıà¬¡": 4288,
      "à¬°à¬¦à¬Ł": 4289,
      "à¬ĥ-": 4290,
      "à¬³à¬ķà¬®": 4291,
      "ĠàŃ§àŃ®àŃ§àŃŃ": 4292,
      "ĠàŃ§àŃ®àŃ¯àŃ¦": 4293,
      "Ġà¬ħà¬¸à¬²": 4294,
      "org": 4295,
      "à¤£": 4296,
      "à¬ļà¬³à¬®": 4297,
      "ĠàŃŁà¬Ļ": 4298,
      "Ġà¬ľà¬¨à¬¸à¬®": 4299,
      "unre": 4300,
      "ature": 4301,
      "Ġinh": 4302,
      "à¬ĩà¬ľà¬¡": 4303,
      "Ġ194": 4304,
      "àŃ¨àŃ¦àŃ¦àŃª": 4305,
      "àŃ¨àŃ¦àŃ¦àŃ¬": 4306,
      "àŃ¨àŃ¦àŃ¦àŃ®": 4307,
      "ritis": 4308,
      "eaning": 4309,
      "Ġpoisoning": 4310,
      "IC": 4311,
      "ft": 4312,
      "nam": 4313,
      "Ġà²": 4314,
      "à¬¤à¬Ĺà¬¤": 4315,
      "à¬¹à¬³à¬°": 4316,
      "à¬Ľà¬¬": 4317,
      "Ġà¬ļà¬Łà¬£": 4318,
      "Ġà¬ªà¬°à¬«": 4319,
      "à¬°à¬ķà¬¸": 4320,
      "Ġà¬Ĩà¬¸à¬ķ": 4321,
      "à¬³àŃŁà¬¦": 4322,
      "ich": 4323,
      "ĠàŃŃàŃ¦àŃ¦": 4324,
      "ĠàŃ§àŃ«àŃ¬àŃ®": 4325,
      "ĠàŃ§àŃ¨àŃ¦àŃ¦": 4326,
      "ĠàŃ§àŃ¬àŃ¦": 4327,
      "itamin": 4328,
      "à¬¨à¬¬à¬®": 4329,
      "ator": 4330,
      "ids": 4331,
      "ĠAp": 4332,
      "ĠPar": 4333,
      "Ġ21": 4334,
      "ĠOd": 4335,
      "à¬¨à¬Ĺà¬°à¬°": 4336,
      "ardi": 4337,
      "àŃ¨àŃ¦àŃ§àŃ¦": 4338,
      "àŃ¨àŃ¦àŃ§àŃ©": 4339,
      "ake": 4340,
      "à¬¨à¬Ńà¬£": 4341,
      "àŃ§àŃ¯àŃ¬àŃ¨": 4342,
      "ugh": 4343,
      "ukemia": 4344,
      "ternational": 4345,
      "Am": 4346,
      "Portal": 4347,
      "ave": 4348,
      "frac": 4349,
      "gument": 4350,
      "ior": 4351,
      "mal": 4352,
      "Ġà¬³": 4353,
      "à¬¤à¬£": 4354,
      "àŃŁà¬ªà¬ķ": 4355,
      "Ġà¬¸à¬°à¬¹à¬ª": 4356,
      "Ġà¬¬àŃŁà¬¨": 4357,
      "àŃĩà¬¾\"": 4358,
      "Ġà¬®à¬®": 4359,
      "à¬ĩàŃ±": 4360,
      "à¬Ĺà¬ķà¬°": 4361,
      "à¬Ĺà¬°à¬ķ": 4362,
      "à¬Ĺà¬§à¬°": 4363,
      "à¬ľà¬ķà¬®": 4364,
      "à¬ľà¬Ĺà¬¡": 4365,
      "à¬ŃàŃŁ": 4366,
      "Ġà¬¤à¬¬à¬²": 4367,
      "à¬¼\"": 4368,
      "Ġà¬¯à¬¹": 4369,
      "Ġà¬ªà¬°à¬ĸ": 4370,
      "à¬¬à¬°à¬¤": 4371,
      "Ġà¬²à¬¹à¬°": 4372,
      "entr": 4373,
      "àŃŁà¬ķà¬¶": 4374,
      "àŃįâĢĮ-": 4375,
      "àŃªàŃ¨": 4376,
      "à¬°à¬¬à¬£à¬¤": 4377,
      "tim": 4378,
      "à¬¬à¬ķà¬¨": 4379,
      "Ġà¬ļà¬ķà¬¡": 4380,
      "atch": 4381,
      "Ġbad": 4382,
      "Ġfail": 4383,
      "ĠDe": 4384,
      "eta": 4385,
      "Ġhas": 4386,
      "àŃ¨àŃ¦àŃ§àŃ¨": 4387,
      "ancy": 4388,
      "àŃ§àŃ¯àŃŃàŃŃ": 4389,
      "Ġargument": 4390,
      "Ġà¬ļà¬īà¬·à¬ł": 4391,
      "title": 4392,
      "urgery": 4393,
      "Ġhttp": 4394,
      "cognized": 4395,
      "Ġnamespace": 4396,
      "unrecognized": 4397,
      "Ġfailure": 4398,
      "%)": 4399,
      "MS": 4400,
      "liver": 4401,
      "ool": 4402,
      "ru": 4403,
      "rine": 4404,
      "xic": 4405,
      "à¬®à¬ļà¬°": 4406,
      "à¬Łà¬¤": 4407,
      "à¬Ĺà¬¡à¬°": 4408,
      "Ġà¬ħà¬łà¬°": 4409,
      "à¬¶à¬°à¬¥": 4410,
      "Ġà¬°à¬¦": 4411,
      "à¬¼àŃģ,": 4412,
      "àŃŁà¬ķà¬®": 4413,
      "à¬Łà¬°à¬Ļ": 4414,
      "à¬Łà¬°à¬«": 4415,
      "à¬¸à¬¨à¬ł": 4416,
      "à¬³àŃŁà¬Ĺ": 4417,
      "ĠàŃ®àŃ¦àŃ¦": 4418,
      "Ġà¬ľà¬³à¬¯": 4419,
      "Ġà¬Ńà¬²à¬ª": 4420,
      "hem": 4421,
      "Ġà¬®à¬łà¬®": 4422,
      "ult": 4423,
      "à¬¸à¬«à¬°": 4424,
      "ade": 4425,
      "ement": 4426,
      "ĠàŃ§àŃ§àŃ«": 4427,
      "àŃ§àŃ¯àŃŃàŃ¦": 4428,
      "àŃŁàŃŁà¬¨à¬°": 4429,
      "ounc": 4430,
      "Ġà¬ļà¬īà¬ªà¬¦": 4431,
      "à³į": 4432,
      "Ġhyper": 4433,
      "Ph": 4434,
      "steroid": 4435,
      "àŃį),": 4436,
      "à¬¬à¬¯": 4437,
      "à¬²à¬³": 4438,
      "à¬¦à¬°à¬ķ": 4439,
      "Ġà¬Ĺà¬§": 4440,
      "à¬ĩà¬¥à¬¬": 4441,
      "Ġà¬¸à¬¹à¬ª": 4442,
      "à¬¬à¬¨à¬¦": 4443,
      "ĠàŃªàŃ¦àŃ¦àŃ¦": 4444,
      "ĠàŃ¬àŃ¬": 4445,
      "ĠàŃŁà¬¶": 4446,
      "àŃģà¬ģ,": 4447,
      "à¬°à¬ľà¬Ĺà¬¤à¬°": 4448,
      "ased": 4449,
      "Ġà¬ĨàŃŁà¬ķà¬°": 4450,
      "Ġà¬ĭà¬ª": 4451,
      "Ġ100": 4452,
      "Ġà¬®à¬ĩà¬³": 4453,
      "Ġdys": 4454,
      "izures": 4455,
      "ĠàŃ§àŃ®àŃ®àŃ¯": 4456,
      "ious": 4457,
      "ibit": 4458,
      "viral": 4459,
      "Ġinhibit": 4460,
      "ai": 4461,
      "cy": 4462,
      "ren": 4463,
      "ris": 4464,
      "skin": 4465,
      "ÙĪ": 4466,
      "à¬°à¬³àŃŁ": 4467,
      "àŃĩàŃį": 4468,
      "à¬ķà¬®à¬°": 4469,
      "à¬ĩà¬īà¬ł": 4470,
      "Ġà¬¹à¬¸à¬ª": 4471,
      "Ġà¬ĵà¬¦": 4472,
      "Ġà¬Ĩà¬¬à¬¸": 4473,
      "Ġà¬¶à¬²": 4474,
      "à¬°à¬¤à¬¬": 4475,
      "à¬īà¬ĩà¬ķ": 4476,
      "àŃŁà¬¨à¬¬": 4477,
      "inte": 4478,
      "à¬ĵà¬Ń": 4479,
      "erg": 4480,
      "Ġà¬Ŀà¬°à¬ķ": 4481,
      "à¬¬à¬¶à¬¤": 4482,
      "orn": 4483,
      "Ġà¬ķà¬¬à¬³à¬°": 4484,
      "à¬Ĺà¬³à¬¯": 4485,
      "Ġà¬¸à¬®àŃŁà¬¸": 4486,
      "àŃ§àŃ¯àŃ¯àŃ¦": 4487,
      "let": 4488,
      "à¬®à¬¸à¬®": 4489,
      "à¬®à¬¸à¬®à¬°": 4490,
      "Ġà¬ħà¬ªà¬°à¬ªà¬ķ": 4491,
      "Ġ13": 4492,
      "acute": 4493,
      "heart": 4494,
      "Ġph": 4495,
      "Ġà¬Ĩà¬ªà¬²": 4496,
      "Ġà¤ķ": 4497,
      "Ġà¤ľ": 4498,
      "Ġ197": 4499,
      "àŃ¨àŃ¦àŃ§àŃª": 4500,
      "Ġ2016": 4501,
      "oxy": 4502,
      "18": 4503,
      "22": 4504,
      "flu": 4505,
      "sup": 4506,
      "Ïħ": 4507,
      "Ø³": 4508,
      "àŃŁà¬°à¬°": 4509,
      "à¬³à¬¬à¬²": 4510,
      "Ġà¬ıà¬¥à¬°": 4511,
      "Ġà¬¨à¬°à¬ªà¬¤": 4512,
      "ĠàŃł": 4513,
      "Ġà¬Ńà¬¤": 4514,
      "à¬Ńà¬Ĺà¬¬": 4515,
      "Ġà¬¯à¬¬": 4516,
      "Ġà¬²à¬ĺ": 4517,
      "à¬ŀà¬¸": 4518,
      "Ġà¬§à¬°à¬®": 4519,
      "ĠàŃ§àŃ¦àŃ§": 4520,
      "Ġsh": 4521,
      "Ġà¬ħà¬¬àŃŁà¬¬": 4522,
      "à¦¦": 4523,
      "Ġmeaning": 4524,
      "Ġà¬Ĩà¬ĩà¬¨à¬ķ": 4525,
      "Ġpl": 4526,
      "Ġpronunciation": 4527,
      "Ġà¬Ĺà¬ľà¬²à¬ķ": 4528,
      "olic": 4529,
      "adder": 4530,
      "immun": 4531,
      "Ġne": 4532,
      "à¬Ĺà¬ľà¬ªà¬¤": 4533,
      "ocy": 4534,
      "losis": 4535,
      "azole": 4536,
      "Ġleukemia": 4537,
      "dration": 4538,
      "accine": 4539,
      "à¬¸à¬Ĩà¬ªà¬°": 4540,
      "15": 4541,
      "\\-": 4542,
      "à¬ķà¬ķà¬³": 4543,
      "à¬¹à¬Ł": 4544,
      "à¬£à¬®à¬¨": 4545,
      "à¬ĩà¬·": 4546,
      "à¬¡à¬³à¬ķ": 4547,
      "à¬ľà¬ľ": 4548,
      "Ġà¬ľàŃŁà¬ķ": 4549,
      "Ġà¬¤à¬²": 4550,
      "à¬¼àŃįâĢĮ": 4551,
      "àŃ±à¬³à¬¨": 4552,
      "Ġà¬ĩà¬¦": 4553,
      "à¬ħà¬¹": 4554,
      "à¬ªà¬¤à¬Ļ": 4555,
      "à¬¤à¬ķà¬¬": 4556,
      "ĠàŃ®àŃ¯": 4557,
      "à¬¬à¬¦à¬³à¬¨": 4558,
      "à¬ľà¬ķà¬¨": 4559,
      "ush": 4560,
      "àŃĩà¬ģà¥¤": 4561,
      "Ġà¬Ĩà¬ĸà¬¡": 4562,
      "ĠEr": 4563,
      "à¬¨à¬¦à¬£": 4564,
      "ĠDev": 4565,
      "ema": 4566,
      "phal": 4567,
      "abdominal": 4568,
      "ĠàŃ§àŃ®àŃ¯àŃ¬": 4569,
      "ĠàŃ§àŃ§àŃ¨": 4570,
      "ĠàŃ§àŃ§àŃ©": 4571,
      "àŃ§àŃ¯àŃ®àŃ¯": 4572,
      "ally": 4573,
      "acture": 4574,
      "outh": 4575,
      "presant": 4576,
      "àµį": 4577,
      "itive": 4578,
      "serv": 4579,
      "áŁ": 4580,
      "à¬ķà¬¹": 4581,
      "à¬ķà¬²à¬°": 4582,
      "Ġà¬ķà¬³à¬¨": 4583,
      "Ġà¬¨à¬¯": 4584,
      "à¬ĸà¬¬": 4585,
      "à¬īà¬ľà¬°": 4586,
      "à¬ħà¬ĩ": 4587,
      "ork": 4588,
      "à¬ķà¬³à¬®à¬£": 4589,
      "Ġà¬ľà¬³à¬¦": 4590,
      "Ġà¬ħà¬®à¬²": 4591,
      "à¦²": 4592,
      "à¬¨à¬¬à¬ľ": 4593,
      "à¬īà¬³à¬Ł": 4594,
      "olar": 4595,
      "umab": 4596,
      "ode": 4597,
      "àŃ§àŃ¯àŃ®àŃŃ": 4598,
      "Ġà¦ª": 4599,
      "à¬ħà¬ªà¬®à¬£": 4600,
      "ĠInstitute": 4601,
      "Ġà¬ħà¬¬à¬¨à¬¤": 4602,
      "\"_": 4603,
      "PD": 4604,
      "TA": 4605,
      "ix": 4606,
      "Êĥ": 4607,
      "à¬°à¬ĺ": 4608,
      "Ġà¬¬à¬¥": 4609,
      "à¬Łà¬ļ": 4610,
      "à¬ľà¬¹": 4611,
      "Ġà¬ľà¬ľ": 4612,
      "à¬Ľà¬£": 4613,
      "à¬«à¬¸": 4614,
      "Ġà¬ĸà¬Ļ": 4615,
      "à¬ħà¬¨à¬°": 4616,
      "à¬ĺà¬¶": 4617,
      "à¬°à¬¥à¬¯": 4618,
      "Ġà¬¸à¬°à¬ŀ": 4619,
      "Ġà¬Ĩà¬ķà¬¸": 4620,
      "Ġà¬īà¬¦à¬³": 4621,
      "Ġà¬ªà¬¤à¬¨à¬°": 4622,
      "Ġà¬¸à¬¬à¬¡": 4623,
      "ĠàŃ§àŃ®àŃ¦àŃ¦": 4624,
      "à¬ķà¬°à¬£à¬ķ": 4625,
      "Ġà¬ĺà¬°à¬ł": 4626,
      "Ġà¬¦à¬¶à¬Ł": 4627,
      "ĠàŃ§àŃ©àŃ¦": 4628,
      "Ġà¬Ńà¬²à¬ķà¬°": 4629,
      "omiting": 4630,
      "Ġà¬Ĩà¬¡à¬Ń": 4631,
      "Ġ25": 4632,
      "toc": 4633,
      "à¬¬à¬£à¬Ļ": 4634,
      "ost": 4635,
      "Ġà¬ªà¬Ľà¬ªà¬Ł": 4636,
      "Ġ195": 4637,
      "elling": 4638,
      "plement": 4639,
      "Ġtest": 4640,
      "à¬ıà¬¸à¬ıà¬Ĩà¬ĩà¬¡": 4641,
      "\"(": 4642,
      "23": 4643,
      "Ġlos": 4644,
      "à¬ķà¬§": 4645,
      "à¬²à¬²": 4646,
      "à¬¸àŃŁ": 4647,
      "à¬¸à¬³": 4648,
      "à¬Ĺà¬Ńà¬Ļ": 4649,
      "Ġà¬°à¬¸à¬ķ": 4650,
      "Ġà¬Ĩà¬ĵà¬°": 4651,
      "à¬Ľà¬®": 4652,
      "Ġà¬īà¬ĩà¬¥": 4653,
      "à¬¬à¬°à¬®à¬¤": 4654,
      "Ġà¬¸à¬¹à¬°à¬®": 4655,
      "Ġà¬¡à¬¨": 4656,
      "ĠàŃ¨àŃ¦àŃ©": 4657,
      "Ġà¬¬à¬¨à¬¯": 4658,
      "à¬¾',": 4659,
      "asium": 4660,
      "Ġà¬®à¬¤à¬Ń": 4661,
      "olution": 4662,
      "try": 4663,
      "ĠNational": 4664,
      "isha": 4665,
      "ĠàŃ§àŃ®àŃ®àŃ«": 4666,
      "ibr": 4667,
      "Ġà¬ĹàŃŁà¬³": 4668,
      "Ġtransplant": 4669,
      "blems": 4670,
      "ER": 4671,
      "ier": 4672,
      "ove": 4673,
      "rug": 4674,
      "ten": 4675,
      "uter": 4676,
      "ÉĴ": 4677,
      "ãĤ": 4678,
      "Ġtext": 4679,
      "à¬°à¬§à¬¨": 4680,
      "à¬¿à¬¾": 4681,
      "à¬¨à¬ĸ": 4682,
      "à¬¨àŃŁà¬ķ": 4683,
      "à¬¨à¬ªà¬¤": 4684,
      "àŃģâĢĮ": 4685,
      "Ġà¬¸à¬²à¬®": 4686,
      "Ġà¬¬à¬³à¬ķ": 4687,
      "Ġà¬Ńà¬²à¬°": 4688,
      "Ġà¬ļà¬®à¬ķ": 4689,
      "Ġà¬ĸà¬ľà¬£": 4690,
      "Ġà¬ľà¬¨à¬¬à¬¹": 4691,
      "à¬¬à¬¨à¬®": 4692,
      "ara": 4693,
      "à¬ķà¬Łà¬ķà¬°": 4694,
      "Ġà¬¦à¬³à¬®": 4695,
      "rol": 4696,
      "leep": 4697,
      "ĠSch": 4698,
      "Ġcare": 4699,
      "Ġ22": 4700,
      "à¬®à¬ªà¬ŀ": 4701,
      "tra": 4702,
      "à®°": 4703,
      "ĠàŃ§àŃ®àŃ¯àŃ¨": 4704,
      "ĠàŃ§àŃ®àŃ¯àŃ®": 4705,
      "àŃ¨àŃ¦àŃ§àŃ¯": 4706,
      "àŃ§àŃ¯àŃ®àŃ¬": 4707,
      "àŃ§àŃ¯àŃ¯àŃŃ": 4708,
      "Ġ2011": 4709,
      "ĠQu": 4710,
      ",(": 4711,
      "03": 4712,
      "SO": 4713,
      "Sh": 4714,
      "Ġul": 4715,
      "Ġag": 4716,
      "à¬Ĭ": 4717,
      "à¬°à¬ªà¬°": 4718,
      "à¬ķà¬ļà¬£": 4719,
      "à¬¬à¬®à¬Ļ": 4720,
      "à¬®à¬ªà¬¨": 4721,
      "à¬¹à¬ľà¬°": 4722,
      "à¬ªà¬ĸ": 4723,
      "à¬Łà¬ľ": 4724,
      "à¬Łà¬¯": 4725,
      "à¬ľà¬ªà¬¤": 4726,
      "Ġà¬¨à¬²": 4727,
      "Ġà¬¹à¬ĩà¬°": 4728,
      "Ġà¬¹à¬ľà¬®": 4729,
      "Ġà¬Ńà¬Łà¬²": 4730,
      "à¬Ľà¬°à¬Ļ": 4731,
      "Ġà¬ļà¬¬": 4732,
      "à¬ŀà¬®": 4733,
      "Ġà¬¬à¬°à¬Ĺ": 4734,
      "à¬°à¬¥à¬°": 4735,
      "ala": 4736,
      "à¬¤à¬ķà¬ķ": 4737,
      "ĠàŃ§àŃ¦àŃª": 4738,
      "Ġse": 4739,
      "à¬ıà¬¨à¬ı": 4740,
      "iph": 4741,
      "Ġwh": 4742,
      "Ġnot": 4743,
      "ĠàŃ§àŃ®àŃ®àŃ¨": 4744,
      "àŃ¨àŃ¦àŃ§àŃ¬": 4745,
      "àŃ¨àŃ¦àŃ¦àŃŃ": 4746,
      "àŃ§àŃ¯àŃŃàŃ®": 4747,
      "short": 4748,
      "ĠUniversity": 4749,
      "Ġdeficiency": 4750,
      "14": 4751,
      "Ac": 4752,
      "back": 4753,
      "rap": 4754,
      "Ìª": 4755,
      "Îµ": 4756,
      "à¬¨à¬¨à¬°": 4757,
      "à¬¤à¬ł": 4758,
      "à¬¤à¬®à¬°": 4759,
      "à¬¤à¬ļà¬°": 4760,
      "Ġà¬ķà¬¨à¬¸": 4761,
      "Ġà¬¬à¬ĸ": 4762,
      "Ġà¬¬à¬Łà¬¨": 4763,
      "à¬¦à¬ľ": 4764,
      "à¬£à¬ªà¬¤": 4765,
      "Ġà¬ıà¬ĩà¬¤": 4766,
      "Ġà¬ħà¬£à¬¸": 4767,
      "à¬ļà¬ķà¬®": 4768,
      "Ġà¬°à¬«": 4769,
      "Ġà¬¯à¬®à¬Ļ": 4770,
      "Ġà¬īà¬§": 4771,
      "enter": 4772,
      "à¬ªà¬°à¬ª": 4773,
      "à¬ªà¬°à¬Ń": 4774,
      "à¬°à¬£à¬®": 4775,
      "Ġà¬ĸà¬ļ": 4776,
      "Ġà¬ĩà¬ª": 4777,
      "à¬¬à¬¨à¬¶": 4778,
      "ĠàŃ¨àŃ¦àŃ«": 4779,
      "à¬¶à¬¨à¬ķ": 4780,
      "àŃŁà¬®à¬¦": 4781,
      "Ġà¬Ķà¬°à¬Ļ": 4782,
      "ern": 4783,
      "ication": 4784,
      "à¬¹à¬°à¬ª": 4785,
      "the": 4786,
      "ĠàŃ±à¬°": 4787,
      "edia": 4788,
      "Ġà¬¦à¬¶à¬ªà¬²": 4789,
      "ury": 4790,
      "old": 4791,
      "ulation": 4792,
      "ĠàŃ¯àŃ¯àŃ": 4793,
      "à¬¿\",": 4794,
      "ĠFor": 4795,
      "àŃ¨àŃ¦àŃ¦àŃ§": 4796,
      "ublic": 4797,
      "àŃ§àŃ¯àŃ¯àŃ¨": 4798,
      "Ġà¬Ńà¬°à¬¤à¬¨": 4799,
      "à©Ģ": 4800,
      "reek": 4801,
      "à¬Ĳà¬¤": 4802,
      ")\"": 4803,
      "vomiting": 4804,
      "Ð°": 4805,
      "ĠÏĢ": 4806,
      "à¬µ": 4807,
      "àŃĩ),": 4808,
      "à¬¤à¬¥": 4809,
      "à¬¹à¬ķà¬°": 4810,
      "à¬¹à¬³à¬¦": 4811,
      "Ġà¬¬à¬Łà¬ķ": 4812,
      "à¬ľà¬¡": 4813,
      "Ġà¬ķà¬°à¬®à¬ļ": 4814,
      "à¬ļà¬¬à¬°": 4815,
      "Ġà¬°à¬¨à¬°": 4816,
      "Ġà¬°à¬¸à¬°": 4817,
      "à¬Ĩà¬°à¬®": 4818,
      "àŃĤ,": 4819,
      "à¬łà¬Ļ": 4820,
      "Ġà¬ĩà¬¹à¬²": 4821,
      "à¬ľà¬¨à¬®": 4822,
      "à¬¿à¬ģ;": 4823,
      "alk": 4824,
      "Ġà¬Ķà¬·à¬§à¬¦": 4825,
      "arr": 4826,
      "arge": 4827,
      "ĠâĢĶ": 4828,
      "à¤·": 4829,
      "à¬°à¬ªà¬£": 4830,
      "à¬¸à¬²à¬«": 4831,
      "ref": 4832,
      "unction": 4833,
      "ĠPh": 4834,
      "Ġ23": 4835,
      "à¬¬à¬£à¬ķ": 4836,
      "ulmon": 4837,
      "ague": 4838,
      "ada": 4839,
      "ents": 4840,
      "ĠàŃ§àŃ§àŃŃ": 4841,
      "àŃ¨àŃ¦àŃ¦àŃ«": 4842,
      "otasium": 4843,
      "àŃ§àŃ¯àŃ®àŃ¦": 4844,
      "ĠàŃ§àŃ®àŃŃàŃ«": 4845,
      "Ġproblems": 4846,
      "poration": 4847,
      "CLC": 4848,
      "Anti": 4849,
      "Ġimmun": 4850,
      "ĠCorporation": 4851,
      "26": 4852,
      "28": 4853,
      "DA": 4854,
      "PS": 4855,
      "iod": 4856,
      "}{": 4857,
      "Ġ*": 4858,
      "à¬¨àŃ±": 4859,
      "à¬¨à¬Ĺà¬¡": 4860,
      "àŃģ;": 4861,
      "Ġà¬¬à¬¸à¬°": 4862,
      "Ġà¬®à¬¤à¬ķ": 4863,
      "à¬ĩà¬§à¬°": 4864,
      "à¬ľà¬¦à¬°à¬¬": 4865,
      "Ġà¬°à¬£à¬¨": 4866,
      "à¬¼)": 4867,
      "à¬īà¬¸à¬ķ": 4868,
      "Ġà¬¥à¬ĩà¬¥": 4869,
      "àŃŁà¬°à¬¸": 4870,
      "Ġà¬«à¬Ļ": 4871,
      "Ġà¬§à¬®à¬ķ": 4872,
      "intravenous": 4873,
      "à¬ĵà¬¥": 4874,
      "àŃŁà¬®à¬¤": 4875,
      "ali": 4876,
      "à¬¤à¬ķà¬®": 4877,
      "à¬·à¬§à¬°": 4878,
      "Ġà¬¬à¬¨à¬¸": 4879,
      "à¬³à¬ķà¬Ļ": 4880,
      "Ġà¬ľà¬³à¬ªà¬¥à¬°": 4881,
      "àŃĩà¬ģ_": 4882,
      "Ġmark": 4883,
      "Ġbl": 4884,
      "Ġà¦ķ": 4885,
      "Ġ50": 4886,
      "àŃ§àŃ¯àŃªàŃ®": 4887,
      "à¬²à¬¹à¬¡": 4888,
      "ËĮÃ¦": 4889,
      "à±į": 4890,
      "Co": 4891,
      "aËĲ": 4892,
      "hin": 4893,
      "kidney": 4894,
      "ner": 4895,
      "}:": 4896,
      "É¾": 4897,
      "Ø¯": 4898,
      "Ûģ": 4899,
      "àŃĸ": 4900,
      "à¬¤à¬¸à¬¨": 4901,
      "Ġà¬¬à¬ĸà¬°": 4902,
      "à¬¦à¬¹": 4903,
      "à¬¦àŃŁà¬Ļ": 4904,
      "Ġà¬®à¬³à¬¦": 4905,
      "Ġà¬ħà¬²à¬ķ": 4906,
      "à¬·à¬¹": 4907,
      "Ġà¬¨à¬®à¬¨": 4908,
      "Ġà¬ķà¬°à¬®": 4909,
      "à¬ļà¬¨à¬Ļ": 4910,
      "Ġà¬ĵà¬¹à¬°": 4911,
      "Ġà¬Ĩà¬¸à¬°": 4912,
      "à¬¼-": 4913,
      "àŃ±à¬Ĺ": 4914,
      "à¬ĸà¬ªà¬¤": 4915,
      "à¬Ľà¬§à¬°": 4916,
      "à¬łà¬Ł": 4917,
      "à¬¤à¬°à¬£à¬°": 4918,
      "à¬«à¬²": 4919,
      "Ġà¬¬à¬°à¬Ĺà¬Ľ": 4920,
      "à¬Ĺà¬°à¬ł": 4921,
      "à¬¦à¬°à¬¬à¬¨": 4922,
      "Ġà¬Ľà¬ķà¬°": 4923,
      "Ġà¬Ľà¬ŀ": 4924,
      "à¬¤à¬¨à¬ķ": 4925,
      "à¬¤à¬®à¬ª": 4926,
      "à¬¬à¬¦à¬³": 4927,
      "ĠàŃ§àŃªàŃ¦": 4928,
      "Ġà¬ĭà¬ķà¬¬": 4929,
      "ĠMan": 4930,
      "omp": 4931,
      "ĠPl": 4932,
      "Ġà¬«à¬³à¬¤": 4933,
      "ĠIP": 4934,
      "ĠàŃ§àŃ®àŃŃàŃŃ": 4935,
      "meth": 4936,
      "Ġà¬ļà¬²à¬ļ": 4937,
      "portive": 4938,
      "www": 4939,
      "Ġà¬Ĩà¬²à¬¬à¬®à¬°": 4940,
      "urinary": 4941,
      "ĠError": 4942,
      ")-": 4943,
      "200": 4944,
      "xiety": 4945,
      "à¬°à¬ĸà¬£": 4946,
      "à¬¨à¬¬à¬ķ": 4947,
      "à¬¬à¬ļà¬¨": 4948,
      "à¬²à¬Łà¬¨": 4949,
      "à¬£à¬¬à¬¨": 4950,
      "Ġà¬®à¬ª": 4951,
      "à¬Łà¬¸à¬®": 4952,
      "à¬·à¬ĺà¬°": 4953,
      "Ġà¬¨à¬ĩ": 4954,
      "Ġà¬¨à¬Ī": 4955,
      "à¬ļà¬¥à¬°": 4956,
      "Ġà¬Ńà¬°à¬¸": 4957,
      "àŃ±à¬ªà¬¤": 4958,
      "à¬«à¬¥": 4959,
      "à¬¬à¬¨à¬¬": 4960,
      "Ġà¬Ľà¬ªà¬¨": 4961,
      "à¬°à¬¥à¬®à¬Ł": 4962,
      "à¬³à¬¨à¬¦": 4963,
      "à¬¿à¬ģà¬ģ": 4964,
      "à¬¬à¬¶à¬ķ": 4965,
      "ori": 4966,
      "à¬°à¬ªà¬¦": 4967,
      "esis": 4968,
      "ĠAre": 4969,
      "ĠCol": 4970,
      "Ġco": 4971,
      "top": 4972,
      "ĠàŃ¨àŃªàŃ¦": 4973,
      "tical": 4974,
      "ĠâĢĮà¥¤": 4975,
      "ĠWh": 4976,
      "àŃ¨àŃ¦àŃ¦àŃ¨": 4977,
      "àŃ¨àŃ¦àŃ¦àŃ©": 4978,
      "àŃ§àŃ¯àŃ®àŃ¨": 4979,
      "àŃ§àŃ¯àŃ®àŃ®": 4980,
      "ormone": 4981,
      "à§ĩà¦¾": 4982,
      "Ġà¬ħà¬¥à¬ļ": 4983,
      "\"à¥¤": 4984,
      "AL": 4985,
      "bone": 4986,
      "ges": 4987,
      "met": 4988,
      "pre": 4989,
      "vi": 4990,
      "yr": 4991,
      "Ġ$": 4992,
      "Ġital": 4993,
      "à¬¨à¬³": 4994,
      "à¬¬à¬ķà¬°": 4995,
      "à¬¹à¬ļ": 4996,
      "àŃĩà¬¾àŃĸ": 4997,
      "à¬£à¬¯": 4998,
      "à¬ªà¬ªà¬¤": 4999,
      "à¬ĩà¬ĸà¬³": 5000,
      "à¬ľà¬¯": 5001,
      "à¬ľà¬Ĺà¬®": 5002,
      "Ġà¬ķà¬°à¬¥": 5003,
      "à¬ĸà¬ļ": 5004,
      "à¬Ĩà¬Ń": 5005,
      "Ġà¬ĸà¬°à¬¸": 5006,
      "Ġà¬§à¬¡": 5007,
      "Ġà¬ķà¬²à¬ļà¬°": 5008,
      "àŃªàŃ¦àŃ¦": 5009,
      "Ġà¬¸à¬°à¬¬à¬ľ": 5010,
      "tig": 5011,
      "à¬¬à¬¤à¬Ł": 5012,
      "à¬¦à¬¨à¬¯": 5013,
      "à¬ļà¬³à¬Ĺ": 5014,
      "Ġà¬¶à¬¤à¬¬": 5015,
      "à¬ľà¬ķà¬¤": 5016,
      "ream": 5017,
      "ĠSc": 5018,
      "ĠSystem": 5019,
      "Ġà¬īà¬ªà¬¸à¬Ń": 5020,
      "iabe": 5021,
      "ull": 5022,
      "ĠHy": 5023,
      "Ġà¬ħà¬¹à¬²": 5024,
      "Ġwe": 5025,
      "phys": 5026,
      "ĠàŃ§àŃ®àŃ¯àŃª": 5027,
      "à¨°": 5028,
      "ĠàŃ§àŃ®àŃ®àŃª": 5029,
      "ĠàŃ§àŃ®àŃ¬àŃª": 5030,
      "ĠàŃ§àŃ®àŃ¬àŃ®": 5031,
      "owel": 5032,
      "àŃ§àŃ¯àŃ®àŃª": 5033,
      "velopment": 5034,
      "ĠàŃ§àŃ®àŃŃàŃª": 5035,
      "à¬ĩà¬ªà¬°à¬ķ": 5036,
      "Ġ85": 5037,
      "illion": 5038,
      "Ġ\\+": 5039,
      "hydration": 5040,
      "àŃ§àŃ¯àŃ«àŃ¦": 5041,
      "ĠÎ¼": 5042,
      "ĠËĪsÉĶËĲrÉĻs": 5043,
      "Ġmarkup": 5044,
      "Ġitalic": 5045,
      "11": 5046,
      "CS": 5047,
      "RI": 5048,
      "her": 5049,
      "iËĲ": 5050,
      "uth": 5051,
      "uch": 5052,
      "Ġà¬ķà¬ļà¬Ł": 5053,
      "Ġà¬¬à¬ľà¬¨": 5054,
      "à¬£à¬ļ": 5055,
      "Ġà¬®à¬³à¬®": 5056,
      "à¬Ĺà¬¹": 5057,
      "Ġà¬ħàŃŁà¬®": 5058,
      "Ġà¬¨à¬¬à¬¨": 5059,
      "Ġà¬¹à¬·": 5060,
      "à¬ļà¬§": 5061,
      "à¬¼àŃĩ,": 5062,
      "à¬¼àŃĩà¥¤": 5063,
      "à¬Ĩà¬ĩà¬¬": 5064,
      "à¬Ĩà¬ļà¬³à¬ļ": 5065,
      "Ġà¬²à¬¹à¬¡": 5066,
      "à¬°à¬°à¬°": 5067,
      "tein": 5068,
      "à¬ħà¬«": 5069,
      "à¬¬à¬¨à¬¸": 5070,
      "à¬ĺà¬¡": 5071,
      "inter": 5072,
      "ica": 5073,
      "à¬ĩà¬²à¬ķ": 5074,
      "à¤ª": 5075,
      "Ġà¬¬à¬¸à¬·": 5076,
      "Ġà¬ľà¬³à¬§": 5077,
      "Ġà¬łà¬ķ": 5078,
      "Ġà¬¦à¬³à¬¬": 5079,
      "ĠàŃ§àŃ¬àŃ«": 5080,
      "ĠàŃ§àŃ¬àŃ¦àŃ¦": 5081,
      "à¦¡": 5082,
      "à¦ª": 5083,
      "ĠàŃ¨àŃ«àŃ¦àŃ¦": 5084,
      "Ġà¬Ĺà¬Ľà¬®": 5085,
      "à¬®à¬ªà¬Ł": 5086,
      "Ġins": 5087,
      "tri": 5088,
      "ĠEx": 5089,
      "ĠBl": 5090,
      "Ġà¤°": 5091,
      "ĠRe": 5092,
      "à®ķ": 5093,
      "gene": 5094,
      "ĠàŃ§àŃ®àŃ®àŃ¬": 5095,
      "à°¾": 5096,
      "Ġtub": 5097,
      "ange": 5098,
      "oglob": 5099,
      "ĠURLà¬°": 5100,
      "Ġà¬¨à¬Łà¬¬à¬°": 5101,
      "ulmonary": 5102,
      "AD": 5103,
      "Ab": 5104,
      "De": 5105,
      "Sp": 5106,
      "elec": 5107,
      "fa": 5108,
      "hav": 5109,
      "ka": 5110,
      "nology": 5111,
      "uro": 5112,
      "ÊĴ": 5113,
      "à¹": 5114,
      "à¬¨à¬ıà¬¡": 5115,
      "à¬¬à¬¨à¬Ļ": 5116,
      "à¬¬à¬Ĺà¬£": 5117,
      "à¬®à¬¶à¬Ļ": 5118,
      "àŃŁàŃŁà¬°": 5119,
      "Ġà¬¸à¬Ł": 5120,
      "Ġà¬¸à¬¬à¬°": 5121,
      "à¬²à¬²à¬¹à¬¡": 5122,
      "à¬¦à¬ªà¬¦": 5123,
      "Ġà¬ıà¬·": 5124,
      "à¬·àŃŁà¬¤": 5125,
      "Ġà¬¤à¬ħà¬ª": 5126,
      "à¬ıà¬¦": 5127,
      "à¬ıà¬ĩ": 5128,
      "àŃ±à¬Ļ": 5129,
      "Ġà¬īà¬Ĩ": 5130,
      "à¬īà¬Ĺ": 5131,
      "à¬«à¬¸à¬«": 5132,
      "à¬°à¬¬à¬Ļ": 5133,
      "anes": 5134,
      "arg": 5135,
      "ĠàŃ§àŃ¦àŃ¬": 5136,
      "Ġà¬ħà¬²à¬Ł": 5137,
      "Ġà¬ħà¬²à¬¸à¬°": 5138,
      "à¬ıà¬¸à¬ıà¬¸": 5139,
      "inger": 5140,
      "ating": 5141,
      "ĠSup": 5142,
      "ĠAd": 5143,
      "Ġdi": 5144,
      "ility": 5145,
      "ecre": 5146,
      "eld": 5147,
      "ird": 5148,
      "adi": 5149,
      "Ġà¬¹à¬°à¬®à¬¨": 5150,
      "gnancy": 5151,
      "arbon": 5152,
      "ĠResearch": 5153,
      "shortnes": 5154,
      "ES": 5155,
      "FA": 5156,
      "National": 5157,
      "uff": 5158,
      "yn": 5159,
      "ÙĬ": 5160,
      "à¬Łà¬¸à¬°": 5161,
      "à¬¶à¬Ĺà¬¤": 5162,
      "Ġà¬¨à¬ħà¬Ł": 5163,
      "ĠàŃ¤": 5164,
      "Ġà¬°à¬ľà¬°": 5165,
      "Ġà¬ľà¬Łà¬£": 5166,
      "Ġà¬Ĩà¬Ľ": 5167,
      "Ġà¬ĨàŃŁà¬ķ": 5168,
      "Ġà¬Ĩà¬ªà¬¤": 5169,
      "Ġà¬Ĩà¬ĩà¬²": 5170,
      "à¬ĸà¬Ł": 5171,
      "à¬Ĩà¬²à¬°": 5172,
      "àŃĤ:": 5173,
      "à¬łà¬Ĺ": 5174,
      "Ġà¬¥à¬®": 5175,
      "à¬°à¬®à¬¹": 5176,
      "à¬ĵà¬ıà¬¸": 5177,
      "alp": 5178,
      "Ġà¬Ķà¬ªà¬ļ": 5179,
      "ank": 5180,
      "ĠàŃ§àŃ®àŃªàŃ®": 5181,
      "Ġà¬ħà¬¸à¬«à¬³": 5182,
      "à¬ĩà¬²à¬°": 5183,
      "à¬¸à¬¬à¬®": 5184,
      "asm": 5185,
      "lex": 5186,
      "itation": 5187,
      "Ġà¬ħà¬¬à¬·": 5188,
      "ĠàŃ§àŃ©àŃ®": 5189,
      "Ġ27": 5190,
      "ola": 5191,
      "Ġà¬¨à¬°à¬ĸ": 5192,
      "Ġinj": 5193,
      "Ġà¬ıà¬¨à¬ıà¬¸à¬ıà¬Ĩà¬ĩà¬¡": 5194,
      "à¬¬à¬¹à¬¨à¬°": 5195,
      "Ġà¬°à¬®à¬ľ": 5196,
      "Ġà¬°à¬ľà¬ªà¬°": 5197,
      "àŃ¨àŃ¦àŃ§àŃ«": 5198,
      "ĠàŃ§àŃ®àŃ¬àŃ§": 5199,
      "uction": 5200,
      "angu": 5201,
      "Ġarter": 5202,
      "Ġred": 5203,
      "other": 5204,
      "bacterial": 5205,
      "CR": 5206,
      "ca": 5207,
      "eye": 5208,
      "form": 5209,
      "fung": 5210,
      "rip": 5211,
      "va": 5212,
      "Ġob": 5213,
      "à¬¨à¬ĩ": 5214,
      "à¬¨à¬ħ": 5215,
      "à¬¤à¬²à¬°": 5216,
      "àŃŁà¬ľà¬¨à¬ķ": 5217,
      "à¬¸à¬®à¬¸": 5218,
      "Ġà¬®à¬ľà¬¬": 5219,
      "à¬ĩà¬¤à¬°": 5220,
      "à¬Ĺà¬Ĺà¬¤": 5221,
      "à¬Ĺà¬£à¬¨": 5222,
      "à¬·à¬ľà¬®": 5223,
      "à¬¶à¬ķà¬°": 5224,
      "à¬§à¬³": 5225,
      "à¬§à¬Ń": 5226,
      "à¬§à¬ķà¬®": 5227,
      "Ġà¬ķà¬°à¬Ļ": 5228,
      "Ġà¬°à¬¡": 5229,
      "Ġà¬ľà¬¤": 5230,
      "à¬ĸà¬³à¬¨": 5231,
      "à¬īà¬·": 5232,
      "Ġà¬ĺà¬°à¬¦": 5233,
      "ink": 5234,
      "à¬¤à¬ķà¬Ĺ": 5235,
      "ortic": 5236,
      "Ġà¬ķà¬¬à¬ķà¬°": 5237,
      "Ġà¬ľà¬³à¬ĸ": 5238,
      "à¬ıà¬¸à¬¨à¬°": 5239,
      "ĠàŃ§àŃŃàŃ¦": 5240,
      "ĠàŃ§àŃŃàŃ¦àŃ¦": 5241,
      "itu": 5242,
      "ĠàŃ§àŃªàŃª": 5243,
      "ĠàŃ§àŃªàŃŃ": 5244,
      "à¦¬": 5245,
      "Ġcl": 5246,
      "à¬§à¬¬à¬®": 5247,
      "elv": 5248,
      "emic": 5249,
      "ĠàŃ§àŃ®àŃ¯àŃ«": 5250,
      "ĠàŃ§àŃ§àŃª": 5251,
      "àŃ§àŃ¯àŃ¯àŃ¬": 5252,
      "Ġ2015": 5253,
      "àŃ¨àŃ¦àŃ¨àŃ©": 5254,
      "NSCLC": 5255,
      "fungal": 5256,
      "CN": 5257,
      "out": 5258,
      "son": 5259,
      "ãĥ": 5260,
      "ĠÐ": 5261,
      "à¬¨à¬®à¬Ĺ": 5262,
      "à¬ķà¬¨à¬°": 5263,
      "à¬®à¬ªà¬°": 5264,
      "à¬®à¬ªà¬¦": 5265,
      "Ġà¬¸àŃŁ": 5266,
      "à¬¹à¬ķà¬®": 5267,
      "à¬¹à¬°à¬£à¬°": 5268,
      "à¬¦à¬¬à¬°": 5269,
      "à¬Łà¬¬à¬¡": 5270,
      "à¬Łà¬ªà¬¤à¬Ļ": 5271,
      "à¬Ĺà¬³à¬°": 5272,
      "à¬Ĺà¬Łà¬¨": 5273,
      "Ġà¬ıà¬ªà¬Ł": 5274,
      "Ġà¬ħà¬¸à¬°": 5275,
      "à¬§à¬°à¬£à¬¤": 5276,
      "Ġà¬ķà¬°à¬¬": 5277,
      "Ġà¬¦à¬ª": 5278,
      "Ġà¬ĵà¬«": 5279,
      "à¬¯à¬ľ": 5280,
      "àŃ±à¬¸à¬¨": 5281,
      "à¬ĸà¬®à¬£": 5282,
      "à¬ĩà¬¥à¬¨": 5283,
      "Ġà¬ªà¬°à¬ķ": 5284,
      "Ġà¬¸à¬®à¬ķà¬ķ": 5285,
      "àŃŁà¬°à¬ŀ": 5286,
      "à¬°à¬®à¬ł": 5287,
      "Ġà¬®à¬¹à¬®à¬¦": 5288,
      "à¬ľà¬¨à¬¤": 5289,
      "Ġà¬¡à¬ļ": 5290,
      "à¬¦à¬°à¬ª": 5291,
      "à¬Ĩà¬°à¬¡": 5292,
      "àŃ±à¬°à¬¬": 5293,
      "à¬¸à¬¨à¬¸": 5294,
      "Ġ,_": 5295,
      "à¬³à¬¨à¬ª": 5296,
      "à¬¬à¬¤à¬¶": 5297,
      "Ġà¬¬à¬¨à¬¦": 5298,
      "ert": 5299,
      "ĠâĢį": 5300,
      "Ġà¬·à¬ł": 5301,
      "Ġà¬¦à¬°à¬ĸ": 5302,
      "à¬Ĺà¬®à¬Ļ": 5303,
      "ĠàŃ§àŃŃàŃ«": 5304,
      "rel": 5305,
      "chronic": 5306,
      "ings": 5307,
      "ĠAb": 5308,
      "Ġmon": 5309,
      "à¬īà¬³à¬ķà¬°à¬£": 5310,
      "urn": 5311,
      "Ġby": 5312,
      "uman": 5313,
      "Ġà¤¶": 5314,
      "Ġà¬ªà¬¥à¬ª": 5315,
      "ĠàŃ§àŃ®àŃ¬àŃ«": 5316,
      "Ġvision": 5317,
      "à¬ĭà¬£": 5318,
      "cohol": 5319,
      "áĢ¬": 5320,
      "infection": 5321,
      "à¬ĩà¬ľà¬£à¬Ļ": 5322,
      "ormal": 5323,
      "àŃ§àŃ¯àŃªàŃŃ": 5324,
      "à¯ģ": 5325,
      "ological": 5326,
      "àŃįàŃįàŃįàŃį": 5327,
      "ohn": 5328,
      "Ġsupplement": 5329,
      "inflammation": 5330,
      "Ġfracture": 5331,
      "áŁĴ": 5332,
      "Ġulcer": 5333,
      "Le": 5334,
      "fic": 5335,
      "ii": 5336,
      "ilo": 5337,
      "ote": 5338,
      "pain": 5339,
      "ray": 5340,
      "small": 5341,
      "tm": 5342,
      "war": 5343,
      "yph": 5344,
      "àŃį/": 5345,
      "à¬®à¬ĩ": 5346,
      "à¬®àŃŁà¬°": 5347,
      "à¬¹à¬Ĺ": 5348,
      "à¬¸à¬¬à¬ķ": 5349,
      "Ġà¬¹à¬²à¬°": 5350,
      "à¬ļà¬°à¬°": 5351,
      "Ġà¬ĵà¬°à¬«": 5352,
      "Ġà¬¤à¬¸": 5353,
      "à¬¼_": 5354,
      "à¬ĸà¬¬à¬¨": 5355,
      "à¬¬à¬°à¬®": 5356,
      "Ġà¬ħà¬¨à¬Ĺ": 5357,
      "Ġà¬«à¬ĩà¬¸à¬²": 5358,
      "Ġà¬§à¬£": 5359,
      "Ġà¬ħà¬§à¬°à¬ªà¬£": 5360,
      "à¬¸à¬°à¬Ł": 5361,
      "ĠàŃ©àŃ¨àŃ«": 5362,
      "à¬°à¬¬à¬ķ": 5363,
      "onin": 5364,
      "ĠàŃ§àŃ¦àŃ«": 5365,
      "ĠàŃ¬àŃªàŃ¦": 5366,
      "Ġà¬ľà¬³à¬Ń": 5367,
      "à¬Ĩà¬¨à¬¶": 5368,
      "Ġà¬¦à¬³à¬Ĺà¬¤": 5369,
      "à¬¦à¬¶à¬®": 5370,
      "ita": 5371,
      "Ġà¬¦à¬¶à¬¬à¬°": 5372,
      "Ġdep": 5373,
      "Ġà¬Ĺà¬Ľà¬Ĺ": 5374,
      "Ġble": 5375,
      "ĠIU": 5376,
      "Ġà¬¬à¬²à¬£": 5377,
      "Ġà¬ľàŃŁà¬¬à¬°": 5378,
      "Ġà¤¬": 5379,
      "Ġà¬¨à¬Ĺà¬°à¬ª": 5380,
      "à¤¾)": 5381,
      "àŃŁà¬Łà¬¨à¬¸": 5382,
      "ension": 5383,
      "àŃ§àŃ¯àŃŃàŃ¨": 5384,
      "à¬ĩà¬ªà¬°à¬ª": 5385,
      "ialysis": 5386,
      "ercu": 5387,
      "ardiac": 5388,
      "oxygen": 5389,
      "AB": 5390,
      "AM": 5391,
      "Or": 5392,
      "cular": 5393,
      "mo": 5394,
      "medication": 5395,
      "tal": 5396,
      "vag": 5397,
      "Ġam": 5398,
      "à¬¤à¬³à¬°": 5399,
      "à¬¤à¬Ĺà¬£": 5400,
      "à¬ķà¬¤à¬°": 5401,
      "àŃŁà¬·": 5402,
      "àŃŁà¬¸à¬®": 5403,
      "Ġà¬¸àŃ±": 5404,
      "Ġà¬¸à¬ªà¬°": 5405,
      "à¬¥à¬¦": 5406,
      "à¬£à¬¤à¬°": 5407,
      "à¬ĩà¬¨à¬Ļ": 5408,
      "à¬§à¬¯": 5409,
      "à¬ľà¬ķà¬Ļ": 5410,
      "Ġà¬¨à¬¶": 5411,
      "à¬ıà¬·": 5412,
      "Ġà¬Ĺà¬ĩ": 5413,
      "Ġà¬¯à¬®à¬°": 5414,
      "Ġà¬ļà¬°à¬£à¬°": 5415,
      "à¬¬à¬°à¬¸": 5416,
      "Ġà¬¥à¬²": 5417,
      "à¬¤à¬°à¬Ł": 5418,
      "Ġà¬¸à¬¹à¬¬": 5419,
      "à¬ĺà¬¤à¬®": 5420,
      "àŃŁà¬¨à¬¶": 5421,
      "à¬ĵà¬ľ": 5422,
      "ĠàŃ©àŃ¨àŃ¦": 5423,
      "Ġà¬ķà¬®à¬²": 5424,
      "als": 5425,
      "Ġà¬ķà¬³à¬ķ": 5426,
      "à¬¦à¬¨à¬ª": 5427,
      "ĠàŃ§àŃ®àŃ¨àŃŃ": 5428,
      "organ": 5429,
      "à¬®à¬¤à¬³": 5430,
      "ĠàŃ§àŃ¨àŃª": 5431,
      "ĠàŃ§àŃ¨àŃ§": 5432,
      "Ġà¬¬à¬³à¬Ĺà¬£": 5433,
      "à¦¤": 5434,
      "Ġà¬¢à¬³": 5435,
      "ĠII": 5436,
      "ecti": 5437,
      "à¬¤à¬³à¬·à¬·": 5438,
      "ental": 5439,
      "à¬ªà¬¥à¬°à¬°": 5440,
      "atell": 5441,
      "à®¤": 5442,
      "ĠàŃ§àŃ§àŃ¯": 5443,
      "romb": 5444,
      "eptic": 5445,
      "ĠàŃ§àŃ®àŃŃàŃ¦": 5446,
      "ĠàŃ§àŃ®àŃŃàŃ¯": 5447,
      "àŃ§àŃ¯àŃ¯àŃ©": 5448,
      "Ġkm": 5449,
      "trict": 5450,
      "ĠâĪĴ": 5451,
      "ĠOdisha": 5452,
      "13": 5453,
      "CD": 5454,
      "for": 5455,
      "mas": 5456,
      "po": 5457,
      "rav": 5458,
      "Ìĵ": 5459,
      "Ø¨": 5460,
      "Ġ}": 5461,
      "à¬¤à¬ī": 5462,
      "àŃŁà¬¸à¬¬": 5463,
      "Ġà¬¸à¬£": 5464,
      "Ġà¬¸à¬¬à¬¸": 5465,
      "à¬²àŃŁà¬°": 5466,
      "à¬¸à¬ŀ": 5467,
      "àŃĢ;": 5468,
      "à¬¥à¬¬à¬²": 5469,
      "Ġà¬¬à¬¤à¬ķ": 5470,
      "à¬³à¬«": 5471,
      "Ġà¬ħà¬ĺ": 5472,
      "à¬¶àŃŁà¬¨": 5473,
      "Ġà¬¹à¬īà¬Ľ": 5474,
      "Ġà¬¦à¬Ĺ": 5475,
      "Ġà¬ľà¬ī": 5476,
      "Ġà¬ĵà¬¨": 5477,
      "à¬°à¬¤à¬³": 5478,
      "à¬ªà¬°à¬¦": 5479,
      "Ġà¬ĩàŃŁà¬°": 5480,
      "à¬ľà¬¨à¬¶": 5481,
      "Ġà¬¡à¬Ł": 5482,
      "à¬¦à¬°à¬Ł": 5483,
      "àŃ±à¬°à¬ª": 5484,
      "à¬°à¬¦à¬Ļ": 5485,
      "à¬ĸà¬°à¬Ļ": 5486,
      "ini": 5487,
      "à¬ĵà¬Ĺà¬¡": 5488,
      "Ġà¬īà¬¦àŃŁà¬¨": 5489,
      "ars": 5490,
      "à¤ļ": 5491,
      "à¬ĩà¬ķà¬³": 5492,
      "Ġà¬ħà¬ªà¬²": 5493,
      "à¬¨à¬¸à¬Ń": 5494,
      "Ġà¬ªà¬¹à¬¡": 5495,
      "à¬ľàŃŁàŃ±": 5496,
      "Ġà¬ħà¬£à¬¬": 5497,
      "à¬ıà¬¸à¬ıà¬«": 5498,
      "lege": 5499,
      "idine": 5500,
      "à¬ľà¬¸à¬Ń": 5501,
      "omyc": 5502,
      "à¬§à¬¬à¬ª": 5503,
      "à¬Ĩà¬ĩà¬ıà¬®": 5504,
      "Ġà¬ıà¬¨à¬ľ": 5505,
      "àŃ¨àŃ¦àŃ§àŃ®": 5506,
      "antum": 5507,
      "ĠàŃ§àŃ®àŃ¬àŃ¦": 5508,
      "àŃĢ\",": 5509,
      "àŃ§àŃ¯àŃŃàŃ¯": 5510,
      "àŃ§àŃ§àŃ«": 5511,
      "àŃ§àŃ¯àŃ©àŃª": 5512,
      "Ġcontrol": 5513,
      "cience": 5514,
      "yelo": 5515,
      "à¬ĩà¬ľà¬°à¬²": 5516,
      "à¬ĩà¬¸à¬°àŃŁ": 5517,
      "Ġinhibitor": 5518,
      "30": 5519,
      "55": 5520,
      "Con": 5521,
      "cell": 5522,
      "eel": 5523,
      "ook": 5524,
      "rist": 5525,
      "yroid": 5526,
      "Î»": 5527,
      "Ġro": 5528,
      "Ġap": 5529,
      "Ġtem": 5530,
      "à¬°à¬¬à¬¸": 5531,
      "à¬°à¬ĸà¬¨": 5532,
      "à¬®à¬·": 5533,
      "à¬®à¬§à¬¨": 5534,
      "à¬²à¬¥": 5535,
      "à¬²à¬¶": 5536,
      "à¬¹à¬ł": 5537,
      "Ġà¬ªà¬ĩà¬¤": 5538,
      "à¬£à¬¶": 5539,
      "Ġà¬®à¬ĸ": 5540,
      "Ġà¬®à¬ĺ": 5541,
      "à¬ªà¬Łà¬°": 5542,
      "à¬ªà¬¸à¬°": 5543,
      "à¬³à¬£": 5544,
      "à¬³à¬ªà¬¥à¬°": 5545,
      "Ġà¬ıà¬Ļ": 5546,
      "à¬·à¬²à¬¤": 5547,
      "à¬¶à¬³à¬ķ": 5548,
      "à¬¡à¬ªà¬¤": 5549,
      "Ġà¬¨à¬¸": 5550,
      "Ġà¬°à¬ľà¬¸": 5551,
      "Ġà¬ĵà¬²à¬¨": 5552,
      "à¬Ĩà¬®à¬°": 5553,
      "à¬Ĩà¬¸à¬¨": 5554,
      "à¬Ĩà¬ªà¬£": 5555,
      "à¬Ľà¬ª": 5556,
      "à¬¼à¬¿)": 5557,
      "à¬¼à¬¿:": 5558,
      "Ġà¬ıà¬ķà¬¬": 5559,
      "âĢľ": 5560,
      "à¬¤à¬°à¬¸": 5561,
      "à¬°à¬ķà¬£": 5562,
      "à¬«à¬ķ": 5563,
      "Ġà¬«à¬¨à¬¯": 5564,
      "Ġà¬¡à¬Ĺà¬°": 5565,
      "à¬¾,(": 5566,
      "àŃĩàŃĸà¥¤": 5567,
      "àŃ©àŃ¦àŃ¦": 5568,
      "Ġà¬¸à¬°à¬ªà¬ŀ": 5569,
      "alt": 5570,
      "à¬¤à¬ķà¬¤": 5571,
      "Ġà¬Ķà¬¦": 5572,
      "à¬Łà¬ķà¬Ł": 5573,
      "orth": 5574,
      "Ġà¬Ĩà¬²à¬¡": 5575,
      "Ġà¬°à¬¥à¬Ľ": 5576,
      "à¬ĩà¬ķà¬²": 5577,
      "lect": 5578,
      "Ġpar": 5579,
      "Ġcoun": 5580,
      "à¬īà¬³à¬Ŀà¬°": 5581,
      "Ġà¬¨à¬°àŃ±": 5582,
      "ĠICC": 5583,
      "Ġind": 5584,
      "Ġà¬Ĳà¬°": 5585,
      "Ġà¬Ĳà¬ķ": 5586,
      "àŃį_)": 5587,
      "ticle": 5588,
      "emb": 5589,
      "ability": 5590,
      "depresant": 5591,
      "general": 5592,
      "upt": 5593,
      "ÉĻn": 5594,
      "ioid": 5595,
      "uble": 5596,
      "ĠàŃ§àŃ®àŃŃàŃ®": 5597,
      "àŃ§àŃ¯àŃ¯àŃ«": 5598,
      "àŃ§àŃ¯àŃ¬àŃ¦": 5599,
      "àŃ§àŃ¯àŃ¬àŃ©": 5600,
      "udine": 5601,
      "hyper": 5602,
      "hydro": 5603,
      "Ġhem": 5604,
      "Ġlevel": 5605,
      "Ġà¬ĨàŃŁà¬¤à¬¨à¬°": 5606,
      "Ġà¬Ńà¬°à¬£à¬ª": 5607,
      "antibiotics": 5608,
      "erculosis": 5609,
      "/,": 5610,
      "US": 5611,
      "calcium": 5612,
      "mic": 5613,
      "mit": 5614,
      "pe": 5615,
      "ser": 5616,
      "ÌĤ": 5617,
      "Ġover": 5618,
      "à¬¤à¬§": 5619,
      "à¬®à¬Ŀ": 5620,
      "à¬²à¬Ĺà¬¡": 5621,
      "à¬¹à¬¦à¬¨": 5622,
      "à¬¹à¬ķà¬Ļ": 5623,
      "à¥°": 5624,
      "à¬¦à¬ķà¬®": 5625,
      "à¬£à¬ķà¬°": 5626,
      "à¬ĩà¬ĸ": 5627,
      "à¬§à¬®à¬¨": 5628,
      "à¬§à¬¬à¬¨": 5629,
      "Ġà¬ĨàŃŁà¬¨": 5630,
      "à¬¼'": 5631,
      "à¬Ĩà¬²à¬ķ": 5632,
      "à¬łà¬ķà¬Ļ": 5633,
      "Ġà¬²à¬¹": 5634,
      "Ġà¬¥à¬°à¬ķ": 5635,
      "ĠàŃ¨àŃ¯àŃ®": 5636,
      "à¬¨à¬°à¬¸": 5637,
      "à¬°à¬£àŃŁ": 5638,
      "à¬¬à¬¸à¬ķ": 5639,
      "àŃĩàŃĸà¬¾": 5640,
      "à¬°à¬¥à¬Ļ": 5641,
      "ĠàŃ©àŃ¨àŃª": 5642,
      "ĠàŃ©àŃ¬àŃ¦": 5643,
      "anth": 5644,
      "anus": 5645,
      "Ġà¬ķà¬³à¬¹": 5646,
      "Ġà¬īà¬¦àŃŁà¬ª": 5647,
      "à¬§à¬°à¬ª": 5648,
      "à¬¡à¬³à¬®à¬£": 5649,
      "à¬³àŃŁà¬ł": 5650,
      "eros": 5651,
      "à¬¬à¬ķà¬¤": 5652,
      "Ġà¬ħà¬¸à¬¦": 5653,
      "Ġà¬Ĩà¬°à¬¡": 5654,
      "Ġà¬Ĩà¬²à¬ľ": 5655,
      "Ġà¬ıà¬®à¬¬": 5656,
      "Ġà¬¹à¬°à¬ļà¬£": 5657,
      "à¬§à¬¨à¬¦": 5658,
      "Ġà¬ıà¬¸à¬¸": 5659,
      "à¬°à¬«à¬¦": 5660,
      "Ġsulf": 5661,
      "ĠàŃ§àŃªàŃ«": 5662,
      "à¬¨à¬¬à¬¡": 5663,
      "à¬¥à¬³à¬¸": 5664,
      "ĠAward": 5665,
      "ĠMa": 5666,
      "ĠMeth": 5667,
      "Ġmar": 5668,
      "Ġpr": 5669,
      "Ġdo": 5670,
      "Ġ28": 5671,
      "oli": 5672,
      "Ġbirth": 5673,
      "Ġà¬ķà¬®à¬¨àŃ±": 5674,
      "Ġà¤ī": 5675,
      "ĠàŃ¦àŃ¨": 5676,
      "ardio": 5677,
      "Ġà¬ĩà¬°àŃ±": 5678,
      "ĠàŃ§àŃ®àŃ¬àŃ¨": 5679,
      "ensis": 5680,
      "àŃ§àŃ¯àŃŃàŃ©": 5681,
      "Ġ2013": 5682,
      "àŃ§àŃ¯àŃ¬àŃŃ": 5683,
      "Ġà¬īà¬®à¬°à¬ķ": 5684,
      "àŃ§àŃ§àŃ¦": 5685,
      "Ġtract": 5686,
      "achine": 5687,
      "Ġtransfusion": 5688,
      "à¬ľà¬®à¬¹à¬²": 5689,
      "à¬®à¬¦à¬¨à¬®": 5690,
      "ĠArea": 5691,
      ",_": 5692,
      ".,": 5693,
      "24": 5694,
      "HA": 5695,
      "Im": 5696,
      "Pro": 5697,
      "][": 5698,
      "by": 5699,
      "cl": 5700,
      "ey": 5701,
      "gram": 5702,
      "ios": 5703,
      "Ġ&": 5704,
      "Ġqu": 5705,
      "ĠÙħ": 5706,
      "à¬¨à¬§": 5707,
      "à¬¨à¬«": 5708,
      "à¬¤àŃŁà¬¨": 5709,
      "àŃģ/": 5710,
      "à¬¥à¬Ł": 5711,
      "à¬¶àŃ±": 5712,
      "à¬¶à¬ł": 5713,
      "Ġà¬ľà¬¬à¬°": 5714,
      "à¬ĸà¬Ļ": 5715,
      "à¬¼à¬¿_": 5716,
      "Ġà¬ªà¬°à¬³": 5717,
      "Ġà¬ıà¬ķà¬ķà¬¤": 5718,
      "ĠàŃ¨àŃ§àŃ«": 5719,
      "ĠàŃ¨àŃ§àŃ©": 5720,
      "ening": 5721,
      "à¬°à¬®à¬¸": 5722,
      "Ġà¬«à¬°à¬ķ": 5723,
      "Ġà¬¬à¬°à¬ľ": 5724,
      "à¬ħà¬ªà¬Ł": 5725,
      "Ġà¬Łà¬²": 5726,
      "à¬Ĩà¬°à¬¬": 5727,
      "à¬Ĩà¬°à¬Ĩà¬ĩ": 5728,
      "à¬¬à¬¨à¬§": 5729,
      "à¬¸à¬°à¬Ļ": 5730,
      "Ġà¬ĺà¬Ĺ": 5731,
      "à¬ĵà¬ıà¬¡": 5732,
      "Ġà¬¸à¬°à¬ĺà¬°": 5733,
      "à¬ĩà¬¨à¬ª": 5734,
      "à¬¤à¬ķà¬£": 5735,
      "Ġà¬§à¬°à¬¨": 5736,
      "Ġà¬ħà¬ķà¬¸": 5737,
      "ero": 5738,
      "ĠàŃªàŃ«àŃ¦": 5739,
      "arth": 5740,
      "à¬ªà¬ķà¬¥à¬¨": 5741,
      "âĢįàŃį": 5742,
      "Ġà¬Ĺà¬£à¬¶": 5743,
      "ĠàŃ§àŃ¨àŃŃ": 5744,
      "Ġà¬ħà¬£à¬²": 5745,
      "Ġà¬¬à¬³à¬¬à¬¤": 5746,
      "reg": 5747,
      "itr": 5748,
      "under": 5749,
      "Ġmi": 5750,
      "Ġà¬ħà¬¦à¬°à¬ķ": 5751,
      "izure": 5752,
      "ĠBe": 5753,
      "ĠàŃ¦àŃ§": 5754,
      "ĠNe": 5755,
      "ocial": 5756,
      "ĠàŃ§àŃ§àŃ¬": 5757,
      "genital": 5758,
      "àŃ§àŃ¯àŃ®àŃ«": 5759,
      "uct": 5760,
      "Ġvaccine": 5761,
      "Ġà¦¬": 5762,
      "illin": 5763,
      "Ġ2001": 5764,
      "Ġà¬Ĺà¬¹à¬£à¬°": 5765,
      "scious": 5766,
      "inflammatory": 5767,
      "à¤¼à¥Ģ": 5768,
      "NSAIDs": 5769,
      "genetic": 5770,
      "sciousnes": 5771,
      "%),": 5772,
      "67": 5773,
      "CT": 5774,
      "LL": 5775,
      "Sc": 5776,
      "fl": 5777,
      "iya": 5778,
      "ject": 5779,
      "lation": 5780,
      "Î¼": 5781,
      "ĠÌģ": 5782,
      "à¬¬à¬¬à¬¤": 5783,
      "Ġà¬ªà¬¥à¬ķ": 5784,
      "à¬¸à¬®à¬Ĺ": 5785,
      "à¬ĩà¬°à¬ķ": 5786,
      "à¬Ĺà¬ªà¬¤": 5787,
      "Ġà¬ħà¬¦à¬³": 5788,
      "Ġà¬ħà¬ĺà¬Łà¬£": 5789,
      "à¬§à¬¨à¬ķ": 5790,
      "Ġà¬¦à¬ĸ": 5791,
      "Ġà¬¤à¬°à¬Ń": 5792,
      "Ġà¬¶à¬°à¬£à¬ķ": 5793,
      "Ġà¬īà¬Ľ": 5794,
      "Ġà¬ļà¬ªà¬²": 5795,
      "ĠàŃ¨àŃ§àŃª": 5796,
      "à¬°à¬®à¬¬": 5797,
      "Ġà¬®à¬¹à¬ľ": 5798,
      "à¬°à¬£à¬ª": 5799,
      "à¬ħà¬ŀ": 5800,
      "à¬ħà¬¨à¬¸": 5801,
      "àŃ±à¬°à¬¬à¬°": 5802,
      "à¬°à¬¥à¬®à¬ķà¬°": 5803,
      "inus": 5804,
      "à¬·à¬£à¬¦": 5805,
      "à¬°à¬Ńà¬Ļ": 5806,
      "ons": 5807,
      "à¬ĩà¬Łà¬°à¬°": 5808,
      "Ġà¬¸à¬¨à¬¨": 5809,
      "à¬¬à¬³à¬®": 5810,
      "icin": 5811,
      "isa": 5812,
      "ise": 5813,
      "ĠàŃ§àŃ¦àŃ©": 5814,
      "ĠàŃ¬àŃ¦àŃ¦àŃ¦": 5815,
      "Ġà¬ķà¬¨à¬Ń": 5816,
      "à¬ªà¬¦à¬Ļ": 5817,
      "Ġser": 5818,
      "Ġà¬¸à¬¦à¬°à¬®": 5819,
      "chis": 5820,
      "Ġà¬®à¬¤à¬ª": 5821,
      "ĠCl": 5822,
      "ĠàŃ¨àŃ«àŃ¦àŃ¯": 5823,
      "ula": 5824,
      "Ġfood": 5825,
      "à¬¬à¬ªà¬²": 5826,
      "opathy": 5827,
      "ĠàŃ§àŃ®àŃ®àŃ©": 5828,
      "à¬ªà¬¬à¬Łà¬°": 5829,
      "à´¾": 5830,
      "áĢº": 5831,
      "àŃ§àŃ¯àŃ¬àŃ¯": 5832,
      "Ġsym": 5833,
      "à·Ĭ": 5834,
      "Ġà¬ħà¬łà¬°à¬¨à¬³": 5835,
      "ĠDevelopment": 5836,
      "AC": 5837,
      "Sup": 5838,
      "Tamil": 5839,
      "ez": 5840,
      "sw": 5841,
      "slow": 5842,
      "vitamin": 5843,
      "Ùİ": 5844,
      "Ġad": 5845,
      "à¬¤à¬ĭà¬¤": 5846,
      "àŃģàŃģ": 5847,
      "à¬¬à¬§à¬°": 5848,
      "àŃŁà¬ıà¬ķ": 5849,
      "à¬¹àŃ±": 5850,
      "Ġà¬ªà¬¤à¬°": 5851,
      "à¬¸à¬°à¬¤": 5852,
      "à¬¸à¬ķà¬°à¬¨": 5853,
      "à¬¥à¬ķà¬°": 5854,
      "Ġà¥¤âĢĿ": 5855,
      "à¬ªà¬ĩà¬¸": 5856,
      "à¬Łà¬²à¬Ļ": 5857,
      "à¬¶àŃŁà¬ķ": 5858,
      "Ġà¬¦à¬¦à¬°": 5859,
      "Ġà¬¦à¬¶à¬°": 5860,
      "à¬ļà¬Ļ": 5861,
      "à¬ļà¬³à¬¨": 5862,
      "Ġà¬Ńà¬ıà¬¸": 5863,
      "Ġà¬Ńà¬ľà¬¨à¬°": 5864,
      "Ġà¬ĵà¬¤": 5865,
      "Ġà¬ĵà¬ł": 5866,
      "Ġà¬ĵà¬Ńà¬°": 5867,
      "à¬ıà¬²à¬¬": 5868,
      "à¬ģ_": 5869,
      "Ġà¬ħà¬¨à¬¬à¬¸à¬°": 5870,
      "à¬ŀà¬¬": 5871,
      "à¬ŀà¬Ļ": 5872,
      "à¬°à¬®à¬¤": 5873,
      "à¬°à¬®àŃŁ": 5874,
      "àŃĩàŃĸ_": 5875,
      "ĠàŃ¨àŃ¦àŃŃ": 5876,
      "à¬īà¬¥à¬²": 5877,
      "Ġà¬ľà¬Ĺà¬ľ": 5878,
      "Ġà¬ķà¬³à¬Ļ": 5879,
      "aring": 5880,
      "à¬°à¬ªà¬ķ": 5881,
      "à¬Ĺà¬³à¬ª": 5882,
      "à¬¾à¬ģ_": 5883,
      "ĠàŃ§àŃ¨àŃ®": 5884,
      "Ġà¬¸à¬¹à¬°à¬Ĺ": 5885,
      "asal": 5886,
      "Ġstr": 5887,
      "ley": 5888,
      "àŃŁà¬£à¬¤": 5889,
      "à¦¸": 5890,
      "ĠCounc": 5891,
      "Ġcalcium": 5892,
      "Ġ26": 5893,
      "ipp": 5894,
      "trans": 5895,
      "irus": 5896,
      "ĠBh": 5897,
      "Ġà¤Ń": 5898,
      "à¬Ĺà¬łà¬¨à¬¦": 5899,
      "à¤¾,": 5900,
      "ĠWay": 5901,
      "Ġà¬Ľà¬ħà¬Ĺ": 5902,
      "à¬ĩà¬ªà¬°à¬Ł": 5903,
      "Ġkidney": 5904,
      "àŃ§àŃ¯àŃ«àŃª": 5905,
      "Ġà¬ħà¬¯à¬¥": 5906,
      "Ġalfa": 5907,
      "àŃ§àŃ¯àŃ¨àŃª": 5908,
      "ĠControl": 5909,
      "ĠâĢĭâĢĭà¥¤": 5910,
      "Ġyou": 5911,
      "Î¿ÏĤ": 5912,
      "vention": 5913,
      "piratory": 5914,
      "bination": 5915,
      "havior": 5916,
      "ectious": 5917,
      "ĠCouncil": 5918,
      "%,": 5919,
      "32": 5920,
      "47": 5921,
      "CH": 5922,
      "IT": 5923,
      "MA": 5924,
      "SD": 5925,
      "],": 5926,
      "_;": 5927,
      "my": 5928,
      "ras": 5929,
      "sodium": 5930,
      "Ġver": 5931,
      "àŃĩâĢĻ": 5932,
      "à¬¨à¬ĺ": 5933,
      "à¬¤à¬ĸà¬¤": 5934,
      "à¬ķà¬ŀ": 5935,
      "àŃģ),": 5936,
      "àŃģâĢĻ": 5937,
      "à¬²à¬Łà¬°": 5938,
      "à¥¤à¥¤": 5939,
      "à¬£à¬²": 5940,
      "Ġà¬®à¬īà¬³": 5941,
      "à¬ªà¬¬à¬°": 5942,
      "à¬ªà¬°à¬¤": 5943,
      "à¬Łà¬Ľà¬¤": 5944,
      "à¬ĩà¬«à¬³": 5945,
      "à¬³à¬ľàŃŁ": 5946,
      "Ġà¬ħà¬ķà¬°": 5947,
      "Ġà¬ħà¬ªà¬¨": 5948,
      "Ġà¬¨à¬°à¬ķ": 5949,
      "Ġà¬Ńà¬°à¬¤à¬°": 5950,
      "à¬Ńà¬ŀ": 5951,
      "Ġà¬Ĩà¬°à¬ķ": 5952,
      "Ġà¬¯à¬®à¬ľ": 5953,
      "à¬łà¬¤à¬®": 5954,
      "à¬¼à¬¿à¬Ĥ": 5955,
      "àŃŁà¬°à¬Ļ": 5956,
      "à¬°à¬®à¬¦": 5957,
      "Ġà¬¸à¬¹à¬ļà¬°": 5958,
      "Ġà¬§à¬¨à¬°": 5959,
      "à¬ĺà¬ľ": 5960,
      "à¬¤à¬®à¬£": 5961,
      "à¬°à¬¹à¬£à¬°": 5962,
      "ering": 5963,
      "ĠàŃ§àŃ®àŃ¦àŃª": 5964,
      "à¬Ĺà¬³à¬Ļ": 5965,
      "à¬ªà¬¦à¬®": 5966,
      "rem": 5967,
      "idosis": 5968,
      "ĠMon": 5969,
      "ĠPer": 5970,
      "oly": 5971,
      "Ġà¬Ĳà¬¨": 5972,
      "à¬¶à¬¨à¬°à¬Ļ": 5973,
      "ulti": 5974,
      "à¬¾\"à¥¤": 5975,
      "à¬Ĺà¬ªà¬¹à¬£": 5976,
      "ĠFr": 5977,
      "ĠWar": 5978,
      "tisue": 5979,
      "raz": 5980,
      "ĠàŃ©àŃ«àŃª": 5981,
      "astro": 5982,
      "à²¿": 5983,
      "mental": 5984,
      "Ġ2014": 5985,
      "Ġà¬ĹàŃŁà¬³à¬®": 5986,
      "Ġconsciousnes": 5987,
      "Ġjoint": 5988,
      "Ġà¬ĸà¬¨à¬¨à¬°": 5989,
      "Ġpregnancy": 5990,
      "entral": 5991,
      "Ð°Ð": 5992,
      "Ġà¬¸à¬¦à¬°à¬®à¬¹à¬ķ": 5993,
      "27": 5994,
      "46": 5995,
      "53": 5996,
      "Hy": 5997,
      "MD": 5998,
      "^{": 5999,
      "bar": 6000,
      "eter": 6001,
      "fric": 6002,
      "iti": 6003,
      "pr": 6004,
      "ux": 6005,
      "wh": 6006,
      "Ġed": 6007,
      "Ġà¬¾": 6008,
      "à¬¾âĢĮâĢĮ": 6009,
      "àŃĩâĢĮ": 6010,
      "à¬¨à¬¬à¬¤": 6011,
      "à¬ķà¬¸à¬Ļ": 6012,
      "à¬¬à¬ªà¬¤": 6013,
      "à¬®à¬°à¬°": 6014,
      "à¬²à¬ªà¬¤": 6015,
      "à¬¸à¬¯": 6016,
      "à¬¥à¬®à¬¨": 6017,
      "à¬£à¬ł": 6018,
      "à¬ªà¬¢": 6019,
      "à¬ĩà¬ļà¬°": 6020,
      "Ġà¬ħà¬¤à¬°": 6021,
      "à¬§à¬°à¬£": 6022,
      "à¬ľàŃŁà¬ķ": 6023,
      "Ġà¬¨àŃŁà¬¨": 6024,
      "Ġà¬¦à¬¦": 6025,
      "Ġà¬ľà¬ķ": 6026,
      "à¬Ńà¬ľ": 6027,
      "à¬¯à¬¬": 6028,
      "Ġà¬¤à¬¬": 6029,
      "à¬ıà¬ķà¬Ļ": 6030,
      "à¬ıà¬ıà¬¸": 6031,
      "Ġà¬Ĺà¬¦à¬°": 6032,
      "à¬Ĩà¬ļ": 6033,
      "Ġà¬ļà¬·": 6034,
      "à¬°à¬¤à¬¤": 6035,
      "à¬īà¬¨à¬°": 6036,
      "entric": 6037,
      "à¬ªà¬°à¬¸": 6038,
      "à¬Ĩà¬°à¬ª": 6039,
      "àŃįâĢĮ.": 6040,
      "ĠàŃ¨àŃ¦àŃ®": 6041,
      "Ġà¬īà¬ªà¬¶": 6042,
      "ĠàŃ©àŃ§àŃª": 6043,
      "Ġà¬īà¬¦à¬ľ": 6044,
      "Ġà¬¬à¬¨à¬ķ": 6045,
      "à¬³à¬ķà¬Ł": 6046,
      "ĠàŃ§àŃ®àŃ«àŃ¬": 6047,
      "à¬ĩà¬²à¬¸": 6048,
      "à¬ĩà¬²à¬ª": 6049,
      "à¤Ł": 6050,
      "à¬°à¬ªà¬Ł": 6051,
      "ĠàŃ§àŃ¦àŃŃ": 6052,
      "à¬¨à¬¸à¬®": 6053,
      "à¬°à¬ľà¬®": 6054,
      "Ġà¬¸à¬®àŃŁà¬ł": 6055,
      "rox": 6056,
      "roup": 6057,
      "à¬Ĺà¬®à¬¸": 6058,
      "Ġsurgery": 6059,
      "ĠàŃ§àŃŃàŃ«àŃ¦": 6060,
      "ĠàŃ§àŃ¯àŃ¦": 6061,
      "idd": 6062,
      "Ġà¬Ĺà¬ľà¬¬": 6063,
      "ĠIm": 6064,
      "Ġinter": 6065,
      "ĠàŃ¨àŃ¨àŃ¬": 6066,
      "ĠàŃ¨àŃ¬àŃ¦": 6067,
      "à¬¤à¬¸à¬°à¬°": 6068,
      "ĠTech": 6069,
      "Ġà¤µ": 6070,
      "Ġà¬Ĩà¬ªà¬£à¬®": 6071,
      "Ġà¬¨à¬Ĺà¬°à¬ł": 6072,
      "ĠRo": 6073,
      "à¬²à¬Ĺà¬ŀ": 6074,
      "à¬¦à¬¬à¬ľ": 6075,
      "à¬³à¬Ĺà¬ŀ": 6076,
      "nea": 6077,
      "neum": 6078,
      "à¬²à¬ķà¬°à¬Ļ": 6079,
      "Ġà¬īà¬ªà¬ķà¬°à¬£à¬Ĺ": 6080,
      "seizures": 6081,
      "Ø§ÙĨ": 6082,
      "ype": 6083,
      "ĠArch": 6084,
      "rosis": 6085,
      "Ġà¬Ĩà¬ĩà¬Łà¬®": 6086,
      "Ġcells": 6087,
      "à¦¼à¦¿": 6088,
      "à¬Ńà¬²à¬ªà¬®": 6089,
      "Ġgland": 6090,
      "ĠØ§ÙĦ": 6091,
      ")(": 6092,
      "..": 6093,
      ":-": 6094,
      "AS": 6095,
      "CM": 6096,
      "Hind": 6097,
      "ja": 6098,
      "krit": 6099,
      "nu": 6100,
      "pur": 6101,
      "port": 6102,
      "ua": 6103,
      "xx": 6104,
      "ÏĨ": 6105,
      "Ġå": 6106,
      "Ġà¬ŀ": 6107,
      "à¬ķà¬·": 6108,
      "à¬¬àŃŁ": 6109,
      "Ġà¬¸à¬¢": 6110,
      "à¬²à¬¸à¬°": 6111,
      "Ġà¬ªà¬Ĺà¬¡": 6112,
      "Ġà¬¬à¬¦à¬¨": 6113,
      "à¬Łà¬ĩà¬£": 6114,
      "à¬ĩà¬īà¬°": 6115,
      "à¬³à¬ļà¬¨": 6116,
      "à¬·à¬³": 6117,
      "à¬·à¬¥à¬°": 6118,
      "Ġà¬¨à¬Ĺà¬¦": 6119,
      "Ġà¬Ĩà¬£à¬¨": 6120,
      "Ġà¬Ĩà¬ľà¬ķ": 6121,
      "Ġà¬Ĩà¬Ĺà¬®à¬¨à¬°": 6122,
      "Ġà¬¤à¬®à¬¨": 6123,
      "à¬ıà¬¸à¬°": 6124,
      "Ġà¬¶à¬¬à¬¦": 6125,
      "à¬Ĩà¬Ĺà¬°": 6126,
      "Ġà¬²à¬ĸà¬¨": 6127,
      "Ġà¬ıà¬ķà¬Ĺ": 6128,
      "Ġà¬ıà¬ķà¬¬à¬°": 6129,
      "ĠàŃ¨àŃ§àŃ¬": 6130,
      "à¬ªà¬°à¬¬à¬°": 6131,
      "à¬«à¬³à¬¨": 6132,
      "àŃŁà¬ķà¬¬": 6133,
      "Ġà¬ľà¬¨à¬®à¬¤": 6134,
      "àŃĩàŃĹ,": 6135,
      "à¬ħà¬³à¬ķ": 6136,
      "ĠàŃ©àŃ§àŃ®": 6137,
      "ality": 6138,
      "à¬Ĺà¬²à¬ª": 6139,
      "à¬¬à¬¤à¬Ļ": 6140,
      "à¬°àŃŁà¬£": 6141,
      "Ġà¬ıà¬¸à¬ª": 6142,
      "ĠàŃ§àŃ¨àŃ©àŃ¬": 6143,
      "à¬ľàŃŁà¬¦": 6144,
      "à¬ľàŃŁà¬²à¬ķ": 6145,
      "à¬ªà¬¦à¬³à¬¨": 6146,
      "left": 6147,
      "ĠàŃ§àŃŃàŃŃ": 6148,
      "Ġà¬ħà¬ªà¬°à¬ª": 6149,
      "chlor": 6150,
      "ĠàŃ§àŃªàŃ©": 6151,
      "acet": 6152,
      "à¬Īà¬¶": 6153,
      "ĠAnd": 6154,
      "Ġmyelo": 6155,
      "omas": 6156,
      "Ġà¬¸à¬«à¬³à¬¤à¬®": 6157,
      "Ġthat": 6158,
      "Ġà¬Ĺà¬łà¬¬à¬¨": 6159,
      "Ġà¤¦": 6160,
      "Ġà¬ħà¬ľà¬Ĺà¬°": 6161,
      "ĠàŃ¦àŃ¬": 6162,
      "ĠàŃ¦àŃ¯": 6163,
      "Ġà¬Īà¬·à¬¤": 6164,
      "à¨¿": 6165,
      "ĠGreek": 6166,
      "àŃ§àŃ¯àŃŃàŃ¬": 6167,
      "à²¾": 6168,
      "coun": 6169,
      "anskrit": 6170,
      "ĠInternational": 6171,
      "azine": 6172,
      "áŀ¶": 6173,
      "ights": 6174,
      "à³Ĩ": 6175,
      "encephal": 6176,
      "à¬Ķà¬°à¬®à¬£": 6177,
      "ĠUnion": 6178,
      "Ġà¬¤à¬Łà¬¬à¬°": 6179,
      "CAO": 6180,
      "Ġà¬«à¬¸à¬«à¬°à¬¸": 6181,
      "tility": 6182,
      "breast": 6183,
      "Ġtime": 6184,
      "IATA": 6185,
      "Ġfluid": 6186,
      "eases": 6187,
      "ĠIsland": 6188,
      "99": 6189,
      "Hel": 6190,
      "IP": 6191,
      "Mar": 6192,
      "PC": 6193,
      "TC": 6194,
      "_{": 6195,
      "body": 6196,
      "diabe": 6197,
      "ied": 6198,
      "iop": 6199,
      "ks": 6200,
      "normal": 6201,
      "oo": 6202,
      "ÌĢ": 6203,
      "Ú©": 6204,
      "à¬°à¬ĸà¬°": 6205,
      "à¬°à¬ĺà¬°": 6206,
      "àŃĩâĢį": 6207,
      "àŃĩ\",": 6208,
      "à¬¨à¬Ŀ": 6209,
      "à¬¬à¬¢": 6210,
      "à¬¬à¬Ńà¬ķ": 6211,
      "à¬®à¬¹à¬°": 6212,
      "àŃŁà¬¦à¬ķ": 6213,
      "à¬¹à¬®à¬¨": 6214,
      "à¬¹à¬¬à¬¤": 6215,
      "à¥Ĥ": 6216,
      "àŃĢà¬Ĥ": 6217,
      "à¬£à¬¬à¬®": 6218,
      "Ġà¬®à¬³à¬°": 6219,
      "à¬ªà¬¤à¬¨": 6220,
      "à¬Łà¬ıà¬¨": 6221,
      "à¬ĩà¬®à¬°": 6222,
      "à¬ĩà¬ħà¬ķ": 6223,
      "à¬Ĺà¬·": 6224,
      "Ġà¬ıà¬¨à¬ķ": 6225,
      "Ġà¬ħà¬ī": 6226,
      "Ġà¬ħà¬Ĺà¬°": 6227,
      "à¬¶à¬¤à¬®": 6228,
      "à¬ľà¬ķà¬°": 6229,
      "Ġà¬¹à¬«": 6230,
      "Ġà¬¹à¬ĩà¬ľ": 6231,
      "Ġà¬ľà¬¬à¬²à¬ª": 6232,
      "Ġà¬Ńà¬¬à¬¤": 6233,
      "à¬Ńà¬¬à¬¨": 6234,
      "Ġà¬Ĺà¬¹à¬®": 6235,
      "à¬Ĩà¬°à¬ķ": 6236,
      "à¬ģ)": 6237,
      "Ġà¬ªà¬°à¬¨": 6238,
      "Ġà¬¸à¬®à¬¦": 6239,
      "âĢĶ": 6240,
      "à¬ªà¬°à¬¨": 6241,
      "à¬ªà¬°à¬·": 6242,
      "à¬°à¬£à¬¦": 6243,
      "Ġà¬Łà¬¨à¬¸": 6244,
      "à¬¬à¬¨à¬ļà¬°": 6245,
      "Ġà¬īà¬ªà¬®": 6246,
      "àŃŁà¬¤à¬ķ": 6247,
      "à¬ĵà¬«": 6248,
      "à¬¼à¬¾-": 6249,
      "ĠàŃ©àŃ¦àŃ«": 6250,
      "à¬®à¬ķà¬¥": 6251,
      "à¬¬à¬³à¬¦": 6252,
      "ĠàŃ§àŃ®àŃ§àŃ®": 6253,
      "icus": 6254,
      "Ġà¬Ĩà¬°à¬¬à¬°": 6255,
      "Ġà¬°à¬¥à¬Ĺ": 6256,
      "esoph": 6257,
      "Ġà¬ľà¬³à¬ľ": 6258,
      "Ġà¬Ĺà¬£à¬ªà¬°": 6259,
      "Ġà¬ĩà¬¨à¬Ń": 6260,
      "ĠàŃ§àŃ¨àŃ¯": 6261,
      "Ġà¬ħà¬£à¬¦": 6262,
      "à¦ľ": 6263,
      "Ġà¬¦à¬¶à¬¦": 6264,
      "ĠàŃ§àŃ©àŃª": 6265,
      "ama": 6266,
      "ĠSan": 6267,
      "Ġmal": 6268,
      "Ġà¬Ĩà¬ĩà¬¨à¬¤": 6269,
      "trac": 6270,
      "tox": 6271,
      "Ġà¬Ĺà¬łà¬¨à¬®": 6272,
      "ĠEd": 6273,
      "ĠEnglish": 6274,
      "osteroid": 6275,
      "ticular": 6276,
      "irc": 6277,
      "Ġà¬¹à¬ľà¬°à¬¤": 6278,
      "imab": 6279,
      "Ġlangu": 6280,
      "ope": 6281,
      "Ġ30": 6282,
      "ÉĻr": 6283,
      "ower": 6284,
      "àŃ§àŃ¯àŃŃàŃ«": 6285,
      "ĠàŃ§àŃ®àŃŃàŃ¬": 6286,
      "àŃ§àŃ¯àŃ¯àŃ§": 6287,
      "àŃ§àŃ¯àŃ¯àŃª": 6288,
      "Ġ86": 6289,
      "à´¿": 6290,
      "àŃ©àŃ©àŃ©": 6291,
      "àŃŁà¬Łà¬¨à¬°": 6292,
      "àŃ§àŃ¯àŃ©àŃŃ": 6293,
      "Ġchlor": 6294,
      "à¬ħà¬Ĺà¬·": 6295,
      "ĠàŃ§àŃ®àŃªàŃ¯": 6296,
      "à¬Ķà¬·à¬§": 6297,
      "bladder": 6298,
      "Ġunder": 6299,
      "tivity": 6300,
      "intest": 6301,
      "ibrill": 6302,
      "Ġinjury": 6303,
      "Ġbleeding": 6304,
      "atellite": 6305,
      "Ġsymptom": 6306,
      "ĠTechnology": 6307,
      "38": 6308,
      "En": 6309,
      "Ge": 6310,
      "My": 6311,
      "Na": 6312,
      "SE": 6313,
      "brain": 6314,
      "beta": 6315,
      "part": 6316,
      "tain": 6317,
      "Í¡": 6318,
      "Ïī": 6319,
      "àŃįâĢĻ": 6320,
      "à¬¨à¬¨à¬Ļ": 6321,
      "à¬¤à¬¬à¬²": 6322,
      "à¬ķà¬ıà¬¡": 6323,
      "àŃŁà¬³àŃŁ": 6324,
      "àŃŁà¬ªà¬¦": 6325,
      "à¬¦à¬¯": 6326,
      "à¬¦à¬²à¬°": 6327,
      "àŃĩà¬¾âĢĻ": 6328,
      "à¬£à¬Ľ": 6329,
      "à¬£à¬®àŃŁ": 6330,
      "à¬ĩà¬ħà¬Ľà¬¨": 6331,
      "Ġà¬ıà¬¦": 6332,
      "à¬§à¬¡": 6333,
      "à¬ľàŃŁà¬Ļ": 6334,
      "Ġà¬¹à¬¦": 6335,
      "Ġà¬ĵà¬¹à¬³": 6336,
      "à¬¯à¬ª": 6337,
      "Ġà¬Ĩà¬°à¬Ł": 6338,
      "à¬ıàŃŁ": 6339,
      "àŃ±à¬ªà¬°": 6340,
      "àŃ±àŃŁà¬ķ": 6341,
      "à¬Ĩà¬ŀ": 6342,
      "Ġà¬īà¬ĸ": 6343,
      "Ġà¬ļà¬°à¬ķ": 6344,
      "Ġà¬¥à¬³": 6345,
      "ĠàŃ¨àŃ§àŃŃ": 6346,
      "âĢĮàŃįâĢĮ": 6347,
      "à¬«à¬¨": 6348,
      "à¬«à¬¤": 6349,
      "Ġà¬¸à¬¹à¬§à¬°": 6350,
      "à¬°à¬¹à¬°à¬°": 6351,
      "àŃ®àŃ¦àŃ¦": 6352,
      "à¬¼à¬¾_": 6353,
      "ĠàŃ©àŃ§àŃ¨": 6354,
      "à¬ĥ,": 6355,
      "Ġà¬Ĩà¬¸à¬«": 6356,
      "ones": 6357,
      "Ġà¬Ķà¬·à¬§à¬ķ": 6358,
      "à¬Łà¬ķà¬Ĺ": 6359,
      "Ġà¬Ŀà¬²à¬ķ": 6360,
      "arp": 6361,
      "ĠàŃ§àŃ®àŃ«àŃ®": 6362,
      "Ġà¬ħà¬ªà¬ª": 6363,
      "Ġà¬ħà¬ªà¬Ł": 6364,
      "Ġà¬ľà¬³à¬ļà¬°": 6365,
      "à¬¬à¬¦à¬®": 6366,
      "ĠàŃ§àŃ«àŃŃ": 6367,
      "ĠàŃ§àŃ«àŃ¬": 6368,
      "Ġà¬¦à¬³à¬Ļ": 6369,
      "ĠàŃ§àŃ¨àŃ©": 6370,
      "à¬ķà¬°à¬£à¬¦": 6371,
      "aster": 6372,
      "ascular": 6373,
      "lear": 6374,
      "Ġà¬ħà¬¬à¬ľ": 6375,
      "Ġà¬ĭà¬·à¬°": 6376,
      "lom": 6377,
      "à¦Ĺ": 6378,
      "à¦ļ": 6379,
      "ĠàŃ§àŃ©àŃ«": 6380,
      "à¬®à¬²à¬Ļ": 6381,
      "ĠàŃ¯àŃ¦àŃ¦": 6382,
      "idae": 6383,
      "à¬Ĩà¬²à¬«": 6384,
      "ĠCo": 6385,
      "Ġpos": 6386,
      "Ġdu": 6387,
      "Ġà¬Ĺà¬Ľà¬²à¬¤": 6388,
      "Ġbacter": 6389,
      "ĠEth": 6390,
      "tica": 6391,
      "iron": 6392,
      "irst": 6393,
      "Ġà¬«à¬°àŃ±": 6394,
      "Ġà¤¤": 6395,
      "Ġà¬ıà¬¡àŃ±": 6396,
      "ĠàŃ§àŃ§àŃ§àŃ": 6397,
      "open": 6398,
      "àŃ¨àŃ¦àŃ§àŃŃ": 6399,
      "ĠWik": 6400,
      "nee": 6401,
      "ĠàŃ§àŃ®àŃ¬àŃŃ": 6402,
      "Ġvirus": 6403,
      "ĠàŃ§àŃ®àŃŃàŃ¨": 6404,
      "à¬¿',": 6405,
      "à°¿": 6406,
      "arty": 6407,
      "Ġ82": 6408,
      "ites": 6409,
      "ments": 6410,
      "Ġrec": 6411,
      "oxide": 6412,
      "Ġà¬·à¬¡à¬¯à¬¨": 6413,
      "Ġinflamm": 6414,
      "àŃ§àŃ§àŃª": 6415,
      "Ġdisorders": 6416,
      "ĠAmeric": 6417,
      "rowth": 6418,
      "ĠDisease": 6419,
      "Ġsulfate": 6420,
      ")âĢĿ": 6421,
      "05": 6422,
      "76": 6423,
      "83": 6424,
      "IG": 6425,
      "da": 6426,
      "diet": 6427,
      "ele": 6428,
      "ful": 6429,
      "gu": 6430,
      "hist": 6431,
      "line": 6432,
      "life": 6433,
      "oÊĬ": 6434,
      "ral": 6435,
      "tl": 6436,
      "tub": 6437,
      "tension": 6438,
      "uËĲ": 6439,
      "worm": 6440,
      "Øª": 6441,
      "ĠàŃį": 6442,
      "à¬¨à¬§à¬°": 6443,
      "à¬¨à¬®à¬¸": 6444,
      "à¬ķà¬³à¬ķ": 6445,
      "à¬¬à¬ĺ": 6446,
      "à¬¬à¬¹à¬¤": 6447,
      "à¬¬à¬Ĺà¬£à¬Ļ": 6448,
      "à¬®à¬¤à¬°": 6449,
      "à¬®à¬ªà¬¤": 6450,
      "Ġà¬¸à¬§à¬¬": 6451,
      "à¬¸à¬¥": 6452,
      "à¬¥à¬¹": 6453,
      "Ġà¬¬à¬°à¬®": 6454,
      "à¬£à¬¦à¬£": 6455,
      "à¬Ĺà¬¬à¬³": 6456,
      "à¬¶à¬ļà¬¨": 6457,
      "à¬§à¬ļà¬¨": 6458,
      "à¬ľà¬ıà¬Ł": 6459,
      "Ġà¬¨à¬Łà¬°": 6460,
      "Ġà¬¹à¬ľà¬ķ": 6461,
      "à¬ļà¬°à¬¥": 6462,
      "Ġà¬ľà¬¸": 6463,
      "à¬¼à¥¤": 6464,
      "Ġà¬¶à¬¬à¬ķ": 6465,
      "à¬ĨàŃ±": 6466,
      "à¬Ĩà¬³à¬ķ": 6467,
      "Ġà¬¯à¬ıà¬·": 6468,
      "Ġà¬ļàŃŁ": 6469,
      "Ġà¬²à¬īà¬¡": 6470,
      "àŃŁà¬°à¬ķ": 6471,
      "àŃŁà¬°à¬ļà¬¨": 6472,
      "ĠàŃ¨àŃ§àŃ¦": 6473,
      "à¬¤à¬°à¬³": 6474,
      "àŃ±à¬°à¬¨": 6475,
      "à¬¬à¬¨à¬¨": 6476,
      "ĠàŃ¨àŃ¦àŃª": 6477,
      "à¬¶à¬¨à¬¶": 6478,
      "à¬ĵà¬Ĩà¬ķ": 6479,
      "à¬ľà¬°à¬Ń": 6480,
      "ĠàŃ©àŃ§àŃ¬": 6481,
      "Ġà¬Ķà¬°à¬¸": 6482,
      "Ġà¬¸à¬¬à¬³": 6483,
      "eria": 6484,
      "arco": 6485,
      "ĠàŃ§àŃ®àŃªàŃ«": 6486,
      "Ġà¬Ĩà¬°à¬ıà¬ļ": 6487,
      "à¤§": 6488,
      "ĠàŃ§àŃ¦àŃ¯": 6489,
      "à¬°à¬¶à¬ķ": 6490,
      "à¬¸à¬²à¬¬": 6491,
      "à¬¬à¬¦à¬ķ": 6492,
      "Ġà¬Ĺà¬£à¬¹à¬¤": 6493,
      "ĠàŃ§àŃ¨àŃ¬": 6494,
      "astric": 6495,
      "Ġà¬¬à¬³à¬Ļ": 6496,
      "usea": 6497,
      "Ġà¬¦à¬¶à¬Ń": 6498,
      "ĠServ": 6499,
      "ĠSatellite": 6500,
      "Ġmem": 6501,
      "Ġ:-": 6502,
      "ĠPres": 6503,
      "à¬Ńà¬ķà¬²": 6504,
      "olism": 6505,
      "Ġà¬Ĩà¬ĩà¬Ĩà¬ĩà¬Ł": 6506,
      "Ġà¬¬à¬£à¬ķ": 6507,
      "Ġfl": 6508,
      "agnes": 6509,
      "ĠTem": 6510,
      "istant": 6511,
      "Ġà¬ľàŃŁà¬¯": 6512,
      "àŃ¨àŃ¦àŃ©": 6513,
      "Ġà¬ªà¬²à¬ī": 6514,
      "Ġno": 6515,
      "Ġlife": 6516,
      "ants": 6517,
      "plas": 6518,
      "Ġà¦ļ": 6519,
      "à²°": 6520,
      "à´°": 6521,
      "Ġare": 6522,
      "Ġ2010": 6523,
      "que": 6524,
      "àŃ§àŃ¯àŃ©àŃ©": 6525,
      "erson": 6526,
      "spec": 6527,
      "viron": 6528,
      "Ġà¬Ĩà¬¬à¬°à¬£à¬°": 6529,
      "Ġà¬¨à¬ľà¬°à¬°": 6530,
      "à±ģ": 6531,
      "bleeding": 6532,
      "ĠTrans": 6533,
      "ĠâĢĿ,": 6534,
      "à¬¶à¬§à¬°à¬®": 6535,
      "penic": 6536,
      "ĠIUCN": 6537,
      "'à¥¤": 6538,
      "/-": 6539,
      "40": 6540,
      "45": 6541,
      "Is": 6542,
      "PR": 6543,
      "_,": 6544,
      "birth": 6545,
      "car": 6546,
      "dose": 6547,
      "joint": 6548,
      "ky": 6549,
      "mer": 6550,
      "tus": 6551,
      "Ä±": 6552,
      "Ġæ": 6553,
      "Ġep": 6554,
      "à¬°à¬ĵ": 6555,
      "à¬¤à¬¬à¬¸": 6556,
      "à¬ķà¬ªà¬°": 6557,
      "à¬ķà¬¸à¬®": 6558,
      "à¬¬à¬²à¬°": 6559,
      "àŃŁà¬¸à¬Ļ": 6560,
      "àŃŁà¬ªà¬¦à¬ķ": 6561,
      "Ġà¬¸à¬Ĺà¬°": 6562,
      "Ġà¬ķà¬ľ": 6563,
      "Ġà¬ķà¬Łà¬¨": 6564,
      "Ġà¬ªà¬¯": 6565,
      "àŃĢâĢĿ": 6566,
      "à¬¥à¬ľ": 6567,
      "à¬¥à¬¨à¬Ļ": 6568,
      "Ġà¬¬à¬²à¬°": 6569,
      "à¬£à¬§": 6570,
      "à¬Łà¬¬à¬°": 6571,
      "à¬ĩà¬°à¬¨": 6572,
      "à¬¶à¬¤à¬ķ": 6573,
      "à¬¶à¬Ĺà¬Ļ": 6574,
      "à¬§à¬ªà¬°": 6575,
      "Ġà¬¨à¬ħà¬Ĺ": 6576,
      "Ġà¬¹à¬¡": 6577,
      "Ġà¬ĵà¬¢": 6578,
      "Ġà¬Ĩà¬³à¬°": 6579,
      "Ġà¬Ĩà¬Ĺà¬¨": 6580,
      "à¬¼/": 6581,
      "Ġà¬²à¬Ł": 6582,
      "Ġà¬ıà¬ķà¬ļ": 6583,
      "Ġà¬ıà¬ķà¬ķà¬°": 6584,
      "Ġà¬ıà¬ķà¬¶à¬¤": 6585,
      "âĢİ": 6586,
      "à¬ªà¬°à¬ľ": 6587,
      "Ġà¬ľà¬£à¬ķà¬°": 6588,
      "Ġà¬®à¬¹à¬¸": 6589,
      "à¬°à¬£à¬¬à¬¶à¬¤": 6590,
      "à¬Łà¬°à¬Ĺ": 6591,
      "Ġà¬Łà¬²à¬·": 6592,
      "Ġà¬Ľà¬¤à¬°": 6593,
      "à¬°à¬¬à¬£à¬°": 6594,
      "ered": 6595,
      "ĠàŃªàŃ¨àŃ¦": 6596,
      "ĠàŃ§àŃ®àŃ¨": 6597,
      "ĠàŃ§àŃ®àŃ©àŃ®": 6598,
      "à¬ķà¬®à¬³": 6599,
      "à¬Ĩà¬¨à¬¨": 6600,
      "ĠàŃ§àŃ«àŃª": 6601,
      "Ġà¬ħà¬®à¬Ļ": 6602,
      "Ġà¬ķà¬¨à¬«": 6603,
      "Ġà¬ĺà¬°à¬ļà¬Ł": 6604,
      "ĠàŃ§àŃŃàŃª": 6605,
      "Ġà¬¬à¬³à¬¬": 6606,
      "ĠàŃ§àŃ©àŃ§": 6607,
      "Ġà¬ħà¬³à¬¸": 6608,
      "ĠPe": 6609,
      "Ġcord": 6610,
      "Ġdrug": 6611,
      "à¬®à¬¹à¬®": 6612,
      "urs": 6613,
      "ĠICAO": 6614,
      "à¬ªà¬¸à¬¨à¬°": 6615,
      "à¬°à¬®à¬°à¬¬à¬°": 6616,
      "ĠDes": 6617,
      "ape": 6618,
      "abor": 6619,
      "abine": 6620,
      "Ġà¬ļà¬°à¬£à¬Ļ": 6621,
      "à¬īà¬¨à¬²": 6622,
      "à¬ľà¬Ĺà¬¤à¬°": 6623,
      "ËĪt": 6624,
      "à¬°à¬ľà¬¨à¬¨à¬ķ": 6625,
      "Ġà¦®": 6626,
      "àŃ§àŃ¯àŃŃàŃª": 6627,
      "Ġà¬ħà¬ĸà¬¤": 6628,
      "àŃĩ-âĢĺ": 6629,
      "Ġele": 6630,
      "Ġà¬®à¬¦à¬¨à¬²": 6631,
      "ived": 6632,
      "Ġ2008": 6633,
      "ovir": 6634,
      "áŀļ": 6635,
      "plex": 6636,
      "logy": 6637,
      "ĠØ¨": 6638,
      "Ġà¬§à¬¬à¬³à¬®": 6639,
      "à¬¨à¬ħà¬°à¬ł": 6640,
      "rocod": 6641,
      "Ġblockers": 6642,
      "annel": 6643,
      "ĠSchool": 6644,
      "havioral": 6645,
      "48": 6646,
      "Cà¬°": 6647,
      "IPA": 6648,
      "OD": 6649,
      "go": 6650,
      "han": 6651,
      "mar": 6652,
      "ril": 6653,
      "sà¬°": 6654,
      "ule": 6655,
      "yes": 6656,
      "Ì§": 6657,
      "Ìĥ": 6658,
      "Î¸": 6659,
      "à«": 6660,
      "Ġend": 6661,
      "Ġits": 6662,
      "àŃįà¬Ĥ": 6663,
      "à¬¤à¬Ĺà¬£à¬Ļ": 6664,
      "à¬¬à¬§à¬¨": 6665,
      "à¬®à¬®à¬¤": 6666,
      "Ġà¬¸à¬°à¬¦": 6667,
      "à¬¹à¬ľà¬ķ": 6668,
      "Ġà¬¬à¬°à¬°": 6669,
      "Ġà¬®à¬¦à¬°": 6670,
      "à¬ªà¬¸à¬®": 6671,
      "à¬Łà¬¬à¬¸": 6672,
      "à¬Ĺà¬ľà¬ķ": 6673,
      "Ġà¬ıà¬ıà¬¸à¬ıà¬²à¬Ń": 6674,
      "à¬¶à¬Ńà¬ķ": 6675,
      "à¬¡à¬°à¬Ļ": 6676,
      "à¬§à¬ľ": 6677,
      "Ġà¬¹à¬°à¬¦": 6678,
      "Ġà¬¦à¬³à¬¨": 6679,
      "Ġà¬¦à¬¹à¬¨": 6680,
      "à¬ļà¬ł": 6681,
      "à¬Ńà¬°à¬°": 6682,
      "Ġà¬Ĩà¬ªà¬°": 6683,
      "Ġà¬Ĩà¬ªà¬¨": 6684,
      "à¬ıà¬®à¬¸": 6685,
      "Ġà¬¶à¬°à¬¤à¬ķ": 6686,
      "à¬Ľà¬ī": 6687,
      "Ġà¬ĸà¬¤": 6688,
      "Ġà¬¸à¬¹à¬¬à¬¨": 6689,
      "Ġà¬ĩà¬ħà¬°": 6690,
      "Ġà¬§à¬¬à¬¨": 6691,
      "à¬ħà¬¬à¬¦": 6692,
      "Ġà¬ħà¬§à¬¸": 6693,
      "à¬Łà¬°à¬ª": 6694,
      "Ġà¬Łà¬¸à¬°": 6695,
      "à¬Ĩà¬°à¬Ł": 6696,
      "Ġà¬Ľà¬ķà¬¡": 6697,
      "à¬ĺà¬Łà¬¨": 6698,
      "Ġà¬ĺà¬°à¬£": 6699,
      "Ġà¬ĺà¬Łà¬¨": 6700,
      "Ġà¬ħà¬Łà¬ķà¬³": 6701,
      "à¬°à¬¦à¬£": 6702,
      "inn": 6703,
      "à¬¿à¬ģ-": 6704,
      "à¬¼à¬¾)": 6705,
      "à¬°à¬¹à¬£à¬ķà¬°": 6706,
      "ĠàŃ©àŃ¦àŃŃ": 6707,
      "ĠàŃ©àŃ¦àŃ®": 6708,
      "Ġà¬īà¬ªà¬°à¬ł": 6709,
      "titis": 6710,
      "à¬ĩà¬¨à¬ķ": 6711,
      "Ġà¬ľà¬Ĺà¬¸": 6712,
      "à¬ĩà¬Łà¬ķ": 6713,
      "à¬°à¬¨à¬Ĺà¬°": 6714,
      "aria": 6715,
      "Ġà¬Ĩà¬²à¬Ń": 6716,
      "à¤Ń": 6717,
      "Ġà¬ķà¬¬à¬ľ": 6718,
      "à¬ªà¬ķà¬³": 6719,
      "à¬°à¬¶à¬¹": 6720,
      "Ġà¬ľà¬³à¬ªà¬¥": 6721,
      "à¬¬à¬¦à¬¤": 6722,
      "Ġà¬ĩà¬¨à¬ª": 6723,
      "ĠàŃ±à¬ľ": 6724,
      "à¬ľàŃŁà¬¶": 6725,
      "asa": 6726,
      "ĠàŃ§àŃ¬àŃª": 6727,
      "retro": 6728,
      "Ġà¬ħà¬«à¬¸": 6729,
      "àŃŁà¬£à¬ª": 6730,
      "che": 6731,
      "ĠàŃ§àŃªàŃ§": 6732,
      "à¬Īà¬ķ": 6733,
      "à¬Īà¬«": 6734,
      "ĠSp": 6735,
      "ĠSw": 6736,
      "ĠMal": 6737,
      "ĠMachine": 6738,
      "Ġmy": 6739,
      "Ġmouth": 6740,
      "ĠCO": 6741,
      "Ġpap": 6742,
      "Ġpotasium": 6743,
      "Ġà¬«à¬³à¬®": 6744,
      "ump": 6745,
      "ĠEm": 6746,
      "elf": 6747,
      "ĠHT": 6748,
      "ĠDo": 6749,
      "ĠDay": 6750,
      "ira": 6751,
      "Ġà¬Ĺà¬¡à¬¸": 6752,
      "phosph": 6753,
      "Ġà¬ªà¬¥à¬°à¬ķ": 6754,
      "Ġà¬Ĩà¬łà¬Ĺ": 6755,
      "ĠNH": 6756,
      "à¬īà¬¸à¬Ĺ": 6757,
      "ardia": 6758,
      "avid": 6759,
      "otonin": 6760,
      "ĠàŃ©àŃ¨àŃ¬": 6761,
      "Ġà¦¸": 6762,
      "à¬ĩà¬ªà¬°à¬¥": 6763,
      "Ġ2012": 6764,
      "Ġkilo": 6765,
      "spinal": 6766,
      "Ġà¬ķà¬¨à¬ķà¬²à¬¤": 6767,
      "ĠUnited": 6768,
      "ĠSocial": 6769,
      "à¬ľàŃŁà¬¨à¬Ĺà¬°": 6770,
      "Ġ1990": 6771,
      "echan": 6772,
      "Ġhttps": 6773,
      "Ġblocker": 6774,
      "electro": 6775,
      "ecreased": 6776,
      "Ġartery": 6777,
      "diabetic": 6778,
      "dietary": 6779,
      "agnesium": 6780,
      "72": 6781,
      "Dev": 6782,
      "MI": 6783,
      "PH": 6784,
      "Tr": 6785,
      "aine": 6786,
      "ee": 6787,
      "fol": 6788,
      "hal": 6789,
      "iam": 6790,
      "lÉĻ": 6791,
      "mia": 6792,
      "oon": 6793,
      "oot": 6794,
      "py": 6795,
      "sal": 6796,
      "sch": 6797,
      "sub": 6798,
      "tle": 6799,
      "uation": 6800,
      "urop": 6801,
      "vis": 6802,
      "ves": 6803,
      "way": 6804,
      "ÏĦ": 6805,
      "ĠÂ°": 6806,
      "à¬¾!": 6807,
      "à¬°à¬¨à¬°": 6808,
      "à¬¤à¬¸à¬¬": 6809,
      "à¬¤à¬ªà¬¡": 6810,
      "à¬ķà¬ĺà¬°": 6811,
      "àŃģ!": 6812,
      "à¬¬à¬Ĺà¬Ļ": 6813,
      "à¬®à¬£à¬°": 6814,
      "à¬²à¬Ńà¬°": 6815,
      "à¬¹à¬£à¬°": 6816,
      "Ġà¬ªà¬¸": 6817,
      "à¬¸à¬Łà¬¨": 6818,
      "à¬¦à¬ļà¬¨": 6819,
      "à¬¦à¬ªà¬Ł": 6820,
      "à¬£à¬¹à¬¸": 6821,
      "Ġà¬®à¬īà¬ľ": 6822,
      "Ġà¬®à¬¦à¬°à¬¬": 6823,
      "à¬ªà¬ķà¬°": 6824,
      "à¬Łà¬²à¬°": 6825,
      "à¬³à¬Ĺà¬Ļ": 6826,
      "à¬ľà¬°à¬°": 6827,
      "à¬ľà¬³à¬°": 6828,
      "Ġà¬Ĺà¬Ĺà¬¨": 6829,
      "Ġà¬¶à¬°à¬¦": 6830,
      "à¬Ľà¬³": 6831,
      "Ġà¬ħà¬¨à¬¬à¬¦": 6832,
      "à¬īàŃŁà¬°": 6833,
      "Ġà¬®à¬¨à¬¬": 6834,
      "àŃįâĢĮ\"": 6835,
      "Ġà¬ĺà¬ľ": 6836,
      "Ġà¬ĺà¬Łà¬ķ": 6837,
      "à¬¿,(": 6838,
      "à¬·à¬£à¬Ĺ": 6839,
      "Ġà¬Ĩà¬¦à¬®": 6840,
      "à¬īà¬¥à¬¬": 6841,
      "à¬°à¬¬à¬ļà¬¨": 6842,
      "ald": 6843,
      "à¬Ĺà¬²à¬Ļ": 6844,
      "à¬Ĺà¬²à¬ľ": 6845,
      "era": 6846,
      "erm": 6847,
      "à¬¬à¬³à¬Ļ": 6848,
      "Ġà¬Ŀà¬Ĺà¬¡": 6849,
      "arum": 6850,
      "ĠàŃ§àŃ®àŃ«àŃ«": 6851,
      "Ġà¬ħà¬¸à¬¤": 6852,
      "orph": 6853,
      "thritis": 6854,
      "Ġà¬ķà¬¬à¬ļ": 6855,
      "ĠàŃ§àŃ¦àŃ¨": 6856,
      "Ġà¬ıà¬®à¬«": 6857,
      "ĠàŃ§àŃ«àŃ©": 6858,
      "ĠàŃ§àŃ«àŃ®": 6859,
      "Ġà¬ľà¬¨à¬¸à¬ļ": 6860,
      "Ġà¬¦à¬³à¬Ĺ": 6861,
      "Ġà¬ķà¬¨à¬ķà¬®": 6862,
      "asi": 6863,
      "asp": 6864,
      "à¬°à¬§à¬°à¬Ļ": 6865,
      "ĠàŃ§àŃŃàŃ§": 6866,
      "Ġà¬®à¬°à¬¶à¬°": 6867,
      "à¦Ł": 6868,
      "à¬·àŃŁà¬Ĺ": 6869,
      "ĠSA": 6870,
      "ĠComp": 6871,
      "hea": 6872,
      "ĠPre": 6873,
      "urine": 6874,
      "uma": 6875,
      "à¬§à¬¬à¬Ĺà¬¡": 6876,
      "ĠàŃ¨àŃŃàŃª": 6877,
      "osup": 6878,
      "odies": 6879,
      "Ġà¬¬à¬£à¬ľà¬Ļ": 6880,
      "à¬ķà¬¸à¬¨à¬°": 6881,
      "ĠàŃ¨àŃ¬àŃ«": 6882,
      "Ġfunction": 6883,
      "Ġà¬ħà¬¹à¬°à¬¹": 6884,
      "Ġà¤ħ": 6885,
      "Ġà¬ªà¬Ľà¬ĺ": 6886,
      "à¬ļà¬°à¬£à¬Ļ": 6887,
      "àŃ§àŃ«àŃ¦": 6888,
      "ime": 6889,
      "ĠNav": 6890,
      "glyc": 6891,
      "ĠOrisa": 6892,
      "ional": 6893,
      "Ġ31": 6894,
      "Ġtoxic": 6895,
      "Ġà¬ıà¬ļà¬ª": 6896,
      "ĠàŃ§àŃ®àŃ¬àŃ©": 6897,
      "ĠàŃ©àŃ«àŃŃ": 6898,
      "àŃ§àŃ¯àŃ®àŃ©": 6899,
      "ĠàŃ©àŃ¨àŃ©": 6900,
      "ĠàŃ§àŃ®àŃŃàŃ©": 6901,
      "Ġ84": 6902,
      "ella": 6903,
      "áĢĻ": 6904,
      "Ġà¬ħà¬®à¬°à¬¨": 6905,
      "àŃ§àŃ¯àŃ¬àŃ®": 6906,
      "ences": 6907,
      "à¬°à¬Ľà¬¦à¬ªà¬Ł": 6908,
      "àŃ§àŃ¯àŃ«àŃ©": 6909,
      "Ġhead": 6910,
      "Ġ72": 6911,
      "International": 6912,
      "Ġà¬¸à¬®à¬¤à¬³à¬°": 6913,
      "presion": 6914,
      "ternal": 6915,
      "à·ı": 6916,
      "àŃ¨àŃ¦àŃ¨àŃ§": 6917,
      "Ġà¬¹à¬³à¬§à¬°": 6918,
      "Ġà¬ĨàŃŁà¬°à¬²": 6919,
      "III": 6920,
      "ĠAsoc": 6921,
      "break": 6922,
      "ĠLeague": 6923,
      "Ġà¬ıà¬Ĩà¬ĩà¬ıà¬«": 6924,
      "Ġimmunoglob": 6925,
      "ĠCollege": 6926,
      "ĠBlack": 6927,
      "ript": 6928,
      "à¬¨à¬ħà¬°à¬ķ": 6929,
      "ĠWayback": 6930,
      "ĠArchived": 6931,
      "02": 6932,
      "85": 6933,
      "TE": 6934,
      "UN": 6935,
      "];": 6936,
      "bu": 6937,
      "fre": 6938,
      "face": 6939,
      "ki": 6940,
      "lip": 6941,
      "och": 6942,
      "pan": 6943,
      "tack": 6944,
      "vul": 6945,
      "wal": 6946,
      "xed": 6947,
      "Åĭ": 6948,
      "ÊĮ": 6949,
      "Ġit": 6950,
      "àŃĩ?": 6951,
      "à¬¨à¬°à¬®": 6952,
      "à¬ķà¬«": 6953,
      "à¬ķà¬®à¬¨": 6954,
      "àŃģ',": 6955,
      "àŃŁà¬¸à¬°": 6956,
      "àŃŁà¬¤à¬¨": 6957,
      "à¬²à¬®à¬£": 6958,
      "à¬²à¬ªà¬ķ": 6959,
      "à¬¹à¬²à¬¤": 6960,
      "à¬¥à¬ķà¬Ļ": 6961,
      "àŃĩà¬¾.": 6962,
      "àŃĩà¬¾âĢĮ": 6963,
      "à¬ªà¬Ń": 6964,
      "à¬ªà¬£à¬¨": 6965,
      "à¬ªà¬Ĺà¬¡": 6966,
      "à¬Łà¬Ľ": 6967,
      "à¬Łà¬ªà¬¦": 6968,
      "à¬ĹàŃŁ": 6969,
      "à¬Ĺà¬°à¬£à¬°": 6970,
      "à¬·à¬ªà¬°": 6971,
      "à¬¶à¬°à¬°": 6972,
      "à¬¡à¬¯": 6973,
      "à¬§à¬Ł": 6974,
      "Ġà¬¹à¬¬à¬²": 6975,
      "Ġà¬ľàŃŁà¬¸": 6976,
      "à¬Ńà¬°à¬£": 6977,
      "à¬¯à¬¬à¬¸": 6978,
      "Ġà¬Ĩà¬¯": 6979,
      "Ġà¬Ĩà¬ĩà¬°": 6980,
      "à¬ĸà¬Ń": 6981,
      "Ġà¬¯à¬ī": 6982,
      "à¬°à¬¤à¬Ļ": 6983,
      "Ġà¬ıà¬ķà¬Ľà¬¤": 6984,
      "à¬īà¬ŃàŃŁ": 6985,
      "ĠàŃ¨àŃ¯àŃ«": 6986,
      "ĠàŃ¨àŃ¯àŃ¨": 6987,
      "à¬ªà¬°à¬«": 6988,
      "Ġà¬®à¬¹à¬°à¬£": 6989,
      "Ġà¬ĩàŃŁ": 6990,
      "Ġà¬ĩà¬Ĺ": 6991,
      "Ġà¬ĩà¬·à¬¤": 6992,
      "à¬Łà¬°à¬²": 6993,
      "à¬Łà¬°à¬¦": 6994,
      "àŃ¨àŃ«àŃ¦": 6995,
      "à¬¤à¬¨à¬¬": 6996,
      "Ġà¬īà¬ªà¬®à¬¨": 6997,
      "à¬¼à¬¾à¬¼": 6998,
      "ĠàŃ©àŃ§àŃ¦": 6999,
      "ĠàŃ©àŃ©àŃ¦": 7000,
      "Ġà¬¸à¬°à¬³à¬°": 7001,
      "à¬ĩà¬Łà¬¸": 7002,
      "eration": 7003,
      "ĠàŃ§àŃ®àŃ©àŃ¦": 7004,
      "ĠàŃ§àŃ®àŃ«àŃ¦": 7005,
      "Ġà¬ħà¬¸à¬Ļ": 7006,
      "ĠâĢ¢": 7007,
      "à¤¥": 7008,
      "à¤³": 7009,
      "then": 7010,
      "à¬Ĺà¬³à¬®": 7011,
      "à¬ķà¬³à¬¨à¬°": 7012,
      "Ġà¬ľà¬³à¬®à¬Ĺ": 7013,
      "ĠàŃ§àŃ«àŃ«": 7014,
      "ĠàŃ§àŃ¬àŃ¬": 7015,
      "ĠàŃ§àŃ¬àŃ¨àŃ¨": 7016,
      "reen": 7017,
      "rect": 7018,
      "reptom": 7019,
      "Ġà¬ħà¬«à¬°": 7020,
      "Ġà¬īà¬ŃàŃŁà¬°": 7021,
      "à¦¹": 7022,
      "ĠàŃ§àŃ©àŃŃ": 7023,
      "ame": 7024,
      "acin": 7025,
      "ĠScience": 7026,
      "Ġmic": 7027,
      "Ġcan": 7028,
      "Ġbowel": 7029,
      "ilm": 7030,
      "ĠIN": 7031,
      "toxic": 7032,
      "ĠàŃ¨àŃ¨àŃ«": 7033,
      "ĠàŃ¨àŃ¨àŃª": 7034,
      "eli": 7035,
      "osaurus": 7036,
      "Ġft": 7037,
      "agon": 7038,
      "Ġà¬ħà¬¹à¬Ļ": 7039,
      "adem": 7040,
      "Ġà¬ľàŃŁà¬¶": 7041,
      "àŃ§àŃ¦àŃ¦àŃ¦": 7042,
      "Ġà¬ıà¬¨à¬ıà¬¸": 7043,
      "àŃ§àŃ¨àŃŃàŃ®": 7044,
      "ĠàŃ¨àŃ¯àŃ¦": 7045,
      "dex": 7046,
      "à®©": 7047,
      "à®²": 7048,
      "Ġ193": 7049,
      "Ġhormone": 7050,
      "ĠàŃ§àŃ§àŃ¯àŃ": 7051,
      "opa": 7052,
      "à¨¹": 7053,
      "ĠàŃ§àŃ®àŃ®àŃ§": 7054,
      "plac": 7055,
      "ĠàŃ©àŃ¨àŃ¯": 7056,
      "àŃ§àŃ¯àŃ¬àŃª": 7057,
      "àŃ§àŃ¯àŃ¬àŃ¬": 7058,
      "Ġeye": 7059,
      "hyth": 7060,
      "àŃ§àŃ¯àŃ«àŃ¬": 7061,
      "ronounc": 7062,
      "azol": 7063,
      "ograp": 7064,
      "cons": 7065,
      "nausea": 7066,
      "Ġà¬ľà¬Ĺà¬¦à¬²à¬ª": 7067,
      "Ã¦n": 7068,
      "Ġà®®": 7069,
      "Ġà®ķ": 7070,
      "radiation": 7071,
      "àŃ§àŃ¯àŃ§àŃŃ": 7072,
      "à¬ľàŃŁà¬¨à¬Ĺà¬°à¬®": 7073,
      "à¬ľà¬Ĺà¬¤à¬¸": 7074,
      "orrh": 7075,
      "thera": 7076,
      "ĠDevi": 7077,
      "eeling": 7078,
      "Ġà¤īà¤¡": 7079,
      "Ġà¬ħà¬īà¬°à¬Ļ": 7080,
      "Ġsymptoms": 7081,
      "retroviral": 7082,
      "Ġkilome": 7083,
      "reptomyc": 7084,
      "ronounced": 7085,
      ")âĢĮ": 7086,
      "06": 7087,
      "AN": 7088,
      "Cl": 7089,
      "Char": 7090,
      "EE": 7091,
      "HD": 7092,
      "ME": 7093,
      "PV": 7094,
      "Ref": 7095,
      "Sch": 7096,
      "comm": 7097,
      "kal": 7098,
      "now": 7099,
      "oz": 7100,
      "rum": 7101,
      "ãĢ": 7102,
      "ãģ": 7103,
      "Ġchest": 7104,
      "Ġencephal": 7105,
      "à¬¾àŃĩ": 7106,
      "àŃį;": 7107,
      "à¬°à¬ĺà¬£": 7108,
      "à¬¿!": 7109,
      "à¬ķà¬ķà¬°": 7110,
      "à¬®à¬¬à¬°": 7111,
      "à¬®à¬¨à¬°": 7112,
      "à¬®à¬ĭà¬¤": 7113,
      "Ġà¬¸à¬ļà¬³": 7114,
      "à¬²à¬¤à¬ķ": 7115,
      "à¬²à¬¡à¬°": 7116,
      "à¬¸à¬ĺ": 7117,
      "à¬¸à¬¸à¬¬": 7118,
      "à¬¦à¬°à¬®": 7119,
      "à¬¦à¬®à¬¨": 7120,
      "Ġà¬®à¬Ĺà¬§": 7121,
      "à¬ªà¬Ľ": 7122,
      "Ġà¬¨à¬Ĺà¬£": 7123,
      "Ġà¬ľà¬¶": 7124,
      "Ġà¬ĵà¬Ĺ": 7125,
      "Ġà¬ĵà¬²à¬¸": 7126,
      "à¬Ńà¬ľà¬¨": 7127,
      "à¬Ńà¬īà¬£": 7128,
      "à¬Ńà¬²à¬¸": 7129,
      "à¬¯à¬·": 7130,
      "à¬¯à¬Ļ": 7131,
      "à¬Ĥ,": 7132,
      "Ġà¬Ĩà¬°à¬£": 7133,
      "Ġà¬¤àŃ±": 7134,
      "Ġà¬¤à¬ªà¬¨": 7135,
      "à¬ıà¬ªà¬°": 7136,
      "à¬Ĩà¬īà¬Ł": 7137,
      "Ġà¬īà¬Ĩà¬¸": 7138,
      "Ġà¬ļà¬īà¬ķ": 7139,
      "Ġà¬ªà¬°à¬ª": 7140,
      "à¬īà¬¦à¬°": 7141,
      "Ġà¬¥à¬¬": 7142,
      "tel": 7143,
      "ofovir": 7144,
      "à¬«à¬°à¬ª": 7145,
      "Ġà¬«à¬¨": 7146,
      "Ġà¬ĩà¬¸à¬ķ": 7147,
      "Ġà¬ĩà¬ķà¬¬": 7148,
      "à¬ľà¬¨à¬¸": 7149,
      "à¬ħà¬¬à¬¸": 7150,
      "à¬ħà¬¸à¬®": 7151,
      "à¬ĺà¬¬à¬¦": 7152,
      "à¬°à¬¥à¬®à¬¤": 7153,
      "àŃŃàŃ«àŃ¦": 7154,
      "à¬·à¬£à¬Ļ": 7155,
      "à¬ĵà¬ĩà¬¡": 7156,
      "ĠàŃ©àŃ¦àŃ¨": 7157,
      "àŃŁà¬®à¬Ļ": 7158,
      "ales": 7159,
      "alam": 7160,
      "Ġà¬ķà¬³à¬¶": 7161,
      "Ġà¬ªà¬¦à¬ļ": 7162,
      "erat": 7163,
      "arian": 7164,
      "ĠàŃ§àŃ®àŃ¯": 7165,
      "ĠàŃ§àŃ®àŃ©àŃ§": 7166,
      "ĠàŃ§àŃ®àŃ©àŃ¨": 7167,
      "à¬¬à¬¶à¬Ļ": 7168,
      "à¬ļà¬³à¬Ł": 7169,
      "à¬ªà¬£à¬ķ": 7170,
      "à¬§à¬¨à¬®": 7171,
      "à¬ľàŃŁà¬ª": 7172,
      "ases": 7173,
      "rot": 7174,
      "Ġsub": 7175,
      "ĠàŃ§àŃŃàŃ©": 7176,
      "usic": 7177,
      "Ġà¬¸à¬¦à¬¨à¬°": 7178,
      "unt": 7179,
      "aman": 7180,
      "atus": 7181,
      "Ġà¬īà¬ŃàŃŁà¬ļà¬°": 7182,
      "Ġmillion": 7183,
      "omen": 7184,
      "head": 7185,
      "ĠParty": 7186,
      "Ġcys": 7187,
      "Ġcomm": 7188,
      "Ġdes": 7189,
      "urr": 7190,
      "Ġbone": 7191,
      "ĠàŃ¨àŃŃàŃ¦": 7192,
      "ĠàŃ¨àŃªàŃŃ": 7193,
      "Ġà¬Ĩà¬ĩà¬ıà¬¨": 7194,
      "ĠLong": 7195,
      "ĠTamil": 7196,
      "ĠDM": 7197,
      "Ġà¬Ĺà¬łà¬¨à¬ķ": 7198,
      "Ġà¬ľàŃŁà¬²à¬³": 7199,
      "pha": 7200,
      "dehydration": 7201,
      "à®µ": 7202,
      "Ġhis": 7203,
      "Ġdiseases": 7204,
      "ĠFl": 7205,
      "ĠGu": 7206,
      "ĠWeb": 7207,
      "ĠàŃ§àŃ®àŃŃàŃ§": 7208,
      "ĠàŃ©àŃ©àŃ¬": 7209,
      "Ġà¬ħà¬ĸà¬¤à¬°": 7210,
      "Ġ88": 7211,
      "ific": 7212,
      "à´ķ": 7213,
      "áĢĲ": 7214,
      "áĢĽ": 7215,
      "udd": 7216,
      "aceae": 7217,
      "àŃ§àŃ¯àŃ«àŃ®": 7218,
      "àŃ§àŃ¯àŃªàŃ§": 7219,
      "àŃ§àŃ§àŃ¯àŃ": 7220,
      "à¬ķà¬ľà¬®à¬ķà¬°": 7221,
      "confusion": 7222,
      "ophy": 7223,
      "ĠàŃ§àŃ®àŃªàŃ¨": 7224,
      "Ġanxiety": 7225,
      "atitis": 7226,
      "à³ķ": 7227,
      "ĠState": 7228,
      "Ġà¬¨à¬Ĺà¬°à¬ķ": 7229,
      "Ġdeath": 7230,
      "avirus": 7231,
      "à¦¼à¦¾": 7232,
      "à¬¸à¬Ĩà¬ªà¬ķ": 7233,
      "Ġ1960": 7234,
      "bacterium": 7235,
      "Ġfluids": 7236,
      "Ġexp": 7237,
      "Ġà¬«à¬¸à¬²à¬°": 7238,
      "iazid": 7239,
      "Ġlymphocy": 7240,
      "fluor": 7241,
      "elvic": 7242,
      "omycosis": 7243,
      "Ġrecep": 7244,
      "Ġtoxicity": 7245,
      "Ġkilometres": 7246,
      "01": 7247,
      "89": 7248,
      "94": 7249,
      "As": 7250,
      "Eà¬ł": 7251,
      "He": 7252,
      "IV": 7253,
      "Ne": 7254,
      "Se": 7255,
      "Sanskrit": 7256,
      "])": 7257,
      "mok": 7258,
      "ng": 7259,
      "olo": 7260,
      "ÌĮ": 7261,
      "Î²": 7262,
      "Ð¾": 7263,
      "Ø¬": 7264,
      "à¼": 7265,
      "ĠàŃŁà¬°": 7266,
      "Ġall": 7267,
      "Ġurin": 7268,
      "àŃ¤": 7269,
      "à¬¤à¬¨à¬Ļ": 7270,
      "à¬¤à¬³à¬ķ": 7271,
      "à¬¬à¬ł": 7272,
      "à¬®à¬®à¬¨": 7273,
      "Ġà¬¸à¬ĩ": 7274,
      "Ġà¬¸à¬§": 7275,
      "à¬¹à¬°à¬ķ": 7276,
      "Ġà¬ķà¬Ńà¬°": 7277,
      "Ġà¬ķà¬¸à¬®": 7278,
      "à¬¸à¬¬à¬¨": 7279,
      "à¬¥à¬ł": 7280,
      "à¬¦à¬¬à¬Ļ": 7281,
      "à¬¦à¬¤à¬³": 7282,
      "à¬ªà¬²à¬®": 7283,
      "à¬ªà¬ļàŃŁ": 7284,
      "à¬ĩà¬ī": 7285,
      "à¬ĩà¬Ĩà¬ķ": 7286,
      "à¬³à¬ªà¬¦": 7287,
      "à¬Ĺà¬¨à¬°": 7288,
      "Ġà¬ıà¬ĩà¬Ł": 7289,
      "Ġà¬ıà¬²à¬®": 7290,
      "à¬·à¬ªà¬¤": 7291,
      "à¬¡à¬£": 7292,
      "à¬¡à¬¸à¬°": 7293,
      "à¬ľà¬«": 7294,
      "à¬ļàŃŁà¬°": 7295,
      "à¬ļà¬°à¬Ļ": 7296,
      "Ġà¬°à¬£à¬¸": 7297,
      "Ġà¬ľàŃŁà¬¤": 7298,
      "Ġà¬ľà¬¬à¬¤": 7299,
      "Ġà¬ĵà¬£": 7300,
      "Ġà¬ĵà¬łà¬°": 7301,
      "à¬Ńà¬¬à¬°": 7302,
      "Ġà¬¤à¬°à¬£": 7303,
      "à¬ıà¬Ĺ": 7304,
      "à¬°à¬¤à¬°à¬¤": 7305,
      "Ġà¬ħà¬¨à¬¬à¬°à¬¤": 7306,
      "à¬īà¬ªà¬¨": 7307,
      "à¬īà¬ľà¬Ļ": 7308,
      "Ġà¬ĩà¬īà¬ķ": 7309,
      "Ġà¬¬à¬°à¬·": 7310,
      "à¬®à¬¨à¬Ĺà¬°à¬°": 7311,
      "Ġà¬ķà¬¥à¬¨": 7312,
      "ĠàŃ¨àŃ¦àŃ§": 7313,
      "Ġà¬ĺà¬°à¬®": 7314,
      "à¬¿à¬Ĥ)": 7315,
      "à¬·à¬£à¬¹": 7316,
      "à¬ĵàŃŁ": 7317,
      "ĠàŃ©àŃ§àŃ©": 7318,
      "à¬°à¬Ńà¬¦": 7319,
      "à¬ĩà¬ªà¬ķ": 7320,
      "à¬¤à¬ķà¬³": 7321,
      "Ġà¬¬à¬¹à¬³à¬¦": 7322,
      "à¬ĩà¬Łà¬¨": 7323,
      "Ġà¬ªà¬¤à¬ŀ": 7324,
      "à¬®à¬ķà¬¤": 7325,
      "Ġà¬ıà¬łà¬°": 7326,
      "arch": 7327,
      "ĠàŃ§àŃ®àŃ¨àŃ¦": 7328,
      "ĠàŃ§àŃ®àŃ¨àŃ«": 7329,
      "à¤ģ": 7330,
      "à¬®à¬£à¬¬": 7331,
      "ĠàŃŃàŃ¦àŃ¦àŃ¦": 7332,
      "thes": 7333,
      "ĠàŃ¬àŃ«àŃ¦": 7334,
      "ĠàŃ§àŃ¨àŃ¨": 7335,
      "ĠàŃ±à¬²": 7336,
      "Ġsleep": 7337,
      "ĠàŃ§àŃŃàŃ®àŃ©": 7338,
      "Ġà¬¬à¬³à¬¶": 7339,
      "Ġà¬ľà¬¨à¬Ĺà¬¹à¬³": 7340,
      "rex": 7341,
      "itz": 7342,
      "à¦·": 7343,
      "amy": 7344,
      "ĠSub": 7345,
      "ĠMe": 7346,
      "Ġplas": 7347,
      "Ġcyc": 7348,
      "à¬°à¬ªà¬¤à¬¨à¬°": 7349,
      "Ġ29": 7350,
      "trition": 7351,
      "ĠàŃ¨àŃ¨àŃ¦àŃ¦": 7352,
      "ĠàŃ¨àŃŃàŃ«": 7353,
      "Ġà¬®à¬łà¬Ł": 7354,
      "Ġà¬Ĩà¬ĩà¬°à¬¨": 7355,
      "Ġà¬Ĩà¬ĩà¬ĵà¬ıà¬¸": 7356,
      "terine": 7357,
      "Ġthem": 7358,
      "ineering": 7359,
      "ĠàŃ¨àŃ©àŃ¦": 7360,
      "à¬²à¬Ńà¬Ń": 7361,
      "à¬¥à¬ķà¬¬": 7362,
      "Ġà¤Ĩ": 7363,
      "imal": 7364,
      "ĠàŃ¦àŃª": 7365,
      "ĠàŃ¦àŃ©": 7366,
      "ĠNations": 7367,
      "ĠGod": 7368,
      "Ġà¬¶à¬¹à¬¶à¬¹": 7369,
      "eps": 7370,
      "ather": 7371,
      "ancre": 7372,
      "ÌĦ_)": 7373,
      "Ġà¬īà¬ªà¬ķà¬°à¬£à¬ķ": 7374,
      "Ġvag": 7375,
      "ĠàŃ©àŃªàŃ¨": 7376,
      "ĠàŃ©àŃªàŃ«": 7377,
      "Ġ51": 7378,
      "antiretroviral": 7379,
      "à¬Łà¬¬à¬²à¬°": 7380,
      "Ġtend": 7381,
      "Ġ40": 7382,
      "Ġ45": 7383,
      "ĠàŃ©àŃ¬àŃ«": 7384,
      "ĠàŃ©àŃ¬àŃª": 7385,
      "Ġrem": 7386,
      "ylon": 7387,
      "Ġà¬Ńà¬°à¬¤à¬ª": 7388,
      "Ġequ": 7389,
      "Ġà¬¦à¬®àŃŁà¬¨": 7390,
      "ronch": 7391,
      "àŃ§àŃ¯àŃªàŃ¦": 7392,
      "àŃ§àŃ¯àŃªàŃ¨": 7393,
      "Ġà¬ħà¬¸à¬¹à¬®à¬¤": 7394,
      "àŃ§àŃ§àŃ®": 7395,
      "oval": 7396,
      "ĠàŃ©àŃŃàŃ¦": 7397,
      "ĠàŃªàŃ®àŃ¦": 7398,
      "Ġà¬ªà¬ĸà¬īà¬ľ": 7399,
      "Ġleg": 7400,
      "àŃ§àŃ¯àŃ¨àŃ¦": 7401,
      "fixed": 7402,
      "Ġspec": 7403,
      "psych": 7404,
      "lobal": 7405,
      "Ġà¬Ķà¬°à¬·à¬°": 7406,
      "rimary": 7407,
      "ritish": 7408,
      "ergic": 7409,
      "Ġphys": 7410,
      "supportive": 7411,
      "ĠHyper": 7412,
      "vaginal": 7413,
      "regular": 7414,
      "Ġchloride": 7415,
      "intestinal": 7416,
      "ĠAsociation": 7417,
      "25": 7418,
      "78": 7419,
      "Ma": 7420,
      "PT": 7421,
      "Pl": 7422,
      "RF": 7423,
      "Rh": 7424,
      "feeling": 7425,
      "ga": 7426,
      "hu": 7427,
      "ioc": 7428,
      "kr": 7429,
      "ket": 7430,
      "ling": 7431,
      "long": 7432,
      "oul": 7433,
      "sych": 7434,
      "yme": 7435,
      "ÍĤ": 7436,
      "ÑĢ": 7437,
      "Ùĩ": 7438,
      "ĠÄ±": 7439,
      "à¬¨à¬ħà¬°à¬°": 7440,
      "à¬ķà¬¤à¬®": 7441,
      "à¬®à¬®à¬£": 7442,
      "à¬®à¬ļà¬³": 7443,
      "à¬®à¬ĺà¬¨": 7444,
      "àŃŁà¬¬à¬¨": 7445,
      "àŃŁà¬£à¬¨": 7446,
      "à¬²à¬¯": 7447,
      "à¬¹à¬§": 7448,
      "Ġà¬¬à¬ĩ": 7449,
      "à¬¦à¬¬à¬ª": 7450,
      "à¬ŁàŃŁ": 7451,
      "à¬Łà¬¹": 7452,
      "à¬Łà¬¶à¬®": 7453,
      "à¬¶à¬¤à¬°": 7454,
      "à¬¶à¬¹à¬°": 7455,
      "à¬¶à¬ªà¬¥": 7456,
      "à¬¡à¬°à¬ķ": 7457,
      "à¬§à¬¶à¬¤": 7458,
      "Ġà¬¨à¬¬à¬¸": 7459,
      "Ġà¬¨à¬°à¬¹": 7460,
      "Ġà¬¨à¬ħà¬Ļ": 7461,
      "Ġà¬ĵà¬§": 7462,
      "à¬¯à¬¶": 7463,
      "Ġà¬Ĩà¬¶à¬ķ": 7464,
      "Ġà¬¤à¬Ļ": 7465,
      "à¬ĸà¬ł": 7466,
      "Ġà¬¯à¬¬à¬¨": 7467,
      "Ġà¬īà¬ĩ": 7468,
      "Ġà¬ªà¬°à¬Ł": 7469,
      "à¬¬à¬°à¬ķà¬°": 7470,
      "à¬īà¬¬": 7471,
      "ĠàŃ¨àŃ§àŃ¨": 7472,
      "tell": 7473,
      "off": 7474,
      "Ġà¬ľà¬£à¬°": 7475,
      "à¬«à¬£": 7476,
      "à¬«à¬³à¬ķ": 7477,
      "Ġà¬«à¬ľà¬²": 7478,
      "Ġà¬¸à¬¹à¬Ń": 7479,
      "àŃįâĢĮâĢĻ": 7480,
      "àŃ±à¬°à¬²": 7481,
      "à¬ĺà¬¤": 7482,
      "à¬¤à¬®àŃŁ": 7483,
      "inoma": 7484,
      "àŃ¬àŃ¦àŃ¨": 7485,
      "à¬ĵà¬Ńà¬°": 7486,
      "à¬°à¬¬à¬®àŃŁ": 7487,
      "onary": 7488,
      "alysis": 7489,
      "anxiety": 7490,
      "à¬§à¬°à¬¨": 7491,
      "erman": 7492,
      "arter": 7493,
      "à¤Ĩ": 7494,
      "à¤Ī": 7495,
      "thi": 7496,
      "Ġà¬ħà¬ªà¬ķ": 7497,
      "Ġà¬łà¬īà¬°": 7498,
      "Ġà¬ıà¬®à¬¸": 7499,
      "ĠàŃ§àŃ«àŃ©àŃª": 7500,
      "Ġà¬ıà¬¸à¬Ł": 7501,
      "Ġà¬ıà¬¸à¬ıà¬²à¬Ń": 7502,
      "Ġà¬¸à¬¤à¬¸à¬Ļ": 7503,
      "ĠàŃ§àŃŃàŃ¬": 7504,
      "ĠàŃ§àŃŃàŃ®àŃ¯": 7505,
      "àŃŁà¬ªà¬Ł": 7506,
      "Ġà¬¬à¬³à¬¬à¬¨": 7507,
      "itabine": 7508,
      "ĠàŃ§àŃªàŃ¨": 7509,
      "ĠàŃ§àŃªàŃ¯àŃ®": 7510,
      "Ġà¬ĭà¬ķ": 7511,
      "acch": 7512,
      "ĠAC": 7513,
      "ĠMad": 7514,
      "Ġman": 7515,
      "ĠCa": 7516,
      "ĠàŃ¨àŃ«àŃ¨": 7517,
      "ĠàŃ¨àŃ«àŃª": 7518,
      "ura": 7519,
      "à¬ıà¬²à¬ıà¬²": 7520,
      "Ġbrain": 7521,
      "tron": 7522,
      "ĠàŃ¨àŃŃàŃ¨": 7523,
      "Ġà¬Ĩà¬ĩà¬Ĩà¬°": 7524,
      "Ġà¬Ĩà¬ĩà¬ıà¬¸": 7525,
      "osaur": 7526,
      "Ġà¬¨à¬ķà¬¸": 7527,
      "odialysis": 7528,
      "ĠàŃ¨àŃ¬àŃ¬": 7529,
      "Ġà¬§à¬¨à¬§": 7530,
      "adio": 7531,
      "ize": 7532,
      "àŃ§àŃ¦àŃ©": 7533,
      "phy": 7534,
      "àŃ¨àŃ¦àŃ§": 7535,
      "Ġà¬°à¬ľà¬¤": 7536,
      "ĠOriya": 7537,
      "à¨¤": 7538,
      "à¨¨": 7539,
      "gency": 7540,
      "Ġà¬¬à¬Łà¬¬": 7541,
      "ĠàŃ©àŃ«àŃ¬": 7542,
      "ply": 7543,
      "ĠàŃ©àŃ©àŃ¨": 7544,
      "à°¯": 7545,
      "Ġtum": 7546,
      "Ġtype": 7547,
      "Ġ2017": 7548,
      "Ġà¬ħà¬¹à¬®à¬¦à¬¨": 7549,
      "à¥Ģ)": 7550,
      "Ġrate": 7551,
      "à¬¸à¬Ńà¬¬à¬¨": 7552,
      "Ġ2009": 7553,
      "àŃ§àŃ¯àŃ©àŃ¨": 7554,
      "lue": 7555,
      "Éªn": 7556,
      "ÉªËĪ": 7557,
      "ĠàŃ§àŃ®àŃªàŃŃ": 7558,
      "à¬Ķà¬°à¬ľà¬Ĺà¬¤à¬°": 7559,
      "ÙĦØ§": 7560,
      "aneous": 7561,
      "Ġimp": 7562,
      "post": 7563,
      "ĠEnviron": 7564,
      "IAST": 7565,
      "arcoma": 7566,
      "arcinoma": 7567,
      "orrho": 7568,
      "iazide": 7569,
      "Ġ1947": 7570,
      "immune": 7571,
      "Antibio": 7572,
      "Ġbladder": 7573,
      "Ġà¬ľà¬¬à¬°à¬¦à¬¸": 7574,
      "Supportive": 7575,
      "Ġlymphocytic": 7576,
      "07": 7577,
      "09": 7578,
      "34": 7579,
      "56": 7580,
      "69": 7581,
      "86": 7582,
      "EC": 7583,
      "ED": 7584,
      "Nav": 7585,
      "_]": 7586,
      "benz": 7587,
      "col": 7588,
      "dition": 7589,
      "ext": 7590,
      "gov": 7591,
      "men": 7592,
      "medic": 7593,
      "nat": 7594,
      "pulmonary": 7595,
      "si": 7596,
      "sor": 7597,
      "ude": 7598,
      "Ð¸": 7599,
      "Ú¯": 7600,
      "Ġid": 7601,
      "à¬¨à¬®à¬¤": 7602,
      "à¬¤à¬Ĺà¬¡": 7603,
      "à¬ķà¬¬à¬°": 7604,
      "à¬ķà¬¥à¬°": 7605,
      "à¬¬à¬³àŃŁ": 7606,
      "àŃŁà¬ľà¬£": 7607,
      "Ġà¬¸à¬Łà¬¡": 7608,
      "à¬²à¬°à¬Ļ": 7609,
      "Ġà¬ķà¬³à¬°": 7610,
      "Ġà¬ķà¬Ĺà¬¨": 7611,
      "Ġà¬ķà¬ıà¬¦": 7612,
      "Ġà¬ªà¬§": 7613,
      "Ġà¬ªà¬ĺ": 7614,
      "Ġà¬ªà¬¹à¬°": 7615,
      "Ġà¬ªà¬ļà¬°": 7616,
      "Ġà¬¬à¬ľà¬°à¬Ļ": 7617,
      "à¬¦àŃŁà¬ķ": 7618,
      "à¬¦à¬¬à¬¹": 7619,
      "à¬£à¬¬à¬°": 7620,
      "Ġà¬®à¬²à¬®": 7621,
      "à¬Łà¬¸à¬Ļ": 7622,
      "à¬³à¬ªà¬°": 7623,
      "Ġà¬ħà¬¦à¬°": 7624,
      "à¬¡à¬Ĺà¬Ļ": 7625,
      "à¬§à¬°à¬£à¬°": 7626,
      "Ġà¬¨àŃ±": 7627,
      "Ġà¬¹à¬°à¬Ń": 7628,
      "à¬ļà¬ľà¬£": 7629,
      "Ġà¬ĵà¬³à¬¨": 7630,
      "à¬Ńà¬Ĺà¬¬à¬¤": 7631,
      "Ġà¬¤à¬°à¬¬": 7632,
      "Ġà¬Ĺà¬īà¬£": 7633,
      "à¬ĸà¬°à¬ķ": 7634,
      "à¬ĸà¬®àŃŁ": 7635,
      "à¬Ĩà¬¬à¬¨": 7636,
      "àŃĥ-": 7637,
      "à¬°à¬¤à¬¦": 7638,
      "Ġ('": 7639,
      "Ġà¬ħà¬¨à¬®à¬¨": 7640,
      "ena": 7641,
      "teo": 7642,
      "à¬¤à¬°à¬£à¬ķ": 7643,
      "âĢĮ-": 7644,
      "Ġà¬ľà¬¨à¬¸à¬¨": 7645,
      "à¬°à¬¸à¬ķà¬£": 7646,
      "Ġà¬¬à¬°à¬¬": 7647,
      "à¬°à¬¹à¬ľà¬Ĺà¬¤": 7648,
      "à¬¦à¬°à¬ł": 7649,
      "à¬¦à¬°à¬¬à¬¨à¬°": 7650,
      "Ġà¬ķà¬¥à¬ķà¬³": 7651,
      "ĠàŃ¨àŃ¦àŃ¬": 7652,
      "Ġà¬Ľà¬ķà¬ł": 7653,
      "à¬ĺà¬°à¬®": 7654,
      "Ġà¬ĺà¬īà¬¡": 7655,
      "Ġà¬īà¬ªà¬§": 7656,
      "initis": 7657,
      "inated": 7658,
      "alcohol": 7659,
      "à¬ĩà¬¨à¬®": 7660,
      "Ġà¬Ķà¬·à¬§à¬Ĺ": 7661,
      "Ġà¬ªà¬¦à¬®": 7662,
      "Ġà¬¬à¬¨à¬ķà¬²": 7663,
      "à¬Łà¬ķà¬ķ": 7664,
      "Ġà¬ļà¬³à¬ļà¬ŀ": 7665,
      "erty": 7666,
      "ĠàŃªàŃ¯àŃŃ": 7667,
      "ĠàŃ«àŃ«àŃ¦": 7668,
      "ĠàŃ«àŃ¦àŃ«": 7669,
      "ĠàŃ§àŃ®àŃªàŃ¦": 7670,
      "isco": 7671,
      "à¬¡à¬°à¬Ĺ": 7672,
      "Ġà¬Ĺà¬£à¬ķà¬¬": 7673,
      "à¬¹à¬¨à¬Ĺà¬°": 7674,
      "Ġà¬¦à¬³à¬¬à¬¦": 7675,
      "Ġà¬ķà¬¨à¬¸à¬°": 7676,
      "ĠàŃ§àŃ¨àŃªàŃ¦": 7677,
      "Ġstres": 7678,
      "lev": 7679,
      "rep": 7680,
      "ĠàŃ§àŃªàŃ¬": 7681,
      "à¬¸à¬ķà¬¬": 7682,
      "Ġà¬¦à¬¶à¬Ĺ": 7683,
      "à¬¨à¬¬à¬¬": 7684,
      "atter": 7685,
      "ĠMy": 7686,
      "Ġmel": 7687,
      "omal": 7688,
      "ĠàŃ¨àŃ«àŃ«": 7689,
      "Ġpol": 7690,
      "Ġclo": 7691,
      "Ġdel": 7692,
      "Ġbut": 7693,
      "Ġbody": 7694,
      "ĠINS": 7695,
      "umatic": 7696,
      "à¬¤à¬¬à¬ª": 7697,
      "ĠEp": 7698,
      "Ġà¬Ĩà¬ĩà¬Ń": 7699,
      "els": 7700,
      "àŃį_]": 7701,
      "à¬ķà¬¸à¬Ń": 7702,
      "à¬¿)à¥¤": 7703,
      "ĠàŃ¨àŃ©àŃ¨": 7704,
      "Ġfe": 7705,
      "ĠàŃ¨àŃ®àŃ¦": 7706,
      "agne": 7707,
      "agement": 7708,
      "irregular": 7709,
      "emale": 7710,
      "Ġà¤¹": 7711,
      "à¬ıà¬®à¬Ĩà¬°": 7712,
      "atelet": 7713,
      "aya": 7714,
      "ayu": 7715,
      "aytm": 7716,
      "ĠReg": 7717,
      "à¬·à¬¦à¬¦": 7718,
      "ĠNat": 7719,
      "Ġhyp": 7720,
      "Ġhave": 7721,
      "àŃŁà¬¦à¬³à¬¨": 7722,
      "ions": 7723,
      "ĠFed": 7724,
      "àŃ§àŃ¯àŃ¦àŃ«": 7725,
      "à¬°à¬ļà¬³à¬¨à¬ª": 7726,
      "epine": 7727,
      "àŃ§àŃ¯àŃ®àŃ§": 7728,
      "ĠUS": 7729,
      "àŃ§àŃ¯àŃŃàŃ§": 7730,
      "ĠàŃ©àŃ©àŃª": 7731,
      "ĠàŃ©àŃ©àŃ§": 7732,
      "ĠàŃ©àŃªàŃŃ": 7733,
      "Ġà¬°à¬£à¬§": 7734,
      "antidepresant": 7735,
      "à¬ĩà¬Ńà¬¸": 7736,
      "à¬¨à¬Ńà¬ŀ": 7737,
      "ified": 7738,
      "à²ķ": 7739,
      "Ġread": 7740,
      "à¬ĩà¬¶à¬¹": 7741,
      "uda": 7742,
      "sex": 7743,
      "ycardia": 7744,
      "ives": 7745,
      "ivudine": 7746,
      "à¬ĩà¬Ĺà¬£à¬ķ": 7747,
      "Ġ2000": 7748,
      "àŃ§àŃ¯àŃ©àŃ¬": 7749,
      "ageal": 7750,
      "titude": 7751,
      "ophil": 7752,
      "ĠÎ±": 7753,
      "ĠÎ²": 7754,
      "ĠÎµ": 7755,
      "ika": 7756,
      "tatis": 7757,
      "Ġà¬ħà¬¬à¬¹à¬Ł": 7758,
      "drug": 7759,
      "àŃ¨àŃ¦àŃ¨àŃ¦": 7760,
      "Ġattack": 7761,
      "India": 7762,
      "Ġhydro": 7763,
      "bert": 7764,
      "cereb": 7765,
      "cognitive": 7766,
      "Ġcombination": 7767,
      "ĠQuantum": 7768,
      "methyl": 7769,
      "yrid": 7770,
      "Ġtube": 7771,
      "Ġà¬ħà¬¸à¬°à¬ª": 7772,
      "couns": 7773,
      "osteroids": 7774,
      "Ġinflammatory": 7775,
      "Ġmembr": 7776,
      "\"),": 7777,
      "Ad": 7778,
      "BB": 7779,
      "RA": 7780,
      "RT": 7781,
      "Sw": 7782,
      "TO": 7783,
      "VID": 7784,
      "Wh": 7785,
      "cr": 7786,
      "cardio": 7787,
      "del": 7788,
      "decreased": 7789,
      "fin": 7790,
      "hormone": 7791,
      "ield": 7792,
      "math": 7793,
      "rin": 7794,
      "rat": 7795,
      "rand": 7796,
      "vaccine": 7797,
      "went": 7798,
      "yan": 7799,
      "É³": 7800,
      "ĠÙ": 7801,
      "Ġang": 7802,
      "Ġàª": 7803,
      "Ġà¬£": 7804,
      "àŃįâĢĭ": 7805,
      "à¬¿à¥¥": 7806,
      "àŃĩ/": 7807,
      "à¬¤à¬ĸ": 7808,
      "à¬¤à¬¤à¬®": 7809,
      "à¬¤à¬ªà¬¦": 7810,
      "à¬¤à¬¶à¬¤": 7811,
      "àŃŁà¬Ĺà¬¤": 7812,
      "àŃŁà¬ķà¬°à¬£": 7813,
      "àŃŁà¬¦à¬¶": 7814,
      "Ġà¬¸à¬ķà¬°": 7815,
      "Ġà¬¸à¬°à¬£": 7816,
      "à¥ĥ": 7817,
      "à¬¸à¬ľà¬¨": 7818,
      "à¬£à¬Ł": 7819,
      "Ġà¬®à¬³à¬¤": 7820,
      "à¬ªà¬²à¬¸": 7821,
      "à¬ªà¬²à¬¤": 7822,
      "à¬Ĺà¬¥": 7823,
      "Ġà¬ħà¬°à¬®": 7824,
      "à¬·à¬¸à¬°": 7825,
      "à¬·à¬¦à¬®": 7826,
      "Ġà¬ķà¬°à¬¦": 7827,
      "Ġà¬¹à¬ĭ": 7828,
      "Ġà¬¤à¬«": 7829,
      "à¬ıà¬ķà¬°": 7830,
      "à¬ıà¬Ĩà¬ĩ": 7831,
      "àŃ±àŃŁà¬Ļ": 7832,
      "à¬Ĩà¬³à¬°": 7833,
      "Ġà¬ļà¬¡": 7834,
      "Ġà¬ªà¬°à¬Ń": 7835,
      "à¬ķà¬°à¬¦": 7836,
      "à¬°à¬¤à¬§": 7837,
      "à¬īà¬Łà¬°": 7838,
      "Ġà¬¥à¬Ł": 7839,
      "à¬°à¬®à¬Ł": 7840,
      "à¬¤à¬°à¬Ĺ": 7841,
      "à¬°à¬ķà¬¨": 7842,
      "à¬¨à¬°à¬ľ": 7843,
      "Ġà¬ĩà¬ī": 7844,
      "Ġà¬ĩà¬°à¬«": 7845,
      "à¬°à¬¸à¬¬à¬ªà¬°": 7846,
      "Ġà¬§à¬īà¬°": 7847,
      "à¬®à¬¨à¬¯": 7848,
      "à¬¸à¬¨à¬®": 7849,
      "àŃŁà¬¬à¬¶à¬¤": 7850,
      "Ġà¬ĺà¬°à¬¸": 7851,
      "Ġà¬īà¬ªà¬¸à¬®": 7852,
      "inib": 7853,
      "à¬¿à¬Ĥ_": 7854,
      "àŃ¬àŃ¦àŃ¦": 7855,
      "à¬ĵà¬¤": 7856,
      "à¬¿à¬ģ_": 7857,
      "Ġà¬¸à¬°à¬Ĺ": 7858,
      "Ġà¬ķà¬®à¬Ļ": 7859,
      "onia": 7860,
      "antic": 7861,
      "Ġà¬ªà¬¤à¬Ļ": 7862,
      "Ġà¬ªà¬¦à¬ķà¬°": 7863,
      "Ġà¬°à¬ķà¬®à¬°": 7864,
      "Ġà¬Ŀà¬Łà¬ķ": 7865,
      "ĠàŃ§àŃ®àŃ«": 7866,
      "à¬Ŀà¬¡": 7867,
      "à¬Ŀà¬°à¬ł": 7868,
      "Ġà¬ħà¬ªà¬¹": 7869,
      "Ġà¬ħà¬Ĺà¬®": 7870,
      "à¬ķà¬³à¬¸": 7871,
      "à¬²à¬ķà¬ķ": 7872,
      "à¬°à¬®à¬£à¬¦": 7873,
      "asw": 7874,
      "Ġsex": 7875,
      "Ġsmall": 7876,
      "Ġsolution": 7877,
      "ĠàŃ§àŃŃàŃ¯": 7878,
      "itations": 7879,
      "chon": 7880,
      "Ġà¬ĭà¬Ĺ": 7881,
      "lox": 7882,
      "à¦¶": 7883,
      "à¦Ĥ": 7884,
      "à¦Ń": 7885,
      "Ġà¬¦à¬¶à¬®à¬¹": 7886,
      "ĠàŃ§àŃ©àŃ¦àŃ¦": 7887,
      "ida": 7888,
      "à¬·àŃŁà¬Ł": 7889,
      "ĠST": 7890,
      "ĠAg": 7891,
      "ĠMod": 7892,
      "omb": 7893,
      "Ġcath": 7894,
      "Ġà¬Ĺà¬ľà¬²à¬°": 7895,
      "Ġder": 7896,
      "ĠIC": 7897,
      "ipedia": 7898,
      "tras": 7899,
      "ĠàŃ¨àŃ¨àŃ¨": 7900,
      "ĠàŃ¨àŃ¨àŃ¯": 7901,
      "à¬¬à¬£à¬Ľ": 7902,
      "econd": 7903,
      "ĠàŃ¨àŃªàŃ«": 7904,
      "Ġthromb": 7905,
      "Ġfib": 7906,
      "ĠàŃ¨àŃ®àŃª": 7907,
      "agen": 7908,
      "aging": 7909,
      "ĠDep": 7910,
      "aph": 7911,
      "Ġwater": 7912,
      "Ġà¤Ĺ": 7913,
      "Ġà¬ıà¬¤à¬¤": 7914,
      "à¬°à¬ĸà¬ª": 7915,
      "ayan": 7916,
      "à®¯": 7917,
      "àŃŁàŃŁà¬¨à¬ķ": 7918,
      "Ġlong": 7919,
      "ocaine": 7920,
      "Ġdisability": 7921,
      "Ġà¬¤à¬°à¬³à¬°": 7922,
      "very": 7923,
      "Ġ35": 7924,
      "romos": 7925,
      "neuro": 7926,
      "ĠàŃ©àŃ«àŃ¨": 7927,
      "ĠàŃ©àŃ¨àŃ¨": 7928,
      "ĠàŃ©àŃ¨àŃ§": 7929,
      "ĠàŃ©àŃ©àŃ«": 7930,
      "aking": 7931,
      "àŃ§àŃ¯àŃ¯àŃ®": 7932,
      "à°²": 7933,
      "iform": 7934,
      "àŃ¦àŃ©àŃ¯": 7935,
      "Ġrep": 7936,
      "à¬īà¬ľà¬°à¬°": 7937,
      "Ġrupt": 7938,
      "à¬ļà¬¶à¬¹": 7939,
      "iva": 7940,
      "àŃ§àŃ¯àŃªàŃª": 7941,
      "oung": 7942,
      "àŃ§àŃ§àŃ©": 7943,
      "àŃ©àŃŃàŃ¦": 7944,
      "Ġchannel": 7945,
      "à¸²": 7946,
      "omach": 7947,
      "Éªt": 7948,
      "ouis": 7949,
      "ĠàŃ§àŃ®àŃªàŃ©": 7950,
      "Ġproduc": 7951,
      "ĠCommision": 7952,
      "beat": 7953,
      "àµĩ": 7954,
      "à¤µà¤°": 7955,
      "àŃ¯àŃ¯àŃ«": 7956,
      "Ġà¬¡à¬®à¬ªà¬¡": 7957,
      "à¬ľà¬®à¬¹à¬²à¬°": 7958,
      "struction": 7959,
      "Ġrespiratory": 7960,
      "COPD": 7961,
      "engali": 7962,
      "servation": 7963,
      "Ġà¬īà¬ĩà¬¥à¬¡": 7964,
      "Ġtransplantation": 7965,
      "É¾ÉĶ": 7966,
      "alpitations": 7967,
      "lectual": 7968,
      "ĠHTML": 7969,
      "Ġimmunoglobulin": 7970,
      "à¼ĭ": 7971,
      "ĠEnvironment": 7972,
      "wenty": 7973,
      "'_": 7974,
      "37": 7975,
      "MR": 7976,
      "North": 7977,
      "Pa": 7978,
      "Par": 7979,
      "RD": 7980,
      "Res": 7981,
      "Space": 7982,
      "bra": 7983,
      "fac": 7984,
      "function": 7985,
      "ler": 7986,
      "lit": 7987,
      "nal": 7988,
      "nas": 7989,
      "ning": 7990,
      "pes": 7991,
      "spl": 7992,
      "ting": 7993,
      "vid": 7994,
      "volution": 7995,
      "wik": 7996,
      "xy": 7997,
      "Ú¾": 7998,
      "Ġus": 7999,
      "Ġà¶": 8000,
      "à¬¿âĢĮâĢĮ": 8001,
      "àŃĩà¬ĥ": 8002,
      "à¬¤à¬ªà¬¸": 8003,
      "àŃģ\",": 8004,
      "à¬¬à¬¥": 8005,
      "àŃŁà¬Ńà¬°": 8006,
      "Ġà¬ªà¬²à¬ķ": 8007,
      "à¬¸à¬°à¬£à¬°": 8008,
      "Ġà¥¤'": 8009,
      "Ġà¬¬à¬·": 8010,
      "Ġà¬¬à¬¦à¬®": 8011,
      "à¬¦à¬ļ": 8012,
      "à¬ªà¬®à¬¤": 8013,
      "à¬Łà¬¨à¬Ļ": 8014,
      "à¬ĩà¬ĩà¬¥": 8015,
      "à¬ĩà¬Ĩà¬°": 8016,
      "Ġà¬ıà¬ĩà¬¥": 8017,
      "Ġà¬ıà¬²à¬Ń": 8018,
      "Ġà¬ıà¬Ĩà¬ĩà¬°": 8019,
      "Ġà¬ħà¬²à¬°": 8020,
      "à¬·à¬¬à¬°": 8021,
      "à¬·à¬°à¬ķ": 8022,
      "à¬§à¬¬à¬ķ": 8023,
      "Ġà¬¨à¬°à¬¹à¬°": 8024,
      "Ġà¬¹àŃŁ": 8025,
      "à¬ļà¬ķà¬¨": 8026,
      "Ġà¬°à¬·": 8027,
      "à¬Ńà¬¡": 8028,
      "à¬¼:": 8029,
      "Ġà¬ıà¬¹à¬ªà¬°": 8030,
      "à¬ĸà¬°à¬¸": 8031,
      "à¬Ĩà¬ĩà¬ª": 8032,
      "à¬łà¬¹à¬£": 8033,
      "Ġà¬īà¬¬": 8034,
      "Ġà¬īà¬£": 8035,
      "à¬¬à¬°à¬ª": 8036,
      "Ġà¬²àŃŁ": 8037,
      "à¬ķà¬°à¬ªà¬¡": 8038,
      "Ġ(â": 8039,
      "ĠàŃ¨àŃ§àŃ®": 8040,
      "oft": 8041,
      "Ġà¬«à¬°à¬¹": 8042,
      "Ġà¬¸à¬¹à¬¨à¬¶": 8043,
      "Ġà¬ĩà¬¨à¬ķ": 8044,
      "Ġà¬ĩà¬ĵà¬¸": 8045,
      "Ġà¬Łà¬³": 8046,
      "ĠàŃ¨àŃ¦àŃ¯": 8047,
      "à¬ĺà¬ł": 8048,
      "Ġà¬ĺà¬°à¬Ł": 8049,
      "à¬¤à¬®à¬¸": 8050,
      "à¬°à¬¦à¬ª": 8051,
      "Ġà¬ķà¬²à¬®à¬°": 8052,
      "à¬ĸà¬°à¬ª": 8053,
      "à¬ĵà¬¹": 8054,
      "ĠàŃ©àŃ§àŃŃ": 8055,
      "à¬°à¬¬à¬®": 8056,
      "à¬°à¬¬à¬ļ": 8057,
      "à¬¤à¬ķà¬Ļ": 8058,
      "à¬Łà¬ķà¬¹": 8059,
      "Ġà¬¸à¬¨à¬¤": 8060,
      "ĠàŃ§àŃ®àŃ¨àŃ©": 8061,
      "ĠàŃ§àŃ®àŃ¦àŃ¨": 8062,
      "ĠàŃ§àŃ®àŃ©àŃŃ": 8063,
      "Ġà¬Ĩà¬°à¬§à¬¨": 8064,
      "Ġà¬°à¬¥à¬¶à¬°": 8065,
      "à¬ķà¬¦à¬³": 8066,
      "ĠàŃ§àŃ«àŃ¬àŃª": 8067,
      "ĠàŃ§àŃ¨àŃŃàŃ®": 8068,
      "à¬ªà¬¦à¬£": 8069,
      "à¬¦à¬¶à¬¹à¬°": 8070,
      "à¬ıà¬¸à¬ª": 8071,
      "Ġsur": 8072,
      "Ġsection": 8073,
      "à¬¾)à¥¤": 8074,
      "rec": 8075,
      "à¬°à¬ļà¬°à¬£": 8076,
      "Ġà¬ĭà¬£à¬°": 8077,
      "à¦ĩ": 8078,
      "undr": 8079,
      "amo": 8080,
      "ides": 8081,
      "Ġà¬Ĩà¬Ĺà¬Ļ": 8082,
      "ĠMS": 8083,
      "ĠMath": 8084,
      "Ġmas": 8085,
      "hep": 8086,
      "ĠàŃ¨àŃ«àŃ¯": 8087,
      "ĠPT": 8088,
      "Ġdose": 8089,
      "Ġà¬Ĺà¬Ľà¬Ł": 8090,
      "urus": 8091,
      "Ġà¬¤à¬³à¬¸à¬°": 8092,
      "olt": 8093,
      "iper": 8094,
      "ĠàŃ¨àŃ¨àŃ©": 8095,
      "Ġà¬Ĩà¬ĩà¬ı": 8096,
      "Ġà¬Ĩà¬ĩà¬¸à¬²": 8097,
      "à¬¸à¬¦à¬¦": 8098,
      "Ġthro": 8099,
      "odes": 8100,
      "ĠàŃ¨àŃ¬àŃ¨": 8101,
      "ĠTig": 8102,
      "ĠDic": 8103,
      "Ġà¤¨": 8104,
      "phen": 8105,
      "phrine": 8106,
      "Ġà¬ıà¬¨à¬¡": 8107,
      "àŃ§àŃ¨àŃ©àŃ®": 8108,
      "Ġà¬ıà¬²à¬¡": 8109,
      "arditis": 8110,
      "opioid": 8111,
      "ĠGo": 8112,
      "iology": 8113,
      "àŃ¨àŃªàŃ¯": 8114,
      "ĠKar": 8115,
      "Ġmedications": 8116,
      "Ġ?âĢĻ": 8117,
      "ĠàŃ©àŃ©àŃ®": 8118,
      "ĠàŃ©àŃªàŃ¦": 8119,
      "ĠàŃ©àŃªàŃ¯": 8120,
      "àŃ¨àŃ©àŃ§": 8121,
      "antifungal": 8122,
      "àŃ¨àŃ®àŃ®": 8123,
      "àŃį\",": 8124,
      "arts": 8125,
      "ification": 8126,
      "Ġarthritis": 8127,
      "Ġreplac": 8128,
      "udi": 8129,
      "Ġâī": 8130,
      "ĠJohn": 8131,
      "Ġsyn": 8132,
      "àŃ§àŃ¯àŃ«àŃ¨": 8133,
      "àŃ§àŃ¯àŃ«àŃ§": 8134,
      "àŃ§àŃ¯àŃ«àŃ¯": 8135,
      "àŃ§àŃ¯àŃªàŃ¯": 8136,
      "lospor": 8137,
      "à¸ģ": 8138,
      "ears": 8139,
      "ike": 8140,
      "à©ĩ": 8141,
      "achycardia": 8142,
      "rich": 8143,
      "lection": 8144,
      "IDS": 8145,
      "Ġà®ª": 8146,
      "ĠProject": 8147,
      "feron": 8148,
      "à¬³à¬ªà¬¥à¬¦": 8149,
      "cortic": 8150,
      "Streptomyc": 8151,
      "ĠOdia": 8152,
      "ulture": 8153,
      "steroidal": 8154,
      "ÙĪØ±": 8155,
      "tenofovir": 8156,
      "ĠForce": 8157,
      "CoV": 8158,
      "arbonate": 8159,
      "àŃįàŃįàŃįàŃįàŃįàŃįàŃįàŃį": 8160,
      "Ġhemorrh": 8161,
      "Ġoverdose": 8162,
      "Ġà¬¦à¬ĸà¬²à¬°": 8163,
      "ippoc": 8164,
      "Ġlanguage": 8165,
      "trasound": 8166,
      "undred": 8167,
      "Ġreplacement": 8168,
      "Streptomyces": 8169,
      "52": 8170,
      "80": 8171,
      "Be": 8172,
      "CB": 8173,
      "CI": 8174,
      "Col": 8175,
      "City": 8176,
      "Do": 8177,
      "Del": 8178,
      "Ed": 8179,
      "HO": 8180,
      "John": 8181,
      "ON": 8182,
      "PM": 8183,
      "RO": 8184,
      "des": 8185,
      "dÊĴ": 8186,
      "ger": 8187,
      "hr": 8188,
      "lum": 8189,
      "lim": 8190,
      "rhe": 8191,
      "ruc": 8192,
      "surgery": 8193,
      "sleep": 8194,
      "uz": 8195,
      "util": 8196,
      "yal": 8197,
      "yth": 8198,
      "É¦": 8199,
      "Ð²": 8200,
      "ÙĲ": 8201,
      "å¤": 8202,
      "ç¥": 8203,
      "Ġlo": 8204,
      "Ġuse": 8205,
      "àŃįâĢĻâĢĻ": 8206,
      "à¬¤à¬¡": 8207,
      "à¬¤à¬ľà¬£": 8208,
      "à¬¤à¬¶à¬¹": 8209,
      "à¬¬à¬Ĺà¬ŀ": 8210,
      "à¬®à¬¸à¬¨": 8211,
      "à¬®à¬łà¬°": 8212,
      "àŃŁà¬¡": 8213,
      "àŃŁàŃŁà¬¬à¬¹": 8214,
      "à¬¹à¬¤à¬®": 8215,
      "à¬¹à¬°à¬Ļ": 8216,
      "à¬¸à¬ªà¬°": 8217,
      "à¬¸àŃ±à¬¨": 8218,
      "à¬¥à¬ªà¬°": 8219,
      "Ġà¥¤_": 8220,
      "Ġà¬¬à¬³àŃŁà¬°": 8221,
      "à¬¦à¬°à¬¤": 8222,
      "à¬£à¬¬à¬Ļ": 8223,
      "Ġà¬®à¬°à¬ķ": 8224,
      "Ġà¬®à¬Ĺà¬°": 8225,
      "Ġà¬®à¬¢": 8226,
      "Ġà¬®à¬¡à¬°": 8227,
      "à¬ªà¬®à¬£": 8228,
      "à¬ĩà¬ı": 8229,
      "Ġà¬ıà¬¬à¬°": 8230,
      "Ġà¬ıà¬¨à¬°": 8231,
      "Ġà¬ħà¬®à¬¨": 8232,
      "à¬¡à¬¹": 8233,
      "à¬¡à¬ªà¬®": 8234,
      "à¬§à¬ķà¬Ļ": 8235,
      "Ġà¬ķà¬°à¬¡": 8236,
      "Ġà¬°à¬Ĺ": 8237,
      "Ġà¬°à¬ľà¬ª": 8238,
      "Ġà¬ľà¬ŀ": 8239,
      "Ġà¬ľà¬¨à¬Ļ": 8240,
      "Ġà¬Ńà¬¤à¬°": 8241,
      "à¬Ĥ-": 8242,
      "Ġà¬Ĩà¬ĩà¬ķ": 8243,
      "Ġà¬Ĩà¬ªà¬Ł": 8244,
      "Ġà¬Ĺà¬Ł": 8245,
      "Ġà¬Ĺà¬°à¬®à¬°": 8246,
      "à¬ĸà¬ĩ": 8247,
      "à¬ĸà¬³à¬°": 8248,
      "à¬Ĩà¬ī": 8249,
      "à¬Ĩà¬ªà¬¤": 8250,
      "à¬Ĩà¬ĺà¬°": 8251,
      "Ġà¬¯à¬¸": 8252,
      "à¬¼à¬¿.": 8253,
      "à¬ģ'": 8254,
      "à¬°à¬¤à¬Ľ": 8255,
      "Ġà¬ıà¬ķà¬¸": 8256,
      "Ġà¬ħà¬¨à¬Łà¬¨": 8257,
      "à¬°à¬°à¬ķ": 8258,
      "ĠàŃ¨àŃ¯àŃŃ": 8259,
      "ĠàŃ¨àŃ¯àŃ§": 8260,
      "enic": 8261,
      "à¬¤à¬°à¬Ľ": 8262,
      "ĠàŃ§àŃ¯àŃ¯": 8263,
      "âĢĮ,": 8264,
      "à¬«à¬Ĺ": 8265,
      "à¬ľà¬¨à¬¦": 8266,
      "à¬¬à¬¸à¬Ń": 8267,
      "à¬ħà¬¡": 8268,
      "Ġà¬ħà¬Ńà¬£": 8269,
      "à¬Łà¬°à¬¡": 8270,
      "àŃĩàŃĸà¬ĥ": 8271,
      "à¬¸à¬°à¬«": 8272,
      "Ġà¬Ľà¬³": 8273,
      "Ġà¬Ľà¬³à¬°": 8274,
      "à¬ĺà¬ŀ": 8275,
      "Ġà¬īà¬ªà¬¢": 8276,
      "Ġ\")": 8277,
      "à¬·à¬£à¬¬": 8278,
      "ĠàŃ©àŃ¦àŃ¬": 8279,
      "à¬°à¬¬à¬§": 8280,
      "onazole": 8281,
      "aline": 8282,
      "à¬ĩà¬¬à¬£": 8283,
      "à¬¿.),": 8284,
      "erit": 8285,
      "erve": 8286,
      "error": 8287,
      "ĠàŃ§àŃ®àŃ©": 8288,
      "ĠàŃ§àŃ®àŃ§àŃ«": 8289,
      "ĠàŃ§àŃ®àŃ«àŃ©": 8290,
      "ority": 8291,
      "à¬ĩà¬²à¬Ĺ": 8292,
      "à¬®à¬£à¬¬à¬°": 8293,
      "thy": 8294,
      "ĠàŃ®àŃ«àŃ¦": 8295,
      "à¬ªà¬ķà¬¤": 8296,
      "Ġà¬ªà¬¡à¬¨": 8297,
      "ese": 8298,
      "Ġà¬ľà¬³à¬ªà¬¤": 8299,
      "Ġà¬łà¬£": 8300,
      "à¬¨à¬¸à¬¨à¬Ļ": 8301,
      "à¬¬à¬¦à¬³à¬°": 8302,
      "ĠàŃ§àŃ«àŃ¨àŃ¬": 8303,
      "à¬°à¬ľà¬ķ": 8304,
      "à¬°à¬ľà¬ª": 8305,
      "à¬¾'_": 8306,
      "Ġà¬ķà¬¨à¬·": 8307,
      "ĠàŃ§àŃ¨àŃ¬àŃª": 8308,
      "à¬Łà¬®à¬¹": 8309,
      "Ġà¬ħà¬£à¬ļ": 8310,
      "à¬ªà¬¦à¬ª": 8311,
      "Ġsim": 8312,
      "ĠàŃ§àŃŃàŃ¬àŃ®": 8313,
      "ĠàŃ§àŃŃàŃ®àŃ§": 8314,
      "à¬®à¬¸à¬Ļ": 8315,
      "ĠàŃ§àŃ¬àŃ¨": 8316,
      "Ġà¬īà¬²à¬Ĺ": 8317,
      "ĠàŃ§àŃ©àŃ¨": 8318,
      "ĠàŃ§àŃ©àŃ¯": 8319,
      "à¬ıà¬ķà¬ķ": 8320,
      "ament": 8321,
      "àŃĩà¬ģ;": 8322,
      "à¬²à¬¬à¬£": 8323,
      "àŃŁà¬¸à¬°à¬ķ": 8324,
      "ĠAk": 8325,
      "ĠAt": 8326,
      "ĠMunicipal": 8327,
      "Ġmove": 8328,
      "ĠCH": 8329,
      "ĠCast": 8330,
      "ĠCode": 8331,
      "ĠPur": 8332,
      "Ġpe": 8333,
      "Ġpneum": 8334,
      "Ġcode": 8335,
      "à¬®à¬¹à¬Ļ": 8336,
      "Ġà¬«à¬³à¬Ń": 8337,
      "Ġbic": 8338,
      "ilian": 8339,
      "trib": 8340,
      "ĠàŃ¨àŃŃàŃ¬": 8341,
      "ected": 8342,
      "à¬¨à¬ªà¬¥à¬°": 8343,
      "ellow": 8344,
      "osc": 8345,
      "à¬Ĩà¬ĩà¬¦": 8346,
      "ulus": 8347,
      "Ġform": 8348,
      "ĠàŃ¨àŃ®àŃŃ": 8349,
      "à¬¤à¬¸à¬¤": 8350,
      "ĠDem": 8351,
      "andra": 8352,
      "phant": 8353,
      "Ġà¬ªà¬Ľà¬Ń": 8354,
      "etal": 8355,
      "Ġà¬ıà¬¨à¬Ĩà¬ĩ": 8356,
      "à¬¤à¬Ĺà¬Ļ": 8357,
      "ĠRep": 8358,
      "ĠàŃ¦àŃŃ": 8359,
      "ĠNet": 8360,
      "Ġnec": 8361,
      "Ġhigh": 8362,
      "ocra": 8363,
      "Ġà¬ıà¬¡à¬¸": 8364,
      "Ġà¬®à¬ľà¬Ń": 8365,
      "ĠàŃ§àŃ§àŃ§": 8366,
      "opia": 8367,
      "ava": 8368,
      "àŃ§àŃªàŃ¯": 8369,
      "ÉĻËĮ": 8370,
      "àŃ§àŃ©àŃ¦": 8371,
      "àŃ¨àŃªàŃ§": 8372,
      "Ġà¬Ľà¬ħà¬¦": 8373,
      "ĠàŃ©àŃ«àŃ©": 8374,
      "ÌĦ)": 8375,
      "enstr": 8376,
      "ĠàŃ©àŃªàŃª": 8377,
      "ĠàŃ©àŃªàŃ®": 8378,
      "à°°": 8379,
      "à²µ": 8380,
      "illiam": 8381,
      "Ġà¬Ńà¬°à¬¤à¬Ļ": 8382,
      "àŃĢ',": 8383,
      "ÉĶËĲ": 8384,
      "ĠàŃ©àŃ®àŃ¦": 8385,
      "àŃ§àŃ¯àŃ«àŃ«": 8386,
      "Ġ2005": 8387,
      "hai": 8388,
      "à¬¨à¬¹à¬Ł": 8389,
      "ophical": 8390,
      "Ġà¨¦": 8391,
      "Ġà¨¸": 8392,
      "ĠAll": 8393,
      "ĠàŃ§àŃ®àŃªàŃª": 8394,
      "àŃ§àŃ¯àŃ¨àŃ¯": 8395,
      "ĠStates": 8396,
      "isoniazid": 8397,
      "àª¾": 8398,
      "Ġheartbeat": 8399,
      "ĠAcadem": 8400,
      "position": 8401,
      "ĠEng": 8402,
      "ercap": 8403,
      "Ġ1980": 8404,
      "Ġà¬ĩà¬¹à¬§": 8405,
      "Ġbreathing": 8406,
      "athyroid": 8407,
      "NASA": 8408,
      "tivated": 8409,
      "ÏģÎ±": 8410,
      "à¬ħà¬ĩà¬ĺà¬°": 8411,
      "ĠHydro": 8412,
      "Ġmarrow": 8413,
      "ibrillator": 8414,
      "ĠTemple": 8415,
      "Ġmicro": 8416,
      "thesia": 8417,
      "Ġà¬¹à¬°à¬Ńà¬ľà¬¨": 8418,
      "Ġrupture": 8419,
      "ĠCastle": 8420,
      "ocratic": 8421,
      "ĠAcademy": 8422,
      ")\",": 8423,
      "87": 8424,
      "Ach": 8425,
      "BO": 8426,
      "Can": 8427,
      "Comp": 8428,
      "End": 8429,
      "ESA": 8430,
      "Ià¬°": 8431,
      "IFA": 8432,
      "La": 8433,
      "Man": 8434,
      "Mil": 8435,
      "NT": 8436,
      "Pad": 8437,
      "SP": 8438,
      "TY": 8439,
      "VP": 8440,
      "burn": 8441,
      "human": 8442,
      "iter": 8443,
      "knee": 8444,
      "lap": 8445,
      "magnesium": 8446,
      "nor": 8447,
      "oice": 8448,
      "palpitations": 8449,
      "rates": 8450,
      "social": 8451,
      "Ġter": 8452,
      "Ġet": 8453,
      "Ġoxygen": 8454,
      "à¬°à¬ĺà¬Ł": 8455,
      "à¬¿àŃĩ": 8456,
      "à¬¨à¬ıà¬¨": 8457,
      "à¬ķàŃŁ": 8458,
      "àŃŁà¬¨à¬Ļ": 8459,
      "Ġà¬¸à¬¨à¬°": 8460,
      "à¬²à¬¤à¬Ļ": 8461,
      "à¬²à¬ªà¬®": 8462,
      "à¬¹à¬¤à¬ķ": 8463,
      "à¬¦à¬ķà¬¤": 8464,
      "à¬£àŃŁà¬°": 8465,
      "à¬ªà¬ĺà¬°": 8466,
      "à¬Łà¬®à¬¨": 8467,
      "à¬ĩà¬®à¬£": 8468,
      "à¬ĩà¬ĸà¬£": 8469,
      "à¬Ĺà¬īà¬®": 8470,
      "Ġà¬ıà¬®à¬°": 8471,
      "Ġà¬ıà¬°à¬¸à¬®": 8472,
      "Ġà¬ħàŃŁà¬°": 8473,
      "à¬¡à¬«": 8474,
      "à¬ľà¬°à¬ķ": 8475,
      "à¬ľà¬ħ": 8476,
      "à¬ľà¬§à¬°": 8477,
      "Ġà¬¨à¬¹à¬°": 8478,
      "Ġà¬ĵàŃŁ": 8479,
      "à¬Ńà¬ıà¬¸": 8480,
      "à¬Ĥ_": 8481,
      "Ġà¬Ĩà¬ľà¬¨": 8482,
      "Ġà¬Ĩà¬°à¬Ń": 8483,
      "Ġà¬Ĩà¬³à¬¸": 8484,
      "à¬¼à¬¼à¬¾": 8485,
      "à¬ıà¬ıà¬²à¬Ń": 8486,
      "àŃ±à¬¡": 8487,
      "Ġà¬¶àŃŁà¬¨à¬°": 8488,
      "à¬Ĩà¬¬à¬°": 8489,
      "à¬Ĩà¬ĺ": 8490,
      "Ġ(âĢĮ": 8491,
      "à¬īà¬¸à¬¨": 8492,
      "à¬īà¬ļà¬°": 8493,
      "Ġà¬¥à¬¨": 8494,
      "enn": 8495,
      "à¬°à¬®à¬Ĺ": 8496,
      "à¬°à¬®à¬Ļ": 8497,
      "à¬¤à¬°à¬¨": 8498,
      "à¬¤à¬°à¬¬": 8499,
      "à¬¤à¬°à¬ļà¬¨": 8500,
      "àŃŁà¬ķà¬²": 8501,
      "Ġà¬ĩà¬īà¬ľ": 8502,
      "à¬°à¬¹à¬°à¬£": 8503,
      "à¬ļà¬¨à¬ª": 8504,
      "àŃ¨àŃ§àŃ¨": 8505,
      "àŃĩàŃĸ,": 8506,
      "à¬¸à¬°à¬³": 8507,
      "à¬¸à¬°à¬Ń": 8508,
      "Ġà¬Ľà¬Ł": 8509,
      "Ġà¬Ľà¬ħà¬®": 8510,
      "à¬ĺà¬·": 8511,
      "à¬ĺà¬Ĺà¬¡": 8512,
      "ination": 8513,
      "inamide": 8514,
      "Ġ\"'": 8515,
      "à¬¶à¬¨à¬Ĺ": 8516,
      "Ġà¬Ĩà¬¸à¬¬": 8517,
      "Ġà¬¸à¬°à¬¨": 8518,
      "tian": 8519,
      "onic": 8520,
      "à¬°à¬Łà¬¨": 8521,
      "Ġà¬ľà¬Ĺà¬¦à¬Ĺ": 8522,
      "ĠàŃ§àŃ®àŃ¨àŃª": 8523,
      "ĠàŃ§àŃ®àŃ«àŃ¯": 8524,
      "orax": 8525,
      "ĠàŃŃàŃ¯àŃ«": 8526,
      "Ġà¬ħà¬Ĺà¬Ń": 8527,
      "à¬Ĩà¬¨à¬¸": 8528,
      "Ġà¬Ĩà¬īà¬ľà¬£": 8529,
      "Ġà¬Ĩà¬īà¬Łà¬ª": 8530,
      "Ġà¬ľà¬Ĺà¬¨à¬®": 8531,
      "ĠàŃ§àŃŃàŃ¬àŃ¨": 8532,
      "ĠàŃ§àŃ¬àŃ©": 8533,
      "ĠàŃ§àŃ¬àŃ¯": 8534,
      "usian": 8535,
      "rey": 8536,
      "itan": 8537,
      "itor": 8538,
      "Ġà¬¸à¬¦à¬Ĺ": 8539,
      "Ġà¬¸à¬¦à¬Ń": 8540,
      "àŃŁà¬£à¬¨à¬Ļ": 8541,
      "Ġà¬ħà¬¬àŃŁà¬¬à¬°": 8542,
      "ĠàŃ§àŃªàŃ®": 8543,
      "à¬¸à¬®à¬ŀ": 8544,
      "unc": 8545,
      "atd": 8546,
      "idge": 8547,
      "à¬ķà¬ªà¬¥à¬°": 8548,
      "à¬Īà¬¦": 8549,
      "à¬¥à¬³à¬ļà¬°": 8550,
      "ĠStatis": 8551,
      "ĠAT": 8552,
      "ĠAfric": 8553,
      "ĠMem": 8554,
      "Ġmeth": 8555,
      "ĠPage": 8556,
      "Ġcor": 8557,
      "Ġclas": 8558,
      "Ġcream": 8559,
      "Ġcarcinoma": 8560,
      "Ġdev": 8561,
      "à¬·à¬®àŃŁ": 8562,
      "à¬®à¬¹à¬¸": 8563,
      "urry": 8564,
      "Ġà¬īà¬ªà¬¨àŃŁà¬¨": 8565,
      "olf": 8566,
      "Ġbenz": 8567,
      "à¬ªà¬Łà¬ª": 8568,
      "ili": 8569,
      "iple": 8570,
      "à¬¨à¬®à¬§": 8571,
      "Ġà¬¨à¬¨à¬·": 8572,
      "ĠàŃ¨àŃŃàŃ©": 8573,
      "ĠàŃ¨àŃŃàŃ®": 8574,
      "ĠElec": 8575,
      "Ġà¬ħà¬¦à¬®": 8576,
      "ĠàŃ¨àŃªàŃ¬": 8577,
      "ĠàŃ¨àŃªàŃ¯": 8578,
      "Ġà¬Ĩà¬ĩà¬Ĩà¬°à¬ıà¬¸": 8579,
      "iatic": 8580,
      "ĠLock": 8581,
      "à¬¸à¬¦à¬Ļ": 8582,
      "ĠHigh": 8583,
      "ĠàŃ¨àŃ©àŃ«": 8584,
      "ĠàŃ¨àŃ©àŃ¯": 8585,
      "ĠàŃ¨àŃ¬àŃ®": 8586,
      "Ġfer": 8587,
      "Ġfield": 8588,
      "ĠàŃ¨àŃ®àŃ¨": 8589,
      "àŃ§àŃ®àŃŃ": 8590,
      "Ġà¬§à¬¨à¬°à¬¤": 8591,
      "ĠDr": 8592,
      "ĠDec": 8593,
      "ĠDiv": 8594,
      "izer": 8595,
      "izumab": 8596,
      "ĠàŃ¯àŃ§àŃ": 8597,
      "aphy": 8598,
      "ĠBre": 8599,
      "ĠBritish": 8600,
      "à¬²à¬¤à¬¦": 8601,
      "à¬ķà¬²à¬ļà¬°": 8602,
      "Ġà¤ļ": 8603,
      "àŃ§àŃ¦àŃŃ": 8604,
      "abnormal": 8605,
      "àŃ§àŃ¨àŃ«": 8606,
      "ĠRed": 8607,
      "ĠRadio": 8608,
      "à®Ł": 8609,
      "ĠNA": 8610,
      "à¬²à¬Ĺà¬°à¬ķ": 8611,
      "àŃ§àŃŃàŃ¦": 8612,
      "gluc": 8613,
      "ishman": 8614,
      "ĠFund": 8615,
      "ĠFilm": 8616,
      "à¨¸": 8617,
      "ĠGSLV": 8618,
      "ĠGreat": 8619,
      "àŃ§àŃªàŃ®": 8620,
      "à¬ľà¬¨à¬°à¬¶": 8621,
      "Ġ38": 8622,
      "Ġair": 8623,
      "athi": 8624,
      "resistant": 8625,
      "ĠàŃ©àŃ©àŃŃ": 8626,
      "antihist": 8627,
      "à°Ĥ": 8628,
      "ift": 8629,
      "asting": 8630,
      "cobacterium": 8631,
      "à´Ĥ": 8632,
      "à¬¬à¬ľà¬Ĺà¬¤": 8633,
      "ĠàŃ©àŃ¬àŃ¨": 8634,
      "Ġorgan": 8635,
      "àŃ§àŃ¯àŃ¬àŃ«": 8636,
      "Ġeyes": 8637,
      "ouse": 8638,
      "Ġà¬ĸà¬¸à¬¡": 8639,
      "àŃį',": 8640,
      "Ġà¬Ĭà¬£": 8641,
      "àŃ§àŃ¯àŃ©àŃ¦": 8642,
      "àŃ§àŃ¯àŃ©àŃ¯": 8643,
      "ĠàŃ©àŃŃàŃŃ": 8644,
      "Ġcondition": 8645,
      "contin": 8646,
      "Éªd": 8647,
      "Ġà¨¹": 8648,
      "nai": 8649,
      "ĠØ±": 8650,
      "lasm": 8651,
      "Ġà¬ĵà¬ªà¬¨à¬¹": 8652,
      "enzyme": 8653,
      "ÉĳËĲr": 8654,
      "amily": 8655,
      "Ġà¬ĸà¬¦à¬¡": 8656,
      "Ġà¬Ĩà¬ĩà¬¡à¬²": 8657,
      "tosaurus": 8658,
      "icknes": 8659,
      "Ġbehavioral": 8660,
      "wards": 8661,
      "irect": 8662,
      "Ġà¬¡à¬¬à¬²à¬¸": 8663,
      "times": 8664,
      "Ġdysfunction": 8665,
      "Ġinhibitors": 8666,
      "ĠàŃłà¬ķ": 8667,
      "immunosup": 8668,
      "ematics": 8669,
      "Ġagent": 8670,
      "Ġà¬ħà¬£à¬¸à¬°à¬°": 8671,
      "Ġimmune": 8672,
      "metab": 8673,
      "physical": 8674,
      "Ġdepres": 8675,
      "ĠMahar": 8676,
      "Ġmyeloid": 8677,
      "esophageal": 8678,
      "toxin": 8679,
      "Mycobacterium": 8680,
      "tuberculosis": 8681,
      "penicillin": 8682,
      "Ġreceptor": 8683,
      "ç¥ŀ": 8684,
      "à¬ľà¬ħà¬¡à¬°": 8685,
      ")!": 8686,
      "/),": 8687,
      "44": 8688,
      "75": 8689,
      "Beta": 8690,
      "CP": 8691,
      "Cat": 8692,
      "Com": 8693,
      "Fal": 8694,
      "IN": 8695,
      "Li": 8696,
      "Mon": 8697,
      "Od": 8698,
      "Pe": 8699,
      "Pan": 8700,
      "bia": 8701,
      "don": 8702,
      "gg": 8703,
[...]
