{
  "version": "1.0",
  "truncation": null,
  "padding": null,
  "added_tokens": [
    {
      "id": 0,
      "content": "[PAD]",
      "single_word": false,
      "lstrip": false,
      "rstrip": false,
      "normalized": false,
      "special": true
    },
    {
      "id": 1,
      "content": "[UNK]",
      "single_word": false,
      "lstrip": false,
      "rstrip": false,
      "normalized": false,
      "special": true
    },
    {
      "id": 2,
      "content": "[CLS]",
      "single_word": false,
      "lstrip": false,
      "rstrip": false,
      "normalized": false,
      "special": true
    },
    {
      "id": 3,
      "content": "[SEP]",
      "single_word": false,
      "lstrip": false,
      "rstrip": false,
      "normalized": false,
      "special": true
    },
    {
      "id": 4,
      "content": "[MASK]",
      "single_word": false,
      "lstrip": false,
      "rstrip": false,
      "normalized": false,
      "special": true
    },
    {
      "id": 5,
      "content": "<|endoftext|>",
      "single_word": false,
      "lstrip": false,
      "rstrip": false,
      "normalized": false,
      "special": true
    }
  ],
  "normalizer": {
    "type": "Sequence",
    "normalizers": [
      {
        "type": "NFKD"
      },
      {
        "type": "Replace",
        "pattern": {
          "String": "\\u200D"
        },
        "content": ""
      },
      {
        "type": "Replace",
        "pattern": {
          "String": "\\u200C"
        },
        "content": ""
      },
      {
        "type": "Replace",
        "pattern": {
          "Regex": "[^\\u0000-\\u00FF\\u0B00-\\u0B7F\\u0964-\\u0965]"
        },
        "content": ""
      },
      {
        "type": "Strip",
        "strip_left": true,
        "strip_right": true
      }
    ]
  },
  "pre_tokenizer": {
    "type": "Sequence",
    "pretokenizers": [
      {
        "type": "Whitespace"
      }
    ]
  },
  "post_processor": null,
  "decoder": {
    "type": "WordPiece",
    "prefix": "##",
    "cleanup": true
  },
  "model": {
    "type": "WordPiece",
    "unk_token": "[UNK]",
    "continuing_subword_prefix": "##",
    "max_input_chars_per_word": 100,
    "vocab": {
      "[PAD]": 0,
      "[UNK]": 1,
      "[CLS]": 2,
      "[SEP]": 3,
      "[MASK]": 4,
      "<|endoftext|>": 5,
      "\u0001": 6,
      "\u0002": 7,
      "\u0003": 8,
      "\u001b": 9,
      "\u001f": 10,
      "!": 11,
      "\"": 12,
      "#": 13,
      "$": 14,
      "%": 15,
      "&": 16,
      "'": 17,
      "(": 18,
      ")": 19,
      "*": 20,
      "+": 21,
      ",": 22,
      "-": 23,
      ".": 24,
      "/": 25,
      "0": 26,
      "1": 27,
      "2": 28,
      "3": 29,
      "4": 30,
      "5": 31,
      "6": 32,
      "7": 33,
      "8": 34,
      "9": 35,
      ":": 36,
      ";": 37,
      "<": 38,
      "=": 39,
      ">": 40,
      "?": 41,
      "@": 42,
      "A": 43,
      "B": 44,
      "C": 45,
      "D": 46,
      "E": 47,
      "F": 48,
      "G": 49,
      "H": 50,
      "I": 51,
      "J": 52,
      "K": 53,
      "L": 54,
      "M": 55,
      "N": 56,
      "O": 57,
      "P": 58,
      "Q": 59,
      "R": 60,
      "S": 61,
      "T": 62,
      "U": 63,
      "V": 64,
      "W": 65,
      "X": 66,
      "Y": 67,
      "Z": 68,
      "[": 69,
      "\\": 70,
      "]": 71,
      "^": 72,
      "_": 73,
      "`": 74,
      "a": 75,
      "b": 76,
      "c": 77,
      "d": 78,
      "e": 79,
      "f": 80,
      "g": 81,
      "h": 82,
      "i": 83,
      "j": 84,
      "k": 85,
      "l": 86,
      "m": 87,
      "n": 88,
      "o": 89,
      "p": 90,
      "q": 91,
      "r": 92,
      "s": 93,
      "t": 94,
      "u": 95,
      "v": 96,
      "w": 97,
      "x": 98,
      "y": 99,
      "z": 100,
      "{": 101,
      "|": 102,
      "}": 103,
      "~": 104,
      "": 105,
      "": 106,
      "": 107,
      "": 108,
      "": 109,
      "": 110,
      "": 111,
      "": 112,
      "": 113,
      "": 114,
      "": 115,
      "": 116,
      "": 117,
      "": 118,
      "¡": 119,
      "¢": 120,
      "£": 121,
      "¤": 122,
      "¥": 123,
      "¦": 124,
      "§": 125,
      "©": 126,
      "«": 127,
      "¬": 128,
      "­": 129,
      "®": 130,
      "°": 131,
      "±": 132,
      "¶": 133,
      "·": 134,
      "»": 135,
      "¿": 136,
      "Æ": 137,
      "Ð": 138,
      "×": 139,
      "Ø": 140,
      "Þ": 141,
      "ß": 142,
      "æ": 143,
      "ð": 144,
      "÷": 145,
      "ø": 146,
      "þ": 147,
      "।": 148,
      "॥": 149,
      "ଁ": 150,
      "ଂ": 151,
      "ଃ": 152,
      "଄": 153,
      "ଅ": 154,
      "ଆ": 155,
      "ଇ": 156,
      "ଈ": 157,
      "ଉ": 158,
      "ଊ": 159,
      "ଋ": 160,
      "ଌ": 161,
      "଎": 162,
      "ଏ": 163,
      "ଐ": 164,
      "ଓ": 165,
      "ଔ": 166,
      "କ": 167,
      "ଖ": 168,
      "ଗ": 169,
      "ଘ": 170,
      "ଙ": 171,
      "ଚ": 172,
      "ଛ": 173,
      "ଜ": 174,
      "ଝ": 175,
      "ଞ": 176,
      "ଟ": 177,
      "ଠ": 178,
      "ଡ": 179,
      "ଢ": 180,
      "ଣ": 181,
      "ତ": 182,
      "ଥ": 183,
      "ଦ": 184,
      "ଧ": 185,
      "ନ": 186,
      "ପ": 187,
      "ଫ": 188,
      "ବ": 189,
      "ଭ": 190,
      "ମ": 191,
      "ଯ": 192,
      "ର": 193,
      "ଲ": 194,
      "ଳ": 195,
      "ଵ": 196,
      "ଶ": 197,
      "ଷ": 198,
      "ସ": 199,
      "ହ": 200,
      "଼": 201,
      "ଽ": 202,
      "ା": 203,
      "ି": 204,
      "ୀ": 205,
      "ୁ": 206,
      "ୂ": 207,
      "ୃ": 208,
      "ୄ": 209,
      "୆": 210,
      "େ": 211,
      "୉": 212,
      "୍": 213,
      "୎": 214,
      "ୖ": 215,
      "ୗ": 216,
      "ୟ": 217,
      "ୠ": 218,
      "ୡ": 219,
      "ୢ": 220,
      "ୣ": 221,
      "୤": 222,
      "୥": 223,
      "୦": 224,
      "୧": 225,
      "୨": 226,
      "୩": 227,
      "୪": 228,
      "୫": 229,
      "୬": 230,
      "୭": 231,
      "୮": 232,
      "୯": 233,
      "୰": 234,
      "ୱ": 235,
      "୲": 236,
      "୳": 237,
      "୵": 238,
      "##ମ": 239,
      "##ା": 240,
      "##ବ": 241,
      "##େ": 242,
      "##ଶ": 243,
      "##ସ": 244,
      "##୍": 245,
      "##ଥ": 246,
      "##ଳ": 247,
      "##ୖ": 248,
      "##ର": 249,
      "##ପ": 250,
      "##ି": 251,
      "##ଷ": 252,
      "##ଦ": 253,
      "##ୁ": 254,
      "##ଫ": 255,
      "##ୀ": 256,
      "##ଗ": 257,
      "##ଓ": 258,
      "##ୱ": 259,
      "##ଲ": 260,
      "##ୟ": 261,
      "##ନ": 262,
      "##ଞ": 263,
      "##ଚ": 264,
      "##୨": 265,
      "##୭": 266,
      "##ଙ": 267,
      "##କ": 268,
      "##୫": 269,
      "##ୃ": 270,
      "##ତ": 271,
      "##o": 272,
      "##m": 273,
      "##ଧ": 274,
      "##ଖ": 275,
      "##ଜ": 276,
      "##ଵ": 277,
      "##ଣ": 278,
      "##ଟ": 279,
      "##ହ": 280,
      "##e": 281,
      "##r": 282,
      "##b": 283,
      "##a": 284,
      "##l": 285,
      "##୦": 286,
      "##୧": 287,
      "##୬": 288,
      "##୩": 289,
      "##୮": 290,
      "##ଡ": 291,
      "##P": 292,
      "##I": 293,
      "##c": 294,
      "##t": 295,
      "##q": 296,
      "##Y": 297,
      "##G": 298,
      "##F": 299,
      "##ଭ": 300,
      "##n": 301,
      "##u": 302,
      "##g": 303,
      "##s": 304,
      "##f": 305,
      "##i": 306,
      "##ଇ": 307,
      "##ଏ": 308,
      "##୯": 309,
      "##ଆ": 310,
      "##ଂ": 311,
      "##ୗ": 312,
      "##ଯ": 313,
      "##ୂ": 314,
      "##଼": 315,
      "##ଉ": 316,
      "##ଛ": 317,
      "##_": 318,
      "##k": 319,
      "##p": 320,
      "##2": 321,
      "##0": 322,
      "##h": 323,
      "##ଠ": 324,
      "##ଘ": 325,
      "##ଃ": 326,
      "##W": 327,
      "##O": 328,
      "##1": 329,
      "##5": 330,
      "##ଅ": 331,
      "##v": 332,
      "##d": 333,
      "##y": 334,
      "##ଋ": 335,
      "##୪": 336,
      "##ଢ": 337,
      "##ଁ": 338,
      "##7": 339,
      "##9": 340,
      "##N": 341,
      "##3": 342,
      "##4": 343,
      "##L": 344,
      "##E": 345,
      "##w": 346,
      "##ଝ": 347,
      "##R": 348,
      "##ଊ": 349,
      "##H": 350,
      "##M": 351,
      "##C": 352,
      "##U": 353,
      "##8": 354,
      "##S": 355,
      "##6": 356,
      "##D": 357,
      "##@": 358,
      "##j": 359,
      "##X": 360,
      "##ଈ": 361,
      "##K": 362,
      "##x": 363,
      "##A": 364,
      "##z": 365,
      "##?": 366,
      "##.": 367,
      "##Z": 368,
      "##T": 369,
      "##!": 370,
      "##\"": 371,
      "##J": 372,
      "##ø": 373,
      "##B": 374,
      "##V": 375,
      "##:": 376,
      "##'": 377,
      "##Q": 378,
      "##ୠ": 379,
      "###": 380,
      "##ୢ": 381,
      "##*": 382,
      "##/": 383,
      "##-": 384,
      "##।": 385,
      "##,": 386,
      "##%": 387,
      "##ୄ": 388,
      "##|": 389,
      "##+": 390,
      "##]": 391,
      "##ଽ": 392,
      "##୤": 393,
      "##)": 394,
      "##<": 395,
      "##(": 396,
      "##;": 397,
      "##}": 398,
      "##ଔ": 399,
      "##\\": 400,
      "##୰": 401,
      "##~": 402,
      "##[": 403,
      "##>": 404,
      "##{": 405,
      "##$": 406,
      "##ଐ": 407,
      "##^": 408,
      "##ଌ": 409,
      "##=": 410,
      "##&": 411,
      "##ð": 412,
      "##æ": 413,
      "##®": 414,
      "##ß": 415,
      "##«": 416,
      "##`": 417,
      "##Ð": 418,
      "##॥": 419,
      "##Ø": 420,
      "##»": 421,
      "##þ": 422,
      "##¡": 423,
      "##଎": 424,
      "##÷": 425,
      "##×": 426,
      "##°": 427,
      "##¦": 428,
      "##¤": 429,
      "##·": 430,
      "##¬": 431,
      "##­": 432,
      "##©": 433,
      "##୲": 434,
      "##±": 435,
      "##": 436,
      "##": 437,
      "##£": 438,
      "##ୡ": 439,
      "##": 440,
      "##§": 441,
      "##¢": 442,
      "##": 443,
      "##": 444,
      "##ୣ": 445,
      "##¶": 446,
      "##ାର": 447,
      "##୍ର": 448,
      "##ୋ": 449,
      "##୍ତ": 450,
      "##ରେ": 451,
      "##୍ୟ": 452,
      "##ିବ": 453,
      "##୍କ": 454,
      "କର": 455,
      "##ାନ": 456,
      "##ଙ୍କ": 457,
      "##ାଇ": 458,
      "##ିଲ": 459,
      "##ନ୍ତ": 460,
      "##ର୍": 461,
      "##ିକ": 462,
      "##ହି": 463,
      "##ିବା": 464,
      "ପ୍ର": 465,
      "##ଛି": 466,
      "##କୁ": 467,
      "##ନ୍": 468,
      "ବି": 469,
      "##ିତ": 470,
      "##୍ଟ": 471,
      "##ମ୍": 472,
      "##ଥିଲ": 473,
      "କରି": 474,
      "##ନ୍ତି": 475,
      "##େବ": 476,
      "##୍ଷ": 477,
      "ସେ": 478,
      "##ରୁ": 479,
      "##ହା": 480,
      "##ନା": 481,
      "##ଛନ୍ତି": 482,
      "##ୋଇ": 483,
      "##ାରେ": 484,
      "##ଡ଼": 485,
      "ନି": 486,
      "##ାମ": 487,
      "##ଲି": 488,
      "ହୋଇ": 489,
      "##୍ୱ": 490,
      "##ତି": 491,
      "##ାବ": 492,
      "##କ୍ଷ": 493,
      "##ରି": 494,
      "##୍ଥ": 495,
      "##ାସ": 496,
      "##ଟି": 497,
      "##ମାନ": 498,
      "ପାଇ": 499,
      "##େଇ": 500,
      "##ଙ୍କୁ": 501,
      "##ଥିବା": 502,
      "##୍ୟା": 503,
      "##ଥିଲେ": 504,
      "##ନ୍ଦ": 505,
      "##ାତ": 506,
      "##ଧ୍ୟ": 507,
      "ଏବ": 508,
      "##ଣ୍": 509,
      "ସମ": 510,
      "##େଶ": 511,
      "ରା": 512,
      "##ସି": 513,
      "ଏହି": 514,
      "ଅନ": 515,
      "##୍ଚ": 516,
      "ପାଇଁ": 517,
      "##୍ଲ": 518,
      "##ବା": 519,
      "##ଯାଇ": 520,
      "##୍ରୀ": 521,
      "##ୋଗ": 522,
      "କେ": 523,
      "##ିନ": 524,
      "##ୁର": 525,
      "ତା": 526,
      "##ଷ୍ଟ": 527,
      "କି": 528,
      "##ଦ୍": 529,
      "##ାଗ": 530,
      "ଏବଂ": 531,
      "ମଧ୍ୟ": 532,
      "##ାର୍": 533,
      "##ାୟ": 534,
      "##ିଆ": 535,
      "##ଙ୍": 536,
      "##ାପ": 537,
      "##ଥିଲା": 538,
      "##କ୍ତ": 539,
      "##ାଳ": 540,
      "ଏକ": 541,
      "##ସ୍ତ": 542,
      "##ଣ୍ଡ": 543,
      "ଜଣ": 544,
      "##େଳ": 545,
      "##ଙ୍ଗ": 546,
      "ସଂ": 547,
      "କରା": 548,
      "##ାଲ": 549,
      "##ଯ୍ୟ": 550,
      "##ାଣ": 551,
      "ମୁ": 552,
      "##ାରୁ": 553,
      "ହେ": 554,
      "##ଭି": 555,
      "କରିବା": 556,
      "##କାର": 557,
      "ରାଜ": 558,
      "##ତା": 559,
      "ଉପ": 560,
      "##ୋଲି": 561,
      "ଏହା": 562,
      "ହେବ": 563,
      "##ୀୟ": 564,
      "ସୁ": 565,
      "##ୋକ": 566,
      "##ନ୍ତୁ": 567,
      "ପର": 568,
      "ସହ": 569,
      "ଯେ": 570,
      "##ଥା": 571,
      "##ାରି": 572,
      "##ଳି": 573,
      "##କ୍ର": 574,
      "ମି": 575,
      "##ଦ୍ଧ": 576,
      "##ଡି": 577,
      "##ାଉ": 578,
      "ସମ୍": 579,
      "ବ୍ୟ": 580,
      "##ଞ୍ଚ": 581,
      "##ସ୍ଥ": 582,
      "##େଖ": 583,
      "##୍ପ": 584,
      "##ବର": 585,
      "##ଧିକ": 586,
      "##ଜି": 587,
      "##ାନ୍ତ": 588,
      "##ିଲ୍ଲ": 589,
      "ସା": 590,
      "##୍ମ": 591,
      "ରହି": 592,
      "##ଲେ": 593,
      "##େଳେ": 594,
      "##ୃତ": 595,
      "##୍ରେ": 596,
      "##ଡ଼ି": 597,
      "ପରେ": 598,
      "ବା": 599,
      "##ଣା": 600,
      "##ହାର": 601,
      "##ହୁ": 602,
      "##ୂର୍": 603,
      "ପୁ": 604,
      "##ର୍ଷ": 605,
      "##୍ସ": 606,
      "##ରା": 607,
      "ନେଇ": 608,
      "କରାଯାଇ": 609,
      "ଅନୁ": 610,
      "ନିର୍": 611,
      "ଦେଇ": 612,
      "##ଲା": 613,
      "##ମାନେ": 614,
      "କାର୍": 615,
      "##ତ୍ତ": 616,
      "କହି": 617,
      "ବୋଲି": 618,
      "##୍ନ": 619,
      "##ୁବ": 620,
      "ଲୋକ": 621,
      "ସର": 622,
      "##ିର": 623,
      "କୁ": 624,
      "ସ୍ଥ": 625,
      "ନା": 626,
      "ଅଧିକ": 627,
      "##ିପ": 628,
      "ଦୁ": 629,
      "ଭାବ": 630,
      "ରାଜ୍ୟ": 631,
      "##ାଦ": 632,
      "##ନ୍ଦ୍ର": 633,
      "##େକ": 634,
      "##ହିଁ": 635,
      "##ୋର": 636,
      "##ଯୋଗ": 637,
      "##ଣ୍ଟ": 638,
      "##ାତ୍ର": 639,
      "##ଙ୍କର": 640,
      "##୍ତ୍ତ": 641,
      "##େବେ": 642,
      "##ିବେ": 643,
      "##ଷ୍": 644,
      "ପରି": 645,
      "##ିରେ": 646,
      "##ାରୀ": 647,
      "ବେ": 648,
      "##ନ୍ତ୍ରୀ": 649,
      "ଗୁ": 650,
      "ଜିଲ୍ଲ": 651,
      "##ୟରେ": 652,
      "କାର୍ଯ୍ୟ": 653,
      "##େଟ": 654,
      "କୋ": 655,
      "ଭାର": 656,
      "##ିବାର": 657,
      "କରିଥିଲେ": 658,
      "ପା": 659,
      "ସରକାର": 660,
      "କରୁ": 661,
      "##ଚନା": 662,
      "##ିକା": 663,
      "ପ୍ରତି": 664,
      "ବିଶ": 665,
      "##ଳା": 666,
      "ବିଜ": 667,
      "ବର୍ଷ": 668,
      "ଯା": 669,
      "ସ୍ୱ": 670,
      "##ିଲା": 671,
      "##କା": 672,
      "##େତ": 673,
      "ଚା": 674,
      "କରିଛନ୍ତି": 675,
      "##୍ବ": 676,
      "##ନ୍ନ": 677,
      "##ମେ": 678,
      "ଭାରତ": 679,
      "##ଧାନ": 680,
      "##ହିତ": 681,
      "ଆପ": 682,
      "##୍ଜ": 683,
      "##୍ୟୁ": 684,
      "ଦିନ": 685,
      "ହେଉ": 686,
      "ନିଜ": 687,
      "ସି": 688,
      "##ପୁର": 689,
      "ଦେଖ": 690,
      "##ାକୁ": 691,
      "##ମି": 692,
      "##ାରଣ": 693,
      "##ଷ୍ଠ": 694,
      "ଗୋ": 695,
      "ଯୋଗ": 696,
      "ମା": 697,
      "##ସ୍": 698,
      "##ୋଜ": 699,
      "##ଥାଏ": 700,
      "ବେଳେ": 701,
      "ଆସ": 702,
      "ସୂ": 703,
      "ରହିଛି": 704,
      "##ାରା": 705,
      "ଗ୍ର": 706,
      "ପୂର୍": 707,
      "୨୦": 708,
      "##କ୍ରମ": 709,
      "##ଞ୍ଜ": 710,
      "##ୀର": 711,
      "##ମା": 712,
      "##ମ୍ଭ": 713,
      "##ିଲେ": 714,
      "ମୋ": 715,
      "##ନି": 716,
      "ବ୍ୟବ": 717,
      "ନୂ": 718,
      "ତେବେ": 719,
      "କହିଛନ୍ତି": 720,
      "##ଦେଶ": 721,
      "##ଖ୍ୟ": 722,
      "ଥିବା": 723,
      "##ବି": 724,
      "ଅଭି": 725,
      "ଅନ୍ୟ": 726,
      "##ରଣ": 727,
      "##er": 728,
      "ଆପଣ": 729,
      "ଆର": 730,
      "##ପି": 731,
      "ଆଜି": 732,
      "##ପର": 733,
      "ରଖ": 734,
      "##ୁଲ": 735,
      "##ଳରେ": 736,
      "##ନ୍ଧ": 737,
      "##କ୍ତି": 738,
      "##ଦି": 739,
      "##ିବାକୁ": 740,
      "ଭାବେ": 741,
      "ଉପରେ": 742,
      "20": 743,
      "ଲାଗ": 744,
      "ହୋଇଛି": 745,
      "ତାଙ୍କ": 746,
      "##ଣି": 747,
      "ପ୍ରଶ": 748,
      "ପୂର୍ବ": 749,
      "##ମନ୍ତ୍ରୀ": 750,
      "##ଗୁ": 751,
      "କିଛି": 752,
      "##ପ୍ର": 753,
      "ସୂଚନା": 754,
      "##ବୁ": 755,
      "କରାଯ": 756,
      "##େଷ": 757,
      "ନାହିଁ": 758,
      "ଏଥ": 759,
      "##ମାନଙ୍କ": 760,
      "ଘଟ": 761,
      "##ଢ଼": 762,
      "ରେ": 763,
      "ମୃତ": 764,
      "ମାନ": 765,
      "##ଙ୍କା": 766,
      "ଅବ": 767,
      "##କ୍ଷା": 768,
      "##ର୍ତ୍ତ": 769,
      "ଦେଶ": 770,
      "##ଭାବ": 771,
      "##କି": 772,
      "ମଧ୍ୟରେ": 773,
      "##ଶା": 774,
      "ମୁଖ୍ୟ": 775,
      "ସ୍ଥାନ": 776,
      "##ପରି": 777,
      "##ର୍ଥ": 778,
      "##୍ୱର": 779,
      "##ପାର": 780,
      "##େଲ": 781,
      "ସମସ୍ତ": 782,
      "##ଯାଇଛି": 783,
      "ସହିତ": 784,
      "##ମୁ": 785,
      "##ଣ୍ଣ": 786,
      "କରୋ": 787,
      "##ୀନ": 788,
      "##ୋଧ": 789,
      "##ର୍ଯ୍ୟ": 790,
      "କ୍ଷ": 791,
      "ଜଣେ": 792,
      "ଦିଆ": 793,
      "ଦେବ": 794,
      "##ଟ୍": 795,
      "ନୂଆ": 796,
      "ଉତ୍ତ": 797,
      "##ିୟ": 798,
      "##ଉଁ": 799,
      "##ିକୁ": 800,
      "##ସର": 801,
      "କରାଯାଇଛି": 802,
      "ସାମ": 803,
      "##ଜାର": 804,
      "ଏବେ": 805,
      "ଚି": 806,
      "##ୀବ": 807,
      "##at": 808,
      "ସେହି": 809,
      "##ର୍ଶ": 810,
      "##ହେ": 811,
      "##ାନ୍ତି": 812,
      "ପକ୍ଷ": 813,
      "##ବାର": 814,
      "କରିବାକୁ": 815,
      "##ଚ୍ଚ": 816,
      "##ିତି": 817,
      "##ୀଙ୍କ": 818,
      "ଲକ୍ଷ": 819,
      "କା": 820,
      "ପ୍ରଦ": 821,
      "##..": 822,
      "ଶୁ": 823,
      "କେନ୍ଦ୍ର": 824,
      "ଆରମ୍ଭ": 825,
      "202": 826,
      "ଦ୍ୱ": 827,
      "ଦୁଇ": 828,
      "##ନୀ": 829,
      "କୌ": 830,
      "##ଗ୍ର": 831,
      "ହୋଇଥିବା": 832,
      "ସମୟରେ": 833,
      "ମେ": 834,
      "ଯାହା": 835,
      "##ନରେ": 836,
      "##es": 837,
      "କିନ୍ତୁ": 838,
      "##ଭାଗ": 839,
      "କରୋନା": 840,
      "##ଣସି": 841,
      "##ିକ୍ଷ": 842,
      "ଦଳ": 843,
      "ଶ୍ରୀ": 844,
      "ବିଜେ": 845,
      "ଯାଇ": 846,
      "##ାଣି": 847,
      "ଓଡ଼ି": 848,
      "##େଶ୍ୱର": 849,
      "ଭି": 850,
      "##ୋଷ": 851,
      "##ମ୍ପ": 852,
      "##ନ୍ତ୍ର": 853,
      "ଲାଗି": 854,
      "ରହ": 855,
      "ମିଳି": 856,
      "ଗତ": 857,
      "##ୃଷ୍ଟ": 858,
      "##ାଏ": 859,
      "##ଟେ": 860,
      "ଅପ": 861,
      "ସବୁ": 862,
      "ଟଙ୍କା": 863,
      "ପକ୍ଷରୁ": 864,
      "ଆଇ": 865,
      "##ୁବନ": 866,
      "କୌଣସି": 867,
      "##ାଜ": 868,
      "##ାସ୍ଥ": 869,
      "ଆସି": 870,
      "ପ୍ରଥ": 871,
      "##ଟକ": 872,
      "ଭୁବନ": 873,
      "##ଠାରେ": 874,
      "କରିଛି": 875,
      "ଆଉ": 876,
      "ବୁ": 877,
      "##ାଇବା": 878,
      "ଗା": 879,
      "##in": 880,
      "୧୦": 881,
      "ହି": 882,
      "##ar": 883,
      "ପି": 884,
      "ପାର": 885,
      "ଟି": 886,
      "ପ୍ରତ": 887,
      "ଉତ୍ତର": 888,
      "ବ୍ୟା": 889,
      "ଡି": 890,
      "##ିବାରୁ": 891,
      "ଆବ": 892,
      "ଦେ": 893,
      "ହେଉଛି": 894,
      "ଗୁରୁ": 895,
      "ଘର": 896,
      "ମହା": 897,
      "##he": 898,
      "##ଭିନ୍ନ": 899,
      "ବୃ": 900,
      "ହେଲେ": 901,
      "##ଟିଏ": 902,
      "ବିଭିନ୍ନ": 903,
      "##ୋର୍ଟ": 904,
      "##ମାନଙ୍କୁ": 905,
      "ବିଭାଗ": 906,
      "##ଭଳି": 907,
      "##ଡ଼ା": 908,
      "ଯେଉଁ": 909,
      "ଅନେକ": 910,
      "##ମ୍ବା": 911,
      "##ଲ୍": 912,
      "##ରୀ": 913,
      "##ଗତ": 914,
      "##ଯୁ": 915,
      "##ତ୍ର": 916,
      "##କାଶ": 917,
      "##ାଉଛି": 918,
      "ମହି": 919,
      "##ନର": 920,
      "##ାହ": 921,
      "ରୁ": 922,
      "##ମ୍ବ": 923,
      "ମହ": 924,
      "##ପର୍କ": 925,
      "ପୋଲି": 926,
      "##ବାଚ": 927,
      "##ାନ୍": 928,
      "##ଜ୍": 929,
      "##ାସ୍ତ": 930,
      "##on": 931,
      "ପହ": 932,
      "କର୍ମ": 933,
      "ଆମେ": 934,
      "ଜୀବ": 935,
      "ମିଳ": 936,
      "##ୋଟ": 937,
      "ବହୁ": 938,
      "##ସ୍କ": 939,
      "ପ୍ରଧାନ": 940,
      "##ୀତ": 941,
      "ପର୍ଯ୍ୟ": 942,
      "ଖବର": 943,
      "##ଚ୍": 944,
      "##ଶ୍ୟ": 945,
      "ଅଭିଯୋଗ": 946,
      "##ହ୍ନ": 947,
      "ହୋଇଥିଲା": 948,
      "ସର୍": 949,
      "##ଦ୍ର": 950,
      "##ରରେ": 951,
      "##ଦ୍ଧି": 952,
      "ମୃତ୍ୟୁ": 953,
      "2021": 954,
      "##ଦୀ": 955,
      "##ମାଣ": 956,
      "କାରଣ": 957,
      "ନେ": 958,
      "##ଳ୍ପ": 959,
      "ତାଙ୍କୁ": 960,
      "##or": 961,
      "##ଠାରୁ": 962,
      "ମାମ": 963,
      "ଡା": 964,
      "ଲେଖ": 965,
      "ଏହାର": 966,
      "ପଦ": 967,
      "ଆମ": 968,
      "ପରିବାର": 969,
      "ଜିଲ୍ଲା": 970,
      "##ିଲ୍ଲୀ": 971,
      "ଶିକ୍ଷ": 972,
      "ନିର୍ବାଚ": 973,
      "ଉତ": 974,
      "ହଜାର": 975,
      "##en": 976,
      "##ାୟୀ": 977,
      "ଷ୍ଟ": 978,
      "##ରୋଧ": 979,
      "ପୁଲି": 980,
      "##ୃଷ୍ଟି": 981,
      "##ାରିଖ": 982,
      "ହେବା": 983,
      "ବୈ": 984,
      "##ed": 985,
      "ଗୋଟିଏ": 986,
      "##ୋଲ": 987,
      "ନିକ": 988,
      "ବିଷ": 989,
      "##ଡା": 990,
      "##ଣୁ": 991,
      "କାମ": 992,
      "##ପୂର୍": 993,
      "##ାସ୍ଥ୍ୟ": 994,
      "##ିଟ": 995,
      "ଖେଳ": 996,
      "##ମାର": 997,
      "କ୍ର": 998,
      "ଭିତ": 999,
      "ବିଶ୍ୱ": 1000,
      "##ାୟକ": 1001,
      "ଗ୍ରାମ": 1002,
      "##ଫଳ": 1003,
      "##କ୍": 1004,
      "ପୁର": 1005,
      "ମହିଳା": 1006,
      "ସଂକ୍ରମ": 1007,
      "ରଖି": 1008,
      "ପୂର୍ବରୁ": 1009,
      "ଭୁବନେଶ୍ୱର": 1010,
      "##an": 1011,
      "ଏହାକୁ": 1012,
      "ପ୍ରଥମ": 1013,
      "ଶି": 1014,
      "ମନ": 1015,
      "##ଡ୍": 1016,
      "ପ୍ରସ୍ତ": 1017,
      "ନିକଟ": 1018,
      "ଫେ": 1019,
      "##ସ୍ଥା": 1020,
      "##ଚାର": 1021,
      "##ଟା": 1022,
      "ପୋଲିସ": 1023,
      "##ତନ": 1024,
      "ତେ": 1025,
      "##ସା": 1026,
      "##ାଇଁ": 1027,
      "ତାରିଖ": 1028,
      "##ିତା": 1029,
      "##ୁତ": 1030,
      "କରିବ": 1031,
      "ସୋ": 1032,
      "##ାନା": 1033,
      "##ମୁଖ": 1034,
      "##ଣୀ": 1035,
      "##st": 1036,
      "ତାହା": 1037,
      "ଅଞ୍ଚ": 1038,
      "##୍ୟାଳ": 1039,
      "୧୯": 1040,
      "ମାସ": 1041,
      "ନିୟ": 1042,
      "##ଷ୍ଟ୍ର": 1043,
      "ଆଗ": 1044,
      "ଦେଇଛନ୍ତି": 1045,
      "##ଦ୍ଦେଶ": 1046,
      "##ଶ୍ଚ": 1047,
      "ବିରୋଧ": 1048,
      "ଚଳ": 1049,
      "ଅଭ": 1050,
      "ଅଧିକାରୀ": 1051,
      "##ୌ": 1052,
      "କଂ": 1053,
      "ଜନ": 1054,
      "ପରିବ": 1055,
      "##ମ୍ବର": 1056,
      "##ାର୍ଥ": 1057,
      "ଥିଲେ": 1058,
      "ହୋଇଛନ୍ତି": 1059,
      "ସମୟ": 1060,
      "ବ୍ୟକ୍ତି": 1061,
      "##ସ୍ପ": 1062,
      "ଗୁରୁତ": 1063,
      "##ିନି": 1064,
      "ଆଲ": 1065,
      "ମୁଖ୍ୟମନ୍ତ୍ରୀ": 1066,
      "ପ୍ରକାଶ": 1067,
      "##ତେ": 1068,
      "ଯୁବ": 1069,
      "##ନ୍ତା": 1070,
      "କଥା": 1071,
      "##ପୂର୍ଣ୍ଣ": 1072,
      "ପହଞ୍ଚ": 1073,
      "ପର୍ଯ୍ୟନ୍ତ": 1074,
      "ଅଧ": 1075,
      "##େବା": 1076,
      "କରନ୍ତୁ": 1077,
      "ଓଡ଼ିଶା": 1078,
      "##୍ଵ": 1079,
      "the": 1080,
      "ଦ୍ୱାରା": 1081,
      "ଘଟଣା": 1082,
      "ଦୁର୍": 1083,
      "##it": 1084,
      "କଲେ": 1085,
      "##ଖ୍ୟା": 1086,
      "ମିଶ": 1087,
      "##ଜନ": 1088,
      "##ପାରେ": 1089,
      "ସ୍କ": 1090,
      "##ଶୁ": 1091,
      "##ଶ୍ୟକ": 1092,
      "##ୟକ": 1093,
      "ଦି": 1094,
      "ପ୍ରଦାନ": 1095,
      "##୍ରି": 1096,
      "##େଷ୍ଟ": 1097,
      "##ଦ୍ଧା": 1098,
      "##େତ୍ର": 1099,
      "ବୃଦ୍ଧି": 1100,
      "##ଭା": 1101,
      "ଚାଲି": 1102,
      "ଯଦି": 1103,
      "##ାତ୍ରୀ": 1104,
      "ସେମାନେ": 1105,
      "ଅର୍ଥ": 1106,
      "ପ୍ରଶ୍ନ": 1107,
      "##ଗ୍ରେ": 1108,
      "##ହଣ": 1109,
      "##ମିକ": 1110,
      "କରିବେ": 1111,
      "##ଧାରଣ": 1112,
      "କୋଟି": 1113,
      "##ରିକ": 1114,
      "ନାମ": 1115,
      "##ର୍ମ": 1116,
      "ସମ୍ପର୍କ": 1117,
      "କିମ୍ବା": 1118,
      "ନୁ": 1119,
      "##ସ୍ଥିତ": 1120,
      "ଭଲ": 1121,
      "##ଜଣ": 1122,
      "ଶେଷ": 1123,
      "କୁମାର": 1124,
      "କଟକ": 1125,
      "ସୁର": 1126,
      "ଥିଲା": 1127,
      "##ତ୍ୟା": 1128,
      "##ଠି": 1129,
      "ଚିହ୍ନ": 1130,
      "ରୋଗ": 1131,
      "ଏନ": 1132,
      "ପୂ": 1133,
      "##al": 1134,
      "##ତିକ": 1135,
      "ମୂ": 1136,
      "ଉଦ": 1137,
      "##କାରୀ": 1138,
      "##କର": 1139,
      "ଅସ": 1140,
      "##ic": 1141,
      "##ାସନ": 1142,
      "ରାଜ୍ୟରେ": 1143,
      "##ାଟ": 1144,
      "ବ୍ଲ": 1145,
      "ପୁଲିସ": 1146,
      "##ଜା": 1147,
      "ଆବଶ୍ୟକ": 1148,
      "##ପତି": 1149,
      "ତାଙ୍କର": 1150,
      "##ଡ଼ିକ": 1151,
      "କରିଥିବା": 1152,
      "କଂଗ୍ରେ": 1153,
      "ଜେ": 1154,
      "##ଯୁକ୍ତ": 1155,
      "ଜାରି": 1156,
      "ବିଦ": 1157,
      "##ଚିତ": 1158,
      "##ିମ": 1159,
      "##ାର୍ଟ": 1160,
      "ଯୋଜ": 1161,
      "କହ": 1162,
      "ଆୟ": 1163,
      "##ିକ୍": 1164,
      "##ୁଛି": 1165,
      "##ବେ": 1166,
      "ଭାରତୀୟ": 1167,
      "ଜଳ": 1168,
      "##ାୟତ": 1169,
      "କରାଯାଇଥିଲା": 1170,
      "ମୁଁ": 1171,
      "କୋଭି": 1172,
      "ବିବା": 1173,
      "ବ୍ୟବହାର": 1174,
      "##ୁଆ": 1175,
      "ଦେଇଥିଲେ": 1176,
      "କମି": 1177,
      "ସୃଷ୍ଟି": 1178,
      "କେବ": 1179,
      "ତଥା": 1180,
      "##ହେଁ": 1181,
      "କୁହା": 1182,
      "ଅନୁସ": 1183,
      "ବନ୍ଦ": 1184,
      "##ପ୍ତ": 1185,
      "ସେମାନଙ୍କ": 1186,
      "##ଦିନ": 1187,
      "##୍ୟାଳୟ": 1188,
      "ଏଭଳି": 1189,
      "##କ୍ରାନ୍ତ": 1190,
      "ପରୀ": 1191,
      "ଚାଷ": 1192,
      "ଏଥିରେ": 1193,
      "ଚିହ୍ନଟ": 1194,
      "##is": 1195,
      "ୟୁ": 1196,
      "ଚିକ": 1197,
      "##କାଳ": 1198,
      "ଜୀବନ": 1199,
      "##ମରେ": 1200,
      "ପ୍ରଧାନମନ୍ତ୍ରୀ": 1201,
      "ମାତ୍ର": 1202,
      "ଘଟଣ": 1203,
      "ଅଫ": 1204,
      "ତୁ": 1205,
      "##ଶି": 1206,
      "୨୦୧": 1207,
      "ନିର୍ଦ୍ଦେଶ": 1208,
      "##ଂଶ": 1209,
      "##ଥିବାରୁ": 1210,
      "ସ୍ବ": 1211,
      "##ାନୀ": 1212,
      "ନିଜର": 1213,
      "##ଦା": 1214,
      "##ଟର": 1215,
      "##ଡିକ": 1216,
      "ନିର୍ବାଚନ": 1217,
      "ଜଣାପ": 1218,
      "ସଭ": 1219,
      "କେବଳ": 1220,
      "କରୁଥିବା": 1221,
      "ପାଖ": 1222,
      "##ସ୍ୟ": 1223,
      "##ou": 1224,
      "##ର୍ଚ୍ଚ": 1225,
      "##ଲ୍ଲ": 1226,
      "##ନ୍ଦିର": 1227,
      "ହାତ": 1228,
      "ଆତ": 1229,
      "କ୍ଷେତ୍ର": 1230,
      "ଭଳି": 1231,
      "ନିଷ": 1232,
      "ମନ୍ତ୍ରୀ": 1233,
      "ରିପ": 1234,
      "##କ୍ଟ": 1235,
      "##ୂପ": 1236,
      "##ସନ": 1237,
      "##ସେ": 1238,
      "##ୟାର": 1239,
      "##େଟ୍": 1240,
      "##ପକ୍ଷ": 1241,
      "ତଦ": 1242,
      "ବଡ଼": 1243,
      "ସ୍ୱାସ୍ଥ୍ୟ": 1244,
      "ଡାକ୍ତ": 1245,
      "ଛାତ୍ର": 1246,
      "ଟ୍ର": 1247,
      "ସେହିପରି": 1248,
      "ଗାଁ": 1249,
      "କରାଯିବ": 1250,
      "ସିଂ": 1251,
      "୧୨": 1252,
      "ପ୍ରସ": 1253,
      "ତେଣୁ": 1254,
      "##om": 1255,
      "##ିତ୍ସ": 1256,
      "ଗଣ": 1257,
      "ସଂଖ୍ୟା": 1258,
      "କାର୍ଯ୍ୟକ୍ରମ": 1259,
      "କଂଗ୍ରେସ": 1260,
      "...": 1261,
      "##ୂର": 1262,
      "ବର୍ତ୍ତ": 1263,
      "କରୁଛନ୍ତି": 1264,
      "ଭା": 1265,
      "##୍ୟାନ": 1266,
      "ଚିକିତ୍ସ": 1267,
      "ପ୍ରକ": 1268,
      "ସ୍ପ": 1269,
      "ରିପୋର୍ଟ": 1270,
      "ନୁହେଁ": 1271,
      "##ଯିବ": 1272,
      "କୃ": 1273,
      "ସଦ": 1274,
      "ବିଧ": 1275,
      "##ଗର": 1276,
      "ପ୍ରଭାବ": 1277,
      "##ଂଚ": 1278,
      "ପ୍ରାୟ": 1279,
      "ଦାବ": 1280,
      "##ତ୍ତି": 1281,
      "ଅନ୍ତ": 1282,
      "ଗ୍ରହଣ": 1283,
      "##ାମୀ": 1284,
      "ମ୍ୟା": 1285,
      "ବିକ": 1286,
      "##ିତ୍ର": 1287,
      "##ାମାନ": 1288,
      "##nd": 1289,
      "##ec": 1290,
      "ଆକ୍ରାନ୍ତ": 1291,
      "ପୁଣି": 1292,
      "ଗିର": 1293,
      "##ୁଟ": 1294,
      "##ତେବ": 1295,
      "##ନେ": 1296,
      "ସତ": 1297,
      "ଘଟି": 1298,
      "ପ୍ରବ": 1299,
      "##ଆଇ": 1300,
      "ମିଳିଛି": 1301,
      "ଅତି": 1302,
      "କରିପାର": 1303,
      "##ଚ୍ଛ": 1304,
      "ସମ୍ପ": 1305,
      "##ବେଳେ": 1306,
      "କାର": 1307,
      "##ିପାଇଁ": 1308,
      "ଲା": 1309,
      "ଗିରଫ": 1310,
      "ବର୍ତ୍ତମାନ": 1311,
      "ରାସ୍ତ": 1312,
      "ବିଜେପି": 1313,
      "##େପ": 1314,
      "ଡାକ୍ତର": 1315,
      "ଘୋଷ": 1316,
      "ଧରି": 1317,
      "##ୀରେ": 1318,
      "ଯୋଗୁ": 1319,
      "କହିଥିଲେ": 1320,
      "ସାଧାରଣ": 1321,
      "ତଦନ୍ତ": 1322,
      "ଭାବରେ": 1323,
      "##ଂସ": 1324,
      "##ଳନ": 1325,
      "##ଯାୟୀ": 1326,
      "୧୧": 1327,
      "ପଟ": 1328,
      "##ଣ୍ଡା": 1329,
      "##ଡିଓ": 1330,
      "ବିଷୟରେ": 1331,
      "##ନାୟକ": 1332,
      "##ୀଙ୍କୁ": 1333,
      "ଦିଆଯାଇ": 1334,
      "ବିଶେଷ": 1335,
      "##ଚାରୀ": 1336,
      "##ଣ୍ଡି": 1337,
      "ନିକଟରେ": 1338,
      "ସମ୍ବ": 1339,
      "##ମିତି": 1340,
      "୧୫": 1341,
      "##ଭୟ": 1342,
      "##ାତୀୟ": 1343,
      "ଅଭିନ": 1344,
      "##ାନୁ": 1345,
      "ନିଆ": 1346,
      "ବ୍ର": 1347,
      "ପ୍ରତିଶ": 1348,
      "##ଭବ": 1349,
      "##ଧାର": 1350,
      "##ନାହିଁ": 1351,
      "ଦେଖିବାକୁ": 1352,
      "ରହିବ": 1353,
      "##ପରେ": 1354,
      "ବର": 1355,
      "ଆଦ": 1356,
      "##କରେ": 1357,
      "##ର୍ଶନ": 1358,
      "##ଶୀ": 1359,
      "##ତେବେଳେ": 1360,
      "କରିଥିଲା": 1361,
      "##ିସ": 1362,
      "ଜାଣ": 1363,
      "ଭାଇ": 1364,
      "ଯୁ": 1365,
      "କମ୍ପ": 1366,
      "ଏସ": 1367,
      "ଉଭୟ": 1368,
      "##ଧା": 1369,
      "ହୋଇଥିଲେ": 1370,
      "ନୂଆଦ": 1371,
      "##ଗଡ଼": 1372,
      "##୦୦": 1373,
      "ଦୀ": 1374,
      "ମାମଲା": 1375,
      "ହୁ": 1376,
      "##ତିରେ": 1377,
      "ଭିତରେ": 1378,
      "##କରଣ": 1379,
      "ନିଷ୍ପ": 1380,
      "ଠାରୁ": 1381,
      "##ଗା": 1382,
      "ଦେଶରେ": 1383,
      "କର୍ମଚାରୀ": 1384,
      "##ଜର": 1385,
      "##ୁଥିବା": 1386,
      "##ୋଚନା": 1387,
      "ଭୂ": 1388,
      "ନବ": 1389,
      "ସ୍ଥାନରେ": 1390,
      "ସଫଳ": 1391,
      "##ାଖ": 1392,
      "ପହଞ୍ଚି": 1393,
      "ହେଲା": 1394,
      "ହୋଇଥାଏ": 1395,
      "ଅନୁଯାୟୀ": 1396,
      "ନୂଆଦିଲ୍ଲୀ": 1397,
      "ସରକାରଙ୍କ": 1398,
      "ସ୍ତ": 1399,
      "##େଶ୍": 1400,
      "ବାର": 1401,
      "ସହା": 1402,
      "ପୋ": 1403,
      "##ାତ୍ରା": 1404,
      "##େଦ": 1405,
      "ସଚ": 1406,
      "ଅଛି": 1407,
      "ଲି": 1408,
      "at": 1409,
      "ଆକ": 1410,
      "ବର୍ଷା": 1411,
      "ଅନୁସାରେ": 1412,
      "ବଢ଼": 1413,
      "##ନ୍ଦୁ": 1414,
      "ଶୁଭ": 1415,
      "ଘୋଷଣା": 1416,
      "ଯୋଜନା": 1417,
      "ପରିଚ": 1418,
      "ପଞ୍ଚ": 1419,
      "##ଜ୍ଞ": 1420,
      "ଲୋକଙ୍କ": 1421,
      "ଏଠାରେ": 1422,
      "##ଡିଆ": 1423,
      "ଥାନା": 1424,
      "##ion": 1425,
      "##ଧି": 1426,
      "##ମିତ": 1427,
      "ନିର୍ମାଣ": 1428,
      "##ୟନ": 1429,
      "ହାଇ": 1430,
      "ପର୍": 1431,
      "ପ୍ରସ୍ତୁତ": 1432,
      "##ent": 1433,
      "ଦେବା": 1434,
      "##ିଅ": 1435,
      "##ନାଥ": 1436,
      "##ଗୁଡ଼ିକ": 1437,
      "##ାର୍ଡ": 1438,
      "ସୁରକ୍ଷା": 1439,
      "ଛା": 1440,
      "ତଥ": 1441,
      "##il": 1442,
      "##ସିଆ": 1443,
      "##ର୍ଣ୍ଣ": 1444,
      "##ହୁରି": 1445,
      "##ସ୍ୟା": 1446,
      "##ଡ଼ିଆ": 1447,
      "##ନ୍ଦର": 1448,
      "୨୦୨": 1449,
      "୨୪": 1450,
      "ଫଳରେ": 1451,
      "ସ୍ଥାନୀୟ": 1452,
      "ଆହୁରି": 1453,
      "ପ୍ରେ": 1454,
      "ନେତା": 1455,
      "##ଷ୍ଠାନ": 1456,
      "ଦର": 1457,
      "ଓଡ଼ିଶ": 1458,
      "##କ୍ରିୟ": 1459,
      "##ିକାଶ": 1460,
      "ସର୍ବ": 1461,
      "##ଗି": 1462,
      "ପାଳ": 1463,
      "ବିଧାୟକ": 1464,
      "ଆପଣଙ୍କ": 1465,
      "##ing": 1466,
      "##ଥାନ୍ତି": 1467,
      "ବୈଠ": 1468,
      "ବ୍ୟବସ": 1469,
      "##୍ଞ": 1470,
      "##ଯାଏ": 1471,
      "ସେଥ": 1472,
      "ଏପରି": 1473,
      "ଅଛନ୍ତି": 1474,
      "ବିଜୟ": 1475,
      "ବିକାଶ": 1476,
      "କରୁଛି": 1477,
      "ଅଧ୍ୟ": 1478,
      "ରାଷ୍ଟ୍ର": 1479,
      "ଆଶ": 1480,
      "ବୟ": 1481,
      "##ବାଦ": 1482,
      "ପ୍ରାର୍ଥ": 1483,
      "ସମସ୍ୟା": 1484,
      "ବନ୍ଧ": 1485,
      "##ସୁ": 1486,
      "ପ୍ରମୁଖ": 1487,
      "in": 1488,
      "##re": 1489,
      "କଳା": 1490,
      "ମତ": 1491,
      "##ବାସ": 1492,
      "ଟିକା": 1493,
      "ସଂକ୍ରମଣ": 1494,
      "##େନ": 1495,
      "##ଲ୍ୟ": 1496,
      "##ବତ": 1497,
      "##ାଉଥିବା": 1498,
      "##ଦ୍ଧାର": 1499,
      "ଫିଲ": 1500,
      "ମାର": 1501,
      "ମନ୍ଦିର": 1502,
      "ଆଲୋଚନା": 1503,
      "ଲୋକେ": 1504,
      "##ve": 1505,
      "##et": 1506,
      "ଦାବି": 1507,
      "ବ୍ୟବସ୍ଥା": 1508,
      "##ିତୀୟ": 1509,
      "କରିଥାଏ": 1510,
      "ମାଲ": 1511,
      "ପରୀକ୍ଷା": 1512,
      "ପ୍ରା": 1513,
      "ଦିଆଯାଇଛି": 1514,
      "କ୍ଷେତ୍ରରେ": 1515,
      "to": 1516,
      "ଲଗ": 1517,
      "ଦାସ": 1518,
      "##ିକି": 1519,
      "##ସ୍ତାନ": 1520,
      "ବହୁତ": 1521,
      "ଘରେ": 1522,
      "ଅଞ୍ଚଳ": 1523,
      "କୃଷ": 1524,
      "##ୂଳ": 1525,
      "##ନିକ": 1526,
      "ଶ୍ର": 1527,
      "ଅନ୍ତର୍": 1528,
      "ଭିଡିଓ": 1529,
      "##ନ୍ସ": 1530,
      "ବାଲ": 1531,
      "##ାପତି": 1532,
      "ପାଣି": 1533,
      "##ତୁ": 1534,
      "ହର": 1535,
      "ହେବେ": 1536,
      "ଘଣ୍ଟ": 1537,
      "ହିଁ": 1538,
      "##ପ୍": 1539,
      "##ହତ": 1540,
      "ସାହୁ": 1541,
      "ଲୁ": 1542,
      "##ୃତି": 1543,
      "##ବ୍ୟ": 1544,
      "##ତନ୍ତ୍ର": 1545,
      "ସଂକ୍ରମିତ": 1546,
      "ଦକ୍ଷ": 1547,
      "ସରକାରୀ": 1548,
      "ସାମିଲ": 1549,
      "##କେ": 1550,
      "୩୦": 1551,
      "##କଙ୍କ": 1552,
      "##ଯ୍ୟା": 1553,
      "ଙ୍କ": 1554,
      "##ଏସ": 1555,
      "##କ୍ଷେପ": 1556,
      "##ିଲି": 1557,
      "ଅପରା": 1558,
      "ପ୍ରଶାସନ": 1559,
      "ଚିକିତ୍ସା": 1560,
      "##ରିଆ": 1561,
      "##ାନି": 1562,
      "ଉଚ୍ଚ": 1563,
      "ବଡ": 1564,
      "ବାହ": 1565,
      "ପୁଅ": 1566,
      "ଦିଲ୍ଲୀ": 1567,
      "ନିଷ୍ପତ୍ତି": 1568,
      "ତଳ": 1569,
      "ଦେଶର": 1570,
      "ପଟ୍ଟ": 1571,
      "ହତ୍ୟା": 1572,
      "##ାଇଛନ୍ତି": 1573,
      "##ାଦ୍ୟ": 1574,
      "ପଡ଼ି": 1575,
      "୧୮": 1576,
      "ସ୍କୁଲ": 1577,
      "##ପଟେ": 1578,
      "##ଭର": 1579,
      "##ିବି": 1580,
      "##ବ୍": 1581,
      "##ୋପ": 1582,
      "##ଦେ": 1583,
      "ଓଡି": 1584,
      "##ମାନଙ୍କର": 1585,
      "ଏନେଇ": 1586,
      "କମ": 1587,
      "ଅର୍": 1588,
      "##ନ୍ୟ": 1589,
      "##ନ୍ତ୍ରଣ": 1590,
      "ଚାଲ": 1591,
      "ଆସନ୍ତା": 1592,
      "ବିବାହ": 1593,
      "##ାଳି": 1594,
      "##ସରରେ": 1595,
      "ନୂତନ": 1596,
      "ମାମଲ": 1597,
      "କରାଯାଉଛି": 1598,
      "ସକାଳ": 1599,
      "##ad": 1600,
      "୧୪": 1601,
      "କଲ": 1602,
      "##ଠନ": 1603,
      "##am": 1604,
      "##କ୍ସ": 1605,
      "ଟଙ୍କ": 1606,
      "##ew": 1607,
      "ଖାଦ୍ୟ": 1608,
      "ସେଠାରେ": 1609,
      "ପରିବର୍ତ୍ତ": 1610,
      "ବଢ": 1611,
      "##ଯାଇଥିଲା": 1612,
      "ଝିଅ": 1613,
      "ସମା": 1614,
      "ହେବାକୁ": 1615,
      "କୋଭିଡ": 1616,
      "##ରକୁ": 1617,
      "##ଜୁ": 1618,
      "ପକ": 1619,
      "ପ୍ରତିଶତ": 1620,
      "ସମେତ": 1621,
      "##ୃହ": 1622,
      "##ନାରେ": 1623,
      "ଗୁରୁତ୍ୱ": 1624,
      "ଅଞ୍ଚଳରେ": 1625,
      "ଫିଲ୍ମ": 1626,
      "##କାଲି": 1627,
      "##ବର୍ତ୍ତ": 1628,
      "ଉତ୍ସ": 1629,
      "##ନାର": 1630,
      "##ୋଟି": 1631,
      "ବିଜେଡି": 1632,
      "##ଷ୍ଠିତ": 1633,
      "ପୁରୀ": 1634,
      "ଜାତୀୟ": 1635,
      "##ନ୍ମ": 1636,
      "##ହାନ୍ତି": 1637,
      "କନ": 1638,
      "ବିରୋଧରେ": 1639,
      "ଅଗ": 1640,
      "ବିପ": 1641,
      "on": 1642,
      "ଜିଲ୍ଲାରେ": 1643,
      "##ାନ୍ସ": 1644,
      "##ଦେଇ": 1645,
      "of": 1646,
      "ସୁଦ୍ଧା": 1647,
      "ଚେ": 1648,
      "ପ୍ଲ": 1649,
      "##େଶ୍ବର": 1650,
      "ପୁରୁ": 1651,
      "##ାଲି": 1652,
      "ଉଠ": 1653,
      "କୋର୍ଟ": 1654,
      "ଲାଭ": 1655,
      "##ମର": 1656,
      "ଅତ": 1657,
      "##ଦାନ": 1658,
      "##ାଙ୍କ": 1659,
      "##ସିଂ": 1660,
      "ସମ୍ପର୍କରେ": 1661,
      "##ଭୂ": 1662,
      "ଇଣ୍ଡ": 1663,
      "ରୂପ": 1664,
      "##ia": 1665,
      "##ିଲ୍": 1666,
      "ମିଶ୍ର": 1667,
      "ବାହାର": 1668,
      "##ାଳୟ": 1669,
      "ଶକ୍ତି": 1670,
      "କେଉଁ": 1671,
      "ନିମ": 1672,
      "ସୁସ୍ଥ": 1673,
      "##ଜେ": 1674,
      "ମସି": 1675,
      "ଅଭିଯୁକ୍ତ": 1676,
      "##ଟୋ": 1677,
      "ସମ୍ଭାବ": 1678,
      "##ାଇନ": 1679,
      "ସଭାପତି": 1680,
      "ପଟ୍ଟନାୟକ": 1681,
      "ମୂଲ୍ୟ": 1682,
      "ସେମାନଙ୍କୁ": 1683,
      "##ଘଟ": 1684,
      "ରାଜ୍ୟର": 1685,
      "ରହିଥିବା": 1686,
      "ଜି": 1687,
      "##ାପାଳ": 1688,
      "ଭାଗ": 1689,
      "ପ୍ରକାର": 1690,
      "##ାଇଥିଲେ": 1691,
      "##କ୍ରମଣ": 1692,
      "ମୋଟ": 1693,
      "ମଧ୍ୟରୁ": 1694,
      "ପଡ଼": 1695,
      "##ତୀ": 1696,
      "ନୀ": 1697,
      "##ାନାରେ": 1698,
      "ଶିକ୍ଷା": 1699,
      "ଶିଶୁ": 1700,
      "##ୋନ": 1701,
      "ପଞ୍ଚାୟତ": 1702,
      "##ber": 1703,
      "##ଳୀ": 1704,
      "୧୩": 1705,
      "ପଢ଼": 1706,
      "ଚଳିତ": 1707,
      "ଆକ୍ରମଣ": 1708,
      "##ନୀତି": 1709,
      "ଦୂର": 1710,
      "କ୍ୟା": 1711,
      "ଦେଖି": 1712,
      "##ଭୁ": 1713,
      "ମାଧ୍ୟ": 1714,
      "ତଥ୍ୟ": 1715,
      "ଯୋଗୁଁ": 1716,
      "##ଗ୍ରୀ": 1717,
      "ପ୍ରତ୍ୟ": 1718,
      "and": 1719,
      "ସହାୟ": 1720,
      "##ହନ": 1721,
      "ହସ୍ପ": 1722,
      "##ଛାତ୍ରୀ": 1723,
      "ସେବା": 1724,
      "ରୋ": 1725,
      "ହସ୍ପିଟ": 1726,
      "ଶର": 1727,
      "ଲୋକଙ୍କୁ": 1728,
      "ସହଯୋଗ": 1729,
      "ପାକି": 1730,
      "##ିକେଟ": 1731,
      "##as": 1732,
      "୨୫": 1733,
      "ଜା": 1734,
      "ପାଠ": 1735,
      "ଛାତ୍ରଛାତ୍ରୀ": 1736,
      "##el": 1737,
      "ହସ୍ପିଟାଲ": 1738,
      "##ପାଳ": 1739,
      "ଦୁଇଟି": 1740,
      "ଏଥିପାଇଁ": 1741,
      "ଉପସ୍ଥିତ": 1742,
      "ତାରିଖରେ": 1743,
      "ଶ୍ରେ": 1744,
      "ପଦକ୍ଷେପ": 1745,
      "ଖୁ": 1746,
      "ବାବ": 1747,
      "ଉନ୍ନ": 1748,
      "ବର୍": 1749,
      "ସଦସ୍ୟ": 1750,
      "ସିଂହ": 1751,
      "##୍ୟାସ": 1752,
      "ତିନି": 1753,
      "ଅନୁଷ୍ଠିତ": 1754,
      "୧୬": 1755,
      "##ଯାଉଛି": 1756,
      "##ଭେ": 1757,
      "##କ୍ୟ": 1758,
      "ମାନେ": 1759,
      "ଦେଖା": 1760,
      "##ଗରେ": 1761,
      "ବନ": 1762,
      "PM": 1763,
      "##ଥି": 1764,
      "ସୀ": 1765,
      "ଜିଲ୍ଲାରୁ": 1766,
      "ପଡ": 1767,
      "କରିବାର": 1768,
      "##ାଇବାକୁ": 1769,
      "##ୁରୋ": 1770,
      "ଉଚିତ": 1771,
      "ପରିଚାଳ": 1772,
      "ହ୍ର": 1773,
      "##ର୍ତ୍ତି": 1774,
      "କାରଣରୁ": 1775,
      "##ାପ୍ତ": 1776,
      "##ତ୍ନ": 1777,
      "ଆର୍ଥ": 1778,
      "ଫେର": 1779,
      "ଦିବ": 1780,
      "ଆତ୍ମ": 1781,
      "ଉଦ୍ୟ": 1782,
      "ନେତ": 1783,
      "ଜିଲ୍ଲାର": 1784,
      "ତାଲ": 1785,
      "ମିଳିବ": 1786,
      "##ଞ୍ଜନ": 1787,
      "ରି": 1788,
      "ଦାୟ": 1789,
      "##୍ରମ": 1790,
      "##ପାରିବ": 1791,
      "##ବର୍ତ୍ତୀ": 1792,
      "ଉଦ୍ଧାର": 1793,
      "##ବାନ": 1794,
      "ବୋ": 1795,
      "ପଠ": 1796,
      "କରନ୍ତି": 1797,
      "##ଅନ୍ତୁ": 1798,
      "ବ୍ଲକ": 1799,
      "ଆଧାର": 1800,
      "ଦେବାକୁ": 1801,
      "ଗୃହ": 1802,
      "##ାଲ୍": 1803,
      "ରାୟ": 1804,
      "##୍ରୁ": 1805,
      "ରହୁ": 1806,
      "ସୁନ୍ଦର": 1807,
      "ବିଧାନ": 1808,
      "##ates": 1809,
      "##ନ୍ତେ": 1810,
      "ଚନ୍ଦ୍ର": 1811,
      "ଦେଉ": 1812,
      "ବସ": 1813,
      "ବ୍ୟାଙ୍କ": 1814,
      "ହେଉଥିବା": 1815,
      "##େର": 1816,
      "ପାଖରେ": 1817,
      "ଉତ୍ପ": 1818,
      "ପୂର୍ବତନ": 1819,
      "##ବର୍ଷ": 1820,
      "##ଗ୍ରହ": 1821,
      "ବିମାନ": 1822,
      "##ାତା": 1823,
      "କଣ": 1824,
      "ଆଇନ": 1825,
      "##ିକାର": 1826,
      "ଉଲ୍ଲ": 1827,
      "ବଦ": 1828,
      "ଯୁବକ": 1829,
      "ବାସ": 1830,
      "ବାତ": 1831,
      "ବ୍ୟବସାୟ": 1832,
      "##ନାଲ": 1833,
      "ଆୟୋଜ": 1834,
      "ପଛ": 1835,
      "ମୁମ୍ବ": 1836,
      "ରାସ୍ତା": 1837,
      "ଖୁବ": 1838,
      "ଅଧ୍ୟକ୍ଷ": 1839,
      "ସ୍ମ": 1840,
      "##କୋର୍ଟ": 1841,
      "ଚର୍ଚ୍ଚ": 1842,
      "##ରର": 1843,
      "ସାମ୍": 1844,
      "ଜୁ": 1845,
      "ଦିଆଯାଇଥିବା": 1846,
      "##ର୍ଘ": 1847,
      "ଆର୍ଥିକ": 1848,
      "##ol": 1849,
      "କମ୍": 1850,
      "ପିଲା": 1851,
      "ସଂଗ": 1852,
      "ପଡି": 1853,
      "ଥର": 1854,
      "##ପାରି": 1855,
      "ଦଳର": 1856,
      "ବ୍ୟୁରୋ": 1857,
      "ପ୍ରଥମେ": 1858,
      "##ତାର": 1859,
      "ଭାରତର": 1860,
      "ହାସ": 1861,
      "ରାଉ": 1862,
      "କରିବାରେ": 1863,
      "##ଫ୍": 1864,
      "ସମ୍ମାନ": 1865,
      "##ହେରା": 1866,
      "ପାଳନ": 1867,
      "ଅନୁମ": 1868,
      "##ost": 1869,
      "##ସ୍ଥାନ": 1870,
      "ଜବତ": 1871,
      "ପଶ୍ଚ": 1872,
      "ଏକା": 1873,
      "##ସଭା": 1874,
      "ପ୍ରକଳ୍ପ": 1875,
      "ଚାଷୀ": 1876,
      "##ଦାର": 1877,
      "୧୭": 1878,
      "ପାକିସ୍ତାନ": 1879,
      "ପାଇବା": 1880,
      "ଏହାପରେ": 1881,
      "ଦ୍ୱିତୀୟ": 1882,
      "ହୁଏ": 1883,
      "ମୁମ୍ବାଇ": 1884,
      "କୋର": 1885,
      "ହୋଇପାରେ": 1886,
      "ବାପ": 1887,
      "ବନ୍ଧୁ": 1888,
      "ଭାଇର": 1889,
      "##ୋର୍": 1890,
      "##ସଂ": 1891,
      "୨୧": 1892,
      "ଶୁଣ": 1893,
      "ବୁଝ": 1894,
      "ହ୍ରାସ": 1895,
      "##ଯୋଗ୍ୟ": 1896,
      "ସାହା": 1897,
      "ଦ୍ବ": 1898,
      "ସେୟାର": 1899,
      "##ର୍କ": 1900,
      "ପେ": 1901,
      "##ews": 1902,
      "କେତ": 1903,
      "##ନୁ": 1904,
      "##ac": 1905,
      "ଦୀର୍ଘ": 1906,
      "ଭଦ୍ର": 1907,
      "୫୦": 1908,
      "##ସୀ": 1909,
      "##ଠୁ": 1910,
      "##ଦ୍ୱ": 1911,
      "ଭାଷ": 1912,
      "##ରାଜ": 1913,
      "ଟ୍ରେ": 1914,
      "ପ୍ରାର୍ଥୀ": 1915,
      "ନିମନ୍ତେ": 1916,
      "ବରି": 1917,
      "##ତମ": 1918,
      "##ିତ୍ୱ": 1919,
      "ମ୍ୟାଚ": 1920,
      "ଯୋ": 1921,
      "ଆଦି": 1922,
      "ସାଇ": 1923,
      "ବିଚାର": 1924,
      "##ଦେବ": 1925,
      "##ଏସ୍": 1926,
      "##କ୍ଷଣ": 1927,
      "##ଗିରି": 1928,
      "ପାଇଛି": 1929,
      "##ପାତ୍ର": 1930,
      "ଘଟିଛି": 1931,
      "ଟିମ୍": 1932,
      "##ଙ୍ଗା": 1933,
      "ପରିବର୍ତ୍ତନ": 1934,
      "ଗଞ୍ଜ": 1935,
      "ଲାଗିଛି": 1936,
      "ଜଣାପଡ଼ି": 1937,
      "କରାଯାଇଥିବା": 1938,
      "ସଙ୍ଗ": 1939,
      "ପଶ୍ଚିମ": 1940,
      "ଜୟ": 1941,
      "କରିପାରିବେ": 1942,
      "ନିର": 1943,
      "ଭୋଟ": 1944,
      "##ଏମ": 1945,
      "##୍ରା": 1946,
      "ଜନ୍ମ": 1947,
      "ଟେଷ୍ଟ": 1948,
      "ଇଣ୍ଡିଆ": 1949,
      "୨୨": 1950,
      "ସମାଜ": 1951,
      "##ଥର": 1952,
      "##୍ରୀୟ": 1953,
      "ପଢ": 1954,
      "ମଙ୍ଗ": 1955,
      "ସ୍ଥିତ": 1956,
      "ସମ୍ଭାବନା": 1957,
      "##ଣ୍ଡର": 1958,
      "ତାର": 1959,
      "##ଛୁ": 1960,
      "##ଷ୍କ": 1961,
      "##ଧୀନ": 1962,
      "ମାଧ୍ୟମରେ": 1963,
      "##ାଇଲ": 1964,
      "##ir": 1965,
      "##ଭ୍": 1966,
      "ହେଉଛନ୍ତି": 1967,
      "ନାୟକ": 1968,
      "##ପକ୍ଷରେ": 1969,
      "ପରାମ": 1970,
      "ଅବସରରେ": 1971,
      "ଆପଣଙ୍କୁ": 1972,
      "ଓଡ଼ିଆ": 1973,
      "ଦୁର୍ଘଟ": 1974,
      "##ରେନ୍ଦ୍ର": 1975,
      "ଯେତେବେଳେ": 1976,
      "##ସ୍କାର": 1977,
      "ପରାମର୍ଶ": 1978,
      "ବରିଷ୍ଠ": 1979,
      "ସପ୍ତ": 1980,
      "##ish": 1981,
      "ଖୋ": 1982,
      "ରାମ": 1983,
      "):": 1984,
      "##ଡେ": 1985,
      "ଉତ୍ପାଦ": 1986,
      "ଅଶ": 1987,
      "##ମତା": 1988,
      "ଗତକାଲି": 1989,
      "ବାକ୍ୟ": 1990,
      "##ୖତିକ": 1991,
      "ହାସଲ": 1992,
      "ଦକ୍ଷି": 1993,
      "ନିୟମ": 1994,
      "କେହି": 1995,
      "ଏମିତି": 1996,
      "ପାଣ": 1997,
      "ଶୀ": 1998,
      "##le": 1999,
      "ଗୁରୁତର": 2000,
      "##ାନ୍ୟ": 2001,
      "##ୀପ": 2002,
      "ଇଂ": 2003,
      "ବିଜ୍ଞ": 2004,
      "ଶିବ": 2005,
      "ଶରୀର": 2006,
      "##ିବାରେ": 2007,
      "ଦୃ": 2008,
      "##ଫା": 2009,
      "ନବୀନ": 2010,
      "##ଯୁକ୍ତି": 2011,
      "ପେଟ": 2012,
      "ଡ୍ର": 2013,
      "ଆଖ": 2014,
      "##ର୍ସ": 2015,
      "##ପକ": 2016,
      "କାହା": 2017,
      "##ାପନ": 2018,
      "ସଂଘ": 2019,
      "ସାରା": 2020,
      "##ାମାନେ": 2021,
      "କେତେକ": 2022,
      "10": 2023,
      "ମୋଦି": 2024,
      "ଦକ୍ଷିଣ": 2025,
      "ସ୍ଥିତି": 2026,
      "##ମାରୀ": 2027,
      "ଆତଙ୍କ": 2028,
      "##mber": 2029,
      "ସମର୍ଥ": 2030,
      "##ସ୍ଥାରେ": 2031,
      "##ଙ୍ଗରେ": 2032,
      "ହେବାର": 2033,
      "##ସିକ": 2034,
      "ସହାୟତା": 2035,
      "ଉକ୍ତ": 2036,
      "##ବିଦ": 2037,
      "କମ୍ପାନୀ": 2038,
      "ପ୍ରକ୍ରିୟ": 2039,
      "##ଏଲ": 2040,
      "##ay": 2041,
      "ପର୍ଯ୍ୟା": 2042,
      "ତର": 2043,
      "##ଟିଂ": 2044,
      "ବଜ": 2045,
      "କ୍ୟ": 2046,
      "ସଚିବ": 2047,
      "##ri": 2048,
      "ଆସିଛି": 2049,
      "ମହାର": 2050,
      "201": 2051,
      "ରାଷ୍ଟ୍ରପତି": 2052,
      "ଭୟ": 2053,
      "ଲକ୍ଷ୍ୟ": 2054,
      "ଘଣ୍ଟା": 2055,
      "କମିଟି": 2056,
      "##ଙ୍ଗଲ": 2057,
      "##ଚି": 2058,
      "ସୁଯୋଗ": 2059,
      "ବେହେରା": 2060,
      "କାର୍ଯ": 2061,
      "##....": 2062,
      "କ୍ଲ": 2063,
      "##ମେଣ୍ଟ": 2064,
      "##ାନୁଷ୍ଠାନ": 2065,
      "##ଦିକ": 2066,
      "ସ୍ପଷ୍ଟ": 2067,
      "ରହିଛନ୍ତି": 2068,
      "##ଦର": 2069,
      "##ତାବ": 2070,
      "ଆଣି": 2071,
      "##ଘ୍ର": 2072,
      "ପ୍ରତ୍ୟେକ": 2073,
      "ଭିନ୍ନ": 2074,
      "##ନାକୁ": 2075,
      "ମିଡିଆ": 2076,
      "ଅଲ": 2077,
      "##୍ଚ୍ଚ": 2078,
      "ଅମ": 2079,
      "ସାହାଯ୍ୟ": 2080,
      "##କୃତ": 2081,
      "##ାନ୍ଧ": 2082,
      "##ter": 2083,
      "ନେବ": 2084,
      "ବାଇ": 2085,
      "କୁହାଯାଇଛି": 2086,
      "##ro": 2087,
      "##ବାଦୀ": 2088,
      "ଆଣ": 2089,
      "କାଳ": 2090,
      "Od": 2091,
      "ସୁବି": 2092,
      "ଆବଶ୍ୟକତା": 2093,
      "ତଳେ": 2094,
      "##ସରେ": 2095,
      "ଛୋଟ": 2096,
      "ଭଦ୍ରକ": 2097,
      "ନମ୍ବର": 2098,
      "ଡେ": 2099,
      "ମହାନ୍ତି": 2100,
      "ଆହତ": 2101,
      "##୍କୁ": 2102,
      "##ଦନ": 2103,
      "ଲେଖନ୍ତୁ": 2104,
      "ଆଶା": 2105,
      "ନାଁ": 2106,
      "##୍ତି": 2107,
      "ବଜାର": 2108,
      "ଜିଲ୍ଲାପାଳ": 2109,
      "##ଧୁ": 2110,
      "##୍ଟି": 2111,
      "##ଲପୁର": 2112,
      "ତିଆ": 2113,
      "##ପା": 2114,
      "ଲାଇ": 2115,
      "କରୁଥିଲେ": 2116,
      "ଯାତ୍ରା": 2117,
      "ମାମଲାରେ": 2118,
      "##ଦରେ": 2119,
      "ଯାଏ": 2120,
      "##ିଆଇ": 2121,
      "ଖୁସି": 2122,
      "##ୃତୀୟ": 2123,
      "##ତଃ": 2124,
      "ପଞ୍ଜ": 2125,
      "##ସନ୍": 2126,
      "##କ୍ଷିତ": 2127,
      "ତୁର": 2128,
      "ମୋର": 2129,
      "ତୃତୀୟ": 2130,
      "##ାଜିକ": 2131,
      "ନାଗ": 2132,
      "##ନୈତିକ": 2133,
      "ଦିନରେ": 2134,
      "ବିଷୟ": 2135,
      "ଆଗକୁ": 2136,
      "ତିଆରି": 2137,
      "କୃଷି": 2138,
      "ଜଣା": 2139,
      "ଭୁବନେଶ୍ବର": 2140,
      "##ପଥ": 2141,
      "##ଣ୍ଟର": 2142,
      "ପ୍ରଦର୍ଶନ": 2143,
      "##ହର": 2144,
      "ଆଫ": 2145,
      "ଫଟୋ": 2146,
      "ଜଗତ": 2147,
      "##ଏମ୍": 2148,
      "ସମ୍ପୂର୍ଣ୍ଣ": 2149,
      "ବାକ୍ୟକୁ": 2150,
      "ଆବେଦ": 2151,
      "ଜଣାପଡ଼ିଛି": 2152,
      "##ଥିରେ": 2153,
      "ଘରକୁ": 2154,
      "ଯୋଗାଇ": 2155,
      "##ସିଆଲ": 2156,
      "ରବ": 2157,
      "ସମ୍ମୁଖ": 2158,
      "ମସିହ": 2159,
      "ସେବ": 2160,
      "ପୃ": 2161,
      "##ପତ୍ର": 2162,
      "ଖୋର୍": 2163,
      "ଦେଇଛି": 2164,
      "ଉଲ୍ଲେଖ": 2165,
      "ଦର୍ଶ": 2166,
      "ଜଣଙ୍କ": 2167,
      "କେତେ": 2168,
      "ସଂପର୍କ": 2169,
      "##ମୀ": 2170,
      "ସୌ": 2171,
      "ଅତ୍ୟ": 2172,
      "ରେଳ": 2173,
      "##ର୍ଡ": 2174,
      "ପ୍ରୟ": 2175,
      "##ାଉନ": 2176,
      "No": 2177,
      "##ଣ୍ଡରେ": 2178,
      "କହିଲେ": 2179,
      "ଅଟେ": 2180,
      "ବିଦେଶ": 2181,
      "##ବାଧିକ": 2182,
      "##ଗଡ": 2183,
      "ଅଂଶ": 2184,
      "୨୦୦": 2185,
      "ଲୋକମାନେ": 2186,
      "ଘଟଣାସ୍ଥ": 2187,
      "କ୍ଷତି": 2188,
      "##ୟର": 2189,
      "##ment": 2190,
      "##ate": 2191,
      "ସଫଳତା": 2192,
      "##ଡିଛି": 2193,
      "ଟେ": 2194,
      "ପରିଚାଳନା": 2195,
      "ସମୁ": 2196,
      "୨୩": 2197,
      "ନଜର": 2198,
      "##ଙ୍ଗି": 2199,
      "ପତ୍ର": 2200,
      "ସ୍ୱତନ୍ତ୍ର": 2201,
      "ସାମାଜିକ": 2202,
      "ଚାଲିଛି": 2203,
      "##ଡ଼ିକୁ": 2204,
      "##୍ବା": 2205,
      "//": 2206,
      "ହୋଇଯାଇଛି": 2207,
      "ନ୍ୟୁ": 2208,
      "##ଶ୍ଚିତ": 2209,
      "ଓଡିଶା": 2210,
      "ଗର": 2211,
      "##our": 2212,
      "ସ୍ୱା": 2213,
      "##ୋତ": 2214,
      "ବିଭାଗର": 2215,
      "ରଖା": 2216,
      "ଚିନ୍ତା": 2217,
      "ମେଡିକ": 2218,
      "ଖର୍ଚ୍ଚ": 2219,
      "ବସି": 2220,
      "##ାକ": 2221,
      "##ବାହ": 2222,
      "ସବୁଠାରୁ": 2223,
      "ରଙ୍ଗ": 2224,
      "ରେକ": 2225,
      "##ପାରିବେ": 2226,
      "##ଞ୍ଚଳ": 2227,
      "ଅନ୍ତର୍ଗତ": 2228,
      "ସମାଧାନ": 2229,
      "ପଢ଼ନ୍ତୁ": 2230,
      "##ସିଂହ": 2231,
      "##ପରିକି": 2232,
      "ଭର୍ତ୍ତି": 2233,
      "##େଷ୍ଟା": 2234,
      "ବିଦ୍ୟାଳୟ": 2235,
      "ନରେନ୍ଦ୍ର": 2236,
      "ରହିବା": 2237,
      "ମଙ୍ଗଳ": 2238,
      "ବଳ": 2239,
      "ଟୁ": 2240,
      "ବୈଠକରେ": 2241,
      "ଘରୋଇ": 2242,
      "ସାମଗ୍ରୀ": 2243,
      "ଆମର": 2244,
      "ଦୂ": 2245,
      "##ିୟା": 2246,
      "କରେ": 2247,
      "##ଗଲା": 2248,
      "୪୦": 2249,
      "ପୀ": 2250,
      "##ିକେଟ୍": 2251,
      "ମହାପାତ୍ର": 2252,
      "ମାଗ": 2253,
      "##ଷ୍ଣ": 2254,
      "##ସ୍ଥିତି": 2255,
      "ସଂପ": 2256,
      "ଗୁରୁତ୍ୱପୂର୍ଣ୍ଣ": 2257,
      "##ଚଳ": 2258,
      "ମହାମାରୀ": 2259,
      "ସାଂସ": 2260,
      "##ଲାଙ୍ଗ": 2261,
      "##ନ୍ଦୋ": 2262,
      "ଖେଳାଳି": 2263,
      "##lic": 2264,
      "କୋଭିଡ୍": 2265,
      "ଜଙ୍ଗଲ": 2266,
      "ସମ୍ବଲପୁର": 2267,
      "##ସଭ": 2268,
      "##ପ୍ରଦେଶ": 2269,
      "ଫାଇ": 2270,
      "ଉଦ୍ୟମ": 2271,
      "com": 2272,
      "##େଙ୍କ": 2273,
      "ଟଙ୍କାର": 2274,
      "ନେତୃତ": 2275,
      "ଶ୍ରୀମ": 2276,
      "##ୈ": 2277,
      "##ହଁ": 2278,
      "##ଛା": 2279,
      "##ଗ୍": 2280,
      "##ୁଛନ୍ତି": 2281,
      "ରଥ": 2282,
      "##ଷଣ": 2283,
      "##ଂସା": 2284,
      "##ହୁଁ": 2285,
      "ଗ୍ରାମର": 2286,
      "ତୁରନ୍ତ": 2287,
      "##ାର୍ଯ୍ୟ": 2288,
      "ସବ": 2289,
      "##କାନ": 2290,
      "ଲେଖି": 2291,
      "ଅନୁମତି": 2292,
      "କେନ୍ଦ୍ରାପ": 2293,
      "##ାନ୍ତର": 2294,
      "ଅଭାବ": 2295,
      "ରାଶି": 2296,
      "କମିଶ": 2297,
      "ତାକୁ": 2298,
      "ଏଥି": 2299,
      "ପୋଷ୍ଟ": 2300,
      "##ାଦକ": 2301,
      "ଅନୁଭବ": 2302,
      "##ag": 2303,
      "ସାଂସଦ": 2304,
      "##ୋନ୍": 2305,
      "ସର୍ବାଧିକ": 2306,
      "ଭାରତରେ": 2307,
      "ସୋମ": 2308,
      "ହାର": 2309,
      "ଆବେଦନ": 2310,
      "ଯାଜ": 2311,
      "ଥାନାରେ": 2312,
      "##ବିଦ୍ୟାଳୟ": 2313,
      "ଦୋକ": 2314,
      "##ମାଳ": 2315,
      "ପ୍ରବେଶ": 2316,
      "ହରାଇ": 2317,
      "##pp": 2318,
      "ପିଲ": 2319,
      "##ଜିଟି": 2320,
      "୨୬": 2321,
      "ପୁନ": 2322,
      "ରାତିରେ": 2323,
      "##ିବେଶ": 2324,
      "ପକାଇ": 2325,
      "##ଜରେ": 2326,
      "ଫଳ": 2327,
      "ରଖିବା": 2328,
      "##େଲ୍": 2329,
      "ମାନଙ୍କ": 2330,
      "##୍ମକ": 2331,
      "କେବେ": 2332,
      "ଶିକ୍ଷକ": 2333,
      "ବୈଠକ": 2334,
      "ନେବା": 2335,
      "ପବ": 2336,
      "##ଡିକୁ": 2337,
      "ମସିହାରେ": 2338,
      "ଦା": 2339,
      "##ପ୍ଟ": 2340,
      "ସପ୍ତାହ": 2341,
      "##ଚନ": 2342,
      "ସଂସ୍କ": 2343,
      "ସାମ୍ବା": 2344,
      "ଗଞ୍ଜାମ": 2345,
      "ନିଯୁକ୍ତି": 2346,
      "ଜଗ": 2347,
      "ସୁବିଧା": 2348,
      "ପୁରୁଷ": 2349,
      "ଆନ୍ଦୋ": 2350,
      "ମୁକ": 2351,
      "##ur": 2352,
      "##ାପୁଟ": 2353,
      "##ାତ୍": 2354,
      "##ାଳୀ": 2355,
      "##har": 2356,
      "ରୋଗୀ": 2357,
      "ଜମି": 2358,
      "କାହିଁ": 2359,
      "ଯାଜପୁର": 2360,
      "ବିବାଦ": 2361,
      "ରାଜଧାନ": 2362,
      "ବେଶ": 2363,
      "##ଶ୍ମ": 2364,
      "##ect": 2365,
      "ଫେରି": 2366,
      "##ଯାଇଥିବା": 2367,
      "##ରାପ": 2368,
      "ପ୍ରାଣ": 2369,
      "ମଣ୍ଡ": 2370,
      "ରକ୍ତ": 2371,
      "##ର୍ମା": 2372,
      "##୍ୟୁତ": 2373,
      "ଯାଇଥିଲେ": 2374,
      "2022": 2375,
      "ସାମ୍ବାଦିକ": 2376,
      "ଧର୍ମ": 2377,
      "ଦଶ": 2378,
      "News": 2379,
      "##ow": 2380,
      "##ତାରେ": 2381,
      "##ୃକ୍ତ": 2382,
      "ପଜିଟି": 2383,
      "ଏଥିସ": 2384,
      "୨୭": 2385,
      "ଯାଉ": 2386,
      "##ଯିବା": 2387,
      "ସୁପ୍ର": 2388,
      "ସମସ୍ତେ": 2389,
      "##ଲିଆ": 2390,
      "ପୂଜା": 2391,
      "ଆଗାମୀ": 2392,
      "##ଲକ୍ଷ": 2393,
      "##ିଷ୍ଟ": 2394,
      "ଦାୟିତ୍ୱ": 2395,
      "ବଲାଙ୍ଗ": 2396,
      "ନୀତି": 2397,
      "ଉଦ୍": 2398,
      "ପଣ୍ଡା": 2399,
      "##ଗୁଡିକ": 2400,
      "ସ୍ବାସ୍ଥ୍ୟ": 2401,
      "କଟକଣା": 2402,
      "##ଜ୍ୟ": 2403,
      "##ନିଆ": 2404,
      "କେନ୍ଦୁ": 2405,
      "ମୟ": 2406,
      "##ହାଁ": 2407,
      "ଯୁଦ୍ଧ": 2408,
      "##ସ୍ୱ": 2409,
      "##ବଳ": 2410,
      "ଜଣାପଡିଛି": 2411,
      "##ମାଧ୍ୟ": 2412,
      "##େହ": 2413,
      "##ଗୋ": 2414,
      "ନିୟନ୍ତ୍ରଣ": 2415,
      "ମେଡିକାଲ": 2416,
      "ଫି": 2417,
      "କୋରାପୁଟ": 2418,
      "##ାଂଶ": 2419,
      "ରାତି": 2420,
      "ଆମେରିକ": 2421,
      "##th": 2422,
      "##ly": 2423,
      "##ତୀତ": 2424,
      "କିପରି": 2425,
      "ଆର୍": 2426,
      "##ଲିଉ": 2427,
      "ପାଲ": 2428,
      "ଥିବାରୁ": 2429,
      "ପରିଷ": 2430,
      "##ation": 2431,
      "ସନ୍ତ": 2432,
      "ଗଣମାଧ୍ୟ": 2433,
      "ରନ୍": 2434,
      "ପ୍ରମାଣ": 2435,
      "##ହ୍ମ": 2436,
      "##--": 2437,
      "##ଡର": 2438,
      "୨୮": 2439,
      "ଅଜ": 2440,
      "ସହର": 2441,
      "##ାର୍ଗ": 2442,
      "କାହିଁକି": 2443,
      "##ର୍ଦ୍ଧ": 2444,
      "##ବାସୀ": 2445,
      "ଜିଲ": 2446,
      "##ଷ୍ଠା": 2447,
      "ବିଶ୍ବ": 2448,
      "ଅବସ୍ଥାରେ": 2449,
      "##ତିହା": 2450,
      "ପରିବେଶ": 2451,
      "ପ୍ରବଳ": 2452,
      "ଦୃଷ୍ଟି": 2453,
      "ପରିମାଣ": 2454,
      "ଓଡ଼ିଶାର": 2455,
      "ମୋବ": 2456,
      "ବାୟ": 2457,
      "ବିକ୍ରି": 2458,
      "ଗୋଷ୍ଠ": 2459,
      "##ମୋ": 2460,
      "ଚାହୁଁ": 2461,
      "##ଫେ": 2462,
      "ଧାନ": 2463,
      "##id": 2464,
      "ଜେନା": 2465,
      "ଇନ": 2466,
      "ପତ୍ନ": 2467,
      "ଲାଗୁ": 2468,
      "##ୁଲାଇ": 2469,
      "ସନ୍ଦ": 2470,
      "ଶିଳ୍ପ": 2471,
      "Dec": 2472,
      "ସତ୍ୟ": 2473,
      "ଡାକ୍ତରଖ": 2474,
      "କରାଯିବା": 2475,
      "##ଙ୍ଖ": 2476,
      "##୍ଯ": 2477,
      "##କରି": 2478,
      "ଅପେ": 2479,
      "##ep": 2480,
      "ସେନା": 2481,
      "##ନ୍ଦା": 2482,
      "ରେକର୍ଡ": 2483,
      "ଶୁକ୍ର": 2484,
      "ପରବର୍ତ୍ତୀ": 2485,
      "ପ୍ରସ୍ତାବ": 2486,
      "ସୂଚନାଯୋଗ୍ୟ": 2487,
      "କାର୍ଯ୍ୟକ୍ରମରେ": 2488,
      "ବାପା": 2489,
      "ବଞ୍ଚ": 2490,
      "ଜାଣି": 2491,
      "##ାଣ୍ଟ": 2492,
      "##ଷ୍ୟ": 2493,
      "##ହୁଲ": 2494,
      "##ରିଆରେ": 2495,
      "ହିନ୍ଦୁ": 2496,
      "ଦ୍ର": 2497,
      "କାର୍ଯ୍ୟାନୁଷ୍ଠାନ": 2498,
      "##ିକ୍ର": 2499,
      "ଖୁବ୍": 2500,
      "ମ୍ୟାଚ୍": 2501,
      "##ig": 2502,
      "19": 2503,
      "ସେତେବେଳେ": 2504,
      "##ାସ୍": 2505,
      "ଦୃଷ୍ଟ": 2506,
      "ଯେଉଁଥିରେ": 2507,
      "ଚେଷ୍ଟା": 2508,
      "th": 2509,
      "##ଠା": 2510,
      "କେନ୍ଦୁଝ": 2511,
      "##ସଲ": 2512,
      "ହେଲ": 2513,
      "ଗସ୍ତ": 2514,
      "ବାଲେଶ୍ୱର": 2515,
      "##ଜୀବ": 2516,
      "##ଶ୍ୱ": 2517,
      "ପୁରସ୍କାର": 2518,
      "ସେମାନଙ୍କର": 2519,
      "ଖଣ୍ଡ": 2520,
      "ଗର୍": 2521,
      "ସୋମବାର": 2522,
      "ଯାଇଛି": 2523,
      "ସୋସିଆଲ": 2524,
      "ସାର": 2525,
      "##ନାହାନ୍ତି": 2526,
      "ଖୋଲ": 2527,
      "କିଲ": 2528,
      "##eb": 2529,
      "##ଜୀ": 2530,
      "ମହାନ": 2531,
      "ଅନୁର": 2532,
      "##କ୍ଷମ": 2533,
      "ଘଟଣାରେ": 2534,
      "ବ୍ରହ୍ମ": 2535,
      "##ere": 2536,
      "up": 2537,
      "ଯାଞ୍ଚ": 2538,
      "ନଦୀ": 2539,
      "##ାତ୍ମକ": 2540,
      "##ାପି": 2541,
      "##ଲାଇ": 2542,
      "ଗାଡ଼ି": 2543,
      "##ail": 2544,
      "##୍ୟାୟ": 2545,
      "##ଡୁ": 2546,
      "ବିରୋଧୀ": 2547,
      "ଥରେ": 2548,
      "ବିଧାନସଭା": 2549,
      "##ସ୍ତ୍ର": 2550,
      "ପଚ": 2551,
      "ରୁଜୁ": 2552,
      "##କ୍ଟର": 2553,
      "##ଶୀଳ": 2554,
      "ଘଟଣାସ୍ଥଳରେ": 2555,
      "##ପଣ": 2556,
      "##isha": 2557,
      "ବେଳ": 2558,
      "##ear": 2559,
      "ପ୍ରେମ": 2560,
      "##ଣ୍ଟି": 2561,
      "##ନୀୟ": 2562,
      "ଗଠନ": 2563,
      "୩୧": 2564,
      "ଯାହାକୁ": 2565,
      "ଜରିଆରେ": 2566,
      "ସଂଗ୍ରହ": 2567,
      "##ୟା": 2568,
      "##ୌର": 2569,
      "ଅଷ୍ଟ": 2570,
      "ଆସିବା": 2571,
      "ଗଛ": 2572,
      "ଦେଇଥିବା": 2573,
      "ଚୁ": 2574,
      "ଜିଲା": 2575,
      "ଠିକ୍": 2576,
      "##ଥିବ": 2577,
      "##ଟାଲ": 2578,
      "ଦୁଃ": 2579,
      "ଗ୍ରାହ": 2580,
      "ଡିଜ": 2581,
      "ବିଳ": 2582,
      "ମାସରେ": 2583,
      "ପ୍ରଭାବିତ": 2584,
      "##ାଗତ": 2585,
      "##ଚ୍ଛା": 2586,
      "ଟିକ": 2587,
      "##ଆର": 2588,
      "##ct": 2589,
      "11": 2590,
      "ଦୋକାନ": 2591,
      "12": 2592,
      "ଛୁ": 2593,
      "୨୯": 2594,
      "ମାରି": 2595,
      "##ତିକି": 2596,
      "ମାଲକାନ": 2597,
      "ଦିଗରେ": 2598,
      "ଚିତ୍ର": 2599,
      "##ିଏ": 2600,
      "ମୁକାବ": 2601,
      "ବର୍ଷର": 2602,
      "ସୁନା": 2603,
      "ଶେଷରେ": 2604,
      "ବିଜୁ": 2605,
      "ପ୍ରକ୍ରିୟା": 2606,
      "##ପୁ": 2607,
      "ଅଧି": 2608,
      "ଜଣକ": 2609,
      "ଅଗ୍ନ": 2610,
      "ହାଇକୋର୍ଟ": 2611,
      "ଶନ": 2612,
      "ଘଟଣାର": 2613,
      "ଧ୍ୟାନ": 2614,
      "ନେଇଥିଲେ": 2615,
      "ପରିସ୍ଥିତି": 2616,
      "ଉତ୍ସବ": 2617,
      "##ନନ୍ଦ": 2618,
      "ବୁଧ": 2619,
      "ଷ୍ଟେ": 2620,
      "##ାୟଣ": 2621,
      "ଦେବେ": 2622,
      "କେନ୍ଦୁଝର": 2623,
      "##oo": 2624,
      "ରବିବାର": 2625,
      "ଶନିବାର": 2626,
      "##୍ୟାଣ": 2627,
      "ଏତେ": 2628,
      "##େତ୍ରୀ": 2629,
      "ଦିବସ": 2630,
      "ମିଳିଥିଲା": 2631,
      "##ରାଟ": 2632,
      "ଦତ୍ତ": 2633,
      "ପ୍ରଚାର": 2634,
      "##ଘାଟ": 2635,
      "କାର୍ଯ୍ୟାଳୟ": 2636,
      "ନିଆଁ": 2637,
      "ବିଦ୍ୟୁତ": 2638,
      "ଜରୁ": 2639,
      "ପାଇବ": 2640,
      "##ra": 2641,
      "ରାଜନୈତିକ": 2642,
      "ଅଟ": 2643,
      "ବିନା": 2644,
      "##ୟୁ": 2645,
      "ହୋଇପ": 2646,
      "ସ୍ଵ": 2647,
      "##ରିକା": 2648,
      "ଯାହାକି": 2649,
      "##ଥିବାର": 2650,
      "କିଏ": 2651,
      "ଶୁକ୍ରବାର": 2652,
      "##ରିକ୍ତ": 2653,
      "),": 2654,
      "ଦୈ": 2655,
      "ଠାରେ": 2656,
      "##ମିଳ": 2657,
      "ଖୋର୍ଦ୍ଧା": 2658,
      "ଅପେକ୍ଷା": 2659,
      "The": 2660,
      "ଶ୍ରମିକ": 2661,
      "ଅତିରିକ୍ତ": 2662,
      "ପ୍ରଦେଶ": 2663,
      "##ch": 2664,
      "ପେଟ୍ର": 2665,
      "ସୁପ୍ରିମ": 2666,
      "କ୍ରୀ": 2667,
      "କହୁ": 2668,
      "ଅତିଥି": 2669,
      "ଟ୍ୱ": 2670,
      "ଜ୍ଞ": 2671,
      "ଯାତ୍ରୀ": 2672,
      "କରିଥାନ୍ତି": 2673,
      "Post": 2674,
      "ଡ଼": 2675,
      "ଅଂଚ": 2676,
      "ମାଲକାନଗିରି": 2677,
      "##ୋଭ": 2678,
      "##atest": 2679,
      "ଜାଣିବା": 2680,
      "##ମକ": 2681,
      "ଗଜ": 2682,
      "##ୁତି": 2683,
      "ନୟ": 2684,
      "ସମାନ": 2685,
      "ଯାଇଥିଲା": 2686,
      "##ୁରୀ": 2687,
      "ପ୍ରିୟ": 2688,
      "ଆଇପି": 2689,
      "ଆକ୍ରାନ୍ତଙ୍କ": 2690,
      "##ଦେହ": 2691,
      "##ଞ୍": 2692,
      "କଲେଜ": 2693,
      "ଗାନ୍ଧ": 2694,
      "ପାତ୍ର": 2695,
      "ରାହୁଲ": 2696,
      "ମାନସିକ": 2697,
      "##ନ୍ନାଥ": 2698,
      "##ୁବି": 2699,
      "ଚାରି": 2700,
      "ଭେ": 2701,
      "ବିହାର": 2702,
      "ବିଲ": 2703,
      "##େତନ": 2704,
      "ଦିଆଯିବ": 2705,
      "##ଘାତ": 2706,
      "ବିବ": 2707,
      "upd": 2708,
      "##କ୍ସି": 2709,
      "ଅନ୍ୟାନ୍ୟ": 2710,
      "ପିନ୍ଧ": 2711,
      "ନାହାନ୍ତି": 2712,
      "##ଯାନ": 2713,
      "ଆନ୍ଦୋଳନ": 2714,
      "ଅପରାଧ": 2715,
      "ରନ": 2716,
      "##ାବାଦ": 2717,
      "ପୂରଣ": 2718,
      "କହିଛି": 2719,
      "ଆମେରିକା": 2720,
      "ଅଧିକାଂଶ": 2721,
      "ପଢନ୍ତୁ": 2722,
      "କରାଯାଏ": 2723,
      "ରହିଥିଲା": 2724,
      "ଏହାସ": 2725,
      "କ୍ରିକେଟ": 2726,
      "##ଫି": 2727,
      "ସ୍ତ୍ରୀ": 2728,
      "ଭୁଲ": 2729,
      "ୟୁକ୍ର": 2730,
      "ମୁଖ": 2731,
      "କହିବା": 2732,
      "##େତା": 2733,
      "ତେଲ": 2734,
      "##ମ୍ନ": 2735,
      "ଯାଉଛି": 2736,
      "ମାର୍ଚ୍ଚ": 2737,
      "ଦିଅନ୍ତୁ": 2738,
      "##ସିସି": 2739,
      "ମଣି": 2740,
      "##ାଉଣ୍ଟ": 2741,
      "ନେତୃତ୍ୱ": 2742,
      "ସତର୍କ": 2743,
      "##ରାମ": 2744,
      "ଏପରିକି": 2745,
      "##us": 2746,
      "##ଦାୟ": 2747,
      "ଯିବା": 2748,
      "for": 2749,
      "ହୃ": 2750,
      "##ଭଞ୍ଜ": 2751,
      "ନିଜେ": 2752,
      "##ଜ୍ଜ": 2753,
      "ମାନଙ୍କୁ": 2754,
      "ପାଇବେ": 2755,
      "ଅଟକ": 2756,
      "ଅଗ୍ର": 2757,
      "କର୍ତ୍ତ": 2758,
      "ଅଞ୍ଚଳର": 2759,
      "ମୃତଦେହ": 2760,
      "ପରିସ୍ଥିତ": 2761,
      "##ଷଧ": 2762,
      "ରକ୍ଷା": 2763,
      "ହୋ": 2764,
      "ବ୍ୟତୀତ": 2765,
      "ପାଟ": 2766,
      "##ହାଣ୍ଡି": 2767,
      "ଭର": 2768,
      "##ଫରୁ": 2769,
      "ଏମ": 2770,
      "##କୂଳ": 2771,
      "##ଙ୍ଗପୁର": 2772,
      "କଲ୍ୟାଣ": 2773,
      "##ରୀୟ": 2774,
      "ଝାର": 2775,
      "ବୁଧବାର": 2776,
      "##ଧିକାରୀ": 2777,
      "ପ୍ରତିନି": 2778,
      "ବିଜେପ": 2779,
      "ଏନ୍": 2780,
      "ମିଡିଆରେ": 2781,
      "ଗୁରୁବାର": 2782,
      "##ଘୁ": 2783,
      "ସ୍ୱାମୀ": 2784,
      "ଏମ୍": 2785,
      "##ାଇଟ": 2786,
      "##ଲବ୍": 2787,
      "##ଗାର": 2788,
      "##ାଷ୍ଟ୍ର": 2789,
      "ଲେଖାଏ": 2790,
      "ହରି": 2791,
      "ନିର୍ବାଚନରେ": 2792,
      "##ପ୍ରେ": 2793,
      "ଚର୍ଚ୍ଚା": 2794,
      "ସକ୍ରିୟ": 2795,
      "ପ୍ରତିଯୋଗ": 2796,
      "ମଦ": 2797,
      "##ଦ୍ୱାରା": 2798,
      "ଦାଖ": 2799,
      "ଆଶଙ୍କା": 2800,
      "##ଇଁ": 2801,
      "ତରଫରୁ": 2802,
      "ସୂର୍": 2803,
      "ବିଶିଷ୍ଟ": 2804,
      "ମଧ": 2805,
      "ଦାଖଲ": 2806,
      "ଷ୍ଟା": 2807,
      "##ୁଲି": 2808,
      "ଶାସନ": 2809,
      "ଔଷଧ": 2810,
      "ସେଥିପାଇଁ": 2811,
      "ପସ": 2812,
      "ପାନ": 2813,
      "ସଂର": 2814,
      "ଜୁଲାଇ": 2815,
      "ଶହ": 2816,
      "କର୍": 2817,
      "##ାଇଛି": 2818,
      "ରଣ": 2819,
      "##ନ୍ଦନ": 2820,
      "##ସିଂହପୁର": 2821,
      "ଶ୍ରେଣୀ": 2822,
      "##ୋବର": 2823,
      "##ଗୁଡ଼ିକୁ": 2824,
      "ଦୁଃଖ": 2825,
      "ଉପଲବ୍": 2826,
      "##ସିଲ": 2827,
      "##ପାତ": 2828,
      "କୋହ": 2829,
      "ସାଙ୍ଗ": 2830,
      "##ଚ୍ଚିତ୍ର": 2831,
      "ସମର୍ଥନ": 2832,
      "ବଲିଉ": 2833,
      "ତାପ": 2834,
      "ମୋଦୀ": 2835,
      "##୍ୟାଳୟରେ": 2836,
      "ସାବ": 2837,
      "ଫା": 2838,
      "##ୋହ": 2839,
      "ଫୁଲ": 2840,
      "୧୦୦": 2841,
      "କନ୍ଧ": 2842,
      "ମିଶାଇ": 2843,
      "ଜରୁରୀ": 2844,
      "ଅଗଷ୍ଟ": 2845,
      "ପ୍ରାଥ": 2846,
      "ଚଳଚ୍ଚିତ୍ର": 2847,
      "ମୌ": 2848,
      "##ାନାଳ": 2849,
      "ନିଜକୁ": 2850,
      "ଅଫି": 2851,
      "ଅଫ୍": 2852,
      "ନାବ": 2853,
      "ଭକ୍ତ": 2854,
      "ଶବ": 2855,
      "ଶ୍ରୀମନ୍ଦିର": 2856,
      "Odisha": 2857,
      "ଲକ୍ଷ୍ମ": 2858,
      "ଯାଇଥିବା": 2859,
      "ମୁଣ୍ଡ": 2860,
      "ଦର୍ଶନ": 2861,
      "ବାଧ୍ୟ": 2862,
      "##ିକ୍ସ": 2863,
      "ପୁଲିସ୍": 2864,
      "ବିଶ୍ୱାସ": 2865,
      "ନିର୍ଦ୍ଦେଶକ": 2866,
      "ସାକ୍ଷ": 2867,
      "con": 2868,
      "ମହିଳାଙ୍କ": 2869,
      "ବ୍ରି": 2870,
      "ଏସ୍": 2871,
      "ଶୀଘ୍ର": 2872,
      "ସେପଟେ": 2873,
      "ଯୋଗା": 2874,
      "##ଣାରେ": 2875,
      "##ପାରନ୍ତି": 2876,
      "ମଙ୍ଗଳବାର": 2877,
      "୩୫": 2878,
      "ଥାଏ": 2879,
      "##ୋତ୍ସ": 2880,
      "କ୍ଷମତା": 2881,
      "##େଙ୍କାନାଳ": 2882,
      "ଭଗ": 2883,
      "##ଂଟ": 2884,
      "ପ୍ରାଥମିକ": 2885,
      "AM": 2886,
      "ୟୁନି": 2887,
      "ଭୂମ": 2888,
      "ଆୟୋଜିତ": 2889,
      "ମହାରାଷ୍ଟ୍ର": 2890,
      "ଚୀନ": 2891,
      "ଜମ": 2892,
      "##ମିଟର": 2893,
      "ପ୍ରସ୍ତୁତି": 2894,
      "ଦୁର୍ଘଟଣା": 2895,
      "##କୋ": 2896,
      "##ଳର": 2897,
      "ଗୁଳି": 2898,
      "ସୂର୍ଯ୍ୟ": 2899,
      "##ସାଧାରଣ": 2900,
      "ରୋକ": 2901,
      "##ିନୀ": 2902,
      "କଷ୍ଟ": 2903,
      "ଭାଇରାଲ": 2904,
      "ଅସୁବି": 2905,
      "##ଲରେ": 2906,
      "ସମ୍ମିଳ": 2907,
      "ପରିଷଦ": 2908,
      "##କ୍କ": 2909,
      "ଭାଙ୍ଗି": 2910,
      "ଲେ": 2911,
      "କାର୍ଡ": 2912,
      "##ହିତ୍ୟ": 2913,
      "କର୍ମୀ": 2914,
      "ସଙ୍କ": 2915,
      "##ବୀ": 2916,
      "କିଲୋ": 2917,
      "##ce": 2918,
      "୨୦୨୧": 2919,
      "ଜିନି": 2920,
      "ପାରି": 2921,
      "##ଶ୍ମୀର": 2922,
      "##ିଆର": 2923,
      "ମଣିଷ": 2924,
      "ରଖିଛନ୍ତି": 2925,
      "ନିଶ୍ଚିତ": 2926,
      "କନକ": 2927,
      "ଠିକ": 2928,
      "ଟା": 2929,
      "##ମ୍ମ": 2930,
      "ବୌ": 2931,
      "ଜିତି": 2932,
      "ଡିଜି": 2933,
      "ଚିନ୍ତ": 2934,
      "ଖେଳି": 2935,
      "ହସ୍ତ": 2936,
      "ଓଡ଼ିଶାରେ": 2937,
      "ସିରି": 2938,
      "ନେଇଛନ୍ତି": 2939,
      "ପାଣିପ": 2940,
      "ଗୀତ": 2941,
      "ନଭେ": 2942,
      "ଜିନିଷ": 2943,
      "ସାମ୍ନାକୁ": 2944,
      "##ତ୍ତ୍ୱ": 2945,
      "ଅକ୍ଟ": 2946,
      "ଅଭିନେତ୍ରୀ": 2947,
      "##ub": 2948,
      "ଅଫିସ": 2949,
      "ତ୍ର": 2950,
      "##ାରମ୍ଭ": 2951,
      "କନ୍ଧମାଳ": 2952,
      "##ess": 2953,
      "##ସାରି": 2954,
      "ଜଣଙ୍କୁ": 2955,
      "ବିଳମ୍ବ": 2956,
      "ବସ୍ତ": 2957,
      "ସଚେତନ": 2958,
      "ବ୍ୟାପକ": 2959,
      "ରାଉତ": 2960,
      "##ଜିତ": 2961,
      "ଜିତ": 2962,
      "ଅତ୍ୟନ୍ତ": 2963,
      "ଉଦ୍ଦେଶ": 2964,
      "ଛାତ୍ରୀ": 2965,
      "ଅଧିକାର": 2966,
      "ପାଣିପାଗ": 2967,
      "ଚାକି": 2968,
      "ଖାଇବା": 2969,
      "ଆଗରେ": 2970,
      "ବାତ୍ୟା": 2971,
      "ଭବି": 2972,
      "ସଂପର୍କରେ": 2973,
      "##ଧର": 2974,
      "ରହିବେ": 2975,
      "ଦ୍ବାରା": 2976,
      "୨୦୨୦": 2977,
      "ଗୁଣ": 2978,
      "ଉପାୟ": 2979,
      "##ଜାତୀୟ": 2980,
      "##ହଜାର": 2981,
      "ଗୋଷ୍ଠୀ": 2982,
      "ପଞ୍ଜାବ": 2983,
      "ସମ୍ମିଳନୀ": 2984,
      "##ଖଣ୍ଡ": 2985,
      "ଆମକୁ": 2986,
      "ଅଭିଯାନ": 2987,
      "##ଗଣ": 2988,
      "##ଆନ୍ତି": 2989,
      "ସେହିଭଳି": 2990,
      "ଚୌ": 2991,
      "ଟ୍ରା": 2992,
      "କାର୍ଯ୍ୟରେ": 2993,
      "ପାର୍": 2994,
      "ବିପଦ": 2995,
      "ପରିଣ": 2996,
      "ଜୋର": 2997,
      "ନୟାଗ": 2998,
      "##ୋଜି": 2999,
      "ଅକ୍ଟୋବର": 3000,
      "##ଟିରେ": 3001,
      "##ମନ": 3002,
      "##ଘର": 3003,
      "ନବର": 3004,
      "ନଷ୍ଟ": 3005,
      "ଉଦ୍ଦେଶ୍ୟ": 3006,
      "ଗଜପତି": 3007,
      "ନାଗରିକ": 3008,
      "##ଦ୍ଦ": 3009,
      "##ak": 3010,
      "ନଭେମ୍ବର": 3011,
      "ଆଜିର": 3012,
      "ଟେକ": 3013,
      "ନାବାଳ": 3014,
      "ଗାଡି": 3015,
      "ମିଳିଥିବା": 3016,
      "##ୃପକ୍ଷ": 3017,
      "କଳାହାଣ୍ଡି": 3018,
      "ବାଣି": 3019,
      "ସଂଗଠନ": 3020,
      "ଗାଁରେ": 3021,
      "ମୁତାବ": 3022,
      "ବାଲି": 3023,
      "ବାରମ୍": 3024,
      "ସମସ୍ୟ": 3025,
      "ଆସନ": 3026,
      "ଚାଲିଥିବା": 3027,
      "ଶା": 3028,
      "ଦେହ": 3029,
      "ଚଢ଼": 3030,
      "##ିଂ": 3031,
      "ଏପ୍ର": 3032,
      "##ଯାଉ": 3033,
      "##ବିନ୍ଦ": 3034,
      "ସଂସ": 3035,
      "ପୁରୁଣା": 3036,
      "ସାହିତ୍ୟ": 3037,
      "ଲେଖା": 3038,
      "ଧାର": 3039,
      "ବୌଦ୍ଧ": 3040,
      "get": 3041,
      "ସମ୍ପାଦକ": 3042,
      "ଉତ୍ପାଦନ": 3043,
      "ଓଡିଶ": 3044,
      "ଆସିଥିବା": 3045,
      "ମୁକାବିଲା": 3046,
      "##କଙ୍କୁ": 3047,
      "ଗୁଜ": 3048,
      "ନାମରେ": 3049,
      "ଚାକିରି": 3050,
      "ଦରକାର": 3051,
      "ସଂସ୍ଥା": 3052,
      "##ୂଳକ": 3053,
      "ପଡ଼ିବ": 3054,
      "##ember": 3055,
      "##ସେମ୍ବର": 3056,
      "ବାସ୍ତ": 3057,
      "ଭବିଷ୍ୟ": 3058,
      "ନେଉ": 3059,
      "୬୦": 3060,
      "##ସୁଗୁ": 3061,
      "##ାଇବ": 3062,
      "କଲା": 3063,
      "ଆହ": 3064,
      "##ାନ୍ତୁ": 3065,
      "ମୋତେ": 3066,
      "##ାଲୁ": 3067,
      "ସମଗ୍ର": 3068,
      "ଦିଗ": 3069,
      "ବାଣିଜ୍ୟ": 3070,
      "ଜନତା": 3071,
      "ଶର୍ମା": 3072,
      "ଋଣ": 3073,
      "ମନ୍ତ୍ର": 3074,
      "ସହାୟକ": 3075,
      "##ପ୍ଟେ": 3076,
      "ସେଥିରେ": 3077,
      "ଯାଉଥିବା": 3078,
      "ଯେଉଁମାନେ": 3079,
      "##ଟିକୁ": 3080,
      "ଶିକାର": 3081,
      "##ବେଷ": 3082,
      "ଖୋଜ": 3083,
      "ସୁଖ": 3084,
      "##ିପାର": 3085,
      "ଢେଙ୍କାନାଳ": 3086,
      "##ut": 3087,
      "##est": 3088,
      "ଆନ୍ଧ": 3089,
      "ଦେଖାଦ": 3090,
      "ଆପଣଙ୍କର": 3091,
      "##ିନେ": 3092,
      "ପ୍ରତିବ": 3093,
      "କରିଦେଇ": 3094,
      "ମୁହଁ": 3095,
      "ଉପଲବ୍ଧ": 3096,
      "st": 3097,
      "ସନ୍": 3098,
      "ଟିମ": 3099,
      "ଛାଡ଼ି": 3100,
      "ଦୃଷ୍ଟିରେ": 3101,
      "ଜେଲ": 3102,
      "ଖରାପ": 3103,
      "ବାରମ୍ବାର": 3104,
      "ପତ୍ନୀ": 3105,
      "ଶତ": 3106,
      "ଖାଲି": 3107,
      "ଦେଲେ": 3108,
      "ପାରିବେ": 3109,
      "କୁହାଯାଉଛି": 3110,
      "ବାହାରି": 3111,
      "କ୍ୱ": 3112,
      "ହସ୍ପିଟାଲରେ": 3113,
      "ଗୁଡିକ": 3114,
      "##ାଣୀ": 3115,
      "##ିବାସୀ": 3116,
      "##hare": 3117,
      "ପସନ୍ଦ": 3118,
      "ଆନ୍ଧ୍ର": 3119,
      "##mail": 3120,
      "##ଠୀ": 3121,
      "ଝାରସୁଗୁ": 3122,
      "ପୋଷ": 3123,
      "##୍ୟତା": 3124,
      "2020": 3125,
      "##ଜିଲ": 3126,
      "St": 3127,
      "ଆସୁଥିବା": 3128,
      "ସମୀ": 3129,
      "ନାର": 3130,
      "ଗଭ": 3131,
      "ଯାହାର": 3132,
      "ଫୁଟ": 3133,
      "ପ୍ରୟାସ": 3134,
      "ପ୍ରତିକ୍ର": 3135,
      "ଅଧିନାୟକ": 3136,
      "ପ୍ରଣ": 3137,
      "ନାମକ": 3138,
      "କେନ୍ଦ": 3139,
      "ମାଲିକ": 3140,
      "ଜଗତସିଂହପୁର": 3141,
      "ପରିଚୟ": 3142,
      "ଜ୍ଞାନ": 3143,
      "ପଛରେ": 3144,
      "##ନିର୍": 3145,
      "ଡିସେମ୍ବର": 3146,
      "ଗବେଷ": 3147,
      "ରାଜନୀତି": 3148,
      "ଇତିହା": 3149,
      "କଣ୍ଟ": 3150,
      "##ine": 3151,
      "ଦ୍ଵ": 3152,
      "ସମ୍ଭବ": 3153,
      "##ସବୁ": 3154,
      "##ପୀ": 3155,
      "Re": 3156,
      "ମୁତାବକ": 3157,
      "ପ୍ରଶଂସା": 3158,
      "##lick": 3159,
      "ଖୋଲା": 3160,
      "ଅଭିନେତା": 3161,
      "ଜାତି": 3162,
      "ପ୍ରସଙ୍ଗ": 3163,
      "##ାଗୁ": 3164,
      "ଆନନ୍ଦ": 3165,
      "ଅନୁରୋଧ": 3166,
      "##ul": 3167,
      "ନେବାକୁ": 3168,
      "##ଚ୍ଛେଦ": 3169,
      "କଳ": 3170,
      "ବ୍ୟକ୍ତିଙ୍କ": 3171,
      "ଗାଁର": 3172,
      "କାର୍ଯ୍ୟକାରୀ": 3173,
      "ଜୋ": 3174,
      "ଶିଖ": 3175,
      "ମୂଳ": 3176,
      "##ାନ୍ଧି": 3177,
      "##ଷ୍ଟର": 3178,
      "ବ୍ୟବସାୟୀ": 3179,
      "ବ୍ୟକ୍ତ": 3180,
      "ଉନ୍ନତି": 3181,
      "ସଂସ୍କୃତି": 3182,
      "ବାୟୁ": 3183,
      "ଶୋ": 3184,
      "##ଜନକ": 3185,
      "ପଶ୍ଚିମବ": 3186,
      "ସେପ୍ଟେ": 3187,
      "ଅଦ": 3188,
      "୪୫": 3189,
      "##ର୍ଗ": 3190,
      "ଜାଗ": 3191,
      "here": 3192,
      "##ତାକୁ": 3193,
      "ଆଶ୍ଚ": 3194,
      "ଏଥିସହ": 3195,
      "##ଟରେ": 3196,
      "##ore": 3197,
      "ଏକ୍ସ": 3198,
      "ମୋବାଇଲ": 3199,
      "ସାରି": 3200,
      "##ଷ୍ଟି": 3201,
      "ଲେଖାଏଁ": 3202,
      "ଆୟୋଜନ": 3203,
      "ଧନ୍ୟ": 3204,
      "ସମୁଦ୍ର": 3205,
      "ବିଜ୍ଞାନ": 3206,
      "##୍ରାମ": 3207,
      "ଲଗାଇ": 3208,
      "ଅକ୍ଷ": 3209,
      "ଶବ୍": 3210,
      "ଅଙ୍ଗ": 3211,
      "ପ୍ରକାରର": 3212,
      "ସମାଚାର": 3213,
      "ପିଇ": 3214,
      "##ଞ୍ଜି": 3215,
      "ସନ୍ଦେହ": 3216,
      "ଅନ୍ୟପକ୍ଷରେ": 3217,
      "ଅଣ": 3218,
      "ଭୂମିକା": 3219,
      "##ଥୀ": 3220,
      "ସ୍ଥିର": 3221,
      "##ଯାତ୍ରା": 3222,
      "##un": 3223,
      "ଏହାସହ": 3224,
      "ମୁକ୍ତ": 3225,
      "ଜାନ": 3226,
      "ସ୍ତରରେ": 3227,
      "ପାଉ": 3228,
      "ଯିଏ": 3229,
      "ଫେବ": 3230,
      "##ଥିଲି": 3231,
      "##ମାସ": 3232,
      "ଋଷ": 3233,
      "##ମତ": 3234,
      "ନ୍ୟାୟ": 3235,
      "ଚାପ": 3236,
      "ସଂକ": 3237,
      "ତି": 3238,
      "ବୁଲ": 3239,
      "ଆଡ": 3240,
      "ଗଣମାଧ୍ୟମ": 3241,
      "ହଟ": 3242,
      "ଆକର୍ଷ": 3243,
      "##ଗଲେ": 3244,
      "ଏୟାର": 3245,
      "ଅନ୍ୟପଟେ": 3246,
      "ପ୍ରସାଦ": 3247,
      "ପ୍ରତିଷ୍ଠା": 3248,
      "ଟିକାକରଣ": 3249,
      "ଦେଖନ୍ତୁ": 3250,
      "ଭବ": 3251,
      "ସେପ୍ଟେମ୍ବର": 3252,
      "ଭବିଷ୍ୟତ": 3253,
      "ସମସ୍ତଙ୍କୁ": 3254,
      "##୍ରିକ": 3255,
      "ମାମଲାର": 3256,
      "##ରଙ୍କ": 3257,
      "latest": 3258,
      "ସୁନ୍ଦରଗଡ଼": 3259,
      "ସମ୍ବନ୍ଧ": 3260,
      "##ଗୁଡିକୁ": 3261,
      "ନବରଙ୍ଗପୁର": 3262,
      "ଧନ": 3263,
      "ମୟୂର": 3264,
      "Share": 3265,
      "ସଂଖ୍ୟ": 3266,
      "##ଲକ": 3267,
      "##ଶାଳୀ": 3268,
      "##ଦିଷ୍ଟ": 3269,
      "ଜଣଙ୍କର": 3270,
      "##ଅନ୍ତି": 3271,
      "is": 3272,
      "by": 3273,
      "ରାସ୍ତାରେ": 3274,
      "ଅବସ୍ଥା": 3275,
      "ଅଧୀନ": 3276,
      "ବଢ଼ି": 3277,
      "##୍ଳ": 3278,
      "ଆଶ୍ଚର୍ଯ୍ୟ": 3279,
      "ବାହାରେ": 3280,
      "କୃଷକ": 3281,
      "ଖାଇ": 3282,
      "ଯୋଗାଯୋଗ": 3283,
      "updates": 3284,
      "##ୋଧନ": 3285,
      "##ତିଶ": 3286,
      "##ଗ୍ରହଣ": 3287,
      "##ପ୍ରିୟ": 3288,
      "##ୃଙ୍ଖ": 3289,
      "ଇଂଲ": 3290,
      "##ୁରା": 3291,
      "##ist": 3292,
      "ଫୁ": 3293,
      "##କାନ୍ତ": 3294,
      "ସରକାରଙ୍କୁ": 3295,
      "##ଯାଇଥିଲେ": 3296,
      "ରହିଥାଏ": 3297,
      "ଉତ୍କ": 3298,
      "##oc": 3299,
      "ଜଗନ୍ନାଥ": 3300,
      "ସୁଶ": 3301,
      "କରାଯାଉ": 3302,
      "Click": 3303,
      "ଚତୁ": 3304,
      "ଶୀତ": 3305,
      "ଅଭିନୟ": 3306,
      "##ର୍ଯ୍ୟନ୍ତ": 3307,
      "ମହିଳ": 3308,
      "##ପଡ଼ା": 3309,
      "##ନ୍ତ୍ରଣାଳୟ": 3310,
      "ଅନୁଗୁ": 3311,
      "ସରପ": 3312,
      "ଆତଙ୍କବାଦୀ": 3313,
      "ଆସିଥିଲେ": 3314,
      "ମିଳିତ": 3315,
      "ଧନ୍ୟବାଦ": 3316,
      "ଦୀପ": 3317,
      "##ାନ୍ଦ": 3318,
      "ପେଟ୍ରୋଲ": 3319,
      "୨୦୧୯": 3320,
      "କେମିତି": 3321,
      "ସୁପ୍ରିମକୋର୍ଟ": 3322,
      "ପାଲଟି": 3323,
      ".)": 3324,
      "ଟେଲି": 3325,
      "ହା": 3326,
      "##ବାବ": 3327,
      "##େନ୍ଦ୍ର": 3328,
      "ମାର୍କ": 3329,
      "ବୟସ": 3330,
      "ଅଷ୍ଟ୍ରେ": 3331,
      "##ପର୍ଯ୍ୟନ୍ତ": 3332,
      "ଆକାଉଣ୍ଟ": 3333,
      "##ers": 3334,
      "ଏଥର": 3335,
      "ଏସବୁ": 3336,
      "ବିଶେଷଜ୍ଞ": 3337,
      "ଯୋଗାଣ": 3338,
      "##େଜ": 3339,
      "ଗତି": 3340,
      "ରୁଷ": 3341,
      "କେନ୍ଦ୍ରୀୟ": 3342,
      "କଥ": 3343,
      "ସମସ୍ତଙ୍କ": 3344,
      "ରିଲି": 3345,
      "##ଥରେ": 3346,
      "ବଦଳ": 3347,
      "ବ୍ୟକ୍ତିଗତ": 3348,
      "ମନ୍ତ୍ରଣାଳୟ": 3349,
      "ବଲାଙ୍ଗୀର": 3350,
      "ତାପମ": 3351,
      "##ମୟ": 3352,
      "ରାଜଧାନୀ": 3353,
      "ଦୃଶ୍ୟ": 3354,
      "ଜାମ": 3355,
      "ଡ୍ରାଇ": 3356,
      "##ହତ୍ୟା": 3357,
      "##ଟିର": 3358,
      "##im": 3359,
      "କାରବାର": 3360,
      "ଉଚିତ୍": 3361,
      "##ଏଫ": 3362,
      "ନଥିଲା": 3363,
      "ପ୍ରତିନିଧି": 3364,
      "##ପ୍ନ": 3365,
      "ଆମ୍ବ": 3366,
      "##ାର୍କ": 3367,
      "ରଖିଛି": 3368,
      "ଯୋଗଦେଇ": 3369,
      "ସହରରେ": 3370,
      "ହାତରେ": 3371,
      "##ସ୍ଫ": 3372,
      "ପରୀକ୍ଷ": 3373,
      "ନଥିବା": 3374,
      "ଭାଷା": 3375,
      "ସୀମା": 3376,
      "##ଚନ୍ଦ୍ର": 3377,
      "କିଣ": 3378,
      "ବ୍ରହ୍ମପୁର": 3379,
      "ପଡିବ": 3380,
      "ହୃଦ": 3381,
      "ରହୁଥିବା": 3382,
      "##ାଇଡ": 3383,
      "##ମ୍ମଦ": 3384,
      "ଙ୍କୁ": 3385,
      "ଶୁଣାଣି": 3386,
      "ପ୍ରାପ୍ତ": 3387,
      "ଜୀବନରେ": 3388,
      "ଧର": 3389,
      "ମନୋ": 3390,
      "ସଂଗ୍ର": 3391,
      "ବୋର୍ଡ": 3392,
      "ଧୀରେ": 3393,
      "##ଣ୍ଣା": 3394,
      "##ୟମ": 3395,
      "##ଳିକ": 3396,
      "ମନୋର": 3397,
      "ସୈ": 3398,
      "ଭଗବାନ": 3399,
      "##ସ୍ମ": 3400,
      "ଦିଆଯାଇଥିଲା": 3401,
      "##ive": 3402,
      "ମହାପ୍ର": 3403,
      "##ite": 3404,
      "କରାଯାଇଥାଏ": 3405,
      "ସବୁବ": 3406,
      "ସୁରକ୍ଷିତ": 3407,
      "##ଣ୍ଣି": 3408,
      "##ts": 3409,
      "କବ": 3410,
      "ସ୍ୱାଧୀନ": 3411,
      "ବିଶ୍ୱବିଦ୍ୟାଳୟ": 3412,
      "##ଶୋର": 3413,
      "ପ୍ରତିକ୍ରିୟା": 3414,
      "ଯନ୍ତ୍ର": 3415,
      "ମାଆ": 3416,
      "ପ୍ରତିଦିନ": 3417,
      "ଇସ୍ତ": 3418,
      "##ାଉନ୍": 3419,
      "##ଜ୍ଞାନ": 3420,
      "##ାପାଖ": 3421,
      "ନଥିଲେ": 3422,
      "ଚାଲାଣ": 3423,
      "##ାମାନଙ୍କ": 3424,
      "ଏପ୍ରିଲ": 3425,
      "କର୍ତ୍ତୃପକ୍ଷ": 3426,
      "ବିରାଟ": 3427,
      "ଗ୍ରାମରେ": 3428,
      "##ିନିୟ": 3429,
      "ସଞ୍ଜ": 3430,
      "##ୁନ": 3431,
      "ସାନ": 3432,
      "##ions": 3433,
      "ହଠ": 3434,
      "ଡୋଜ": 3435,
      "##କର୍ମ": 3436,
      "ହାତୀ": 3437,
      "ଅଷ୍ଟ୍ରେଲିଆ": 3438,
      "ଅଲଗା": 3439,
      "ମନରେ": 3440,
      "ଥିବାବେଳେ": 3441,
      "##iv": 3442,
      "##ଦ୍ମ": 3443,
      "ଦେଇଥିଲା": 3444,
      "##ଲାଇନ": 3445,
      "ବରଂ": 3446,
      "##ିଟର": 3447,
      "ଯାଏଁ": 3448,
      "ସୁଦ": 3449,
      "ମିନ": 3450,
      "ମନେ": 3451,
      "ସଠ": 3452,
      "ହୋଇପାରିବ": 3453,
      "ଦ୍ରୁତ": 3454,
      "ଜଣାଇଛନ୍ତି": 3455,
      "ଆତ୍ମହତ୍ୟା": 3456,
      "ପରିବହନ": 3457,
      "ଦିନକୁ": 3458,
      "##ଣ୍ଠ": 3459,
      "ପାଖାପାଖ": 3460,
      "ବିଶ୍ୱର": 3461,
      "୩୨": 3462,
      "ପରିଶ": 3463,
      "##ated": 3464,
      "ସବୁବେଳେ": 3465,
      "ଯୋଜନାରେ": 3466,
      "##ୋଟ୍": 3467,
      "ଗରିବ": 3468,
      "##00": 3469,
      "##ଚା": 3470,
      "ତହ": 3471,
      "ଶାସ": 3472,
      "ଦୈନିକ": 3473,
      "ପ୍ରଫେ": 3474,
      "ଗ୍ରୀ": 3475,
      "##ପେ": 3476,
      "ତାଲିକା": 3477,
      "ସବୁଠୁ": 3478,
      "ୱେବ": 3479,
      "##କାଳୀନ": 3480,
      "##ୃତ୍ତ": 3481,
      "ମାନବ": 3482,
      "ମିଳୁଛି": 3483,
      "ଅନୁଗୁଳ": 3484,
      "ଗ୍ରାମବାସୀ": 3485,
      "ଅଧିକାରୀଙ୍କ": 3486,
      "ପରିବାରର": 3487,
      "ପାଖାପାଖି": 3488,
      "##ex": 3489,
      "ଆଖି": 3490,
      "##ଖିତ": 3491,
      "ପ୍ରକୃତ": 3492,
      "ଶାନ୍ତି": 3493,
      "୩ଟି": 3494,
      "##ଟନ": 3495,
      "ଲେଖିଛନ୍ତି": 3496,
      "##ମିକ୍ର": 3497,
      "ସୂତ୍ର": 3498,
      "ଆଲୋକ": 3499,
      "ଲୋ": 3500,
      "##ାସୀ": 3501,
      "ପଂଚ": 3502,
      "ଲୋକପ୍ରିୟ": 3503,
      "ଛାଡି": 3504,
      "ମୟୂରଭଞ୍ଜ": 3505,
      "ପଇ": 3506,
      "##........": 3507,
      "##ସାର": 3508,
      "ପ୍ୟା": 3509,
      "ସମ୍ମୁଖୀନ": 3510,
      "ରିପୋର୍ଟର": 3511,
      "କେଶ": 3512,
      "ଓମିକ୍ର": 3513,
      "ଗ୍ୟାସ": 3514,
      "କରାଇ": 3515,
      "ବେଶ୍": 3516,
      "ସକାଳେ": 3517,
      "ଯଥା": 3518,
      "##କମାନେ": 3519,
      "ଯାଦ": 3520,
      "କୁହାଯାଏ": 3521,
      "ରବି": 3522,
      "##ନଗର": 3523,
      "##go": 3524,
      "ସୁପର": 3525,
      "ପାଦ": 3526,
      "କଠ": 3527,
      "୨୦୨୨": 3528,
      "ରାୟଗ": 3529,
      "##ହିନୀ": 3530,
      "କୁକୁ": 3531,
      "ବିତ": 3532,
      "##୍ନା": 3533,
      "##ହନ୍ତି": 3534,
      "କୋହଲି": 3535,
      "ଦାଶ": 3536,
      "##ith": 3537,
      "ଚାଳ": 3538,
      "ଆଣ୍ଡ": 3539,
      "ଯେପରି": 3540,
      "ଜାନୁଆ": 3541,
      "##ାସ୍ତ୍ର": 3542,
      "କିଲୋମିଟର": 3543,
      "##ଡରେ": 3544,
      "୩୩": 3545,
      "ଖସି": 3546,
      "Nove": 3547,
      "ତାହାର": 3548,
      "ନିର୍ଦେଶ": 3549,
      "##୍ବର": 3550,
      "##ଏଲ୍": 3551,
      "##େନ୍": 3552,
      "ରାଜସ୍ଥାନ": 3553,
      "November": 3554,
      "୨ଟି": 3555,
      "ସିଦ୍ଧ": 3556,
      "ସେଲ": 3557,
      "ଗାନ୍ଧୀ": 3558,
      "ସିବ": 3559,
      "##ot": 3560,
      "ରୋଜ": 3561,
      "ଲଢ଼": 3562,
      "ଆଚ": 3563,
      "ଆଧାରରେ": 3564,
      "##ହାରି": 3565,
      "ପର୍ଯ୍ୟାୟ": 3566,
      "##ାମା": 3567,
      "##ଗମ": 3568,
      "ସମ୍ପୃକ୍ତ": 3569,
      "ପିଛା": 3570,
      "୧୯୯": 3571,
      "ବନ୍ୟା": 3572,
      "##୍ରୋ": 3573,
      "##ାଇଲ୍": 3574,
      "ଫ୍ଲ": 3575,
      "ହେତୁ": 3576,
      "ଦେଖିବା": 3577,
      "ଆଫଗ": 3578,
      "ଯବାନ": 3579,
      "ସହରର": 3580,
      "ସମୀକ୍ଷା": 3581,
      "ପାଣ୍ଡ": 3582,
      "##ର୍ଜ": 3583,
      "ଦଣ୍ଡ": 3584,
      "ଭୋଗ": 3585,
      "##ୀକରଣ": 3586,
      "##ଲ୍ଲିକ": 3587,
      "ପଦ୍ମ": 3588,
      "##ାର୍ଜ": 3589,
      "ଆଦିବାସୀ": 3590,
      "ତଥାପି": 3591,
      "##ୁଥିଲେ": 3592,
      "##ାପ୍ର": 3593,
      "ସ୍ବା": 3594,
      "ଅପରାହ୍ନ": 3595,
      "୭୦": 3596,
      "ତହସିଲ": 3597,
      "ବାଦ": 3598,
      "##ହେଲେ": 3599,
      "ଏପର୍ଯ୍ୟନ୍ତ": 3600,
      "ଚିଠି": 3601,
      "ଘଟଣାକୁ": 3602,
      "##ଚାପ": 3603,
      "##ଡିତ": 3604,
      "##ଭୂମି": 3605,
      "ଅନ୍ତର୍ଜାତୀୟ": 3606,
      "##ଏଣ୍ଟ": 3607,
      "ଗୁଡ଼ିକ": 3608,
      "##ତ୍ୱ": 3609,
      "##ଲାର": 3610,
      "ନିୟମିତ": 3611,
      "##ଗାଁ": 3612,
      "ପର୍ଯ୍ୟାୟରେ": 3613,
      "ମାଓ": 3614,
      "##ାବି": 3615,
      "##ave": 3616,
      "ଭଉ": 3617,
      "##ଲୋକ": 3618,
      "ଖୋଲି": 3619,
      "ଅବସର": 3620,
      "ପଶ୍ଚିମବଙ୍ଗ": 3621,
      "ରଖନ୍ତୁ": 3622,
      "ଖାନ": 3623,
      "##ମାରେ": 3624,
      "##କ୍ଷେତ୍ର": 3625,
      "##ଗୁଡ଼ିକର": 3626,
      "ପ୍ରସଙ୍ଗରେ": 3627,
      "ଭିଜିଲ": 3628,
      "ଶବ୍ଦ": 3629,
      "କାହାଣୀ": 3630,
      "##୍କାର": 3631,
      "ବିସ୍ଫ": 3632,
      "an": 3633,
      "##ନଙ୍କ": 3634,
      "ଅପରେ": 3635,
      "##ik": 3636,
      "ବରଗଡ଼": 3637,
      "ପୌର": 3638,
      "##ଷ୍କର୍ମ": 3639,
      "ସଂପୂର୍ଣ୍ଣ": 3640,
      "ଅଲି": 3641,
      "ପାର୍ଟି": 3642,
      "ହୋଟ": 3643,
      "ଆସିବ": 3644,
      "ଚୋର": 3645,
      "କରିପାରନ୍ତି": 3646,
      "ପହଞ୍ଚିଛି": 3647,
      "୩୭": 3648,
      "ସାଂ": 3649,
      "##ଲିମ": 3650,
      "##ରେଇ": 3651,
      "ହେବାରେ": 3652,
      "ସ୍ଥାନାନ୍ତର": 3653,
      "##ପାରୁ": 3654,
      "ଉତ୍ତମ": 3655,
      "ବର୍ଣ୍ଣ": 3656,
      "##ଡ଼ରେ": 3657,
      "##େକ୍ଟ": 3658,
      "ବିସ୍ଫୋର": 3659,
      "କରୋନାର": 3660,
      "ବର୍ଷୀୟ": 3661,
      "##ୋଦ": 3662,
      "##ାମେ": 3663,
      "ମାଛ": 3664,
      "ଉପସ୍ଥ": 3665,
      "ପ୍ରଫେସର": 3666,
      "ଉଦାହ": 3667,
      "ବ୍ୟାଟିଂ": 3668,
      "ସମସ୍ୟାର": 3669,
      "ଉପଯୋଗ": 3670,
      "##ତ୍ତା": 3671,
      "ସମିତି": 3672,
      "ସିନେ": 3673,
      "ଗଭୀର": 3674,
      "ଉଦାହରଣ": 3675,
      "ଉଠି": 3676,
      "ପ୍ରଦୀପ": 3677,
      "##ab": 3678,
      "ସ୍ନ": 3679,
      "##ିକାରେ": 3680,
      "ଚେତ": 3681,
      "##ିଟ୍": 3682,
      "ସୁଶାନ୍ତ": 3683,
      "ବାସ୍ତବ": 3684,
      "ଆକଳନ": 3685,
      "##୍ୟ୍ୟ": 3686,
      "ଜନସାଧାରଣ": 3687,
      "ଆକାଶ": 3688,
      "ପରିଣତ": 3689,
      "##ନେଇ": 3690,
      "ଦୋଷ": 3691,
      "ଛକ": 3692,
      "ଭିଜିଲାନ୍ସ": 3693,
      "ତାପମାତ୍ରା": 3694,
      "##ଧୁନିକ": 3695,
      "##ଶିକ୍ଷ": 3696,
      "ଜାଣନ୍ତୁ": 3697,
      "ଯୁକ୍ତ": 3698,
      "##ary": 3699,
      "##ିଥିଲେ": 3700,
      "##ିତ୍ୟ": 3701,
      "##ମ୍ୟ": 3702,
      "##ଏଫ୍": 3703,
      "ରହିଥିଲେ": 3704,
      "ଆଜ": 3705,
      "ଅଳ୍ପ": 3706,
      "##ୋଜିତ": 3707,
      "ସଂକ୍ରମିତଙ୍କ": 3708,
      "ମଜ": 3709,
      "##ସ୍ତରୀୟ": 3710,
      "ବର୍ଗ": 3711,
      "୩୬": 3712,
      "ତାହାକୁ": 3713,
      "ବିସ୍ତ": 3714,
      "ପାଞ୍ଚ": 3715,
      "ଆସୁଛି": 3716,
      "ଓ୍ବ": 3717,
      "ରଖିବାକୁ": 3718,
      "ମାତ": 3719,
      "ନାରାୟଣ": 3720,
      "ସୁବ": 3721,
      "ପ୍ରଭ": 3722,
      "କାନ": 3723,
      "ସ୍ମାର୍ଟ": 3724,
      "ପୂର୍ଣ୍ଣ": 3725,
      "ଯଥ": 3726,
      "ଓହ": 3727,
      "##ସ୍ତି": 3728,
      "ସନ୍ଧ": 3729,
      "ପୋଲିସ୍": 3730,
      "ପ୍ରଶଂସ": 3731,
      "କଡ଼ା": 3732,
      "୮୦": 3733,
      "##ଚର": 3734,
      "##ଙ୍ଗ୍": 3735,
      "Sam": 3736,
      "ଆକର୍ଷଣ": 3737,
      "ଝା": 3738,
      "##ୱାଲ": 3739,
      "ସଂଯୋଗ": 3740,
      "##ସଂଖ୍ୟା": 3741,
      "ଫ୍ର": 3742,
      "ଇସ୍ତଫା": 3743,
      "ହୋଇଥିବାରୁ": 3744,
      "ଜ୍ୟ": 3745,
      "ସରପଞ୍ଚ": 3746,
      "ଅନୁଷ୍ଠାନ": 3747,
      "ତୁଳନ": 3748,
      "##୍ତ୍ତା": 3749,
      "୩୪": 3750,
      "୭୫": 3751,
      "ଡିଗ୍ରୀ": 3752,
      "app": 3753,
      "##ଜାତି": 3754,
      "ଶ୍ରେଷ୍ଠ": 3755,
      "ବାବୁ": 3756,
      "ଇଂଲଣ୍ଡ": 3757,
      "ଦୁନିଆ": 3758,
      "ଚର": 3759,
      "ଖେଳା": 3760,
      "ଇଣ୍ଟର": 3761,
      "ସାକ୍ଷାତ": 3762,
      "ସାମାନ୍ୟ": 3763,
      "ପଂଚାୟତ": 3764,
      "ତିନ": 3765,
      "ଠାକୁ": 3766,
      "ବଢି": 3767,
      "##lect": 3768,
      "##ext": 3769,
      "ଏଲ": 3770,
      "ବିର": 3771,
      "ପୂରା": 3772,
      "ମସିହା": 3773,
      "##ଧ୍ୟାରେ": 3774,
      "##ସ୍ବ": 3775,
      "##ନକୁ": 3776,
      "ଭିତ୍ତି": 3777,
      "ଅଫିସର": 3778,
      "##ଷ୍ଟ୍ରୀୟ": 3779,
      "ନିଲ": 3780,
      "ତାଲିବ": 3781,
      "କେନ୍ଦ୍ରାପଡ଼ା": 3782,
      "ଚଢ": 3783,
      "ତାମ": 3784,
      "ଘରୁ": 3785,
      "ଶୀର୍ଷ": 3786,
      "ମାସ୍କ": 3787,
      "ତୁମ୍ଭ": 3788,
      "ବଙ୍ଗ": 3789,
      "ସାହ": 3790,
      "##୍ୟାଣ୍ଡ": 3791,
      "ଆସନ୍ତାକାଲି": 3792,
      "ପଠାଇ": 3793,
      "##ଗ୍ରା": 3794,
      "ବିନି": 3795,
      "ସିବିଆଇ": 3796,
      "ତୁଳନାରେ": 3797,
      "##ver": 3798,
      "ୟୁକ୍ରେନ": 3799,
      "ବୃଦ୍ଧ": 3800,
      "ପ୍ରୋତ୍ସ": 3801,
      "ପରିସରରେ": 3802,
      "ନୟାଗଡ଼": 3803,
      "ରଖାଯାଇଛି": 3804,
      "କେର": 3805,
      "ଅଗ୍ନି": 3806,
      "ବସ୍": 3807,
      "ଇନ୍": 3808,
      "ନିର୍ଭର": 3809,
      "ମହାପ୍ରଭୁ": 3810,
      "##ସନରେ": 3811,
      "##ust": 3812,
      "##ଡ଼ିଓ": 3813,
      "ଆସିଥିଲା": 3814,
      "ସକ୍ଷମ": 3815,
      "Com": 3816,
      "##ତ୍ୟ": 3817,
      "ପୃଥିବ": 3818,
      "##ଣରେ": 3819,
      "କିଭଳି": 3820,
      "ଦେଖାଦେଇ": 3821,
      "ନନ୍ଦ": 3822,
      "##ଲୋ": 3823,
      "ସ୍ଥାପନ": 3824,
      "ପଜିଟିଭ୍": 3825,
      "##ାମାନଙ୍କୁ": 3826,
      "ପରିସ୍ଥିତିରେ": 3827,
      "ନର": 3828,
      "ଉଠାଇ": 3829,
      "##େଳା": 3830,
      "ଫସଲ": 3831,
      "##୍ୟାଲେ": 3832,
      "##ମଣ୍ଡ": 3833,
      "##ର୍ଟ": 3834,
      "ନୀଳ": 3835,
      "##ମ୍ମୁ": 3836,
      "##ଦ୍ଦିଷ୍ଟ": 3837,
      "In": 3838,
      "##ଥିବେ": 3839,
      "ବାହାରକୁ": 3840,
      "post": 3841,
      "##op": 3842,
      "be": 3843,
      "##ବନ୍ଧ": 3844,
      "ନଗର": 3845,
      "ପର୍ବ": 3846,
      "ଆନ୍ତ": 3847,
      "ବହି": 3848,
      "ମମତା": 3849,
      "ୱାର୍ଡ": 3850,
      "ସ୍ଥିତିରେ": 3851,
      "##ାନର": 3852,
      "ନକ": 3853,
      "ଫୋନ": 3854,
      "##ରୁଣ": 3855,
      "ଅନ୍": 3856,
      "ପାରିବ": 3857,
      "କଂଗ୍ରେସର": 3858,
      "ମୁଖ୍ୟମନ୍ତ୍ରୀଙ୍କ": 3859,
      "ଟାର୍ଗ": 3860,
      "ନାଁରେ": 3861,
      "##ast": 3862,
      "ଦୌ": 3863,
      "ବର୍ଷରେ": 3864,
      "##୍ଲି": 3865,
      "କନ୍ୟା": 3866,
      "ବିଚାରପତି": 3867,
      "##and": 3868,
      "ଛି": 3869,
      "December": 3870,
      "ଦେଖାଇ": 3871,
      "ଫଳା": 3872,
      "ବଲ": 3873,
      "##େଖା": 3874,
      "ରୋଜଗାର": 3875,
      "ଅସ୍ତ୍ର": 3876,
      "##ିପା": 3877,
      "##ଫ୍ଟ": 3878,
      "##ଂଜ": 3879,
      "ଚୋରି": 3880,
      "##ାହିତ": 3881,
      "ପଳ": 3882,
      "ଲକ୍ଷ୍ମୀ": 3883,
      "ପହଂଚ": 3884,
      "ସହଜ": 3885,
      "ବିଜୟୀ": 3886,
      "ପଦକ": 3887,
      "ସନ୍ତୋଷ": 3888,
      "ହେବାରୁ": 3889,
      "##ଡ଼ିତ": 3890,
      "ରୂପେ": 3891,
      "ଗେ": 3892,
      "##ଦିଆ": 3893,
      "##ୁଦ୍ର": 3894,
      "Nov": 3895,
      "ପଜିଟିଭ": 3896,
      "ରହିବାକୁ": 3897,
      "##ାର୍ଥୀ": 3898,
      "pro": 3899,
      "ଦେବୀ": 3900,
      "ଶାହ": 3901,
      "ଚେନ୍ନ": 3902,
      "ଶୋଇ": 3903,
      "ବିଜେପିର": 3904,
      "ଅହ": 3905,
      "କମିଶନର": 3906,
      "ଚୟନ": 3907,
      "ନେଇଥିବା": 3908,
      "ଲଢ": 3909,
      "##ome": 3910,
      "ସାଧାରଣତଃ": 3911,
      "##ଳାଚଳ": 3912,
      "##ଜ୍ଞାନିକ": 3913,
      "କର୍ମଚାରୀଙ୍କ": 3914,
      "ନିମ୍ନ": 3915,
      "ଶାନ୍ତ": 3916,
      "##ରଣର": 3917,
      "##ିପି": 3918,
      "ପ୍ରତିବା": 3919,
      "##ଜୀବୀ": 3920,
      "ରମ": 3921,
      "##ଟିଭି": 3922,
      "ଇଞ୍ଜ": 3923,
      "ବାବଦରେ": 3924,
      "##ଯାଉଥିବା": 3925,
      "ହୋଇନ": 3926,
      "ago": 3927,
      "##if": 3928,
      "##କୃତିକ": 3929,
      "ରାଉର": 3930,
      "##ଯୋଜ": 3931,
      "##ୱା": 3932,
      "##ମ୍ପର": 3933,
      "ବିଶ୍ୱକ": 3934,
      "##ୋତି": 3935,
      "##ଟିଆ": 3936,
      "##ଟାରେ": 3937,
      "##ରାଉ": 3938,
      "##ିନ୍": 3939,
      "ବାହା": 3940,
      "ଶୈ": 3941,
      "ଉପଯୁକ୍ତ": 3942,
      "##ଭୁକ୍ତ": 3943,
      "ଯାଦବ": 3944,
      "##ୀକ": 3945,
      "ଏକାଠି": 3946,
      "##irst": 3947,
      "##----": 3948,
      "ନାବାଳିକା": 3949,
      "ସଂରକ୍ଷଣ": 3950,
      "ଆଫଗାନି": 3951,
      "ଗ୍ରୁ": 3952,
      "Oct": 3953,
      "ଭେଟ": 3954,
      "##ିରୁ": 3955,
      "##ରୋ": 3956,
      "##ଭାଇ": 3957,
      "ସନ୍ଧ୍ୟା": 3958,
      "ବୟସ୍କ": 3959,
      "ହୋଟେଲ": 3960,
      "ଛତିଶ": 3961,
      "ଫଳାଫଳ": 3962,
      "##ହାଁନ୍ତି": 3963,
      "ଘଟିଥିବା": 3964,
      "ବୈଜ୍ଞାନିକ": 3965,
      "##ies": 3966,
      "ନେଇଛି": 3967,
      "##କୌ": 3968,
      "ବୋଲ": 3969,
      "ଉନ୍ନୟନ": 3970,
      "ଧକ୍କ": 3971,
      "୪୨": 3972,
      "ଖଣି": 3973,
      "##ତ୍": 3974,
      "30": 3975,
      "##ଘାଟନ": 3976,
      "ମିଥ": 3977,
      "ଧର୍": 3978,
      "##ସଭାରେ": 3979,
      "##ଷା": 3980,
      "ଗୋଲ": 3981,
      "ପ୍ରାକୃତିକ": 3982,
      "ପାରୁ": 3983,
      "ବଜାରରେ": 3984,
      "ଦିଲ୍ଲୀରେ": 3985,
      "ଅଧିବେଶ": 3986,
      "୨୦୧୮": 3987,
      "ଅଙ୍କ": 3988,
      "ଚକ": 3989,
      "ମନା": 3990,
      "ଦୁର୍ବଳ": 3991,
      "ଚେନ୍ନାଇ": 3992,
      "##ll": 3993,
      "ଶୁଭେ": 3994,
      "18": 3995,
      "##େକ୍": 3996,
      "##ସାଇ": 3997,
      "##ସାଦ": 3998,
      "##ଡିଏ": 3999,
      "ପ୍ରତ୍ୟା": 4000,
      "ଭୂତ": 4001,
      "##କଳ": 4002,
      "ଯୁବତୀ": 4003,
      "##ନ୍ତୋଷ": 4004,
      "ନିର୍ମ": 4005,
      "କେନ୍ଦ୍ରମନ୍ତ୍ରୀ": 4006,
      "ରାଇ": 4007,
      "##ଖି": 4008,
      "ସ୍ୱର": 4009,
      "ପରିବାରକୁ": 4010,
      "ଫୋନ୍": 4011,
      "##os": 4012,
      "ମଞ୍ଜ": 4013,
      "##ତର": 4014,
      "ତାଳ": 4015,
      "ପିତା": 4016,
      "ଭାଗ୍ୟ": 4017,
      "କୋଲକ": 4018,
      "ସଭ୍ୟ": 4019,
      "୪୮": 4020,
      "ରୋଗୀଙ୍କ": 4021,
      "ଦ୍ବିତୀୟ": 4022,
      "ଆମେରିକାର": 4023,
      "ସଂପୃକ୍ତ": 4024,
      "##ୋରେ": 4025,
      "##ପଡା": 4026,
      "ବିଭାଗୀୟ": 4027,
      "କୁମ୍ଭ": 4028,
      "ବିଭ": 4029,
      "କରାଯାଇପାରିବ": 4030,
      "ଡାକ": 4031,
      "##ଶେଷ": 4032,
      "ସ୍ଥଳ": 4033,
      "##ଙ୍ଗୁ": 4034,
      "ଯୋଗେ": 4035,
      "##ଶ୍ରୀ": 4036,
      "ସ୍ବତନ୍ତ୍ର": 4037,
      "ପାହା": 4038,
      "ଭଉଣୀ": 4039,
      "ଦେଉଛନ୍ତି": 4040,
      "##ଦର୍ଶ": 4041,
      "୩୮": 4042,
      "ଧାରା": 4043,
      "ଧମକ": 4044,
      "are": 4045,
      "ଗ୍ରାହକ": 4046,
      "##ug": 4047,
      "ପ୍ରଶିକ୍ଷ": 4048,
      "ଗୌ": 4049,
      "ଯୁଗ": 4050,
      "ଅପର": 4051,
      "##ଦର୍ଶନ": 4052,
      "Odia": 4053,
      "ଆସନ୍ତୁ": 4054,
      "୪ଟି": 4055,
      "ଜବାବ": 4056,
      "##ାଇମ": 4057,
      "ପାର୍ଟ": 4058,
      "ବେଳକୁ": 4059,
      "ad": 4060,
      "##ଜେନ୍": 4061,
      "ବର୍ଷରୁ": 4062,
      "##ain": 4063,
      "ଜନିତ": 4064,
      "ଶୃଙ୍ଖ": 4065,
      "##୍ଵର": 4066,
      "ମଲ୍ଲିକ": 4067,
      "##େକ୍ସ": 4068,
      "ଆଇପିଏଲ": 4069,
      "କିଶୋର": 4070,
      "ପାର୍କ": 4071,
      "କୃଷ୍ଣ": 4072,
      "ବ୍ୟୟ": 4073,
      "ଏତ": 4074,
      "ଡାକ୍ତରଖାନାରେ": 4075,
      "ବୀ": 4076,
      "ଜୁନ୍": 4077,
      "ପରସ୍ପ": 4078,
      "ରଖିଥିଲେ": 4079,
      "ନିୟୋଜିତ": 4080,
      "ବିଫଳ": 4081,
      "ଠକ": 4082,
      "##ଙ୍ଗୀ": 4083,
      "##ଭୂତ": 4084,
      "ଭେଟି": 4085,
      "ବେଆଇ": 4086,
      "ଆଫଗାନିସ୍ତାନ": 4087,
      "ଉତ୍ତରପ୍ରଦେଶ": 4088,
      "ମାଡ଼": 4089,
      "##um": 4090,
      "ହେଇ": 4091,
      "ମିଳିଥାଏ": 4092,
      "ତାମିଲ": 4093,
      "ବିଲ୍": 4094,
      "##ଏନ": 4095,
      "କରିପାରିବ": 4096,
      "ରୋହିତ": 4097,
      "##ାପିତ": 4098,
      "##ୁକ": 4099,
      "ଆଣିବା": 4100,
      "ଅପଡ଼": 4101,
      "ନ୍ୟୁଜ": 4102,
      "ଅଶୋକ": 4103,
      "ଚାହିଁ": 4104,
      "2019": 4105,
      "ଲକ୍ଷଣ": 4106,
      "ସମ୍ମୁଖରେ": 4107,
      "ସକାଳୁ": 4108,
      "କାଟ": 4109,
      "ହୋଇଯିବ": 4110,
      "ଦ୍ଵାରା": 4111,
      "୫ଟି": 4112,
      "ବ୍ଲକର": 4113,
      "ପଶୁ": 4114,
      "ସୋନ": 4115,
      "ଚଳାଚଳ": 4116,
      "ସମୁଦାୟ": 4117,
      "ଷ୍ଟାଡି": 4118,
      "ଏଥିରୁ": 4119,
      "##ଭାବିକ": 4120,
      "ଘରର": 4121,
      "ମହିଳାଙ୍କୁ": 4122,
      "ଅସୁ": 4123,
      "ଅଭ୍ୟାସ": 4124,
      "କାହାକୁ": 4125,
      "15": 4126,
      "##ସାଗ": 4127,
      "ହିତା": 4128,
      "ତତ": 4129,
      "ଯିବାକୁ": 4130,
      "ନେତୃତ୍ୱରେ": 4131,
      "ପୂଜ": 4132,
      "##୍ଷିକ": 4133,
      "ଜମା": 4134,
      "##ାବିନ": 4135,
      "ଏଣୁ": 4136,
      "ଅସୁବିଧା": 4137,
      "ପଠା": 4138,
      "ନିର୍ଦ୍ଦିଷ୍ଟ": 4139,
      "ଡ୍ରାଇଭର": 4140,
      "##ଓ୍ବ": 4141,
      "ଅଧୀନରେ": 4142,
      "ଟିଭି": 4143,
      "##ିକିଆ": 4144,
      "##out": 4145,
      "##ବ୍ଲ": 4146,
      "##ୖଳ": 4147,
      "##ମେନ୍ଦ୍ର": 4148,
      "କ୍ରମ": 4149,
      "##ଡିଂ": 4150,
      "ଅର୍ଥାତ୍": 4151,
      "ସଦର": 4152,
      "ଅଭିଯୋଗରେ": 4153,
      "re": 4154,
      "ସଙ୍ଗୀତ": 4155,
      "ଜଣାଇ": 4156,
      "ଘଟିଥିଲା": 4157,
      "ଏମାନଙ୍କ": 4158,
      "##ଣ୍ଟନ": 4159,
      "ଭୁ": 4160,
      "ସହି": 4161,
      "ମାଝ": 4162,
      "##ନ୍ତୀ": 4163,
      "##ାଣ୍ଡ": 4164,
      "ଜାନୁଆରୀ": 4165,
      "ସଂଶ": 4166,
      "ସର୍ବୋ": 4167,
      "##ବାହୀ": 4168,
      "ମିଲ": 4169,
      "ମୋଟ୍": 4170,
      "##ାଦାନ": 4171,
      "କୌଶ": 4172,
      "ଦୂରରେ": 4173,
      "ଛାଡ଼": 4174,
      "##igh": 4175,
      "##ନାଲ୍": 4176,
      "##ଂଜନ": 4177,
      "ଏମାନେ": 4178,
      "##କେଲ": 4179,
      "ଭାସ": 4180,
      "ମାଇ": 4181,
      "ଉପକୂଳ": 4182,
      "##ଗେ": 4183,
      "ଫେବୃ": 4184,
      "##ସିଦ୍ଧ": 4185,
      "ବାକି": 4186,
      "ରାଜପଥ": 4187,
      "##୍ରୁତି": 4188,
      "ମିନିଟ": 4189,
      "କଳାକାର": 4190,
      "State": 4191,
      "##ସ୍ଥାକୁ": 4192,
      "ହଠାତ୍": 4193,
      "##୍ଦ": 4194,
      "En": 4195,
      "##ନ୍ଦୀ": 4196,
      "ବାହିନୀ": 4197,
      "##ିତ୍ବ": 4198,
      "ମଡ": 4199,
      "##କିଲ": 4200,
      "ସଙ୍କଟ": 4201,
      "##ାଗଜ": 4202,
      "ସମ୍ପ୍ର": 4203,
      "ନିବେଶ": 4204,
      "##og": 4205,
      "##ସେନା": 4206,
      "##ଣ୍ଡାର": 4207,
      "ହୋଇପାରି": 4208,
      "ଭିତରକୁ": 4209,
      "ଭାରତକୁ": 4210,
      "first": 4211,
      "##ଏମସି": 4212,
      "କେନ୍ଦ୍ରରେ": 4213,
      "ଦୁଷ୍କର୍ମ": 4214,
      "##ପିଟାଲ": 4215,
      "##ପ୍ରାପ୍ତ": 4216,
      "ଶ୍ରୀଲ": 4217,
      "କୋର୍ଟରେ": 4218,
      "ପ୍ରଶାନ୍ତ": 4219,
      "ମିଶି": 4220,
      "##ଭାବେ": 4221,
      "##ହେବ": 4222,
      "ଉପରକୁ": 4223,
      "##ୁଳ": 4224,
      "ହସ": 4225,
      "ରାଜ୍ୟପାଳ": 4226,
      "ହାଜ": 4227,
      "##ପାଟ": 4228,
      "ଦାନ": 4229,
      "##ଶିତ": 4230,
      "##ଠିତ": 4231,
      "ପ୍ରୟୋଗ": 4232,
      "ସମ୍ପତ୍ତି": 4233,
      "ହୋଇଥିବାବେଳେ": 4234,
      "ଚାଷୀଙ୍କ": 4235,
      "ପ୍ରି": 4236,
      "ଗୁରୁତ୍ବ": 4237,
      "(+": 4238,
      "##ଶମ": 4239,
      "ଇତିହାସ": 4240,
      "##ୀକାର": 4241,
      "ଜୈ": 4242,
      "ପୁସ୍ତ": 4243,
      "ପର୍ଯ୍ୟଟକ": 4244,
      "##ଗତି": 4245,
      "କ୍ୟାବିନ": 4246,
      "ହିତାଧିକାରୀ": 4247,
      "##ଲାଇନ୍": 4248,
      "ରାଜା": 4249,
      "##୍ରୟ": 4250,
      "ବିକଳ୍ପ": 4251,
      "ଦକ୍ଷତା": 4252,
      "ଭୋଟ୍": 4253,
      "କାର୍ଯ୍ୟର": 4254,
      "୯୦": 4255,
      "##ନୀତ": 4256,
      "ଆନୁ": 4257,
      "##ୃଦ୍ଧି": 4258,
      "ପ୍ରତିଶ୍ରୁତି": 4259,
      "ବୟାନ": 4260,
      "ହିନ୍ଦୁସ୍ଥାନ": 4261,
      "ଖା": 4262,
      "##ଚିତ୍ର": 4263,
      "୪୧": 4264,
      "୫୫": 4265,
      "##କ୍ରମେ": 4266,
      "ଡଲାର": 4267,
      "କାଠ": 4268,
      "ପାନୀୟ": 4269,
      "##ସ୍ର": 4270,
      "##ame": 4271,
      "ଆଫ୍ର": 4272,
      "##ର୍ଯ୍ୟା": 4273,
      "ଅସୁସ୍ଥ": 4274,
      "ରସ": 4275,
      "ଅସନ୍ତୋଷ": 4276,
      "##ହୀନ": 4277,
      "ମିଟର": 4278,
      "ଗବେଷଣା": 4279,
      "##ସ୍ପତି": 4280,
      "ଆଦାୟ": 4281,
      "More": 4282,
      "ଟୁଇ": 4283,
      "ବାଳ": 4284,
      "ପ୍ରତିର": 4285,
      "ପୋଲ": 4286,
      "ପାଇଥିଲେ": 4287,
      "##ଘନ": 4288,
      "ବିରୁ": 4289,
      "##ୁଥିଲା": 4290,
      "##ାଉଛନ୍ତି": 4291,
      "ଚତୁର୍ଥ": 4292,
      "ଟ୍ୟା": 4293,
      "ପ୍ରତାପ": 4294,
      "କୃତ": 4295,
      "ନିଖ": 4296,
      "Read": 4297,
      "ଦଳରେ": 4298,
      "ଅପଡ଼େଟ": 4299,
      "ରାଷ୍ଟ୍ରୀୟ": 4300,
      "ପର୍ଯ୍ୟଟନ": 4301,
      "ତୀବ": 4302,
      "ସମ୍ମିଳନୀରେ": 4303,
      "ଅପଡ଼େଟଗୁଡିକୁ": 4304,
      "ଅତିକ": 4305,
      "##hat": 4306,
      "ହଳ": 4307,
      "ଫେରାର": 4308,
      "ଯୋଡ଼ି": 4309,
      "ତୀବ୍ର": 4310,
      "ଲଘୁ": 4311,
      "##ିଲାଣି": 4312,
      "ପ୍ରାରମ୍ଭ": 4313,
      "##େବୀ": 4314,
      "ଦୃଢ଼": 4315,
      "##କର୍ତ୍ତ": 4316,
      "ଲାଲ": 4317,
      "ଶାରୀ": 4318,
      "##ାବୁ": 4319,
      "##oll": 4320,
      "##େଟରେ": 4321,
      "##୍ୱାନ": 4322,
      "ଏକାଧିକ": 4323,
      "##ରେଶ": 4324,
      "ପିଲାଙ୍କ": 4325,
      "ଗଲେ": 4326,
      "##ଦ୍ଧରେ": 4327,
      "##ସମ": 4328,
      "##ପୂର୍ବ": 4329,
      "ଶୁଣି": 4330,
      "ପବିତ୍ର": 4331,
      "ଛୁଇଁ": 4332,
      "ଶୋକ": 4333,
      "ଏଇ": 4334,
      "ମାଟି": 4335,
      "ମେସି": 4336,
      "##ହୂ": 4337,
      "ସହଜରେ": 4338,
      "##ାମୂଳକ": 4339,
      "ମନୋରଞ୍ଜନ": 4340,
      "ଆଗ୍ରହ": 4341,
      "ମତଦାନ": 4342,
      "୪୪": 4343,
      "ଅବଗତ": 4344,
      "##ସ୍କୃତ": 4345,
      "##କେଲା": 4346,
      "ରଞ୍ଜନ": 4347,
      "ଗହ": 4348,
      "##ାନାକୁ": 4349,
      "##ୃତ୍ୟ": 4350,
      "ସ୍ୱପ୍ନ": 4351,
      "ଦଳକୁ": 4352,
      "ତିନୋଟି": 4353,
      "##ାତ୍ରାରେ": 4354,
      "ଶାରୀରିକ": 4355,
      "##ାପରେ": 4356,
      "##od": 4357,
      "କରାଯାଉଥିବା": 4358,
      "24": 4359,
      "##ିପ୍ର": 4360,
      "ମଧୁ": 4361,
      "ଉନ୍ନତ": 4362,
      "##ରଣୀ": 4363,
      "ହୋଇଯାଇଥିଲା": 4364,
      "୩୯": 4365,
      "ଅକ୍ଷୟ": 4366,
      "ପ୍ରଚ": 4367,
      "ବଦଳି": 4368,
      "ସାହି": 4369,
      "କେଉଁଠି": 4370,
      "କ୍ଲିକ୍": 4371,
      "ଓହ୍ଲ": 4372,
      "##ମ୍ର": 4373,
      "ପଇସା": 4374,
      "ଶକ୍ତ": 4375,
      "୨୦୧୭": 4376,
      "ଡିଜେଲ": 4377,
      "##ଢ଼ି": 4378,
      "ପହଁ": 4379,
      "##ଳିତ": 4380,
      "##ଖରୀ": 4381,
      "ହକି": 4382,
      "##ook": 4383,
      "##ଟାରୁ": 4384,
      "##ସ୍ପି": 4385,
      "ଯାଉଛନ୍ତି": 4386,
      "##୍ରତ": 4387,
      "ମ୍ୟାଚରେ": 4388,
      "ଅଧ୍ୟା": 4389,
      "ମୁହାଁ": 4390,
      "##ନ୍ଧାନ": 4391,
      "ଆକାର": 4392,
      "##ap": 4393,
      "ଅନୁମାନ": 4394,
      "୪୩": 4395,
      "##ାବା": 4396,
      "##ଶୀଘ୍ର": 4397,
      "##ଗୋଳ": 4398,
      "ଯୋଗ୍ୟ": 4399,
      "ନିରା": 4400,
      "ମହମ୍ମଦ": 4401,
      "ହୋଇପାରନ୍ତି": 4402,
      "ସଂଘର୍ଷ": 4403,
      "ମିଳିବା": 4404,
      "ଦୂରେଇ": 4405,
      "##ିକେ": 4406,
      "ଯଦିଓ": 4407,
      "ମଇ": 4408,
      "କାଶ୍ମୀର": 4409,
      "ସ୍ୱାଇଁ": 4410,
      "କମ୍ପାନ": 4411,
      "ଦୁର୍ନୀତି": 4412,
      "ଠାକୁର": 4413,
      "ଜ୍ୟୋତି": 4414,
      "ଖ୍ରୀ": 4415,
      "##ଏମ୍ସି": 4416,
      "ଅର୍ଗ": 4417,
      "##ଦାୟକ": 4418,
      "##ବ୍ୟା": 4419,
      "##ନ୍ତର": 4420,
      "appear": 4421,
      "ସାପ": 4422,
      "ସାତ": 4423,
      "##ଟ୍ଟ": 4424,
      "ଇତ୍ୟା": 4425,
      "ଗରମ": 4426,
      "##ଫର୍ମ": 4427,
      "##ବଲ": 4428,
      "ମୁଦ୍ର": 4429,
      "ଗ୍ଲ": 4430,
      "##ୃଷ୍ଣ": 4431,
      "ଧର୍ମେନ୍ଦ୍ର": 4432,
      "##ଦେଲେ": 4433,
      "ବାର୍ଷିକ": 4434,
      "ଉପଭ": 4435,
      "ଧାରଣା": 4436,
      "ସଲ": 4437,
      "##ଷ୍ମ": 4438,
      "କାଲି": 4439,
      "##ୋସି": 4440,
      "ଇଚ୍ଛା": 4441,
      "ସ୍ୱାଗତ": 4442,
      "ହାଇଦ୍ର": 4443,
      "##ୱାର": 4444,
      "ଅଧିକାରୀମାନେ": 4445,
      "ଇଲେ": 4446,
      "ଅନ୍ୟତମ": 4447,
      "ଓଭ": 4448,
      "ପଶି": 4449,
      "##ଳଖ": 4450,
      "ଚାଉ": 4451,
      "ପରିଶ୍ରମ": 4452,
      "##ାୟା": 4453,
      "ବାସି": 4454,
      "##ଥ୍": 4455,
      "କେନ୍ଦ୍ରାପଡା": 4456,
      "ପଥର": 4457,
      "26": 4458,
      "##ାଇନ୍": 4459,
      "##HA": 4460,
      "##ୟିକ": 4461,
      "ଯାନ": 4462,
      "ତୁଳ": 4463,
      "ନିଆଯାଇଛି": 4464,
      "ଫାଇନାଲ": 4465,
      "ଘଣ୍ଟାରେ": 4466,
      "ଜୁନ": 4467,
      "##ମ୍ପି": 4468,
      "୫୨": 4469,
      "25": 4470,
      "ଦୃଷ୍ଟିରୁ": 4471,
      "ଶରୀରରେ": 4472,
      "ମନ୍ତ୍ରାଳୟ": 4473,
      "ମଞ୍ଚ": 4474,
      "ଧାରଣ": 4475,
      "ଅନ୍ୟମାନଙ୍କ": 4476,
      "ଜର୍": 4477,
      "ସନ୍ତାନ": 4478,
      "ଲକ": 4479,
      "କର୍କ": 4480,
      "ଅସ୍ଥ": 4481,
      "ଅନୁସନ୍ଧାନ": 4482,
      "ପ୍ରଶାସ": 4483,
      "ପଞ୍ଚାୟତର": 4484,
      "ନିର୍ବାଚିତ": 4485,
      "##ଧାସ": 4486,
      "##ଚରା": 4487,
      "ଶିବିର": 4488,
      "##ନ୍ତବ୍ୟ": 4489,
      "ଦଳୀୟ": 4490,
      "ରାୟଗଡ଼ା": 4491,
      "ଆସିଛନ୍ତି": 4492,
      "ଲଗାତ": 4493,
      "ପିଟି": 4494,
      "ନଂ": 4495,
      "##ଭାର": 4496,
      "ମ୍ୟାନ": 4497,
      "ଭୟଙ୍କର": 4498,
      "ଆଡ଼": 4499,
      "##ିତ୍ତ": 4500,
      "କର୍ମଚାରୀଙ୍କୁ": 4501,
      "Elect": 4502,
      "ବଜାୟ": 4503,
      "ଲିଖିତ": 4504,
      "##ପାଖ": 4505,
      "##ମୂ": 4506,
      "ବଲାଙ୍ଗିର": 4507,
      "ଅର୍ପଣ": 4508,
      "##ପ୍ତି": 4509,
      "ମିନି": 4510,
      "##ସାରେ": 4511,
      "##ୱେ": 4512,
      "ପୁନଃ": 4513,
      "୧୯୮": 4514,
      "ମାନ୍ୟତା": 4515,
      "##୍ୟସ୍ତ": 4516,
      "ସେତିକି": 4517,
      "##ଷ୍ପ": 4518,
      "with": 4519,
      "ସେଠାରୁ": 4520,
      "ଯୁବତ": 4521,
      "##ଗ୍ରାହ": 4522,
      "##ଶାଳ": 4523,
      "ଅଳ": 4524,
      "ପଏଣ୍ଟ": 4525,
      "##ସ୍ଥାର": 4526,
      "##ପାଇଁ": 4527,
      "।\"": 4528,
      "ନୃତ୍ୟ": 4529,
      "ନୋଟି": 4530,
      "##ତ୍ମ": 4531,
      "ପରାସ୍ତ": 4532,
      "##dit": 4533,
      "ହୋଇନାହିଁ": 4534,
      "16": 4535,
      "ପ୍ରସିଦ୍ଧ": 4536,
      "ସୂତ୍ରରୁ": 4537,
      "ଗୋପ": 4538,
      "ବ୍ୟକ୍ତିଙ୍କୁ": 4539,
      "##ମିତା": 4540,
      "ଜାଣିବାକୁ": 4541,
      "ବିକ୍ଷ": 4542,
      "ପାରିବାର": 4543,
      "ଶତ୍ର": 4544,
      "ବର୍ଣ୍ଣନା": 4545,
      "ପଡ଼ିଛି": 4546,
      "ବୁଲି": 4547,
      "କ୍ଷୀର": 4548,
      "##ଟ୍ସ": 4549,
      "ଓଡିଶାର": 4550,
      "Posts": 4551,
      "##ନୀତିରେ": 4552,
      "##ill": 4553,
      "ବାଣ": 4554,
      "##ହୃତ": 4555,
      "ଉତ୍କଳ": 4556,
      "ମୃତକଙ୍କ": 4557,
      "##ଗ୍ରସ୍ତ": 4558,
      "ଓଜନ": 4559,
      "ସମ୍ମାନିତ": 4560,
      "##ରିଂ": 4561,
      "ମାର୍ଗ": 4562,
      "##ସାବ": 4563,
      "ଅଂଚଳରେ": 4564,
      "ଅମିତ": 4565,
      "ନିର୍ମିତ": 4566,
      "##ିପାରିବେ": 4567,
      "ଜଣାଯାଇଛି": 4568,
      "##ଗୁଆ": 4569,
      "ପିପ": 4570,
      "ସୁଧାର": 4571,
      "ପଚରାଉ": 4572,
      "୫୦୦": 4573,
      "us": 4574,
      "ଅର": 4575,
      "୪୬": 4576,
      "ଭିଡ଼ିଓ": 4577,
      "ବଦଳରେ": 4578,
      "ଖ୍ରୀଷ୍ଟ": 4579,
      "ନିଯୁକ୍ତ": 4580,
      "##ଥିବାବେଳେ": 4581,
      "##ାର୍ସ": 4582,
      "ବେଆଇନ": 4583,
      "ଭୋଟର": 4584,
      "ଦାମ": 4585,
      "##ଲ୍ଲୀ": 4586,
      "ଦୁର୍ବ": 4587,
      "##ୀନ୍": 4588,
      "##ଗ୍ନ": 4589,
      "ମହିଳାମାନେ": 4590,
      "କର୍ଣ୍ଣା": 4591,
      "ତାରିଖରୁ": 4592,
      "##କାରୀଙ୍କ": 4593,
      "##ଯାଇଥାଏ": 4594,
      "ଶ୍ରଦ୍ଧା": 4595,
      "ସଭା": 4596,
      "ଚେତାବ": 4597,
      "ବିପର୍ଯ୍ୟ": 4598,
      "ଟ୍ରେନ": 4599,
      "##ଷ୍କାର": 4600,
      "##ଣ୍ଟା": 4601,
      "##ଶନ": 4602,
      "##ାଣୁ": 4603,
      "ପାଠ୍ୟ": 4604,
      "ରାଉରକେଲା": 4605,
      "##ବାସୀଙ୍କ": 4606,
      "##ାୟାର": 4607,
      "ବାଟ": 4608,
      "ବ୍ଲକ୍": 4609,
      "##କ୍ଷୀ": 4610,
      "##ିତ୍": 4611,
      "ଟଙ୍କାରେ": 4612,
      "##ଶିକ୍ଷା": 4613,
      "ସଙ୍ଗେ": 4614,
      "##କାରାତ୍ମକ": 4615,
      "##ଖୁ": 4616,
      "ପାରିବାରିକ": 4617,
      "ନୋ": 4618,
      "ପାଖକୁ": 4619,
      "ପ୍ରଦୂ": 4620,
      "ପୁରା": 4621,
      "ମଲ": 4622,
      "ସଞ୍ଜୟ": 4623,
      "୪୭": 4624,
      "ପ୍ରମୋ": 4625,
      "ପଦବୀ": 4626,
      "ଚାନ୍ଦ": 4627,
      "ବିକଶିତ": 4628,
      "ଅଧ୍ୟକ୍ଷତାରେ": 4629,
      "ମଣ୍ଡଳ": 4630,
      "##ୃତ୍ତି": 4631,
      "##ଶହ": 4632,
      "##aj": 4633,
      "##ନଥିଲେ": 4634,
      "ପରାଜ": 4635,
      "ଧକ୍କା": 4636,
      "ଯେତେ": 4637,
      "##କାଣ୍ଡ": 4638,
      "##େବି": 4639,
      "##ଧ୍ୟାନ": 4640,
      "ସମାଲ": 4641,
      "ଯଥେଷ୍ଟ": 4642,
      "ଦିନିକିଆ": 4643,
      "ଉପକରଣ": 4644,
      "##ଦେବା": 4645,
      "ଛାଡ": 4646,
      "ସିଧାସ": 4647,
      "##act": 4648,
      "##ଡ଼ାଇ": 4649,
      "##ort": 4650,
      "##wit": 4651,
      "ବାରି": 4652,
      "ବାଚ": 4653,
      "ପ୍ରଶାସନିକ": 4654,
      "ଲଘୁଚାପ": 4655,
      "ଦ୍ୱାର": 4656,
      "##୍ରାଞ୍ଚ": 4657,
      "##ବସ୍ତ": 4658,
      "##AR": 4659,
      "##ିବୁ": 4660,
      "ଉଦ୍ୟୋଗ": 4661,
      "ତାଲିକାରେ": 4662,
      "ସପ୍ତାହରେ": 4663,
      "17": 4664,
      "ସନ୍ଧ୍ୟାରେ": 4665,
      "ଟେକ୍ନ": 4666,
      "##ବିଧାନ": 4667,
      "##ୁଲାନ୍ସ": 4668,
      "୬୫": 4669,
      "27": 4670,
      "ଆଞ୍ଚଳ": 4671,
      "##ହନ୍ତୁ": 4672,
      "ସାଉ": 4673,
      "ଜେନେ": 4674,
      "14": 4675,
      "##ଲର": 4676,
      "ଚେତାବନୀ": 4677,
      "ହାଇଦ୍ରାବାଦ": 4678,
      "##ମୁନା": 4679,
      "Elections": 4680,
      "ତୁମେ": 4681,
      "ବିଦେଶୀ": 4682,
      "##ବାଣୀ": 4683,
      "ଥାଇ": 4684,
      "##୍ୟାଙ୍ଗ": 4685,
      "କଟ": 4686,
      "##ତାରିଖ": 4687,
      "ଆହ୍ୱାନ": 4688,
      "ହୃଦୟ": 4689,
      "ତାମିଲନା": 4690,
      "##ସେବା": 4691,
      "ନିକଟସ୍ଥ": 4692,
      "କରିପାରେ": 4693,
      "ଅର୍ଥାତ": 4694,
      "##ାଗଲା": 4695,
      "ନିବେ": 4696,
      "##େଶ୍ଵର": 4697,
      "##କୌଣସି": 4698,
      "ଯନ୍ତ୍ରଣା": 4699,
      "appeared": 4700,
      "ଆଞ୍ଚଳିକ": 4701,
      "ଲଗା": 4702,
      "କାମରେ": 4703,
      "13": 4704,
      "as": 4705,
      "କରୋନାରେ": 4706,
      "ବଲିଉଡ": 4707,
      "ଦୁଇଜଣ": 4708,
      "ଗଞ୍ଜେଇ": 4709,
      "ପାଣିଗ୍ରାହ": 4710,
      "ବିଶ୍ୱରେ": 4711,
      "##ଚେ": 4712,
      "##ress": 4713,
      "ଉତ୍ସବରେ": 4714,
      "ବିଳମ୍ବିତ": 4715,
      "##rom": 4716,
      "##witter": 4717,
      "ତହସିଲଦାର": 4718,
      "ଟାଇ": 4719,
      "ଦେଖିଲେ": 4720,
      "##ଦୁ": 4721,
      "##ଶିଷ": 4722,
      "ସୂଚ": 4723,
      "ଚାଉଳ": 4724,
      "ଇନି": 4725,
      "ଲୋକମାନଙ୍କୁ": 4726,
      "##ାଞ୍ଚ": 4727,
      "ସେଇ": 4728,
      "ପାଣିରେ": 4729,
      "ପବନ": 4730,
      "ସରି": 4731,
      "୨୦୧୪": 4732,
      "ସର୍ବଦା": 4733,
      "ଏସି": 4734,
      "ସିଧାସଳଖ": 4735,
      "ଭାଷାରେ": 4736,
      "ଅନୁଧ୍ୟାନ": 4737,
      "ପାଇଥିଲା": 4738,
      "##ପୁରରେ": 4739,
      "ବ୍ୟସ୍ତ": 4740,
      "ଅଦାଲ": 4741,
      "##NA": 4742,
      "##ଳ୍ପନା": 4743,
      "##ମ୍ପରା": 4744,
      "ପ୍ରଭାବରେ": 4745,
      "କର୍ଣ୍ଣାଟକ": 4746,
      "ଆକ୍ଟ": 4747,
      "##ୀକା": 4748,
      "ସାଥୀ": 4749,
      "ଚାର": 4750,
      "##ଖା": 4751,
      "ପୁଣିଥରେ": 4752,
      "ବିଦ୍ୟା": 4753,
      "ବେଲ": 4754,
      "##ଗୁଡ଼ିକରେ": 4755,
      "ଅକ୍ସି": 4756,
      "ସଚେତନତା": 4757,
      "ପିଇବା": 4758,
      "##ାଗି": 4759,
      "ଯେକୌଣସି": 4760,
      "ଜୀବନର": 4761,
      "##ିକର": 4762,
      "ସୁଧ": 4763,
      "ଭୁବନେଶ୍ୱରରେ": 4764,
      "କର୍କଟ": 4765,
      "୪୯": 4766,
      "22": 4767,
      "29": 4768,
      "ରାଶ": 4769,
      "ତାଲିବାନ": 4770,
      "ଧୂ": 4771,
      "ସ୍ଥାନକୁ": 4772,
      "ଏଥିସହିତ": 4773,
      "##ାରକ": 4774,
      "##ଳୟ": 4775,
      "ଅଗ୍ନିଶମ": 4776,
      "ଯତ୍ନ": 4777,
      "Con": 4778,
      "##ଗ୍ରାମ୍": 4779,
      "ପରୀକ୍ଷଣ": 4780,
      "ବିରୁଦ୍ଧରେ": 4781,
      "କ୍ୟାମ୍ପ": 4782,
      "ସ୍ମୃତି": 4783,
      "##ୋଲୋଜି": 4784,
      "ଚୂ": 4785,
      "ସ୍ଥଳରେ": 4786,
      "ଅଲିମ୍ପ": 4787,
      "ଦିଆଯାଉଛି": 4788,
      "ଜାମିନ": 4789,
      "ଦେଇଥାଏ": 4790,
      "ନିଖୋଜ": 4791,
      "ତୈଳ": 4792,
      "କାଗଜ": 4793,
      "ଚୀନ୍": 4794,
      "ହିସାବ": 4795,
      "ପଥ": 4796,
      "ପରିଚିତ": 4797,
      "ମନୋଜ": 4798,
      "ପଚାର": 4799,
      "ବୁଦ୍ଧି": 4800,
      "ଓଡିଆ": 4801,
      "ବିକ୍ଷୋଭ": 4802,
      "this": 4803,
      "ଖାନ୍": 4804,
      "ଭୂମିକ": 4805,
      "ପ୍ରତିରକ୍ଷା": 4806,
      "ନିଶ୍ଚ": 4807,
      "ପରମ୍ପରା": 4808,
      "ପ୍ଲାଟ": 4809,
      "ଚକ୍ର": 4810,
      "##ଠାକୁ": 4811,
      "ଇତ୍ୟାଦି": 4812,
      "ଆପ୍": 4813,
      "ଯେମିତି": 4814,
      "ମାତ୍ରାରେ": 4815,
      "##ପଦା": 4816,
      "##ଆଁ": 4817,
      "ଝାରସୁଗୁଡ଼ା": 4818,
      "ସ୍ୱାଧୀନତା": 4819,
      "ହିଂସା": 4820,
      "କର୍ପ": 4821,
      "##ଞ୍ଜଳି": 4822,
      "##bout": 4823,
      "ସଫା": 4824,
      "ତ୍ରିପା": 4825,
      "କଡା": 4826,
      "ସମ୍ବାଦ": 4827,
      "ଓକିଲ": 4828,
      "ପ୍ରସାର": 4829,
      "##ଥାନ୍ତ": 4830,
      "ବାଚସ୍ପତି": 4831,
      "##ଣ୍ଠି": 4832,
      "ଆଘାତ": 4833,
      "ଆଦିତ୍ୟ": 4834,
      "##ip": 4835,
      "ଜଣାଇଥିଲେ": 4836,
      "##ାଦନ": 4837,
      "ପ୍ରଦର୍ଶ": 4838,
      "##ାମତ": 4839,
      "##ମାନା": 4840,
      "Pre": 4841,
      "##ବୀର": 4842,
      "##ଥାଉ": 4843,
      "##ober": 4844,
      "ଆମ୍ବୁଲାନ୍ସ": 4845,
      "ଅଧିକାରୀଙ୍କୁ": 4846,
      "##ହାତି": 4847,
      "##ଫର": 4848,
      "##ମୁଖ୍ୟ": 4849,
      "ଅନ୍ଧ": 4850,
      "କାଟି": 4851,
      "ଅଂଶଗ୍ରହଣ": 4852,
      "ଭାଙ୍ଗ": 4853,
      "ଡୋଜ୍": 4854,
      "##ant": 4855,
      "କ୍ୟାରି": 4856,
      "ସ୍ୱଚ୍ଛ": 4857,
      "ଶପଥ": 4858,
      "ଶତ୍ରୁ": 4859,
      "##କ୍ତା": 4860,
      "##ିତ୍ରୀ": 4861,
      "ଆସିଲେ": 4862,
      "##ଡ଼କ": 4863,
      "ବିଦ୍ୟୁତ୍": 4864,
      "##ୀତା": 4865,
      "ଆଠ": 4866,
      "ଋତୁ": 4867,
      "ହେଉଥିଲା": 4868,
      "ଆଇଆଇ": 4869,
      "ନେବେ": 4870,
      "ପାଇଥିବା": 4871,
      "ଫିଲ୍ମରେ": 4872,
      "କଶ୍ମୀର": 4873,
      "ନ୍ୟୁଜ୍": 4874,
      "ସମ୍ଭାବ୍ୟ": 4875,
      "##ଷ୍ଣୁ": 4876,
      "ବିପକ୍ଷରେ": 4877,
      "##ସନର": 4878,
      "##କ୍ଷକ": 4879,
      "ଲିଟର": 4880,
      "##ାପୁର": 4881,
      "##୍କା": 4882,
      "ପହଞ୍ଚିବା": 4883,
      "##ଗଲ": 4884,
      "##end": 4885,
      "##ଫୁଲ": 4886,
      "ଏହାଦ୍ୱାରା": 4887,
      "କ୍ରମେ": 4888,
      "ପ୍ରଭୁ": 4889,
      "##ୋଗ୍ୟ": 4890,
      "ପାଠପ": 4891,
      "ଉଦ୍ଦେଶ୍ୟରେ": 4892,
      "ମନ୍ତବ୍ୟ": 4893,
      "October": 4894,
      "ଟେଲିଗ୍ରାମ୍": 4895,
      "ଆଦର୍ଶ": 4896,
      "Home": 4897,
      "ନଥିବାରୁ": 4898,
      "Ar": 4899,
      "୫୩": 4900,
      "ୱିକେଟ୍": 4901,
      "ଗାଇଡ": 4902,
      "ଥଣ୍ଡା": 4903,
      "ଶାସକ": 4904,
      "ରୋଷ": 4905,
      "କ୍ରିକେଟ୍": 4906,
      "ଯେଉଁଠାରେ": 4907,
      "##ଡାଉନ୍": 4908,
      "ସହଯୋଗୀ": 4909,
      "ଗତବର୍ଷ": 4910,
      "##କ୍ଷେତ୍ରରେ": 4911,
      "ଯୌ": 4912,
      "##ୋଳ": 4913,
      "##ାବେଳେ": 4914,
      "##କୃଷ୍ଣ": 4915,
      "ପରିମାଣର": 4916,
      "##ରାଷ୍ଟ୍ର": 4917,
      "##age": 4918,
      "ଷ୍ଟେସନ": 4919,
      "##ନ୍ଧନ": 4920,
      "ଟ୍ରେନ୍": 4921,
      "କହିବାକୁ": 4922,
      "##ରଙ୍ଗ": 4923,
      "##ପୂ": 4924,
      "ମଧ୍ୟପ୍ରଦେଶ": 4925,
      "ଆଫ୍ରିକା": 4926,
      "ମେଟ": 4927,
      "ନିଅନ୍ତୁ": 4928,
      "କରିବାରୁ": 4929,
      "ଦିନର": 4930,
      "ଗୋପାଳ": 4931,
      "##ୋନି": 4932,
      "##ୀତି": 4933,
      "ପ୍ରତିଯୋଗିତ": 4934,
      "ହଜାରରୁ": 4935,
      "##ଏନ୍": 4936,
      "ଦର୍": 4937,
      "ସେଣ୍ଟ": 4938,
      "##ଆରୀ": 4939,
      "Comment": 4940,
      "##ଶଙ୍କର": 4941,
      "##ୋଧିତ": 4942,
      "ଗୁପ୍ତ": 4943,
      "ଆଳ": 4944,
      "ତାଲିମ": 4945,
      "ଆୟୁ": 4946,
      "##େଜନା": 4947,
      "ଦୁର୍ଘଟଣାରେ": 4948,
      "ଲୋକମାନଙ୍କ": 4949,
      "ଟ୍ୱିଟ": 4950,
      "କ୍ରୀଡ଼ା": 4951,
      "2018": 4952,
      "ମ୍ୟାଚ୍ରେ": 4953,
      "ପାସ": 4954,
      "##ତ୍ତ୍ୱେ": 4955,
      "ଉପସ୍ଥାପନ": 4956,
      "##କୋଟି": 4957,
      "ରାଶିଫଳ": 4958,
      "##ebs": 4959,
      "ନଗ": 4960,
      "୦୦୦": 4961,
      "ପୂର୍ବା": 4962,
      "ଜାପ": 4963,
      "##ସାରିଛି": 4964,
      "##ଭାଗ୍ୟ": 4965,
      "ଛାତ୍ରଛାତ୍ରୀଙ୍କ": 4966,
      "ପ୍ରତ୍ୟାହାର": 4967,
      "##ous": 4968,
      "##ର୍ବ": 4969,
      "##ମାତ୍ର": 4970,
      "ଅତ୍ୟା": 4971,
      "କମିଶନ": 4972,
      "ଟୀକା": 4973,
      "##em": 4974,
      "ବାଘ": 4975,
      "ଜୀ": 4976,
      "ସନ୍ତୁ": 4977,
      "ମୁକ୍ତି": 4978,
      "ବିନ": 4979,
      "ଅବହ": 4980,
      "ନିଗମ": 4981,
      "##ାନନ୍ଦ": 4982,
      "କ୍ରାଇମ": 4983,
      "ଆୟୋଗ": 4984,
      "##ଶୁର": 4985,
      "\"\"": 4986,
      "ଭୋଜ": 4987,
      "##ebsite": 4988,
      "ପିନ୍ଧି": 4989,
      "ପଡିଛି": 4990,
      "ଜମ୍ମୁ": 4991,
      "##ଧ୍ୟା": 4992,
      "##ଦୀପ": 4993,
      "ପ୍ରତିବାଦ": 4994,
      "ଆସିଲା": 4995,
      "ଆଧାରିତ": 4996,
      "ସୁନି": 4997,
      "ନିବେଦନ": 4998,
      "ଆଗୁଆ": 4999,
      "କୋଇ": 5000,
      "ପାଲଟିଛି": 5001,
      "ସଂଖ୍ୟାରେ": 5002,
      "ଓଭରରେ": 5003,
      "ବର୍ତ": 5004,
      "##ାମୁ": 5005,
      "##ାଦଶ": 5006,
      "##ଶ୍ୱାସ": 5007,
      "ଅଦାଲତ": 5008,
      "##ାଇଟ୍": 5009,
      "ମସ": 5010,
      "##ୂର୍ଣ୍ଣ": 5011,
      "##...": 5012,
      "୫୧": 5013,
      "କୂ": 5014,
      "##ଙ୍କାର": 5015,
      "Prev": 5016,
      "ସେଠୀ": 5017,
      "ଭିତ୍ତ": 5018,
      "ମହାନଗର": 5019,
      "ମତାମତ": 5020,
      "ସଂକ୍ରାନ୍ତ": 5021,
      "ବିବେ": 5022,
      "Ind": 5023,
      "ମେହେ": 5024,
      "ବିସ୍ଫୋରଣ": 5025,
      "ଡକ": 5026,
      "ହାଉ": 5027,
      "ଯେଉଁଠି": 5028,
      "ତମ": 5029,
      "ପ୍ରାଣୀ": 5030,
      "ଟାର୍ଗେଟ": 5031,
      "ଓଭର": 5032,
      "୨୦୧୬": 5033,
      "21": 5034,
      "##ଟ୍ର": 5035,
      "ପୋର୍ଟ": 5036,
      "ଗାନ୍ଧି": 5037,
      "##ିଲ୍ଲୀର": 5038,
      "##uary": 5039,
      "ଏସପି": 5040,
      "ଗୋବିନ୍ଦ": 5041,
      "ଛୁଆ": 5042,
      "କରିପାରି": 5043,
      "ଚଢ଼ାଉ": 5044,
      "ଶେ": 5045,
      "ଟ୍ରକ": 5046,
      "ଅଚ": 5047,
      "ସଂସଦ": 5048,
      "ସର୍ଭେ": 5049,
      "ଉପୁ": 5050,
      "##ାସା": 5051,
      "##ଳକୁ": 5052,
      "##ର୍ଭ": 5053,
      "##ଡ଼େ": 5054,
      "ଯାଇଛନ୍ତି": 5055,
      "ପଦ୍ଧ": 5056,
      "ଲୋକସଭା": 5057,
      "Ch": 5058,
      "କେସ୍": 5059,
      "ସୁରେଶ": 5060,
      "ମାନସ": 5061,
      "ଅଭିବ": 5062,
      "##ଦ୍ଧାରିତ": 5063,
      "ଉପା": 5064,
      "ଆଇସି": 5065,
      "ଡାଇ": 5066,
      "ଧାର୍": 5067,
      "ଆରୋଗ୍ୟ": 5068,
      "ଶକ୍ତିଶାଳୀ": 5069,
      "ଏହିପରି": 5070,
      "ତଳକୁ": 5071,
      "##େଖର": 5072,
      "ପ୍ରଧାନମନ୍ତ୍ରୀଙ୍କ": 5073,
      "##ଆର୍": 5074,
      "ଅତିକ୍ରମ": 5075,
      "##ଡାଉନ": 5076,
      "କାହାର": 5077,
      "##ଗ୍ଧ": 5078,
      "ଲିଙ୍କ": 5079,
      "##ଜୟ": 5080,
      "ଗତିରେ": 5081,
      "୫୪": 5082,
      "କାର୍ଯ୍ୟକଳ": 5083,
      "##ନ୍ଧକ": 5084,
      "##hed": 5085,
      "ବିଦ୍ୟ": 5086,
      "ନିର୍ଦ୍ଧ": 5087,
      "ସିକ": 5088,
      "କଳି": 5089,
      "ଧାର୍ଯ୍ୟ": 5090,
      "ଦୁର୍ବୃତ୍ତ": 5091,
      "ବାନ୍ଧି": 5092,
      "ସୋନପୁର": 5093,
      "##ଅଛି": 5094,
      "ଶୁଭେଚ୍ଛା": 5095,
      "ଗୌର": 5096,
      "କିଣି": 5097,
      "ୱିକେଟ": 5098,
      "28": 5099,
      "ସଜ": 5100,
      "##ind": 5101,
      "##ାଲା": 5102,
      "##ଫଳରେ": 5103,
      "ଜୟପୁର": 5104,
      "ପ୍ରଦୂଷଣ": 5105,
      ":-": 5106,
      "ଇଲେକ୍ଟ": 5107,
      "ବ୍ୟବହୃତ": 5108,
      "ବର୍ତମାନ": 5109,
      "##uss": 5110,
      "ଜଡିତ": 5111,
      "ଫେବୃଆରୀ": 5112,
      "##ାଳୁ": 5113,
      "##ଶୁଣା": 5114,
      "##ାବାର": 5115,
      "୬୨": 5116,
      "ଗସ୍ତରେ": 5117,
      "##ଳରୁ": 5118,
      "By": 5119,
      "ଶତାବ": 5120,
      "ବିଭାଗରେ": 5121,
      "ନକଲି": 5122,
      "08": 5123,
      "##ity": 5124,
      "ସୁନିଶ୍ଚିତ": 5125,
      "ପୁସ୍ତକ": 5126,
      "ପ୍ରକାଶିତ": 5127,
      "ରମେଶ": 5128,
      "କଠିନ": 5129,
      "##ସିପି": 5130,
      "ପୁତ୍ର": 5131,
      "##ମ୍ବନ": 5132,
      "##ନଥିବା": 5133,
      "ମୌସୁ": 5134,
      "ଧାର୍ମିକ": 5135,
      "##ାଗୁଡ଼ିକ": 5136,
      "ଏଣ": 5137,
      "ଉର୍ଦ୍ଧ": 5138,
      "ପ୍ରାଚ": 5139,
      "ବୀର": 5140,
      "##କ୍ଷର": 5141,
      "ସାର୍": 5142,
      "from": 5143,
      "ସତ୍ତ୍ୱେ": 5144,
      "ନମୁନା": 5145,
      "ନିକଟରୁ": 5146,
      "ମୁତ": 5147,
      "ଯୋଜନାର": 5148,
      "ମଝ": 5149,
      "##ତକ": 5150,
      "ଦାୟିତ୍ବ": 5151,
      "କାରଖ": 5152,
      "କୁକୁର": 5153,
      "ଛୁଟି": 5154,
      "##ଣୀର": 5155,
      "##BAR": 5156,
      "##ଣ୍ଣିଂ": 5157,
      "ସଶ": 5158,
      "ଟିକସ": 5159,
      "ଉତ୍ତରା": 5160,
      "ଅଜୟ": 5161,
      "ଅରୁଣ": 5162,
      "KHA": 5163,
      "ରେଡ୍": 5164,
      "ବ୍ରେ": 5165,
      "##ୋଦନ": 5166,
      "ଭୀ": 5167,
      "##bad": 5168,
      "ONA": 5169,
      "KHABAR": 5170,
      "##ାଲରେ": 5171,
      "ମାଡ": 5172,
      "ଗଣେଶ": 5173,
      "ଶୋଭା": 5174,
      "ବାମ": 5175,
      "##ସିବି": 5176,
      "ସିସି": 5177,
      "ଏକର": 5178,
      "##pl": 5179,
      "ପିଲାମାନେ": 5180,
      "ଟ୍ରାଫ": 5181,
      "ପାଇଛନ୍ତି": 5182,
      "##ାବଳୀ": 5183,
      "##ଧାନରେ": 5184,
      "07": 5185,
      "##ଧନ": 5186,
      "##ିକରଣ": 5187,
      "ପଚରାଉଚରା": 5188,
      "ବ୍ରିଟେ": 5189,
      "04": 5190,
      "ଅନୁକୂଳ": 5191,
      "ନେଟ": 5192,
      "##ାମରେ": 5193,
      "ସଂପାଦକ": 5194,
      "##ବାଇ": 5195,
      "କ୍ରି": 5196,
      "କାର୍ଯ୍ୟକୁ": 5197,
      "ମରାମ": 5198,
      "ଦେବଗଡ଼": 5199,
      "ଚାହୁଁଛନ୍ତି": 5200,
      "ଉତ୍ତେଜନା": 5201,
      "ଆସୁଛନ୍ତି": 5202,
      "##ରଣା": 5203,
      "ଆଧୁନିକ": 5204,
      "ଚାଇ": 5205,
      "ଧଳା": 5206,
      "##ନିଷ୍ଠ": 5207,
      "09": 5208,
      "en": 5209,
      "ଦରମା": 5210,
      "ଶତକ": 5211,
      "ପ୍ଲା": 5212,
      "ଦେଶକୁ": 5213,
      "ହେଁ": 5214,
      "ନିର୍ଦ୍ଧାରିତ": 5215,
      "ରଙ୍ଗର": 5216,
      "ଲହ": 5217,
      "ଉପର": 5218,
      "ପଟ୍ଟନାୟକଙ୍କ": 5219,
      "ଟ୍ବ": 5220,
      "ଧରଣର": 5221,
      "ଦେଉଛି": 5222,
      "##ବରଦ": 5223,
      "ଓପ": 5224,
      "ସାମଲ": 5225,
      "୧୯୭": 5226,
      "କାର୍ଯ୍ୟାଳୟରେ": 5227,
      "ଗୋଟେ": 5228,
      "##ନାମା": 5229,
      "କୋଣ": 5230,
      "##ୋଶୀ": 5231,
      "ପୂର୍ବବର୍ତ୍ତୀ": 5232,
      "ଚିକିତ୍ସିତ": 5233,
      "ସିନେମା": 5234,
      "ବିପକ୍ଷ": 5235,
      "ମ୍ୟୁ": 5236,
      "06": 5237,
      "##ାବେ": 5238,
      "ଅନା": 5239,
      "ପୋଷାକ": 5240,
      "ଗି": 5241,
      "ସମ୍ପର୍କୀୟ": 5242,
      "ଶାଖ": 5243,
      "ସଞ୍ଚ": 5244,
      "##ପଟ": 5245,
      "ସ୍ଥାୟୀ": 5246,
      "ଯେପରିକି": 5247,
      "ସେଣ୍ଟର": 5248,
      "ଶତା": 5249,
      "ବୋଲିଂ": 5250,
      "ଅପହ": 5251,
      "##ାଇବାରେ": 5252,
      "ଧା": 5253,
      "email": 5254,
      "ଯନ୍ତ୍ରୀ": 5255,
      "ସାଗ": 5256,
      "ଶୁଭାରମ୍ଭ": 5257,
      "ବୟସରେ": 5258,
      "ଚୁକ୍ତି": 5259,
      "ବାଧ": 5260,
      "##କେଟ": 5261,
      "##ପଦ": 5262,
      "ପଟେଲ": 5263,
      "୫୬": 5264,
      "ମନ୍ଦିରରେ": 5265,
      "##ପ୍ରତି": 5266,
      "##ମକୁ": 5267,
      "##ାରେଣ୍ଟ": 5268,
      "##ial": 5269,
      "##କିର": 5270,
      "ସ୍କୋର": 5271,
      "##ୃଦ୍ଧ": 5272,
      "##କର୍ମୀ": 5273,
      "ଖୋଲିବା": 5274,
      "ସଂଶୋଧନ": 5275,
      "ଡିଜିଟାଲ": 5276,
      "ନିରଞ୍ଜନ": 5277,
      "ଅଧ୍ୟୟନ": 5278,
      "କପୁର": 5279,
      "ବିଶ୍ୱାଳ": 5280,
      "##ବାୟୁ": 5281,
      "23": 5282,
      "##ଯାଇଛନ୍ତି": 5283,
      "ଅଣା": 5284,
      "ଅନୁମୋଦନ": 5285,
      "ଜିଲାରେ": 5286,
      "ଅର୍ଗସ": 5287,
      "ରୟ": 5288,
      "ବାଇକ": 5289,
      "ଛତିଶଗଡ଼": 5290,
      "ମରାମତି": 5291,
      "କମ୍ପ୍ୟୁ": 5292,
      "ରୂପରେ": 5293,
      "ପ୍ରୋତ୍ସାହ": 5294,
      "ଟୋକ": 5295,
      "##ଖଲ": 5296,
      "##ନ୍ଦ୍ୱ": 5297,
      "ରୋଗରେ": 5298,
      "ସମୟର": 5299,
      "##ଢ଼ା": 5300,
      "ବୁଝାମ": 5301,
      "ପାକିସ୍ତାନର": 5302,
      "ପରମ": 5303,
      "ନୂଆପଡ଼ା": 5304,
      "କିମି": 5305,
      "ସଠିକ": 5306,
      "200": 5307,
      "##ପାନ": 5308,
      "Aug": 5309,
      "ବାଇକ୍": 5310,
      "ଭାଜ": 5311,
      "ସୀମିତ": 5312,
      "ଡ୍ରେ": 5313,
      "##ବ୍ୟବ": 5314,
      "ସୁବର୍ଣ୍ଣ": 5315,
      "ଅଭିଜ୍ଞ": 5316,
      "ମଧ୍ୟା": 5317,
      "##୍ୟାନ୍ସ": 5318,
      "##୍ରମଣ": 5319,
      "ୱାର୍": 5320,
      "##ନାରୁ": 5321,
      "ଲକ୍": 5322,
      "##ଗୁଡା": 5323,
      "ଚରଣ": 5324,
      "##ubl": 5325,
      "ଜମିରେ": 5326,
      "##କେନ୍ଦ୍ର": 5327,
      "you": 5328,
      "ସଂଯୋଜ": 5329,
      "ସ୍ୱୟ": 5330,
      "ସିଷ୍ଟ": 5331,
      "ସାଜି": 5332,
      "ବୈଷ": 5333,
      "ସାବ୍ୟସ୍ତ": 5334,
      "##ର୍ଚ": 5335,
      "your": 5336,
      "##ପୋ": 5337,
      "ମମିତା": 5338,
      "କହୁଛନ୍ତି": 5339,
      "##ନିମ୍ନ": 5340,
      "ଚରିତ୍ର": 5341,
      "୫୭": 5342,
      "ମଡେଲ": 5343,
      "ଆଭ": 5344,
      "ଦୂରତା": 5345,
      "ଜରି": 5346,
      "##ପୋର୍ଟ": 5347,
      "ନିରାପ": 5348,
      "ପାଗ": 5349,
      "ଲହର": 5350,
      "ଯାତ": 5351,
      "ଉତ୍ସାହ": 5352,
      "୮୫": 5353,
      "##ld": 5354,
      "##ଡ଼ିବା": 5355,
      "or": 5356,
      "୭୨": 5357,
      "##ଦାତା": 5358,
      "ରହସ୍ୟ": 5359,
      "ମୁତୟନ": 5360,
      "##ପାଲି": 5361,
      "##ତିହାସିକ": 5362,
      "ହାଜର": 5363,
      "ପନ": 5364,
      "ଆଦେଶ": 5365,
      "##ସୂ": 5366,
      "ସର୍ବନିମ୍ନ": 5367,
      "ପରିସର": 5368,
      "##େଷଣ": 5369,
      "ଉଭୟଙ୍କ": 5370,
      "ଫେରିବା": 5371,
      "##ଶ୍ବ": 5372,
      "ଶିକ୍ଷୟ": 5373,
      "ଫିଲ୍ମର": 5374,
      "##ିପୁର": 5375,
      "ମିଶନ": 5376,
      "ଚାଲିବ": 5377,
      "##ଲ୍ୟା": 5378,
      "ବିଜେଡିର": 5379,
      "ନାଏ": 5380,
      "ମିନିଟ୍": 5381,
      "ଖାଇବାକୁ": 5382,
      "ପରିବାରରେ": 5383,
      "ଦାୟୀ": 5384,
      "ହଜ": 5385,
      "ପଦାର୍ଥ": 5386,
      "##ାକ୍ତ": 5387,
      "ସିରିଜ": 5388,
      "କର୍ମଚାରୀମାନେ": 5389,
      "conf": 5390,
      "ଯୁବକଙ୍କ": 5391,
      "ଘୁ": 5392,
      "କଥାବାର": 5393,
      "ଓଲ": 5394,
      "ଜଣାଶୁଣା": 5395,
      "ମୋବାଇଲ୍": 5396,
      "ଦୁର୍ଘଟଣ": 5397,
      "ଅଟୋ": 5398,
      "##ହାଣ": 5399,
      "ଅନୁପ": 5400,
      "ପାଣିଗ୍ରାହୀ": 5401,
      "କରୁଛୁ": 5402,
      "ଦିଲ୍ଲୀର": 5403,
      "ପିଲାଙ୍କୁ": 5404,
      "##ଦ୍ବ": 5405,
      "ଗଠିତ": 5406,
      "##ang": 5407,
      "କରୁଥିଲା": 5408,
      "ସମନ୍": 5409,
      "Russ": 5410,
      "ଅଥ": 5411,
      "ତୃ": 5412,
      "ଅବି": 5413,
      "ଘେ": 5414,
      "Next": 5415,
      "ପହଂଚି": 5416,
      "##ାନୁମାନ": 5417,
      "ବାତିଲ": 5418,
      "୫୮": 5419,
      "କଟା": 5420,
      "ଆଗେଇ": 5421,
      "ଆବାସ": 5422,
      "ସଠିକ୍": 5423,
      "ମଧ୍ୟାହ୍ନ": 5424,
      "##ାଉଣ୍ଡ": 5425,
      "ରିପୋର୍ଟରେ": 5426,
      "କାର୍ତ୍ତ": 5427,
      "Jun": 5428,
      "ଅନ୍ତି": 5429,
      "##ନକ": 5430,
      "ଚ୍ୟାଲେ": 5431,
      "ରୁହନ୍ତୁ": 5432,
      "ଐତିହାସିକ": 5433,
      "ପ୍ରଶିକ୍ଷଣ": 5434,
      "ଦିନେ": 5435,
      "କବି": 5436,
      "##ସ୍ତା": 5437,
      "ଧାମ": 5438,
      "ଶ୍ରଦ୍ଧ": 5439,
      "ଆସନରେ": 5440,
      "##ଶିଷ୍ଟ": 5441,
      "ବ୍ଲକରେ": 5442,
      "ଅନ୍ତର୍ଭୁକ୍ତ": 5443,
      "##erv": 5444,
      "ସଭାରେ": 5445,
      "ବିଜୁଳି": 5446,
      "03": 5447,
      "ସେଥିରୁ": 5448,
      "##ure": 5449,
      "କର୍ପୋରେ": 5450,
      "ପ୍ରିୟଙ୍କା": 5451,
      "ପଣ୍ଡ": 5452,
      "ସଂସ୍କାର": 5453,
      "ପୋଖରୀ": 5454,
      "05": 5455,
      "ମଧ୍ୟମ": 5456,
      "ପୂର୍ବାନୁମାନ": 5457,
      "ex": 5458,
      "ବିଦ୍ୟାଳୟର": 5459,
      "ଭିତ୍ତିଭୂମି": 5460,
      "ବେଙ୍ଗ": 5461,
      "କିଛିଦିନ": 5462,
      "ପଡ଼ିଥିଲା": 5463,
      "ସରଳ": 5464,
      "ବିଷ୍ଣୁ": 5465,
      "ବାସିନ୍ଦା": 5466,
      "୬୪": 5467,
      "ପ୍ରୋତ୍ସାହନ": 5468,
      "ସମାଲୋଚନା": 5469,
      "##ଡିପି": 5470,
      "ତ୍ରିପାଠୀ": 5471,
      "ରଜ": 5472,
      "ବନ୍ଧୁକ": 5473,
      "##qu": 5474,
      "ଏକମାତ୍ର": 5475,
      "##ତାମୂଳକ": 5476,
      "##ବର୍ଗ": 5477,
      "ବିଜ୍ଞପ୍ତି": 5478,
      "ମାନଙ୍କର": 5479,
      "ମୌସୁମୀ": 5480,
      "ସର୍ବୋଚ୍ଚ": 5481,
      "##ମୂଳକ": 5482,
      "ସିଲ": 5483,
      "କାର୍ଯ୍ୟକଳାପ": 5484,
      "ଅନ୍ତିମ": 5485,
      "ନିଷ୍କ": 5486,
      "ଜୋରଦାର": 5487,
      "ବାଂ": 5488,
      "ମୟୁର": 5489,
      "ଆଲୋ": 5490,
      "ମତ୍ସ": 5491,
      "##ିବାସ": 5492,
      "ବଣ୍ଟନ": 5493,
      "ଭୁଲି": 5494,
      "ଜେନେର": 5495,
      "Russia": 5496,
      "ଠକେଇ": 5497,
      "ଷଡ଼": 5498,
      "୬ଟି": 5499,
      "##କର୍ତ୍ତା": 5500,
      "୫୯": 5501,
      "ନାରୀ": 5502,
      "##ଂଶୁ": 5503,
      "କ୍ଷୟ": 5504,
      "ଅର୍ଥନୈତିକ": 5505,
      "ପିଆ": 5506,
      "ଭିଡ଼": 5507,
      "##୍ୟାମ": 5508,
      "##ପାଟଣା": 5509,
      "##kra": 5510,
      "##ିଲେଣି": 5511,
      "ବ୍ୟବଚ୍ଛେଦ": 5512,
      "ବିଶାଳ": 5513,
      "କୋଲକାତା": 5514,
      "ଅଟନ୍ତି": 5515,
      "ମିଳୁ": 5516,
      "ଡକ୍ଟର": 5517,
      "ପୁନର୍": 5518,
      "କପ": 5519,
      "ଖାର": 5520,
      "ନ୍ୟୁଜିଲା": 5521,
      "##ହ୍ୟ": 5522,
      "ମହଙ୍ଗା": 5523,
      "ପ୍ରକୃତି": 5524,
      "##ହୋଇ": 5525,
      "##ବାସୀଙ୍କୁ": 5526,
      "ତ୍ରୁ": 5527,
      "##ଦଳ": 5528,
      "##kraine": 5529,
      "ବୋଝ": 5530,
      "ସାମ୍ନା": 5531,
      "ଦୁବ": 5532,
      "##ollow": 5533,
      "ଜଙ୍ଗଲରେ": 5534,
      "##ାଇଥିବା": 5535,
      "ମୋଦିଙ୍କ": 5536,
      "ସେମି": 5537,
      "ଲିଙ୍ଗ": 5538,
      "ଜଳବାୟୁ": 5539,
      "ରାଜି": 5540,
      "କମିଟିର": 5541,
      "##av": 5542,
      "ଶ୍ୱ": 5543,
      "କମ୍ପାନୀର": 5544,
      "##ସିସିଆଇ": 5545,
      "Ukraine": 5546,
      "ଜଡ଼ିତ": 5547,
      "ପରିଦର୍ଶନ": 5548,
      "ଜବରଦ": 5549,
      "##tic": 5550,
      "ଏହାଛ": 5551,
      "ହୋଇଥାନ୍ତି": 5552,
      "ସୁଦୃ": 5553,
      "##ide": 5554,
      "##ବିକ": 5555,
      "ଅବସ୍ଥିତ": 5556,
      "He": 5557,
      "##ଧ୍ୟରୁ": 5558,
      "ଫର": 5559,
      "##rib": 5560,
      "##ଡ଼ାରେ": 5561,
      "ନିର୍ଦ୍ଧାରଣ": 5562,
      "।'": 5563,
      "ଅଭିଯୁକ୍ତଙ୍କୁ": 5564,
      "ରାଜସ୍ୱ": 5565,
      "##ିପର": 5566,
      "ଦୁହେଁ": 5567,
      "Sambad": 5568,
      "କୈ": 5569,
      "##ବରଣ": 5570,
      "ବଜେଟ": 5571,
      "ଯଶ": 5572,
      "ଅତ୍ୟଧିକ": 5573,
      "ପାଇପାରିବେ": 5574,
      "##lict": 5575,
      "##ନିର୍ବାଚ": 5576,
      "ଅବକାରୀ": 5577,
      "ସ୍କୁଲରେ": 5578,
      "କ୍ରାଇମବ": 5579,
      "Pr": 5580,
      "ଚଢାଉ": 5581,
      "ଲାଇନ": 5582,
      "conflict": 5583,
      "ମହାନଦୀ": 5584,
      "##ମୋହନ": 5585,
      "ନିଶା": 5586,
      "ରଖିଥିବା": 5587,
      "ଆସିବେ": 5588,
      "ଲଗାତାର": 5589,
      "ରୋକିବା": 5590,
      "##ୗପ": 5591,
      "କ୍ଷୁଦ୍ର": 5592,
      "##ଚ୍ୟୁ": 5593,
      "ଟିକେଟ": 5594,
      "ଫେରୁ": 5595,
      "ସମୀର": 5596,
      "ପିଲାମାନଙ୍କ": 5597,
      "ଡାକ୍ତରଙ୍କ": 5598,
      "ସେବାୟତ": 5599,
      "ବାନ": 5600,
      "##ସ୍କୃତିକ": 5601,
      "ଭୂତାଣୁ": 5602,
      "ଜଟି": 5603,
      "ଟ୍ୱିଟ୍": 5604,
      "ଇଣ୍ଟରନ": 5605,
      "ଦୃଢ": 5606,
      "##ସାମ": 5607,
      "ଅଟକି": 5608,
      "ସେନେଇ": 5609,
      "##ud": 5610,
      "କାର୍ୟ୍ୟ": 5611,
      "ତାହେଲେ": 5612,
      "##ଆନ୍ତୁ": 5613,
      "ନୁହଁ": 5614,
      "ସୌର": 5615,
      "ବନ୍ଦର": 5616,
      "##ଥିଲୁ": 5617,
      "ସାଂସ୍କୃତିକ": 5618,
      "ପ୍ରତିବର୍ଷ": 5619,
      "୯୯": 5620,
      "ନିଷ୍ପତି": 5621,
      "##ାଦାର": 5622,
      "ଜର୍ମାନ": 5623,
      "ଜିଏସ": 5624,
      "ପ୍ରମୋଦ": 5625,
      "ଦିବ୍ୟ": 5626,
      "##ରୀଣ": 5627,
      "##ୀରା": 5628,
      "କୌଶଳ": 5629,
      "ଏତଲା": 5630,
      "ମୋହନ": 5631,
      "ଶଙ୍କର": 5632,
      "ପ୍ରତିଯୋଗିତା": 5633,
      "##eave": 5634,
      "ବିସିସିଆଇ": 5635,
      "୬୭": 5636,
      "##ଲାଦେଶ": 5637,
      "ବ୍ୟବସାୟରେ": 5638,
      "ଚାହି": 5639,
      "ପୋଲିସର": 5640,
      "ଧନୁ": 5641,
      "##ory": 5642,
      "##ଂଘନ": 5643,
      "##ଠନର": 5644,
      "##ebook": 5645,
      "##ପୀଠ": 5646,
      "ସଫ": 5647,
      "ଭିତରୁ": 5648,
      "ସ୍ପେଶ": 5649,
      "ଭିଡିଓରେ": 5650,
      "ଶ୍ରୀଲଙ୍କା": 5651,
      "##ଫରେ": 5652,
      "ବିସ୍ତାର": 5653,
      "##ଢି": 5654,
      "##ାବରଣ": 5655,
      "ଅଧିବେଶନ": 5656,
      "ବନ୍ୟ": 5657,
      "ଜଟିଳ": 5658,
      "କମ୍ପାନି": 5659,
      "ପିତ": 5660,
      "##ମାଣ୍ଡ": 5661,
      "ପୃଷ୍ଠ": 5662,
      "ଇଂରାଜ": 5663,
      "ଉଇ": 5664,
      "##acebook": 5665,
      "ସବୁଜ": 5666,
      "ପତି": 5667,
      "ଷ୍ଟାର": 5668,
      "ସଂଘର": 5669,
      "[+": 5670,
      "ରାସ୍ତାର": 5671,
      "##ାନାର": 5672,
      "wh": 5673,
      "ବୈଷୟିକ": 5674,
      "ଇଞ୍ଜିନିୟ": 5675,
      "୬୩": 5676,
      "ନେତାଙ୍କ": 5677,
      "##eply": 5678,
      "ସ୍ୱରୂପ": 5679,
      "ପାର୍ଥ": 5680,
      "ଆଚାର୍ଯ୍ୟ": 5681,
      "##ଯା": 5682,
      "ଏସିଆ": 5683,
      "ୱା": 5684,
      "ଶିକ୍ଷାନୁଷ୍ଠାନ": 5685,
      "ବାହାରୁ": 5686,
      "ବିଏମ୍ସି": 5687,
      "ବାରିକ": 5688,
      "ନିଆଯିବ": 5689,
      "##୍ୟୁର": 5690,
      "ମୂର୍ତ୍ତି": 5691,
      "ତାପରେ": 5692,
      "ଫେରାଇ": 5693,
      "ତୁମର": 5694,
      "ଚର୍ଚ୍ଚାରେ": 5695,
      "ସ୍ତର": 5696,
      "କୁହନ୍ତି": 5697,
      "ପାଳିତ": 5698,
      "ଓମିକ୍ରନ": 5699,
      "ସୀମାରେ": 5700,
      "ସହାୟତାରେ": 5701,
      "ହୋଇଯାଏ": 5702,
      "କ୍ରମାଗତ": 5703,
      "ମାଓବାଦୀ": 5704,
      "##ବାଟ": 5705,
      "କ୍ଲି": 5706,
      "ଅଭିଭାବ": 5707,
      "ଜିଲାର": 5708,
      "ଆଗରୁ": 5709,
      "##ିପାରେ": 5710,
      "କରାଇବା": 5711,
      "##ମ୍ୱ": 5712,
      "ସଂଗ୍ରାମ": 5713,
      "##ଧନା": 5714,
      "ମକର": 5715,
      "##ଟ୍ରେ": 5716,
      "ଅଞ୍ଚଳରୁ": 5717,
      "ପ୍ରତିବନ୍ଧକ": 5718,
      "##ଭୂତି": 5719,
      "ବିଗତ": 5720,
      "##କ୍ଷୀରେ": 5721,
      "ବଂଶ": 5722,
      "ବିଶ୍ଵ": 5723,
      "##ନିଂ": 5724,
      "##ଏସି": 5725,
      "##ଧ୍ୟକ୍ଷ": 5726,
      "ସେବନ": 5727,
      "ମାଝୀ": 5728,
      "ଲାଗିଲା": 5729,
      "ମାନ୍ୟ": 5730,
      "##ଚାଲି": 5731,
      "ଚାମ୍ପି": 5732,
      "ରାଜନୀତିରେ": 5733,
      "୬୮": 5734,
      "ଡାକ୍ତରଖାନା": 5735,
      "ମହାବିଦ୍ୟାଳୟ": 5736,
      "ଜିଲାପାଳ": 5737,
      "ଡ୍ରଗ": 5738,
      "ମିଳେ": 5739,
      "ନୀତ": 5740,
      "##ସିଆଲ୍": 5741,
      "ନେଇଥିଲା": 5742,
      "Facebook": 5743,
      "ପାରନ୍ତି": 5744,
      "##ଜେନ୍ସି": 5745,
      "##ିତାଙ୍କ": 5746,
      "##ବଣ": 5747,
      "ସ୍ବାମୀ": 5748,
      "##ତୁର": 5749,
      "ପୃଥ": 5750,
      "ପାଣ୍ଠି": 5751,
      "ତ୍ରି": 5752,
      "ବାସଭବ": 5753,
      "ଇଡି": 5754,
      "ପହଞ୍ଚିଥିଲେ": 5755,
      "ଲମ୍ବା": 5756,
      "ଅଭୟ": 5757,
      "ଅର୍ଥନୀତି": 5758,
      "ଚୌଧ": 5759,
      "##ତ୍ତମ": 5760,
      "ଫ୍ରାନ୍ସ": 5761,
      "ପରିମାଣରେ": 5762,
      "ତ୍ରୁଟି": 5763,
      "ଏସ୍ପି": 5764,
      "ଆଖପାଖ": 5765,
      "ହୋଇଗଲା": 5766,
      "ବଳି": 5767,
      "ହସ୍ତାନ୍ତର": 5768,
      "##ept": 5769,
      "##ଇଓ": 5770,
      "ହୋଇଯାଇଥିଲେ": 5771,
      "##େଲି": 5772,
      "ଧିରେ": 5773,
      "##ୁମ": 5774,
      "##ିପ୍ତ": 5775,
      "ସାଙ୍ଗକୁ": 5776,
      "##ଶ୍ୱର": 5777,
      "ଡାଟା": 5778,
      "ବାରଣ": 5779,
      "##ବନ୍ଧୁ": 5780,
      "୯୮": 5781,
      "Mar": 5782,
      "ଲାଗିଥିବା": 5783,
      "ଭୂମିକାରେ": 5784,
      "##ମ୍ପରିକ": 5785,
      "ସଡ଼କ": 5786,
      "ଗୁଜରାଟ": 5787,
      "ଏତିକି": 5788,
      "##18": 5789,
      "ମୌଳିକ": 5790,
      "ଓ୍ଵ": 5791,
      "##ବସ୍ତୁ": 5792,
      "ଆନ୍ଧ୍ରପ୍ରଦେଶ": 5793,
      "ଇନିଂସ": 5794,
      "##ନ୍ଦି": 5795,
      "ରିଜ": 5796,
      "ଶତାଧିକ": 5797,
      "ଦଶମ": 5798,
      "ରାଜଧାନୀରେ": 5799,
      "କଙ୍ଗ": 5800,
      "##ଗୁଲ": 5801,
      "ମାସର": 5802,
      "ପଲି": 5803,
      "cont": 5804,
      "ଆପଣମାନେ": 5805,
      "ମତ୍ସ୍ୟ": 5806,
      "ଆମେରିକୀୟ": 5807,
      "ସ୍ଵାସ୍ଥ୍ୟ": 5808,
      "##ର୍ମୁ": 5809,
      "ବିବରଣୀ": 5810,
      "ବର୍ଗର": 5811,
      "ଏକାଡେ": 5812,
      "ହାଟ": 5813,
      "ଘୋ": 5814,
      "ବାଲେଶ୍ବର": 5815,
      "##ସାଇଟ": 5816,
      "ପୀଠ": 5817,
      "ସୁପାରି": 5818,
      "##ditor": 5819,
      "ବୋଲର": 5820,
      "ମହାପ୍ରଭୁଙ୍କ": 5821,
      "##ଙ୍କି": 5822,
      "ବକ୍ତ": 5823,
      "ଚ୍ୟାଲେଞ୍ଜ": 5824,
      "ପ୍ରାୟତ": 5825,
      "##ଗିତ": 5826,
      "ବିଦ୍ୟାଳୟରେ": 5827,
      "ସଂଖ୍ୟକ": 5828,
      "ହାରି": 5829,
      "କବିତା": 5830,
      "ବାଂଲାଦେଶ": 5831,
      "ଅଯ": 5832,
      "##ବାୟ": 5833,
      "ପଟେ": 5834,
      "ଯୋଗଦାନ": 5835,
      "##ନାମ": 5836,
      "ମେଣ୍ଟ": 5837,
      "##ଝା": 5838,
      "ଆମ୍ଭ": 5839,
      "ଯୁବକଙ୍କୁ": 5840,
      "୬୧": 5841,
      "ବର୍ତ୍ତମାନର": 5842,
      "ପରିପ୍ରେ": 5843,
      "ବିପୁଳ": 5844,
      "ନିକଟକୁ": 5845,
      "କୁଆ": 5846,
      "୨୦୧୫": 5847,
      "ଉତ୍ସାହିତ": 5848,
      "##ୁ୍ୟ": 5849,
      "ଦାସଙ୍କ": 5850,
      "ହୋଇପଡ଼ି": 5851,
      "##୍ଲା": 5852,
      "ବ୍ୟାପାର": 5853,
      "##େସ": 5854,
      "୩୦୦": 5855,
      "ଅଶ୍ୱ": 5856,
      "ବଳରେ": 5857,
      "ପାରମ୍ପରିକ": 5858,
      "ଦର୍ଶା": 5859,
      "କଷ୍ଟକର": 5860,
      "ଆତଙ୍କବାଦ": 5861,
      "##କ୍ରେ": 5862,
      "ସମ୍ବନ୍ଧୀୟ": 5863,
      "##du": 5864,
      "କେରଳ": 5865,
      "ବାଧ୍ୟତାମୂଳକ": 5866,
      "##ala": 5867,
      "##ାଳୟରେ": 5868,
      "##ର୍ଗତ": 5869,
      "##ିୟନ": 5870,
      "ଗର୍ଭବ": 5871,
      "##ଏଚ": 5872,
      "ରହୁଛନ୍ତି": 5873,
      "ମାଳ": 5874,
      "##ଧାରା": 5875,
      "##ଭୂମ": 5876,
      "ଚଳିତବର୍ଷ": 5877,
      "##ence": 5878,
      "୭୩": 5879,
      "##୍କର": 5880,
      "ବିଜେତା": 5881,
      "ପାରାଦ": 5882,
      "ବିପର୍ଯ୍ୟୟ": 5883,
      "##ric": 5884,
      "ହୁଅନ୍ତି": 5885,
      "କ୍ୟାପିଟାଲ": 5886,
      "ବିଧାନସଭାରେ": 5887,
      "ଦେଉଥିବା": 5888,
      "##ମୁହିଁ": 5889,
      "କାଉ": 5890,
      "##ath": 5891,
      "ମାର୍": 5892,
      "August": 5893,
      "ପୁଷ୍ପ": 5894,
      "ଦମ୍ପ": 5895,
      "କଦ": 5896,
      "କେନ୍ଦ୍ରର": 5897,
      "ପ୍ରଯୁକ୍ତି": 5898,
      "##ଯନ୍ତ୍ର": 5899,
      "ମିଳିଲା": 5900,
      "##ଜାତ": 5901,
      "##ୋରା": 5902,
      "##ୋମ": 5903,
      "##ାଙ୍କନ": 5904,
      "ଭାବି": 5905,
      "ଯୁକ୍ତି": 5906,
      "ସ୍ଥଗିତ": 5907,
      "ଯେତିକି": 5908,
      "ଶ୍ରଦ୍ଧାଳୁ": 5909,
      "##ିଓ": 5910,
      "ଶୁଖ": 5911,
      "##ଡିସି": 5912,
      "##ଙ୍କଠାରୁ": 5913,
      "ଗ୍ରେ": 5914,
      "##କିଂ": 5915,
      "news": 5916,
      "କ୍ଷତିଗ୍ରସ୍ତ": 5917,
      "୯୪": 5918,
      "ନିଶ୍ଚୟ": 5919,
      "ସିଟି": 5920,
      "ଚୋରା": 5921,
      "କାଳରେ": 5922,
      "କ୍ରାଇମବ୍ରାଞ୍ଚ": 5923,
      "ପରଲୋକ": 5924,
      "କାର୍ଯ୍ୟକ୍ରମକୁ": 5925,
      "##୍ୟାନ୍": 5926,
      "##ତ୍ତର": 5927,
      "##ର୍ତ": 5928,
      "୬୯": 5929,
      "##oad": 5930,
      "##ଢ଼େ": 5931,
      "ମୁଖପାତ୍ର": 5932,
      "ଦର୍ଶକ": 5933,
      "କୁଳ": 5934,
      "##ୟାରୀ": 5935,
      "ଅର୍ଜନ": 5936,
      "ଅଗ୍ନିକା": 5937,
      "ବ୍ଳ": 5938,
      "ହାତକୁ": 5939,
      "ଗମ୍ଭ": 5940,
      "##ସ୍କୁଲ": 5941,
      "ଗୁଜୁର": 5942,
      "ରାତ୍ର": 5943,
      "ପ୍ଲାଟଫର୍ମ": 5944,
      "All": 5945,
      "ଭୁଲ୍": 5946,
      "ଜୋନ": 5947,
      "ନଦ": 5948,
      "ବୀମା": 5949,
      "ପ୍ରସନ୍ନ": 5950,
      "that": 5951,
      "ଅପହରଣ": 5952,
      "ଆଉଟ": 5953,
      "ଅଙ୍ଗନ": 5954,
      "ବେକ": 5955,
      "ଚାଲିଥିଲା": 5956,
      "##ଜନିତ": 5957,
      "##ହୁଏ": 5958,
      "ପରିପ୍ରେକ୍ଷୀରେ": 5959,
      "##ଦ୍ୱାର": 5960,
      "ନିଶ": 5961,
      "##ାରୋହ": 5962,
      "##ିକୋ": 5963,
      "ବଢ଼ାଇ": 5964,
      "##ାର୍ଜୀ": 5965,
      "ସାଇକେଲ": 5966,
      "ଠିଆ": 5967,
      "ବାଜି": 5968,
      "ଫର୍ମ": 5969,
      "ଶରୀରର": 5970,
      "##ଦୀଙ୍କ": 5971,
      "ଫସି": 5972,
      "##ଆସ": 5973,
      "ଆଚରଣ": 5974,
      "##ପୂରଣ": 5975,
      "କରାଗଲା": 5976,
      "ସୌମ୍ୟ": 5977,
      "ଉଲ୍ଲେଖଯୋଗ୍ୟ": 5978,
      "##ରଞ୍ଜନ": 5979,
      "୬୬": 5980,
      "ସାଢ଼େ": 5981,
      "ବ୍ୟବସ୍ଥାକୁ": 5982,
      "କାର୍ତ୍ତିକ": 5983,
      "ଘନ": 5984,
      "##ୋଗ୍ରାମ": 5985,
      "##େଇବା": 5986,
      "ଷ୍ଟ୍ର": 5987,
      "ନ୍ୟୁଜିଲାଣ୍ଡ": 5988,
      "ପ୍ରାୟତଃ": 5989,
      "୦୮": 5990,
      "୯୫": 5991,
      "ବାର୍ତ୍ତା": 5992,
      "ବାଜ": 5993,
      "##ତ୍ତ୍ବ": 5994,
      "ଯିବ": 5995,
      "ଅଧିନ": 5996,
      "ରାଶିର": 5997,
      "##ଇର": 5998,
      "Us": 5999,
      "ଥାଉ": 6000,
      "ପଡ଼ିଆ": 6001,
      "ht": 6002,
      "ଗଣତନ୍ତ୍ର": 6003,
      "ହତ୍ୟାକାଣ୍ଡ": 6004,
      "ଗାଁକୁ": 6005,
      "ସମାପ୍ତ": 6006,
      "ଏଯାଏ": 6007,
      "ଏଫ": 6008,
      "##ମିଟେ": 6009,
      "କାର୍ଯ୍ୟରତ": 6010,
      "Tag": 6011,
      "##ପାଲ": 6012,
      "##୍ୟାଗ": 6013,
      "ବିମାନବ": 6014,
      "ବିଶେଷକରି": 6015,
      "ଶାହା": 6016,
      "ମୟୁରଭଞ୍ଜ": 6017,
      "ଉଦଘାଟନ": 6018,
      "ଅମର": 6019,
      "କୋଇଲା": 6020,
      "ମାଗଣା": 6021,
      "ପ୍ରାରମ୍ଭିକ": 6022,
      "ଭିଟ": 6023,
      "##ାମି": 6024,
      "ସୁନ୍ଦରଗଡ": 6025,
      "ଫାଇଦା": 6026,
      "କେଜି": 6027,
      "ଅଞ୍ଚଳକୁ": 6028,
      "ରୋଷେଇ": 6029,
      "ରାଓ": 6030,
      "ଓଡ଼ିଶାକୁ": 6031,
      "ଜିଓ": 6032,
      "##ରଫ": 6033,
      "ପୋଲିସକୁ": 6034,
      "ଜେରା": 6035,
      "ଫାର୍": 6036,
      "ଅଭିମୁଖ": 6037,
      "ପୃଥିବୀ": 6038,
      "ଏକ୍ସପ୍ରେ": 6039,
      "୭୬": 6040,
      "ମୁହାଁମୁହିଁ": 6041,
      "##ସାହି": 6042,
      "ar": 6043,
      "ସେମିତି": 6044,
      "ଉପନିର୍ବାଚ": 6045,
      "ଜନସଂଖ୍ୟା": 6046,
      "##ଜୁନ": 6047,
      "ରେଳବାଇ": 6048,
      "##କେଶ": 6049,
      "ବାସ୍ତବରେ": 6050,
      "About": 6051,
      "ଆଡ଼କୁ": 6052,
      "##ଲୀ": 6053,
      "ବୟସର": 6054,
      "##ry": 6055,
      "ଶ୍ରମ": 6056,
      "ଇତି": 6057,
      "##ଜିଂ": 6058,
      "##୍ୟାନେଲ": 6059,
      "କଥାକୁ": 6060,
      "##େଲୋ": 6061,
      "ଟ୍ରମ୍ପ": 6062,
      "ଦୀପକ": 6063,
      "କଥାବାର୍ତ୍ତା": 6064,
      "ପ୍ରତିରୋଧ": 6065,
      "ଦେବାର": 6066,
      "ଜନଜାତି": 6067,
      "ଟିକେ": 6068,
      "୧୯୬": 6069,
      "ଊର୍ଦ୍ଧ": 6070,
      "ପ୍ରକଳ୍ପର": 6071,
      "ଯାହାଫଳରେ": 6072,
      "ନକ୍ସ": 6073,
      "ଷ୍ଟାଡିୟ": 6074,
      "୦୨": 6075,
      "Th": 6076,
      "କରିବି": 6077,
      "ସ୍ଲ": 6078,
      "##ଚ୍ଛି": 6079,
      "##ାଳୀନ": 6080,
      "ବାତାବରଣ": 6081,
      "ପରିବର୍ତ୍ତେ": 6082,
      "On": 6083,
      "ସମ୍ବର୍ଦ୍ଧ": 6084,
      "ପୂର୍ବେ": 6085,
      "##ଯାତ": 6086,
      "ଆଭି": 6087,
      "ଅବା": 6088,
      "ଜିଲ୍ଲାପାଳଙ୍କ": 6089,
      "ଲୋକାଲ": 6090,
      "ଚମତ": 6091,
      "ଡ୍ରଗ୍ସ": 6092,
      "ଗୃହରେ": 6093,
      "କଠୋର": 6094,
      "ସରୋଜ": 6095,
      "ପଞ୍ଚମ": 6096,
      "ବାବା": 6097,
      "ପ୍ରୋ": 6098,
      "ଜୟନ୍ତୀ": 6099,
      "ତପ": 6100,
      "##ଭୁତ": 6101,
      "୮୪": 6102,
      "##ର୍ଲା": 6103,
      "ପ୍ରାର୍ଥନା": 6104,
      "##ମ୍ବୁ": 6105,
      "##ମୂଳ": 6106,
      "ସହରା": 6107,
      "ପୀଡ଼": 6108,
      "ଅଭିମୁଖେ": 6109,
      "ଧରା": 6110,
      "ଟାଟା": 6111,
      "କଳ୍ପନା": 6112,
      "##ୀକୃତ": 6113,
      "ଆରା": 6114,
      "##ସୋ": 6115,
      "##ered": 6116,
      "##ୁଟି": 6117,
      "ମାଂସ": 6118,
      "ମନ୍ଦିରର": 6119,
      "ଯିବେ": 6120,
      "ନିରୀ": 6121,
      "ସୂଚନ": 6122,
      "ବିବାଦୀୟ": 6123,
      "ଉଲ୍ଲେଖନୀୟ": 6124,
      "ଲଢ଼େଇ": 6125,
      "ଛତ୍ର": 6126,
      "ଜାହା": 6127,
      "ଉଦ୍ଧ": 6128,
      "ହାଇସ୍କୁଲ": 6129,
      "ସମାଜର": 6130,
      "ନକର": 6131,
      "ବ୍ୟାଟ୍ସ": 6132,
      "ପ୍ରତିଦ୍ୱ": 6133,
      "##ଅର": 6134,
      "ନ୍ୟାସ": 6135,
      "ବକ୍ସ": 6136,
      "ବୃହତ": 6137,
      "ମେଡିକାଲରେ": 6138,
      "##ସଂଘ": 6139,
      "ଅବଶ୍ୟ": 6140,
      "ପ୍ରେରଣା": 6141,
      "ବୁଝାମଣା": 6142,
      "ଅନଲାଇନ": 6143,
      "Sp": 6144,
      "ମୁକୁ": 6145,
      "ଆଦୌ": 6146,
      "ଡାକି": 6147,
      "ଗର୍ଭ": 6148,
      "ମୁଖ୍ୟତଃ": 6149,
      "ଚାଳକ": 6150,
      "ଲଗାଇବା": 6151,
      "ଠାବ": 6152,
      "ନାଟକ": 6153,
      "##ଡକ": 6154,
      "##ିନଥିଲେ": 6155,
      "ବିନିଯୋଗ": 6156,
      "##ff": 6157,
      "ଇମ୍ର": 6158,
      "ଆସୋସି": 6159,
      "କିଣିବା": 6160,
      "୭୭": 6161,
      "##ସ୍ତର": 6162,
      "##ୋଷଣ": 6163,
      "##ଢା": 6164,
      "##ମାନେେ": 6165,
      "ଯୋଗୀ": 6166,
      "##ata": 6167,
      "##ds": 6168,
      "ସ୍ନା": 6169,
      "୧୯୫": 6170,
      "ରାଜ୍ୟକୁ": 6171,
      "ଜଳସେ": 6172,
      "ଚାଷୀମାନେ": 6173,
      "##କୂ": 6174,
      "କଳିଙ୍ଗ": 6175,
      "##ଡାଇ": 6176,
      "ବିବି": 6177,
      "##ଲିଙ୍ଗ": 6178,
      "କେତେବେଳେ": 6179,
      "ଗଣମାଧ୍ୟମରେ": 6180,
      "##anc": 6181,
      "##ବ୍ୟାପୀ": 6182,
      "ଭବାନୀ": 6183,
      "ଚିକିତ୍ସାଧୀନ": 6184,
      "ଉନ୍ମ": 6185,
      "ଚାଷୀଙ୍କୁ": 6186,
      "ଉଚ୍ଛେଦ": 6187,
      "ସିଲି": 6188,
      "##ାନୁସାରେ": 6189,
      "Jan": 6190,
      "ଏଜେନ୍ସି": 6191,
      "ପରସ୍ପର": 6192,
      "ହେଉଥିଲେ": 6193,
      "##hats": 6194,
      "ଦୋଷୀ": 6195,
      "କ୍ଷତିପୂରଣ": 6196,
      "କ୍ୟାବିନେଟ": 6197,
      "ଆସାମ": 6198,
      "ପ୍ରମାଣିତ": 6199,
      "୭୧": 6200,
      "##ଧ୍ୟରେ": 6201,
      "ନେଲେ": 6202,
      "##ime": 6203,
      "ବାଦ୍": 6204,
      "୭୮": 6205,
      "ଗମ୍ଭୀର": 6206,
      "ସମ୍ଭ": 6207,
      "ଗୋଟ": 6208,
      "ଆଉଟ୍": 6209,
      "ଲୁଣ": 6210,
      "##ps": 6211,
      "##ଶ୍ର": 6212,
      "ସଂରକ୍ଷିତ": 6213,
      "##ଷ୍ଟାଗ": 6214,
      "ଭୟଭ": 6215,
      "ଭରି": 6216,
      "ସୈନ୍ୟ": 6217,
      "ଥା": 6218,
      "##ମ୍ଳ": 6219,
      "##ଜିଷ୍ଟ": 6220,
      "##ିଆଣ୍ଟ": 6221,
      "ଲକ୍ଷରୁ": 6222,
      "',": 6223,
      "କିଙ୍ଗ": 6224,
      "ହ୍ୱ": 6225,
      "ନାମାଙ୍କନ": 6226,
      "ସାହୁଙ୍କ": 6227,
      "ୟୁର": 6228,
      "ସ୍ୱାଭାବିକ": 6229,
      "##େକ୍ଟର": 6230,
      "ଭୋଜନ": 6231,
      "ସ୍ମରଣ": 6232,
      "##ass": 6233,
      "ଶ୍ରୀମତୀ": 6234,
      "୭୪": 6235,
      "ଚାର୍ଜ": 6236,
      "ମେହେର": 6237,
      "ବସନ୍ତ": 6238,
      "ଦିନଟି": 6239,
      "ବଞ୍ଚିତ": 6240,
      "ମୁଣ୍ଡରେ": 6241,
      "##ାମେରା": 6242,
      "##େବୁଲ": 6243,
      "ଆମେରିକାରେ": 6244,
      "##କ୍ଷତି": 6245,
      "##ିପ୍ରତି": 6246,
      "୮୩": 6247,
      "ଲୋକଙ୍କର": 6248,
      "ଆସୁ": 6249,
      "ରହୁଥିଲେ": 6250,
      "##ନ୍ଥ": 6251,
      "##ଜେନ": 6252,
      "ବୈଦେଶ": 6253,
      "##କ୍ରୋ": 6254,
      "ପାର୍ଶ୍ୱ": 6255,
      "##୍ୟାର": 6256,
      "ଦେଖାଦେଇଛି": 6257,
      "##ାଲୁରୁ": 6258,
      "ଆକର୍ଷଣୀୟ": 6259,
      "ଭାରି": 6260,
      "##ୀଣ": 6261,
      "ଗାଈ": 6262,
      "##uly": 6263,
      "##ହ୍": 6264,
      "ପ୍ରାଚୀନ": 6265,
      "ମିଶ୍ରଣ": 6266,
      "ଗୋଲ୍": 6267,
      "ଭ୍ରମଣ": 6268,
      "##ିମଧ୍ୟରୁ": 6269,
      "ଦ୍ରବ୍ୟ": 6270,
      "ଅଭାବନୀୟ": 6271,
      "ଷ୍ଟେଟ": 6272,
      "##ିପତ୍ର": 6273,
      "ଡାକ୍ତରୀ": 6274,
      "ନକରି": 6275,
      "କରିପାରୁ": 6276,
      "ଅବହେଳା": 6277,
      "ଚିନ୍ତାରେ": 6278,
      "ସାର୍ଟ": 6279,
      "ସିସିଟିଭି": 6280,
      "ହାର୍": 6281,
      "ଏଆଇ": 6282,
      "ଇଂରାଜୀ": 6283,
      "ନୀର": 6284,
      "ଜିଲ୍ଲାକୁ": 6285,
      "##୨୦": 6286,
      "ଲିମିଟେ": 6287,
      "ସମ୍ପନ୍ନ": 6288,
      "##ାନକ": 6289,
      "##ଠାକାର": 6290,
      "ରହୁଛି": 6291,
      "ପଚାରି": 6292,
      "##ଟର୍": 6293,
      "ପରିବେ": 6294,
      "##ଳୀରେ": 6295,
      "କ୍ୟାମେରା": 6296,
      "କରାଇଥିଲେ": 6297,
      "ଅର୍ଦ୍ଧ": 6298,
      "##iz": 6299,
      "ଧରାପ": 6300,
      "ପ୍ରତିଷ୍ଠାନ": 6301,
      "##ଓ୍ଵ": 6302,
      "ଚମତ୍କାର": 6303,
      "ପରଠାରୁ": 6304,
      "ଅଭିନନ୍ଦନ": 6305,
      "୭୯": 6306,
      "ପରିଚାଳିତ": 6307,
      "ଚାହିଦା": 6308,
      "##ଷିତ": 6309,
      "ତ୍ୱର": 6310,
      "##ାବାସ": 6311,
      "ଦେଖାଯାଏ": 6312,
      "ଗର୍ଭବତୀ": 6313,
      "ମହାକାଶ": 6314,
      "ଶାସ୍ତ୍ର": 6315,
      "ମିଥୁନ": 6316,
      "ପ୍ରଜାତି": 6317,
      "ଗଲା": 6318,
      "##ଲିଂ": 6319,
      "##ଚର୍ଯ୍ୟା": 6320,
      "ସମବାୟ": 6321,
      "ସଫଳତାର": 6322,
      "ସାଲ": 6323,
      "##ିନଥିଲା": 6324,
      "ତୋ": 6325,
      "##ପକ୍ଷେ": 6326,
      "##କାର୍ଯ୍ୟ": 6327,
      "ଅପରେସନ": 6328,
      "##ଏଚ୍": 6329,
      "୨ଜଣ": 6330,
      "ଲଢେଇ": 6331,
      "##per": 6332,
      "ସଦସ୍ୟଙ୍କ": 6333,
      "୦୩": 6334,
      "##pr": 6335,
      "ସମ୍ପର୍କିତ": 6336,
      "##କାରୀଙ୍କୁ": 6337,
      "ହନୁ": 6338,
      "##ଶକ୍ତି": 6339,
      "କ୍ରୟ": 6340,
      "କଲେଜରେ": 6341,
      "ପାସ୍": 6342,
      "##ାତନ": 6343,
      "ରେଞ୍ଜ": 6344,
      "##୍ଦୀ": 6345,
      "ଦାବିରେ": 6346,
      "ଜରିମାନା": 6347,
      "##ିକାଲ": 6348,
      "ଲୁଟେ": 6349,
      "ଟେକ୍ନୋଲୋଜି": 6350,
      "ବିଧାୟକଙ୍କ": 6351,
      "ନିଆଯାଇଥିଲା": 6352,
      "ଫେସବୁ": 6353,
      "ପିଆଜ": 6354,
      "ଦୁର୍ଗ": 6355,
      "ପିପିଲି": 6356,
      "##ମାନ୍ତ": 6357,
      "ସମାରୋହ": 6358,
      "ଅବଧି": 6359,
      "କ୍ରେ": 6360,
      "୮୬": 6361,
      "##ମ୍ସ": 6362,
      "ପଲ": 6363,
      "ମୃତକ": 6364,
      "ଉଲ୍ଲଂଘନ": 6365,
      "##ବନ": 6366,
      "##ଜିଲ୍ଲ": 6367,
      "ସମୃଦ୍ଧ": 6368,
      "କୋଠ": 6369,
      "not": 6370,
      "##ished": 6371,
      "ନୌ": 6372,
      "କମ୍ପ୍ୟୁଟର": 6373,
      "##ଶିଳ୍ପ": 6374,
      "ଅତୀତ": 6375,
      "##App": 6376,
      "ଏମିତ": 6377,
      "ମୃ": 6378,
      "ଉପହାର": 6379,
      "ଏହାରି": 6380,
      "ଲାଗିବ": 6381,
      "୦୭": 6382,
      "ସିନ୍ଧ": 6383,
      "ପ୍ରାର୍ଥୀଙ୍କ": 6384,
      "ପ୍ରଫୁଲ": 6385,
      "##୍ୟନ୍ତ": 6386,
      "##କିଛି": 6387,
      "ବନ୍ଧୁଗଣ": 6388,
      "ଶୃଙ୍ଖଳା": 6389,
      "ଗ୍ରହ": 6390,
      "ପଡ଼ିଥିବା": 6391,
      "ମନୁ": 6392,
      "##ମାନଙ୍କରେ": 6393,
      "ସମ୍ବିଧାନ": 6394,
      "ବିଡିଓ": 6395,
      "July": 6396,
      "କରିଥିବାରୁ": 6397,
      "May": 6398,
      "ଜାଗାରେ": 6399,
      "##ଟ୍ୟ": 6400,
      "ବୈଦେଶିକ": 6401,
      "##ନ୍ୟାସ": 6402,
      "ଅଧ୍ୟକ୍ଷା": 6403,
      "ଲାଗିଥିଲା": 6404,
      "ବିଭାଗକୁ": 6405,
      "##ଡ଼ାରୁ": 6406,
      "##ାରଖ": 6407,
      "ଗ୍ରା": 6408,
      "ଭଙ୍ଗ": 6409,
      "##ls": 6410,
      "##hatsApp": 6411,
      "ଜୀବନକୁ": 6412,
      "ଶୂ": 6413,
      "##ov": 6414,
      "ପାଇଲ": 6415,
      "ଆଣ୍ଟି": 6416,
      "୦୫": 6417,
      "ମନ୍ତ୍ରୀଙ୍କ": 6418,
      "##ଚରଣ": 6419,
      "ନାଏକ": 6420,
      "କାବ": 6421,
      ")।": 6422,
      "ରଥଯାତ୍ରା": 6423,
      "୮୭": 6424,
      ".)-": 6425,
      "ଲକ୍ଷ୍ନ": 6426,
      "ଗଣତି": 6427,
      "ଛକା": 6428,
      "ଲଣ୍ଡ": 6429,
      "ହେଲିକ": 6430,
      "ଆକ୍ରମଣରେ": 6431,
      "ଫୋ": 6432,
      "ନିର୍ଯାତ": 6433,
      "ପରୀକ୍ଷାରେ": 6434,
      "ମୁର୍ମୁ": 6435,
      "India": 6436,
      "ଭିଟାମ": 6437,
      "ରଣନୀତି": 6438,
      "ଧୋଇ": 6439,
      "##କନ": 6440,
      "ଢ଼": 6441,
      "ହୁଏତ": 6442,
      "ଅନୁଦାନ": 6443,
      "##ନଥିଲା": 6444,
      "ଏଣିକି": 6445,
      "ପାପ": 6446,
      "ଭାଇରସ": 6447,
      "ଶରୀରକୁ": 6448,
      "ଉଜ୍ଜ": 6449,
      "ଦିଅନ୍ତି": 6450,
      "ଉପସଭ": 6451,
      "ଗୁଜୁରାଟ": 6452,
      "ଯୋଡି": 6453,
      "ଓଡିଶାରେ": 6454,
      "ସାମ୍ନାରେ": 6455,
      "ପାଉଛି": 6456,
      "ହିମା": 6457,
      "ପତା": 6458,
      "ଦୟ": 6459,
      "Leave": 6460,
      "##ରାୟ": 6461,
      "##୍ୟାକ": 6462,
      "##କୁମାର": 6463,
      "ପ୍ରଶ୍ନର": 6464,
      "##ଦ୍ରୋହ": 6465,
      "ପକ୍ଷୀ": 6466,
      "##ାଗାର": 6467,
      "ଟ୍ରାନ୍ସ": 6468,
      "ବଙ୍ଗୋପ": 6469,
      "ଆଶ୍ରୟ": 6470,
      "ଫେରିଛନ୍ତି": 6471,
      "ବାରିପଦା": 6472,
      "ହେଲାଣି": 6473,
      "ଉପକୃତ": 6474,
      "ପ୍ରଶାସନର": 6475,
      "୦୬": 6476,
      "##ର୍ବାଦ": 6477,
      "##ାବସ୍ଥା": 6478,
      "##ୋନୀ": 6479,
      "ନାଥ": 6480,
      "##ଙ୍ଗର": 6481,
      "##ବିଶେଷ": 6482,
      "୦୯": 6483,
      "ୱେବସାଇଟ": 6484,
      "ପନିପର": 6485,
      "ଅବଦାନ": 6486,
      "##//": 6487,
      "Pri": 6488,
      "ପଣ୍ଡିତ": 6489,
      "ହୀରା": 6490,
      "##ଯିବେ": 6491,
      "ଲାଗୁଛି": 6492,
      "##ମ୍ୟାନ୍": 6493,
      "କ୍ଷୟକ୍ଷତି": 6494,
      "ମୀନ": 6495,
      "##ାୟିକା": 6496,
      "ଅବର": 6497,
      "ରହିଲେ": 6498,
      "ଶତାବ୍ଦୀ": 6499,
      "ଉପସ୍ଥିତିରେ": 6500,
      "ଯାହାଦ୍ୱାରା": 6501,
      "##ୀନା": 6502,
      "ତେଜ": 6503,
      "comment": 6504,
      "##ୋପଣ": 6505,
      "ଜୀବନଚର୍ଯ୍ୟା": 6506,
      "ପ୍ଲାଷ୍ଟ": 6507,
      "ଲାଭଦାୟକ": 6508,
      "ସୌନ୍ଦ": 6509,
      "ଗ୍ରୀଷ୍ମ": 6510,
      "ଗାଇ": 6511,
      "ସାକ୍ଷାତକାର": 6512,
      "ହିନ୍ଦୀ": 6513,
      "ଉଦ୍ଘାଟନ": 6514,
      "ସକାଶ": 6515,
      "##ିଙ୍କ": 6516,
      "##ୋଚନ": 6517,
      "##ଫିଆ": 6518,
      "ପ୍ରଦେଶର": 6519,
      "ଗୌରବ": 6520,
      "ସାଇବର": 6521,
      "##ନେତା": 6522,
      "##ଶାଳା": 6523,
      "ଚମ୍ପ": 6524,
      "##ଲାଲ": 6525,
      "ପ୍ରଦୀ": 6526,
      "##ଟଙ୍କା": 6527,
      "ଶ୍ରଦ୍ଧାଞ୍ଜଳି": 6528,
      "କ୍ଷମା": 6529,
      "##ିବଦ୍ଧ": 6530,
      "ବାଗ": 6531,
      "wor": 6532,
      "ସମ୍ବେ": 6533,
      "ଭାବନା": 6534,
      "ଭୟଭୀତ": 6535,
      "ଦର୍ଶାଇ": 6536,
      "ମାତା": 6537,
      "##ଡେନ": 6538,
      "##ିରୋ": 6539,
      "ଓମିକ୍ରନ୍": 6540,
      "ସୁରକ୍ଷ": 6541,
      "ଆକ୍ଟି": 6542,
      "##--------": 6543,
      "ଆଣିବାକୁ": 6544,
      "##ious": 6545,
      "##edia": 6546,
      "ରୋଗର": 6547,
      "ଅବଲ": 6548,
      "ନିରାଶ": 6549,
      "##ଆସି": 6550,
      "ଝାଡ଼": 6551,
      "31": 6552,
      "ଲୁଟ": 6553,
      "ବିବେଚନା": 6554,
      "ସାଧାରଣରେ": 6555,
      "ଉଦ୍ୟାନ": 6556,
      "##କୀ": 6557,
      "was": 6558,
      "ରଘୁ": 6559,
      "ମିଛ": 6560,
      "ଅଭିବୃଦ୍ଧି": 6561,
      "##ାଗ୍ର": 6562,
      "ଅଧ୍ୟାପକ": 6563,
      "##ପାଇ": 6564,
      "କେଜ": 6565,
      "କାର୍ଯ୍ୟକ୍ରମର": 6566,
      "Pol": 6567,
      "ରଖିବେ": 6568,
      "ଅଘଟ": 6569,
      "ଅର୍ଥମନ୍ତ୍ରୀ": 6570,
      "ସ୍ୱୀକାର": 6571,
      "##ମତି": 6572,
      "ଫୋର୍ସ": 6573,
      "କଏ": 6574,
      "##ର୍ପଣ": 6575,
      "ଆଇଟି": 6576,
      "##ଜଗ": 6577,
      "##ୋତ୍ସବ": 6578,
      "କ୍ୟାପଟେ": 6579,
      "ଜେନେରାଲ": 6580,
      "##ମଣି": 6581,
      "ପ୍ରଦୀପ୍ତ": 6582,
      "ସମସ୍ୟାକୁ": 6583,
      "ସକାଶେ": 6584,
      "##ିଛନ୍ତି": 6585,
      "ଆଭିମୁଖ୍ୟ": 6586,
      "ଡଃ": 6587,
      "୭ଟି": 6588,
      "ମୁହଁରେ": 6589,
      "##କ୍ସ୍ଟ": 6590,
      "##ସାରଣ": 6591,
      "##ଥିପାଇଁ": 6592,
      "ଡିଜାଇନ": 6593,
      "ଉଡ଼": 6594,
      "ଉପଭୋ": 6595,
      "##ାମୀଙ୍କ": 6596,
      "୧୦ଟି": 6597,
      "##ଜାନ": 6598,
      "ଟାଉନ": 6599,
      "##ଯିବାକୁ": 6600,
      "ନିୟୁତ": 6601,
      "##ଫାଇ": 6602,
      "##ublished": 6603,
      "ସାହାଯ୍ୟରେ": 6604,
      "ଆସେ": 6605,
      "://": 6606,
      "##ଧାରୀ": 6607,
      "ଇଣ୍ଟ": 6608,
      "htt": 6609,
      "ଢଙ୍ଗରେ": 6610,
      "##ୁଆଲ": 6611,
      "ତତ୍କ": 6612,
      "..": 6613,
      "##ସାରିଛନ୍ତି": 6614,
      "ଗୁଣ୍ଡ": 6615,
      "ଦିନିଆ": 6616,
      "ତାମିଲନାଡୁ": 6617,
      "ଚୌକା": 6618,
      "ତୀ": 6619,
      "##୍ୟାରେ": 6620,
      "ବୋମା": 6621,
      "ହରାଇଛନ୍ତି": 6622,
      "##ଶାନ": 6623,
      "ଝଟ": 6624,
      "ବୃଷ": 6625,
      "will": 6626,
      "୮୨": 6627,
      "##ଷ୍ଟିଚ୍ୟୁ": 6628,
      "୯୭": 6629,
      "ପ୍ରଣାଳୀ": 6630,
      "ଅତ୍ୟାଧୁନିକ": 6631,
      "ଚନ୍ଦନ": 6632,
      "ରାସ": 6633,
      "୧୫୦": 6634,
      "ବିସ୍ତୃତ": 6635,
      "int": 6636,
      "ଖରା": 6637,
      "ମଝିରେ": 6638,
      "ଆଣ୍ଟ": 6639,
      "କାନ୍ଥ": 6640,
      "୮୯": 6641,
      "ସହିଦ": 6642,
      "ଜନ୍ମଦିନ": 6643,
      "ପ୍ରେମିକ": 6644,
      "ଦାରି": 6645,
      "ବେଙ୍ଗାଲୁରୁ": 6646,
      "ସ୍ୱାଦ": 6647,
      "ରିସ": 6648,
      "##ଖେ": 6649,
      "ଆରମ୍ଭରୁ": 6650,
      "##war": 6651,
      "ପଦରୁ": 6652,
      "ଅଲିମ୍ପିକ୍ସ": 6653,
      "ମରି": 6654,
      "ସଶକ୍ତ": 6655,
      "ପିସିସି": 6656,
      "ପିଲାମାନଙ୍କୁ": 6657,
      "ମେଳ": 6658,
      "୯୨": 6659,
      "ଆଶୀ": 6660,
      "ରିଲିଜ୍": 6661,
      "##ଥାନ୍ତା": 6662,
      "ଅଜଣା": 6663,
      "hour": 6664,
      "min": 6665,
      "##ମଳ": 6666,
      "ଫେବ୍ର": 6667,
      "ଭୂମି": 6668,
      "##ୟାଣ": 6669,
      "୯୧": 6670,
      "ସ୍ନାନ": 6671,
      "ପୁଲିସକୁ": 6672,
      "ଡିପ": 6673,
      "ଭୁବନେଶ୍ୱରର": 6674,
      "କାମନା": 6675,
      "ପ୍ରାଇ": 6676,
      "ସ୍କୁଲର": 6677,
      "##େଇଁ": 6678,
      "ପାଠ୍ୟକ୍ରମ": 6679,
      "ସ୍ଥିତିକୁ": 6680,
      "##ିଫ": 6681,
      "ପଞ୍ଚାୟତରେ": 6682,
      "ବିଛା": 6683,
      "ବ୍ରାହ": 6684,
      "##ଦଣ୍ଡ": 6685,
      "ଗୃ": 6686,
      "ଉପସଭାପତି": 6687,
      "୯୬": 6688,
      "ଅନନ୍ତ": 6689,
      "ବାଧା": 6690,
      "##ase": 6691,
      "ଚଢ଼ଉ": 6692,
      "ରୋଗୀଙ୍କୁ": 6693,
      "ସପକ୍ଷରେ": 6694,
      "ସୁରେନ୍ଦ୍ର": 6695,
      "ଖୋର୍ଦ୍ଧ": 6696,
      "ଝିଅକୁ": 6697,
      "ଫୁଲବାଣୀ": 6698,
      "ନମ": 6699,
      "ଅନି": 6700,
      "ପରିବା": 6701,
      "ନେତାମାନେ": 6702,
      "୦୪": 6703,
      "ଅବରୋଧ": 6704,
      "ଏଟିଏ": 6705,
      "##ଟୁ": 6706,
      "##ାର୍ପଣ": 6707,
      "ମୋର୍ଚ୍ଚ": 6708,
      "Sept": 6709,
      "ଉଦୟ": 6710,
      "##ିମ୍": 6711,
      "ସୌନ୍ଦର୍ଯ୍ୟ": 6712,
      "##ର୍ମି": 6713,
      "ଗୁରୁତ୍ବପୂର୍ଣ୍ଣ": 6714,
      "ହୋଇପାରୁ": 6715,
      "ସାର୍ବ": 6716,
      "ଅମୃତ": 6717,
      "##େଣ୍ଟ": 6718,
      "ଗ୍ରାମା": 6719,
      "June": 6720,
      "##ark": 6721,
      "##ticle": 6722,
      "କଙ୍ଗନା": 6723,
      "##art": 6724,
      "ମେସିନ": 6725,
      "ପ୍ରତିଯୋଗିତାରେ": 6726,
      "ବଙ୍ଗୋପସାଗ": 6727,
      "୮୮": 6728,
      "od": 6729,
      "##ଡାରେ": 6730,
      "##େତୁ": 6731,
      "କରାଯାଉଥିଲା": 6732,
      "୮୧": 6733,
      "ମିଶ୍ରଙ୍କ": 6734,
      "ରାଜପ": 6735,
      "ଫେବ୍ରୁଆ": 6736,
      "ପୂର୍ବାହ୍ନ": 6737,
      "ପାରେ": 6738,
      "ବ୍ୟବସାୟିକ": 6739,
      "##ଚୁ": 6740,
      "##ଣ୍ତ": 6741,
      "##ଭଦ୍ର": 6742,
      "ମାଷ୍ଟର": 6743,
      "ମାତ୍ରା": 6744,
      "ମେଘ": 6745,
      "୦୧": 6746,
      "ଶୁଣିବାକୁ": 6747,
      "ନେଟୱ": 6748,
      "ପରିସ୍ଥିତିକୁ": 6749,
      "ସୈନିକ": 6750,
      "ଉପାଦାନ": 6751,
      "ଆଣିଥିଲେ": 6752,
      "ବ୍ରାହ୍ମ": 6753,
      "##ାନ୍ୱ": 6754,
      "##ian": 6755,
      "ମଠ": 6756,
      "ଚାକିର": 6757,
      "ଗ୍ରାହକଙ୍କ": 6758,
      "##୍ୟାବ": 6759,
      "ଦେଖିଥିଲେ": 6760,
      "କରୋନାରୁ": 6761,
      "ବ୍ରିଟି": 6762,
      "ସମାଜରେ": 6763,
      "ପୁନର୍ବାର": 6764,
      "ପୁଲ": 6765,
      "ବଢ଼ିବାରେ": 6766,
      "୧୯୪": 6767,
      "ଲଞ୍ଚ": 6768,
      "September": 6769,
      "ସୁଫଳ": 6770,
      "##ାଦେଶ": 6771,
      "ch": 6772,
      "ମିତ୍ର": 6773,
      "ବରଗଡ": 6774,
      "ଲାଇସେ": 6775,
      "##ଜୀବି": 6776,
      "କାଉନ": 6777,
      "##gl": 6778,
      "କ୍ରୀଡ଼": 6779,
      "ୟୁରୋପ": 6780,
      "ଚୌଧୁରୀ": 6781,
      "ଭବନ": 6782,
      "ଭୋଇ": 6783,
      "ମେଷ": 6784,
      "ପାୱାର": 6785,
      "##ଲାଣ୍ଡ": 6786,
      "ଅଂଚଳର": 6787,
      "##ଅନ": 6788,
      "ଦେଓ": 6789,
      "ବସ୍ତୁ": 6790,
      "ପାଇବାରେ": 6791,
      "##ପ୍ରଦ": 6792,
      "ଅଘଟଣ": 6793,
      "ଯୁବତୀଙ୍କ": 6794,
      "ସୁଟିଂ": 6795,
      "##ବିଭାଗ": 6796,
      "##ଲେଟ": 6797,
      "ପ୍ରତିଷ୍ଠ": 6798,
      "ବଦଳାଇ": 6799,
      "##iew": 6800,
      "##ବୃ": 6801,
      "ଲୁଟ୍": 6802,
      "ସମ୍ବେଦନ": 6803,
      "##ଜଗନ୍ନାଥ": 6804,
      "ଦୋ": 6805,
      "ବିଶ୍ଳ": 6806,
      "ବଢ଼ିବ": 6807,
      "ମହଲରେ": 6808,
      "ମହାରଣା": 6809,
      "ଶିକ୍ଷୟିତ୍ରୀ": 6810,
      "ବସିଥିବା": 6811,
      "ଭବିଷ୍ୟତରେ": 6812,
      "ବାର୍": 6813,
      "ଶୋଇବା": 6814,
      "ବୋଧ": 6815,
      "ଆରବ": 6816,
      "##ଚୀ": 6817,
      "##ଷ୍ଟାଗ୍ରାମ": 6818,
      "ରବୀ": 6819,
      "##ଡ୍ର": 6820,
      "ଛାତ୍ରଛାତ୍ରୀଙ୍କୁ": 6821,
      "ବିକ୍ରମ": 6822,
      "ଏହିଭଳି": 6823,
      "##ପ୍ଲ": 6824,
      "##ଗଲାଣି": 6825,
      "ଆଶୀର୍ବାଦ": 6826,
      "ପ୍ଲାଣ୍ଟ": 6827,
      "ଜଷ୍ଟ": 6828,
      "ପଛୁଆ": 6829,
      "ୟୁନିଟ୍": 6830,
      "ତେଲେ": 6831,
      "ସମ୍ବନ୍ଧରେ": 6832,
      "ବିଜେଡ଼ି": 6833,
      "##ପର୍": 6834,
      "ମୃତ୍ୟୁବରଣ": 6835,
      "ଆଭ୍ୟନ୍ତ": 6836,
      "##ical": 6837,
      "କରିଥିବାବେଳେ": 6838,
      "ସହକାରୀ": 6839,
      "##erg": 6840,
      "res": 6841,
      "ଜେଲ୍": 6842,
      "##ଠିରେ": 6843,
      "ଯୋଗ୍ୟତା": 6844,
      "##ଜଣଙ୍କ": 6845,
      "##ୋଳନ": 6846,
      "ସଲମାନ": 6847,
      "ଶାଖା": 6848,
      "Cont": 6849,
      "##line": 6850,
      "ସିଏ": 6851,
      "ସପ୍ତମ": 6852,
      "ହୁଅନ୍ତୁ": 6853,
      "##ଖିଳ": 6854,
      "କରନ୍ତୁଃ": 6855,
      "ବାହାଘର": 6856,
      "##ଚକ": 6857,
      "ଉପରୁ": 6858,
      "ସଂକ୍ରାନ୍ତରେ": 6859,
      "##ିଆନ": 6860,
      "ବକ୍ତବ୍ୟ": 6861,
      "ମୋଟର": 6862,
      "କରାଯାଇପାରେ": 6863,
      "##ଜର୍ସ": 6864,
      "ଚିଲ": 6865,
      "##ୟୀ": 6866,
      "ଇଣ୍ଡିଆର": 6867,
      "##େଟର": 6868,
      "##ଲଙ୍କ": 6869,
      "ମୋଦୀଙ୍କ": 6870,
      "##ମୁଣ୍ଡା": 6871,
      "ପଡିଥିଲା": 6872,
      "##................": 6873,
      "ନେଉଛନ୍ତି": 6874,
      "##ମ୍ୟାନ": 6875,
      "ଗୋଟି": 6876,
      "##ୀଶ": 6877,
      "କର୍ମକ୍ଷେତ୍ରରେ": 6878,
      "##ଜ୍ଞା": 6879,
      "ଦିଆଯାଉ": 6880,
      "ନଦୀରେ": 6881,
      "ପୀଡିତ": 6882,
      "ନଚ": 6883,
      "କହୁଛି": 6884,
      "ପନିପରିବା": 6885,
      "Latest": 6886,
      "ସୋନିଆ": 6887,
      "ଯୌନ": 6888,
      "##ଅପ୍": 6889,
      "##ୟୋଗ": 6890,
      "##gh": 6891,
      "##ପ୍ରକାଶ": 6892,
      "ଶ୍ରୀଜଗନ୍ନାଥ": 6893,
      "ମହାରାଜ": 6894,
      "ଚାମ": 6895,
      "ଲକ୍ଷ୍ନୌ": 6896,
      "ଭାଷଣ": 6897,
      "##ମନ୍ତ": 6898,
      "ଆଇନଜୀବୀ": 6899,
      "ଜନ୍": 6900,
      "##ହିଣୀ": 6901,
      "ପ୍ରୋତ୍ସାହିତ": 6902,
      "ଆଡକୁ": 6903,
      "ପୁଲିସର": 6904,
      "ରତ୍ନ": 6905,
      "ଆଶ୍ୱ": 6906,
      "ଆଣିଛନ୍ତି": 6907,
      "ଚିକିତ୍ସାଳୟ": 6908,
      "ଦମ୍ପତି": 6909,
      "ମାଙ୍କ": 6910,
      "ରବୀନ୍ଦ୍ର": 6911,
      "ତୁଳା": 6912,
      "ସିପ": 6913,
      "ଆନ୍ଦୋଳ": 6914,
      "ପ୍ରଭାବଶାଳୀ": 6915,
      "ମହେ": 6916,
      "ଧ୍ୱ": 6917,
      "ଥାନାକୁ": 6918,
      "ନଗଦ": 6919,
      "ଚାଲୁ": 6920,
      "ଖୁବଶୀଘ୍ର": 6921,
      "ଏଠି": 6922,
      "ଦେଲା": 6923,
      "ମିଡ଼ିଆ": 6924,
      "ଧରିବା": 6925,
      "ସ୍ୱର୍ଣ୍ଣ": 6926,
      "ସ୍ୱାର୍ଥ": 6927,
      "ସ୍ବାଧୀନ": 6928,
      "##୍ୟକ୍ତ": 6929,
      "ଫର୍": 6930,
      "lo": 6931,
      "ବଟ": 6932,
      "ତଦାରଖ": 6933,
      "୮ଟି": 6934,
      "##ଡ଼ର": 6935,
      "ସର୍ତ୍ତ": 6936,
      "ନଥାଏ": 6937,
      "କରିବୁ": 6938,
      "##ବାଲି": 6939,
      "ସଂଗଠନର": 6940,
      "##ାୟନ": 6941,
      "ଚିତ": 6942,
      "##ଥାଆନ୍ତି": 6943,
      "##ଚାଳ": 6944,
      "୪୦୦": 6945,
      "ମାସିକ": 6946,
      "ନିଷ୍ପତ୍ତ": 6947,
      "##ହିର": 6948,
      "##alth": 6949,
      "ହସ୍ତକ୍ଷେପ": 6950,
      "ଗଣନା": 6951,
      "##ଦେବାକୁ": 6952,
      "##ocal": 6953,
      "ଆସିବାକୁ": 6954,
      "ପତାକା": 6955,
      "ଅହମ୍ମଦ": 6956,
      "updated": 6957,
      "##ଟିଭ": 6958,
      "ଅଣ୍ଡା": 6959,
      "୯୩": 6960,
      "##ଲତ": 6961,
      "ଅଫିସରେ": 6962,
      "ହେଲିକପ୍ଟ": 6963,
      "##ସ୍ମିତା": 6964,
      "ବଜେଟ୍": 6965,
      "Rel": 6966,
      "ନୟାଗଡ": 6967,
      "##ଡବ୍ଲ": 6968,
      "##ଭିଲ": 6969,
      "ଯାଇଥାଏ": 6970,
      "ମୂଲ୍ୟରେ": 6971,
      "ମାଧ": 6972,
      "ମହୁ": 6973,
      "ଟ୍ରକ୍": 6974,
      "ତ୍ୟାଗ": 6975,
      "ସ୍କ୍ର": 6976,
      "##ହୂର୍ତ୍ତ": 6977,
      "ହରିୟାଣ": 6978,
      "ସର୍ଭି": 6979,
      "ଭାଗରେ": 6980,
      "##ବେଦ": 6981,
      "ସିଟ୍": 6982,
      "କହନ୍ତି": 6983,
      "ପଳାଇ": 6984,
      "ସଂକଳ୍ପ": 6985,
      "ଖେଳାଯିବ": 6986,
      "ଯାଉଥିଲେ": 6987,
      "ମାଗଣାରେ": 6988,
      "ହିସାବରେ": 6989,
      "କ୍ରିକେଟର": 6990,
      "ସୀମାନ୍ତ": 6991,
      "ବାହୁ": 6992,
      "ପୌ": 6993,
      "ବୃକ୍ଷ": 6994,
      "sp": 6995,
      "##ପିତ": 6996,
      "##ଫୁ": 6997,
      "ଜଳସେଚନ": 6998,
      "ଭାଇରାଲ୍": 6999,
      "ଦସ୍ତ": 7000,
      "Apr": 7001,
      "ଛକରେ": 7002,
      "ଦେହାନ୍ତ": 7003,
      "ଅପରାହ୍ନରେ": 7004,
      "ଶୁଭରଙ୍ଗ": 7005,
      "ପ୍ରତିନିଧ": 7006,
      "ସେଲିବ": 7007,
      "ନାଇ": 7008,
      "##ଭର୍": 7009,
      "ସଙ୍କେତ": 7010,
      "ପତ": 7011,
      "##ରହି": 7012,
      "ତେଲେଙ୍ଗ": 7013,
      "ରପ୍ତ": 7014,
      "time": 7015,
      "##ଡ଼ୁ": 7016,
      "ଆଭ୍ୟନ୍ତରୀଣ": 7017,
      "ତୃଣ": 7018,
      "##ଳତା": 7019,
      "##ଗୁଡିକର": 7020,
      "ରିଟ": 7021,
      "##୍ପର": 7022,
      "##earch": 7023,
      "ଦୁବାଇ": 7024,
      "ପରାଜୟ": 7025,
      "ସମାବ": 7026,
      "ରଶ୍ମ": 7027,
      "ଏକଥା": 7028,
      "ଖାରଜ": 7029,
      "ଗଣଶିକ୍ଷା": 7030,
      "ସ୍ୱୟଂ": 7031,
      "ଷଷ୍ଠ": 7032,
      "ଅସୁବିଧାର": 7033,
      "##ନ୍ଧା": 7034,
      "କାଳିଆ": 7035,
      "ଜାପାନ": 7036,
      "ପଡୁଛି": 7037,
      "ସେଲ୍": 7038,
      "##ଲେଟ୍": 7039,
      "ମେସେ": 7040,
      "##ଶେଖର": 7041,
      "##ାହିକ": 7042,
      "ଗ୍ୟାଙ୍ଗ": 7043,
      "ସମ୍ପାଦ": 7044,
      "##ଞ୍ଚି": 7045,
      "ମହାରାଷ୍ଟ୍ରରେ": 7046,
      "##ନାହାଁନ୍ତି": 7047,
      "ଛାତ୍ରଛାତ୍ରୀମାନେ": 7048,
      "ସମ୍ବେଦନଶୀଳ": 7049,
      "ଆର୍ଟି": 7050,
      "ଜଣାଇବା": 7051,
      "##ପୂର୍ବରୁ": 7052,
      "ପ୍ରକୃତରେ": 7053,
      "##ପୁରର": 7054,
      "ୟୁପି": 7055,
      "ଶ୍ରେଣୀର": 7056,
      "##ଦେବେ": 7057,
      "ଗାଧ": 7058,
      "ଘା": 7059,
      "ଟିପ": 7060,
      "##ସମ୍ପ": 7061,
      "ସୁନୀ": 7062,
      "ଯୋଦ୍ଧା": 7063,
      "##ୂହ": 7064,
      "ମିଥ୍ୟା": 7065,
      "ପ୍ରବା": 7066,
      "ହୋଇପାର": 7067,
      "ସିରିଜ୍": 7068,
      "ପଦ୍ଧତି": 7069,
      "ରାଜ୍ୟସଭା": 7070,
      "##ହାୟ": 7071,
      "##ୋନା": 7072,
      "ମୂଲ୍ୟା": 7073,
      "##ୁରି": 7074,
      "ଗର୍ବ": 7075,
      "ଅବଲମ୍ବନ": 7076,
      "ଗଙ୍ଗା": 7077,
      "କେନାଲ": 7078,
      "ବଜ୍ର": 7079,
      "ଶରତ": 7080,
      "ହୋଇଗଲେ": 7081,
      "ଗ୍ରାମ୍ୟ": 7082,
      "ସଂଗ୍ରହା": 7083,
      "ନାକ": 7084,
      "ମନୋନୀତ": 7085,
      "ଅରବିନ୍ଦ": 7086,
      "##ଁଶ": 7087,
      "ପାଉଥିବା": 7088,
      "ଅଧା": 7089,
      "ପୁରାତନ": 7090,
      "ଧୋନି": 7091,
      "##ାବଳି": 7092,
      "ପ୍ରତ୍ୟକ୍ଷ": 7093,
      "##ପ୍ରସାଦ": 7094,
      "##ଡ଼ାନ୍ତ": 7095,
      "ସେଭଳି": 7096,
      "ନିରନ୍ତର": 7097,
      "ବଲିଉଡ୍": 7098,
      "ସିଦ୍ଧୁ": 7099,
      "##ତରେ": 7100,
      "##ାମେଣ୍ଟ": 7101,
      "ଗଣ୍ଡ": 7102,
      "ଜାଣନ୍ତି": 7103,
      "ଶିଖର": 7104,
      "ଦଖଲ": 7105,
      "##ାସିତ": 7106,
      "ପୁରୀରେ": 7107,
      "ସ୍ପେଶାଲ": 7108,
      "ରଚନା": 7109,
      "50": 7110,
      "it": 7111,
      "##ଭାଷ": 7112,
      "##ild": 7113,
      "ଲୁଟେରା": 7114,
      "ଜଷ୍ଟିସ": 7115,
      "ପ୍ରଗତି": 7116,
      "ତୁଳସୀ": 7117,
      "ନାହାଁନ୍ତି": 7118,
      "##ପାଠ": 7119,
      "##ah": 7120,
      "ଐତି": 7121,
      "ସାଙ୍ଗରେ": 7122,
      "Engl": 7123,
      "ବ୍ୟାପ": 7124,
      "ମାତ୍ରେ": 7125,
      "##ାନ୍ତ୍ରିକ": 7126,
      "ବେଗରେ": 7127,
      "##ାପାଇଁ": 7128,
      "ସେକେ": 7129,
      "କ୍ଲାସ": 7130,
      "##gle": 7131,
      "ବୁଝିବା": 7132,
      "ମସ୍ତି": 7133,
      "ଦିଆଯାଏ": 7134,
      ")-": 7135,
      "କ୍ୱାରେଣ୍ଟ": 7136,
      "ଟୋକିଓ": 7137,
      "##ସଭାର": 7138,
      "ଭାଜପା": 7139,
      "##ସଂଖ୍ୟ": 7140,
      "ଗ୍ୟାଲେ": 7141,
      "##େନର": 7142,
      "କହିବ": 7143,
      "ମୁମ୍ବାଇରେ": 7144,
      "ଛାତ": 7145,
      "ଲୁଚ": 7146,
      "ଶୌ": 7147,
      "ସ୍କୁଲ୍": 7148,
      "ପୈ": 7149,
      "କରିଦେଇଥିଲେ": 7150,
      "୨୦୧୩": 7151,
      "ସାମନ୍ତ": 7152,
      "ଟୁର୍ଣ୍ଣ": 7153,
      "January": 7154,
      "ସାବଧାନ": 7155,
      "ଭର୍ଚ": 7156,
      "##ମ୍ଭବ": 7157,
      "ଝାରସୁଗୁଡା": 7158,
      "##ଡାର": 7159,
      "କଟକରେ": 7160,
      "କୋଣାର୍କ": 7161,
      "ଆବି": 7162,
      "ହଷ୍ଟ": 7163,
      "ପ୍ରତିଭା": 7164,
      "ଗଣମାଧ୍ୟମକୁ": 7165,
      "ମୃତ୍ୟୁର": 7166,
      "ଲାଇସେନ୍ସ": 7167,
      "##େଧ": 7168,
      "କାର୍ଯ୍ୟକାର": 7169,
      "ସଂଗୀତ": 7170,
      "##ଗୃହ": 7171,
      "ସାମୁଦ୍ର": 7172,
      "ପ୍ଲେ": 7173,
      "##ଢ଼ୀ": 7174,
      "ଦିଆଯିବା": 7175,
      "ପ୍ରତୀକ": 7176,
      "ବାଛ": 7177,
      "##ଣେ": 7178,
      "##ther": 7179,
      "ଅପରପକ୍ଷରେ": 7180,
      "ବିଶ୍ଳେଷଣ": 7181,
      "##ମ୍ପର୍କ": 7182,
      "ବାଙ୍ଗ": 7183,
      "ଅନୁଗୋଳ": 7184,
      "ଘେର": 7185,
      "ଇଣ୍ଡଷ୍ଟ୍ର": 7186,
      "ସକ": 7187,
      "ହାରା": 7188,
      "ମ୍ୟାନେ": 7189,
      "ରାଜେନ୍ଦ୍ର": 7190,
      "data": 7191,
      "ସମନ୍ୱ": 7192,
      "ଜୋନ୍": 7193,
      "ବଲ୍": 7194,
      "ଖୋଜି": 7195,
      "ବିଦ୍ୟାର୍ଥୀ": 7196,
      "ପ୍ରସାରଣ": 7197,
      "##ୃଶ": 7198,
      "##ିନର": 7199,
      "##ହ୍ନା": 7200,
      "ନିରବ": 7201,
      "ଅନୁସରଣ": 7202,
      "ଅମିତା": 7203,
      "ରାଜୀବ": 7204,
      "ଜନସାଧାରଣଙ୍କ": 7205,
      "ବିଏମସି": 7206,
      "ବେସର": 7207,
      "ସ୍ବର": 7208,
      "ସୀତ": 7209,
      "ଜଣିଆ": 7210,
      "ଏଜେ": 7211,
      "ପେନ": 7212,
      "ଷଡ": 7213,
      "##ଷେକ": 7214,
      "ସରକାରଙ୍କର": 7215,
      "website": 7216,
      "କୁହାଯାଇଥିଲା": 7217,
      "Pow": 7218,
      "##ise": 7219,
      "ରିଜର୍ଭ": 7220,
      "##ହେତୁ": 7221,
      "ପ୍ରଫୁଲ୍ଲ": 7222,
      "ସଂକେତ": 7223,
      "ସାମୁଦ୍ରିକ": 7224,
      "ଖସ": 7225,
      "ସଂକ୍ରମଣକୁ": 7226,
      "ଆରାଧନା": 7227,
      "ମର": 7228,
      "କାଗଜପତ୍ର": 7229,
      "##ିଲାରେ": 7230,
      "ଗିରି": 7231,
      "ସିଧା": 7232,
      "ଶବକୁ": 7233,
      "ସଙ୍ଗଠନ": 7234,
      "##ସ୍କୁ": 7235,
      "ଷ୍ଟାଡିୟମ": 7236,
      "ସକାରାତ୍ମକ": 7237,
      "ନିନ୍ଦା": 7238,
      "ଜେଲରେ": 7239,
      "##ୟମ୍": 7240,
      "ଶେୟାର": 7241,
      "##ଜୀବନ": 7242,
      "ପୁଅକୁ": 7243,
      "ଚ୍ୟାନେଲ": 7244,
      "ମୁହୂର୍ତ୍ତ": 7245,
      "##mp": 7246,
      "##ମୁକ୍ତ": 7247,
      "ଡେଇଁ": 7248,
      "ସଫେଇ": 7249,
      "Your": 7250,
      "ଚାଲୁଥିବା": 7251,
      "ସମାଜସ": 7252,
      "ଆଜିକା": 7253,
      "ଆମଦ": 7254,
      "ପ୍ରକ୍ରିୟାରେ": 7255,
      "ସମ୍ପ୍ରଦାୟ": 7256,
      "ସଂଯୁକ୍ତ": 7257,
      "କ୍ରମରେ": 7258,
      "କରିଦେଇଛନ୍ତି": 7259,
      "ପ୍ରତିଷ୍ଠିତ": 7260,
      "ହାଇକୋର୍ଟରେ": 7261,
      "ଏପଟେ": 7262,
      "ଶ୍ରେଣୀରେ": 7263,
      "ଇର": 7264,
      "ବିବିଧ": 7265,
      "ବିବେକ": 7266,
      "##ମାନର": 7267,
      "ରୟାଲ": 7268,
      "ଆଇନ୍": 7269,
      "##ାତିକ": 7270,
      "##ାଧୀନ": 7271,
      "ନିର୍ଯାତନା": 7272,
      "##ଖେମୁ": 7273,
      "ପାଇବାକୁ": 7274,
      "ଦୁର୍ଗା": 7275,
      "ତିନିଟି": 7276,
      "ବୋହୂ": 7277,
      "ଅଗ୍ରଣୀ": 7278,
      "ସର୍ବସାଧାରଣ": 7279,
      "ଇନ୍ଦ୍ର": 7280,
      "।[": 7281,
      "##ମ୍ବିତ": 7282,
      "ଆଇପିଏଲ୍": 7283,
      "##ଓ୍ବା": 7284,
      "##crib": 7285,
      "##ସିଟି": 7286,
      "ଲକ୍ଷା": 7287,
      "ଆସିଥାଏ": 7288,
      "ଚୂଡ଼ାନ୍ତ": 7289,
      "##ସକୁ": 7290,
      "ଅନୁପ୍ର": 7291,
      "ବ୍ୟବସ୍ଥାରେ": 7292,
      "ସବୁକିଛି": 7293,
      "ମହେନ୍ଦ୍ର": 7294,
      "ଅର୍ଜୁନ": 7295,
      "##all": 7296,
      "##ଗୁଣ": 7297,
      "English": 7298,
      "ଅପରାହ୍": 7299,
      "ବ୍ୟାଙ୍କର": 7300,
      "ପୂଜାର": 7301,
      "ଝିଅର": 7302,
      "##କୋଟ": 7303,
      "##ଫ୍ୟୁ": 7304,
      "ନଚେତ": 7305,
      "ଏଫ୍": 7306,
      "##ram": 7307,
      "ଐତିହ୍ୟ": 7308,
      "ଆକ୍ସ": 7309,
      "ରାଣୀ": 7310,
      "##ଦାରୀ": 7311,
      "ମାଫିଆ": 7312,
      "୩ଜଣ": 7313,
      "ନେତୃତ୍ବ": 7314,
      "##ସିଆର": 7315,
      "2017": 7316,
      "##ାଙ୍କୁ": 7317,
      "ପ୍ରବାହ": 7318,
      "ଖଣ୍ଡପୀଠ": 7319,
      "##ight": 7320,
      "add": 7321,
      "##ାଉଥିଲେ": 7322,
      "ଜୀବିକା": 7323,
      "##ସ୍ପର୍ଶ": 7324,
      "ଅମଳ": 7325,
      "ଫରେ": 7326,
      "ବିନିମୟ": 7327,
      "କୀ": 7328,
      "କେନ୍ଦ୍ରକୁ": 7329,
      "ମୂଲ୍ୟବାନ": 7330,
      "ଡେପ": 7331,
      "ବହନ": 7332,
      "ବେପ": 7333,
      "ରହିଥିବାରୁ": 7334,
      "ଲକଡାଉନ": 7335,
      "ବାପାଙ୍କ": 7336,
      "ପରିବେଷଣ": 7337,
      "ମେରି": 7338,
      "##ାସି": 7339,
      "ଭାରିଆଣ୍ଟ": 7340,
      "ଭଣ୍ଡାର": 7341,
      "##ବେଶ": 7342,
      "all": 7343,
      "ମଧ୍ଯ": 7344,
      "##ାବିତ୍": 7345,
      "ପର୍ବତ": 7346,
      "ବେଗ": 7347,
      "cl": 7348,
      "ନକାରାତ୍ମକ": 7349,
      "ଫିଟ": 7350,
      "ପ୍ରତିକାର": 7351,
      "ଲେଖକ": 7352,
      "ଆଲୋଚ": 7353,
      "ଦାୟିତ୍ୱରେ": 7354,
      "ଲକ୍ଷାଧିକ": 7355,
      "ହେଉଥିବାରୁ": 7356,
      "ୱେଷ୍ଟ": 7357,
      "ଟିକାର": 7358,
      "##lso": 7359,
      "ଗୁଡିକୁ": 7360,
      "ପମ୍ପ": 7361,
      "କାର୍ଯ୍ୟକ୍ଷମ": 7362,
      "ମେଡ଼ିକ": 7363,
      "ମୃତଦେହକୁ": 7364,
      "ବିଷୟବସ୍ତୁ": 7365,
      "ରାୟଗଡା": 7366,
      "Email": 7367,
      "##ଚଳିତ": 7368,
      "ଟିକେଟ୍": 7369,
      "##over": 7370,
      "ମଜା": 7371,
      "ତୁମ": 7372,
      "##ମୁଖୀ": 7373,
      "ଏହିସବୁ": 7374,
      "ଜଣାପଡ": 7375,
      "ମୁମ୍ବାଇର": 7376,
      "https": 7377,
      "ଭୟରେ": 7378,
      "ଗ୍ୟାସ୍": 7379,
      "ଅଭାବରୁ": 7380,
      "ଗୋଆ": 7381,
      "##ell": 7382,
      "ଉପାୟରେ": 7383,
      "ଦିଲ": 7384,
      "##ଭଣ୍ଡାର": 7385,
      "ବିଜ୍ଞାପନ": 7386,
      "ଆଇଆଇସି": 7387,
      "ପାରା": 7388,
      "Last": 7389,
      "ଅଗ୍ନିକାଣ୍ଡ": 7390,
      "##ଲିଖିତ": 7391,
      "fi": 7392,
      "ଷ୍ଟୋର": 7393,
      "##ଦକୁ": 7394,
      "ବ୍ରିଟିଶ": 7395,
      "ପ୍ରମାଣପତ୍ର": 7396,
      "ହେବାପରେ": 7397,
      "ଟନ୍": 7398,
      "କାରଖାନା": 7399,
      "ଛେ": 7400,
      "ଅଷ୍ଟମ": 7401,
      "ମହାତ୍ମ": 7402,
      "Powered": 7403,
      "ଢାଞ୍ଚ": 7404,
      "ବିୟୋଗ": 7405,
      "ଚୋ": 7406,
      "##ଭୂଷଣ": 7407,
      "##ସ୍ଥାପିତ": 7408,
      "##ରୀରେ": 7409,
      "ଚାକିରୀ": 7410,
      "##ବାଡ଼ି": 7411,
      "ଖାତା": 7412,
      "ସଫ୍ଟ": 7413,
      "ଆସନରୁ": 7414,
      "ଝୁଲ": 7415,
      "##ବୋଧ": 7416,
      "ରାକେଶ": 7417,
      "ଚର୍ଚ୍ଚାର": 7418,
      "ମରୁ": 7419,
      "ରିଲିଜ": 7420,
      "ସ୍ୱେ": 7421,
      "ଡ଼ି": 7422,
      "ଚିର": 7423,
      "ଭିତର": 7424,
      "ଗ୍ରୁପ୍": 7425,
      "ଦୁହିଁ": 7426,
      "##ିଆରେ": 7427,
      "ପିନ୍ଧିବା": 7428,
      "##ିକାରୀ": 7429,
      "ପ୍ରବାସୀ": 7430,
      "ବିଶ୍ୱବିଦ୍ୟାଳୟର": 7431,
      "de": 7432,
      "ସହଯୋଗରେ": 7433,
      "ଅଚଳ": 7434,
      "କ୍ଲବ": 7435,
      "ତାଲା": 7436,
      "ଚନ୍ଦ୍ରଶେଖର": 7437,
      "ହେକ୍ଟର": 7438,
      "ଚଳାଇ": 7439,
      "##କଡ଼ି": 7440,
      "ଭତ୍ତା": 7441,
      "##ଶୈ": 7442,
      "ଏହାପୂର୍ବରୁ": 7443,
      "##ance": 7444,
      "ବଢୁଛି": 7445,
      "##day": 7446,
      "ମଜବୁ": 7447,
      "##ational": 7448,
      "ପ୍ରତିଦ୍ୱନ୍ଦ୍ୱ": 7449,
      "ସିଇଓ": 7450,
      "ଅମ୍ଳ": 7451,
      "ପରିଷଦର": 7452,
      "ବେସରକାରୀ": 7453,
      "ମତେ": 7454,
      "ନିର୍ବାହୀ": 7455,
      "##ନ୍ନା": 7456,
      "Related": 7457,
      "ଖେଳିବା": 7458,
      "ବିଦ୍ରୋହ": 7459,
      "##ସିର": 7460,
      "ଗାନ୍ଧୀଙ୍କ": 7461,
      "ସାନିଟ": 7462,
      "ଷ୍ଟାଡିୟମରେ": 7463,
      "ମଣ": 7464,
      "ଧନୀ": 7465,
      "ସିନ୍ଦ": 7466,
      "କିଟ୍": 7467,
      "ଉପଜିଲ୍ଲ": 7468,
      "##ଖୀ": 7469,
      "##ଷ୍ଟା": 7470,
      "ସାମିଲ୍": 7471,
      "##ଚ୍ଛାସ": 7472,
      "ଯେହେତୁ": 7473,
      "ଜୁଆ": 7474,
      "ଲାଇନ୍": 7475,
      "##ସ୍ରେ": 7476,
      "##ଯାତ୍ରାରେ": 7477,
      "ଆନ୍ତର୍ଜ": 7478,
      "ସୁଦୃଢ଼": 7479,
      "ଫ୍ରେ": 7480,
      "ରଣବୀର": 7481,
      "Editor": 7482,
      "ଅଳଙ୍କାର": 7483,
      "ବେଦ": 7484,
      "ଉପଭୋଗ": 7485,
      "ପରିଣାମ": 7486,
      "ବାଉ": 7487,
      "ପାର୍ଟିର": 7488,
      "##ack": 7489,
      "##ଯାବ": 7490,
      "ଅପଡ": 7491,
      "ଟାଇଟ": 7492,
      "##ଚେର": 7493,
      "##ice": 7494,
      "ସୁଇ": 7495,
      "ପୀଡ଼ିତ": 7496,
      "##oogle": 7497,
      "one": 7498,
      "ନେପାଳ": 7499,
      "ନିଆରା": 7500,
      "##ମଧ୍ୟରେ": 7501,
      "ଅସହାୟ": 7502,
      "ସେନାର": 7503,
      "ସାମରିକ": 7504,
      "ହାରାହାରି": 7505,
      "ମନି": 7506,
      "ପରିଡ଼ା": 7507,
      "##ଆସୁ": 7508,
      "କଲ୍": 7509,
      "ଗଡ଼": 7510,
      "ଅନୁସୂ": 7511,
      "ମଣ୍ଡଳୀ": 7512,
      "ଫ୍ୟା": 7513,
      "ସୁବର୍ଣ୍ଣପୁର": 7514,
      "ଯେଉଁଥିପାଇଁ": 7515,
      "କଂପ": 7516,
      "ଭକ୍ତଙ୍କ": 7517,
      "##ଣ୍ୟ": 7518,
      "ଚେହେରା": 7519,
      "##ସ୍ତରରେ": 7520,
      "ସାର୍ଟିଫ": 7521,
      "ରାଜେଶ": 7522,
      "ଟଙ୍କାରୁ": 7523,
      "ତିର": 7524,
      "ସ୍ଥାପ": 7525,
      "ଗଂଜ": 7526,
      "ଅଟକାଇ": 7527,
      "ଠିକାଦାର": 7528,
      "ଗୃହିଣୀ": 7529,
      "ଦାନ୍ତ": 7530,
      "କଣ୍ଠ": 7531,
      "ରାଲି": 7532,
      "ଖେଳାଳିଙ୍କ": 7533,
      "ଏହାଛଡ଼ା": 7534,
      "##ଯିବାରୁ": 7535,
      "ବିଜେପିକୁ": 7536,
      "ଅଖିଳ": 7537,
      "ଉପୁଜି": 7538,
      "ଚାମଚ": 7539,
      "ନେଉଥିବା": 7540,
      "ପାରାଦୀପ": 7541,
      "ଗୋଡ଼": 7542,
      "ଉଭୟଙ୍କୁ": 7543,
      "ମ୍ୟାନେଜର": 7544,
      "ଓହ୍ଲାଇ": 7545,
      "##ସ୍ତାନୀ": 7546,
      "ସୌଭାଗ୍ୟ": 7547,
      "ଗୁଳ": 7548,
      "##ech": 7549,
      "##ିକତା": 7550,
      "ଆଇଏ": 7551,
      "ସଦାପ୍ର": 7552,
      "ଏଲ୍": 7553,
      "##ya": 7554,
      "ଆଜିଠାରୁ": 7555,
      "ୟେଲୋ": 7556,
      "##ତ୍ରୀ": 7557,
      "##ଧିନ": 7558,
      "୨୦୧୨": 7559,
      "ଗୃହମନ୍ତ୍ରୀ": 7560,
      "ଯୁବତୀଙ୍କୁ": 7561,
      "ସାଗର": 7562,
      "ଡିଭି": 7563,
      "ପାହାଡ଼": 7564,
      "ସଂସ୍କରଣ": 7565,
      "ଉପଜିଲ୍ଲାପାଳ": 7566,
      "April": 7567,
      "ମଣ୍ଡପ": 7568,
      "##ଏସପି": 7569,
      "##ସ୍କୋ": 7570,
      "ଝୁ": 7571,
      "ସଦାପ୍ରଭୁ": 7572,
      "ଡେଲ": 7573,
      "ଅଭିଯୋଗକୁ": 7574,
      "ବନ୍ଧୁଙ୍କ": 7575,
      "ଦାମ୍": 7576,
      "ମାନି": 7577,
      "ଆସୁଥିଲେ": 7578,
      "ସୋସିଆଲ୍": 7579,
      "ଚେୟାର": 7580,
      "ନଳ": 7581,
      "ଡିସିପି": 7582,
      "ଶାସ୍ତ": 7583,
      "##one": 7584,
      "ଲୁହା": 7585,
      "ସେନାପତି": 7586,
      "has": 7587,
      "ଉଠିଛି": 7588,
      "ପରିବର୍ତ": 7589,
      "ଉଡ": 7590,
      "ତତ୍ତ୍ୱ": 7591,
      "ଅକ୍ସିଜେନ": 7592,
      "ଫାଷ୍ଟ": 7593,
      "କପ୍": 7594,
      "ଛଅ": 7595,
      "ପୃଥିବୀର": 7596,
      "ବିଶ୍ବାସ": 7597,
      "ଉର୍": 7598,
      "ପ୍ରଦର୍ଶିତ": 7599,
      "March": 7600,
      "ଏଡି": 7601,
      "ନିଦ": 7602,
      "##cl": 7603,
      "ସାର୍ବଜନ": 7604,
      "ଅଭିନବ": 7605,
      "ଠିକଣା": 7606,
      "ହୋଇପାରିବେ": 7607,
      "ଅମିତାଭ": 7608,
      "ଆନ୍ତର୍ଜାତିକ": 7609,
      "##ଜଲ": 7610,
      "ଇମ୍ରାନ": 7611,
      "ଶତପଥ": 7612,
      "##ଭାରତ": 7613,
      "ଆଜିକାଲି": 7614,
      "ଫ୍ରି": 7615,
      "ଦାଦ": 7616,
      "ଶୁଖିଲା": 7617,
      "କ୍ବ": 7618,
      "ରେଖା": 7619,
      "ପର୍ଯ୍ୟାପ୍ତ": 7620,
      "ବାସୁ": 7621,
      "ପରିଲ": 7622,
      "ଦୁନିଆରେ": 7623,
      "ସଂସ୍ଥାର": 7624,
      "ସ୍ଥାନରୁ": 7625,
      "ଟୁଇଟ୍": 7626,
      "କଲେଜର": 7627,
      "##ction": 7628,
      "ନୋଟ": 7629,
      "ଜଣାପଡ଼": 7630,
      "##ue": 7631,
      "##ଯେ": 7632,
      "##ଡିପିଓ": 7633,
      "ଟ୍ରାଫିକ": 7634,
      "କୋଟିରୁ": 7635,
      "##ach": 7636,
      "ନିୟମକୁ": 7637,
      "ବିତି": 7638,
      "ଅସ୍ଥାୟୀ": 7639,
      "ଡୁ": 7640,
      "ଦ୍ରେ": 7641,
      "ଦୀପାବଳି": 7642,
      "ହସପିଟାଲ": 7643,
      "ଉଲ": 7644,
      "ନିହାତି": 7645,
      "ସଦସ୍ୟମାନେ": 7646,
      "ପ୍ରବାହିତ": 7647,
      "##ଳ୍କ": 7648,
      "ହଷ୍ଟେଲ": 7649,
      "ଲାଞ୍ଚ": 7650,
      "##ବତୀ": 7651,
      "ହୋଇଯାଇଥିବା": 7652,
      "##ାପ୍ରାପ୍ତ": 7653,
      "##ସଙ୍ଗ": 7654,
      "ଦେଖାଯାଉଛି": 7655,
      "ଗୁଡିକରେ": 7656,
      "ନନ୍ଦନ": 7657,
      "ପୁଞ୍ଜି": 7658,
      "ଆକାରରେ": 7659,
      "##କାରୀମାନେ": 7660,
      "##ୋଗ୍ରା": 7661,
      "କଡ଼ାକଡ଼ି": 7662,
      "ଆଳୁ": 7663,
      "##ାୟତି": 7664,
      "##େୟ": 7665,
      "ଦିବସରେ": 7666,
      "##ନାଶ": 7667,
      "##ବ୍ୟତୀତ": 7668,
      "ସୁନ": 7669,
      "ସର୍କ": 7670,
      "ସିଷ୍ଟମ": 7671,
      "ସାରିଛନ୍ତି": 7672,
      "ହଲ": 7673,
      "ହଳଦିଆ": 7674,
      "ସ୍ୱର୍ଗତ": 7675,
      "କବାଟ": 7676,
      "##able": 7677,
      "##ଥାଇ": 7678,
      "ମାରିବା": 7679,
      "ଛଡ଼ା": 7680,
      "ଚଳାଇଛି": 7681,
      "##ଡେନ୍": 7682,
      "ଛିଡ଼ା": 7683,
      "ନିର୍ଣ୍ଣ": 7684,
      "ଏକତ୍ର": 7685,
      "ଟେବୁଲ": 7686,
      "ନଦୀର": 7687,
      "##ଳେ": 7688,
      "ଉପନିର୍ବାଚନ": 7689,
      "##ଭଲ": 7690,
      "ଆର୍ଯ୍ୟ": 7691,
      "ପରିଡା": 7692,
      "ମାରିଥିଲେ": 7693,
      "ପ୍ରକ୍ରିୟାକୁ": 7694,
      "ମାଧ୍ୟମ": 7695,
      "ଦେଇପାରିବେ": 7696,
      "ଦେଶୀ": 7697,
      "ନିମ୍ନଲିଖିତ": 7698,
      "ସମାବେଶ": 7699,
      "##ans": 7700,
      "ପତ୍ନୀଙ୍କ": 7701,
      "ଡାଉନ": 7702,
      "ଭିଡ": 7703,
      "##ବିଦ୍ୟାଳୟରେ": 7704,
      "ମନୁଷ୍ୟ": 7705,
      "ଜାହାଜ": 7706,
      "hours": 7707,
      "ଅଭିଭାବକ": 7708,
      "ଅଭିଯୁକ୍ତଙ୍କ": 7709,
      "ଭାସ୍କର": 7710,
      "ଯୁଗ୍ମ": 7711,
      "sc": 7712,
      "##କୁଳ": 7713,
      "ଅଗ୍ରୱାଲ": 7714,
      "ମେୟର": 7715,
      "ସମାଜସେବୀ": 7716,
      "କଟକରୁ": 7717,
      "ନ୍ୟାସନାଲ": 7718,
      "ନିଷ୍ଠ": 7719,
      "##୍ୱଳ": 7720,
      "ହଁ": 7721,
      "ଅଂଚଳ": 7722,
      "କରିଦିଆ": 7723,
      "ୟୁକ୍ରେନ୍": 7724,
      "##ner": 7725,
      "##ire": 7726,
      "ଡାଏ": 7727,
      "ମିଠା": 7728,
      "ବେତନ": 7729,
      "As": 7730,
      "ସେତୁ": 7731,
      "ସ୍ମାରକ": 7732,
      "ମୁର": 7733,
      "ସ୍ତରୀୟ": 7734,
      "ଅଭିଯୁକ୍ତକୁ": 7735,
      "ହଟାଇ": 7736,
      "ସଂକ୍ରମଣର": 7737,
      "##are": 7738,
      "ଟିକି": 7739,
      "ଏଚ": 7740,
      "##ାପର": 7741,
      "##ନ୍ଧି": 7742,
      "କୁନି": 7743,
      "ଘାଟ": 7744,
      "##େପଣ": 7745,
      "ଶୌଚ": 7746,
      "##ories": 7747,
      "##ww": 7748,
      "ମଧୁମେ": 7749,
      "ଦେଖାଯାଇଛି": 7750,
      "ସୁଧା": 7751,
      "ଚିନ୍ତିତ": 7752,
      "୨୦୦୦": 7753,
      "ବାଲେଶ୍ଵର": 7754,
      "ଖୋଲିବାକୁ": 7755,
      "ଜିତିବା": 7756,
      "ଚାହୁଁଛି": 7757,
      "ଶୈଳୀ": 7758,
      "ସୁବାସ": 7759,
      "ରାମଚନ୍ଦ୍ର": 7760,
      "ନାଳ": 7761,
      "##ିକ୍ରମା": 7762,
      "##ୟାମ": 7763,
      "##ଧାରେ": 7764,
      "ଉପରୋ": 7765,
      "ପୋଷ୍ଟର": 7766,
      "ମିଳୁଥିବା": 7767,
      "##ଏନ୍ସ": 7768,
      "##ଶତକ": 7769,
      "କୋଭିଡ଼": 7770,
      "୨୦୧୧": 7771,
      "ରେଲ": 7772,
      "ତୃଣମୂଳ": 7773,
      "##େବେଳେ": 7774,
      "ପକ୍ଷରେ": 7775,
      "ଅପମାନ": 7776,
      "୪ଜଣ": 7777,
      "ଉପରୋକ୍ତ": 7778,
      "ରକ୍ଷଣ": 7779,
      "ତ୍ୱ": 7780,
      "ରୋଡ": 7781,
      "ଠା": 7782,
      "ସର୍ଚ୍ଚ": 7783,
      "ଆଖିରେ": 7784,
      "କାନ୍ଦ": 7785,
      "##୍ତା": 7786,
      "##ୋଲ୍": 7787,
      "ମହୋତ୍ସବ": 7788,
      "##କମ୍ପ": 7789,
      "ଅପରାଧୀ": 7790,
      "ରଘୁନାଥ": 7791,
      "ପାଇଲେ": 7792,
      "##ିକୋଣ": 7793,
      "Sub": 7794,
      "ଟୀକାକରଣ": 7795,
      "ଖୁସିର": 7796,
      "କାଣ୍ଡ": 7797,
      "ମାଟିରେ": 7798,
      "ଲୁଚି": 7799,
      "ଖୋଲିବ": 7800,
      "ଡୋ": 7801,
      "ମେଲ": 7802,
      "www": 7803,
      "name": 7804,
      "ଆଶିଷ": 7805,
      "##cribe": 7806,
      "ବାସ୍ତୁ": 7807,
      "ପାଟଣା": 7808,
      "##ଫୋନ": 7809,
      "##ଗୁଡ଼ା": 7810,
      "ଉପାଧ୍ୟକ୍ଷ": 7811,
      "##nder": 7812,
      "ଟ୍ରଫି": 7813,
      "ବଢିବ": 7814,
      "ଦୀପିକା": 7815,
      "ଫାଉଣ୍ଡ": 7816,
      "ଦୁଇଦିନ": 7817,
      "ପଡିଆ": 7818,
      "##ବସ୍ଥା": 7819,
      "ପ୍ୟାକେ": 7820,
      "ସଚିନ": 7821,
      "ଆତ୍ମବି": 7822,
      "କଥାରେ": 7823,
      "''": 7824,
      "##ାର୍ଲ": 7825,
      "Search": 7826,
      "ଗାର୍ଡ": 7827,
      "##ରିଟି": 7828,
      "ବିଶ୍ୱକପ୍": 7829,
      "##ୀକୃତି": 7830,
      "##ପୁଟ": 7831,
      "ଖୋଜିବା": 7832,
      "ଖୁଣ୍ଟ": 7833,
      "ଥାଆନ୍ତି": 7834,
      "ଯଥାକ୍ରମେ": 7835,
      "ପାରଳା": 7836,
      "##େସନ": 7837,
      "ଦୀର୍ଘଦିନ": 7838,
      "ସଂଯୋଜକ": 7839,
      "ପରିକ୍ରମା": 7840,
      "ଯୋଜନାକୁ": 7841,
      "ସୋର": 7842,
      "##ାନ୍ୱିତ": 7843,
      "##ଉଛି": 7844,
      "ଭୋକ": 7845,
      "ସିଙ୍ଗ": 7846,
      "##ଦାମ": 7847,
      "ମିଳିନାହିଁ": 7848,
      "ଗ୍ରାହକଙ୍କୁ": 7849,
      "ନାବାଳକ": 7850,
      "##ଖେମୁଣ୍ଡି": 7851,
      "ଉତ୍ତୋଳନ": 7852,
      "##etw": 7853,
      "ମାମଲାକୁ": 7854,
      "##ଓ୍ୱ": 7855,
      "ମିଳିପାରେ": 7856,
      "ପନ୍ତ": 7857,
      "ନିର୍ବାଚନୀ": 7858,
      "ଶ୍ରେୟ": 7859,
      "ଅଭିଜ୍ଞତା": 7860,
      "ଅନୁଭୂତି": 7861,
      "##ାଜନକ": 7862,
      "ମୋହ": 7863,
      "ଜାଗା": 7864,
      "ପ୍ରତିଷ୍ଠାତା": 7865,
      "ପହଁଚି": 7866,
      "##ସେନାର": 7867,
      "କପି": 7868,
      "##ଜଳ": 7869,
      "ରାଉତରାୟ": 7870,
      "content": 7871,
      "ହୋମ": 7872,
      "ସେକ୍ସ": 7873,
      "##ଇଣ୍ଡି": 7874,
      "୨୦୧୯ରେ": 7875,
      "ବ୍ରଜ": 7876,
      "ବୋତ": 7877,
      "ମହାରାଷ୍ଟ୍ରର": 7878,
      "ଖଟ": 7879,
      "ନୋଟିସ": 7880,
      "ଆଇସିସି": 7881,
      "##ource": 7882,
      "ଲେମ୍ବୁ": 7883,
      "##ୂତ": 7884,
      "##ନଙ୍କୁ": 7885,
      "ହଠାତ": 7886,
      "ନିଲାମ": 7887,
      "ମୁଦ୍ରା": 7888,
      "##ital": 7889,
      "ଦିଆଗଲା": 7890,
      "ବର୍ଗରେ": 7891,
      "ଖାସ୍": 7892,
      "##ଙ୍ଘ": 7893,
      "##ହାନ": 7894,
      "ସାରିଛି": 7895,
      "ପରିଲକ୍ଷିତ": 7896,
      "ଅସ୍ତ": 7897,
      "fiel": 7898,
      "##cc": 7899,
      "##ସାନ": 7900,
      "କନିଷ୍ଠ": 7901,
      "ବାନାର୍ଜୀ": 7902,
      "କୁଶ": 7903,
      "##ଲାଇନରେ": 7904,
      "ହାଲୁ": 7905,
      "ଝଗ": 7906,
      "##ରିରେ": 7907,
      "ଟେଷ୍ଟ୍": 7908,
      "ସମ୍ବଳ": 7909,
      "ଲେଖିଥିଲେ": 7910,
      "ଭରସା": 7911,
      "ଭୀମ": 7912,
      "ମାନ୍ୟବର": 7913,
      "ନିର୍ବାହ": 7914,
      "ନକ୍ସଲ": 7915,
      "ଅତ୍ୟାବ": 7916,
      "##ୋପା": 7917,
      "ପ୍ରାପ୍ତି": 7918,
      "ଓ୍ୱ": 7919,
      "ଜଷ୍ଟି": 7920,
      "ଅନିୟ": 7921,
      "୧୦୮": 7922,
      "##ନ୍ତ୍ରିତ": 7923,
      "##୍ରୋଲ": 7924,
      "ନିତ": 7925,
      "ଗଲ": 7926,
      "##ଥାନ": 7927,
      "ବିଶ୍ବବିଦ୍ୟାଳୟ": 7928,
      "ନୀଳଗିରି": 7929,
      "ଦର୍ଶକଙ୍କ": 7930,
      "##ଣ୍ଡ୍": 7931,
      "##ଟିପି": 7932,
      "ବ୍ୟାପି": 7933,
      "କର୍ଣ୍ଣ": 7934,
      "##ନୀତିକୁ": 7935,
      "ଚିକିତ୍ସାଳୟରେ": 7936,
      "ବିଚ": 7937,
      "ନଜ": 7938,
      "ମୁକାବିଲାରେ": 7939,
      "କଞ୍ଚ": 7940,
      "ବଣ": 7941,
      "ବାନ୍ଧ": 7942,
      "40": 7943,
      "ଶୀର୍ଷକ": 7944,
      "ବିହନ": 7945,
      "ସହେ": 7946,
      "##ାମାନଙ୍କର": 7947,
      "sh": 7948,
      "ଖାଉ": 7949,
      "ଏକାଦଶ": 7950,
      "##ଦେ୍ର": 7951,
      "##ସର୍": 7952,
      "ଖାଁ": 7953,
      "କାବୁଲ": 7954,
      "ପୋକ": 7955,
      "ଚାଇନା": 7956,
      "ଜଳି": 7957,
      "ରଖାଯାଇଥିଲା": 7958,
      "##ights": 7959,
      "ଛତିଶଗଡ": 7960,
      "ପ୍ରାଥମିକତା": 7961,
      "##କାମ": 7962,
      "ମଧୁମେହ": 7963,
      "##େସ୍": 7964,
      "Cor": 7965,
      "ସନ": 7966,
      "ଦୋକାନୀ": 7967,
      "ତୁଳନା": 7968,
      "ବିଶ୍ବକ": 7969,
      "ୟୁନିଟ": 7970,
      "ପୂର୍ଣ୍ଣି": 7971,
      "ବଢିବାରେ": 7972,
      "ବିତରଣ": 7973,
      "ଦିଲ୍ଲୀପ": 7974,
      "##ଞ୍ଚଳରେ": 7975,
      "କରିଦେଇଛି": 7976,
      "ମିଲି": 7977,
      "##ଯାଇପାରେ": 7978,
      "ନୂଆପ": 7979,
      "ରାଜ୍ୟରୁ": 7980,
      "ନର୍": 7981,
      "ପଚରା": 7982,
      "କକ୍ଷ": 7983,
      "ଭିନ୍ନକ୍ଷମ": 7984,
      "ମନୋଭାବ": 7985,
      "##ଟାଲ୍": 7986,
      "କୋଠା": 7987,
      "ଡାକ୍ତରଖାନାକୁ": 7988,
      "##ଖିଆ": 7989,
      "ଅନୁଭୂତ": 7990,
      "ଅବସରପ୍ରାପ୍ତ": 7991,
      "ଅରୁ": 7992,
      "ତାରକା": 7993,
      "ଜରୁରୀକାଳୀନ": 7994,
      "pl": 7995,
      "##ହଲ": 7996,
      "ସାନିଟାଇ": 7997,
      "କରିନ": 7998,
      "ସଂସଦରେ": 7999,
      "##ଗ୍ରି": 8000,
      "ହିଂସ": 8001,
      "ସିଜ": 8002,
      "କିଷ": 8003,
      "କମିଶନରେ": 8004,
      "ଷ୍ଟେସନରେ": 8005,
      "ଦହି": 8006,
      "##ଟିଭ୍": 8007,
      "ବିହାରୀ": 8008,
      "address": 8009,
      "ଚିତ୍ତ": 8010,
      "ବେଳେବେଳେ": 8011,
      "ସେମିଫାଇ": 8012,
      "ନହେଲେ": 8013,
      "Res": 8014,
      "କୁଲ": 8015,
      "ଇଷ୍ଟ": 8016,
      "ତୁମ୍ଭେ": 8017,
      "ବୁଦ୍ଧ": 8018,
      "mark": 8019,
      "##ଂଗ": 8020,
      "ଦେଢ଼": 8021,
      "ଖାନଙ୍କ": 8022,
      "ସମିତ": 8023,
      "ବ୍ୟାୟାମ": 8024,
      "ଚୀନର": 8025,
      "##ଜିଷ୍ଟ୍ରେ": 8026,
      "କିଣା": 8027,
      "କୋହଳ": 8028,
      "ହରାଇଥିବା": 8029,
      "##ମନା": 8030,
      "ସୀତାର": 8031,
      "ଟିଏମସି": 8032,
      "ଇଟିଭି": 8033,
      "ଅଭିଷେକ": 8034,
      "'।": 8035,
      "##ମାକୁ": 8036,
      "ସ୍ୱଳ୍ପ": 8037,
      "ପରସ୍ପରକୁ": 8038,
      "କ୍ରୁ": 8039,
      "##ବେଗ": 8040,
      "ଆରାମ": 8041,
      "ଋତୁରେ": 8042,
      "##ଳାରେ": 8043,
      "##ଂଟନ": 8044,
      "ଯିଏକି": 8045,
      "ଜାମ୍ମୁ": 8046,
      "##ସଚ": 8047,
      "ଶିବସେନା": 8048,
      "ଆଲୋକପାତ": 8049,
      "ଯାତ୍ର": 8050,
      "ସଂସ୍ପର୍ଶ": 8051,
      "##ପେକ୍ଟର": 8052,
      "ଆହ୍ବ": 8053,
      "ମୋର୍ଚ୍ଚା": 8054,
      "Live": 8055,
      "ଅବଶିଷ୍ଟ": 8056,
      "ପଛକୁ": 8057,
      "##ପ୍ରୀ": 8058,
      "ବିଜେପିରେ": 8059,
      "ଅଫିସ୍": 8060,
      "ind": 8061,
      "##ୀର୍ତ୍ତ": 8062,
      "##ମାଲ": 8063,
      "ବାଲୁ": 8064,
      "##row": 8065,
      "ବିମାନବନ୍ଦର": 8066,
      "##ood": 8067,
      "ଊର୍ଦ୍ଧ୍ୱ": 8068,
      "##ୋସ": 8069,
      "ଚାନ୍ଦବାଲି": 8070,
      "##ଜନ୍ତୁ": 8071,
      "Ex": 8072,
      "ନିମନ୍ତ୍ରଣ": 8073,
      "କାବୁ": 8074,
      "ପଶ": 8075,
      "ଅମ୍ବ": 8076,
      "ସେଥିମଧ୍ୟରୁ": 8077,
      "ଫଟ": 8078,
      "ଦିବ୍ୟାଙ୍ଗ": 8079,
      "ସବୁଦିନ": 8080,
      "ପୁନରୁ": 8081,
      "ଟିଟ": 8082,
      "ଯାକ": 8083,
      "ଭଡ଼ା": 8084,
      "ବରଣ": 8085,
      "ସକ୍ରୀୟ": 8086,
      "##ପେକ୍ଷ": 8087,
      "ରକ୍ଷ": 8088,
      "ନିର୍ଦ୍ଦେଶନା": 8089,
      "ମାରୁ": 8090,
      "ସିଲ୍": 8091,
      "ଉଚ୍ଚତା": 8092,
      "କର୍ଫ୍ୟୁ": 8093,
      "କର୍ମକର୍ତ୍ତା": 8094,
      "##ଚାଲିଛି": 8095,
      "##olog": 8096,
      "ବୋଝେଇ": 8097,
      "ଏଯାବ": 8098,
      "ନୋଟିସ୍": 8099,
      "##ତାରିଖରେ": 8100,
      "##କ୍ଷିକ": 8101,
      "ବେଳା": 8102,
      "ଚଣ୍ଡି": 8103,
      "ଆବଶ୍ୟକୀୟ": 8104,
      "##ସ୍ଥଳୀ": 8105,
      "ପୁଟି": 8106,
      "ଜୀବନ୍ତ": 8107,
      "##ଘଣ୍ଟା": 8108,
      "ସିଲିଣ୍ଡର": 8109,
      "କାଶ": 8110,
      "ପୁଅର": 8111,
      "କ୍ଷେତ୍ରର": 8112,
      "ଏମାନଙ୍କୁ": 8113,
      "ନୁହନ୍ତି": 8114,
      "ବିରଳ": 8115,
      "##େଲର": 8116,
      "ଜଷ୍ଟିସ୍": 8117,
      "ଯାତ୍ରୀଙ୍କ": 8118,
      "କରିଛୁ": 8119,
      "##ଂଟା": 8120,
      "Name": 8121,
      "କ୍ରୀଡା": 8122,
      "##କୁଦ": 8123,
      "ବିଶ୍ରାମ": 8124,
      "##Twitter": 8125,
      "ବହୁଳ": 8126,
      "ଇତିହାସରେ": 8127,
      "ତୁଷ": 8128,
      "##ଢୀ": 8129,
      "ଭଙ୍ଗା": 8130,
      "ଇସ": 8131,
      "##ଚୁରା": 8132,
      "##ୱତ": 8133,
      "କାର୍ଯ୍ୟକାଳ": 8134,
      "ପ୍ରସ୍ତାବକୁ": 8135,
      "##ବଦ୍ଧ": 8136,
      "ଜଣାପଡି": 8137,
      "ଅନଲାଇନ୍": 8138,
      "##ଚାଲ": 8139,
      "##ବ୍ୟବହାର": 8140,
      "ବ୍ରାଉନ": 8141,
      "ବୁଝି": 8142,
      "ପୋର୍ଟାଲ": 8143,
      "ଝଟକା": 8144,
      "##ash": 8145,
      "Feb": 8146,
      "୯ଟି": 8147,
      "Canc": 8148,
      "##OR": 8149,
      "ପ୍ରଚୁର": 8150,
      "##ାଗ୍ରସ୍ତ": 8151,
      "ଭଣ୍ଡ": 8152,
      "ଜବରଦସ୍ତ": 8153,
      "ୱାୟାର": 8154,
      "ଅନୁସୂଚିତ": 8155,
      "ବସ୍ତ୍ର": 8156,
      "ବଚ୍ଚ": 8157,
      "ବଢାଇ": 8158,
      "ଗଙ୍ଗ": 8159,
      "ଦୁନିଆର": 8160,
      "କର୍ମରେ": 8161,
      "ବୃଦ୍ଧା": 8162,
      "ଋତୁର": 8163,
      "ମୁସଲ": 8164,
      "ଜୀବା": 8165,
      "follow": 8166,
      "##ଅଁ": 8167,
      "ଦିନରୁ": 8168,
      "ରିହାତି": 8169,
      "ସୁଲ": 8170,
      "ଅଥବା": 8171,
      "##୍ଡ": 8172,
      "ଡାକରା": 8173,
      "ଓରଫ": 8174,
      "ନେତାଙ୍କୁ": 8175,
      "ମହଲ": 8176,
      "##କଥା": 8177,
      "ତାଳଚେର": 8178,
      "##ବ୍ରତ": 8179,
      "##ଣ୍ଟାଲ": 8180,
      "##ଷ୍ଟାର": 8181,
      "ମିଳିପାରିବ": 8182,
      "ଇସ୍ପ": 8183,
      "ଲାଗେ": 8184,
      "ଭଟ୍ଟ": 8185,
      "##ଦ୍ବାରା": 8186,
      "ଅମାନ": 8187,
      "##୍ରାଟ": 8188,
      "##ୱେର": 8189,
      "ଏଠାକୁ": 8190,
      "ସଂସ୍କୃତ": 8191,
      "ସାମର୍ଥ": 8192,
      "ଆକାଉଣ୍ଟରେ": 8193,
      "ଚିନ୍ତାଧାରା": 8194,
      "କରିନାହାନ୍ତି": 8195,
      "ଅଗ୍ରଗତି": 8196,
      "କିଡ": 8197,
      "##ରନ": 8198,
      "ସୁନୀଲ": 8199,
      "ଅତ୍ୟାବଶ୍ୟକ": 8200,
      "##ିଲର": 8201,
      "FacebookTwitter": 8202,
      "##ଗ୍ରିକ": 8203,
      "ବୈଷ୍ଣ": 8204,
      "ଆଫ୍ରିକ": 8205,
      "ଦୈନନ୍ଦ": 8206,
      "ଶୁଣିବା": 8207,
      "ଆମଦାନୀ": 8208,
      "ପାଖରୁ": 8209,
      "ଅଫର": 8210,
      "ସମ୍ପର୍କକୁ": 8211,
      "ନିଦେ୍ର": 8212,
      "କରଣ": 8213,
      "##ଖଣ୍ଡର": 8214,
      "##ଢେ": 8215,
      "କମଳା": 8216,
      "##ବୈ": 8217,
      "##ଯାଉଥିଲା": 8218,
      "ଦେବାଶିଷ": 8219,
      "ଧରିଛି": 8220,
      "ତୁଲ": 8221,
      "News18": 8222,
      "##ord": 8223,
      "ଦିଗକୁ": 8224,
      "ଦ୍ଵିତୀୟ": 8225,
      "##ଲ୍ଲା": 8226,
      "##ଗ୍ରାମ": 8227,
      "ଟସ୍": 8228,
      "ନନ୍ଦନକାନ": 8229,
      "ଶ୍ରୀରାମ": 8230,
      "ଇନ୍ଧନ": 8231,
      "ଭୌ": 8232,
      "##ଶାଲ": 8233,
      "ପଡ଼ିଥାଏ": 8234,
      "ମାହା": 8235,
      "ଦେହରେ": 8236,
      "ଲମ୍ବ": 8237,
      "ପିତାମ": 8238,
      "ମସ୍ତିଷ୍କ": 8239,
      "ଶହେ": 8240,
      "କଦଳୀ": 8241,
      "କରୁଥିବାରୁ": 8242,
      "ଜୁନି": 8243,
      "ପଡିଥିବା": 8244,
      "ରନ୍ରେ": 8245,
      "ସଂସ୍ପର୍ଶରେ": 8246,
      "ଗେଟ": 8247,
      "ଲିଗ୍": 8248,
      "ପୌରା": 8249,
      "ହୋଇସାରିଛି": 8250,
      "ଛତ୍ରପୁର": 8251,
      "##ୃକ୍ତି": 8252,
      "ବାହାରିବା": 8253,
      "ବ୍ରାଣ୍ଡ": 8254,
      "ଅଜିତ": 8255,
      "ଆପଣମାନଙ୍କ": 8256,
      "ମନକୁ": 8257,
      "ବାସୁଦେବ": 8258,
      "##aking": 8259,
      "its": 8260,
      "ଟେଷ୍ଟିଂ": 8261,
      "୧୯୩": 8262,
      "ଜ୍ୱର": 8263,
      "କମିସନ": 8264,
      "ଭାନୁ": 8265,
      "ଫାଇନାଲରେ": 8266,
      "କର୍ମଜୀବି": 8267,
      "my": 8268,
      "##ଚ୍ଛାସେବୀ": 8269,
      "୧୨୦": 8270,
      "ଅକ": 8271,
      "##୍ଧ": 8272,
      "ଅଧିକରୁ": 8273,
      "An": 8274,
      "ଭ୍ର": 8275,
      "ଗୋଳ": 8276,
      "କ୍ୟୁ": 8277,
      "##oun": 8278,
      "ସଂସ୍ଥ": 8279,
      "Health": 8280,
      "ନିଲମ୍ବିତ": 8281,
      "କର୍ତ୍ତବ୍ୟ": 8282,
      "ରାଜନେତା": 8283,
      "ପ୍ରସଙ୍ଗକୁ": 8284,
      "##ରସ": 8285,
      "ଦ୍ରୌପ": 8286,
      "##ଣ୍ଢ": 8287,
      "କ୍ଷେପଣ": 8288,
      "##ୃତିରେ": 8289,
      "ବାଟରେ": 8290,
      "ଆହ୍ବାନ": 8291,
      "ଦରରେ": 8292,
      "ପ୍ରତିକ": 8293,
      "he": 8294,
      "ପଡୋଶୀ": 8295,
      "ଦୈନନ୍ଦିନ": 8296,
      "##ରୁଷ": 8297,
      "ନୁହଁନ୍ତି": 8298,
      "କଫି": 8299,
      "ଅପରାଜ": 8300,
      "ପଞ୍ଜୀକରଣ": 8301,
      "କମିସନର": 8302,
      "ପ୍ରେସ": 8303,
      "##ନ୍ନତି": 8304,
      "ସତର୍କତା": 8305,
      "ଘଟିବ": 8306,
      "ଉନ୍ମୋଚନ": 8307,
      "ଯୋଗାଇବା": 8308,
      "ଦ୍ରୌପଦୀ": 8309,
      "##ଫୋନ୍": 8310,
      "##ମ୍ଫ": 8311,
      "##ଯିବାର": 8312,
      "##ଟିକ": 8313,
      "##ାବଣ": 8314,
      "ଦାବୀ": 8315,
      "##ୱାର୍ଡ": 8316,
      "ଗୁଇ": 8317,
      "ମଜବୁତ": 8318,
      "ନୂଆପଡା": 8319,
      "ସାମର୍ଥ୍ୟ": 8320,
      "un": 8321,
      "##ଙ୍କାରେ": 8322,
      "##ାଲୋର": 8323,
      "ମେଗା": 8324,
      "ରିଲା": 8325,
      "ଖୋର୍ଦ୍ଧାରୁ": 8326,
      "ଅଚାନକ": 8327,
      "ହଳଦୀ": 8328,
      "ଦେବତା": 8329,
      "ପାକିସ୍ତାନୀ": 8330,
      "ଇନଷ୍ଟାଗ୍ରାମ": 8331,
      "##ାନୁଯାୟୀ": 8332,
      "ମେକ": 8333,
      "ମନୀ": 8334,
      "ୟୁଏ": 8335,
      "##ବାରେ": 8336,
      "ସଜା": 8337,
      "ଶନି": 8338,
      "ଦେବାରେ": 8339,
      "କେଜ୍ରି": 8340,
      "source": 8341,
      "##ଦୁଲ": 8342,
      "De": 8343,
      "ରୂପାନ୍ତର": 8344,
      "ଭିତ୍ତିରେ": 8345,
      "ଉମା": 8346,
      "ବଲରେ": 8347,
      "ତତ୍କାଳୀନ": 8348,
      "ପୁରୀରୁ": 8349,
      "ଗ୍ରାମାଞ୍ଚଳ": 8350,
      "ମୃତ୍ୟୁସଂଖ୍ୟା": 8351,
      "ପିକ": 8352,
      "ହୋଇପାରିଛି": 8353,
      "ଗୁଲ": 8354,
      "##ିବାହିତ": 8355,
      "ଗତିବି": 8356,
      "ସୋନୁ": 8357,
      "କ୍ଷେପଣାସ୍ତ୍ର": 8358,
      "ନିର୍ଦେଶକ": 8359,
      "ବ୍ରିଟେନ": 8360,
      "##କାରେ": 8361,
      "ପଡ଼ୋଶୀ": 8362,
      "କଥାଚିତ୍ର": 8363,
      "##ିପାରି": 8364,
      "Cancel": 8365,
      "ଚଲ": 8366,
      "ଟୁର୍ଣ୍ଣାମେଣ୍ଟ": 8367,
      "ପ୍ରେମିକା": 8368,
      "ନିର୍ମାତା": 8369,
      "##ପ୍ଳ": 8370,
      "ଏଲି": 8371,
      "##ଟେଲ": 8372,
      "ଆପତ୍ତି": 8373,
      "ପାଣ୍ଡ୍ୟା": 8374,
      "ଉଦ୍ଭି": 8375,
      "##ିପାରୁ": 8376,
      "ଇନ୍ସ": 8377,
      "ଦେଉଥିଲେ": 8378,
      "ବରଫ": 8379,
      "ଲକ୍ଡାଉନ୍": 8380,
      "##vel": 8381,
      "ଜମିକୁ": 8382,
      "ମାନଙ୍କରେ": 8383,
      "ବିଧି": 8384,
      "ମାଇକ୍ରୋ": 8385,
      "ସନ୍ତୁଷ୍ଟ": 8386,
      "##ସାମ୍ୟ": 8387,
      "କହିଲା": 8388,
      "##read": 8389,
      "ପ୍ରକଟ": 8390,
      "ମଲିକ": 8391,
      "କନଫରେ": 8392,
      "##ମାସ୍": 8393,
      "Load": 8394,
      "ସଂକଟ": 8395,
      "ସଡକ": 8396,
      "##ତରଣ": 8397,
      "ଦୁର୍ଭାଗ୍ୟ": 8398,
      "ଖାତ": 8399,
      "କରାଯିବାକୁ": 8400,
      "୨୦୦୯": 8401,
      "ପ୍ରତିଟି": 8402,
      "ରହିଲା": 8403,
      "ବ୍ୟବସ୍ଥାର": 8404,
      "##ସିଏ": 8405,
      "ଗେଟ୍": 8406,
      "କାମକୁ": 8407,
      "ସାର୍ବଜନୀନ": 8408,
      "##ged": 8409,
      "ଖୁଲ": 8410,
      "##ରୁଖ": 8411,
      "ନବମ": 8412,
      "ମହାନ୍ତ": 8413,
      "Website": 8414,
      "##ଷ୍ଠାନିକ": 8415,
      "ଶଯ୍ୟା": 8416,
      "ରକ୍ତଚାପ": 8417,
      "ମୃତୁ୍ୟ": 8418,
      "ଭାରସାମ୍ୟ": 8419,
      "our": 8420,
      "ହେଲିକପ୍ଟର": 8421,
      "ବିକ୍ରୟ": 8422,
      "ଅସ୍ଥିର": 8423,
      "ଆଧ୍ୟା": 8424,
      "୧୨ଟି": 8425,
      "##ଘ୍ନ": 8426,
      "ବଢ଼ିଛି": 8427,
      "ଚର୍ଚ୍ଚିତ": 8428,
      "##ଡ଼ାର": 8429,
      "ମୁଖ୍ୟମନ୍ତ୍ରୀଙ୍କୁ": 8430,
      "ଇତିମଧ୍ୟରେ": 8431,
      "ସୃଷ୍ଟ": 8432,
      "ପ୍ଲାନ": 8433,
      "ଅଟଳ": 8434,
      "##ୋପାଳ": 8435,
      "ସ୍ନେହ": 8436,
      "##terest": 8437,
      "ସାଧୁ": 8438,
      "ସାମନାକୁ": 8439,
      "##erm": 8440,
      "##ାପାଟ": 8441,
      "ଜିତେନ୍ଦ୍ର": 8442,
      "ରଂଜନ": 8443,
      "ଫାଇଲ": 8444,
      "##ାବତୀ": 8445,
      "##ob": 8446,
      "##ଘାତିକ": 8447,
      "ସଂପ୍ର": 8448,
      "##ମ୍ରେ": 8449,
      "ଲୁଟି": 8450,
      "##ଚ୍ଛିନ୍ନ": 8451,
      "କାଉନସିଲ": 8452,
      "##ାଲାଇ": 8453,
      "ମତରେ": 8454,
      "ବନ୍ଧା": 8455,
      "ବିଶାଖ": 8456,
      "ନିରାପତ୍ତା": 8457,
      "Polic": 8458,
      "ଆଇନଗତ": 8459,
      "ଫିଙ୍ଗି": 8460,
      "ଭ୍ୟା": 8461,
      "ବସବାସ": 8462,
      "୨ୟ": 8463,
      "##ଦ୍ଦିନ": 8464,
      "ସେବେ": 8465,
      "କନ୍": 8466,
      "##red": 8467,
      "ଉଚ୍ଚଶିକ୍ଷା": 8468,
      "Samaj": 8469,
      "ମାଟ": 8470,
      "ମହାନ୍ତିଙ୍କ": 8471,
      "ପୂଜାର୍ଚ୍ଚ": 8472,
      "ଭୂଷଣ": 8473,
      "##ଜେନ୍ସ": 8474,
      "ସେଠ": 8475,
      "published": 8476,
      "##ଣାର": 8477,
      "##ଆଉ": 8478,
      "ଖେଳାଳିଙ୍କୁ": 8479,
      "ଏହାସହିତ": 8480,
      "ସଞ୍ଚୟ": 8481,
      "ଇଚ୍ଛ": 8482,
      "ବୁଡ଼ି": 8483,
      "ଶୋଭାଯାତ୍ରା": 8484,
      "##ଗମନ": 8485,
      "##ଦାସ": 8486,
      "କୋଚ୍": 8487,
      "ସ୍ର": 8488,
      "##ST": 8489,
      "##eg": 8490,
      "##ର୍ଜାତୀୟ": 8491,
      "##ics": 8492,
      "ଶିଳ": 8493,
      "ପଦୋ": 8494,
      "ଜାନୁ": 8495,
      "##ବର୍": 8496,
      "##ବର୍ତ": 8497,
      "ପ୍ରଦତ୍ତ": 8498,
      "ଅପରାଜିତ": 8499,
      "ଟମା": 8500,
      "ସମସ୍ତଙ୍କର": 8501,
      "##କର୍ମୀଙ୍କ": 8502,
      "ଗୋଟାଏ": 8503,
      "ରାସ୍ତାକୁ": 8504,
      "ହଇର": 8505,
      "##ଶୈଳୀ": 8506,
      "##ହରା": 8507,
      "ବନବିଭାଗ": 8508,
      "ସମାନେେ": 8509,
      "କଣ୍ଟ୍ରୋଲ": 8510,
      "##orm": 8511,
      "ଉତ୍ତରରେ": 8512,
      "ବଗି": 8513,
      "ଚର୍ମ": 8514,
      "##ଣୀଙ୍କ": 8515,
      "##ergy": 8516,
      "କହିଥିଲା": 8517,
      "ମାଡ଼ି": 8518,
      "##ଖର": 8519,
      "ହଇରାଣ": 8520,
      "ପ୍ରତିମୂ": 8521,
      "ନ୍ୟାୟାଳୟ": 8522,
      "କର୍ମୀମାନେ": 8523,
      "ପହଞ୍ଚିଥିଲା": 8524,
      "ଶ୍ୟାମ": 8525,
      "ଗାଳି": 8526,
      "##ୁଥିବାରୁ": 8527,
      "ବୈଦ": 8528,
      "ଆଧ୍ୟାତ୍ମ": 8529,
      "##ଦ୍ଦିକ": 8530,
      "##କ୍ଷିପ୍ତ": 8531,
      "ବରା": 8532,
      "##ens": 8533,
      "କାନା": 8534,
      "ଆନୁଷ୍ଠାନିକ": 8535,
      "ଉପଯୋଗୀ": 8536,
      "ହନୁମାନ": 8537,
      "ରାଗି": 8538,
      "[...": 8539,
      "##ାସୁ": 8540,
      "ପାଟି": 8541,
      "##ual": 8542,
      "following": 8543,
      "[...]": 8544,
      "year": 8545,
      "ଚିନ୍ତାର": 8546,
      "##me": 8547,
      "ଆଇସିୟୁ": 8548,
      "ଦ୍ୱୀପ": 8549,
      "କୋଲକାତ": 8550,
      "ଟପ": 8551,
      "ହୋଇଯାଇଛନ୍ତି": 8552,
      "ଇଣ୍ଡିଆନ୍": 8553,
      "ସାଢେ": 8554,
      "ସତ୍ୟପାଠ": 8555,
      "ଟ୍ୱିଟର": 8556,
      "ମିଳିପାରି": 8557,
      "୨୦୨୦ରେ": 8558,
      "ସ୍ବପ୍ନ": 8559,
      "ବସିଛନ୍ତି": 8560,
      "ମଞ୍ଜୁର": 8561,
      "ଶତପଥୀ": 8562,
      "##ork": 8563,
      "##ାତୁ": 8564,
      "୬ଟା": 8565,
      "ଶୁଳ୍କ": 8566,
      "##ବର୍ଷର": 8567,
      "କ୍ଷମ": 8568,
      "ରହିଥିବାବେଳେ": 8569,
      "ବିମାନରେ": 8570,
      "ନେବାର": 8571,
      "ଦର୍ଶାଯାଇଛି": 8572,
      "ପାଠପଢ଼ା": 8573,
      "ପର୍ଯ୍ୟବେ": 8574,
      "##ସନୀୟ": 8575,
      "ଇମେ": 8576,
      "ବେପାରୀ": 8577,
      "ପୁନରୁଦ୍ଧାର": 8578,
      "##ନ୍ତରାୟ": 8579,
      "କରୁଥିବାବେଳେ": 8580,
      "ପର୍ୟ୍ୟ": 8581,
      "##ବାଡି": 8582,
      "##ନାଲି": 8583,
      "ୱି": 8584,
      "ଶିକ୍ଷାର୍ଥୀ": 8585,
      "ସିଂହଙ୍କ": 8586,
      "ସିଆର": 8587,
      "##ାରୋପ": 8588,
      "ଆଲର୍ଟ": 8589,
      "ଉଦ୍ଧବ": 8590,
      "##କିଶୋର": 8591,
      "ସାଜ": 8592,
      "ବଢ଼ିବା": 8593,
      "##ଡୋ": 8594,
      "mins": 8595,
      "ଗ୍ରାମକୁ": 8596,
      "ପେଟ୍ରୋଲି": 8597,
      "Fro": 8598,
      "ମୁଣ୍ଡା": 8599,
      "ଶିଶୁର": 8600,
      "ପ୍ରବର୍ତ୍ତ": 8601,
      "ପାଳି": 8602,
      "##ଡ୍ରେ": 8603,
      "କିଣିବାକୁ": 8604,
      "ଇଞ୍ଜିନିୟରିଂ": 8605,
      "##ଏସଆଇ": 8606,
      "##ଦେଖା": 8607,
      "କୃତଜ୍ଞ": 8608,
      "ସନ୍ଧାନ": 8609,
      "କ୍ୱାର୍ଟ": 8610,
      "##ଉଛନ୍ତି": 8611,
      "କାନ୍": 8612,
      "ଭୋର": 8613,
      "କାରି": 8614,
      "ଗୀତା": 8615,
      "##ଆରସି": 8616,
      "Froala": 8617,
      "ଦ୍ୱାଦଶ": 8618,
      "##ୟକର": 8619,
      "ପ୍ରିମି": 8620,
      "##୍ୟରେ": 8621,
      "କୁଇ": 8622,
      "କୀଟ": 8623,
      "ମେସିନ୍": 8624,
      "ବୃତ୍ତି": 8625,
      "ସମାନଙ୍କ": 8626,
      "କ୍ୟାରିୟର": 8627,
      "(@": 8628,
      "ସିଦ୍ଧାର୍ଥ": 8629,
      "ଫେରିଥିଲେ": 8630,
      "##ିଆନ୍": 8631,
      "ଏବେବି": 8632,
      "ବୁଥ": 8633,
      "ଟଙ୍କାକୁ": 8634,
      "##ଚନ୍ଦନ": 8635,
      "##ୃଜନ": 8636,
      "##int": 8637,
      "ବେଶି": 8638,
      "ଅନୁରୂପ": 8639,
      "ଦେବେନ୍ଦ୍ର": 8640,
      "##ଶୂ": 8641,
      "##ହିନ": 8642,
      "ମାତୃ": 8643,
      "##ାଗଡ଼": 8644,
      "##own": 8645,
      "ବେହେରାଙ୍କ": 8646,
      "##ଜିର": 8647,
      "ଙ୍କର": 8648,
      "ମଧୁର": 8649,
      "##ଟୋରେ": 8650,
      "ଆୟର": 8651,
      "ଭୁବନେଶ୍ଵର": 8652,
      "##ବାକୁ": 8653,
      "##ଞ୍ଜର": 8654,
      "ଆନ୍ତର୍ଜାତୀୟ": 8655,
      "ସାମଗ୍ରିକ": 8656,
      "ଟ୍ରାକ୍ଟର": 8657,
      "ମାର୍କେଟ": 8658,
      "ସର୍ଜ": 8659,
      "##ink": 8660,
      "ଇନଷ୍ଟିଚ୍ୟୁ": 8661,
      "##ୀର୍ଣ୍ଣ": 8662,
      "ଉପଖଣ୍ଡ": 8663,
      "##ିକରି": 8664,
      "ରୁଷିଆ": 8665,
      "ପ୍ରଯୁକ୍ତ": 8666,
      "କୋଷ": 8667,
      "ପୀଡ଼ିତା": 8668,
      "ରିମା": 8669,
      "ଗଡ": 8670,
      "୧୧ଟା": 8671,
      "##ଶ୍": 8672,
      "ପୃଥକ": 8673,
      "ପୂଜାର୍ଚ୍ଚନା": 8674,
      "କ୍ରୋଧ": 8675,
      "##ଶସ୍ତ୍ର": 8676,
      "ନାନା": 8677,
      "##iven": 8678,
      "ପରିବର୍ତ୍ତନର": 8679,
      "ଘାତ": 8680,
      "ରାଷ୍ଟ୍ରପତିଙ୍କ": 8681,
      "##ନିର୍ବାହୀ": 8682,
      "ଡେବ": 8683,
      "ଚିଠିରେ": 8684,
      "##acy": 8685,
      "ଯାଉଥିଲା": 8686,
      "ସତେ": 8687,
      "##ତେବେଳ": 8688,
      "ଶିଶୁଙ୍କ": 8689,
      "ପ୍ରୋଜ": 8690,
      "##ିପ୍": 8691,
      "##ୃଙ୍ଖଳା": 8692,
      "##େଲା": 8693,
      "ଟନ": 8694,
      "ଚେକ୍": 8695,
      "##ଲ୍ଡ": 8696,
      "ମାଧ୍ୟମିକ": 8697,
      "ଘେରି": 8698,
      "ଦୃଷ୍ଟିକୋଣ": 8699,
      "ରାଜସ୍ବ": 8700,
      "ଗ୍ରାମବାସୀଙ୍କ": 8701,
      "##ୋପଚାର": 8702,
      "ପୃଷ୍ଠା": 8703,
      "##pt": 8704,
      "reply": 8705,
      "love": 8706,
      "Ad": 8707,
      "ନିହତ": 8708,
      "ଆସୋସିଏ": 8709,
      "ଟାଣି": 8710,
      "##ଥିଲାଗି": 8711,
      "##ହେବା": 8712,
      "ହସ୍ପିଟାଲକୁ": 8713,
      "ପଦୋନ୍ନତି": 8714,
      "ମୁସ": 8715,
      "ଘଟଣାସ୍ଥଳରୁ": 8716,
      "ଏମିତିକି": 8717,
      "ଯାତାୟତ": 8718,
      "ଅସମ୍ଭବ": 8719,
      "ପଦ୍ମଶ୍ରୀ": 8720,
      "ଇକ": 8721,
      "ଡେପୁଟି": 8722,
      "##ିଛି": 8723,
      "ନାଚ": 8724,
      "ବୃହ": 8725,
      "ହାଇକୋର୍ଟଙ୍କ": 8726,
      "ପୀଡ": 8727,
      "##ଜ୍ଜା": 8728,
      "ଖ୍ରୀଷ୍ଟମାସ୍": 8729,
      "ମାଇଲ": 8730,
      "##ର୍ତ୍ତନ": 8731,
      "ଅଣଦେଖା": 8732,
      "ଛାୟା": 8733,
      "##ାଣିକ": 8734,
      "ଯୋଗଦେଇଥିଲେ": 8735,
      "ବେପାର": 8736,
      "ମହାତ୍ମା": 8737,
      "ପକ୍କା": 8738,
      "ୱାର୍ଣ୍ଣିଂ": 8739,
      "ଗଭର୍ଣ୍ଣ": 8740,
      "ଯେଭଳି": 8741,
      "##ୋରୀ": 8742,
      "odia": 8743,
      "ନାୟକଙ୍କ": 8744,
      "ପରମାଣ": 8745,
      "ସଂକ୍ର": 8746,
      "ନିଜସ୍ୱ": 8747,
      "##େଳି": 8748,
      "ଜଳସ୍ତର": 8749,
      "ପ୍ରତିରୋଧକ": 8750,
      "##rou": 8751,
      "##ସିୟ": 8752,
      "୧୦ଟା": 8753,
      "ବ୍ରତ": 8754,
      "ନେବାରେ": 8755,
      "ଦାବିପତ୍ର": 8756,
      "##କିଆ": 8757,
      "ଘଂଟ": 8758,
      "ଅସ୍ତ୍ରଶସ୍ତ୍ର": 8759,
      "ବିହାରର": 8760,
      "ଯୁଦ୍ଧରେ": 8761,
      "ବିକାଶର": 8762,
      "ଓଲିଉ": 8763,
      "ଜନକ": 8764,
      "ପୋଷଣ": 8765,
      "##ays": 8766,
      "##ତ୍ତ୍ବେ": 8767,
      "##echn": 8768,
      "##ୀଦ": 8769,
      "ମୈ": 8770,
      "ପଠାଯାଇଛି": 8771,
      "କଟକର": 8772,
      "ପ୍ରଶଂସକ": 8773,
      "ବିସ୍ଫୋରକ": 8774,
      "ବିଗି": 8775,
      "ବର୍ଜ୍ୟ": 8776,
      "ବ୍ୟବଧାନରେ": 8777,
      "ବର୍ଦ୍ଧ": 8778,
      "##ିଣୀ": 8779,
      "##ାୟାତ": 8780,
      "ଏନସିବି": 8781,
      "ପ୍ରଶାସନକୁ": 8782,
      "ନେଟୱାର୍କ": 8783,
      "##୍ରିମ": 8784,
      "ପଡ଼ିଥିଲେ": 8785,
      "ଆଥ": 8786,
      "୧୪୪": 8787,
      "ଜାନୁୟାରୀ": 8788,
      "ମନର": 8789,
      "##ଜିତ୍": 8790,
      "୫ଟା": 8791,
      "##ଦେଲା": 8792,
      "ବ୍ଳକ": 8793,
      "ଲୁହ": 8794,
      "##ph": 8795,
      "##ଷ୍ଣା": 8796,
      "ରୀତି": 8797,
      "ଲଗାଣ": 8798,
      "ଭିଡିଓକୁ": 8799,
      "ଭାସି": 8800,
      "##ired": 8801,
      "ଗୋପାଳପୁର": 8802,
      "୧ରେ": 8803,
      "ଇଣ୍ଡିଆନ": 8804,
      "ସଂସଦର": 8805,
      "ପାଇଥାଏ": 8806,
      "ସହେି": 8807,
      "##ାରିଣୀ": 8808,
      "35": 8809,
      "ରାଜଧାନୀର": 8810,
      "have": 8811,
      "ରାଧା": 8812,
      "ପ୍ରଭାତ": 8813,
      "ଗୋରୁ": 8814,
      "ଲିଙ୍ଗରାଜ": 8815,
      "ଇସ୍ପାତ": 8816,
      "ମନ୍ଦିରକୁ": 8817,
      "##କତା": 8818,
      "କର୍ମୀଙ୍କ": 8819,
      "##ଗୁରୁ": 8820,
      "ଲଦା": 8821,
      "ଦିନକ": 8822,
      "ପ୍ରଦେଶରେ": 8823,
      "ଯେବେ": 8824,
      "##ବୋଧନ": 8825,
      "##ନିର୍ଭର": 8826,
      "ଏଥିପ୍ରତି": 8827,
      "ଅସ୍ତ୍ରୋପଚାର": 8828,
      "##ଣାପ": 8829,
      "ଦିବା": 8830,
      "୧୦୦୦": 8831,
      "ସ୍ବାଇଁ": 8832,
      "##ଣ୍ଡିଂ": 8833,
      "ପ୍ରଣବ": 8834,
      "ଫୋଟ": 8835,
      "ଛଡା": 8836,
      "ମାପ": 8837,
      "##ତ୍ସ": 8838,
      "##ିବନ୍ଧ": 8839,
      "ପ୍ରହ": 8840,
      "ଏକାଡେମୀ": 8841,
      "##୍ରିଟି": 8842,
      "Reply": 8843,
      "ମସଲା": 8844,
      "ରିଲାଏନ୍ସ": 8845,
      "ଟାଣ": 8846,
      "ସବ୍": 8847,
      "ପ୍ରଶ୍ନବାଚ": 8848,
      "ଦ୍ୱାରସ୍ଥ": 8849,
      "ଲକ୍ଷ୍ମଣ": 8850,
      "ଗୌତମ": 8851,
      "##ାରରେ": 8852,
      "ବର୍ଷାର": 8853,
      "su": 8854,
      "ହାର୍ଦ୍ଦିକ": 8855,
      "କମୁ": 8856,
      "ଚିନି": 8857,
      "##ମିଂ": 8858,
      "ପୋଡି": 8859,
      "ପୋଡ଼ି": 8860,
      "ଶାଶୁ": 8861,
      "ଶସ୍ତା": 8862,
      "##ee": 8863,
      "କୁଳପତି": 8864,
      "ଦମ": 8865,
      "ଜାତିସଂଘ": 8866,
      "କେୟାର": 8867,
      "##ରିଫ": 8868,
      "କୁମ୍ଭୀର": 8869,
      "ଏକ୍ସପ୍ରେସ": 8870,
      "##ମ୍ବେ": 8871,
      "ଶଙ୍ଖ": 8872,
      "##ଡାଲ": 8873,
      "##ିଆଁ": 8874,
      "ଲାଗିବା": 8875,
      "ମହାପାତ୍ରଙ୍କ": 8876,
      "ନିଅ": 8877,
      "ରିୟା": 8878,
      "##ଖ୍ୟାତ": 8879,
      "ଭବନରେ": 8880,
      "##ଦ୍ରା": 8881,
      "ଆମା": 8882,
      "##ନାଙ୍କ": 8883,
      "##ାଇଲେ": 8884,
      "କୁମାରଙ୍କ": 8885,
      "##ruary": 8886,
      "ବର୍ମା": 8887,
      "any": 8888,
      "##ଥୀଙ୍କ": 8889,
      "ବାୟୁସେନା": 8890,
      "ମାସରୁ": 8891,
      "##କ୍ଷତ୍ର": 8892,
      "##erved": 8893,
      "##କଣ୍ଠ": 8894,
      "ସଂପ୍ରତି": 8895,
      "##୍ୟୁନି": 8896,
      "କର୍ତ": 8897,
      "୫ଜଣ": 8898,
      "ଗ୍ରୁପ": 8899,
      "February": 8900,
      "ସିଡି": 8901,
      "ବାଙ୍ଗାଲୋର": 8902,
      "##anak": 8903,
      "ସୁଦର୍ଶନ": 8904,
      "##ନ୍ସିଂ": 8905,
      "ଚଳାଇବା": 8906,
      "ମନ୍ତ୍ରଣାଳୟର": 8907,
      "ଇଟା": 8908,
      "##ଧିକାର": 8909,
      "ରାଉଣ୍ଡ": 8910,
      "ପ୍ରେମୀ": 8911,
      "ଟ୍ରାଫିକ୍": 8912,
      "ଏମ୍ସ": 8913,
      "Rec": 8914,
      "ଟ୍ରଷ୍ଟ": 8915,
      "||": 8916,
      "ବଜ୍ରପାତ": 8917,
      "ଅପରାଜିତା": 8918,
      "ଦଳିତ": 8919,
      "ମ୍ୟାନେଜ": 8920,
      "Subs": 8921,
      "ଅନ୍ୟମାନେ": 8922,
      "ଆତଙ୍କବାଦୀଙ୍କ": 8923,
      "ବସ୍ତି": 8924,
      "ଆତ୍ମନିର୍ଭର": 8925,
      "ସ୍ୱାକ୍ଷର": 8926,
      "କ୍ୟାପ": 8927,
      "##ୋବା": 8928,
      "##ାବଧାନରେ": 8929,
      "କ୍ଷେତ": 8930,
      "ଫେରୁଥିବା": 8931,
      "App": 8932,
      "ଶୂନ୍ୟ": 8933,
      "##ତ୍ମକ": 8934,
      "ପ୍ରୋଟି": 8935,
      "##୍ୟାରି": 8936,
      "ଟେଷ୍ଟରେ": 8937,
      "ଇସ୍ର": 8938,
      "##ନନ": 8939,
      "##ଂକ": 8940,
      "ବାଣ୍ଟ": 8941,
      "ଆନ୍ଦୋଳନକୁ": 8942,
      "ଟପି": 8943,
      "ପିଏମ": 8944,
      "କୋବିନ୍ଦ": 8945,
      "##ଡାରୁ": 8946,
      "##ହାରୀ": 8947,
      "##କ୍ଲ": 8948,
      "ଗୁଡ଼ିକୁ": 8949,
      "ଗ୍ରାମୀଣ": 8950,
      "ବାଳିକା": 8951,
      "ହିମାଚଳ": 8952,
      "ଲଙ୍କା": 8953,
      "ଚାରିଆ": 8954,
      "ଚମକ": 8955,
      "ବ୍ୟକ୍ତିମାନେ": 8956,
      "ବାର୍ତ୍ତ": 8957,
      "ରିଲିଫ": 8958,
      "Sh": 8959,
      "##ign": 8960,
      "ଜୟନ୍ତ": 8961,
      "ହ୍ୟାଣ୍ଡ": 8962,
      "ଯାତାୟାତ": 8963,
      "pic": 8964,
      "କୋକ": 8965,
      "ଚଉ": 8966,
      "ଜାଲ": 8967,
      "କ୍ୟାନ": 8968,
      "ନିରପେକ୍ଷ": 8969,
      "କୂଳ": 8970,
      "ପରମେଶ୍ବର": 8971,
      "Tr": 8972,
      "ପରାମର୍ଶଦାତା": 8973,
      "##ାଦୁ": 8974,
      "##୧୦": 8975,
      "ମୁକେଶ": 8976,
      "ତତ୍ପର": 8977,
      "ପ୍ରତିବାଦରେ": 8978,
      "ସିକ୍ୟୁ": 8979,
      "ରାସନ": 8980,
      "ଚଳଚ୍ଚିତ୍ରରେ": 8981,
      "ଅନିଲ": 8982,
      "ତ୍ୱରାନ୍ୱିତ": 8983,
      "....": 8984,
      "##ଭିମାନ": 8985,
      "##ୁଗୁ": 8986,
      "ଆଜିଠୁ": 8987,
      "ରୁହନ୍ତି": 8988,
      "##ର୍ଣ୍ଣିଂ": 8989,
      "ଯେଉଁମାନଙ୍କର": 8990,
      "କମା": 8991,
      "##ପ୍ରା": 8992,
      "ବହ": 8993,
      "ଜିଲ୍ଲାପାଳଙ୍କୁ": 8994,
      "##ର୍ନ": 8995,
      "କୋଟିଆ": 8996,
      "##ାୟନିକ": 8997,
      "##ଥାନ୍ତେ": 8998,
      "ପ୍ରଶ୍ନବାଚୀ": 8999,
      "##ong": 9000,
      "ବ୍ୟାଟେ": 9001,
      "##ines": 9002,
      "ସିଦ୍ଧାନ୍ତ": 9003,
      "ମୁସଲମାନ": 9004,
      "##ାଣିତ": 9005,
      "ଆକର୍ଷିତ": 9006,
      "୨୫୦": 9007,
      "Samaja": 9008,
      "ବିଶ୍ବର": 9009,
      "##ନ୍ଥା": 9010,
      "##ating": 9011,
      "##କ୍ଷ୍ମ": 9012,
      "ହେଉନାହିଁ": 9013,
      "ଉଦ୍ଭିଦ": 9014,
      "ପୁରାଣ": 9015,
      "ନିର୍ବାଚନର": 9016,
      "ଖେଳିଥିଲେ": 9017,
      "##ାତାଙ୍କ": 9018,
      "##ib": 9019,
      "ଡେଲି": 9020,
      "କରିଦେଲେ": 9021,
      "ହୋମ୍": 9022,
      "##ଏସ୍ଆଇ": 9023,
      "ହୋଇପଡି": 9024,
      "ଜ୍ୟୋତିଷ": 9025,
      "With": 9026,
      "##ନଂ": 9027,
      "ହ୍ୟା": 9028,
      "ରନରେ": 9029,
      "##ID": 9030,
      "ଶ୍ରମିକଙ୍କ": 9031,
      "ମୁଲତ": 9032,
      "ସ୍ତମ୍ଭ": 9033,
      "##ୱାଦ": 9034,
      "##ଡ୍ଡା": 9035,
      "ଚେକ": 9036,
      "ସଂସଦୀୟ": 9037,
      "ଆର୍ଟିଫି": 9038,
      "କୋଭା": 9039,
      "ସୁପାରିଶ": 9040,
      "ହୋଲି": 9041,
      "ଭାଇରସ୍": 9042,
      "ଦାୟର": 9043,
      "ଇସଲ": 9044,
      "ଜର୍ମାନୀ": 9045,
      "ଶିକ୍ଷାଦାନ": 9046,
      "##ଲେଖା": 9047,
      "ଆଣିଛି": 9048,
      "ଷ୍ଟ୍ରେ": 9049,
      "ନିର୍ବାଚନମଣ୍ଡ": 9050,
      "ସଚ୍ଚ": 9051,
      "ଡ୍ୟୁ": 9052,
      "ନରସିଂହ": 9053,
      "Previous": 9054,
      "ଅଶୁ": 9055,
      "ରିସର୍ଚ୍ଚ": 9056,
      "##ateg": 9057,
      "##ideo": 9058,
      "ଦିବ୍ୟଶଙ୍କର": 9059,
      "ରଖିଲେ": 9060,
      "ଚାହୁଁଥିଲେ": 9061,
      "##ଳାର": 9062,
      "##ାପା": 9063,
      "ହେମନ୍ତ": 9064,
      "ମସିହାରୁ": 9065,
      "000": 9066,
      "ମେଡ଼ିକାଲ": 9067,
      "ବିଷାକ୍ତ": 9068,
      "ବଲିଉଡର": 9069,
      "ବିଦେଶରେ": 9070,
      "ଟେଣ୍ଡର": 9071,
      "ଏଡ": 9072,
      "ଆଗତ": 9073,
      "ନିଷ୍ପତ୍ତିକୁ": 9074,
      "ଉତ୍ତରପ୍ରଦେଶର": 9075,
      "ପଂଚାୟତର": 9076,
      "ପକାଇବା": 9077,
      "ସହରକୁ": 9078,
      "##enc": 9079,
      "ମିସ": 9080,
      "ଜିଏସଟି": 9081,
      "ଦିଏ": 9082,
      "ଝଡ଼": 9083,
      "##ମଣ": 9084,
      "##ଫ୍ରେ": 9085,
      "ବିଧାନସଭାର": 9086,
      "##ଲକ୍ଷ୍ମ": 9087,
      "ଟିଟିଲ": 9088,
      "ମହତ୍ୱ": 9089,
      "କାନ୍ଧ": 9090,
      "##ଲତା": 9091,
      "ସମ୍ପଦ": 9092,
      "ଫାଣ୍ଡି": 9093,
      "ପାରଳାଖେମୁଣ୍ଡି": 9094,
      "ଗାଙ୍ଗ": 9095,
      "୨୦୧୦": 9096,
      "##ଗୁଡିକରେ": 9097,
      "ସ୍ୱାସ୍ଥ୍ୟସେବା": 9098,
      "ବ୍ଲାକ": 9099,
      "ସେଥି": 9100,
      "##aily": 9101,
      "ପହଞ୍ଚିଛନ୍ତି": 9102,
      "ନେଗେ": 9103,
      "ପଞ୍ଜାବର": 9104,
      "ବିଏସ": 9105,
      "##ାଏଲ": 9106,
      "ବକେ": 9107,
      "ଗାଇଡଲାଇନ": 9108,
      "ରୌପ": 9109,
      "ଡଙ୍ଗା": 9110,
      "##ଷି": 9111,
      "##କ୍ସିନ": 9112,
      "ଅଡି": 9113,
      "##eet": 9114,
      "ରିୟ": 9115,
      "ସ୍ୱାମୀଙ୍କ": 9116,
      "ହର୍ଷ": 9117,
      "##ବାହନ": 9118,
      "ରନର": 9119,
      "##କଳା": 9120,
      "ବେଶୀ": 9121,
      "ମଦ୍ୟ": 9122,
      "ଭୋଜି": 9123,
      "ନିଃ": 9124,
      "##ୟାର୍": 9125,
      "ନିର୍ବାଚନକୁ": 9126,
      "##ନାରାୟଣ": 9127,
      "ହିତ": 9128,
      "ସତ୍ତ୍ବେ": 9129,
      "କୋହଲିଙ୍କ": 9130,
      "ହାଲୁକା": 9131,
      ").": 9132,
      "ସାଧ": 9133,
      "ମହାମାରୀର": 9134,
      "ନିଆଁକୁ": 9135,
      "ସେମିଫାଇନାଲ": 9136,
      "ଜିଲ୍": 9137,
      "ଭରତ": 9138,
      "ଆଦିତ୍ୟନାଥ": 9139,
      "Un": 9140,
      "You": 9141,
      "ଥିବ": 9142,
      "ରେକର୍": 9143,
      "ଗୁଳିମା": 9144,
      "ଏଚ୍": 9145,
      "ରକ୍ଷଣାବେ": 9146,
      "ସୁଶାନ୍ତଙ୍କ": 9147,
      "ମଞ୍ଜୁରୀ": 9148,
      "##ener": 9149,
      "##ିଆର୍": 9150,
      "ପଶ୍ଚିମବଙ୍ଗର": 9151,
      "ବାହ୍ୟ": 9152,
      "ସଂସ୍କୃତିର": 9153,
      "ପ୍ରଶାସକ": 9154,
      "##ile": 9155,
      "ଅକ୍ଷର": 9156,
      "ଆୟକର": 9157,
      "ବାଧାପ୍ରାପ୍ତ": 9158,
      "ଖଣ୍ଡନ": 9159,
      "ପ୍ରୋଗ୍ରାମ": 9160,
      "ବର୍ଷାରେ": 9161,
      "ଗୁଇନ୍ଦା": 9162,
      "##କୀୟ": 9163,
      "##ଦ୍ଦା": 9164,
      "ଦେବଗଡ": 9165,
      "Bh": 9166,
      "୨୦୧୮ରେ": 9167,
      "ସମାରୋହରେ": 9168,
      "##ଯାଇପାରିବ": 9169,
      "ପାର୍କିଂ": 9170,
      "ଧାରଣାରେ": 9171,
      "ରିମାଣ୍ଡରେ": 9172,
      "ଆଲୋଚନାରେ": 9173,
      "ଅବତରଣ": 9174,
      "ପ୍ରକ୍ରିୟାକରଣ": 9175,
      "ରେଡ": 9176,
      "##ସୀମା": 9177,
      "100": 9178,
      "ଖାଇଲେ": 9179,
      "ଶେଖର": 9180,
      "ବ୍ଲା": 9181,
      "୮ଟା": 9182,
      "ପଡିଥାଏ": 9183,
      "୪ଟା": 9184,
      "ଖୁସିରେ": 9185,
      "ସାହସ": 9186,
      "ଦାମ୍ପ": 9187,
      "ବିଶ୍ୱକପ": 9188,
      "ଉପସ୍ଥିତି": 9189,
      "ଦେୟ": 9190,
      "##ES": 9191,
      "ରୌପ୍ୟ": 9192,
      "ନାଇଟ": 9193,
      "ସିବି": 9194,
      "##ଶିଳ୍ପୀ": 9195,
      "ପୁରସ୍କୃତ": 9196,
      "ଅଭୟାରଣ": 9197,
      "କାର୍ଯ୍ୟନିର୍ବାହୀ": 9198,
      "ବାସଭବନରେ": 9199,
      "##igital": 9200,
      "ଜନସାଧାରଣଙ୍କୁ": 9201,
      "ତୀର୍ଥ": 9202,
      "##ଣ୍ଡିରେ": 9203,
      "ଖଣିଜ": 9204,
      "କର୍ତ୍ତୃପକ୍ଷଙ୍କ": 9205,
      "##ତିର": 9206,
      "ଉଠୁଛି": 9207,
      "##ich": 9208,
      "ଅପରାହ୍ଣ": 9209,
      "##ଉଥିବା": 9210,
      "ନାଇଟ୍": 9211,
      "ବ୍ରାଜ": 9212,
      "ଗୁଣବ": 9213,
      "##୍ୟର": 9214,
      "ଯାଆନ୍ତି": 9215,
      "##ଖାନା": 9216,
      "ଅର୍ଡର": 9217,
      "ଡାଲି": 9218,
      "ବକେୟା": 9219,
      "ଅନିୟମିତ": 9220,
      "ମେଳା": 9221,
      "##ଟ୍ରି": 9222,
      "ଚାଟ": 9223,
      "ଲ୍ୟାଣ୍ଡ": 9224,
      "ବିଦାୟ": 9225,
      "୧୦ରୁ": 9226,
      "ପବ୍ଲ": 9227,
      "ଫୋର": 9228,
      "##୍ରୋନିକ": 9229,
      "ଦାମ୍ପତ୍ୟ": 9230,
      "ସ୍ବାଗତ": 9231,
      "ପେଟରେ": 9232,
      "##**": 9233,
      "ଚତୁର୍": 9234,
      "ସମାଜବାଦୀ": 9235,
      "ଗୁଡ଼ିକରେ": 9236,
      "ସାକ୍ଷୀ": 9237,
      "##ିଲ୍ଡ": 9238,
      "ତଥ୍ୟକୁ": 9239,
      "tw": 9240,
      "ମଧ୍ୟକୁ": 9241,
      "ଲାଲ୍": 9242,
      "ପାଇପ": 9243,
      "ଜାତିର": 9244,
      "Pro": 9245,
      "ଫାଟ": 9246,
      "##ପ୍ରକାର": 9247,
      "ଶ୍ରୀମନ୍ଦିରରେ": 9248,
      "ହିତାଧିକାରୀଙ୍କୁ": 9249,
      "ସେସବୁ": 9250,
      "ଚକିତ": 9251,
      "ବିନୋଦ": 9252,
      "ପଣ": 9253,
      "ବହିଷ୍କାର": 9254,
      "ଅନୁବାଦ": 9255,
      "କ୍ୟାବିନେଟ୍": 9256,
      "ମେଡିକାଲ୍": 9257,
      "##ମରା": 9258,
      "##ଭେଣ୍ଟ": 9259,
      "ତାରା": 9260,
      "ହ୍ୱାଟ": 9261,
      "ଭାଲୁ": 9262,
      "ସହରାଞ୍ଚଳ": 9263,
      "ଫର୍ମା": 9264,
      "##ାପତ": 9265,
      "ବିବାହର": 9266,
      "##କଡି": 9267,
      "##୍ୱେ": 9268,
      "ଖଣ୍ଡଗିରି": 9269,
      "##ପିଂ": 9270,
      "ବଙ୍ଗୋପସାଗରରେ": 9271,
      "##quired": 9272,
      "##ାଜନ": 9273,
      "ଅଧିବେଶନରେ": 9274,
      "##୮ରେ": 9275,
      "ମେଡିସି": 9276,
      "ଟିକିଏ": 9277,
      "ସେବକ": 9278,
      "ପୂଜାରୀ": 9279,
      "ଖ୍ୟା": 9280,
      "ୟୁରୋପୀୟ": 9281,
      "ଦଳରୁ": 9282,
      "ଆଇନକୁ": 9283,
      "ପ୍ରସାରିତ": 9284,
      "ଠାକରେ": 9285,
      "ପାର୍ଶ୍ବ": 9286,
      "କୀର୍ତ୍ତ": 9287,
      "୩୦ରେ": 9288,
      "ସଙ୍ଗରୋଧ": 9289,
      "ସାଙ୍ଗମାନଙ୍କ": 9290,
      "ହସି": 9291,
      "ଭଙ୍ଗାରୁ": 9292,
      "ଇମ": 9293,
      "ଆୟତ୍ତ": 9294,
      "ଡିଜାଇନ୍": 9295,
      "##ହୁଳ": 9296,
      "ଡାହାଣ": 9297,
      "##ଭେଦ": 9298,
      "କୁହାଯାଉଥିବା": 9299,
      "ରାଜନାଥ": 9300,
      "ଟମାଟୋ": 9301,
      "ଉପଲକ୍ଷ": 9302,
      "##ଯାତ୍ରୀ": 9303,
      "ସେଠାକୁ": 9304,
      "ଜାଣିଲେ": 9305,
      "ଜବାବରେ": 9306,
      "##ାବର": 9307,
      "ରାୟଗଡ଼": 9308,
      "ଉଠାଇବା": 9309,
      "Follow": 9310,
      "କିରଣ": 9311,
      "ପରାଜିତ": 9312,
      "ଗୁଡିକର": 9313,
      "କରିଦି": 9314,
      "କଂଗ୍ରେସକୁ": 9315,
      "##interest": 9316,
      "ପଡ଼ିଲା": 9317,
      "ପ୍ଲାଷ୍ଟିକ": 9318,
      "twitter": 9319,
      "##ev": 9320,
      "ଅନୁଷ୍ଠାନର": 9321,
      "##୭ରେ": 9322,
      "ଷ୍ଟାର୍ଟ": 9323,
      "ହାଲ": 9324,
      "ସୁପ୍ରିମକୋର୍ଟରେ": 9325,
      "Child": 9326,
      "ଭିଟାମିନ୍": 9327,
      "୬୦୦": 9328,
      "ୱାଇ": 9329,
      "ଦୋକାନରେ": 9330,
      "ବୁର୍ଲା": 9331,
      "ଗୋପନୀୟ": 9332,
      "ପ୍ରିୟଦର୍ଶ": 9333,
      "ନିଗ": 9334,
      "ଆଡଭ": 9335,
      "##ଛାତ୍ର": 9336,
      "ଉପଭୋକ୍ତା": 9337,
      "##20": 9338,
      "ଗାଧୋଇ": 9339,
      "##ାସରେ": 9340,
      "ଲିପ": 9341,
      "ଆଗ୍ରହୀ": 9342,
      "କ୍ଷମତାକୁ": 9343,
      "ବସିଥିଲେ": 9344,
      "ଓଡ଼ିଶାଲାଇ": 9345,
      "ବ୍ଯ": 9346,
      "ଲେଙ୍କା": 9347,
      "ଆର୍ଟିଫିସିଆଲ": 9348,
      "ଓଲଟି": 9349,
      "ଉତ୍ସର୍ଗ": 9350,
      "ରକ୍ଷଣାବେକ୍ଷଣ": 9351,
      "ସରିବା": 9352,
      "##ାଇବେ": 9353,
      "ପାର୍ଥକ୍ୟ": 9354,
      "ସେଲିବ୍ରିଟି": 9355,
      "ସେଦିନ": 9356,
      "ସହଭାଗ": 9357,
      "ପଡ଼ୁଛି": 9358,
      "##ିଲୁ": 9359,
      "ନଜରରେ": 9360,
      "ଡେଭଲ": 9361,
      "ପାରିତ": 9362,
      "ଶାସିତ": 9363,
      "କମେଣ୍ଟ": 9364,
      "ବିଶେଷଜ୍ଞମାନେ": 9365,
      "ଆଧ୍ୟାତ୍ମିକ": 9366,
      "ନେଇପାରିବେ": 9367,
      "ଏଯାଏଁ": 9368,
      "##ବ୍ୟକ୍ତ": 9369,
      "ବଳବ": 9370,
      "Tagged": 9371,
      "##ପ୍ରୀତ": 9372,
      "##etter": 9373,
      "ଷଡ଼ଯନ୍ତ୍ର": 9374,
      "ଦେଶରୁ": 9375,
      "ନିମ୍": 9376,
      "##୍ୱା": 9377,
      "fields": 9378,
      "Spread": 9379,
      "##ପାର୍": 9380,
[...]
