{
  "version": "1.0",
  "truncation": null,
  "padding": null,
  "added_tokens": [
    {
      "id": 0,
      "content": "[PAD]",
      "single_word": false,
      "lstrip": false,
      "rstrip": false,
      "normalized": false,
      "special": true
    },
    {
      "id": 1,
      "content": "[UNK]",
      "single_word": false,
      "lstrip": false,
      "rstrip": false,
      "normalized": false,
      "special": true
    },
    {
      "id": 2,
      "content": "[CLS]",
      "single_word": false,
      "lstrip": false,
      "rstrip": false,
      "normalized": false,
      "special": true
    },
    {
      "id": 3,
      "content": "[SEP]",
      "single_word": false,
      "lstrip": false,
      "rstrip": false,
      "normalized": false,
      "special": true
    },
    {
      "id": 4,
      "content": "[MASK]",
      "single_word": false,
      "lstrip": false,
      "rstrip": false,
      "normalized": false,
      "special": true
    },
    {
      "id": 5,
      "content": "<|endoftext|>",
      "single_word": false,
      "lstrip": false,
      "rstrip": false,
      "normalized": false,
      "special": true
    }
  ],
  "normalizer": {
    "type": "Sequence",
    "normalizers": [
      {
        "type": "NFD"
      },
      {
        "type": "Replace",
        "pattern": {
          "String": "\\u200D"
        },
        "content": ""
      },
      {
        "type": "Replace",
        "pattern": {
          "String": "\\u200C"
        },
        "content": ""
      },
      {
        "type": "Replace",
        "pattern": {
          "Regex": "[^\\u0000-\\u00FF\\u0B00-\\u0B7F\\u0964-\\u0965]"
        },
        "content": ""
      },
      {
        "type": "Replace",
        "pattern": {
          "String": "\\s+"
        },
        "content": " "
      }
    ]
  },
  "pre_tokenizer": {
    "type": "Sequence",
    "pretokenizers": [
      {
        "type": "Split",
        "pattern": {
          "Regex": "([+-]?[୦-୯]+(?:[୦-୯]*,[୦-୯]+)*(?:\\.[୦-୯]+)*)"
        },
        "behavior": "Isolated",
        "invert": false
      },
      {
        "type": "WhitespaceSplit"
      },
      {
        "type": "UnicodeScripts"
      }
    ]
  },
  "post_processor": null,
  "decoder": null,
  "model": {
    "type": "BPE",
    "dropout": null,
    "unk_token": "[UNK]",
    "continuing_subword_prefix": null,
    "end_of_word_suffix": null,
    "fuse_unk": true,
    "byte_fallback": false,
    "ignore_merges": false,
    "vocab": {
      "[PAD]": 0,
      "[UNK]": 1,
      "[CLS]": 2,
      "[SEP]": 3,
      "[MASK]": 4,
      "<|endoftext|>": 5,
      "\u0001": 6,
      "\u0002": 7,
      "\u0003": 8,
      "\u001b": 9,
      "\u001f": 10,
      "!": 11,
      "\"": 12,
      "#": 13,
      "$": 14,
      "%": 15,
      "&": 16,
      "'": 17,
      "(": 18,
      ")": 19,
      "*": 20,
      "+": 21,
      ",": 22,
      "-": 23,
      ".": 24,
      "/": 25,
      "0": 26,
      "1": 27,
      "2": 28,
      "3": 29,
      "4": 30,
      "5": 31,
      "6": 32,
      "7": 33,
      "8": 34,
      "9": 35,
      ":": 36,
      ";": 37,
      "<": 38,
      "=": 39,
      ">": 40,
      "?": 41,
      "@": 42,
      "A": 43,
      "B": 44,
      "C": 45,
      "D": 46,
      "E": 47,
      "F": 48,
      "G": 49,
      "H": 50,
      "I": 51,
      "J": 52,
      "K": 53,
      "L": 54,
      "M": 55,
      "N": 56,
      "O": 57,
      "P": 58,
      "Q": 59,
      "R": 60,
      "S": 61,
      "T": 62,
      "U": 63,
      "V": 64,
      "W": 65,
      "X": 66,
      "Y": 67,
      "Z": 68,
      "[": 69,
      "\\": 70,
      "]": 71,
      "^": 72,
      "_": 73,
      "`": 74,
      "a": 75,
      "b": 76,
      "c": 77,
      "d": 78,
      "e": 79,
      "f": 80,
      "g": 81,
      "h": 82,
      "i": 83,
      "j": 84,
      "k": 85,
      "l": 86,
      "m": 87,
      "n": 88,
      "o": 89,
      "p": 90,
      "q": 91,
      "r": 92,
      "s": 93,
      "t": 94,
      "u": 95,
      "v": 96,
      "w": 97,
      "x": 98,
      "y": 99,
      "z": 100,
      "{": 101,
      "|": 102,
      "}": 103,
      "~": 104,
      "": 105,
      "": 106,
      "": 107,
      "": 108,
      "": 109,
      "": 110,
      "": 111,
      "": 112,
      "": 113,
      "": 114,
      "": 115,
      "": 116,
      "": 117,
      "": 118,
      "¡": 119,
      "¢": 120,
      "£": 121,
      "¤": 122,
      "¥": 123,
      "¦": 124,
      "§": 125,
      "¨": 126,
      "©": 127,
      "ª": 128,
      "«": 129,
      "¬": 130,
      "­": 131,
      "®": 132,
      "¯": 133,
      "°": 134,
      "±": 135,
      "²": 136,
      "³": 137,
      "´": 138,
      "µ": 139,
      "¶": 140,
      "·": 141,
      "¸": 142,
      "¹": 143,
      "º": 144,
      "»": 145,
      "¼": 146,
      "½": 147,
      "¾": 148,
      "¿": 149,
      "Æ": 150,
      "Ð": 151,
      "×": 152,
      "Ø": 153,
      "Þ": 154,
      "ß": 155,
      "æ": 156,
      "ð": 157,
      "÷": 158,
      "ø": 159,
      "þ": 160,
      "।": 161,
      "॥": 162,
      "ଁ": 163,
      "ଂ": 164,
      "ଃ": 165,
      "଄": 166,
      "ଅ": 167,
      "ଆ": 168,
      "ଇ": 169,
      "ଈ": 170,
      "ଉ": 171,
      "ଊ": 172,
      "ଋ": 173,
      "ଌ": 174,
      "଎": 175,
      "ଏ": 176,
      "ଐ": 177,
      "ଓ": 178,
      "ଔ": 179,
      "କ": 180,
      "ଖ": 181,
      "ଗ": 182,
      "ଘ": 183,
      "ଙ": 184,
      "ଚ": 185,
      "ଛ": 186,
      "ଜ": 187,
      "ଝ": 188,
      "ଞ": 189,
      "ଟ": 190,
      "ଠ": 191,
      "ଡ": 192,
      "ଢ": 193,
      "ଣ": 194,
      "ତ": 195,
      "ଥ": 196,
      "ଦ": 197,
      "ଧ": 198,
      "ନ": 199,
      "ପ": 200,
      "ଫ": 201,
      "ବ": 202,
      "ଭ": 203,
      "ମ": 204,
      "ଯ": 205,
      "ର": 206,
      "ଲ": 207,
      "ଳ": 208,
      "ଵ": 209,
      "ଶ": 210,
      "ଷ": 211,
      "ସ": 212,
      "ହ": 213,
      "଼": 214,
      "ଽ": 215,
      "ା": 216,
      "ି": 217,
      "ୀ": 218,
      "ୁ": 219,
      "ୂ": 220,
      "ୃ": 221,
      "ୄ": 222,
      "େ": 223,
      "୉": 224,
      "୍": 225,
      "୎": 226,
      "ୖ": 227,
      "ୗ": 228,
      "ୟ": 229,
      "ୠ": 230,
      "ୡ": 231,
      "ୢ": 232,
      "ୣ": 233,
      "୤": 234,
      "୥": 235,
      "୦": 236,
      "୧": 237,
      "୨": 238,
      "୩": 239,
      "୪": 240,
      "୫": 241,
      "୬": 242,
      "୭": 243,
      "୮": 244,
      "୯": 245,
      "୰": 246,
      "ୱ": 247,
      "୲": 248,
      "୳": 249,
      "୵": 250,
      "ରେ": 251,
      "ାର": 252,
      "୍ର": 253,
      "ନ୍": 254,
      "ୋ": 255,
      "ବା": 256,
      "୍ୟ": 257,
      "କର": 258,
      "ଙ୍": 259,
      "କୁ": 260,
      "ତି": 261,
      "ଥି": 262,
      "ାଇ": 263,
      "ର୍": 264,
      "ାନ": 265,
      "ହି": 266,
      "ସ୍": 267,
      "ବି": 268,
      "କ୍": 269,
      "ପ୍ର": 270,
      "କରି": 271,
      "ଛି": 272,
      "ଙ୍କ": 273,
      "ବେ": 274,
      "ଲା": 275,
      "ନି": 276,
      "ତା": 277,
      "ଲେ": 278,
      "ନା": 279,
      "ନ୍ତ": 280,
      "ଟି": 281,
      "ରି": 282,
      "ରା": 283,
      "ମ୍": 284,
      "ହା": 285,
      "ନ୍ତି": 286,
      "ଦେ": 287,
      "ସେ": 288,
      "ଲି": 289,
      "ରୁ": 290,
      "ମା": 291,
      "ସି": 292,
      "ତ୍": 293,
      "କ୍ଷ": 294,
      "କାର": 295,
      "କା": 296,
      "ମି": 297,
      "୍ଟ": 298,
      "ହେ": 299,
      "ମାନ": 300,
      "ଛନ୍ତି": 301,
      "ଦି": 302,
      "କି": 303,
      "ଡ଼": 304,
      "କେ": 305,
      "ହୋ": 306,
      "ନେ": 307,
      "ଥିବା": 308,
      "ହୋଇ": 309,
      "ପା": 310,
      "ପାଇ": 311,
      "ସା": 312,
      "ଜି": 313,
      "୍ୟା": 314,
      "ଭା": 315,
      "ଥିଲେ": 316,
      "ଦ୍": 317,
      "ଙ୍କୁ": 318,
      "ଡି": 319,
      "ଯାଇ": 320,
      "ଣ୍": 321,
      "ଭି": 322,
      "ଲ୍": 323,
      "ଧ୍ୟ": 324,
      "ପୁ": 325,
      "ପାଇଁ": 326,
      "ଥା": 327,
      "ତ୍ର": 328,
      "ଳି": 329,
      "ଏହି": 330,
      "ାରି": 331,
      "ମୁ": 332,
      "୍ଚ": 333,
      "ଯା": 334,
      "ପରି": 335,
      "ନ୍ଦ": 336,
      "ବାର": 337,
      "ସୁ": 338,
      "ଧି": 339,
      "ପରେ": 340,
      "ଥିଲା": 341,
      "ସମ": 342,
      "ଯୋ": 343,
      "ବଂ": 344,
      "ଜଣ": 345,
      "ମଧ୍ୟ": 346,
      "ଏବଂ": 347,
      "ପି": 348,
      "କ୍ର": 349,
      "ଗୁ": 350,
      "ଡ଼ି": 351,
      "ଶ୍": 352,
      "ଷ୍ଟ": 353,
      "ସଂ": 354,
      "ତେ": 355,
      "ବର୍": 356,
      "ଷ୍": 357,
      "କରା": 358,
      "ଙ୍ଗ": 359,
      "କରିବା": 360,
      "୍ରୀ": 361,
      "ରାଜ": 362,
      "ରହି": 363,
      "ସ୍ତ": 364,
      "ଲୋ": 365,
      "ରୋ": 366,
      "ଣା": 367,
      "ଣି": 368,
      "ଯ୍ୟ": 369,
      "ମେ": 370,
      "ଏକ": 371,
      "ନୁ": 372,
      "ଶା": 373,
      "ବ୍ୟ": 374,
      "ସର": 375,
      "ୋଲି": 376,
      "ସହ": 377,
      "ନ୍ତୁ": 378,
      "ଚା": 379,
      "ସ୍ଥ": 380,
      "ଏହା": 381,
      "ଚି": 382,
      "ଳେ": 383,
      "ୀୟ": 384,
      "ଯୋଗ": 385,
      "ଶି": 386,
      "ଯେ": 387,
      "ଣ୍ଡ": 388,
      "ଜା": 389,
      "ସମ୍": 390,
      "ଦା": 391,
      "ବୁ": 392,
      "ପୂ": 393,
      "ାର୍": 394,
      "ବର": 395,
      "ହୁ": 396,
      "ଞ୍ଚ": 397,
      "୍ରା": 398,
      "ଖି": 399,
      "ତ୍ତ": 400,
      "ନେଇ": 401,
      "ନ୍ୟ": 402,
      "ମାନେ": 403,
      "କହି": 404,
      "ଦେଇ": 405,
      "ପ୍": 406,
      "ଳା": 407,
      "ଜେ": 408,
      "ହାର": 409,
      "ଦେଶ": 410,
      "ବେଳେ": 411,
      "ଟ୍": 412,
      "ଅନୁ": 413,
      "କରେ": 414,
      "ମନ୍ତ": 415,
      "ଯାଇଛି": 416,
      "ନିର୍": 417,
      "ବାକୁ": 418,
      "କାର୍": 419,
      "ଅଧି": 420,
      "କୋ": 421,
      "ାରେ": 422,
      "ହିଁ": 423,
      "ଦୁ": 424,
      "କ୍ତ": 425,
      "ାରୁ": 426,
      "ଗି": 427,
      "ପୂର୍": 428,
      "ପ୍ରତି": 429,
      "ପୁର": 430,
      "ପର୍": 431,
      "ବୋଲି": 432,
      "ଗା": 433,
      "ଦ୍ଧ": 434,
      "ବର୍ଷ": 435,
      "ରାଜ୍ୟ": 436,
      "ଶ୍ୱ": 437,
      "ମୁଖ": 438,
      "ୃତ": 439,
      "ଦିନ": 440,
      "ାନା": 441,
      "ଙ୍କର": 442,
      "ଭାର": 443,
      "ଖା": 444,
      "ସ୍ୱ": 445,
      "କରୁ": 446,
      "ାରା": 447,
      "ୟରେ": 448,
      "ଜିଲ୍": 449,
      "ଅଭି": 450,
      "ଲୋକ": 451,
      "ନୀ": 452,
      "ଆର": 453,
      "ମୋ": 454,
      "କାର୍ଯ୍ୟ": 455,
      "କ୍ଷା": 456,
      "ଣ୍ଟ": 457,
      "ୁବ": 458,
      "ଗତ": 459,
      "ଟେ": 460,
      "ଯି": 461,
      "ସରକାର": 462,
      "ପେ": 463,
      "ନ୍ଦ୍ର": 464,
      "ଗୋ": 465,
      "କର୍": 466,
      "ପର": 467,
      "ଧାନ": 468,
      "ଚନା": 469,
      "ମନ୍ତ୍ରୀ": 470,
      "କରିଥିଲେ": 471,
      "ଡା": 472,
      "ସୂ": 473,
      "ଉଛି": 474,
      "ଛା": 475,
      "ଭାରତ": 476,
      "ଶୁ": 477,
      "୨୦": 478,
      "କରିଛନ୍ତି": 479,
      "ପାରି": 480,
      "ନାହିଁ": 481,
      "ହିତ": 482,
      "ଥାଏ": 483,
      "ନ୍ନ": 484,
      "ଟା": 485,
      "ଆପ": 486,
      "କ୍ତି": 487,
      "ଜନ": 488,
      "ଞ୍": 489,
      "ଷ୍ଠ": 490,
      "ଆଇ": 491,
      "ରହିଛି": 492,
      "ତାଙ୍କ": 493,
      "ପକ୍ଷ": 494,
      "ବ୍ୟବ": 495,
      "ମାନଙ୍କ": 496,
      "ନିଜ": 497,
      "ମିଳି": 498,
      "ଜ୍": 499,
      "ଶେ": 500,
      "20": 501,
      "ଳରେ": 502,
      "ଦୀ": 503,
      "ିତ": 504,
      "ଉପ": 505,
      "ନୂ": 506,
      "ତେବେ": 507,
      "at": 508,
      "ଘଟ": 509,
      "୍ୟୁ": 510,
      "ହେବ": 511,
      "କହିଛନ୍ତି": 512,
      "ଆସି": 513,
      "ଆଜି": 514,
      "ନ୍ଧ": 515,
      "ଅନ୍ୟ": 516,
      "ଭାବେ": 517,
      "କଟ": 518,
      "ଭାବ": 519,
      "er": 520,
      "ଗ୍ର": 521,
      "ସନ": 522,
      "ଆପଣ": 523,
      "ଉପରେ": 524,
      "ମ୍ଭ": 525,
      "କାରୀ": 526,
      "ସ୍ଥାନ": 527,
      "ାୟ": 528,
      "କିଛି": 529,
      "ୀର": 530,
      "ଜିଲ୍ଲା": 531,
      "ସ୍ଥି": 532,
      "ହୋଇଛି": 533,
      "କ୍ରମ": 534,
      "ଦ୍ୱ": 535,
      "ଭଳି": 536,
      "ାର୍ଟ": 537,
      "ପୂର୍ବ": 538,
      "ସ୍ଥା": 539,
      "ଢ଼": 540,
      "ଟଙ୍କ": 541,
      "ସୂଚନା": 542,
      "ହ୍": 543,
      "ବ୍": 544,
      "ମୃତ": 545,
      "ସହିତ": 546,
      "ଗ୍ରା": 547,
      "ମୁଖ୍ୟ": 548,
      "ଜୀ": 549,
      "in": 550,
      "ତୁ": 551,
      "ସବୁ": 552,
      "ମଧ୍ୟରେ": 553,
      "ଲକ୍ଷ": 554,
      "ଭାଗ": 555,
      "କରାଯାଇ": 556,
      "ଦିଆ": 557,
      "ବନ": 558,
      "ଷ୍ଟି": 559,
      "ଯୁ": 560,
      "ଅବ": 561,
      "ଗ୍": 562,
      "ଓଡ଼ି": 563,
      "ବୃ": 564,
      "ଉଁ": 565,
      "ମୀ": 566,
      "ଅଧିକ": 567,
      "ଜଣେ": 568,
      "ଠି": 569,
      "ଏଥି": 570,
      "ତ୍ତି": 571,
      "ଫି": 572,
      "ଫେ": 573,
      "ୟା": 574,
      "ଜାର": 575,
      "ଠାରୁ": 576,
      "ଲାଗି": 577,
      "ଘଟଣା": 578,
      "ଏବେ": 579,
      "ଦଳ": 580,
      "କାଶ": 581,
      "ଜୁ": 582,
      "ପତି": 583,
      "କରାଯାଇଛି": 584,
      "ଚେ": 585,
      "ଣ୍ଣ": 586,
      "ମାର": 587,
      "କୌ": 588,
      "ମହା": 589,
      "ଶ୍ୱର": 590,
      "ବଳ": 591,
      "ଧାର": 592,
      "on": 593,
      "ମ୍ବା": 594,
      "ସେହି": 595,
      "କରିବାକୁ": 596,
      "ୀନ": 597,
      "ରଖି": 598,
      "ଶ୍ରୀ": 599,
      "ଉତ୍ତ": 600,
      "ଦାନ": 601,
      "ଚ୍ଚ": 602,
      "re": 603,
      "ଶେଷ": 604,
      "ନୂଆ": 605,
      "ଭିନ୍ନ": 606,
      "ମାନଙ୍କୁ": 607,
      "ଠାରେ": 608,
      "ସମସ୍ତ": 609,
      "ଆରମ୍ଭ": 610,
      "କ୍ରି": 611,
      "ବ୍ୟା": 612,
      "an": 613,
      "ଦୁଇ": 614,
      "ସମୟରେ": 615,
      "ଚାର": 616,
      "ହୋଇଥିବା": 617,
      "ଟର": 618,
      "ତ୍ୱ": 619,
      "th": 620,
      "ଖେ": 621,
      "ଣସି": 622,
      "ବାରୁ": 623,
      "ଯାହା": 624,
      "କିନ୍ତୁ": 625,
      "ବର୍ତ୍ତ": 626,
      "st": 627,
      "ବିଜେ": 628,
      "କରୋନା": 629,
      "ଡ଼ା": 630,
      "ସୀ": 631,
      "ନରେ": 632,
      "ଟଙ୍କା": 633,
      "ତ୍ରୀ": 634,
      "ୟୁ": 635,
      "ଲ୍ଲ": 636,
      "କୌଣସି": 637,
      "୧୦": 638,
      "ସ୍ୱା": 639,
      "କ୍ଷେ": 640,
      "ମରେ": 641,
      "ଯିବ": 642,
      "ର୍ଶ": 643,
      "ପଦ": 644,
      "ଲୁ": 645,
      "କୃ": 646,
      "ହେଲେ": 647,
      "ଅର୍": 648,
      "ଣୀ": 649,
      "ପର୍ଯ୍ୟ": 650,
      "ତୀ": 651,
      "ସର୍": 652,
      "ପକ୍ଷରୁ": 653,
      "ଆଉ": 654,
      "ପ୍ରଥ": 655,
      "202": 656,
      "ଦେଖି": 657,
      "କେନ୍ଦ୍ର": 658,
      "ଭୁବ": 659,
      "କରିଛି": 660,
      "ତର": 661,
      "ଟିଏ": 662,
      "ରୀ": 663,
      "ପଡ଼ି": 664,
      "ଭୁବନେ": 665,
      "ୋଷ": 666,
      "ୟୀ": 667,
      "ମର": 668,
      "ସନ୍": 669,
      "ରୋଧ": 670,
      "ଗୁରୁ": 671,
      "..": 672,
      "ୟକ": 673,
      "ୃଷ୍ଟି": 674,
      "ବିଭାଗ": 675,
      "ଉତ୍ତର": 676,
      "ଡ୍": 677,
      "ଦ୍ଧି": 678,
      "ହେବା": 679,
      "ତ୍ୟା": 680,
      "ତନ": 681,
      "ହେଉଛି": 682,
      "ତାଙ୍କୁ": 683,
      "ଳୟ": 684,
      "ଘର": 685,
      "ନିର୍ବା": 686,
      "ଶ୍ର": 687,
      "ଚ୍": 688,
      "ଫଳ": 689,
      "ବିଭିନ୍ନ": 690,
      "ଗ୍ରହ": 691,
      "ପହ": 692,
      "ହଜାର": 693,
      "ଅନେ": 694,
      "ପ୍ରା": 695,
      "ଲାଇ": 696,
      "ଯେଉଁ": 697,
      "ବିଷ": 698,
      "ମହି": 699,
      "ଅନେକ": 700,
      "ଣ୍ଡି": 701,
      "ଶୀ": 702,
      "ମୂ": 703,
      "ହେଉ": 704,
      "ପୋଲି": 705,
      "ପାଳ": 706,
      "ବହୁ": 707,
      "ଣୁ": 708,
      "ଲ୍ଲୀ": 709,
      "ମୃତ୍ୟୁ": 710,
      "ଆମେ": 711,
      "ସଭା": 712,
      "ସୋ": 713,
      "ଓଡ଼ିଶା": 714,
      "ତରେ": 715,
      "ତ୍ୟ": 716,
      "ରରେ": 717,
      "ଳ୍": 718,
      "ଭେ": 719,
      "୧୯": 720,
      "ଖବର": 721,
      "ମହିଳା": 722,
      "ପ୍ରଧାନ": 723,
      "ଡେ": 724,
      "ବାଦ": 725,
      "ସିଂ": 726,
      "ହୋଇଥିଲା": 727,
      "ଅଭିଯୋଗ": 728,
      "ଶ୍ୟ": 729,
      "ସମା": 730,
      "ଧା": 731,
      "୍ରି": 732,
      "କାରଣ": 733,
      "ନିୟ": 734,
      "ବୀ": 735,
      "2021": 736,
      "ଜଣା": 737,
      "en": 738,
      "ରଣ": 739,
      "ବୈ": 740,
      "ଉତ୍": 741,
      "ଦ୍ୟ": 742,
      "ପରା": 743,
      "ତାରି": 744,
      "କମ୍": 745,
      "ମାମ": 746,
      "ଜ୍ଞ": 747,
      "ଏହାର": 748,
      "ପରିବାର": 749,
      "ଦ୍ୱାରା": 750,
      "ଚନ": 751,
      "ଦିଲ୍ଲୀ": 752,
      "ପୁଲି": 753,
      "ସ୍ତା": 754,
      "ବିଶ୍ୱ": 755,
      "ଚାଲି": 756,
      "ପୂର୍ଣ୍ଣ": 757,
      "କଥା": 758,
      "ତାରିଖ": 759,
      "ଭୂ": 760,
      "ଯାଉଛି": 761,
      "ଦର୍ଶ": 762,
      "ଗୋଟିଏ": 763,
      "ପୂର୍ବରୁ": 764,
      "ପଡି": 765,
      "ପର୍ଯ୍ୟନ୍ତ": 766,
      "ଗୁଡ଼ି": 767,
      "ବ୍ୟକ୍ତି": 768,
      "ଭୋ": 769,
      "ar": 770,
      "ସ୍ଥିତି": 771,
      "କର୍ମ": 772,
      "ସଂଖ": 773,
      "ଲରେ": 774,
      "ଯାଏ": 775,
      "ଗର": 776,
      "ଜୀବନ": 777,
      "or": 778,
      "ନର": 779,
      "ପୋ": 780,
      "ଜୟ": 781,
      "ମିତ": 782,
      "ନ୍ତ୍ର": 783,
      "ଦେଇଛନ୍ତି": 784,
      "ଭୁବନେଶ୍ୱର": 785,
      "ସ୍ଥ୍ୟ": 786,
      "ବୃଦ୍ଧି": 787,
      "ମାଣ": 788,
      "ବାହ": 789,
      "ହ୍ନ": 790,
      "ଏହାକୁ": 791,
      "ନିକଟ": 792,
      "ପ୍ରଥମ": 793,
      "ପାରେ": 794,
      "ସଦ": 795,
      "ଦ୍ଧା": 796,
      "ବିଦ": 797,
      "ବେଶ": 798,
      "ପୋଲିସ": 799,
      "ମାତ୍ର": 800,
      "ାଇବା": 801,
      "ଦ୍ର": 802,
      "ତାହା": 803,
      "ed": 804,
      "ଭୟ": 805,
      "ବୋ": 806,
      "ଥିବାରୁ": 807,
      "ସ୍ତୁ": 808,
      "ନାୟକ": 809,
      "ଅଞ୍ଚ": 810,
      "କୋଟି": 811,
      "ଯାଉ": 812,
      "es": 813,
      "ଳ୍ପ": 814,
      "କଂ": 815,
      "ଞ୍ଚି": 816,
      "କାମ": 817,
      "ବନ୍ଧ": 818,
      "ଶ୍ଚ": 819,
      "ପ୍ରି": 820,
      "ମହ": 821,
      "ନିଆ": 822,
      "ଯୁବ": 823,
      "ଅଧିକାରୀ": 824,
      "କୁମାର": 825,
      "କ୍ରମଣ": 826,
      "ବିରୋଧ": 827,
      "ଠା": 828,
      "ସମୟ": 829,
      "ଗ୍ରେ": 830,
      "ଗେ": 831,
      "କଲେ": 832,
      "ନ୍ଦି": 833,
      "ମୁଖ୍ୟମନ୍ତ୍ରୀ": 834,
      "ହୋଇଛନ୍ତି": 835,
      "al": 836,
      "ମ୍ବର": 837,
      "ଦୁର୍": 838,
      "ାର୍ଥ": 839,
      "ରକ୍ଷା": 840,
      "ଧାରଣ": 841,
      "ମାମଲା": 842,
      "ଜନା": 843,
      "ତଥା": 844,
      "ସଂଖ୍ୟା": 845,
      "କରନ୍ତୁ": 846,
      "is": 847,
      "ଭୁ": 848,
      "ସମ୍ପର୍": 849,
      "the": 850,
      "ଥର": 851,
      "କ୍ରା": 852,
      "ରୋଗ": 853,
      "ଟୋ": 854,
      "ପ୍ରଦାନ": 855,
      "ପ୍ରକାଶ": 856,
      "ନ୍ସ": 857,
      "ଦେଇଥିଲେ": 858,
      "କମି": 859,
      "ଦ୍ଦେଶ": 860,
      "ଆବ": 861,
      "ଶ୍ୟକ": 862,
      "ପାଣି": 863,
      "ମନ": 864,
      "ନୀତି": 865,
      "ପାରିବେ": 866,
      "ଯଦି": 867,
      "ପ୍ରଶ୍": 868,
      "ଷ୍ଟ୍ର": 869,
      "କ୍ଷେତ୍ର": 870,
      "ସେମାନେ": 871,
      "କରିବେ": 872,
      "ବନ୍ଦ": 873,
      "ଆର୍": 874,
      "ମିତି": 875,
      "ପାନ": 876,
      "ଭଲ": 877,
      "କିମ୍ବା": 878,
      "ପୋର୍ଟ": 879,
      "ଫ୍": 880,
      "ଦୂ": 881,
      "ଯୁକ୍ତ": 882,
      "ତାଙ୍କର": 883,
      "ହେଁ": 884,
      "ବିଜେପି": 885,
      "ତାର": 886,
      "ଲାର": 887,
      "ଚଳ": 888,
      "it": 889,
      "ସରେ": 890,
      "ଗାଁ": 891,
      "ପାର": 892,
      "ସାଧାରଣ": 893,
      "ic": 894,
      "ପ୍ରେ": 895,
      "ୟାର": 896,
      "ରାଜ୍ୟରେ": 897,
      "କୋର୍ଟ": 898,
      "ଗଣ": 899,
      "ଜଳ": 900,
      "କରଣ": 901,
      "ଆବଶ୍ୟକ": 902,
      "ଗ୍ରହଣ": 903,
      "କଂଗ୍ରେ": 904,
      "କରିଥିବା": 905,
      "ଜାରି": 906,
      "ବ୍ୟବହାର": 907,
      "ଭାରତୀୟ": 908,
      "ଜର": 909,
      "ପୁଲିସ": 910,
      "ଗଡ଼": 911,
      "ୀଙ୍କ": 912,
      "ଦନ": 913,
      "ଚିହ୍ନ": 914,
      "ନିର୍ବାଚନ": 915,
      "ଯ୍ୟା": 916,
      "ଯାଇଥିଲା": 917,
      "ସୃଷ୍ଟି": 918,
      "ଯାଇଥିବା": 919,
      "ପ୍ରଶ୍ନ": 920,
      "ଘରେ": 921,
      "ମୁଁ": 922,
      "ଅତି": 923,
      "କାଳ": 924,
      "ଦର": 925,
      "ଝି": 926,
      "କୋଭି": 927,
      "ପରୀ": 928,
      "କରାଯାଇଥିଲା": 929,
      "ଚାଷ": 930,
      "ପହଞ୍ଚି": 931,
      "ଳିତ": 932,
      "ou": 933,
      "ଆମ": 934,
      "ଘଟି": 935,
      "ଏସ": 936,
      "ହର": 937,
      "କୁହା": 938,
      "ସ୍ୟ": 939,
      "ଧରି": 940,
      "କଙ୍କ": 941,
      "ସେମାନଙ୍କ": 942,
      "କ୍ରାନ୍ତ": 943,
      "ଛୁ": 944,
      "ଏଭଳି": 945,
      "୧୨": 946,
      "ଣ୍ଡା": 947,
      "ପ୍ରସ୍ତୁ": 948,
      "ଏଥିରେ": 949,
      "ବ୍ଲ": 950,
      "ଦେବା": 951,
      "ତୀୟ": 952,
      "ଯୋଜନା": 953,
      "୧୫": 954,
      "ଭାବରେ": 955,
      "ସ୍ଥିତ": 956,
      "ଚିହ୍ନଟ": 957,
      "ପ୍ରଧାନମନ୍ତ୍ରୀ": 958,
      "ବିଦ୍ୟା": 959,
      "ଖୁ": 960,
      "ଭାଇ": 961,
      "ପ୍ରାୟ": 962,
      "ବାଇ": 963,
      "ନିଜର": 964,
      "ଦେଶରେ": 965,
      "ଶୋ": 966,
      "କରୁଥିବା": 967,
      "ଆୟ": 968,
      "ବାସୀ": 969,
      "କଟକ": 970,
      "ଛାତ୍ର": 971,
      "ଏସ୍": 972,
      "କେବଳ": 973,
      "ଏପରି": 974,
      "ମ୍ୟା": 975,
      "ତ୍ସା": 976,
      "ନେତା": 977,
      "ଫା": 978,
      "ମନ୍ଦି": 979,
      "ବଡ଼": 980,
      "ତଦ": 981,
      "ପଞ୍ଚ": 982,
      "ଚିକି": 983,
      "ବିଶେଷ": 984,
      "ପତ୍ତି": 985,
      "ଶତ": 986,
      "ସଙ୍ଗ": 987,
      "ଡାକ୍ତ": 988,
      "ିକ": 989,
      "ସ୍ୱାସ୍ଥ୍ୟ": 990,
      "ପାରିବ": 991,
      "ସେହିପରି": 992,
      "ସାମ": 993,
      "ବିଧ": 994,
      "ଲେଖ": 995,
      "ତେଣୁ": 996,
      "om": 997,
      "ଷ୍ଟା": 998,
      "କରାଯିବ": 999,
      "ଖୋ": 1000,
      "ରଫ": 1001,
      "ଦାୟ": 1002,
      "କାର୍ଯ୍ୟକ୍ରମ": 1003,
      "କଳା": 1004,
      "ସାରେ": 1005,
      "ଶାସନ": 1006,
      "ଶିକ୍ଷ": 1007,
      "ଫୁ": 1008,
      "ପଟ": 1009,
      "କରୁଛନ୍ତି": 1010,
      "କାନ": 1011,
      "କ୍ୟା": 1012,
      "ଯିବା": 1013,
      "୦୦": 1014,
      "ନୁହେଁ": 1015,
      "ପକ": 1016,
      "ନିର୍ଦ୍ଦେଶ": 1017,
      "ଆରେ": 1018,
      "କେନ୍ଦ": 1019,
      "ନିଷ୍": 1020,
      "ତିକ": 1021,
      "ରିପୋର୍ଟ": 1022,
      "ଅନ୍ତ": 1023,
      "ଯୋଗୁ": 1024,
      "ହେଲା": 1025,
      "କଂଗ୍ରେସ": 1026,
      "ର୍ଚ୍ଚ": 1027,
      "ସଲ": 1028,
      "ଘୋଷ": 1029,
      "ଢ଼ି": 1030,
      "ଗୁଡି": 1031,
      "୧୧": 1032,
      "କେତେ": 1033,
      "ସିଂହ": 1034,
      "ପ୍ତ": 1035,
      "ଅଛି": 1036,
      "ପୁଣି": 1037,
      "ଗ୍ରାମ": 1038,
      "ବ୍ୟବସ୍ଥା": 1039,
      "ଆକ୍ରାନ୍ତ": 1040,
      "ଅର୍ଥ": 1041,
      "ଭର": 1042,
      "ାନୁ": 1043,
      "ଜାଣି": 1044,
      "ନାମ": 1045,
      "ମାଧ୍ୟ": 1046,
      "ମିଳିଛି": 1047,
      "ଦେଖା": 1048,
      "ଦେବ": 1049,
      "ବର୍ତ୍ତମାନ": 1050,
      "ଡାକ୍ତର": 1051,
      "ଗିରଫ": 1052,
      "କହିଥିଲେ": 1053,
      "ତଦନ୍ତ": 1054,
      "ୟନ": 1055,
      "ଚିତ": 1056,
      "ପାଖ": 1057,
      "ଯାୟୀ": 1058,
      "ବିଷୟରେ": 1059,
      "ସାଇ": 1060,
      "ଡିଓ": 1061,
      "to": 1062,
      "ପତ୍ର": 1063,
      "ଆଦି": 1064,
      "ସହା": 1065,
      "ସ୍କୁ": 1066,
      "ଶିକ୍ଷା": 1067,
      "le": 1068,
      "ଦେଶର": 1069,
      "ସ୍ଥାନରେ": 1070,
      "ରୂ": 1071,
      "ନିକଟରେ": 1072,
      "ବ୍ର": 1073,
      "ଗରେ": 1074,
      "ଲୋଚନା": 1075,
      "ଥାନା": 1076,
      "୧୮": 1077,
      "ଳୀ": 1078,
      "ଜାତୀୟ": 1079,
      "ମିକ": 1080,
      "ha": 1081,
      "ଦାବି": 1082,
      "ପିଲା": 1083,
      "ଫଳରେ": 1084,
      "ଦେଖିବାକୁ": 1085,
      "ମନ୍ଦିର": 1086,
      "କରିଥିଲା": 1087,
      "ପଟେ": 1088,
      "ୱା": 1089,
      "ସେବା": 1090,
      "ନ୍ତା": 1091,
      "ରହିବ": 1092,
      "ବର୍ଷା": 1093,
      "ଘା": 1094,
      "ରାସ୍ତା": 1095,
      "ଉଭୟ": 1096,
      "ଭିତରେ": 1097,
      "ହୋଇଥିଲେ": 1098,
      "ଦର୍ଶନ": 1099,
      "ବତ": 1100,
      "ନବ": 1101,
      "ଲର": 1102,
      "ନାଥ": 1103,
      "ସଫଳ": 1104,
      "ସ୍ୟା": 1105,
      "କର୍ମଚାର": 1106,
      "୨୪": 1107,
      "କାଲି": 1108,
      "ବାନ": 1109,
      "ନୂଆଦିଲ୍ଲୀ": 1110,
      "ହାଇ": 1111,
      "ଜିଲା": 1112,
      "ଧିକ": 1113,
      "ଶକ୍ତି": 1114,
      "ନୋ": 1115,
      "ସରକାରଙ୍କ": 1116,
      "ପୃ": 1117,
      "ରାଷ୍ଟ୍ର": 1118,
      "୧୪": 1119,
      "ଅନୁଯାୟୀ": 1120,
      "ହୋଇଥାଏ": 1121,
      "ଟିକା": 1122,
      "ଗଠ": 1123,
      "ସୁରକ୍ଷା": 1124,
      "ମିଲ": 1125,
      "ଚିକିତ୍ସା": 1126,
      "କ୍ଷେତ୍ରରେ": 1127,
      "ଂଶ": 1128,
      "ଜିତ": 1129,
      "ଛାତ୍ରୀ": 1130,
      "ଆଣି": 1131,
      "ଞ୍ଜ": 1132,
      "ଅନୁସାରେ": 1133,
      "ଯାତ୍ର": 1134,
      "ଘୋଷଣା": 1135,
      "ମାନଙ୍କର": 1136,
      "ଲୋକଙ୍କ": 1137,
      "ଟ୍ରେ": 1138,
      "୩୦": 1139,
      "ମାସ": 1140,
      "ଆସୁ": 1141,
      "ନିର୍ମାଣ": 1142,
      "ଏଠାରେ": 1143,
      "ion": 1144,
      "ଲ୍ୟ": 1145,
      "ବୟ": 1146,
      "ମସି": 1147,
      "ବିତ": 1148,
      "ଗ୍ରୀ": 1149,
      "ରାମ": 1150,
      "ତେବେଳେ": 1151,
      "ଓଡି": 1152,
      "ଙ୍ଗା": 1153,
      "ଥାନ୍ତି": 1154,
      "ପ୍ରସ୍ତୁତ": 1155,
      "ତିରେ": 1156,
      "କ୍ସ": 1157,
      "ଆହୁ": 1158,
      "ବିଧାୟ": 1159,
      "ent": 1160,
      "ଣ୍ଟା": 1161,
      "ପାର୍": 1162,
      "ଷଣ": 1163,
      "ad": 1164,
      "ସ୍ତାନ": 1165,
      "ସମସ୍ୟା": 1166,
      "ପାତ୍ର": 1167,
      "ତାକୁ": 1168,
      "ସ୍ଥାନୀୟ": 1169,
      "ve": 1170,
      "ପରୀକ୍ଷା": 1171,
      "ଆହୁରି": 1172,
      "ଆଲୋଚନା": 1173,
      "ଦାସ": 1174,
      "ଷ୍ଠାନ": 1175,
      "ଅଛନ୍ତି": 1176,
      "ing": 1177,
      "ର୍ଥ": 1178,
      "ଆପଣଙ୍କ": 1179,
      "ବିକାଶ": 1180,
      "ବ୍ୟବସା": 1181,
      "ଳନା": 1182,
      "ବୈଠ": 1183,
      "ଲୋକେ": 1184,
      "ଳନ": 1185,
      "ପୁରୀ": 1186,
      "ପାଠ": 1187,
      "କରୁଛି": 1188,
      "ସରକାରୀ": 1189,
      "ଦିଆଯାଇଛି": 1190,
      "ନିକ": 1191,
      "ସୁସ୍ଥ": 1192,
      "ଅଧ୍ୟ": 1193,
      "ଭବ": 1194,
      "ସେଥି": 1195,
      "ପାଦ": 1196,
      "and": 1197,
      "ଳୁ": 1198,
      "ନାହା": 1199,
      "ବିଦ୍ୟାଳୟ": 1200,
      "୨୧": 1201,
      "ପିଟା": 1202,
      "ପ୍ରମୁଖ": 1203,
      "il": 1204,
      "ନିଷ୍ପତ୍ତି": 1205,
      "ସାରି": 1206,
      "ସଂକ୍ରମଣ": 1207,
      "କଳ୍ପ": 1208,
      "କ୍ୟ": 1209,
      "ଚନ୍ଦ୍ର": 1210,
      "/2021": 1211,
      "େତ": 1212,
      "କ୍ଷେପ": 1213,
      "ଷି": 1214,
      "ାର୍ଥୀ": 1215,
      "ରାଉ": 1216,
      "ଲାଭ": 1217,
      "କରିଥାଏ": 1218,
      "୧୬": 1219,
      "ଓ୍": 1220,
      "ଦକ୍ଷ": 1221,
      "ଟରେ": 1222,
      "ଦ୍ଧାର": 1223,
      "ସଭାପତି": 1224,
      "ଅନ୍ତର୍": 1225,
      "କରିବ": 1226,
      "ଅଞ୍ଚଳ": 1227,
      "ହେବେ": 1228,
      "ୱି": 1229,
      "ପୁଅ": 1230,
      "ଙ୍ଗି": 1231,
      "ନ୍ଦର": 1232,
      "ଏମ୍": 1233,
      "ାନାରେ": 1234,
      "ଭିଡିଓ": 1235,
      "ଆଲ": 1236,
      "ଭର୍": 1237,
      "ଭୂମି": 1238,
      "ଗୃ": 1239,
      "ବଲ": 1240,
      "ାନି": 1241,
      "ଯୋଗ୍ୟ": 1242,
      "ସାହୁ": 1243,
      "ଧୁ": 1244,
      "ଢି": 1245,
      "ଫିଲ୍": 1246,
      "ଟୁ": 1247,
      "ସଂକ୍ର": 1248,
      "ସଂକ୍ରମିତ": 1249,
      "ବହୁତ": 1250,
      "କର୍ମଚାରୀ": 1251,
      "ହତ୍ୟା": 1252,
      "ଶ୍ବର": 1253,
      "ବଡ": 1254,
      "ପଟ୍ଟ": 1255,
      "ସ୍ବା": 1256,
      "୧୭": 1257,
      "ମଧ୍ୟରୁ": 1258,
      "ଗଲା": 1259,
      "ate": 1260,
      "ମତ": 1261,
      "୨୨": 1262,
      "ଧୀନ": 1263,
      "ଫୋ": 1264,
      "ଦାର": 1265,
      "କୃତ": 1266,
      "ଉଚ୍ଚ": 1267,
      "ec": 1268,
      "ବିଧାୟକ": 1269,
      "ଶର": 1270,
      "ଅପରା": 1271,
      "ବଦ": 1272,
      "ମକ": 1273,
      "ନ୍ୟା": 1274,
      "ପୀ": 1275,
      "ଷ୍ଟେ": 1276,
      "ଯାତ୍ରା": 1277,
      "ୱେ": 1278,
      "ସନ୍ତା": 1279,
      "ଜ୍ଞାନ": 1280,
      "ଞ୍ଜା": 1281,
      "ତାଲି": 1282,
      "ପୁରୁ": 1283,
      "ଆସନ୍ତା": 1284,
      "କମ୍ପାନ": 1285,
      "ହେବାକୁ": 1286,
      "ଶାର": 1287,
      "ଖାଦ୍ୟ": 1288,
      "ଦେହ": 1289,
      "ବିଧାନ": 1290,
      "ଡୁ": 1291,
      "ପ୍ରତିଶତ": 1292,
      "୫୦": 1293,
      "ାର୍ଡ": 1294,
      "ରାୟ": 1295,
      "୧୩": 1296,
      "ବିବାହ": 1297,
      "ଏନେଇ": 1298,
      "ଦୃଷ୍ଟି": 1299,
      "ତୃ": 1300,
      "ସରରେ": 1301,
      "of": 1302,
      "ହତ": 1303,
      "ର୍ଯ୍ୟ": 1304,
      "ଝିଅ": 1305,
      "ଟ୍ର": 1306,
      "ନୂତନ": 1307,
      "ବିଜେଡି": 1308,
      "କରାଯାଉଛି": 1309,
      "am": 1310,
      "ଖାଇ": 1311,
      "ଆଇନ": 1312,
      "ଗୁରୁତ୍ୱ": 1313,
      "କ୍ରିୟା": 1314,
      "ଏକା": 1315,
      "ew": 1316,
      "କ୍ଷମ": 1317,
      "ଖଣ୍ଡ": 1318,
      "ବନ୍ଧୁ": 1319,
      "ବାସ": 1320,
      "ସେଠାରେ": 1321,
      "ସୁଦ୍ଧା": 1322,
      "ଚଳିତ": 1323,
      "ବାରେ": 1324,
      "ପ୍ରଶାସନ": 1325,
      "ଗୁଡ଼ିକ": 1326,
      "ଆୟୋ": 1327,
      "ପ୍ରକାର": 1328,
      "ଙ୍କା": 1329,
      "ଯୁକ୍ତି": 1330,
      "ପଞ୍ଚାୟ": 1331,
      "ଏନ": 1332,
      "ବସ": 1333,
      "ଶିଶୁ": 1334,
      "ନ୍ଧି": 1335,
      "ସହାୟ": 1336,
      "ୀରେ": 1337,
      "ସମେତ": 1338,
      "ଅଞ୍ଚଳରେ": 1339,
      "କୋଭିଡ": 1340,
      "ଣ୍ଟି": 1341,
      "ଲାରୁ": 1342,
      "ସମ୍ପର୍କରେ": 1343,
      "ହନ": 1344,
      "ଷ୍ଠିତ": 1345,
      "ଳକ": 1346,
      "ଜିଲ୍ଲାରେ": 1347,
      "ବିରୋଧରେ": 1348,
      "ୀତ": 1349,
      "ସାମିଲ": 1350,
      "ମୂଲ୍ୟ": 1351,
      "ଚୁ": 1352,
      "ଉଦ୍ୟ": 1353,
      "ବରେ": 1354,
      "ସୁବି": 1355,
      "ଦୃ": 1356,
      "ଆଗ": 1357,
      "ପନ": 1358,
      "ତାରିଖରେ": 1359,
      "ରହିଥିବା": 1360,
      "as": 1361,
      "ଦୂର": 1362,
      "ଥରେ": 1363,
      "ଠୁ": 1364,
      "ଆମେରି": 1365,
      "et": 1366,
      "ସାର": 1367,
      "ଜନ୍": 1368,
      "ମିଶ୍ର": 1369,
      "ଜଗ": 1370,
      "ଶ୍ରେ": 1371,
      "କେଉଁ": 1372,
      "ସିକ": 1373,
      "ଲ୍ୟା": 1374,
      "ଦେବାକୁ": 1375,
      "ia": 1376,
      "ାଇଛନ୍ତି": 1377,
      "ଅଭିଯୁକ୍ତ": 1378,
      "ବାର୍": 1379,
      "ରକ୍ଷ": 1380,
      "ପଟ୍ଟନାୟକ": 1381,
      "ରାଜ୍ୟର": 1382,
      "ବିଜୟ": 1383,
      "ଯୋଗୁଁ": 1384,
      "ସେମାନଙ୍କୁ": 1385,
      "ଭାବନା": 1386,
      "ଚାଷୀ": 1387,
      "ହସ୍": 1388,
      "ନାହାନ୍ତି": 1389,
      "ତିନି": 1390,
      "ଅବସ୍ଥା": 1391,
      "ସାମା": 1392,
      "ତଥ": 1393,
      "ହାରେ": 1394,
      "ବ୍ୟୁ": 1395,
      "ଜମି": 1396,
      "ସର୍ବ": 1397,
      "ଖେଳା": 1398,
      "ଗିରି": 1399,
      "ଲେଖା": 1400,
      "ber": 1401,
      "ମେଣ୍ଟ": 1402,
      "୨୫": 1403,
      "ଲଗା": 1404,
      "ରବି": 1405,
      "ହୁଏ": 1406,
      "ସହଯୋଗ": 1407,
      "ତଥ୍ୟ": 1408,
      "ତଙ୍କ": 1409,
      "ଲୋକଙ୍କୁ": 1410,
      "ଦୁଇଟି": 1411,
      "ଗୃହ": 1412,
      "ଚାରି": 1413,
      "ଫେରି": 1414,
      "ପଡ଼ିଛି": 1415,
      "ପାକି": 1416,
      "ହସ୍ପିଟା": 1417,
      "ତମ": 1418,
      "ଛାତ୍ରଛାତ୍ରୀ": 1419,
      "ପରିଚା": 1420,
      "ସାମ୍": 1421,
      "ବାହାର": 1422,
      "ଆକ୍ରମଣ": 1423,
      "ଏଥିପାଇଁ": 1424,
      "ତନ୍ତ୍ର": 1425,
      "ପାଖରେ": 1426,
      "ସଚି": 1427,
      "ପରିସ୍ଥିତି": 1428,
      "ଇଣ୍ଡି": 1429,
      "ଗଠନ": 1430,
      "ଯାଇଥିଲେ": 1431,
      "ମୋଟ": 1432,
      "ଫାଇ": 1433,
      "ବର୍ତ୍ତନ": 1434,
      "ପଦକ୍ଷେପ": 1435,
      "ସଦସ୍ୟ": 1436,
      "ଅନୁଷ୍ଠିତ": 1437,
      "PM": 1438,
      "ସହର": 1439,
      "ନ୍ଦୁ": 1440,
      "ିତୀୟ": 1441,
      "ଟକ": 1442,
      "ବର୍ତ୍ତୀ": 1443,
      "ନିମନ୍ତ": 1444,
      "କରିବାର": 1445,
      "ac": 1446,
      "ଜିଲ୍ଲାରୁ": 1447,
      "ଞ୍ଜନ": 1448,
      "ଦେଇଛି": 1449,
      "ତ୍ତା": 1450,
      "ଧର୍": 1451,
      "କାରଣରୁ": 1452,
      "ସାଂ": 1453,
      "ଆତ୍": 1454,
      "ପାରନ୍ତି": 1455,
      "ଉନ୍ନ": 1456,
      "ବିଶ୍": 1457,
      "ବାଦୀ": 1458,
      "ମାଧ୍ୟମରେ": 1459,
      "ସୁନ୍ଦର": 1460,
      "ପାକିସ୍ତାନ": 1461,
      "ଜିଲ୍ଲାର": 1462,
      "କରନ୍ତି": 1463,
      "କୂ": 1464,
      "ପାଳନ": 1465,
      "ଉଦ୍ଧାର": 1466,
      "ବେଦନ": 1467,
      "em": 1468,
      "ବସି": 1469,
      "ପଢ଼": 1470,
      "ଲିକ": 1471,
      "ସୁବିଧା": 1472,
      "ଅନ": 1473,
      "ରହୁ": 1474,
      "ମିଳିବ": 1475,
      "େଇ": 1476,
      "ସ୍ତର": 1477,
      "କେଟ": 1478,
      "ଜ୍ୟ": 1479,
      "ଅନ୍ତୁ": 1480,
      "ଶ୍ଚି": 1481,
      "ପ୍ରତ୍ୟ": 1482,
      "ଚର୍ଚ୍ଚ": 1483,
      "ag": 1484,
      "ପ୍ରାର୍ଥୀ": 1485,
      "ପ୍ରଭାବ": 1486,
      "ଏମ": 1487,
      "ଆଶା": 1488,
      "ବିମାନ": 1489,
      "ସେନା": 1490,
      "ଗଡ": 1491,
      "ହେଉଥିବା": 1492,
      "ଏମିତି": 1493,
      "ହେରା": 1494,
      "ଯାଉଥିବା": 1495,
      "ପୂର୍ବତନ": 1496,
      "ସହାୟତା": 1497,
      "ସମ୍ମାନ": 1498,
      "ଟିଭ": 1499,
      "ଯୋଗା": 1500,
      "ଯୁବକ": 1501,
      "ଥିକ": 1502,
      "/0": 1503,
      "ସନ୍ତ": 1504,
      "ଦୋ": 1505,
      "ବରି": 1506,
      "ାଇଥିଲେ": 1507,
      "ପ୍ରଥମେ": 1508,
      "କ୍ରେ": 1509,
      "ପକ୍ଷରେ": 1510,
      "ମଣ୍ଡ": 1511,
      "ଚିନ୍ତା": 1512,
      "ଅଧ୍ୟକ୍ଷ": 1513,
      "ଘଣ୍ଟା": 1514,
      "ଖୁବ": 1515,
      "ଅଫି": 1516,
      "ଆରି": 1517,
      "ଟିମ୍": 1518,
      "ଦିଆଯାଇଥିବା": 1519,
      "ଦଳର": 1520,
      "ଧନ": 1521,
      "କମ": 1522,
      "ଆର୍ଥିକ": 1523,
      "ଞ୍ଜି": 1524,
      "ଭଦ୍ର": 1525,
      "ସମ୍ପର୍କ": 1526,
      "ମାର୍": 1527,
      "ର୍ଘ": 1528,
      "ଏଲ": 1529,
      "ରାଶି": 1530,
      "ଭାରତର": 1531,
      "ସଂସ୍": 1532,
      "ନୈ": 1533,
      "ବ୍ୟୁରୋ": 1534,
      "ଶୁଭ": 1535,
      "ol": 1536,
      "ମ୍ବାଇ": 1537,
      "କରିବାରେ": 1538,
      "କଣ": 1539,
      "କ୍ଷତି": 1540,
      "କର୍ମୀ": 1541,
      "୍ରାସ": 1542,
      "ଦ୍ୱିତୀୟ": 1543,
      "ବ୍ଲକ": 1544,
      "ସାରା": 1545,
      "ମୁମ୍ବାଇ": 1546,
      "):": 1547,
      "ସ୍ପ": 1548,
      "ost": 1549,
      "ପଶ୍ଚି": 1550,
      "ବିଚାର": 1551,
      "ଏହାପରେ": 1552,
      "ହୋଇପାରେ": 1553,
      "ବଢ଼ି": 1554,
      "ଭାଷ": 1555,
      "କୃତି": 1556,
      "କାରେ": 1557,
      "ହାତ": 1558,
      "ପ୍ରିୟ": 1559,
      "ସାହା": 1560,
      "ଜବତ": 1561,
      "ନିମନ୍ତେ": 1562,
      "ଗରି": 1563,
      "19": 1564,
      "ଟିଂ": 1565,
      "ଅପ": 1566,
      "ଦୀର୍ଘ": 1567,
      "ଜୋ": 1568,
      "ସେୟାର": 1569,
      "ews": 1570,
      "10": 1571,
      "ଓଡିଶା": 1572,
      "ଦାୟି": 1573,
      "ଦଶ": 1574,
      "ପାଇଛି": 1575,
      "କାଉ": 1576,
      "ସ୍ତ୍ର": 1577,
      "େକ": 1578,
      "ହ୍ରାସ": 1579,
      "ନନ୍ଦ": 1580,
      "ନ୍ୟୁ": 1581,
      "ପଡିଛି": 1582,
      "ଉପା": 1583,
      "el": 1584,
      "ଝା": 1585,
      "ଉପସ୍ଥିତ": 1586,
      "ପଥ": 1587,
      "ମଙ୍ଗ": 1588,
      "ବିକ": 1589,
      "ମର୍ଶ": 1590,
      "ପରିବର୍ତ୍ତନ": 1591,
      "ବ୍ୟାଙ୍କ": 1592,
      "ଘଟିଛି": 1593,
      "ଫଟୋ": 1594,
      "ଗାଇ": 1595,
      "ri": 1596,
      "ଜଣଙ୍କ": 1597,
      "ଲାଗିଛି": 1598,
      "ଚ୍ଛ": 1599,
      "ଆସିଛି": 1600,
      "କରାଯାଇଥିବା": 1601,
      "ନିଶ୍ଚ": 1602,
      "ସ୍କୁଲ": 1603,
      "କରିପାରିବେ": 1604,
      "ଳକୁ": 1605,
      "ଖୋଲି": 1606,
      "ପଶ୍ଚିମ": 1607,
      "ସମ୍ଭାବନା": 1608,
      "ଇଂ": 1609,
      "ରାଷ୍ଟ୍ରପତି": 1610,
      "କାଲ": 1611,
      "କେହି": 1612,
      "ମୟ": 1613,
      "ମତି": 1614,
      "ପଣ": 1615,
      "ଶରୀର": 1616,
      "ନିୟମ": 1617,
      "ଜିଲ୍ଲାପାଳ": 1618,
      "ଷ୍ଟ୍": 1619,
      "ହେଉଛନ୍ତି": 1620,
      "ଦେଉ": 1621,
      "ଅବସରରେ": 1622,
      "ପାଇବା": 1623,
      "ଜନ୍ମ": 1624,
      "ଆପଣଙ୍କୁ": 1625,
      "ମୋଦି": 1626,
      "ପରାମର୍ଶ": 1627,
      "ଯେତେବେଳେ": 1628,
      "ବାଲେ": 1629,
      "ମେଡି": 1630,
      "ସଚିବ": 1631,
      "ମାଲ": 1632,
      "ନ୍ଦା": 1633,
      "ବରିଷ୍ଠ": 1634,
      "ବଜାର": 1635,
      "ମାରି": 1636,
      "ଦକ୍ଷି": 1637,
      "ଲେଖି": 1638,
      "ୋଟ": 1639,
      "ବାକ୍ୟ": 1640,
      "....": 1641,
      "ଗତକାଲି": 1642,
      "ପ୍ରଶ": 1643,
      "କେଟ୍": 1644,
      "ଧ୍ୟା": 1645,
      "//": 1646,
      "ସକାଳ": 1647,
      "ହାସଲ": 1648,
      "ସୋସି": 1649,
      "ଗୁରୁତର": 1650,
      "ପ୍ରୋ": 1651,
      "ସ୍ପଷ୍ଟ": 1652,
      "ରଙ୍ଗ": 1653,
      "କମିଟି": 1654,
      "ର୍କ": 1655,
      "ସୀମା": 1656,
      "ପଛ": 1657,
      "ବ୍ରା": 1658,
      "କନ": 1659,
      "ମନେ": 1660,
      "ଓଡ଼ିଆ": 1661,
      "କାହା": 1662,
      "ପ୍ତା": 1663,
      "୨୩": 1664,
      "ସ୍ଥଳରେ": 1665,
      "ଟନ": 1666,
      "ମ୍ୟାଚ୍": 1667,
      "ପାରୁ": 1668,
      "ପର୍ଯ୍ୟା": 1669,
      "ମିଶ": 1670,
      "ନବୀନ": 1671,
      "ସମର୍ଥ": 1672,
      "ଗଜ": 1673,
      "ଶାନ୍ତ": 1674,
      "ପରିଚାଳନା": 1675,
      "ଦକ୍ଷିଣ": 1676,
      "ଗ୍ରାହ": 1677,
      "ମହାର": 1678,
      "ଖେଳି": 1679,
      "ହେବାର": 1680,
      "ତାପ": 1681,
      "ଜିକ": 1682,
      "ବେହେରା": 1683,
      "ଷ୍ଠା": 1684,
      "ଦିନରେ": 1685,
      "ମିଡି": 1686,
      "ଠାଇ": 1687,
      "ଲକ୍ଷ୍ୟ": 1688,
      "ନୈତିକ": 1689,
      "ro": 1690,
      "ଚିତ୍ର": 1691,
      "ଡୋ": 1692,
      "କୃଷି": 1693,
      "ାନୁଷ୍ଠାନ": 1694,
      "ଜରି": 1695,
      "ରନ୍ତ": 1696,
      "ଆତଙ୍କ": 1697,
      "ଉଲ୍": 1698,
      "ସୁଯୋଗ": 1699,
      "ଚାଲିଛି": 1700,
      "ତଃ": 1701,
      "ହଁ": 1702,
      "ଟାଇ": 1703,
      "ଉକ୍ତ": 1704,
      "ପୂଜା": 1705,
      "ନଥିଲେ": 1706,
      "ନମ୍ବର": 1707,
      "ଥିବାବେଳେ": 1708,
      "ଗତି": 1709,
      "ଘଟଣ": 1710,
      "ଣ୍ଡର": 1711,
      "ପଢ": 1712,
      "ତ୍ରି": 1713,
      "୍ୟାନ": 1714,
      "କ୍ଟର": 1715,
      "ରହିଛନ୍ତି": 1716,
      "ay": 1717,
      "our": 1718,
      "ଏନ୍": 1719,
      "୪୦": 1720,
      "Od": 1721,
      "ତଳେ": 1722,
      "କେତେକ": 1723,
      "ରନ୍": 1724,
      "ସତ": 1725,
      "ଖୁସି": 1726,
      "ମୋର": 1727,
      "ଆଧାର": 1728,
      "ପ୍ରଭା": 1729,
      "ସଂପର୍": 1730,
      "ବିଶ୍ୱା": 1731,
      "ଘ୍ର": 1732,
      "ଯାନ": 1733,
      "ମଣି": 1734,
      "ସ୍କ": 1735,
      "ଜରେ": 1736,
      "ଘଟଣାରେ": 1737,
      "ସଂଘ": 1738,
      "କାର୍ଯ୍ୟା": 1739,
      "ଅକ୍": 1740,
      "ରୋଗୀ": 1741,
      "୍ଚ୍ଚ": 1742,
      "ସାହାଯ୍ୟ": 1743,
      "ବାପା": 1744,
      "କୁହାଯାଇଛି": 1745,
      "ଦୀପ": 1746,
      "ଫିଲ୍ମ": 1747,
      "ଜଙ୍ଗ": 1748,
      "ଟ୍ରା": 1749,
      "ପ୍ରଶଂ": 1750,
      "ପ୍ରତ୍ୟେକ": 1751,
      "ବିବାଦ": 1752,
      "ବଙ୍ଗ": 1753,
      "ସାମ୍ନା": 1754,
      "ଲାଗୁ": 1755,
      "ଧ୍ୟାନ": 1756,
      "କ୍ରିୟ": 1757,
      "ମହାନ୍ତି": 1758,
      "ହରି": 1759,
      "ଶିକ୍ଷକ": 1760,
      "ch": 1761,
      "ଦିକ": 1762,
      "ଖନ୍ତୁ": 1763,
      "ମଦ": 1764,
      "ଆହତ": 1765,
      "ଛୋଟ": 1766,
      "ଫର୍": 1767,
      "ଘରକୁ": 1768,
      "ଲେଖନ୍ତୁ": 1769,
      "କମ୍ପାନୀ": 1770,
      "ନାଁ": 1771,
      "ଟ୍ରୋ": 1772,
      "କରୁଥିଲେ": 1773,
      "୨୦୦": 1774,
      "ତୃତ": 1775,
      "ତାରେ": 1776,
      "ଜାତି": 1777,
      "ମିଟର": 1778,
      "ମାମଲାରେ": 1779,
      "ସମ୍ପୂର୍ଣ୍ଣ": 1780,
      "ପ୍ରସଙ୍ଗ": 1781,
      "ବିଧାନସଭା": 1782,
      "ଡ୍ର": 1783,
      "ତୃତୀୟ": 1784,
      "ପୁଟ": 1785,
      "ତିଆରି": 1786,
      "ପ୍ଟ": 1787,
      "ଣ୍ଟର": 1788,
      "୨୬": 1789,
      "ଭୁବନେଶ୍ବର": 1790,
      "ir": 1791,
      "ସିବି": 1792,
      "ବିଷୟ": 1793,
      "ସାମାଜିକ": 1794,
      "ଆଗକୁ": 1795,
      "ନେବା": 1796,
      "ଜିତି": 1797,
      "ଯୋଗାଇ": 1798,
      "ଯେଉଁଥି": 1799,
      "ପଞ୍ଚାୟତ": 1800,
      "ଘୁ": 1801,
      "ଇଣ୍ଡିଆ": 1802,
      "ନଥିଲା": 1803,
      "ବକ": 1804,
      "...": 1805,
      "ନଥିବା": 1806,
      "ସୌ": 1807,
      "ବ୍ୟବସାୟ": 1808,
      "ଚ୍ଛା": 1809,
      "ନେତୃ": 1810,
      "ଖୋର୍": 1811,
      "ଠିକ୍": 1812,
      "ଡର": 1813,
      "ପ୍ରଦର୍ଶନ": 1814,
      "ବାକ୍ୟକୁ": 1815,
      "ପ୍ଲା": 1816,
      "us": 1817,
      "ଜଣାପଡ଼ିଛି": 1818,
      "ପ୍ରକଳ୍ପ": 1819,
      "ter": 1820,
      "No": 1821,
      "ଜଗତ": 1822,
      "କହିଲେ": 1823,
      "ଶୀଘ୍ର": 1824,
      "ବିଭାଗର": 1825,
      "ଉଲ୍ଲେଖ": 1826,
      "ପାଲ": 1827,
      "lo": 1828,
      "ଲୋକମାନେ": 1829,
      "ଗଲେ": 1830,
      "ଉତ୍ସ": 1831,
      "ରେଳ": 1832,
      "ନିୟନ୍ତ୍ର": 1833,
      "ସମ୍ମୁଖ": 1834,
      "ପୁରୁଷ": 1835,
      "ରଖା": 1836,
      "ମୁଣ୍ଡ": 1837,
      "ଗ୍ରାମର": 1838,
      "ରୂପ": 1839,
      "ଆଫ": 1840,
      "ସମୁ": 1841,
      "ନଦୀ": 1842,
      "ନିଯୁକ୍ତି": 1843,
      "ସିସି": 1844,
      "ନଜର": 1845,
      "ସ୍ୱତନ୍ତ୍ର": 1846,
      "କେବେ": 1847,
      "com": 1848,
      "ଭଦ୍ରକ": 1849,
      "ଶହ": 1850,
      "ହୋଇଯାଇଛି": 1851,
      "he": 1852,
      "ଅଟେ": 1853,
      "ଲକ୍ଷ୍": 1854,
      "ପକାଇ": 1855,
      "ଖର୍ଚ୍ଚ": 1856,
      "ct": 1857,
      "ଆବଶ୍ୟକତା": 1858,
      "ସର୍ବା": 1859,
      "ରହିବା": 1860,
      "ର୍ଷ": 1861,
      "୨୭": 1862,
      "ନାର": 1863,
      "୍ରୀୟ": 1864,
      "ଗ୍ୟା": 1865,
      "ଭର୍ତ୍ତି": 1866,
      "ନିଶ୍ଚିତ": 1867,
      "ହରାଇ": 1868,
      "ପ୍ରଦେଶ": 1869,
      "ଗୁଡିକ": 1870,
      "ସବୁଠାରୁ": 1871,
      "ରାଇ": 1872,
      "ଆମର": 1873,
      "ସ୍ତେ": 1874,
      "ବଢି": 1875,
      "ଝର": 1876,
      "ସମାଧାନ": 1877,
      "ଅନ୍ତର୍ଗତ": 1878,
      "ନାଲ": 1879,
      "ମିଳୁ": 1880,
      "୨୮": 1881,
      "ପଢ଼ନ୍ତୁ": 1882,
      "ସଫଳତା": 1883,
      "ଗାମୀ": 1884,
      "ସାମଗ୍ରୀ": 1885,
      "ପୁନ": 1886,
      "ବାଲି": 1887,
      "କୋଭିଡ୍": 1888,
      "ନରେନ୍ଦ୍ର": 1889,
      "ମଙ୍ଗଳ": 1890,
      "ବାହାରି": 1891,
      "ମହାପାତ୍ର": 1892,
      "ମାଳ": 1893,
      "ରାଲ": 1894,
      "କେନ୍ଦ୍ରା": 1895,
      "up": 1896,
      "ପାଦକ": 1897,
      "ବୈଠକରେ": 1898,
      "ଘରୋଇ": 1899,
      "ୟୋ": 1900,
      "ଟଙ୍କାର": 1901,
      "ନ୍ଦୋ": 1902,
      "ପୂରଣ": 1903,
      "ଦେଲେ": 1904,
      "ଖେଳାଳି": 1905,
      "ସ୍କାର": 1906,
      "ୟର": 1907,
      "ଦ୍ରା": 1908,
      "ପରିଷ": 1909,
      "ସମ୍ବଲ": 1910,
      "are": 1911,
      "lic": 1912,
      "ମହାମାର": 1913,
      "ଗୁରୁତ୍ୱପୂର୍ଣ୍ଣ": 1914,
      "ରାତି": 1915,
      "ଶୁଣା": 1916,
      "ment": 1917,
      "ପ୍ରବେଶ": 1918,
      "ଳୟରେ": 1919,
      "ହୁଁ": 1920,
      "ବସ୍": 1921,
      "ତ୍ବ": 1922,
      "ଜପୁର": 1923,
      "ବ୍ରି": 1924,
      "dat": 1925,
      "ଷ୍ଣ": 1926,
      "ଅନୁମତି": 1927,
      "ଅଂଶ": 1928,
      "କେନ୍ଦ୍ରାପ": 1929,
      "ରାଜନୀତି": 1930,
      "ସପ୍ତା": 1931,
      "ତୁରନ୍ତ": 1932,
      "ରଖିବା": 1933,
      "ଦୋକାନ": 1934,
      "କମିଶ": 1935,
      "ରେକର୍": 1936,
      "News": 1937,
      "ଟେଷ୍ଟ": 1938,
      "ଭାରତରେ": 1939,
      "ମସିହାରେ": 1940,
      "ରଥ": 1941,
      "ତୀତ": 1942,
      "ରାତିରେ": 1943,
      "ଯୁଦ୍ଧ": 1944,
      "ଶିଷ୍ଟ": 1945,
      "ଖଲ": 1946,
      "ଗର୍": 1947,
      "ଶୁଣି": 1948,
      "ସାଂସଦ": 1949,
      "ଥାନାରେ": 1950,
      "ଅଂ": 1951,
      "ଦେବେ": 1952,
      "ପାଟ": 1953,
      "ବର୍ଷର": 1954,
      "ଦ୍ବାର": 1955,
      "ସର୍ବାଧିକ": 1956,
      "ଆବେଦନ": 1957,
      "ଗୋଷ୍ଠ": 1958,
      "ଉଦ୍ୟମ": 1959,
      "ହାରି": 1960,
      "ପ୍ରକ୍ରିୟା": 1961,
      "ଟ୍ରି": 1962,
      "ଦତ୍ତ": 1963,
      "କୋରା": 1964,
      "ଉଦ୍": 1965,
      "ଅନୁଭବ": 1966,
      "ସାଦ": 1967,
      "ବଲା": 1968,
      "ଆନ୍ଦୋ": 1969,
      "ଗଞ୍ଜା": 1970,
      "ପଣ୍ଡା": 1971,
      "18": 1972,
      "ଗାଡ଼ି": 1973,
      "her": 1974,
      "ମ୍ୟାଚ": 1975,
      "ଜନକ": 1976,
      "ସମ୍ବଲପୁର": 1977,
      "ତ୍ମକ": 1978,
      "ସାମ୍ବା": 1979,
      "ଭାଙ୍ଗି": 1980,
      "ଦାୟିତ୍ୱ": 1981,
      "ବିକ୍ରି": 1982,
      "ସଂସ୍ଥା": 1983,
      "ଅଭାବ": 1984,
      "ମିନି": 1985,
      "ସୋମ": 1986,
      "ବୈଠକ": 1987,
      "ଯାଜପୁର": 1988,
      "ମନୋ": 1989,
      "ଗୁଳି": 1990,
      "କଟକଣା": 1991,
      "ଢେ": 1992,
      "ap": 1993,
      "ରକ୍ତ": 1994,
      "କାହିଁ": 1995,
      "ରାଜଧାନ": 1996,
      "ଖରା": 1997,
      "ପତ୍": 1998,
      "ଚେଷ୍ଟା": 1999,
      "ଆଶ": 2000,
      "୨୯": 2001,
      "2022": 2002,
      "ଜର୍": 2003,
      "ନିର୍ବାଚ": 2004,
      "ଉଚିତ": 2005,
      "ପଜି": 2006,
      "ସଙ୍କ": 2007,
      "ଆସନ": 2008,
      "ବିଦେଶ": 2009,
      "ଶନି": 2010,
      "ସତ୍ୟ": 2011,
      "ଜରୁ": 2012,
      "--": 2013,
      "କେଶ": 2014,
      "ଅତ୍ୟ": 2015,
      "କେନ୍ଦୁ": 2016,
      "ହ୍ମ": 2017,
      "ମହାରା": 2018,
      "ସମସ୍ତେ": 2019,
      "ପୋଷ୍ଟ": 2020,
      "ଗୁଡ଼ିକୁ": 2021,
      "ପ୍ରଭୁ": 2022,
      "ଆଗାମୀ": 2023,
      "ଇଁ": 2024,
      "ସାଙ୍ଗ": 2025,
      "ସ୍ମ": 2026,
      "ଇନ": 2027,
      "ly": 2028,
      "ନଗର": 2029,
      "ପ୍ରବଳ": 2030,
      "ସ୍ୱାମୀ": 2031,
      "ଟିଭି": 2032,
      "id": 2033,
      "ରଭ": 2034,
      "ଘଟଣାର": 2035,
      "ବାୟୁ": 2036,
      "ପତ୍ନୀ": 2037,
      "ଜଣାପଡିଛି": 2038,
      "ନିୟନ୍ତ୍ରଣ": 2039,
      "ସ୍ବାସ୍ଥ୍ୟ": 2040,
      "ଦେଇଥିବା": 2041,
      "ଲିଉ": 2042,
      "ହିନ୍ଦୁ": 2043,
      "ମନ୍ତ୍ର": 2044,
      "ପୃକ୍ତ": 2045,
      "କିପରି": 2046,
      "ଶିତ": 2047,
      "ସାହିତ": 2048,
      "ତିକି": 2049,
      "ଶାନ୍ତି": 2050,
      "ମୋଦୀ": 2051,
      "କିଏ": 2052,
      "ମାସରେ": 2053,
      "କାହିଁକି": 2054,
      "ଷ୍ଟ୍ରେ": 2055,
      "ତିହା": 2056,
      "ମୋବାଇ": 2057,
      "ଧର": 2058,
      "କୂଳ": 2059,
      "ବିରୋଧୀ": 2060,
      "ଜେନା": 2061,
      "ଅବସ୍ଥାରେ": 2062,
      "ବିନା": 2063,
      "ବ୍ୟତୀତ": 2064,
      "ମ୍ବ": 2065,
      "ପାଗ": 2066,
      "ପରିମାଣ": 2067,
      "ବିହାର": 2068,
      "କରାଯିବା": 2069,
      "ସପ୍ତାହ": 2070,
      "ଡ଼େ": 2071,
      "ପରିବେଶ": 2072,
      "ଓଡ଼ିଶାର": 2073,
      "for": 2074,
      "ଜଣକ": 2075,
      "ଡାକ୍ତରଖ": 2076,
      "12": 2077,
      "ଚାହୁଁ": 2078,
      "ରଞ୍ଜନ": 2079,
      "ପଜିଟିଭ": 2080,
      "ଅପେ": 2081,
      "ଯାତ୍ରୀ": 2082,
      "ଥିବାର": 2083,
      "un": 2084,
      "ଉନ୍": 2085,
      "ation": 2086,
      "ପ୍ରସ୍ତା": 2087,
      "Dec": 2088,
      "ଚୀନ": 2089,
      "ଗଛ": 2090,
      "କହିବା": 2091,
      "ସମାଜ": 2092,
      "ସାମ୍ବାଦିକ": 2093,
      "11": 2094,
      "ଛାଡ଼ି": 2095,
      "ହାଣ୍ଡି": 2096,
      "ପରବର୍ତ୍ତୀ": 2097,
      "ଗଞ୍ଜାମ": 2098,
      "ସୂଚନାଯୋଗ୍ୟ": 2099,
      "କାର୍ଯ୍ୟକ୍ରମରେ": 2100,
      "ମ୍ପ": 2101,
      "ଢା": 2102,
      "ମୀର": 2103,
      "ସ୍ଵ": 2104,
      "ଆସିବା": 2105,
      "ଳିକ": 2106,
      "ସକ": 2107,
      "ଶୁକ୍ର": 2108,
      "ସୁପ୍ରି": 2109,
      "ଜଣଙ୍କୁ": 2110,
      "କୋରାପୁଟ": 2111,
      "ନ୍ତର": 2112,
      "ଖୁବ୍": 2113,
      "କାର୍ଯ୍ୟାନୁଷ୍ଠାନ": 2114,
      "ସ୍ତ୍ରୀ": 2115,
      "ଶେଷରେ": 2116,
      "isha": 2117,
      "ପାଦନ": 2118,
      "ଶିବ": 2119,
      "ମହାମାରୀ": 2120,
      "ଚାକି": 2121,
      "ଭ୍ୟ": 2122,
      "ଧାରା": 2123,
      "ସେତେବେଳେ": 2124,
      "ଯେଉଁଥିରେ": 2125,
      "ବିଲା": 2126,
      "ଦିଗରେ": 2127,
      "କଲା": 2128,
      "ବାଲେଶ୍ୱର": 2129,
      "ରାହୁ": 2130,
      "ଶିଳ୍ପ": 2131,
      "ସୋମବାର": 2132,
      "ପୁରସ୍କାର": 2133,
      "ଉଦ": 2134,
      "ସେମାନଙ୍କର": 2135,
      "ମତା": 2136,
      "ଦିବସ": 2137,
      "ଗସ୍ତ": 2138,
      "ସନ୍ତୋଷ": 2139,
      "ରେକର୍ଡ": 2140,
      "ମୁକା": 2141,
      "ସୋସିଆଲ": 2142,
      "ପ୍ରାପ୍ତ": 2143,
      "ରକ୍ଷିତ": 2144,
      "ନେଇଥିଲେ": 2145,
      "ବିଜୁ": 2146,
      "ଉଠି": 2147,
      "ଅତିଥି": 2148,
      "ଦିଅନ୍ତୁ": 2149,
      "ନିଷ": 2150,
      "କିଲୋ": 2151,
      "ପୁରା": 2152,
      "ଯାଞ୍ଚ": 2153,
      "ଅନ୍ତି": 2154,
      "ଦୁଃ": 2155,
      "ପ୍ରସାଦ": 2156,
      "ବର୍ଣ୍ଣ": 2157,
      "ଭକ୍ତ": 2158,
      "ଭିତ୍ତି": 2159,
      "ଘଟଣାସ୍ଥଳରେ": 2160,
      "କ୍ରୀ": 2161,
      "ଶର୍": 2162,
      "ଗ୍ନି": 2163,
      "ରାଟ": 2164,
      "ନିଧି": 2165,
      "ଶୀଳ": 2166,
      "ଆଖି": 2167,
      "ଏସି": 2168,
      "ail": 2169,
      "ଆଇପି": 2170,
      "ରୁଜୁ": 2171,
      "ଏଲ୍": 2172,
      "କୁର": 2173,
      "ସଂଗ୍ରହ": 2174,
      "ଚାପ": 2175,
      "ବାହି": 2176,
      "ବଢ଼": 2177,
      "eb": 2178,
      "ଏତେ": 2179,
      "ଜରିଆରେ": 2180,
      "ଯାହାକୁ": 2181,
      "ଖେଳ": 2182,
      "ଲିଆ": 2183,
      "ଦୁର୍ଘଟଣା": 2184,
      "ନିଆଁ": 2185,
      "ପରିଷଦ": 2186,
      "ମହାନ": 2187,
      "ଉନ": 2188,
      "ବୀର": 2189,
      "ନାରା": 2190,
      "ସନ୍ତୁ": 2191,
      "ପ୍ରଭାବିତ": 2192,
      "ନିମ୍": 2193,
      "କେନ୍ଦୁଝର": 2194,
      "ବିଦ୍ୟୁ": 2195,
      "ଲବ୍": 2196,
      "ମ୍ପି": 2197,
      "୬୦": 2198,
      "ଙ୍ଖ": 2199,
      "ଳିକା": 2200,
      "ଅଗ": 2201,
      "କଲ୍ୟା": 2202,
      "ଚର୍ଚ୍ଚା": 2203,
      "ଅଧିକା": 2204,
      "ୟତ": 2205,
      "ଣ୍ଣା": 2206,
      "କାଣ୍ଡ": 2207,
      "ପୋଷ": 2208,
      "ହାଇକୋର୍ଟ": 2209,
      "ଦ୍ବାରା": 2210,
      "ମିଳ": 2211,
      "ଭୋଟ": 2212,
      "),": 2213,
      "ପାତ": 2214,
      "ଯନ୍ତ୍ର": 2215,
      "ମାଇ": 2216,
      "କିଣି": 2217,
      "ଝାର": 2218,
      "ହୀ": 2219,
      "ଡିଜି": 2220,
      "କାର୍ଡ": 2221,
      "ଟିକୁ": 2222,
      "ଦୈ": 2223,
      "ମୁକାବିଲା": 2224,
      "ନ୍ଧ୍ୟା": 2225,
      "In": 2226,
      "ଖୋର୍ଦ୍ଧା": 2227,
      "ଷକ": 2228,
      "ରବିବାର": 2229,
      "ଶନିବାର": 2230,
      "ଭ୍ୟା": 2231,
      "ଧର୍ମ": 2232,
      "ୟଣ": 2233,
      "ପସ": 2234,
      "ମିଳିଥିଲା": 2235,
      "ସମାନ": 2236,
      "ଅଗ୍ନି": 2237,
      "ur": 2238,
      "ଚାର୍": 2239,
      "ଖାଇବା": 2240,
      "ଚ୍ଚି": 2241,
      "ଦିଆଯିବ": 2242,
      "ପଂ": 2243,
      "କାର୍ଯ୍ୟାଳୟ": 2244,
      "ig": 2245,
      "ଗାନ୍ଧ": 2246,
      "ମାଲକାନ": 2247,
      "ସିତ": 2248,
      "ରାଜନୈତିକ": 2249,
      "ରହିଥିଲା": 2250,
      "ନେତ୍ରୀ": 2251,
      "ଅଟ": 2252,
      "ବୁଧ": 2253,
      "ବର୍ଗ": 2254,
      "ନିର୍ବାଚନରେ": 2255,
      "ରିକ୍ତ": 2256,
      "ଯେପରି": 2257,
      "ସ୍ତରରେ": 2258,
      "ଶୁକ୍ରବାର": 2259,
      "ସ୍ଥାପନ": 2260,
      "ନିତ": 2261,
      "Re": 2262,
      "ଅପେକ୍ଷା": 2263,
      "ଯୁବତୀ": 2264,
      "ସୁନା": 2265,
      "ମାଲକାନଗିରି": 2266,
      "ବିର": 2267,
      "ପ୍ରଚାର": 2268,
      "ex": 2269,
      "ହୃ": 2270,
      "ଗୁଡିକୁ": 2271,
      "କହୁ": 2272,
      "ଅତିରିକ୍ତ": 2273,
      "ଯାହାକି": 2274,
      "The": 2275,
      "Post": 2276,
      "ବିଶ୍ୱାସ": 2277,
      "ଆମେରିକା": 2278,
      "କରିଥାନ୍ତି": 2279,
      "ଅଫ୍": 2280,
      "କ୍ଷଣ": 2281,
      "atest": 2282,
      "ଜାଣିବା": 2283,
      "ପେଟ୍ରୋ": 2284,
      "ଅନ୍ୟା": 2285,
      "ସଚେ": 2286,
      "ବାତ୍ୟା": 2287,
      "ଟିରେ": 2288,
      "ସନ୍ଧ୍ୟା": 2289,
      "ଆକ୍ରାନ୍ତଙ୍କ": 2290,
      "ଜଗନ୍": 2291,
      "ଗୋଷ୍ଠୀ": 2292,
      "ଆନ୍ଦୋଳନ": 2293,
      "ଦର୍": 2294,
      "ଗାଡି": 2295,
      "ଆଶଙ୍କା": 2296,
      "କରାଯାଏ": 2297,
      "ମାର୍ଚ୍ଚ": 2298,
      "ନେତୃତ୍ୱ": 2299,
      "ଖର": 2300,
      "ପ୍ରତିଷ୍ଠା": 2301,
      "ନୟା": 2302,
      "ମାନସିକ": 2303,
      "ପଢନ୍ତୁ": 2304,
      "ଅନ୍ୟାନ୍ୟ": 2305,
      "କଳ": 2306,
      "୩୫": 2307,
      "ଧୋ": 2308,
      "କହିଛି": 2309,
      "ପାଇବେ": 2310,
      "ଅଧିକାଂଶ": 2311,
      "ରାହୁଲ": 2312,
      "କାନ୍ତ": 2313,
      "କୃଷ୍ଣ": 2314,
      "ବିପଦ": 2315,
      "ଜଗନ୍ନାଥ": 2316,
      "ସିଦ୍ଧ": 2317,
      "updat": 2318,
      "ପ୍ରତିନିଧି": 2319,
      "ce": 2320,
      "ଚୀ": 2321,
      "ୟୁକ୍ରେ": 2322,
      "ଆରୀ": 2323,
      "କଲ୍ୟାଣ": 2324,
      "ଜାଣ": 2325,
      "oo": 2326,
      "ବିଶିଷ୍ଟ": 2327,
      "ଦେବୀ": 2328,
      "ମାଧ୍ୟମ": 2329,
      "ନିର୍ଦ୍": 2330,
      "୧୦୦": 2331,
      "ନିଜେ": 2332,
      "ଅର୍ଥା": 2333,
      "ଏପରିକି": 2334,
      "ଟିର": 2335,
      "ସକ୍ରିୟ": 2336,
      "ମୌ": 2337,
      "con": 2338,
      "ରନ": 2339,
      "ଲାଇନ୍": 2340,
      "ଶ୍ରେଣୀ": 2341,
      "କାଳୀନ": 2342,
      "ଅଞ୍ଚଳର": 2343,
      "ଫରୁ": 2344,
      "ଚୟ": 2345,
      "ଠିକ": 2346,
      "ମୃତଦେହ": 2347,
      "Odisha": 2348,
      "ମୂଳକ": 2349,
      "ଲଗାଇ": 2350,
      "ଗୁରୁବାର": 2351,
      "AM": 2352,
      "ଔଷ": 2353,
      "ସତର୍କ": 2354,
      "ରିଆ": 2355,
      "ାନାର": 2356,
      "ର୍ଣ୍ଣ": 2357,
      "ବୁଧବାର": 2358,
      "ୗର": 2359,
      "ମିଡିଆରେ": 2360,
      "ମିଶାଇ": 2361,
      "ଅପରାଧ": 2362,
      "ଶୃ": 2363,
      "ହେତୁ": 2364,
      "ଛାଡି": 2365,
      "ଏଫ": 2366,
      "ବିଳ": 2367,
      "ଟ୍ୱି": 2368,
      "ଲେଖାଏ": 2369,
      "ସକା": 2370,
      "ରିକ": 2371,
      "ପ୍ରତିଯୋଗ": 2372,
      "ତରଫରୁ": 2373,
      "ଜୁଲାଇ": 2374,
      "ଣ୍ଣି": 2375,
      "କର୍ତ୍ତ": 2376,
      "ହନ୍ତି": 2377,
      "ପ୍ରସ୍ତାବ": 2378,
      "here": 2379,
      "ଦ୍ଵ": 2380,
      "ତ୍ତ୍ୱ": 2381,
      "ସିଂହପୁର": 2382,
      "ବ୍ରହ୍ମ": 2383,
      "୩୧": 2384,
      "ସମର୍ଥନ": 2385,
      "ସେଥିପାଇଁ": 2386,
      "କଳାହାଣ୍ଡି": 2387,
      "ୁଛି": 2388,
      "ଲକୁ": 2389,
      "ଭାଷା": 2390,
      "ra": 2391,
      "ଶବ": 2392,
      "ନିର୍ଦ୍ଦେଶକ": 2393,
      "ଯିବାକୁ": 2394,
      "ଉପଲବ୍": 2395,
      "ପ୍ରସ୍ତୁତି": 2396,
      "ଚ୍ଚିତ୍ର": 2397,
      "ପଡ଼ିବ": 2398,
      "ଧିକାରୀ": 2399,
      "ରଭଞ୍ଜ": 2400,
      "ପ୍ରାଥ": 2401,
      "ବଲିଉ": 2402,
      "କନ୍ଧ": 2403,
      "୭୦": 2404,
      "ପାଉ": 2405,
      "କଲେଜ": 2406,
      "ମିଳନୀ": 2407,
      "ପୁଲିସ୍": 2408,
      "ଜରୁରୀ": 2409,
      "ମିତା": 2410,
      "ଚଳଚ୍ଚିତ୍ର": 2411,
      "ସ୍ଥିର": 2412,
      "ନେଇଛନ୍ତି": 2413,
      "ଅଧିକାର": 2414,
      "ଭାଗ୍ୟ": 2415,
      "ନିଜକୁ": 2416,
      "କୋହ": 2417,
      "ଅଗଷ୍ଟ": 2418,
      "ସମ୍ମିଳନୀ": 2419,
      "ବିଜ୍ଞାନ": 2420,
      "ମୂଳ": 2421,
      "ନୋଟି": 2422,
      "ବାଧ୍ୟ": 2423,
      "ଲାଇନ": 2424,
      "ପ୍ତି": 2425,
      "କ୍ରମେ": 2426,
      "ଶ୍ରମ": 2427,
      "ଶ୍ମୀର": 2428,
      "ଙ୍କାନା": 2429,
      "ଚିତ୍": 2430,
      "im": 2431,
      "େଦ": 2432,
      "କଷ୍ଟ": 2433,
      "ମହିଳାଙ୍କ": 2434,
      "ସୂର୍ଯ୍ୟ": 2435,
      "ସିରି": 2436,
      "ଦାଖଲ": 2437,
      "ସେପଟେ": 2438,
      "ପ୍ରାଥମିକ": 2439,
      "ବାଣି": 2440,
      "ଚରଣ": 2441,
      "ମଙ୍ଗଳବାର": 2442,
      "ସମ୍ଭବ": 2443,
      "ଲଣ୍ଡ": 2444,
      "ସଚେତନ": 2445,
      "ସିଲ": 2446,
      "ବହନ": 2447,
      "ଶ୍ରମିକ": 2448,
      "ଆୟୋଜିତ": 2449,
      "ମହାରାଷ୍ଟ୍ର": 2450,
      "ଭେଟି": 2451,
      "ଫୁଲ": 2452,
      "ବ୍ୟବସାୟୀ": 2453,
      "ଅଟକ": 2454,
      "ଭାଇରାଲ": 2455,
      "ଆତଙ୍କବାଦୀ": 2456,
      "୪୫": 2457,
      "ନାବା": 2458,
      "ସଂପର୍କରେ": 2459,
      "କାର୍ଯ୍ୟରେ": 2460,
      "୨୦୨୧": 2461,
      "ମାତ୍ରା": 2462,
      "ଗ୍ରାମବାସୀ": 2463,
      "କ୍ଲି": 2464,
      "ମଣିଷ": 2465,
      "ଭବନ": 2466,
      "କୃତିକ": 2467,
      "ସ୍ଥିତିରେ": 2468,
      "ଗ୍ରାମରେ": 2469,
      "ବୌ": 2470,
      "ଲକ୍ଷ୍ମୀ": 2471,
      "ସାହି": 2472,
      "ାରୀ": 2473,
      "ଆତ୍ମ": 2474,
      "ରଖିଛନ୍ତି": 2475,
      "ଚୌ": 2476,
      "କରାଇ": 2477,
      "ନଭେ": 2478,
      "ନୀୟ": 2479,
      "ସ୍ପେ": 2480,
      "କୀ": 2481,
      "ଜେଲ": 2482,
      "ଫେର": 2483,
      "ଗାଁରେ": 2484,
      "୍ୱ": 2485,
      "00": 2486,
      "ଦେଇଥିଲା": 2487,
      "ଇବା": 2488,
      "ଗୀତ": 2489,
      "res": 2490,
      "ଓଡ଼ିଶାରେ": 2491,
      "ଜିନିଷ": 2492,
      "ଆଗରେ": 2493,
      "ପ୍ରୟା": 2494,
      "ସାମ୍ନାକୁ": 2495,
      "ପୁରୁଣା": 2496,
      "ର୍ସ": 2497,
      "ପ୍ରେମ": 2498,
      "ହାତୀ": 2499,
      "get": 2500,
      "ଅଭିନେତ୍ରୀ": 2501,
      "ub": 2502,
      "ନଷ୍ଟ": 2503,
      "ରହିବେ": 2504,
      "ଦୌ": 2505,
      "ମୁତା": 2506,
      "ସ୍ତରୀୟ": 2507,
      "ଅକ୍ଟୋ": 2508,
      "ପ୍ରମାଣ": 2509,
      "ଯଥା": 2510,
      "ବ୍ୟାପକ": 2511,
      "ଞ୍ଚଳ": 2512,
      "ପଞ୍ଜା": 2513,
      "ଗମ": 2514,
      "ଭଗ": 2515,
      "ବାବୁ": 2516,
      "ଅତ୍ୟନ୍ତ": 2517,
      "୨୦୨୦": 2518,
      "ପ୍ଟେ": 2519,
      "କ୍ଷମତା": 2520,
      "ଔଷଧ": 2521,
      "ଙ୍କାନାଳ": 2522,
      "ୱାର୍": 2523,
      "ଆନ୍ତି": 2524,
      "୮୦": 2525,
      "ପଦା": 2526,
      "ଯାଏଁ": 2527,
      "ଦେଖାଇ": 2528,
      "ଅଭିଯାନ": 2529,
      "ସେହିଭଳି": 2530,
      "ଆମକୁ": 2531,
      "ଅକ୍ଟୋବର": 2532,
      "ନିମ୍ନ": 2533,
      "ଶର୍ମା": 2534,
      "ଦ୍ଦେଶ୍ୟ": 2535,
      "ପସନ୍ଦ": 2536,
      "ଜନିତ": 2537,
      "ଉନ୍ନତି": 2538,
      "ଗଜପତି": 2539,
      "ଉପର": 2540,
      "ସାହିତ୍ୟ": 2541,
      "ଜ୍ଞା": 2542,
      "ନାଗରି": 2543,
      "ବ୍ୟସ୍ତ": 2544,
      "ନଭେମ୍ବର": 2545,
      "କନକ": 2546,
      "ସମ୍ପାଦକ": 2547,
      "ଉଦ୍ଦେଶ୍ୟ": 2548,
      "ଆଜିର": 2549,
      "ୟୁନି": 2550,
      "ସଂଗଠନ": 2551,
      "ଫର": 2552,
      "କିଆ": 2553,
      "ନୟ": 2554,
      "ଜୋର": 2555,
      "ଥିଲି": 2556,
      "ମେଡିକାଲ": 2557,
      "ବାରମ୍": 2558,
      "hare": 2559,
      "ଖୋଲା": 2560,
      "ବାଣିଜ୍ୟ": 2561,
      "ଭ୍": 2562,
      "ଟେଲି": 2563,
      "ସଂସ୍କୃତି": 2564,
      "ବାରି": 2565,
      "ଚାକିରି": 2566,
      "ଜୀବ": 2567,
      "ନାମରେ": 2568,
      "ଷ୍ଟର": 2569,
      "ନିରା": 2570,
      "କଡା": 2571,
      "ଚିଠି": 2572,
      "ବଢ": 2573,
      "ସହାୟକ": 2574,
      "ଡିସେ": 2575,
      "ପିତ": 2576,
      "ବରଣ": 2577,
      "ଉତ୍ପାଦନ": 2578,
      "ଲ୍ରେ": 2579,
      "ସୁଗୁ": 2580,
      "ଙ୍ଗପୁର": 2581,
      "ବିଷ୍ୟ": 2582,
      "ମୁହଁ": 2583,
      "ଋଣ": 2584,
      "ଜଙ୍ଗଲ": 2585,
      "ପାଣିପାଗ": 2586,
      "କ୍ଷୟ": 2587,
      "ଦରକାର": 2588,
      "ନାରାୟଣ": 2589,
      "ଜଣଙ୍କର": 2590,
      "ଆସୁଥିବା": 2591,
      "ଶିକାର": 2592,
      "ସମୀ": 2593,
      "ଆସିଥିବା": 2594,
      "ember": 2595,
      "ଭବିଷ୍ୟ": 2596,
      "ଦିଷ୍ଟ": 2597,
      "ବିଜ": 2598,
      "କାଉଣ୍ଟ": 2599,
      "ାରିତ": 2600,
      "କନ୍ଧମାଳ": 2601,
      "ମୋତେ": 2602,
      "ସମିତି": 2603,
      "ଗୀ": 2604,
      "ସମଗ୍ର": 2605,
      "ଅଗ୍ର": 2606,
      "ଖାଲି": 2607,
      "ତ୍ରୁ": 2608,
      "ଗୁଣ": 2609,
      "ଏପ୍ରି": 2610,
      "ସେଥିରେ": 2611,
      "ମିଳିଥିବା": 2612,
      "ଯେଉଁମାନେ": 2613,
      "ପଡ଼": 2614,
      "ନ୍ଧ୍ର": 2615,
      "ଜାନୁ": 2616,
      "be": 2617,
      "ଆପଣଙ୍କର": 2618,
      "ଗାଁର": 2619,
      "ର୍ତ୍ତି": 2620,
      "ଦୃଷ୍ଟିରେ": 2621,
      "ଅଧିନାୟକ": 2622,
      "ଏଫ୍": 2623,
      "ନେବାକୁ": 2624,
      "ak": 2625,
      "ଗୁଡ଼ିକର": 2626,
      "ଦୃଶ୍ୟ": 2627,
      "ବାରମ୍ବାର": 2628,
      "୍ରୁ": 2629,
      "ପ୍ୟା": 2630,
      "କୁହାଯାଉଛି": 2631,
      "ପ୍ରଶଂସା": 2632,
      "ht": 2633,
      "ଝାରସୁଗୁ": 2634,
      "ମୁତାବକ": 2635,
      "2020": 2636,
      "ପାଲଟି": 2637,
      "St": 2638,
      "ହସ୍ପିଟାଲରେ": 2639,
      "ଉପଲବ୍ଧ": 2640,
      "ବୁଝି": 2641,
      "ଗ୍ରାହକ": 2642,
      "ଚାଲା": 2643,
      "ଚତୁ": 2644,
      "ଆନ୍ଧ୍ର": 2645,
      "ପିନ୍ଧି": 2646,
      "ଥୀ": 2647,
      "କଲ": 2648,
      "ପଛରେ": 2649,
      "ସରି": 2650,
      "ସୁପ୍ରିମ": 2651,
      "ପଠାଇ": 2652,
      "ଚାଲିଥିବା": 2653,
      "ଚର": 2654,
      "ଜାଇ": 2655,
      "ଡିସେମ୍ବର": 2656,
      "ଜଗତସିଂହପୁର": 2657,
      "ଯାହାର": 2658,
      "ମାନ୍ୟ": 2659,
      "ଖରାପ": 2660,
      "ଗବେ": 2661,
      "ପରିଚୟ": 2662,
      "ore": 2663,
      "ଲଙ୍କ": 2664,
      "ଦିଗ": 2665,
      "ଙ୍ଗ୍": 2666,
      "ଆୟୋଜନ": 2667,
      "ଇତିହା": 2668,
      "ମଲ୍": 2669,
      "ine": 2670,
      "ଶବ୍": 2671,
      "ନାମକ": 2672,
      "ow": 2673,
      "ବ୍ୟକ୍ତିଙ୍କ": 2674,
      "ଶୋକ": 2675,
      "ସୁଖ": 2676,
      "ରାସ୍ତାରେ": 2677,
      "ଧନ୍ୟ": 2678,
      "ul": 2679,
      "lick": 2680,
      "ୁଥିବା": 2681,
      "ଘେ": 2682,
      "ୱାର୍ଡ": 2683,
      "ମାଡ଼": 2684,
      "ଅନୁରୋଧ": 2685,
      "ଚାଲାଣ": 2686,
      "ନବର": 2687,
      "ବୌଦ୍ଧ": 2688,
      "ରାଉତ": 2689,
      "କାର୍ଯ୍ୟକାରୀ": 2690,
      "ସମାଚାର": 2691,
      "ଚଳା": 2692,
      "ନ୍ୟାୟ": 2693,
      "ପ୍ରାଣ": 2694,
      "ଯୋଗାଣ": 2695,
      "ଖସି": 2696,
      "ପ୍ରକାରର": 2697,
      "ଆକ": 2698,
      "ବାବଦ": 2699,
      "ସେପ୍ଟେ": 2700,
      "ଆକ୍": 2701,
      "ସ୍ବ": 2702,
      "ଫୋନ୍": 2703,
      "ଶୁଣାଣି": 2704,
      "ବାଟ": 2705,
      "ଢେଙ୍କାନାଳ": 2706,
      "କୃଷକ": 2707,
      "ମୁକ୍ତ": 2708,
      "ଜମା": 2709,
      "ସମୁଦ୍ର": 2710,
      "ବୋର୍ଡ": 2711,
      "ସନ୍ଦେହ": 2712,
      "ଦଣ୍ଡ": 2713,
      "ଘନ": 2714,
      "ଏଥିସହ": 2715,
      "ଉଛନ୍ତି": 2716,
      "ଆଶ୍ଚ": 2717,
      "ନିୟମିତ": 2718,
      "by": 2719,
      "ଲେଖାଏଁ": 2720,
      "ସ୍ତି": 2721,
      "ଆସିଥିଲେ": 2722,
      "କରିପାରି": 2723,
      "ଶାଳୀ": 2724,
      "ବୁଲି": 2725,
      "ver": 2726,
      "ସୁରକ୍ଷିତ": 2727,
      "ଶ୍ରୀମନ୍ଦିର": 2728,
      "ଥେ": 2729,
      "ଏଣ୍ଟ": 2730,
      "ଭୂମିକା": 2731,
      "ପଶ୍ଚିମବଙ୍ଗ": 2732,
      "ଅନ୍ୟପକ୍ଷରେ": 2733,
      "ପଡିବ": 2734,
      "ଆକର୍": 2735,
      "ଏସବୁ": 2736,
      "ଏହାସହ": 2737,
      "କରାଯାଉ": 2738,
      "ନଙ୍କ": 2739,
      "ଯିଏ": 2740,
      "ଗାନ୍ଧୀ": 2741,
      "ନିଂ": 2742,
      "ମିଳିତ": 2743,
      "ଘାତ": 2744,
      "ତୁଳନା": 2745,
      "ତେଲ": 2746,
      "ଫୋର": 2747,
      "କବି": 2748,
      "ଆଁ": 2749,
      "ସେପ୍ଟେମ୍ବର": 2750,
      "ଗଣମାଧ୍ୟମ": 2751,
      "ଧାର୍": 2752,
      "ମଣ": 2753,
      "ହୋଇପାରି": 2754,
      "ଇନ୍": 2755,
      "ଅନ୍ୟପଟେ": 2756,
      "ଲୀ": 2757,
      "Share": 2758,
      "ଟିକାକରଣ": 2759,
      "ମୟୂ": 2760,
      "ପାଟଣା": 2761,
      "ପୂର୍ବା": 2762,
      "ନବରଙ୍ଗପୁର": 2763,
      "ବିସ୍": 2764,
      "ମନ୍ତ୍ରଣା": 2765,
      "ଦେଖନ୍ତୁ": 2766,
      "ସମସ୍ତଙ୍କୁ": 2767,
      "ହାଁ": 2768,
      "ମାମଲାର": 2769,
      "ଡାଇ": 2770,
      "ହୃଦ": 2771,
      "ସୁନ୍ଦରଗଡ଼": 2772,
      "ଙ୍ଗୀର": 2773,
      "ଅନ୍": 2774,
      "latest": 2775,
      "ଶୈ": 2776,
      "ଶ୍ରଦ୍ଧା": 2777,
      "ଳିଆ": 2778,
      "ଏୟାର": 2779,
      "ଙ୍କି": 2780,
      "ଚ୍ଛେଦ": 2781,
      "ଦୁଃଖ": 2782,
      "ରାଜଧାନୀ": 2783,
      "Click": 2784,
      "ଯୋଗାଯୋଗ": 2785,
      "ତ୍ନ": 2786,
      "ବାହିନୀ": 2787,
      "ଦାହ": 2788,
      "ଘଣ୍ଟ": 2789,
      "ଶଙ୍କର": 2790,
      "ଅଧୀନ": 2791,
      "ରହିଥାଏ": 2792,
      "ବାହାରେ": 2793,
      "ସରକାରଙ୍କୁ": 2794,
      "ଧୀରେ": 2795,
      "ଯାଇଥାଏ": 2796,
      "ସାହ": 2797,
      "ଏଥର": 2798,
      "updates": 2799,
      "ଟେକ୍": 2800,
      "କ୍କା": 2801,
      "କାଟି": 2802,
      "ଭିତର": 2803,
      "ଆଶ୍ଚର୍ଯ୍ୟ": 2804,
      "ଖିତ": 2805,
      "ସମସ୍ୟ": 2806,
      "୯୦": 2807,
      "ist": 2808,
      "ଅଭିନେତା": 2809,
      "ଶୃଙ୍ଖ": 2810,
      "କେମିତି": 2811,
      "ପ୍ରତ୍ୟା": 2812,
      "ଅଭିନୟ": 2813,
      "୨୦୧୯": 2814,
      "ଶତା": 2815,
      "ବିନି": 2816,
      "୩୩": 2817,
      "ଲମ୍": 2818,
      "ମନ୍ତ୍ରଣାଳୟ": 2819,
      "pe": 2820,
      "ଅନୁଗୁ": 2821,
      "ଧନ୍ୟବାଦ": 2822,
      "ive": 2823,
      "ଦିଆଯାଇଥିଲା": 2824,
      "କେନ୍ଦ୍ରୀୟ": 2825,
      "ଆତ୍ମହ": 2826,
      "ସୁପ୍ରିମକୋର୍ଟ": 2827,
      "ମାଆ": 2828,
      "ରିଲି": 2829,
      "ନିର୍ଭର": 2830,
      "ବୟସ": 2831,
      "ଅଷ୍ଟ୍ରେ": 2832,
      "ମନା": 2833,
      "ବିଶେଷଜ୍ଞ": 2834,
      "ଢ଼ା": 2835,
      "ଟାରେ": 2836,
      "ସମସ୍ତଙ୍କ": 2837,
      "ମ୍ବୁ": 2838,
      "ପଚ": 2839,
      "ଆଇସି": 2840,
      "ଡ୍ରାଇ": 2841,
      "ଆସୁଛି": 2842,
      "ବ୍ୟକ୍ତିଗତ": 2843,
      "ବଲାଙ୍ଗୀର": 2844,
      "ଆଦିବାସୀ": 2845,
      "ଯୋଜନାରେ": 2846,
      "ଆନନ୍ଦ": 2847,
      "ମଧୁ": 2848,
      "କାରବାର": 2849,
      "ଉଠାଇ": 2850,
      "ut": 2851,
      "ରଖିଛି": 2852,
      "୭୫": 2853,
      "ସ୍ଥଳ": 2854,
      "ଆହ୍": 2855,
      "ପାଖି": 2856,
      "ୃପକ୍ଷ": 2857,
      "ସୂତ୍ର": 2858,
      "ପ୍ରତିକ୍ରିୟା": 2859,
      "ଯାଇଛନ୍ତି": 2860,
      "ଦ୍ରୁ": 2861,
      "ଉଚିତ୍": 2862,
      "ଏକ୍ସ": 2863,
      "ପ୍ରୟାସ": 2864,
      "ସଂସଦ": 2865,
      "ଜୁନ": 2866,
      "ଅଣ": 2867,
      "ଅଙ୍ଗ": 2868,
      "ାଇବାକୁ": 2869,
      "ହାତରେ": 2870,
      "ସହରରେ": 2871,
      "ସୈ": 2872,
      "ଣିତ": 2873,
      "ଜୀବନରେ": 2874,
      "mber": 2875,
      "ୱାନ": 2876,
      "ନକୁ": 2877,
      "ବାର୍ତ୍ତା": 2878,
      "ବିଦ୍ୟାଳୟର": 2879,
      "ପଥର": 2880,
      "ଙ୍ଗୁ": 2881,
      "ନାଇ": 2882,
      "୍ୟାନେ": 2883,
      "ଡ୍ରେ": 2884,
      "ୟମ": 2885,
      "ବଞ୍ଚ": 2886,
      "ପାଇବ": 2887,
      "ପନ୍ନ": 2888,
      "ଦିନକୁ": 2889,
      "ଟିମ": 2890,
      "ବ୍ରହ୍ମପୁର": 2891,
      "ମନରେ": 2892,
      "ଥ୍": 2893,
      "ପଦ୍": 2894,
      "ନାଗରିକ": 2895,
      "ନ୍ସି": 2896,
      "ବଣ": 2897,
      "ମନୋର": 2898,
      "od": 2899,
      "ସ୍ଥାନା": 2900,
      "ତୋ": 2901,
      "ନୂଆପ": 2902,
      "ନାମା": 2903,
      "ଭଗବାନ": 2904,
      "ଣ୍ଡେ": 2905,
      "ପାଖା": 2906,
      "କରାଯାଇଥାଏ": 2907,
      "୩୬": 2908,
      "ଅମ": 2909,
      "ଦ୍ୱାର": 2910,
      "ପେଟ୍ରୋଲ": 2911,
      "ସ୍ୱାଧୀନ": 2912,
      "ଶବ୍ଦ": 2913,
      "ଆକାଉଣ୍ଟ": 2914,
      "ପ୍ରସାର": 2915,
      "ସଭ୍ୟ": 2916,
      "ଶ୍ଵ": 2917,
      "ions": 2918,
      "ନେଟ": 2919,
      "କର୍ତ୍ତୃପକ୍ଷ": 2920,
      "ଆଫ୍ରି": 2921,
      "ଉଥିବା": 2922,
      "ପଚାରି": 2923,
      "ପ୍ରତିଦିନ": 2924,
      "ଓମି": 2925,
      "ପିଛା": 2926,
      "ଭଉ": 2927,
      "ମିଶି": 2928,
      "ପଇ": 2929,
      "ଲାଲ": 2930,
      "ପ୍ରଫେ": 2931,
      "ଦୋଷ": 2932,
      "ବଜେ": 2933,
      "ଭାଇର": 2934,
      "ଚର୍": 2935,
      "ରହୁଥିବା": 2936,
      "ଅଲଗା": 2937,
      "ବରଂ": 2938,
      "ମର୍": 2939,
      "କିଶେ": 2940,
      "ରୋପ": 2941,
      "କନ୍ୟା": 2942,
      "ହଠା": 2943,
      "ସମ୍ଭା": 2944,
      "ଶ୍ରେଷ୍ଠ": 2945,
      "ab": 2946,
      "ଦ୍ରୁତ": 2947,
      "କିଲୋମିଟର": 2948,
      "ରାଷ୍ଟ": 2949,
      "ଜୀବୀ": 2950,
      "ଧାରଣା": 2951,
      "ଆପ୍": 2952,
      "ite": 2953,
      "ଦୁଷ୍": 2954,
      "ପରିବହନ": 2955,
      "ଜଣାଇଛନ୍ତି": 2956,
      "ତାଲିକା": 2957,
      "ଆତ୍ମହତ୍ୟା": 2958,
      "ଅନୁଗୁଳ": 2959,
      "ଆଡ": 2960,
      "କ୍ଷୀ": 2961,
      "ish": 2962,
      "ସିନେ": 2963,
      "17": 2964,
      "ହୋଇପାରିବ": 2965,
      "ଦୃଢ଼": 2966,
      "ଖାନ": 2967,
      "ଥାଉ": 2968,
      "ପରିବାରର": 2969,
      "ବିଶ୍ୱର": 2970,
      "ବାସ୍ତ": 2971,
      "ସବୁବେଳେ": 2972,
      "ଖୋଜି": 2973,
      "୩୪": 2974,
      "କାରା": 2975,
      "ଅଧିକାରୀଙ୍କ": 2976,
      "ତହ": 2977,
      "ଚାଇ": 2978,
      "ରଖନ୍ତୁ": 2979,
      "Ap": 2980,
      "........": 2981,
      "ସବୁଠୁ": 2982,
      "ଦୈନିକ": 2983,
      "ବିଶ୍ବ": 2984,
      "ମିଳୁଛି": 2985,
      "କିତ": 2986,
      "ପାଖାପାଖି": 2987,
      "ମଣ୍ଡଳ": 2988,
      "lect": 2989,
      "ଲେଖିଛନ୍ତି": 2990,
      "ମାନି": 2991,
      "ବର୍ଷରେ": 2992,
      "ବାହା": 2993,
      "ିତା": 2994,
      "ବହି": 2995,
      "ଷା": 2996,
      "ଜେଇ": 2997,
      "କୋଣ": 2998,
      "କଡ଼ା": 2999,
      "ମାଲିକ": 3000,
      "ରିପୋର୍ଟର": 3001,
      "ଗ୍ରସ୍ତ": 3002,
      "ଲୋକପ୍ରିୟ": 3003,
      "ର୍ଦ୍ଧ": 3004,
      "ବେଶ୍": 3005,
      "ସିଧା": 3006,
      "ବିରାଟ": 3007,
      "ସମ୍ମୁଖୀନ": 3008,
      "ହିଂ": 3009,
      "ସକାଳେ": 3010,
      "ସମୀକ୍ଷା": 3011,
      "ରାୟଗ": 3012,
      "ଭଉଣୀ": 3013,
      "ଠେ": 3014,
      "୨୦୨୨": 3015,
      "ଲ୍ଡ": 3016,
      "ଲିଙ୍ଗ": 3017,
      "କୁହାଯାଏ": 3018,
      "ଲିଖିତ": 3019,
      "ସୁରେ": 3020,
      "ଟର୍": 3021,
      "ବର୍ଷୀୟ": 3022,
      "ଶୀତ": 3023,
      "ଦ୍ବି": 3024,
      "୩୭": 3025,
      "ଜନତା": 3026,
      "ମୋହନ": 3027,
      "ଣ୍ଡରେ": 3028,
      "ବନ୍ୟା": 3029,
      "କୋହଲି": 3030,
      "ଭୂତ": 3031,
      "ଧୂ": 3032,
      "ନିବେଶ": 3033,
      "ପଠା": 3034,
      "ଞ୍ଜୁ": 3035,
      "ଯୋଡ଼ି": 3036,
      "େଶ": 3037,
      "ଗରିବ": 3038,
      "ith": 3039,
      "ବସ୍ତୁ": 3040,
      "ଓମିକ୍ର": 3041,
      "ତାହାର": 3042,
      "Nove": 3043,
      "ଥିବେ": 3044,
      "ସନରେ": 3045,
      "ପରିବର୍": 3046,
      "ପର୍ଯ୍ୟାୟ": 3047,
      "ଅପରେ": 3048,
      "ଥିବ": 3049,
      "November": 3050,
      "ୃତି": 3051,
      "ମାଟି": 3052,
      "ପରିଣ": 3053,
      "ସାର୍": 3054,
      "ପୀଠ": 3055,
      "ଡରେ": 3056,
      "ଆଧାରରେ": 3057,
      "ଯବାନ": 3058,
      "ମୂର୍ତ୍ତି": 3059,
      "ଗହ": 3060,
      "ମୋବାଇଲ": 3061,
      "ଦେଖିବା": 3062,
      "ସହରର": 3063,
      "କିଂ": 3064,
      "୪୮": 3065,
      "ନିର": 3066,
      "ମୟୂରଭଞ୍ଜ": 3067,
      "ଅଲି": 3068,
      "ୀଙ୍କୁ": 3069,
      "ସନ୍ଧାନ": 3070,
      "ଥାଇ": 3071,
      "ରୂପେ": 3072,
      "est": 3073,
      "ପାରା": 3074,
      "ସମ୍ବନ୍ଧ": 3075,
      "୩୮": 3076,
      "ାଇଁ": 3077,
      "ଶ୍ରୁ": 3078,
      "ତଥାପି": 3079,
      "ଗୁଡ଼ିକରେ": 3080,
      "ଉପାୟ": 3081,
      "ଘଟଣାକୁ": 3082,
      "ପାର୍ଟି": 3083,
      "ପ୍ରକୃତ": 3084,
      "ୟି": 3085,
      "୍ୟ୍ୟ": 3086,
      "ଇଂଲଣ୍ଡ": 3087,
      "ରାଜା": 3088,
      "ସମ୍ପତ୍ତି": 3089,
      "ଅନ୍ତର୍ଜାତୀୟ": 3090,
      "ନ୍ୟାସ": 3091,
      "ନଥିବାରୁ": 3092,
      "ରେଇ": 3093,
      "ଏଇ": 3094,
      "ଏପର୍ଯ୍ୟନ୍ତ": 3095,
      "ସିନ୍": 3096,
      "କାହାଣୀ": 3097,
      "ଭୀର": 3098,
      "ସାନ": 3099,
      "ମାଓ": 3100,
      "ମତ୍": 3101,
      "ସମ୍ପୃକ୍ତ": 3102,
      "କିଶୋର": 3103,
      "ଧରା": 3104,
      "ext": 3105,
      "ପର୍ଯ୍ୟାୟରେ": 3106,
      "ହଳ": 3107,
      "if": 3108,
      "ପିତା": 3109,
      "ଦାଶ": 3110,
      "ଆଫଗ": 3111,
      "ଅବସର": 3112,
      "ଡିଗ୍ରୀ": 3113,
      "ସଂପୂର୍ଣ୍ଣ": 3114,
      "ପ୍ରସଙ୍ଗରେ": 3115,
      "ପଂଚା": 3116,
      "ଇସ୍ତ": 3117,
      "ପୂରା": 3118,
      "କୋଲ": 3119,
      "ହସ୍ପିଟାଲ": 3120,
      "ଟିକ": 3121,
      "ଟାର୍": 3122,
      "ଅଲ": 3123,
      "Se": 3124,
      "ବରଗଡ଼": 3125,
      "କଲି": 3126,
      "ଫୁଟ": 3127,
      "ik": 3128,
      "ତାପମାତ୍ରା": 3129,
      "ବୁଝା": 3130,
      "ମାଛ": 3131,
      "15": 3132,
      "କରିପାରନ୍ତି": 3133,
      "ଆନ୍ତ": 3134,
      "ଆସିବ": 3135,
      "ଗାର": 3136,
      "ସହି": 3137,
      "ପିଟି": 3138,
      "କରୋନାର": 3139,
      "ପହଞ୍ଚିଛି": 3140,
      "ସ୍ଥାୟୀ": 3141,
      "ହେବାରେ": 3142,
      "ଉତ୍ତମ": 3143,
      "30": 3144,
      "କ୍ତା": 3145,
      "ରୋଜଗ": 3146,
      "ଏପ୍ରିଲ": 3147,
      "ବଜା": 3148,
      "ରହିଥିଲେ": 3149,
      "ପର୍ବ": 3150,
      "ଖଣି": 3151,
      "ବିବେ": 3152,
      "ମିନ": 3153,
      "post": 3154,
      "ପଶି": 3155,
      "ଇସ୍ତଫା": 3156,
      "ଉତ୍ସବ": 3157,
      "ବିଦ୍ୟୁତ": 3158,
      "୦୦୦": 3159,
      "ବିନ୍ଦ": 3160,
      "ପ୍ରଶା": 3161,
      "ପ୍ରଦୀପ": 3162,
      "ଉପଯୋଗ": 3163,
      "Sam": 3164,
      "କୀୟ": 3165,
      "ହୋଟେ": 3166,
      "ପାଞ୍ଚ": 3167,
      "ଋତୁ": 3168,
      "ପ୍ରଫେସର": 3169,
      "ସାକ୍ଷା": 3170,
      "ବିସ୍ଫୋର": 3171,
      "ସମସ୍ୟାର": 3172,
      "ନୟାଗଡ଼": 3173,
      "ବ୍ୟାଟିଂ": 3174,
      "pro": 3175,
      "ଭିଜିଲା": 3176,
      "ଉଦାହ": 3177,
      "ary": 3178,
      "ଗଭୀର": 3179,
      "ପହଞ୍ଚ": 3180,
      "ବର୍ଷରୁ": 3181,
      "ଉଦାହରଣ": 3182,
      "ସୁଶାନ୍ତ": 3183,
      "ଚାଲୁ": 3184,
      "ଆକଳନ": 3185,
      "ଫୋନ": 3186,
      "ଦାମ": 3187,
      "୯୯": 3188,
      "ଫାଇନା": 3189,
      "out": 3190,
      "ପ୍ଲେ": 3191,
      "ଜନସାଧାରଣ": 3192,
      "ପଡୁ": 3193,
      "ପ୍ରଦେଶର": 3194,
      "କୋର": 3195,
      "ପରିଣତ": 3196,
      "ତତ୍": 3197,
      "ବଦ୍ଧ": 3198,
      "ବଦଳି": 3199,
      "ଜାଣନ୍ତୁ": 3200,
      "ଝୁ": 3201,
      "ରଖିବାକୁ": 3202,
      "ହେବାରୁ": 3203,
      "ସଂଯୋଗ": 3204,
      "ଧୁନିକ": 3205,
      "ମସିହା": 3206,
      "ଆକାଶ": 3207,
      "ସଂକ୍ରମିତଙ୍କ": 3208,
      "କେନ୍ଦ୍ରରେ": 3209,
      "ବଳି": 3210,
      "ଡିତ": 3211,
      "କେର": 3212,
      "ଘରୁ": 3213,
      "ନଂ": 3214,
      "ପାହା": 3215,
      "ପୋଲିସ୍": 3216,
      "ତାହାକୁ": 3217,
      "ସିନ": 3218,
      "କୌଶ": 3219,
      "ଆସିଥିଲା": 3220,
      "ମାନବ": 3221,
      "କ୍ରୀଡ଼ା": 3222,
      "ରୋକି": 3223,
      "ନୁମାନ": 3224,
      "ଏସପି": 3225,
      "ସ୍ମାର୍ଟ": 3226,
      "ର୍ତ୍ତ": 3227,
      "ଆକର୍ଷଣ": 3228,
      "ବ୍ରେ": 3229,
      "ସାମାନ୍ୟ": 3230,
      "oc": 3231,
      "ot": 3232,
      "ରହ": 3233,
      "ଭଣ୍ଡ": 3234,
      "ରକ୍ଷଣ": 3235,
      "ବିସ୍ତ": 3236,
      "ଇଲେ": 3237,
      "ତହସିଲ": 3238,
      "ଶ୍ରୁତି": 3239,
      "କେନ୍ଦ୍ରାପଡ଼ା": 3240,
      "ପବନ": 3241,
      "ଅନୁଷ୍ଠାନ": 3242,
      "ହୋଇଥିବାରୁ": 3243,
      "ଛତି": 3244,
      "ବିଲ୍": 3245,
      "ରୋହିତ": 3246,
      "ସରପଞ୍ଚ": 3247,
      "ବଦଳ": 3248,
      "Com": 3249,
      "ଭୋଗ": 3250,
      "ଅଫ": 3251,
      "ଟୀ": 3252,
      ".)": 3253,
      "ଦିନର": 3254,
      "ଛୁଆ": 3255,
      "ନେଇଛି": 3256,
      "ସୁପର": 3257,
      "ଇଣ୍ଟର": 3258,
      "ଲାଣି": 3259,
      "ରୋଜଗାର": 3260,
      "ବେଳକୁ": 3261,
      "ମ୍ମଦ": 3262,
      "ଜ୍ୟୋ": 3263,
      "ଶୀର୍ଷ": 3264,
      "ଦ୍ଵାରା": 3265,
      "ପଦକ": 3266,
      "ଯୋଗେ": 3267,
      "ଅଫିସର": 3268,
      "ବିଧି": 3269,
      "ମାତା": 3270,
      "ଣ୍ଡ୍": 3271,
      "ଓ୍ଵ": 3272,
      "16": 3273,
      "ଅଳ୍ପ": 3274,
      "ଜବା": 3275,
      "ସାରିଛି": 3276,
      "ଆସନ୍ତାକାଲି": 3277,
      "ଫଳା": 3278,
      "ଗୋଳ": 3279,
      "ବୃତ୍ତି": 3280,
      "ଦଳୀୟ": 3281,
      "ଦୁଷ୍କର୍ମ": 3282,
      "ଦବ": 3283,
      "ବାବଦରେ": 3284,
      "ଲଗ": 3285,
      "ପୃଥି": 3286,
      "ବାସି": 3287,
      "ତୁମ୍ଭ": 3288,
      "ଚୋରି": 3289,
      "ରାଷ୍ଟ୍ରୀୟ": 3290,
      "ସିପି": 3291,
      "ତୁଳନାରେ": 3292,
      "ପରିସରରେ": 3293,
      "ମହାପ୍ରଭୁ": 3294,
      "ଲଘୁ": 3295,
      "ଭିଜିଲାନ୍ସ": 3296,
      "ରଖାଯାଇଛି": 3297,
      "ଜଣାଇ": 3298,
      "ବିଳମ୍": 3299,
      "ସଭାରେ": 3300,
      "ust": 3301,
      "ସିବିଆଇ": 3302,
      "ଡ଼ିଓ": 3303,
      "ନିର୍ଦେଶ": 3304,
      "ସକ୍ଷମ": 3305,
      "କିଭଳି": 3306,
      "ଛେ": 3307,
      "ଗୌ": 3308,
      "ପ୍ରୋତ୍ସା": 3309,
      "ପଜିଟିଭ୍": 3310,
      "ପ୍ରାର୍ଥ": 3311,
      "ପରିସ୍ଥିତିରେ": 3312,
      "ଗଣା": 3313,
      "ers": 3314,
      "ବିଚାରପତି": 3315,
      "ପରୀକ୍ଷ": 3316,
      "ନିୟୋ": 3317,
      "ଅରୁ": 3318,
      "ବାହାରକୁ": 3319,
      "ାନୀ": 3320,
      "ପହଂ": 3321,
      "ଅତ୍ୟା": 3322,
      "ବେଦ": 3323,
      "ରକେ": 3324,
      "ଛକ": 3325,
      "ରିତ": 3326,
      "ବିଜୟୀ": 3327,
      "ସହଜ": 3328,
      "ମୁଖ୍ୟମନ୍ତ୍ରୀଙ୍କ": 3329,
      "ହିତା": 3330,
      "ବନ୍ଦର": 3331,
      "op": 3332,
      "ଜୁନ୍": 3333,
      "କଂଗ୍ରେସର": 3334,
      "ବାଣୀ": 3335,
      "୫୫": 3336,
      "ନାଁରେ": 3337,
      "ଟ୍ୟା": 3338,
      "୍ଯ": 3339,
      "ଡିଏ": 3340,
      "ଟାର୍ଗେ": 3341,
      "ରାଜସ୍ଥାନ": 3342,
      "December": 3343,
      "ଭୁକ୍ତ": 3344,
      "ମୁହାଁ": 3345,
      "କ୍ଷୁ": 3346,
      "ମାଗି": 3347,
      "ନେଇଥିବା": 3348,
      "କମିଶନର": 3349,
      "ରହିବାକୁ": 3350,
      "ଫସଲ": 3351,
      "କ୍ରିକେଟ": 3352,
      "ଅଧ": 3353,
      "ଗ୍ରୁ": 3354,
      "ago": 3355,
      "ସ୍ଵା": 3356,
      "ମୁକ୍ତି": 3357,
      "ଭାବି": 3358,
      "ମିଥ": 3359,
      "ଘରର": 3360,
      "Nov": 3361,
      "ପଦବୀ": 3362,
      "ଚେନ୍ନ": 3363,
      "କର୍ମଚାରୀଙ୍କ": 3364,
      "ହୀନ": 3365,
      "ବିଜେପିର": 3366,
      "ଣ୍ଠ": 3367,
      "ସାଧାରଣତଃ": 3368,
      "ମ୍ମୁ": 3369,
      "ପଡ଼ା": 3370,
      "ଫ୍ଟ": 3371,
      "ବଜାରରେ": 3372,
      "ଆମେରିକାର": 3373,
      "ଷିକ": 3374,
      "କାଗଜ": 3375,
      "ଞ୍ଜୟ": 3376,
      "ଦିନେ": 3377,
      "ସାକ୍ଷାତ": 3378,
      "ଜକ": 3379,
      "----": 3380,
      "ବିଶା": 3381,
      "ଜୟନ୍ତ": 3382,
      "ସ୍ବତ": 3383,
      "ୟୋଗ": 3384,
      "ନିର୍ଦ୍ଦିଷ୍ଟ": 3385,
      "ଗ୍ରାମ୍": 3386,
      "ଗବେଷ": 3387,
      "ଅସୁବିଧା": 3388,
      "iv": 3389,
      "ଦେଉଛନ୍ତି": 3390,
      "ାରିଆ": 3391,
      "ନାବାଳିକା": 3392,
      "ଲଙ୍କା": 3393,
      "ଇଚ୍ଛା": 3394,
      "ଫ୍ରା": 3395,
      "ଅଂଚଳ": 3396,
      "ଚୟନ": 3397,
      "2019": 3398,
      "ଯାଉଛନ୍ତି": 3399,
      "ଚନ୍ଦ": 3400,
      "ସାଗର": 3401,
      "୪୬": 3402,
      "ରାଉରକେ": 3403,
      "ପ୍ରତିବାଦ": 3404,
      "ସଂରକ୍ଷଣ": 3405,
      "ତାବ": 3406,
      "ପ୍ରତିଶ୍ରୁତି": 3407,
      "ହୂ": 3408,
      "ind": 3409,
      "ପ୍ରାକୃତିକ": 3410,
      "ome": 3411,
      "ଉପଯୁକ୍ତ": 3412,
      "୩୨": 3413,
      "ଏକାଠି": 3414,
      "ଗରମ": 3415,
      "ବସାଇ": 3416,
      "ଯାଦବ": 3417,
      "ବିଷ୍": 3418,
      "କ୍ୱ": 3419,
      "ଆଫଗାନି": 3420,
      "irst": 3421,
      "ଲ୍ସ": 3422,
      "ଉନ୍ନୟନ": 3423,
      "ଘାଟନ": 3424,
      "ବ୍ୟୟ": 3425,
      "ଦାୟୀ": 3426,
      "ଫଳାଫଳ": 3427,
      "ପରମ୍": 3428,
      "ବିଭାଗୀୟ": 3429,
      "ଅଫିସ": 3430,
      "ହସ୍ତ": 3431,
      "ପଞ୍ଜାବ": 3432,
      "ଛତିଶ": 3433,
      "ଣ୍ଟେ": 3434,
      "ଠାକୁର": 3435,
      "ast": 3436,
      "ଦକ୍ଷତା": 3437,
      "ଟ୍ଟ": 3438,
      "ies": 3439,
      "ଭୁଲ": 3440,
      "ଅଧ୍ୟା": 3441,
      "ଶୁଭେ": 3442,
      "ଚେନ୍ନାଇ": 3443,
      "୨୦୧୮": 3444,
      "କୋଇ": 3445,
      "ଅଧିବେଶ": 3446,
      "24": 3447,
      "ଦିଲ୍ଲୀରେ": 3448,
      "୩୯": 3449,
      "ସାଥୀ": 3450,
      "ରୋଗୀଙ୍କ": 3451,
      "କ୍ରମା": 3452,
      "ଆଇଟି": 3453,
      "ଦୁର୍ବଳ": 3454,
      "\"\"": 3455,
      "ଷ୍ଟ୍ରି": 3456,
      "ଗୁଆ": 3457,
      "ତାଳ": 3458,
      "କେଇ": 3459,
      "ପରିବାରକୁ": 3460,
      "ଂସ": 3461,
      "କେନ୍ଦ୍ରମନ୍ତ୍ରୀ": 3462,
      "୪୭": 3463,
      "ଦୁର୍ନୀତି": 3464,
      "ମାତ୍ରାରେ": 3465,
      "ଗବେଷଣା": 3466,
      "ଦ୍ବିତୀୟ": 3467,
      "ସ୍ୱୀ": 3468,
      "ପୌର": 3469,
      "ସମ୍ମୁଖରେ": 3470,
      "ସର୍ବୋ": 3471,
      "କମ୍ପ": 3472,
      "ଆଲୋକ": 3473,
      "ପ୍ରାଣୀ": 3474,
      "ug": 3475,
      "ହେଇ": 3476,
      "ସକାଳୁ": 3477,
      "ଯିବେ": 3478,
      "କରାଯାଇପାରିବ": 3479,
      "ପଡା": 3480,
      "ମାସ୍କ": 3481,
      "ଜ୍ୟୋତି": 3482,
      "ସେଠ": 3483,
      "ସ୍ବତନ୍ତ୍ର": 3484,
      "ରୋହ": 3485,
      "ସିଟି": 3486,
      "ଫ୍ୟା": 3487,
      "ଡ଼ିତ": 3488,
      "Odia": 3489,
      "ଆସନ୍ତୁ": 3490,
      "ଲକ୍ଷଣ": 3491,
      "ଗୁଜ": 3492,
      "ଫରେ": 3493,
      "ଅଦା": 3494,
      "ବଲ୍": 3495,
      "ପ୍ଲ": 3496,
      "ସ୍ପର": 3497,
      "ନପୁର": 3498,
      "ଦ୍ଦ": 3499,
      "ଆଣିବା": 3500,
      "ହକି": 3501,
      "ଋଷ": 3502,
      "ଡାକ୍ତରଖାନାରେ": 3503,
      "ଆଲ୍": 3504,
      "ରୁଦ୍ଧ": 3505,
      "ଡ଼ିଆ": 3506,
      "ତରୁ": 3507,
      "ରଖିଥିଲେ": 3508,
      "ହିଂସା": 3509,
      "ନିୟୋଜିତ": 3510,
      "ଚାହିଁ": 3511,
      "ଚଳାଚଳ": 3512,
      "କ୍ରାଇ": 3513,
      "ଟାରୁ": 3514,
      "um": 3515,
      "ଚଳରେ": 3516,
      "କୋର୍ଟରେ": 3517,
      "ରାଜ୍ୟପାଳ": 3518,
      "ୟେ": 3519,
      "ବିଫଳ": 3520,
      "ପଡ଼ିଥିଲା": 3521,
      "14": 3522,
      "ଆଫଗାନିସ୍ତାନ": 3523,
      "ସଦର": 3524,
      "ସଂପୃକ୍ତ": 3525,
      "ଭ୍ର": 3526,
      "ପରସ୍ପର": 3527,
      "ଧମକ": 3528,
      "ମିଳିଥାଏ": 3529,
      "ପଦ୍ମ": 3530,
      "ସମୁଦାୟ": 3531,
      "ବ୍ଲକର": 3532,
      "ମୋଟ୍": 3533,
      "ମିଲି": 3534,
      "ପଶୁ": 3535,
      "ଅଭ୍ୟା": 3536,
      "ଘଟିଥିବା": 3537,
      "ଷ୍ଟାଡି": 3538,
      "act": 3539,
      "କ୍ଟ": 3540,
      "ନୌ": 3541,
      "ଡାକ୍ତରଖାନା": 3542,
      "ଭୋଟର": 3543,
      "ସବ": 3544,
      "ଟିଆ": 3545,
      "ଜ୍ଞାନିକ": 3546,
      "ଅପଡ଼େ": 3547,
      "ଏଥିରୁ": 3548,
      "ମହିଳାଙ୍କୁ": 3549,
      "କାହାକୁ": 3550,
      "ପଇସା": 3551,
      "ନେତୃତ୍ୱରେ": 3552,
      "ତାମିଲ": 3553,
      "ଏତ": 3554,
      "13": 3555,
      "ମୁନା": 3556,
      "କୁଳ": 3557,
      "ଦର୍ଶକ": 3558,
      "ରୁଷ": 3559,
      "ଅଷ୍ଟ୍ରେଲିଆ": 3560,
      "ଭାବିକ": 3561,
      "ଏଣୁ": 3562,
      "ମେନ୍ଦ୍ର": 3563,
      "ଉତ୍ପାଦ": 3564,
      "ବାକି": 3565,
      "ଲୋଜି": 3566,
      "ବୈଜ୍ଞାନିକ": 3567,
      "ପୋଖ": 3568,
      "ହୋଇଯିବ": 3569,
      "ଅଧୀନରେ": 3570,
      "୪୪": 3571,
      "ଡ୍ରାଇଭର": 3572,
      "ଡିଂ": 3573,
      "ଣ୍ଠି": 3574,
      "ୱାର": 3575,
      "ମାଗଣା": 3576,
      "ଚକ୍ର": 3577,
      "ପ୍ରତାପ": 3578,
      "ଣ୍ଟନ": 3579,
      "ଅର୍ଥାତ୍": 3580,
      "ଦୂରରେ": 3581,
      "ଅଭିଯୋଗରେ": 3582,
      "ବଜ": 3583,
      "ଘଟିଥିଲା": 3584,
      "En": 3585,
      "ଜୈ": 3586,
      "ବାର୍ଷିକ": 3587,
      "ଆସିଛନ୍ତି": 3588,
      "ଏମାନଙ୍କ": 3589,
      "ଷ୍ଟାର": 3590,
      "ରାଜୀ": 3591,
      "ଦାୟକ": 3592,
      "ଫେବୃ": 3593,
      "ସନ୍ତାନ": 3594,
      "ମିଡିଆ": 3595,
      "କ୍ୟାବି": 3596,
      "ବୁଦ୍ଧି": 3597,
      "ବିଶ୍ୱକ": 3598,
      "କଳାକାର": 3599,
      "ଏମାନେ": 3600,
      "ମନ୍ତ୍ରା": 3601,
      "ସ୍ୱପ୍": 3602,
      "pl": 3603,
      "ପୁତ୍ର": 3604,
      "ମେଶ": 3605,
      "ବତୀ": 3606,
      "ମନ୍ଦିରରେ": 3607,
      "ଂଜନ": 3608,
      "ପରମ୍ପରା": 3609,
      "ଶମ": 3610,
      "State": 3611,
      "ଚାଷୀଙ୍କ": 3612,
      "ମନୋରଞ୍ଜନ": 3613,
      "ହଠାତ୍": 3614,
      "ନିଶା": 3615,
      "ଟାଲ": 3616,
      "ବୋଧ": 3617,
      "ୟିକ": 3618,
      "ପାନୀୟ": 3619,
      "ଭାରତକୁ": 3620,
      "ଭିତରକୁ": 3621,
      "ଯୋଗଦେଇ": 3622,
      "ଜୀବି": 3623,
      "ପାଲି": 3624,
      "ହିନ୍ଦୁସ୍ଥାନ": 3625,
      "ଲାନ୍ସ": 3626,
      "ରାଣୀ": 3627,
      "ପହଂଚି": 3628,
      "first": 3629,
      "ବ୍ରତ": 3630,
      "ଏଜେ": 3631,
      "ଶାରୀ": 3632,
      "ଭୋଟ୍": 3633,
      "AR": 3634,
      "ଉପରକୁ": 3635,
      "ଅପ୍": 3636,
      "ଜ୍ୱ": 3637,
      "କାର୍ଯ୍ୟର": 3638,
      ":5": 3639,
      "କଟା": 3640,
      "କୁମ୍ଭ": 3641,
      "ସ୍ଥାନାନ୍ତର": 3642,
      "ପ୍ରଶାନ୍ତ": 3643,
      "ଜାଗ": 3644,
      "ଣେ": 3645,
      "ain": 3646,
      "ବିତ୍ର": 3647,
      "ତନା": 3648,
      "ଅସନ୍ତୋଷ": 3649,
      "ବୟାନ": 3650,
      "ବିଦ୍ୟାଳୟରେ": 3651,
      "25": 3652,
      "ଘଣ୍ଟାରେ": 3653,
      "ଣରେ": 3654,
      "ବିଶ୍ୱବିଦ୍ୟାଳୟ": 3655,
      "ନ୍ୱ": 3656,
      "26": 3657,
      "ଚ୍ୟୁ": 3658,
      "ରାଉରକେଲା": 3659,
      "ହୋଇଥିବାବେଳେ": 3660,
      "୬୫": 3661,
      "କୋଲକା": 3662,
      "ଇତିହାସ": 3663,
      "କ୍ଷୋ": 3664,
      "ହିତାଧିକାରୀ": 3665,
      "କରିପାରିବ": 3666,
      "ପହଁ": 3667,
      "ନ୍ୟୁଜ୍": 3668,
      "ମେଡିକା": 3669,
      "ଚଳାଇ": 3670,
      "ମିଳିବା": 3671,
      "କିଲ": 3672,
      "ଓଜନ": 3673,
      "ମମତା": 3674,
      "ଇଞ୍ଜି": 3675,
      "site": 3676,
      "ଙ୍ଗୀ": 3677,
      "ସଂଖ୍ୟ": 3678,
      "ମଲ୍ଲିକ": 3679,
      "(+": 3680,
      "ଅଙ୍କ": 3681,
      "ଡଲାର": 3682,
      "ସଙ୍ଗେ": 3683,
      "ଶ୍ରା": 3684,
      "ରୂପା": 3685,
      "ପାଇଥିଲେ": 3686,
      "More": 3687,
      ":4": 3688,
      "ପ୍ରାର": 3689,
      "ପୁସ୍ତ": 3690,
      "lish": 3691,
      "ଦଳରେ": 3692,
      "ବରା": 3693,
      "ame": 3694,
      "ମଞ୍ଚ": 3695,
      "ନୃତ": 3696,
      "ମାର୍ଗ": 3697,
      "ଉପକୂଳ": 3698,
      "ସେଇ": 3699,
      "ଚିକିତ୍": 3700,
      "କେଉଁଠି": 3701,
      "୪୯": 3702,
      "ଲ୍ଲା": 3703,
      "ମଡେ": 3704,
      "ଶୃଙ୍ଖଳା": 3705,
      "ଅଶୋକ": 3706,
      "ଛୁଇଁ": 3707,
      "ମୁଣ୍ଡା": 3708,
      "ଅସୁସ୍ଥ": 3709,
      "ଟଗୁଡିକୁ": 3710,
      "Read": 3711,
      "ବାହିତ": 3712,
      "ଚତୁର୍ଥ": 3713,
      "ସନର": 3714,
      "ସିଏ": 3715,
      "ପର୍ଯ୍ୟଟନ": 3716,
      "ପିଲାଙ୍କ": 3717,
      "ସମ୍ମିଳନୀରେ": 3718,
      "ସେତିକି": 3719,
      "ଚୂ": 3720,
      "ଦିଆଯାଇ": 3721,
      "ଅପଡ଼େଟଗୁଡିକୁ": 3722,
      "ଫେରାର": 3723,
      "ତୀବ୍ର": 3724,
      "ଦେଇଥାଏ": 3725,
      "ଜେନେ": 3726,
      "ଭରି": 3727,
      "ଶୂ": 3728,
      "ନିର୍ବାଚିତ": 3729,
      "ଚରା": 3730,
      "ୟୁକ୍ରେନ": 3731,
      "ଆଦାୟ": 3732,
      "ଟୁଇ": 3733,
      "ପବିତ୍ର": 3734,
      "ଦଳକୁ": 3735,
      "ବିକଳ୍ପ": 3736,
      "ନନ୍ଦନ": 3737,
      "ବାନ୍ଧି": 3738,
      "hat": 3739,
      "ମନ୍ତ୍ରାଳୟ": 3740,
      "ସାବ": 3741,
      "ମଞ୍ଜୁ": 3742,
      "ଓହ୍": 3743,
      "ବାଜି": 3744,
      "ବୃତ୍ତ": 3745,
      "କକୁ": 3746,
      "ମତଦାନ": 3747,
      "୪୨": 3748,
      "ଲତ": 3749,
      "ସହଜରେ": 3750,
      "ଖୋଜ": 3751,
      "ମାନ୍ୟତା": 3752,
      "ସଳ": 3753,
      "ave": 3754,
      "ess": 3755,
      "ପଞ୍ଚାୟତର": 3756,
      "ଏକାଧିକ": 3757,
      "ପ୍ରସିଦ୍ଧ": 3758,
      "କାରି": 3759,
      "ନୀଳ": 3760,
      "ଟକୁ": 3761,
      "ବାଧା": 3762,
      "ତୈ": 3763,
      "ଅବଗତ": 3764,
      "୧୯୯": 3765,
      "ମଇ": 3766,
      "ତ୍ଵ": 3767,
      "ସଲା": 3768,
      "ପୋଷା": 3769,
      "ଆଗ୍ରହ": 3770,
      "ଖ୍ରୀ": 3771,
      "ଶାରୀରିକ": 3772,
      "ହାଇଦ୍ରା": 3773,
      "କରାଯାଉଥିବା": 3774,
      "ଅକ୍ଷୟ": 3775,
      "ତାରିଖରୁ": 3776,
      "ଶ୍ଵର": 3777,
      "ପୁରରେ": 3778,
      "ହୋଇଯାଇଥିଲା": 3779,
      "ରଜ": 3780,
      "କ୍ଲିକ୍": 3781,
      "ତିନୋଟି": 3782,
      "କ୍ଷୋଭ": 3783,
      "ଏସ୍ପି": 3784,
      "୨୦୧୭": 3785,
      "ଳର": 3786,
      "ଗୁରୁତ୍ବ": 3787,
      "ନ୍ଦୀ": 3788,
      "ବେଗ": 3789,
      "art": 3790,
      "mail": 3791,
      "ଆଖ": 3792,
      "ଫର୍ମ": 3793,
      "ଶିଷ": 3794,
      "କାରରେ": 3795,
      "ମ୍ୟାଚରେ": 3796,
      "ଚାଉ": 3797,
      "ପରିବା": 3798,
      "ପିପି": 3799,
      "ଗଠିତ": 3800,
      "ହୋଇପାରନ୍ତି": 3801,
      "ବିଜ୍ଞ": 3802,
      "ସ୍ଥାନକୁ": 3803,
      "appe": 3804,
      "ଉନ୍ନତ": 3805,
      "ଜାନୁଆରୀ": 3806,
      "ଅର": 3807,
      "ଅନୁମାନ": 3808,
      "ିଆ": 3809,
      "ସଂଘର୍ଷ": 3810,
      "ଆଞ୍ଚ": 3811,
      "ଶାହ": 3812,
      "ଆଡ଼": 3813,
      "ନିର୍ମିତ": 3814,
      "ସ୍ୱାଇଁ": 3815,
      "ପରିଚିତ": 3816,
      "ଅଭ୍ୟାସ": 3817,
      "କାଶ୍ମୀର": 3818,
      "ଭୀ": 3819,
      "ନୃତ୍ୟ": 3820,
      "ଯଦିଓ": 3821,
      "ଣ୍ଟ୍": 3822,
      "ଡିଜାଇ": 3823,
      "ନ୍ରେ": 3824,
      "ଯନ୍ତ୍ରଣା": 3825,
      "ମାନଙ୍କରେ": 3826,
      "ାସ": 3827,
      "ପ୍ରୟୋଗ": 3828,
      "ନଥାଏ": 3829,
      "କେନ୍ଦ୍ରାପଡା": 3830,
      "ପୋଖରୀ": 3831,
      "ବାଚ": 3832,
      "କାଠ": 3833,
      "ବିଲ": 3834,
      "ୱାଇ": 3835,
      "29": 3836,
      "କୁକୁର": 3837,
      "ମହମ୍ମଦ": 3838,
      "ଇତ୍ୟା": 3839,
      "ହାଉ": 3840,
      "ଅପର": 3841,
      "କାରୀଙ୍କ": 3842,
      "ସଙ୍ଗୀତ": 3843,
      "27": 3844,
      "ବ୍ୟକ୍ତ": 3845,
      "ଇତ୍ୟାଦି": 3846,
      "se": 3847,
      "ମ୍ୟ": 3848,
      "Al": 3849,
      "ଅର୍ଗ": 3850,
      "ଦୃଷ୍ଟିରୁ": 3851,
      "ଧର୍ମେନ୍ଦ୍ର": 3852,
      "ପଏଣ୍ଟ": 3853,
      "ୱାଲ": 3854,
      "ଆସୁଛନ୍ତି": 3855,
      "ଆହ୍ୱାନ": 3856,
      "ଧରଣ": 3857,
      "ଅହ": 3858,
      "ଅଧିକାରୀମାନେ": 3859,
      "ଶୈଳୀ": 3860,
      "ନିଆଯାଇଛି": 3861,
      "ଯନ୍ତ": 3862,
      "ଅନ୍ୟତମ": 3863,
      "ବାସିନ୍ଦା": 3864,
      "ଛଡ଼ା": 3865,
      "ସୂତ୍ରରୁ": 3866,
      "ଦୂରେଇ": 3867,
      "ect": 3868,
      "ort": 3869,
      "ଗତିରେ": 3870,
      "ବାସୀଙ୍କ": 3871,
      "ଶରୀରରେ": 3872,
      "୍ରିକ": 3873,
      "ଅକ୍ସି": 3874,
      "ପଲ": 3875,
      "ସାରିଛନ୍ତି": 3876,
      "ଗରରେ": 3877,
      "କ୍ଷକ": 3878,
      "ଯୋଜନ": 3879,
      "ପ୍ରଯୁକ୍ତି": 3880,
      "ଉଠ": 3881,
      "ବଦଳରେ": 3882,
      "ଶନ": 3883,
      "ସ୍ମୃତି": 3884,
      "ବଲାଙ୍ଗି": 3885,
      "ସିନେମା": 3886,
      "୮୫": 3887,
      "ଦେଶକୁ": 3888,
      "ରାୟଗଡ଼ା": 3889,
      "ହୃତ": 3890,
      "ଆନ": 3891,
      "ଟଙ୍କାରେ": 3892,
      "Elect": 3893,
      "ଅନ୍ୟମାନଙ୍କ": 3894,
      "ଅନୁସନ୍ଧାନ": 3895,
      "ଠାକୁ": 3896,
      "ସ୍ୱାଗତ": 3897,
      "କର୍ମଚାରୀଙ୍କୁ": 3898,
      "pt": 3899,
      "ବ୍ଲକ୍": 3900,
      "1.": 3901,
      "ସଦା": 3902,
      "ଯେମିତି": 3903,
      "ଭୟଙ୍କର": 3904,
      "nd": 3905,
      "ପଠ": 3906,
      "କ୍ଲା": 3907,
      "ଆଣ୍ଡ": 3908,
      "ଉତ୍କଳ": 3909,
      "ook": 3910,
      "ସଂଘର": 3911,
      "ସାତ": 3912,
      "ସେବୀ": 3913,
      "ଅର୍ପଣ": 3914,
      "ବିରୁଦ୍ଧ": 3915,
      "ଯେତେ": 3916,
      "ବଜାୟ": 3917,
      "ଗୋପାଳ": 3918,
      "ପୁନଃ": 3919,
      "ଷ୍ଟମ": 3920,
      "ଗୋବିନ୍ଦ": 3921,
      "ଏମ୍ସି": 3922,
      "ଁନ୍ତି": 3923,
      "ସଂଶୋ": 3924,
      "ଦିନି": 3925,
      "ବର୍ଣ୍ଣନା": 3926,
      "ନିଷ୍ଠ": 3927,
      "with": 3928,
      "ସଳଖ": 3929,
      "ଶତ୍ରୁ": 3930,
      "ପ୍ରଶାସ": 3931,
      "ଧିତ": 3932,
      "ଲିଟର": 3933,
      "ସ୍ଥାର": 3934,
      "ାରିକ": 3935,
      "red": 3936,
      "ସେଠାରୁ": 3937,
      "ନୀତ": 3938,
      "ପୋଲ": 3939,
      "କ୍ରୟ": 3940,
      "ସଚେତନତା": 3941,
      "22": 3942,
      "ହଜାରରୁ": 3943,
      "ସମ୍ମାନିତ": 3944,
      "ନାହାଁନ୍ତି": 3945,
      "ହୋଇନାହିଁ": 3946,
      "ବ୍ୟକ୍ତିଙ୍କୁ": 3947,
      "ଲକ୍": 3948,
      "ଯିବାର": 3949,
      ":0": 3950,
      "ସ୍ପତି": 3951,
      "ill": 3952,
      "ଅପରାହ୍": 3953,
      "ପରାସ୍ତ": 3954,
      "କୈ": 3955,
      "ଜାଣିବାକୁ": 3956,
      "ଓଡିଶାର": 3957,
      "ପ୍ରମୋ": 3958,
      "ସୁଧ": 3959,
      "ଓହ୍ଲାଇ": 3960,
      "arch": 3961,
      "ପୁଲ": 3962,
      "ଞ୍ଚା": 3963,
      "ମାନା": 3964,
      "ମହେ": 3965,
      "Posts": 3966,
      "ମୃତକଙ୍କ": 3967,
      "୪୩": 3968,
      "NA": 3969,
      "ଡ଼ରେ": 3970,
      "ଶାସ୍ତ୍ର": 3971,
      "ଅଂଚଳରେ": 3972,
      "ared": 3973,
      "ant": 3974,
      "ଭିଡ଼ିଓ": 3975,
      "ବୟସ୍କ": 3976,
      "ଲିଂ": 3977,
      "ରିଂ": 3978,
      "ଜଣାଯାଇଛି": 3979,
      "ଡ଼ାଇ": 3980,
      "ସଫା": 3981,
      "ଭାଷାରେ": 3982,
      "ସର୍ବଦା": 3983,
      "କର୍ଣ୍ଣା": 3984,
      "କମ୍ପାନି": 3985,
      "ଖାର": 3986,
      "ଶିକ": 3987,
      "ଚାର୍ଯ୍ୟ": 3988,
      "qu": 3989,
      "ପାଖକୁ": 3990,
      "ପଚରାଉ": 3991,
      "ନର୍": 3992,
      "ରଣା": 3993,
      "ମଜ": 3994,
      "ହାଇଦ୍ରାବାଦ": 3995,
      "ନେବେ": 3996,
      "ଧକ୍କା": 3997,
      "ବୁଲ": 3998,
      ":3": 3999,
      "ବେଆଇନ": 4000,
      "ମିନିଟ୍": 4001,
      "ଉତ୍ତେ": 4002,
      "Ind": 4003,
      "ଗଞ୍": 4004,
      "ଆଜ": 4005,
      "ମହିଳାମାନେ": 4006,
      "ପାଠ୍ୟ": 4007,
      "HA": 4008,
      "ଆଣ୍ଟି": 4009,
      "ଚୀନ୍": 4010,
      "ated": 4011,
      "କାମରେ": 4012,
      "ବିପର୍ଯ୍ୟ": 4013,
      "କର୍କଟ": 4014,
      "ଭବିଷ୍ୟତ": 4015,
      "ଉଦ୍ୟୋ": 4016,
      "ଭିତ୍ତିଭୂମି": 4017,
      "ପରିଶ୍ରମ": 4018,
      "wit": 4019,
      "ଚେତାବ": 4020,
      "କଟି": 4021,
      "ବିକଶିତ": 4022,
      "ସ୍ପି": 4023,
      "ବାଚସ୍ପତି": 4024,
      "ପ୍ରଦୂ": 4025,
      "ହସ": 4026,
      "ମ୍ୟୁ": 4027,
      "ବସ୍ଥା": 4028,
      "rev": 4029,
      "ଯଥେ": 4030,
      "ନେଟ୍": 4031,
      "ହନ୍ତୁ": 4032,
      "ଆନୁ": 4033,
      "ବେଲ": 4034,
      "ଦମ୍": 4035,
      "ସତ୍": 4036,
      "କାରାତ୍ମକ": 4037,
      "ସଞ୍ଜୟ": 4038,
      "ଚାର୍ଜ": 4039,
      "ପାଣିରେ": 4040,
      "ଅର୍ଥନୀତି": 4041,
      "ଆମ୍ବୁ": 4042,
      "ବାଦ୍": 4043,
      "ପାରିବାରିକ": 4044,
      "ଭଣ୍ଡାର": 4045,
      "ସଂଖ୍ୟାରେ": 4046,
      "କଳ୍": 4047,
      "ଦୃଢ": 4048,
      "ଶିକ୍ଷଣ": 4049,
      "ଅଧ୍ୟକ୍ଷତାରେ": 4050,
      "Le": 4051,
      "ଉପକରଣ": 4052,
      "କ୍ଷର": 4053,
      "ଯଥେଷ୍ଟ": 4054,
      "ଲହର": 4055,
      "fr": 4056,
      "ମୃ": 4057,
      "ପ୍ରଶାସନିକ": 4058,
      "ସପ୍ତାହରେ": 4059,
      "ପୁନର୍": 4060,
      "ତାଲିକାରେ": 4061,
      "ପ୍ରତିରକ୍ଷା": 4062,
      "ସନ୍ଧ୍ୟାରେ": 4063,
      "og": 4064,
      "ଖାନା": 4065,
      "ତୁମେ": 4066,
      "ନାଗ": 4067,
      "ହୋଇଗଲା": 4068,
      "ଚେତାବନୀ": 4069,
      "ତାଣୁ": 4070,
      "ବିଦେଶୀ": 4071,
      "ବଳୀ": 4072,
      "ପଳ": 4073,
      "କରିପାରେ": 4074,
      "ପାଳି": 4075,
      "ବନ୍ଧକ": 4076,
      "Elections": 4077,
      "ଦେଖିଲେ": 4078,
      "aj": 4079,
      "ାର୍ସ": 4080,
      "୬୭": 4081,
      "ନିଅନ୍ତୁ": 4082,
      "ନିକଟସ୍ଥ": 4083,
      "ଗଞ୍ଜେଇ": 4084,
      "ତାମିଲନା": 4085,
      "ହୃଦୟ": 4086,
      "କିମି": 4087,
      "ମାଓବାଦୀ": 4088,
      "appeared": 4089,
      "ମେହେ": 4090,
      "ଅର୍ଥାତ": 4091,
      "ଚୁକ୍ତି": 4092,
      "ୱିକେଟ୍": 4093,
      "ଆଞ୍ଚଳିକ": 4094,
      "ବଲାଙ୍ଗିର": 4095,
      "2.": 4096,
      "୪୧": 4097,
      "ଏଚ": 4098,
      "ଯୌ": 4099,
      "ସମର୍": 4100,
      "ଧାରିତ": 4101,
      "ପାଣିଗ୍ରାହ": 4102,
      "ବିଶ୍ୱରେ": 4103,
      "କରୋନାରେ": 4104,
      "ମଣ୍ଡଳୀ": 4105,
      "ଉତ୍ସବରେ": 4106,
      "ପାଇଥିଲା": 4107,
      "ଡାଟା": 4108,
      "ହ୍ୟା": 4109,
      "ress": 4110,
      "ଲୋକମାନଙ୍କୁ": 4111,
      "ଦିଆଯାଉଛି": 4112,
      "ଆସିଲେ": 4113,
      "ଧରଣର": 4114,
      "28": 4115,
      "ତହସିଲଦାର": 4116,
      "ବିଳମ୍ବିତ": 4117,
      "witter": 4118,
      "ଅନୁଧ୍ୟାନ": 4119,
      "ଇଡି": 4120,
      "ଥାଆନ୍ତି": 4121,
      "୨୦୧୪": 4122,
      "ପ୍ରଭାବରେ": 4123,
      "ଜଷ୍ଟି": 4124,
      "ଗାନ୍ଧି": 4125,
      "ଡିପି": 4126,
      "କମା": 4127,
      "Con": 4128,
      "ସିଧାସଳଖ": 4129,
      "ଅଣା": 4130,
      "ଅମ୍": 4131,
      "ୟମ୍": 4132,
      "ନିର୍ଦ୍ଧ": 4133,
      "ଅଲିମ୍ପି": 4134,
      "ଖାନ୍": 4135,
      "ସେଲ": 4136,
      "ଢ଼େ": 4137,
      "ଦେଉଛି": 4138,
      "ବ୍ରାଞ୍ଚ": 4139,
      "ସର୍ଭେ": 4140,
      "ବାବା": 4141,
      "ଜୀବନର": 4142,
      "କାମନା": 4143,
      "ପୁଣିଥରେ": 4144,
      "ସ୍କି": 4145,
      "ଯେକୌଣସି": 4146,
      "ବିଦ୍ୟୁତ୍": 4147,
      "ବଞ୍ଚି": 4148,
      "କରିବାରୁ": 4149,
      "ଇଣ୍ଡ": 4150,
      "wor": 4151,
      "ଭୁବନେଶ୍ୱରରେ": 4152,
      "ଥଣ୍ଡା": 4153,
      "ଖ୍ୟା": 4154,
      "ଏଚ୍": 4155,
      "ମରା": 4156,
      "ମାଙ୍କ": 4157,
      "ସ୍ବାମୀ": 4158,
      "ଏଥିସହିତ": 4159,
      "କ୍ରମରେ": 4160,
      "ଅଗ୍ନିଶମ": 4161,
      "ପରୀକ୍ଷଣ": 4162,
      "ଝାରସୁଗୁଡ଼ା": 4163,
      "ବିରୁଦ୍ଧରେ": 4164,
      "ଚଢ଼ା": 4165,
      "କ୍ଷୀର": 4166,
      "କଶ୍ମୀର": 4167,
      "ଓଭ": 4168,
      "ମ୍ର": 4169,
      "ଅପରାହ୍ନ": 4170,
      "ବାନୀ": 4171,
      "ଟ୍ରେନ୍": 4172,
      "ରାଜି": 4173,
      "low": 4174,
      "one": 4175,
      "ବିକ୍ଷୋଭ": 4176,
      "App": 4177,
      "1,": 4178,
      "ବାତି": 4179,
      "ମାଡ": 4180,
      "ନ୍ଥ": 4181,
      "ଅସ୍ତ୍ର": 4182,
      "ଡୋଜ୍": 4183,
      "କ୍ରିକେଟ୍": 4184,
      "ଦିନିଆ": 4185,
      "ଅଟୋ": 4186,
      "this": 4187,
      "ଙ୍କନ": 4188,
      "ଦେଲା": 4189,
      "କ୍ୟାରି": 4190,
      "ରେଡ୍": 4191,
      "ହେଉଥିଲା": 4192,
      "ଞ୍ଜଳି": 4193,
      "ସ୍ୱାଧୀନତା": 4194,
      "ପ୍ରଣା": 4195,
      "Ar": 4196,
      "ଦ୍ୱୀ": 4197,
      "ଙ୍ଗରେ": 4198,
      "ଗୁଡା": 4199,
      "ତୈଳ": 4200,
      "ସେଣ୍ଟର": 4201,
      "ଘଂ": 4202,
      "ଡିଜେଲ": 4203,
      "ଶାସକ": 4204,
      "ସାପ": 4205,
      "ଢେଇ": 4206,
      "ସୋନପୁର": 4207,
      "ଆଦିତ୍ୟ": 4208,
      "ନିଖୋଜ": 4209,
      "ସମ୍ଭାବ୍ୟ": 4210,
      "ଜଣାଇଥିଲେ": 4211,
      "all": 4212,
      "କ୍ରିକେ": 4213,
      "ନାନ": 4214,
      "ଅଧିକାରୀଙ୍କୁ": 4215,
      "ନେତାଙ୍କ": 4216,
      "ପ୍ରସାରଣ": 4217,
      "ସାଇକେ": 4218,
      "ଦର୍ଶା": 4219,
      "ଏକର": 4220,
      "ପରିକ": 4221,
      "ହାତି": 4222,
      "ପାଇଥିବା": 4223,
      "ସମ୍ବାଦ": 4224,
      "Oc": 4225,
      "ସତ୍ତ୍ୱ": 4226,
      "ଗେଇ": 4227,
      "ଭାଷଣ": 4228,
      "ଆଠ": 4229,
      "ପୃଷ୍ଠ": 4230,
      "ଡକ": 4231,
      "ଶପଥ": 4232,
      "ଅଂଶଗ୍ରହଣ": 4233,
      "ଆସିଲା": 4234,
      "ଅନ୍ଧ": 4235,
      "ସ୍ୱଚ୍ଛ": 4236,
      "ଧିରେ": 4237,
      "କର୍ତ୍ତା": 4238,
      "ପଢ଼ି": 4239,
      "ମଳ": 4240,
      "ଫିଲ୍ମରେ": 4241,
      "କେସ୍": 4242,
      "23": 4243,
      "ଆଫ୍ରିକା": 4244,
      "ଭୋଜନ": 4245,
      "ପହଞ୍ଚିବା": 4246,
      "୬୮": 4247,
      "ସହଯୋଗୀ": 4248,
      "ମିଶନ": 4249,
      "ବିପକ୍ଷରେ": 4250,
      "ାର୍ଜୀ": 4251,
      "ତାଲିବାନ": 4252,
      "ଗ୍ୟାସ": 4253,
      "ଆୟୁ": 4254,
      "ଶାଲ": 4255,
      "ମନ୍ତବ୍ୟ": 4256,
      "Octo": 4257,
      "ଲ୍ଲୀର": 4258,
      "ଶତକ": 4259,
      "ଏହାଦ୍ୱାରା": 4260,
      "କାଳରେ": 4261,
      "ସାଉ": 4262,
      "ରୋଷ": 4263,
      "ମନୋଜ": 4264,
      "ପୁଷ୍": 4265,
      "ଷିତ": 4266,
      "ଉଲ୍ଲ": 4267,
      "Home": 4268,
      "ଇସ୍": 4269,
      "ଉଦ୍ଦେଶ୍ୟରେ": 4270,
      "ପରିମାଣର": 4271,
      "ଆଦର୍ଶ": 4272,
      "ଟେଲିଗ୍ରାମ୍": 4273,
      "ସାଜି": 4274,
      "October": 4275,
      "।\"": 4276,
      "୭୭": 4277,
      "ସ୍ୱରୂପ": 4278,
      "ପାଣ୍ଠି": 4279,
      "ଂଚ": 4280,
      "ଶୋଇ": 4281,
      "ଲଘୁଚାପ": 4282,
      "ଟୀକା": 4283,
      "ଲୋକସଭା": 4284,
      "ଯେଉଁଠାରେ": 4285,
      "କହିବାକୁ": 4286,
      "ଚାନ୍ଦ": 4287,
      "ଯେଉଁଠି": 4288,
      "ବାସୀଙ୍କୁ": 4289,
      "Comment": 4290,
      "Ch": 4291,
      "ପିଇ": 4292,
      "ଦୁନିଆ": 4293,
      "ରାଜପଥ": 4294,
      "ଘାଟ": 4295,
      "ଯନ୍ତ୍ରୀ": 4296,
      "day": 4297,
      "ବାଣ": 4298,
      "କଳ୍ପନା": 4299,
      "ip": 4300,
      "ଯତ୍ନ": 4301,
      "By": 4302,
      "ବ୍ରିଟି": 4303,
      "ମାଝ": 4304,
      "କଳି": 4305,
      "ଓଭରରେ": 4306,
      "ଷ୍ଟେସନ": 4307,
      "ତ୍ରିପାଠ": 4308,
      "ଓଡିଆ": 4309,
      "ସେନାର": 4310,
      "୫୦୦": 4311,
      "ଗୁଡିକର": 4312,
      "ଛୁଟି": 4313,
      "ଉପସ୍ଥାପନ": 4314,
      "ଯାଉଥିଲା": 4315,
      "ସମୃ": 4316,
      "ମ୍ୟାଚ୍ରେ": 4317,
      "ଲୋକମାନଙ୍କ": 4318,
      "ନିଗମ": 4319,
      "ଦୁର୍ଘଟଣାରେ": 4320,
      "ତାଲିମ": 4321,
      "2018": 4322,
      "ଶେଖର": 4323,
      "କ୍ସି": 4324,
      "ପ୍ରତ୍ୟାହାର": 4325,
      "ଡାକି": 4326,
      "ନମୁନା": 4327,
      "ରୋଗ୍ୟ": 4328,
      "ଭୁଲି": 4329,
      "ଠିକା": 4330,
      "ରାଶିଫଳ": 4331,
      "ସତ୍ତ୍ୱେ": 4332,
      "ଛାତ୍ରଛାତ୍ରୀଙ୍କ": 4333,
      "ମରି": 4334,
      "କୋଟ": 4335,
      "ଧାର୍ଯ୍ୟ": 4336,
      "ନିୟର": 4337,
      "ମିତ୍ର": 4338,
      "କୌଶଳ": 4339,
      "ଢ଼େଇ": 4340,
      "କ୍ଲ": 4341,
      "ଟନ୍": 4342,
      "ଦରମା": 4343,
      "ଆମ୍ବୁଲାନ୍ସ": 4344,
      "ବ୍ୟବହୃତ": 4345,
      "ଅବହେ": 4346,
      "ଅନି": 4347,
      "ଜିଓ": 4348,
      "ଘୋ": 4349,
      "ମହାନଗର": 4350,
      "ebsite": 4351,
      "ଆଧାରିତ": 4352,
      "ଟିକେ": 4353,
      "ମକୁ": 4354,
      "ନିବେଦନ": 4355,
      "ପ୍ରକା": 4356,
      "ପାଲଟିଛି": 4357,
      "ଆଗୁଆ": 4358,
      "ଓ୍ବା": 4359,
      "ସେଠୀ": 4360,
      "ଟିଫି": 4361,
      "କ୍ୟାମେ": 4362,
      "ସ୍ନା": 4363,
      "ww": 4364,
      "ବର୍ତ": 4365,
      "ଜମ୍ମୁ": 4366,
      "ସିଆର": 4367,
      "ଟିଭ୍": 4368,
      "Prev": 4369,
      "ଅମିତ": 4370,
      "ଉପୁ": 4371,
      "ବାଘ": 4372,
      "ଇଲେକ୍": 4373,
      "୨୦୧୬": 4374,
      "କ୍ରାଇମ": 4375,
      "୫୭": 4376,
      "ଓଭର": 4377,
      "ବିସ୍ଫୋରଣ": 4378,
      "age": 4379,
      "ମତାମତ": 4380,
      "ଜବର": 4381,
      "ହାଜ": 4382,
      "ହାର୍": 4383,
      "ସଂକ୍ରାନ୍ତ": 4384,
      "ୱେବସାଇ": 4385,
      "ଚରି": 4386,
      "ତଳକୁ": 4387,
      "ଗତବର୍ଷ": 4388,
      "ଭୂତାଣୁ": 4389,
      "ପୃଥିବୀ": 4390,
      "ଚାଉଳ": 4391,
      "ମଣା": 4392,
      "ଯୁଗ": 4393,
      "ଶୋଭା": 4394,
      "ଙ୍କ୍": 4395,
      "ବାଇକ୍": 4396,
      "What": 4397,
      "uary": 4398,
      "ଚଢ଼ାଉ": 4399,
      "୫୨": 4400,
      "ଆରୋଗ୍ୟ": 4401,
      "ଧଳା": 4402,
      "ଦିଲ୍ଲୀର": 4403,
      "ମଧ": 4404,
      "ଜୟପୁର": 4405,
      "ତାରା": 4406,
      "ଉତ୍ତେଜନା": 4407,
      "୬୯": 4408,
      "ମହାନଦୀ": 4409,
      "କମିଶନ": 4410,
      "ଏତିକି": 4411,
      "ଶକ୍ତିଶାଳୀ": 4412,
      "ଆଘାତ": 4413,
      "ଧନା": 4414,
      "ପଂଚାୟତ": 4415,
      "ୁନ": 4416,
      "ଏହିପରି": 4417,
      "min": 4418,
      "ସେମି": 4419,
      "ଲେଣି": 4420,
      "ଗ୍ଧ": 4421,
      "ଡ଼ୁ": 4422,
      "ass": 4423,
      "ଭୂଷଣ": 4424,
      "ବ୍ଦୀ": 4425,
      "ଲକଡା": 4426,
      "ପ୍ରଧାନମନ୍ତ୍ରୀଙ୍କ": 4427,
      "ପଦ୍ଧ": 4428,
      "ଣ୍ଡିତ": 4429,
      "ସାମନ୍ତ": 4430,
      "ଜାପାନ": 4431,
      "ସୁର": 4432,
      "ମୌସୁ": 4433,
      "ମୁଦ୍ରା": 4434,
      "କାର୍ଯ୍ୟକଳା": 4435,
      "ବିଭାଗରେ": 4436,
      "ଗୁଡିକରେ": 4437,
      "ପ୍ରକାଶିତ": 4438,
      "ଆଉଟ୍": 4439,
      "ଶୁଭେଚ୍ଛା": 4440,
      "ମ୍ୟାନେ": 4441,
      "ପ୍ରଦୂଷଣ": 4442,
      "ଦୁର୍ବୃତ୍ତ": 4443,
      "ବ୍ଲୁ": 4444,
      "କଠି": 4445,
      "ରୌ": 4446,
      "ଗସ୍ତରେ": 4447,
      "ନିର୍ଦ୍ଧାରିତ": 4448,
      "ity": 4449,
      "ଆନ୍ତର୍": 4450,
      "ଇନିଂ": 4451,
      "ବର୍ତମାନ": 4452,
      "ଯୋଜନାର": 4453,
      "ରଙ୍ଗର": 4454,
      "ପର୍ଯ୍ୟଟକ": 4455,
      "ଆଶ୍ର": 4456,
      "ୟଂ": 4457,
      "ଜାନ": 4458,
      "୫୮": 4459,
      "ଲତା": 4460,
      "ଚ୍ୟା": 4461,
      "ସୀମିତ": 4462,
      "ପ୍ୟ": 4463,
      "ଜଡିତ": 4464,
      "bad": 4465,
      "ଟ୍ରେନ": 4466,
      "ପାଣ୍ଡ": 4467,
      "ଅତିକ୍ରମ": 4468,
      "ନିଯୁକ୍ତ": 4469,
      "ରେଜ": 4470,
      "ନକଲି": 4471,
      "uss": 4472,
      "ଗ୍ରାମା": 4473,
      ":-": 4474,
      "ବିଶ୍ଵ": 4475,
      "ଗୌର": 4476,
      "ଶତାବ୍ଦୀ": 4477,
      "ONA": 4478,
      "କାର୍ଯ୍ୟକୁ": 4479,
      "ହାଜର": 4480,
      "କପୁର": 4481,
      "ସୁନିଶ୍ଚିତ": 4482,
      "ପ୍ରକଳ୍": 4483,
      "ଧାର୍ମିକ": 4484,
      "ସ୍କୁଲରେ": 4485,
      "୫୯": 4486,
      "କଠିନ": 4487,
      "ଉର୍ଦ୍ଧ": 4488,
      "ନିକଟରୁ": 4489,
      "ନିର୍ବାହୀ": 4490,
      "ପୋରେ": 4491,
      "BAR": 4492,
      "ସୁରେଶ": 4493,
      "ଆରା": 4494,
      "ପଡିଥିଲା": 4495,
      "ଦାତା": 4496,
      "ଉତ୍ତରା": 4497,
      "from": 4498,
      "ସଂପାଦକ": 4499,
      "ଗ୍ନ": 4500,
      "ମୁତ": 4501,
      "ଉଠା": 4502,
      "ପାଳିତ": 4503,
      "ପାଇଛନ୍ତି": 4504,
      "ପ୍ରଣ": 4505,
      "ଅଜୟ": 4506,
      "os": 4507,
      "ରେଖା": 4508,
      "କରାଇବା": 4509,
      "ଓକିଲ": 4510,
      "ଧନୁ": 4511,
      "ଚାଳକ": 4512,
      "ଣ୍ଣିଂ": 4513,
      "KHA": 4514,
      "ଡିଆ": 4515,
      "ପିଲାମାନେ": 4516,
      "ଡାଉନ୍": 4517,
      "ସ୍କୋର": 4518,
      "ବ୍ଲକରେ": 4519,
      "ଗୋଟେ": 4520,
      "୫୬": 4521,
      "ପଚରାଉଚରା": 4522,
      "ବଢ଼ାଇ": 4523,
      "KHABAR": 4524,
      "ଲ୍ଟ": 4525,
      "ଫ୍ରେ": 4526,
      "ପୂଜାର": 4527,
      "200": 4528,
      "ଜମିରେ": 4529,
      "ବ୍ରିଟେ": 4530,
      "ରୋଗରେ": 4531,
      "ଳଙ୍କ": 4532,
      "ମୋବାଇଲ୍": 4533,
      "କାର୍ୟ୍ୟ": 4534,
      "ମରାମ": 4535,
      "ଦେବଗଡ଼": 4536,
      "ଅନୁମୋ": 4537,
      "ଚଢା": 4538,
      "ଅନୁକୂଳ": 4539,
      "ବାଡ଼ି": 4540,
      "ଚାହୁଁଛନ୍ତି": 4541,
      "ତରଣ": 4542,
      "ଅକ୍ସିଜେ": 4543,
      "ରମେଶ": 4544,
      "ଦୁର୍ଗା": 4545,
      "ଅରୁଣ": 4546,
      "ପଟ୍ଟନାୟକଙ୍କ": 4547,
      "ରୂପରେ": 4548,
      "ଜାମିନ": 4549,
      "ବର୍ଗର": 4550,
      "ରଖୁ": 4551,
      "ସଙ୍କଟ": 4552,
      "ମଝି": 4553,
      "Next": 4554,
      "ଇଓ": 4555,
      "ସକୁ": 4556,
      "କାର୍ଯ୍ୟାଳୟରେ": 4557,
      "ପାରମ୍": 4558,
      "ଅଟକି": 4559,
      "ଟ୍ରାଫି": 4560,
      "ଡ଼କ": 4561,
      "ବଳରେ": 4562,
      "ଓଲ": 4563,
      "ଭିକ": 4564,
      "ଜବାବ": 4565,
      "ମେଳା": 4566,
      "Pr": 4567,
      "ସମ୍ପର୍କୀୟ": 4568,
      "ସ୍କର": 4569,
      "ପୂର୍ବବର୍ତ୍ତୀ": 4570,
      "ମଧ୍ୟା": 4571,
      "କେଜି": 4572,
      "ଚିକିତ୍ସିତ": 4573,
      "ନାରୀ": 4574,
      "ପ୍ରଦାୟ": 4575,
      "ଆଧୁନିକ": 4576,
      "ନ୍ସର": 4577,
      "ଶୁଭାର": 4578,
      "ଟେକ୍ନୋ": 4579,
      "ଜିଲାପାଳ": 4580,
      "ଜବରଦ": 4581,
      "ଚୋ": 4582,
      "ପ୍ରକୃତି": 4583,
      "ପ୍ରତିଯୋଗିତା": 4584,
      "ମରଣ": 4585,
      "ରାଲ୍": 4586,
      "ଖୋଲିବା": 4587,
      "ବାଂ": 4588,
      "ଯେପରିକି": 4589,
      "ଖ୍ରୀଷ୍ଟ": 4590,
      "ବିପକ୍ଷ": 4591,
      "ବୋଲର": 4592,
      "ବୟସରେ": 4593,
      "per": 4594,
      "ବୋଲିଂ": 4595,
      "ପଦାର୍ଥ": 4596,
      "ପୁସ୍ତକ": 4597,
      "email": 4598,
      "ଦିନିକିଆ": 4599,
      "ଶୁଭାରମ୍ଭ": 4600,
      "ପୁଟି": 4601,
      "ଲିଙ୍କ": 4602,
      "କପି": 4603,
      "ଯୋଡି": 4604,
      "ତ୍ରେ": 4605,
      "ଜିଲାରେ": 4606,
      "ମାସର": 4607,
      "ଶ୍ରୀଲଙ୍କା": 4608,
      "ବ୍ୟାପି": 4609,
      "ଫେରାଇ": 4610,
      "ds": 4611,
      "ସାବ୍ୟସ୍ତ": 4612,
      "ସୁଧାର": 4613,
      "ମରୁ": 4614,
      "ସଂଶୋଧନ": 4615,
      "୭୮": 4616,
      "ial": 4617,
      "ହସ୍ତା": 4618,
      "ଜେଲ୍": 4619,
      "ନିରଞ୍ଜନ": 4620,
      "ଧୁରୀ": 4621,
      "ପଲି": 4622,
      "ମରାମତି": 4623,
      "ବିଜ୍ଞପ୍ତି": 4624,
      "ସମୟର": 4625,
      "ଏତଲା": 4626,
      "ଅଧ୍ୟୟନ": 4627,
      "ନେଇଥିଲା": 4628,
      "ତଳ": 4629,
      "int": 4630,
      "ନୂଆପଡ଼ା": 4631,
      "ପିଇବା": 4632,
      "ଅନୁମୋଦନ": 4633,
      "କମ୍ପ୍ୟୁ": 4634,
      "ବସ୍ତି": 4635,
      "ଭୂତି": 4636,
      "ପେଟ": 4637,
      "ଅର୍ଗସ": 4638,
      "ନିଷ୍ପତି": 4639,
      "ଛତିଶଗଡ଼": 4640,
      "ମଜା": 4641,
      "ଗୋଲ": 4642,
      "ଦୂରତା": 4643,
      "ବୈଷ": 4644,
      "ସୁବର୍ଣ୍ଣ": 4645,
      "ଚରିତ୍ର": 4646,
      "ପାକିସ୍ତାନର": 4647,
      "ଖାଇବାକୁ": 4648,
      "ପକ୍ଷେ": 4649,
      "ଶାଳା": 4650,
      "ଦେବାର": 4651,
      "ମାର୍କ": 4652,
      "ଆସ": 4653,
      "ang": 4654,
      "ଥିଲୁ": 4655,
      "news": 4656,
      "Email": 4657,
      "Aug": 4658,
      "ଲମ୍ବନ": 4659,
      "ସଠିକ": 4660,
      "ପ୍ରଦେଶରେ": 4661,
      "କ୍ରୋ": 4662,
      "୬୨": 4663,
      "you": 4664,
      "ବିଳମ୍ବ": 4665,
      "ଚାଲିବ": 4666,
      "କରୁଥିଲା": 4667,
      "ବିଦ୍ୟ": 4668,
      "ଅଭିଜ୍ଞ": 4669,
      "ହତ୍ୟାକାଣ୍ଡ": 4670,
      "ସ୍ୱପ୍ନ": 4671,
      "ବାରଣ": 4672,
      "ମହୁ": 4673,
      "your": 4674,
      "କହୁଛନ୍ତି": 4675,
      "କ୍ୟାମେରା": 4676,
      "ଟାର୍ଗେଟ": 4677,
      "୧୯୮": 4678,
      "ସେଣ୍ଟ": 4679,
      "ଜ୍ଞାପନ": 4680,
      "ଶ୍ୱାସ": 4681,
      "ide": 4682,
      "ବ୍ୟାପୀ": 4683,
      "ଅନା": 4684,
      "ଫେରିବା": 4685,
      "ୀକରଣ": 4686,
      "ଯାତ୍ରାରେ": 4687,
      "ନିର୍ଦ୍ଧାର": 4688,
      "ଦ୍ୱନ୍": 4689,
      "ପିଲାଙ୍କୁ": 4690,
      "ମୁତୟନ": 4691,
      "ବୋମା": 4692,
      "ପରିସର": 4693,
      "କର୍ମଚାରୀମାନେ": 4694,
      "ସର୍ବନିମ୍ନ": 4695,
      "ଉଭୟଙ୍କ": 4696,
      "ପରିବାରରେ": 4697,
      "ଫିଲ୍ମର": 4698,
      "ମୌସୁମୀ": 4699,
      "ଣୀର": 4700,
      "ଦେଖୁ": 4701,
      "ୟୁପି": 4702,
      "ାକ୍ତ": 4703,
      "ଯୁବକଙ୍କ": 4704,
      "ପ୍ରଶଂସକ": 4705,
      "କରୁଛୁ": 4706,
      "ବିଜେଡିର": 4707,
      "କ୍ସରେ": 4708,
      "ସର୍ଚ୍ଚ": 4709,
      "ଏମସି": 4710,
      "ପୋଷାକ": 4711,
      "ପ୍ରସ": 4712,
      "ବିଷ୍ଣୁ": 4713,
      "ନଗ": 4714,
      "ପାଣିଗ୍ରାହୀ": 4715,
      "ତିହାସିକ": 4716,
      "ରହସ୍ୟ": 4717,
      "ଜଣାଶୁଣା": 4718,
      "୯୮": 4719,
      "ous": 4720,
      "ଗଣନା": 4721,
      "ଛଡା": 4722,
      "conf": 4723,
      "ସ୍ୱୟଂ": 4724,
      "ଡିଜିଟାଲ": 4725,
      "କର୍ପୋରେ": 4726,
      "ପ୍ରେସ": 4727,
      "ବିଜୁଳି": 4728,
      "cl": 4729,
      "ିନୀ": 4730,
      "Russ": 4731,
      "ସଂସ୍କାର": 4732,
      "ବିତ୍": 4733,
      "ଲେଞ୍ଜ": 4734,
      "ବିସିସି": 4735,
      "ଧାନରେ": 4736,
      "ସଠିକ୍": 4737,
      "ଲ୍ୟାଣ୍ଡ": 4738,
      "ଫେବୃଆରୀ": 4739,
      "ure": 4740,
      "wh": 4741,
      "ପ୍ରିୟଙ୍କା": 4742,
      "ରୁହନ୍ତୁ": 4743,
      "ରିପୋର୍ଟରେ": 4744,
      "ସଂପର୍କ": 4745,
      "ବ୍ଲା": 4746,
      "ବଣ୍ଟନ": 4747,
      "Ab": 4748,
      "Jun": 4749,
      "ପ୍ରଶିକ୍ଷଣ": 4750,
      "କୋଲକାତା": 4751,
      "ବାତିଲ": 4752,
      "ଆସନରେ": 4753,
      "He": 4754,
      "ସଂଖ୍ୟକ": 4755,
      "ପ୍ରମୋଦ": 4756,
      "ଡାଉନ": 4757,
      "୫୩": 4758,
      "ମୟୁ": 4759,
      "ବୋଝ": 4760,
      "ଅନୁପ": 4761,
      "ସମାଲୋଚନା": 4762,
      "ପ୍ରୋତ୍ସାହନ": 4763,
      "ଅଭୟ": 4764,
      "ନେଲେ": 4765,
      "ସେଥିରୁ": 4766,
      "ପାସ୍": 4767,
      "ଟିକସ": 4768,
      "ବୁଝାମଣା": 4769,
      "kra": 4770,
      "ପୂର୍ବାନୁମାନ": 4771,
      "ଜଳବାୟୁ": 4772,
      "ଠିଆ": 4773,
      "erv": 4774,
      "ଐତିହାସିକ": 4775,
      "ଅପହ": 4776,
      "ବ୍ୟବଚ୍ଛେଦ": 4777,
      "ିକା": 4778,
      "ଗୋଟି": 4779,
      "ଜାତ": 4780,
      "ତ୍ରିପାଠୀ": 4781,
      "୬୬": 4782,
      "କ୍ୟାପିଟା": 4783,
      "କାର୍ତ୍ତି": 4784,
      "ଜଟି": 4785,
      "ଏକମାତ୍ର": 4786,
      "ତାମୂଳକ": 4787,
      "ମହଙ୍ଗା": 4788,
      "ଡ୍ରା": 4789,
      "ଡକ୍ଟର": 4790,
      "ଷ୍ଟୋ": 4791,
      "ତାମିଲନାଡୁ": 4792,
      "ଠକେଇ": 4793,
      "କମିଟିର": 4794,
      "ସରଳ": 4795,
      "ଟ୍ୱିଟ୍": 4796,
      "ସର୍ବୋଚ୍ଚ": 4797,
      "ply": 4798,
      "ଷଡ଼": 4799,
      "ଦୁଇଜଣ": 4800,
      "ଅନ୍ତିମ": 4801,
      "ପ୍ରାଇ": 4802,
      "ଜୋରଦାର": 4803,
      "ଭବନରେ": 4804,
      "ଗୁଜୁ": 4805,
      "ଯୋଗୀ": 4806,
      "ସେବନ": 4807,
      "Russia": 4808,
      "ପ୍ରତୀ": 4809,
      "ମାଲି": 4810,
      "ବେପାର": 4811,
      "ପାର୍ଶ୍ୱ": 4812,
      "୭୨": 4813,
      "ସ୍ୱର୍": 4814,
      "ପଡ଼ିଥିବା": 4815,
      "ଅର୍ଥନୈତିକ": 4816,
      "ଆନ୍ତୁ": 4817,
      "ଅନ୍ତର୍ଭୁକ୍ତ": 4818,
      "ପଡୁଛି": 4819,
      "ନ୍ୟୁଜିଲା": 4820,
      "ଆସିବେ": 4821,
      "ଚାହି": 4822,
      "ଦାନ୍ତ": 4823,
      "ଆଉଟ": 4824,
      "ଅଟନ୍ତି": 4825,
      "ସ୍କୃତିକ": 4826,
      "ଜଙ୍ଗଲରେ": 4827,
      "ରାଜସ୍ୱ": 4828,
      "କେନ୍ଦ୍ରର": 4829,
      "ଦ୍ୱି": 4830,
      "ଦୁହେଁ": 4831,
      "ବିଶାଳ": 4832,
      "।'": 4833,
      "ନିର୍ଦ୍ଧାରଣ": 4834,
      "ଜାତିର": 4835,
      "Ukra": 4836,
      "କିଛିଦିନ": 4837,
      "ବାସ୍ତବ": 4838,
      "cont": 4839,
      "ମତୀ": 4840,
      "ମନ୍ତ୍ରୀଙ୍କ": 4841,
      "ଇତି": 4842,
      "ମିଳେ": 4843,
      "over": 4844,
      "ମୋଦିଙ୍କ": 4845,
      "ollow": 4846,
      "ଜଡ଼ିତ": 4847,
      "ପରିଦର୍ଶନ": 4848,
      "ଅଭିଯୁକ୍ତଙ୍କୁ": 4849,
      "ଆଗେଇ": 4850,
      "ହୋଟେଲ": 4851,
      "ଆଲୋ": 4852,
      "ଭିଡ଼": 4853,
      "Ukraine": 4854,
      "ପୌ": 4855,
      "କମ୍ପାନୀର": 4856,
      "ବିଏମ୍ସି": 4857,
      "ହୋଇଥାନ୍ତି": 4858,
      "cri": 4859,
      "ଲକ୍ଷରୁ": 4860,
      "ପର୍ଶ": 4861,
      "dit": 4862,
      "de": 4863,
      "ରଖିଥିବା": 4864,
      "ଆଇଏ": 4865,
      "ଦେଓ": 4866,
      "Sambad": 4867,
      "ମକର": 4868,
      "ପାଇପାରିବେ": 4869,
      "lict": 4870,
      "ଅବକାରୀ": 4871,
      "୬୪": 4872,
      "har": 4873,
      "େନ୍ଦ୍ର": 4874,
      "ସମ୍ପନ୍ନ": 4875,
      "ମଧ୍ୟମ": 4876,
      "ଷ୍ମ": 4877,
      "ଡ୍ରଗ୍": 4878,
      "ଅତ୍ୟଧିକ": 4879,
      "ଦିବ୍ୟ": 4880,
      "ସ୍ରା": 4881,
      "ତାପରେ": 4882,
      "ସରୋ": 4883,
      "ଭିତରୁ": 4884,
      "ପଞ୍": 4885,
      "conflict": 4886,
      "ଫେରୁ": 4887,
      "ଚଢାଉ": 4888,
      "କର୍ମୀଙ୍କ": 4889,
      "୭୯": 4890,
      "ମାଝୀ": 4891,
      "ଣ୍ଟାଇ": 4892,
      "ହେଲ": 4893,
      "ଟ୍ସ": 4894,
      "ଧ୍ୱ": 4895,
      "ଡାକ୍ତରଙ୍କ": 4896,
      "ପିଲାମାନଙ୍କ": 4897,
      "ଲଗାତାର": 4898,
      "ରୋକିବା": 4899,
      "ସଲମାନ": 4900,
      "ଅବସ୍ଥିତ": 4901,
      "ସମୀର": 4902,
      "ଂଘନ": 4903,
      "ଜିଲ୍ଲାପାଳଙ୍କ": 4904,
      "ବର୍ଦ୍ଧ": 4905,
      "ବ୍ୟବସ୍ଥାକୁ": 4906,
      "ବରଣୀ": 4907,
      "ଲେଇ": 4908,
      "ନୁହଁ": 4909,
      "ଅଥ": 4910,
      "ସାଂସ୍କୃତିକ": 4911,
      "ମୁର୍": 4912,
      "ସେନେଇ": 4913,
      "ତାହେଲେ": 4914,
      "ଭାଜ": 4915,
      "ଗୃହରେ": 4916,
      "କ୍ରିୟାରେ": 4917,
      "ତ୍ରୁଟି": 4918,
      "ପାଟି": 4919,
      "ପଢି": 4920,
      "ବ୍ୟାପାର": 4921,
      "ଆନ୍": 4922,
      "ଅଣ୍ଡା": 4923,
      "କ୍ଷୁଦ୍ର": 4924,
      "ଦେଉଥିବା": 4925,
      "ତୁମର": 4926,
      "du": 4927,
      "ବୀମା": 4928,
      "ରୀଣ": 4929,
      "ପ୍ରତିବର୍ଷ": 4930,
      "ଚାମ୍ପି": 4931,
      "ପିକା": 4932,
      "ପୋଲିସର": 4933,
      "ବାୟୋ": 4934,
      "ଆୟୋଗ": 4935,
      "ବିସିସିଆଇ": 4936,
      "ବ୍ୟବସାୟରେ": 4937,
      "ଉଥିଲେ": 4938,
      "ତ୍ତର": 4939,
      "ory": 4940,
      "ମୁହିଁ": 4941,
      "ଶିକ୍ଷାନୁଷ୍ଠାନ": 4942,
      "ସାନି": 4943,
      "ଅଧିବେଶନ": 4944,
      "ebook": 4945,
      "ଭିଡିଓରେ": 4946,
      "ହାରା": 4947,
      "ଜଟିଳ": 4948,
      "ଦ୍ରବ୍ୟ": 4949,
      "av": 4950,
      "ଫସି": 4951,
      "ରଣନୀତି": 4952,
      "ଆଇନ୍": 4953,
      "ଆଚାର୍ଯ୍ୟ": 4954,
      "ଦିତ": 4955,
      "ଇରା": 4956,
      "ବିବରଣୀ": 4957,
      "ନିଆଯିବ": 4958,
      "acebook": 4959,
      "ାନାରୁ": 4960,
      "କଣ୍ଠ": 4961,
      "ଲିମି": 4962,
      "ଶିବିର": 4963,
      "ଚନ୍ଦନ": 4964,
      "କେରଳ": 4965,
      "ଉଇ": 4966,
      "ନ୍ଧା": 4967,
      "ହିମା": 4968,
      "ବୈଷୟିକ": 4969,
      "ପନ୍": 4970,
      "ବନ୍ଧୁକ": 4971,
      "ପକା": 4972,
      "ହୋଇଯାଏ": 4973,
      "ମାନସ": 4974,
      "ଡକା": 4975,
      "ସାମଲ": 4976,
      "ଅବଧି": 4977,
      "ଚର୍ଚ୍ଚାରେ": 4978,
      "ସବୁଜ": 4979,
      "ପଥରେ": 4980,
      "ଜିଲାର": 4981,
      "କୁହନ୍ତି": 4982,
      "ଭାଗରେ": 4983,
      "ପରିମାଣରେ": 4984,
      "ଦାସଙ୍କ": 4985,
      "କ୍ରମାଗତ": 4986,
      "ଛତ୍ର": 4987,
      "ସହାୟତାରେ": 4988,
      "ବହୁଳ": 4989,
      "ଆଗରୁ": 4990,
      "ଟସ୍": 4991,
      "କ୍ଷୀରେ": 4992,
      "ମାନର": 4993,
      "ଯାତା": 4994,
      "ବାୟ": 4995,
      "ବଲିଉଡ": 4996,
      "ଅଞ୍ଚଳରୁ": 4997,
      "ପିପିଲି": 4998,
      "ସ୍ଥାପ": 4999,
      "ଲାଗିଲା": 5000,
      "ଟେରା": 5001,
      "ବୃକ୍ଷ": 5002,
      "ଭ୍ରମଣ": 5003,
      "କ୍ୟାମ୍ପ": 5004,
      "sp": 5005,
      "ବନ୍ୟ": 5006,
      "ନାଏକ": 5007,
      "ଅଭିଭାବ": 5008,
      "ଲମ୍ବା": 5009,
      "ସୂଚନ": 5010,
      "ନିର୍ଦ୍ଦେ": 5011,
      "ରାଜନୀତିରେ": 5012,
      "ଠୋର": 5013,
      "ରସ": 5014,
      "ବିଶ୍ୱାଳ": 5015,
      "କାହାର": 5016,
      "ବିଗତ": 5017,
      "Facebook": 5018,
      "ସାଙ୍ଗକୁ": 5019,
      "ବ୍ରୁ": 5020,
      "ମୁଣ୍ଡରେ": 5021,
      "ବାଂଲା": 5022,
      "୫୪": 5023,
      "ଟୁର୍": 5024,
      "ମୋର୍ଚ୍ଚ": 5025,
      "କବିତା": 5026,
      "ତତ୍ତ୍ୱ": 5027,
      "ଚୋରା": 5028,
      "ପହଞ୍ଚିଥିଲେ": 5029,
      "ଧ୍ୟକ୍ଷ": 5030,
      "କଙ୍ଗ": 5031,
      "ଟ୍ୟ": 5032,
      "ପ୍ରେମୀ": 5033,
      "ବୃଦ୍ଧ": 5034,
      "ଶାସିତ": 5035,
      "କାର୍ଯ୍ୟକଳାପ": 5036,
      "ାର୍କ": 5037,
      "ସପ୍ତ": 5038,
      "ଦେଶୀ": 5039,
      "ସ୍ୱାଭାବିକ": 5040,
      "ହୋଇଯାଇଥିଲେ": 5041,
      "ମେହେର": 5042,
      "ସଙ୍ଗଠ": 5043,
      "ପୁଞ୍ଜି": 5044,
      "ଦିଅନ୍ତି": 5045,
      "ପ୍ରାପ୍ତି": 5046,
      "ହୁଅନ୍ତି": 5047,
      "କଲ୍": 5048,
      "ଭୁଲ୍": 5049,
      "ସ୍ଥଳୀ": 5050,
      "ତ୍ତମ": 5051,
      "ସଭାର": 5052,
      "ଏକାଡେ": 5053,
      "ଲାଗିଥିବା": 5054,
      "ଭୂମିକାରେ": 5055,
      "ଗାଇଡ": 5056,
      "ମୃତକ": 5057,
      "ବାଲେଶ୍ବର": 5058,
      "ସିଟ୍": 5059,
      "ପ୍ରଦ": 5060,
      "ଙ୍ଗର": 5061,
      "me": 5062,
      "ମିଲ୍": 5063,
      "୫୧": 5064,
      "ରିୟା": 5065,
      "ଙ୍କଠାରୁ": 5066,
      "ବିସ୍ତାର": 5067,
      "ପୀଡ଼ି": 5068,
      "ପ୍ରସନ୍ନ": 5069,
      "କରାଗଲା": 5070,
      "ହସ୍ତାନ୍ତର": 5071,
      "ପ୍ରଣାଳୀ": 5072,
      "ରାଜଧାନୀରେ": 5073,
      "ମତ୍ସ୍ୟ": 5074,
      "ଲାମ": 5075,
      "ଶତାଧିକ": 5076,
      "ସୁପାରି": 5077,
      "ଆମେରିକୀୟ": 5078,
      "ପାରମ୍ପରିକ": 5079,
      "ଗଣେଶ": 5080,
      "ଆପଣମାନେ": 5081,
      "ରାସ୍ତ": 5082,
      "ହାଟ": 5083,
      "ନୀଲ": 5084,
      "ପ୍ରତିଭା": 5085,
      "ଗଣତି": 5086,
      "ାଇବାରେ": 5087,
      "India": 5088,
      "କୁଆ": 5089,
      "ମୌଳିକ": 5090,
      "ସ୍ଵାସ୍ଥ୍ୟ": 5091,
      "ସଂରକ୍ଷିତ": 5092,
      "ରଚନା": 5093,
      "ଇର": 5094,
      "ସଂଗଠ": 5095,
      "ଓମିକ୍ରନ": 5096,
      "ବିପୁ": 5097,
      "ସମ୍ବନ୍ଧୀୟ": 5098,
      "ସଡ଼କ": 5099,
      "ଯୁବକଙ୍କୁ": 5100,
      "ଦର୍ଶାଇ": 5101,
      "ମହାପ୍ରଭୁଙ୍କ": 5102,
      "ଆସେ": 5103,
      "ଯିବାରୁ": 5104,
      "କ୍ସ୍": 5105,
      "ଆଇପିଏଲ": 5106,
      "ଚାଲିଥିଲା": 5107,
      "୨୦୧୫": 5108,
      "',": 5109,
      "ପାସ": 5110,
      "ପ୍ରମା": 5111,
      "ଦୟା": 5112,
      "ଯୋଗଦାନ": 5113,
      "ବିଜେତା": 5114,
      "ନିକଟକୁ": 5115,
      "ତ୍ତେ": 5116,
      "ଆମ୍ଭ": 5117,
      "ବର୍ତ୍ତମାନର": 5118,
      "ପରିପ୍ରେ": 5119,
      "ଉତ୍ସାହିତ": 5120,
      "ବିପୁଳ": 5121,
      "ବ୍ୟାଙ୍କର": 5122,
      "ନାଲ୍": 5123,
      "ଦାରି": 5124,
      "ସ୍ୱୀକାର": 5125,
      "ବ୍ୟାଟ୍": 5126,
      "ଫାର୍": 5127,
      "ଶାହା": 5128,
      "କ୍ୟୁ": 5129,
      "ଭୁତ": 5130,
      "ମିଶ୍ରଣ": 5131,
      "ଅଶ୍ୱ": 5132,
      "ଦାୟିତ୍ବ": 5133,
      "ଆଚରଣ": 5134,
      "ରହୁଛନ୍ତି": 5135,
      "କଷ୍ଟକର": 5136,
      "ଞ୍ଚଳରେ": 5137,
      "ପତା": 5138,
      "ବାଧ୍ୟତାମୂଳକ": 5139,
      "ପ୍ଲାଟ": 5140,
      "ala": 5141,
      "ଅପହରଣ": 5142,
      "ଅର୍ଜନ": 5143,
      "ବାରିପଦା": 5144,
      "ଥିରେ": 5145,
      "ପରାଜ": 5146,
      "ther": 5147,
      "ପ୍ରତିରୋଧ": 5148,
      "ବେକ୍ଷଣ": 5149,
      "ଉଜ୍": 5150,
      "ସ୍ନାନ": 5151,
      "ଶିଳ୍": 5152,
      "we": 5153,
      "ps": 5154,
      "ଗର୍ଭବ": 5155,
      "ହଲ": 5156,
      "ବର୍ଷି": 5157,
      "ହାରୁ": 5158,
      "ବିପର୍ଯ୍ୟୟ": 5159,
      "ଚାହିଦା": 5160,
      "ସାମୁ": 5161,
      "ବିଧାନସଭାରେ": 5162,
      "ମିଳିଲା": 5163,
      "ଡ୍ୟା": 5164,
      "ମିର": 5165,
      "ମାରେ": 5166,
      "August": 5167,
      "ସୃ": 5168,
      "ଅଭିବୃଦ୍ଧି": 5169,
      "ଗର୍ଭ": 5170,
      "ସହରା": 5171,
      "ence": 5172,
      "ସ୍କୁଲର": 5173,
      "ବୁଲୁ": 5174,
      "anc": 5175,
      "ଜଳସେ": 5176,
      "୭୬": 5177,
      "ଜୟନ୍ତୀ": 5178,
      "ଗ୍ରାମୀ": 5179,
      "ସ୍ଥଗି": 5180,
      "ଯେତିକି": 5181,
      "ସଞ୍ଚ": 5182,
      "ଲର୍": 5183,
      "read": 5184,
      "3.": 5185,
      "ଶ୍ରଦ୍ଧାଳୁ": 5186,
      "ସିଲି": 5187,
      "ଚକ": 5188,
      "୦୮": 5189,
      "ଜେରା": 5190,
      "ନାଲି": 5191,
      "ନିଶ୍ଚୟ": 5192,
      "ତକ": 5193,
      "କ୍ଷତିଗ୍ରସ୍ତ": 5194,
      "ପ୍ରାର୍ଥନା": 5195,
      "କଥାବାର୍ତ୍ତା": 5196,
      "ସୀମାରେ": 5197,
      "ମାଂସ": 5198,
      "ଗର୍ଭବତୀ": 5199,
      "ରାଶିର": 5200,
      "ଆଡ଼କୁ": 5201,
      "ଚ୍ଛି": 5202,
      "ଣ୍ୟ": 5203,
      "ବିଲି": 5204,
      "କାର୍ଯ୍ୟକ୍ରମକୁ": 5205,
      "ଙ୍ଗାଲୁ": 5206,
      "ହାତକୁ": 5207,
      "ପ୍ରେରଣା": 5208,
      "କ୍ରାଇମବ୍ରାଞ୍ଚ": 5209,
      "ମୁଖପାତ୍ର": 5210,
      "ମହୋ": 5211,
      "3,": 5212,
      "ବଙ୍ଗୋ": 5213,
      "ଫାଇଦା": 5214,
      "ଚୌଧୁରୀ": 5215,
      "ମନ୍ଦିରର": 5216,
      "ଅବା": 5217,
      "ଶରୀରର": 5218,
      "ବାତା": 5219,
      "ଗଙ୍ଗା": 5220,
      "ପନି": 5221,
      "ଗାଁକୁ": 5222,
      "nt": 5223,
      "All": 5224,
      "ସ୍ୱାର୍ଥ": 5225,
      "that": 5226,
      "ନିୟୁ": 5227,
      "Tag": 5228,
      "ତ୍ୟାଗ": 5229,
      "ରାଓ": 5230,
      "ଗ୍ରି": 5231,
      "ପରିପ୍ରେକ୍ଷୀରେ": 5232,
      "ଛକା": 5233,
      "ଅଙ୍ଗନ": 5234,
      "ଉର୍": 5235,
      "ନକ୍": 5236,
      "କଥାକୁ": 5237,
      "ସେମିତି": 5238,
      "ସ୍ଥାପିତ": 5239,
      "ଦମ": 5240,
      "ସୌମ୍ୟ": 5241,
      "କୋଇଲା": 5242,
      "ସାଢ଼େ": 5243,
      "ଉଲ୍ଲେଖଯୋଗ୍ୟ": 5244,
      "ଟାଟା": 5245,
      "ଷ୍କାର": 5246,
      "ରଘୁ": 5247,
      "ଫୋର୍ସ": 5248,
      "ଭଙ୍ଗା": 5249,
      "ମ୍ଭିକ": 5250,
      "ସାଧାରଣରେ": 5251,
      "ଦୀପକ": 5252,
      "କମ୍ପ୍ୟୁଟର": 5253,
      "ମୁଖେ": 5254,
      "ପକ୍ଷୀ": 5255,
      "ସିଆଲ": 5256,
      "ବିଦ୍": 5257,
      "ପ୍ରାୟତଃ": 5258,
      "ଦୀପା": 5259,
      "ବାଲ": 5260,
      "ସ୍କୋ": 5261,
      "ଉଦଘାଟନ": 5262,
      "ered": 5263,
      "ପୁରର": 5264,
      "ld": 5265,
      "ଭିଟା": 5266,
      "କରିବି": 5267,
      "ସାମରିକ": 5268,
      "ଖିଲା": 5269,
      "ଏଜେନ୍ସି": 5270,
      "ପଢ଼ା": 5271,
      "ଆଭି": 5272,
      "ବିଶେଷକରି": 5273,
      "କାର୍ଯ୍ୟରତ": 5274,
      "ଗଣତନ୍ତ୍ର": 5275,
      "ଟେକ୍ନୋଲୋଜି": 5276,
      "ଉତ୍ତରପ୍ରଦେଶ": 5277,
      "ନ୍ୱିତ": 5278,
      "ବହ": 5279,
      "ric": 5280,
      "ତାଲା": 5281,
      "ମିକା": 5282,
      "ମୁଣ୍ଡି": 5283,
      "ଲହ": 5284,
      "ବୃହତ": 5285,
      "ସୁନ୍ଦରଗଡ": 5286,
      "ପ୍ରାରମ୍ଭିକ": 5287,
      "ଜନସଂଖ୍ୟା": 5288,
      "ଲାଣ୍ଡ": 5289,
      "ଅଞ୍ଚଳକୁ": 5290,
      "ଡେନ": 5291,
      "ପଟେଲ": 5292,
      "ରୋଷେଇ": 5293,
      "ବାତାବରଣ": 5294,
      "ଂଟ": 5295,
      "ନିରୀ": 5296,
      "ଓଡ଼ିଶାକୁ": 5297,
      "ସେଲ୍": 5298,
      "ଦିଏ": 5299,
      "ସଲି": 5300,
      "ଭବାନୀ": 5301,
      "ପୋଲିସକୁ": 5302,
      "ଗମ୍ଭ": 5303,
      "ପ୍ରତିବନ୍ଧକ": 5304,
      "ଭେଦ": 5305,
      "ଅବହେଳା": 5306,
      "ାରଖ": 5307,
      "ବୟସର": 5308,
      "ବାରିକ": 5309,
      "ବାସ୍ତବରେ": 5310,
      "ମୁହାଁମୁହିଁ": 5311,
      "ପରଠାରୁ": 5312,
      "ରେଳବାଇ": 5313,
      "କାରୀଙ୍କୁ": 5314,
      "ଯାଉଥିଲେ": 5315,
      "About": 5316,
      "ସ୍କ୍ରି": 5317,
      "ଲେଟ୍": 5318,
      "ସ୍ଥଗିତ": 5319,
      "ପ୍ରକଳ୍ପର": 5320,
      "୬୩": 5321,
      "ସମାଜର": 5322,
      "On": 5323,
      "ry": 5324,
      "ଶରୀରକୁ": 5325,
      "ଚାଷୀଙ୍କୁ": 5326,
      "ଭିଜନ": 5327,
      "ବିବାଦୀୟ": 5328,
      "ପୂର୍ବେ": 5329,
      "ଊର୍ଦ୍ଧ": 5330,
      "ଲିମିଟେ": 5331,
      "ଠାବ": 5332,
      "ସୋସିଏ": 5333,
      "ଯାହାଫଳରେ": 5334,
      "କ୍ଷି": 5335,
      "ବିନିଯୋଗ": 5336,
      "ପରିବର୍ତ୍ତେ": 5337,
      "Leave": 5338,
      "ମେଡିକାଲରେ": 5339,
      "ସ୍ରେ": 5340,
      "ud": 5341,
      "ଗାଈ": 5342,
      "ଚମତ୍": 5343,
      "any": 5344,
      "କିମ୍": 5345,
      "ାନେ": 5346,
      "/12": 5347,
      "ସିଆ": 5348,
      "ଲଢ଼େଇ": 5349,
      "ଯୋଦ୍ଧା": 5350,
      "ସୂଚିତ": 5351,
      "ସିରିଜ୍": 5352,
      "ଚଢ଼": 5353,
      "/11": 5354,
      "ବୁଝ": 5355,
      "ଅଭିମୁଖେ": 5356,
      "ଚାଷୀମାନେ": 5357,
      "ରବୀ": 5358,
      "ଜର୍ମାନ": 5359,
      "ଲୋକାଲ": 5360,
      "ଜଣିଆ": 5361,
      "so": 5362,
      "୮୮": 5363,
      "ବାଇକ": 5364,
      "ଲଗାଇବା": 5365,
      "ଦିବ": 5366,
      "ଉଲ୍ଲେଖନୀୟ": 5367,
      "ମୟୁରଭଞ୍ଜ": 5368,
      "tim": 5369,
      "2,": 5370,
      "କ୍ଷମା": 5371,
      "ଶିଖି": 5372,
      "ଚଳିତବର୍ଷ": 5373,
      "ବସନ୍ତ": 5374,
      "ଦେଶିକ": 5375,
      "ରାଜ୍ୟକୁ": 5376,
      "ଅବଶ୍ୟ": 5377,
      "ଫ୍ରି": 5378,
      "ହ୍ୟ": 5379,
      "କିଣିବା": 5380,
      "୭୧": 5381,
      "୍ବ": 5382,
      "21": 5383,
      "ମାନୁ": 5384,
      "କଠୋର": 5385,
      "ସାଗରରେ": 5386,
      "ରଥଯାତ୍ରା": 5387,
      "ମୁଖ୍ୟତଃ": 5388,
      "ଆଦୌ": 5389,
      "ଟ୍ବି": 5390,
      "ଖେଳୁ": 5391,
      "ଲଢ଼ି": 5392,
      "ବାନାର୍ଜୀ": 5393,
      "ବର୍ତ୍ତି": 5394,
      "ଭାରି": 5395,
      "ବିପି": 5396,
      "port": 5397,
      "କ୍ରୁ": 5398,
      "ଚର୍ଯ୍ୟା": 5399,
      "ହେଉଥିଲେ": 5400,
      "ସମାରୋହ": 5401,
      "ସମ୍ବଳ": 5402,
      "ମାନେେ": 5403,
      "ବିଭାଗକୁ": 5404,
      "ରାତ୍ରି": 5405,
      "ସ୍ଥିତିକୁ": 5406,
      "୭୩": 5407,
      "କ୍ଷତିପୂରଣ": 5408,
      "କେତେବେଳେ": 5409,
      "ପୋଷଣ": 5410,
      "ଜୀବନକୁ": 5411,
      "ବରୁ": 5412,
      "ହୀରା": 5413,
      "ଗଣମାଧ୍ୟମରେ": 5414,
      "ମଧ୍ୟାହ୍ନ": 5415,
      "Twitter": 5416,
      "ବାଜ": 5417,
      "ଭାବୁ": 5418,
      "pub": 5419,
      "ଚିକିତ୍ସାଧୀନ": 5420,
      "ଗମ୍ଭୀର": 5421,
      "ପ୍ରମାଣିତ": 5422,
      "ଦୋଷୀ": 5423,
      "ଭଙ୍ଗ": 5424,
      "ମନୁ": 5425,
      "Jan": 5426,
      "ସମ୍ପଦ": 5427,
      "ଉଦ୍ଧ": 5428,
      "ରହୁଛି": 5429,
      "ଷ୍ଟାଇ": 5430,
      "ମାରା": 5431,
      "ଚ୍ୟାଲେଞ୍ଜ": 5432,
      "ସିର": 5433,
      "କ୍ସନ": 5434,
      "ମୁକୁ": 5435,
      "କୂଳରେ": 5436,
      "ଟ୍ରକ": 5437,
      "ପ୍ରାଚୀନ": 5438,
      "ସ୍ର": 5439,
      "ଟ୍ୱିଟର": 5440,
      "ସୈନ୍ୟ": 5441,
      "କଣ୍ଟା": 5442,
      "ପରିବେ": 5443,
      "ସିସିଟିଭି": 5444,
      "ନନ୍": 5445,
      "ଉଚ୍ଛେଦ": 5446,
      "ଶାନ": 5447,
      "ଆସୋସିଏ": 5448,
      "ଆକାର": 5449,
      "ଦିନଟି": 5450,
      "ଲୋକଙ୍କର": 5451,
      "ବେଙ୍ଗାଲୁ": 5452,
      "ସାହୁଙ୍କ": 5453,
      "ଦଶମ": 5454,
      "ତେଜ": 5455,
      "ୀତି": 5456,
      "ନାମାଙ୍କନ": 5457,
      "ଲୋର": 5458,
      "ଶ୍ରୀମତୀ": 5459,
      "ବାଗ": 5460,
      "ସନ୍ତୁଷ୍ଟ": 5461,
      "ସମ୍ପର୍କିତ": 5462,
      "ନାକୁ": 5463,
      "ବକ୍ତ": 5464,
      "ଉପୁଜି": 5465,
      "ଚିନ୍ତାରେ": 5466,
      "ଜିଲ୍ଲାକୁ": 5467,
      "ଦ୍ଧିତ": 5468,
      "ଞ୍ଜର": 5469,
      "ବଞ୍ଚିତ": 5470,
      "sh": 5471,
      "ଟ୍ରକ୍": 5472,
      "ଉତ୍ସାହ": 5473,
      "ସିଲ୍": 5474,
      "ରହୁଥିଲେ": 5475,
      "not": 5476,
      "ଆମେରିକାରେ": 5477,
      "ଅଧା": 5478,
      "ବାଡି": 5479,
      "ପଞ୍ଚମ": 5480,
      "ଆଦେଶ": 5481,
      "ଏଆଇ": 5482,
      "ବ୍ୟାଟ୍ସମ": 5483,
      "୭୪": 5484,
      "ଲୁଟ୍": 5485,
      "ଭୋଇ": 5486,
      "ଡ଼ାରେ": 5487,
      "ଆକର୍ଷଣୀୟ": 5488,
      "ଦେଖାଦେଇଛି": 5489,
      "ଶିଳ୍ପୀ": 5490,
      "uly": 5491,
      "କରିପାରୁ": 5492,
      "ବିଡିଓ": 5493,
      "ଡାକ୍ତରୀ": 5494,
      "ପ୍ରତିଯୋଗି": 5495,
      "ଧୋଇ": 5496,
      "Whats": 5497,
      "ଇଂରାଜୀ": 5498,
      "ରହିଲେ": 5499,
      "ଯୋଜକ": 5500,
      "ଅଭାବନୀୟ": 5501,
      "ଡ୍ରଗ୍ସ": 5502,
      "ତୁଳ": 5503,
      "ପୋର୍ଟା": 5504,
      "ଦୀପ୍ତ": 5505,
      "ପରିଚାଳିତ": 5506,
      "iz": 5507,
      "/10": 5508,
      "ଣିକି": 5509,
      "ight": 5510,
      "ଗୁଣା": 5511,
      "ାୟାର": 5512,
      "ଚେର": 5513,
      "କରାଇଥିଲେ": 5514,
      "ହରାଇଛନ୍ତି": 5515,
      "ରୟା": 5516,
      "ପ୍ରତିଷ୍ଠାନ": 5517,
      "ଠାକାର": 5518,
      "ସମବାୟ": 5519,
      "ମଣ୍ଡପ": 5520,
      "କଳିଙ୍ଗ": 5521,
      "ଅର୍ଦ୍ଧ": 5522,
      "ଫ୍ଲା": 5523,
      "ପହଁଚି": 5524,
      "ନେତାମାନେ": 5525,
      "ସଫଳତାର": 5526,
      "ହଟାଇ": 5527,
      "ରୋକ": 5528,
      "ଜରିମାନା": 5529,
      "ବଶ୍ୟକ": 5530,
      ")।": 5531,
      "ୱିକେଟ": 5532,
      "୦୯": 5533,
      "ଆସୁଥିଲେ": 5534,
      "ଉଲ୍ଲଂଘନ": 5535,
      "ଦେଖାଯାଏ": 5536,
      "ଅଭିଭାବକ": 5537,
      "ପୃଥ": 5538,
      "ଚମତ୍କାର": 5539,
      "ତାରକା": 5540,
      "ସଂଗ୍ରାମ": 5541,
      "ରୋଗର": 5542,
      "ଡୋଜ": 5543,
      "ଶାଖା": 5544,
      "ନିଆଯାଇଥିଲା": 5545,
      "ବିଧାୟକଙ୍କ": 5546,
      "ଲଢେଇ": 5547,
      "ମହାକାଶ": 5548,
      "mar": 5549,
      "ସଦସ୍ୟଙ୍କ": 5550,
      "ଟିକେଟ": 5551,
      "/04": 5552,
      "ଦ୍ୱନ୍ଦ୍ୱ": 5553,
      "ପାଉଛି": 5554,
      "ଉଦ୍ୟୋଗ": 5555,
      "ମେହ": 5556,
      "ନିର୍ଯା": 5557,
      "କଲେଜରେ": 5558,
      "ମିନ୍": 5559,
      "ଦାବିରେ": 5560,
      "ଷ୍ଟେଟ": 5561,
      "ସେବାୟତ": 5562,
      "ପଦ୍ଧତି": 5563,
      "ଫେସବୁ": 5564,
      "ବିତି": 5565,
      "ହଟ": 5566,
      "ବୋଧନ": 5567,
      "ସ୍ମିତା": 5568,
      "କାବୁ": 5569,
      "ଫ୍ୟୁ": 5570,
      "/08": 5571,
      "କନ୍": 5572,
      "ବିନିମୟ": 5573,
      "ଉଦ୍ୟାନ": 5574,
      "ହିକ": 5575,
      "ସମ୍ବିଧାନ": 5576,
      "ଅଗ୍ନିକାଣ୍ଡ": 5577,
      "ଖିଆ": 5578,
      "ପିଆଜ": 5579,
      "ଜାଗାରେ": 5580,
      "ଅନନ୍ତ": 5581,
      "ପ୍ରବାହ": 5582,
      "Us": 5583,
      "କଂପାନ": 5584,
      "ପ୍ରାର୍ଥୀଙ୍କ": 5585,
      "ଲାଗିବ": 5586,
      "ଆଇପିଏଲ୍": 5587,
      "ସମାପ୍ତ": 5588,
      "ଧିକାର": 5589,
      "ୟାରୀ": 5590,
      "ଅଧ୍ୟକ୍ଷା": 5591,
      "ନକରି": 5592,
      "ରାଜ୍ୟସଭା": 5593,
      "ବନ୍ଧୁଗଣ": 5594,
      "ପ୍ଲାଷ୍ଟି": 5595,
      "ବଦଳାଇ": 5596,
      "ଉପହାର": 5597,
      "ଏହାରି": 5598,
      "May": 5599,
      "ମିଥୁନ": 5600,
      "କରିଥିବାରୁ": 5601,
      "ମେଷ": 5602,
      "ଲାଗିଥିଲା": 5603,
      "ଦାମ୍": 5604,
      "୩୦୦": 5605,
      "July": 5606,
      "ସେନ": 5607,
      "ମିନିଟ": 5608,
      "ଶୁଣ": 5609,
      "ଲୁଟେରା": 5610,
      "4.": 5611,
      "ଏବ": 5612,
      "ବୈଦେଶିକ": 5613,
      "୬୧": 5614,
      "ଜଣାପଡ଼ି": 5615,
      "କ୍ଷୟକ୍ଷତି": 5616,
      "Pol": 5617,
      "ଆକ୍ରମଣରେ": 5618,
      "ବାଲା": 5619,
      "କେଜ": 5620,
      "ଥାନ୍ତା": 5621,
      "ସ୍ମରଣ": 5622,
      "ଜଳସେଚନ": 5623,
      "ଅନୁଦାନ": 5624,
      "/07": 5625,
      "WhatsApp": 5626,
      "ପତ୍ତା": 5627,
      "ବାହାଘର": 5628,
      "ପ୍ରଶାସନର": 5629,
      "/04/2021": 5630,
      "ରାଗ": 5631,
      "ନ୍ୟୁଜିଲାଣ୍ଡ": 5632,
      "୦୩": 5633,
      "ମାରୁ": 5634,
      "ପରୀକ୍ଷାରେ": 5635,
      "/11/2021": 5636,
      "ପଳାଇ": 5637,
      "ଏଠି": 5638,
      "ଏଟିଏ": 5639,
      "ପୁର୍": 5640,
      "କିଟ୍": 5641,
      "ଟ୍ରିକ": 5642,
      "ଅଜ": 5643,
      "ଓମିକ୍ରନ୍": 5644,
      "ମୁର୍ମୁ": 5645,
      "ସୋର": 5646,
      ".)-": 5647,
      "ହୁଏତ": 5648,
      "ଅଭିନନ୍ଦନ": 5649,
      "ଏଣିକି": 5650,
      "/06": 5651,
      "ଓଡିଶାରେ": 5652,
      "ସାବଧାନ": 5653,
      "କିଣା": 5654,
      "ମାଷ୍ଟର": 5655,
      "ଆଇନଜୀବୀ": 5656,
      "ସିଡି": 5657,
      "was": 5658,
      "ଭୀତ": 5659,
      "ପଞ୍ଜୀ": 5660,
      "କାରଖାନା": 5661,
      "ସ୍ୱର": 5662,
      "ସାମ୍ନାରେ": 5663,
      "ଯାଇପାରେ": 5664,
      "ଗୋଲା": 5665,
      "ଜନଜାତି": 5666,
      "ଜୀବନଚର୍ଯ୍ୟା": 5667,
      "କେନ୍ଦ୍ରକୁ": 5668,
      "ଚିନ୍ତ": 5669,
      "ରୋପଣ": 5670,
      "ହେଲାଣି": 5671,
      "ନାଙ୍କ": 5672,
      "Pri": 5673,
      "ଚ୍ୟାନେ": 5674,
      "its": 5675,
      "ଲିକ୍": 5676,
      "ପ୍ରଶ୍ନର": 5677,
      "ଆଶ୍ରୟ": 5678,
      "ଅପରେସନ": 5679,
      "ଶସ୍ତ୍ର": 5680,
      "ବନ୍ଦୀ": 5681,
      "ଅନଲାଇନ": 5682,
      "ମୀନ": 5683,
      "ଅମର": 5684,
      "ପଞ୍ଚାୟତରେ": 5685,
      "ଫେରିଛନ୍ତି": 5686,
      "ଉପକୃତ": 5687,
      "/10/2021": 5688,
      "ବାମ": 5689,
      "ସ୍ନେ": 5690,
      "ଗାନ": 5691,
      "ଲାଗୁଛି": 5692,
      "ଚାରା": 5693,
      "ଜନ୍ତୁ": 5694,
      "/12/2021": 5695,
      "ବଙ୍ଗୋପ": 5696,
      "ପ୍ଟର": 5697,
      "ଉଠୁ": 5698,
      "ପଂଚାୟ": 5699,
      "ର୍ବାଦ": 5700,
      "ମଠ": 5701,
      "--------": 5702,
      "/09": 5703,
      "ଲୁଣ": 5704,
      "ଉଦ୍ଘାଟନ": 5705,
      "ଅବଦାନ": 5706,
      "ମୋଟର": 5707,
      "୮୯": 5708,
      "ଡାରେ": 5709,
      "ରଖିବେ": 5710,
      "comment": 5711,
      "କାର୍ତ୍ତିକ": 5712,
      "let": 5713,
      "/07/2021": 5714,
      "ହିନ୍ଦୀ": 5715,
      "ବିଛା": 5716,
      "ଳାସ": 5717,
      "ଉପସ୍ଥିତିରେ": 5718,
      "ଯାହାଦ୍ୱାରା": 5719,
      "ୟିତ୍ରୀ": 5720,
      "କ୍ୱା": 5721,
      "lished": 5722,
      "ଆଣିବାକୁ": 5723,
      "ଲାଭଦାୟକ": 5724,
      "ସୌନ୍ଦ": 5725,
      "ବାହୁ": 5726,
      "ଶକ୍ତ": 5727,
      "ସାରିଲେଣି": 5728,
      "ଚିନ୍ତି": 5729,
      "ରିଲିଜ୍": 5730,
      "ବିଆଇ": 5731,
      "ଜିଂ": 5732,
      "୧୫୦": 5733,
      "ଅଶ୍": 5734,
      "ସୁବିଧାର": 5735,
      "has": 5736,
      "ପ୍ରଗତି": 5737,
      "ଶ୍ରଦ୍ଧାଞ୍ଜଳି": 5738,
      "IS": 5739,
      "ନ୍ଧନ": 5740,
      "ମାସିକ": 5741,
      "ଡଃ": 5742,
      "କ୍ୱାରେ": 5743,
      "ଶିକ୍ଷୟିତ୍ରୀ": 5744,
      "ପେକ୍ଷ": 5745,
      "ଥାନ": 5746,
      "ear": 5747,
      "line": 5748,
      "ଉପାଦାନ": 5749,
      "ନ୍ୟାସନାଲ": 5750,
      "/06/2021": 5751,
      "ସକାଶେ": 5752,
      "ଫିଆ": 5753,
      "ସାଇବର": 5754,
      "ପେନ": 5755,
      "ଭୟଭୀତ": 5756,
      "ଲୁକା": 5757,
      "୦୨": 5758,
      "ଗୌରବ": 5759,
      "ious": 5760,
      "htt": 5761,
      "ରୁମ୍": 5762,
      "ବନ୍ଧୁଙ୍କ": 5763,
      "ଯାଆନ୍ତି": 5764,
      "ଶ୍ୟା": 5765,
      "ପଦରୁ": 5766,
      "ନ୍ତେ": 5767,
      "ଟାଉନ": 5768,
      "ବିବେଚନା": 5769,
      "ଅଜଣା": 5770,
      "ଉପଭୋ": 5771,
      "edia": 5772,
      "ପାର୍କ": 5773,
      "ଚୌକା": 5774,
      "ଟ୍ରାନ୍ସ": 5775,
      "ସାଇକେଲ": 5776,
      "ବଂଶ": 5777,
      "ପତାକା": 5778,
      "ାନନ୍ଦ": 5779,
      "ଅଧ୍ୟାପକ": 5780,
      "ମୁହଁରେ": 5781,
      "/09/2021": 5782,
      "ପାଇବାରେ": 5783,
      "କାର୍ଯ୍ୟକ୍ରମର": 5784,
      "ମେଡ଼ି": 5785,
      "ଷ୍ଟିଂ": 5786,
      "50": 5787,
      "ରତ୍ନ": 5788,
      "ୟମରେ": 5789,
      "ଵି": 5790,
      "ବେଙ୍ଗାଲୁରୁ": 5791,
      "କଏ": 5792,
      "ଚୋର": 5793,
      "ଅଦାଲତ": 5794,
      "ସମସ୍ୟାକୁ": 5795,
      "କ୍ୟାପଟେ": 5796,
      "ଆବାସ": 5797,
      "କୁନି": 5798,
      "ଦୟ": 5799,
      "ଆମ୍": 5800,
      "ଗୁଲ": 5801,
      "ଆଭିମୁଖ୍ୟ": 5802,
      "ନାଟକ": 5803,
      "କୃଷ୍ଟ": 5804,
      "ପିସିସି": 5805,
      "ଭିଡ": 5806,
      "Th": 5807,
      "icle": 5808,
      "କ୍ରିକେଟର": 5809,
      "ଢଙ୍ଗରେ": 5810,
      "ଭାଗି": 5811,
      "ପଞ୍ଜି": 5812,
      "ପ୍ରଦୀପ୍ତ": 5813,
      "ଦ୍ୱୀପ": 5814,
      "ସାହାଯ୍ୟରେ": 5815,
      "ଷ୍ଟିଚ୍ୟୁ": 5816,
      "ଫୁଲବାଣୀ": 5817,
      "ମୁହୂ": 5818,
      "/08/2021": 5819,
      "ବୃଷ": 5820,
      "://": 5821,
      "gr": 5822,
      "ଭ୍ୟନ୍ତ": 5823,
      "ମଝିରେ": 5824,
      "ହାଣ": 5825,
      "ଷ୍ଟୁ": 5826,
      "ଲାଇନରେ": 5827,
      "ୟୁନିଟ୍": 5828,
      "ସାଙ୍ଗରେ": 5829,
      "ସର୍ଭି": 5830,
      "ସଂକ୍ରାନ୍ତରେ": 5831,
      "will": 5832,
      "ବେଶି": 5833,
      "ରଂଜନ": 5834,
      "ପାହାଡ଼": 5835,
      "ଫେବ୍ରୁ": 5836,
      "ନମ": 5837,
      "ସଫ୍ଟ": 5838,
      "end": 5839,
      "ବିସ୍ତୃତ": 5840,
      "ଅତ୍ୟାଧୁନିକ": 5841,
      "ଥୁ": 5842,
      "ଆଶୀ": 5843,
      "ଜେନେରାଲ": 5844,
      "ପିଲାମାନଙ୍କୁ": 5845,
      "ସହିଦ": 5846,
      "ଟିପି": 5847,
      "କିଓ": 5848,
      "ବନ୍ଧନ": 5849,
      "ନୟାଗଡ": 5850,
      "ଆରମ୍ଭରୁ": 5851,
      "ରୋଗୀଙ୍କୁ": 5852,
      "ଲୋଚନ": 5853,
      "ମୁଖୀ": 5854,
      "ସିରିଜ": 5855,
      "ମହଲରେ": 5856,
      "ଭୁବନେଶ୍ୱରର": 5857,
      "ଝିଅକୁ": 5858,
      "hour": 5859,
      "ବକ୍ତା": 5860,
      "ef": 5861,
      "ମମିତା": 5862,
      "ପରଲୋକ": 5863,
      "ପୁଲିସକୁ": 5864,
      "ଉଦୟ": 5865,
      "ପାୱାର": 5866,
      "ସୁରେନ୍ଦ୍ର": 5867,
      "୦୭": 5868,
      "୦୫": 5869,
      "ୁଛନ୍ତି": 5870,
      "ଜାମ": 5871,
      "ଅଘଟଣ": 5872,
      "ଗୁଣ୍ଡ": 5873,
      "ଉପସଭାପତି": 5874,
      "ଦମ୍ପତି": 5875,
      "ଣ୍ଟିଆ": 5876,
      "ସ୍କୁଲ୍": 5877,
      "ତୁଳା": 5878,
      "କଲୋ": 5879,
      "ଗୁଜରାଟ": 5880,
      "ନ୍ଦ୍ରା": 5881,
      "ଫାଇନାଲ": 5882,
      "ସପକ୍ଷରେ": 5883,
      "ସେଲି": 5884,
      "ମେରି": 5885,
      "ଚଢ଼ଉ": 5886,
      "ମିଛ": 5887,
      "କରାଯାଉଥିଲା": 5888,
      "ଭାରିଆ": 5889,
      "Sept": 5890,
      "4,": 5891,
      "ଅବରୋଧ": 5892,
      "ଣାସ୍ତ୍ର": 5893,
      "ପୁରାତନ": 5894,
      "ସୌନ୍ଦର୍ଯ୍ୟ": 5895,
      "ସିଷ୍ଟମ": 5896,
      "ବର୍ଦ୍ଧିତ": 5897,
      "ଜଳି": 5898,
      "ଂଶୁ": 5899,
      "ହୋଇପାରୁ": 5900,
      "ପଲ୍ଲୀ": 5901,
      "ଦ୍ୱା": 5902,
      "ସମ୍ବେଦନ": 5903,
      "ଗୁରୁତ୍ବପୂର୍ଣ୍ଣ": 5904,
      "ସେନ୍ସ": 5905,
      "ବିଜେଡ଼ି": 5906,
      "କ୍ସ୍ଟ": 5907,
      "/05": 5908,
      "ଦାନୀ": 5909,
      "June": 5910,
      "ଜାଗା": 5911,
      "ଜ୍ୟା": 5912,
      "ଚିହ୍": 5913,
      "ମିଶ୍ରଙ୍କ": 5914,
      "ଲିପି": 5915,
      "ଆଖପାଖ": 5916,
      "ଋଷି": 5917,
      "ପଡ଼ିଥିଲେ": 5918,
      "ନାରେ": 5919,
      "ଡ଼ାରୁ": 5920,
      "ଆଣିଥିଲେ": 5921,
      "ପ୍ରତିଯୋଗିତାରେ": 5922,
      "ସାଧୁ": 5923,
      "Edit": 5924,
      "ଅବଲମ୍ବନ": 5925,
      "ସମାଜରେ": 5926,
      "ବ୍ୟବସାୟିକ": 5927,
      "ମୋର୍ଚ୍ଚା": 5928,
      "ire": 5929,
      "ମହାରଣା": 5930,
      "ଅମୃତ": 5931,
      "୯୪": 5932,
      "ପବ୍": 5933,
      "ical": 5934,
      "ଯୁବତୀଙ୍କ": 5935,
      "ସେବକ": 5936,
      "୯୫": 5937,
      "ବରଗଡ": 5938,
      "ଶୁଣିବାକୁ": 5939,
      "ଫ୍ରାନ୍ସ": 5940,
      "ପରିସ୍ଥିତିକୁ": 5941,
      "ମାତ୍ରେ": 5942,
      "ଭାଇରସ": 5943,
      "ହାନି": 5944,
      "ଦେଖିଥିଲେ": 5945,
      "ହେଲ୍": 5946,
      "ଗ୍ରାହକଙ୍କ": 5947,
      "ମୂଲ୍ୟା": 5948,
      "ମେଲ": 5949,
      "ov": 5950,
      "କରୋନାରୁ": 5951,
      "ମାସ୍": 5952,
      "ଗୁପ୍ତ": 5953,
      "ପୁନର୍ବାର": 5954,
      "ଭାସ୍କର": 5955,
      "September": 5956,
      "ସୁଫଳ": 5957,
      "ବଢ଼ିବାରେ": 5958,
      "ରୁଷି": 5959,
      "କାଉନ": 5960,
      "/03": 5961,
      "ener": 5962,
      "ପତ୍ରରେ": 5963,
      "ଆସିବାକୁ": 5964,
      "ଷଷ୍ଠ": 5965,
      "ଉନ୍ମୋ": 5966,
      "ଅର୍ଥମନ୍ତ୍ରୀ": 5967,
      "ଗ୍ରୀଷ୍ମ": 5968,
      "ଟ୍ରିକ୍": 5969,
      "ଟାଣି": 5970,
      "ଅଂଚଳର": 5971,
      "ian": 5972,
      "ସୁଟିଂ": 5973,
      "ଦିଆଯାଏ": 5974,
      "ଯୋଗ୍ୟତା": 5975,
      "ଦେହା": 5976,
      "ମାଧ": 5977,
      "ବସିଥିବା": 5978,
      "ବିଶ୍ଳେ": 5979,
      "ହିସା": 5980,
      "ସ୍କା": 5981,
      "ହୁଅନ୍ତୁ": 5982,
      "ମତେ": 5983,
      "କର୍ଣ୍ଣାଟକ": 5984,
      "ନେଉଛନ୍ତି": 5985,
      "iew": 5986,
      "ବିକ୍ରମ": 5987,
      "ନଦୀରେ": 5988,
      "ରୋମା": 5989,
      "ଗ୍ରହା": 5990,
      "ght": 5991,
      "ତେଲେ": 5992,
      "ଆଡକୁ": 5993,
      "/05/2021": 5994,
      "ଆଶୀର୍ବାଦ": 5995,
      "ଭବିଷ୍ୟତରେ": 5996,
      "ଲକ୍ଷ୍ନୌ": 5997,
      "ଖୋର୍ଦ୍ଧ": 5998,
      "ଛାତ୍ରଛାତ୍ରୀଙ୍କୁ": 5999,
      "ବସ୍ତ୍ର": 6000,
      "ଶିଖର": 6001,
      "ହିର": 6002,
      "ଏହିଭଳି": 6003,
      "ସମ୍ବନ୍ଧରେ": 6004,
      "ଳୟର": 6005,
      "ବଜେଟ୍": 6006,
      "ଫାଇନାଲରେ": 6007,
      "୦୪": 6008,
      "Cont": 6009,
      "ଷୁ": 6010,
      "ଗୁଡ଼ା": 6011,
      "ath": 6012,
      "ଅସ୍": 6013,
      "ପାର୍ଥ": 6014,
      "................": 6015,
      "ସହକାରୀ": 6016,
      "ଜୋନ": 6017,
      "ଓ୍ବି": 6018,
      "କରିଥିବାବେଳେ": 6019,
      "ରାଧା": 6020,
      "ମୃତ୍ୟୁବରଣ": 6021,
      "ମେଗା": 6022,
      "ପଛୁଆ": 6023,
      "ପୌରା": 6024,
      "ଜୋନ୍": 6025,
      "ସରୋଜ": 6026,
      "ଗଂ": 6027,
      "ତୁଳସୀ": 6028,
      "ଇଟା": 6029,
      "ପୁରୀରେ": 6030,
      "କରନ୍ତୁଃ": 6031,
      "ଉପରୁ": 6032,
      "ଜ୍ଜା": 6033,
      "କୋଠ": 6034,
      "ଇଣ୍ଡିଆର": 6035,
      "ଆଭ୍ୟନ୍ତ": 6036,
      "time": 6037,
      "କକ୍ଷ": 6038,
      "ବୋହୂ": 6039,
      "ତ୍ମା": 6040,
      "ଜୀବିକା": 6041,
      "ଅରବି": 6042,
      "ଭାଜପା": 6043,
      "ରାସ୍ତାର": 6044,
      "ଡାର": 6045,
      "ବକ୍ତବ୍ୟ": 6046,
      "ଖାତା": 6047,
      "ଛକରେ": 6048,
      "ଡିଆର": 6049,
      "କରାଯାଇପାରେ": 6050,
      "ହିଣୀ": 6051,
      "ଶ୍ରୀଜଗନ୍ନାଥ": 6052,
      "ବନ୍ତ": 6053,
      "ase": 6054,
      "ଲଞ୍ଚ": 6055,
      "ମୂଲ୍ୟରେ": 6056,
      "ପାଇଲ": 6057,
      "ସଫେ": 6058,
      "ଅଁ": 6059,
      "ଗଣଶିକ୍ଷା": 6060,
      "/03/2021": 6061,
      "ଯୌନ": 6062,
      "ରୀରେ": 6063,
      "କେତ": 6064,
      "କର୍ମକ୍ଷେତ୍ରରେ": 6065,
      "ପୂର୍ବକ": 6066,
      "ସୋନିଆ": 6067,
      "Latest": 6068,
      "ସଂଧ୍ୟା": 6069,
      "ଚିଲି": 6070,
      "ପିଜି": 6071,
      "କହୁଛି": 6072,
      "ଅଖି": 6073,
      "ର୍ଲା": 6074,
      "ବ୍ୟବସ୍ଥାରେ": 6075,
      "ବ୍ରାହ୍ମ": 6076,
      "ପନିପରିବା": 6077,
      "ମଣ୍ଡି": 6078,
      "ମୋଦୀଙ୍କ": 6079,
      "ନ୍ତରିତ": 6080,
      "ହରିୟା": 6081,
      "ଟ୍ରଫି": 6082,
      "ବିଦ୍ୟାର୍ଥୀ": 6083,
      "ଧରିବା": 6084,
      "ହେଲିକ": 6085,
      "ଆଣିଛନ୍ତି": 6086,
      "ଥାନାକୁ": 6087,
      "alth": 6088,
      "ବଢ଼ିବ": 6089,
      "ପ୍ରୋତ୍ସାହିତ": 6090,
      "ରିମା": 6091,
      "ପୁଲିସର": 6092,
      "Eng": 6093,
      "ଲାଇଟ୍": 6094,
      "ସୁଧା": 6095,
      "ପ୍ରଭାବଶାଳୀ": 6096,
      "ନଗଦ": 6097,
      "ଶୂନ୍ୟ": 6098,
      "ସଂସ୍କରଣ": 6099,
      "କ୍ରୀଡା": 6100,
      "ଡ୍ୟୁ": 6101,
      "ରଶ୍": 6102,
      "ଶୁଭର": 6103,
      "ରବୀନ୍ଦ୍ର": 6104,
      "ଯାକ": 6105,
      "ନକ୍ସଲ": 6106,
      "ଭୟରେ": 6107,
      "୦୬": 6108,
      "କଣ୍ଟେ": 6109,
      "ପଣ୍ଡିତ": 6110,
      "ଖୁବଶୀଘ୍ର": 6111,
      "ଦିନରୁ": 6112,
      "ରେଜି": 6113,
      "କରିବୁ": 6114,
      "ସଂଗଠନର": 6115,
      "ସ୍ବାଧୀନ": 6116,
      "ବଢାଇ": 6117,
      "୮୪": 6118,
      "ସେକେ": 6119,
      "ସିଜି": 6120,
      "ରିଜର୍": 6121,
      "ସମୃଦ୍ଧ": 6122,
      "ଚାମ": 6123,
      "ଅଫିସରେ": 6124,
      "ଭାଇରାଲ୍": 6125,
      "ଉତ୍ତରାଖଣ୍ଡ": 6126,
      "ବେଗରେ": 6127,
      "ସ୍ୱର୍ଣ୍ଣ": 6128,
      "ସଙ୍କେତ": 6129,
      "ଦେଇପାରେ": 6130,
      "ାନକ": 6131,
      "ଅରବିନ୍ଦ": 6132,
      "ସେତୁ": 6133,
      "ସରଣ": 6134,
      "ଘେରି": 6135,
      "ଶ୍ରେଣୀର": 6136,
      "ଉଠିଛି": 6137,
      "ମସ୍ତି": 6138,
      "ରେଞ୍ଜ": 6139,
      "ତଦାରଖ": 6140,
      "ଅନୁଗୋଳ": 6141,
      "ନିୟୁତ": 6142,
      "Sp": 6143,
      "ଗୋଟା": 6144,
      "inter": 6145,
      "ମିଥ୍ୟା": 6146,
      "ଟିଲା": 6147,
      "ପଢା": 6148,
      "ରାଲି": 6149,
      "ବାଳ": 6150,
      "updated": 6151,
      "ଳାର": 6152,
      "ସନା": 6153,
      "ଚେହେରା": 6154,
      "ମନ୍": 6155,
      "ଭ୍ରା": 6156,
      "ସମ୍ବେଦନଶୀଳ": 6157,
      "ଚିନ୍ତିତ": 6158,
      "ପଡିଥିବା": 6159,
      "ପଟୁ": 6160,
      "ବଲିଉଡ୍": 6161,
      "ଶୁଭରଙ୍ଗ": 6162,
      "ଦିଆଯିବା": 6163,
      "ଡାକ": 6164,
      "ହିସାବରେ": 6165,
      "କହନ୍ତି": 6166,
      "ମାଗଣାରେ": 6167,
      "ଜାହାଜ": 6168,
      "ଘାଟି": 6169,
      "ସପ୍ତମ": 6170,
      "ଖେଳାଯିବ": 6171,
      "ଏକଥା": 6172,
      "ଜଣାଇବା": 6173,
      "ୟୁରୋପ": 6174,
      "Apr": 6175,
      "କାଳିଆ": 6176,
      "ସରା": 6177,
      "ଦୁବାଇ": 6178,
      "ଅପରାହ୍ନରେ": 6179,
      "ଶୋଷ": 6180,
      "ଶୌ": 6181,
      "ଦେହାନ୍ତ": 6182,
      "ଅଚ": 6183,
      "Rel": 6184,
      "ପାଇବାକୁ": 6185,
      "ଆଭ୍ୟନ୍ତରୀଣ": 6186,
      "ତୃଣ": 6187,
      "ରପ୍ତ": 6188,
      "ଲୁଚି": 6189,
      "ହସ୍ତକ୍ଷେପ": 6190,
      "war": 6191,
      "ଣିଆ": 6192,
      "ପରାଜୟ": 6193,
      "ଖାରଜ": 6194,
      "ମେସିନ": 6195,
      "ଧେ": 6196,
      "ନିରାଶ": 6197,
      "ଅସୁବିଧାର": 6198,
      "କର୍ମରେ": 6199,
      "ବିଷୟବସ୍ତୁ": 6200,
      "ଟକା": 6201,
      "ଲେଖକ": 6202,
      "ମେସେ": 6203,
      "ଜାଣନ୍ତି": 6204,
      "ଚୂଡ଼ା": 6205,
      "ଜେଲରେ": 6206,
      "ନିକା": 6207,
      "ଛାତ୍ରଛାତ୍ରୀମାନେ": 6208,
      "ମହାରାଷ୍ଟ୍ରରେ": 6209,
      "ଗ୍ରାମ୍ୟ": 6210,
      "ପ୍ରତ୍ୟକ୍ଷ": 6211,
      "ପ୍ରକୃତରେ": 6212,
      "ନିରନ୍ତ": 6213,
      "ବୃହ": 6214,
      "ପାର୍ଟ": 6215,
      "ମୋଟା": 6216,
      "ଦଖଲ": 6217,
      "ହୋଇଗଲେ": 6218,
      "add": 6219,
      "ହେକ୍ଟର": 6220,
      "ଝାରସୁଗୁଡା": 6221,
      "ନିରନ୍ତର": 6222,
      "ଧୋନି": 6223,
      "ପରିଷଦର": 6224,
      "କଟକରେ": 6225,
      "ନିନ୍ଦା": 6226,
      "ଆନ୍ଦୋଳ": 6227,
      "ମନୋନୀତ": 6228,
      "ସଂଗ୍ରହା": 6229,
      "5.": 6230,
      "ଚିନ୍ତାଧାରା": 6231,
      "ବିଏମସି": 6232,
      "ମଡେଲ": 6233,
      "ସିଦ୍ଧୁ": 6234,
      "ନ୍ୟାୟା": 6235,
      "ମାଫିଆ": 6236,
      "ସୀମାନ୍ତ": 6237,
      "ସେଭଳି": 6238,
      "ଭିତ୍ତିକ": 6239,
      "ନୀର": 6240,
      "ଦର୍ଶି": 6241,
      "data": 6242,
      "ବିବିଧ": 6243,
      "ମହୋତ୍": 6244,
      "ପତ": 6245,
      "ବୁଝିବା": 6246,
      "ଦ୍ରିକ": 6247,
      "ଐତି": 6248,
      "ବଜ୍ର": 6249,
      "ସୂଚନାନୁ": 6250,
      "କରିଦେଇଥିଲେ": 6251,
      "ତେଲେଙ୍ଗ": 6252,
      "ମୃତ୍ୟୁର": 6253,
      "ଅଳଙ୍କ": 6254,
      "ସ୍ୱେ": 6255,
      "ild": 6256,
      "ନିର୍ଯାତନା": 6257,
      "ଦିବ୍ୟା": 6258,
      "କାନା": 6259,
      "ପୈ": 6260,
      "ବନ୍": 6261,
      "ଠିକଣା": 6262,
      "ଳିବା": 6263,
      "ଚର୍ଚ୍ଚିତ": 6264,
      "work": 6265,
      "ସବ୍": 6266,
      "ଢ଼ୀ": 6267,
      "ସ୍ପେଶାଲ": 6268,
      "ଟୋକିଓ": 6269,
      "୨୦୧୩": 6270,
      "ପ୍ରଫୁ": 6271,
      "ତ୍ବରେ": 6272,
      "ମୁମ୍ବାଇରେ": 6273,
      "କାରୁ": 6274,
      "ଗ୍ୟାଲେ": 6275,
      "ପ୍ରତିକାର": 6276,
      "ପରିଣା": 6277,
      "ସଜା": 6278,
      "ପ୍ରତିଷ୍ଠିତ": 6279,
      "ହରା": 6280,
      "ପାରିବା": 6281,
      "ଆଲର୍": 6282,
      "କପ୍": 6283,
      "ଆରାଧନା": 6284,
      "January": 6285,
      "ଅମିତା": 6286,
      "ଷ୍ୟ": 6287,
      "ପୁଅକୁ": 6288,
      "gle": 6289,
      "ନେଉ": 6290,
      "ଅମଳ": 6291,
      "ବମ୍": 6292,
      "ଏସଆଇ": 6293,
      "ଜଷ୍ଟିସ": 6294,
      "କର୍ଣ୍ଣ": 6295,
      "ଲାଇସେନ୍ସ": 6296,
      "ଗଣମାଧ୍ୟମକୁ": 6297,
      "ସିଲିଣ୍ଡର": 6298,
      "ନିଆର": 6299,
      "ସରକାରଙ୍କର": 6300,
      "fi": 6301,
      "ରାମଚନ୍ଦ୍ର": 6302,
      "ଶ୍ରେଣୀରେ": 6303,
      "ବିଶ୍ବାସ": 6304,
      "ମଧ୍ଯ": 6305,
      "ମୁହୂର୍ତ୍ତ": 6306,
      "ଗୋପ": 6307,
      "ବିହାରୀ": 6308,
      "ବିଶ୍ଳେଷଣ": 6309,
      "ସ୍ଥଳରୁ": 6310,
      "ଟୁର୍ଣ୍ଣା": 6311,
      "ଅପରପକ୍ଷରେ": 6312,
      "ଫାଉ": 6313,
      "ରେଲ": 6314,
      "ରହିଥିବାରୁ": 6315,
      "ରିଜର୍ଭ": 6316,
      "ଚନ୍ଦ୍ରଶେଖର": 6317,
      "ବିକି": 6318,
      "au": 6319,
      "କୋଟିରୁ": 6320,
      "ଇଣ୍ଡଷ୍ଟ୍ରି": 6321,
      "କଡ଼ି": 6322,
      "କର୍ମୀମାନେ": 6323,
      "ବାପାଙ୍କ": 6324,
      "ଅଟକାଇ": 6325,
      "ସାମୁଦ୍ରିକ": 6326,
      "ଗୋଲ୍": 6327,
      "ମଧ୍ୟପ୍ରଦେଶ": 6328,
      "ଜନସାଧାରଣଙ୍କ": 6329,
      "ଶବକୁ": 6330,
      "ଗ୍ରୁପ୍": 6331,
      "ସବୁକିଛି": 6332,
      "Pow": 6333,
      "ପରଦା": 6334,
      "ଯାନବାହ": 6335,
      "website": 6336,
      "ରାସ୍ତାକୁ": 6337,
      "କୁହାଯାଇଥିଲା": 6338,
      "ଧନୀ": 6339,
      "ଷଡ": 6340,
      "ହାଇକୋର୍ଟରେ": 6341,
      "ରାଜେନ୍ଦ୍ର": 6342,
      "my": 6343,
      "ସଂକଳ୍ପ": 6344,
      "ସଂକ୍ରମଣକୁ": 6345,
      "କରିଦେଇଛନ୍ତି": 6346,
      "ଡେଇଁ": 6347,
      "ଗାନ୍ଧୀଙ୍କ": 6348,
      "ଗେଟ୍": 6349,
      "ଗଲ": 6350,
      "କିଙ୍ଗ": 6351,
      "ଚମ୍": 6352,
      "''": 6353,
      "ଅନୁସରଣ": 6354,
      "ସକାରାତ୍ମକ": 6355,
      "ଗୋଡ଼": 6356,
      "ତିନିଟି": 6357,
      "ଶେୟାର": 6358,
      "ଟିକାର": 6359,
      "ପଡ଼ୋ": 6360,
      "ପଡ଼ୁଛି": 6361,
      "ଜର୍ସ": 6362,
      "ବ୍ରହ୍": 6363,
      "କୋଠା": 6364,
      "Live": 6365,
      "ପ୍ରକ୍ରିୟାରେ": 6366,
      "ଗ୍ୟାସ୍": 6367,
      "Your": 6368,
      "ଦାବାଦ": 6369,
      "ଉପନିର୍ବାଚନ": 6370,
      "ନ୍ତ୍ରିକ": 6371,
      "ଗଲାଣି": 6372,
      "ଆସିଥାଏ": 6373,
      "ଗୁମ୍": 6374,
      "ନଚେ": 6375,
      "ପଦୀ": 6376,
      "ଶରତ": 6377,
      "ଭାଇରସ୍": 6378,
      "ପନ୍ତ": 6379,
      "ବେଳା": 6380,
      "ଭତ୍ତା": 6381,
      "ଟ୍ରମ୍ପ": 6382,
      "ବାନ୍": 6383,
      "କେଟରେ": 6384,
      "ଏପଟେ": 6385,
      "ଣ୍ଡୋ": 6386,
      "ବାସୁ": 6387,
      "ଲକ୍ଷା": 6388,
      "ଖେମୁଣ୍ଡି": 6389,
      "ଭାରୀ": 6390,
      "ସଫେଇ": 6391,
      "ଅର୍ଜୁନ": 6392,
      "ନାନା": 6393,
      "ବାଛି": 6394,
      "ମାତୃ": 6395,
      "ପାଉଥିବା": 6396,
      "ଅଲ୍": 6397,
      "ବଜେଟ": 6398,
      "ଝିଅର": 6399,
      "ସଂସ୍ଥାର": 6400,
      "ନିରବ": 6401,
      "ହଷ୍ଟେ": 6402,
      "ଅନୁଭୂତି": 6403,
      "ଅଗ୍ରଣୀ": 6404,
      "ଟଙ୍କାରୁ": 6405,
      "।[": 6406,
      "ୱେଷ୍ଟ": 6407,
      "୦୧": 6408,
      "ରାଜୀବ": 6409,
      "ବନ୍ଧା": 6410,
      "ସମର୍ଥକ": 6411,
      "ଚୂଡ଼ାନ୍ତ": 6412,
      "ମାନ୍": 6413,
      "ମ୍ସ": 6414,
      "ଡେନ୍": 6415,
      "English": 6416,
      "ଆଳୁ": 6417,
      "ପଡ଼ୋଶୀ": 6418,
      "ଐତିହ୍ୟ": 6419,
      "ତ୍ରା": 6420,
      "ଷ୍ଟାଣ୍ଡ": 6421,
      "ନେବ": 6422,
      "ନାବାଳକ": 6423,
      "କର୍ମକର୍ତ୍ତା": 6424,
      "ଭର୍ଚୁ": 6425,
      "ନନ୍ଦିନ": 6426,
      "ବନ୍ଦରରେ": 6427,
      "2017": 6428,
      "ନିୟରିଂ": 6429,
      "https": 6430,
      "ସିନ୍ଧ": 6431,
      "କାର୍ଯ୍ୟକ୍ଷମ": 6432,
      "ମହେନ୍ଦ୍ର": 6433,
      "ସୁବିଧ": 6434,
      "ଗଣ୍ଡ": 6435,
      "ଡିଜାଇନ": 6436,
      "ୂପ": 6437,
      "It": 6438,
      "ଜାତିକ": 6439,
      "ଖଣ୍ଡପୀଠ": 6440,
      "ତ୍ୟାର": 6441,
      "ମୂଲ୍ୟବାନ": 6442,
      ")-": 6443,
      "ନିଦ": 6444,
      "ପରିବେଷଣ": 6445,
      "ଘି": 6446,
      "ଟିକେଟ୍": 6447,
      "ରୋହୀ": 6448,
      "ରାୟଗଡା": 6449,
      "କାରୀମାନେ": 6450,
      "ଭୌ": 6451,
      "ଶଯ୍ୟା": 6452,
      "ଦାୟିତ୍ୱରେ": 6453,
      "ରୋଲ": 6454,
      "ୟୁକ୍ରେନ୍": 6455,
      "ହେଉଥିବାରୁ": 6456,
      "ଗୋପନ": 6457,
      "ପିନ୍ଧିବା": 6458,
      "ଘୂ": 6459,
      "ନକାରାତ୍ମକ": 6460,
      "ୋଳନ": 6461,
      "ପଡ଼ିଛନ୍ତି": 6462,
      "ସମୂ": 6463,
      "ଶୁର": 6464,
      "ଆଇଜି": 6465,
      "ଲକ୍ଷେ": 6466,
      "ଲୁଟି": 6467,
      "ରୋଡ": 6468,
      "୍ର୍": 6469,
      "ଏହିସବୁ": 6470,
      "ଖୋଜା": 6471,
      "ଚୁର": 6472,
      "କାରକ": 6473,
      "ମୃତଦେହକୁ": 6474,
      "ବତ୍": 6475,
      "ତୁମ": 6476,
      "ଲାଇଭ୍": 6477,
      "ବୁକ୍": 6478,
      "ଲକ୍ଷାଧିକ": 6479,
      "ମୁମ୍ବାଇର": 6480,
      "ଅଭାବରୁ": 6481,
      "ହେବାପରେ": 6482,
      "ଚାଲୁଥିବା": 6483,
      "ସୁଲ": 6484,
      "କ୍ଷ୍": 6485,
      "୪୦୦": 6486,
      "ଉପଭୋଗ": 6487,
      "କୁଦ": 6488,
      "ଆଇଆଇସି": 6489,
      "ଠିକାଦାର": 6490,
      "Last": 6491,
      "ଉପାୟରେ": 6492,
      "କନିଷ୍ଠ": 6493,
      "ଦୁହିଁ": 6494,
      "୮୬": 6495,
      "ଚାମଚ": 6496,
      "ହସପିଟା": 6497,
      "ନିର୍ମ": 6498,
      "ବିଜ୍ଞାପନ": 6499,
      "ପଡୋ": 6500,
      "ନେତାଙ୍କୁ": 6501,
      "ମନି": 6502,
      "ଦେୟ": 6503,
      "ପ୍ରବାସୀ": 6504,
      "ଶୋଇବା": 6505,
      "ବୃଦ୍ଧା": 6506,
      "ମଜବୁ": 6507,
      "ବ୍ୟାୟା": 6508,
      "ପ୍ଲାଣ୍ଟ": 6509,
      "କ୍ୟାରିୟର": 6510,
      "right": 6511,
      "ଲକଡାଉନ": 6512,
      "ପୀଡିତ": 6513,
      "ପୋଷ୍ଟର": 6514,
      "୯୬": 6515,
      "ଏସ୍ଆଇ": 6516,
      "ନିୟମକୁ": 6517,
      "ଚାକିରୀ": 6518,
      "Powered": 6519,
      "୮୩": 6520,
      "ଡାଲ": 6521,
      "ଆସନରୁ": 6522,
      "Goo": 6523,
      "ଜେଡି": 6524,
      "ଚର୍ଚ୍ଚାର": 6525,
      "ନ୍ୟୁଜ": 6526,
      "ଳେଇ": 6527,
      "form": 6528,
      ").": 6529,
      "ସ୍ଥାନରୁ": 6530,
      "ବିଶ୍ୱବିଦ୍ୟାଳୟର": 6531,
      "ice": 6532,
      "କତା": 6533,
      "ଗାର୍ଡ": 6534,
      "ଯାତ୍ରୀଙ୍କ": 6535,
      "ସହଯୋଗରେ": 6536,
      "ଏସଟି": 6537,
      "ପାରିନାହିଁ": 6538,
      "ଯୁବତୀଙ୍କୁ": 6539,
      "ସୈନିକ": 6540,
      "ମିଠା": 6541,
      "ଖେଳିବା": 6542,
      "ଏହାପୂର୍ବରୁ": 6543,
      "ମେୟର": 6544,
      "De": 6545,
      "ସମ୍ପ୍ରଦାୟ": 6546,
      "40": 6547,
      "ଜିତ୍": 6548,
      "ପାର୍ଟିର": 6549,
      "ପୂର୍ଣ୍ଣି": 6550,
      "କିଙ୍ଗ୍": 6551,
      "ସମର୍ପଣ": 6552,
      "ବଢୁଛି": 6553,
      "ମ୍ରାନ": 6554,
      "ଅଳଙ୍କାର": 6555,
      "ଅମ୍ଳ": 6556,
      "କଫି": 6557,
      "ଦିଆଗଲା": 6558,
      "ସିଇଓ": 6559,
      "ଲେମ୍ବୁ": 6560,
      "କ୍ୟାବିନେଟ": 6561,
      "ବେସରକାରୀ": 6562,
      "ational": 6563,
      "ଆଳ": 6564,
      "ଟୁଇଟ୍": 6565,
      "ନିମନ୍ତ୍ର": 6566,
      "ଷ୍ଟାଡିୟମରେ": 6567,
      "ସ୍ରୋ": 6568,
      "ସାର୍ବଜ": 6569,
      "ମାଟିରେ": 6570,
      "ରଣବୀର": 6571,
      "ଦାବୀ": 6572,
      "ଖୁସିର": 6573,
      "Related": 6574,
      "ଭକ୍ତଙ୍କ": 6575,
      "ଗହଳି": 6576,
      "ଖୀ": 6577,
      "ଫିଙ୍ଗି": 6578,
      "ଟୁର୍ଣ୍ଣାମେଣ୍ଟ": 6579,
      "ସ୍ମାର": 6580,
      "ଗୃହିଣୀ": 6581,
      "ଇନଷ୍ଟା": 6582,
      "କଣ୍ଟ୍": 6583,
      "ଇସଲା": 6584,
      "ଚିକିତ୍ସାଳୟ": 6585,
      "ସାମିଲ୍": 6586,
      "ନ୍ତୀ": 6587,
      "Ex": 6588,
      "ନିଆରା": 6589,
      "ଗନ୍ଧ": 6590,
      "ସୁବର୍ଣ୍ଣପୁର": 6591,
      "ଛାଡ଼": 6592,
      "ପ୍ରୀତି": 6593,
      "ଯେହେତୁ": 6594,
      "କ୍ରୀୟ": 6595,
      "ବିନ୍ଦୁ": 6596,
      "ମନକୁ": 6597,
      "ଅପଡେ": 6598,
      "ବର୍ଗରେ": 6599,
      "ବାସ୍ତୁ": 6600,
      "ଣାର": 6601,
      "ନେଉଥିବା": 6602,
      "ପରିଡ଼ା": 6603,
      "ପରମେ": 6604,
      "ଟିକ୍": 6605,
      "ଫାଷ୍ଟ": 6606,
      "Editor": 6607,
      "ଅଭିନବ": 6608,
      "ଦର୍ଶିତ": 6609,
      "ପ୍ରଫୁଲ୍ଲ": 6610,
      "ଆଦ": 6611,
      "ଲୁହା": 6612,
      "ନିର୍ଦ୍ଦେଶା": 6613,
      "ଅଷ୍ଟମ": 6614,
      "ସୁଦୃଢ଼": 6615,
      "ମନୀ": 6616,
      "ନଙ୍କୁ": 6617,
      "ହାରାହାରି": 6618,
      "ance": 6619,
      "ଦହି": 6620,
      "ପ୍ରଦର୍ଶ": 6621,
      "ଦୀପାବଳି": 6622,
      "ଉଜ": 6623,
      "କୁକୁ": 6624,
      "ଚେୟାର": 6625,
      "ଶୋଧ": 6626,
      "ୟେଲୋ": 6627,
      "ଯେଉଁଥିପାଇଁ": 6628,
      "ଦିବସରେ": 6629,
      "ଉଁଶ": 6630,
      "ପଟ୍ଟା": 6631,
      "ବିଶ୍ରା": 6632,
      "୯୭": 6633,
      "ଡିସିପି": 6634,
      "ରାକେଶ": 6635,
      "ପଡୋଶୀ": 6636,
      "able": 6637,
      "ମାରିବା": 6638,
      "ଭଡ଼ା": 6639,
      "ଲିଙ୍ଗରାଜ": 6640,
      "କ୍ଷେତ୍ରର": 6641,
      "ପର୍ଯ୍ୟାପ୍ତ": 6642,
      "ଋତୁରେ": 6643,
      "ଅନ୍ଲାଇନ୍": 6644,
      "ack": 6645,
      "ବିତା": 6646,
      "ଖେଳାଳିଙ୍କ": 6647,
      "ବାଣ୍ଟି": 6648,
      "ଏହାଛଡ଼ା": 6649,
      "ଅତ": 6650,
      "୨୦୧୨": 6651,
      "india": 6652,
      "ଚଣ୍ଡି": 6653,
      "ବିଜେପିକୁ": 6654,
      "ଅତୀ": 6655,
      "ସୁଇ": 6656,
      "ପାରାଦୀପ": 6657,
      "ହାନ": 6658,
      "ଚଣ୍ଡ": 6659,
      "ମହାବିଦ୍ୟାଳୟ": 6660,
      "ଟିନ୍": 6661,
      "ସୌଭାଗ୍ୟ": 6662,
      "କାଙ୍କ": 6663,
      "ସମାଜସେବୀ": 6664,
      "ଉଭୟଙ୍କୁ": 6665,
      "ଡ୍ରୋ": 6666,
      "ମ୍ୟାନେଜର": 6667,
      "ମ୍ୟାନ୍": 6668,
      "ସାରିତ": 6669,
      "ଯୁଗ୍": 6670,
      "ନିର୍ଭରଶୀଳ": 6671,
      "ଭାନୁ": 6672,
      "ଆଜିକାଲି": 6673,
      "ସୁଗାର": 6674,
      "ୱାର୍କ": 6675,
      "କୋରେ": 6676,
      "ଆଜିଠାରୁ": 6677,
      "ଖୋଜୁ": 6678,
      "ବେତନ": 6679,
      "ଯଶ": 6680,
      "April": 6681,
      "କର୍ମୀଙ୍କୁ": 6682,
      "ମାଡ଼ି": 6683,
      "ସଦାପ୍ରଭୁ": 6684,
      "ଡିପିଓ": 6685,
      "ଅଭିଯୋଗକୁ": 6686,
      "ଧାରୀ": 6687,
      "ମଜୁ": 6688,
      "ସେନାପତି": 6689,
      "ପରିଣାମ": 6690,
      "ଦେବଙ୍କ": 6691,
      "ସୋସିଆଲ୍": 6692,
      "ବୁଡ଼ି": 6693,
      "ଝାଡ଼": 6694,
      "ମସ": 6695,
      "ଅନଲାଇନ୍": 6696,
      "ଳତା": 6697,
      "ଶୁଖିଲା": 6698,
      "ଵା": 6699,
      "ଅପରାଧୀ": 6700,
      "ଏର": 6701,
      "ଛାୟା": 6702,
      "ଶୁଳ୍": 6703,
      "ମହଲା": 6704,
      "କାଂ": 6705,
      "enc": 6706,
      "ନ୍ସିଂ": 6707,
      "କ୍ଷିପ୍ତ": 6708,
      "ଯୁଗ୍ମ": 6709,
      "str": 6710,
      "ରାଜେଶ": 6711,
      "ଧିନ": 6712,
      "ଝଗ": 6713,
      "ସଙ୍ଗଠନ": 6714,
      "ରିଲିଜ": 6715,
      "ଲେଟ": 6716,
      "ବାହାରୁ": 6717,
      "ବାଲେଶ୍ଵର": 6718,
      "୮୭": 6719,
      "ଚ୍ଛାସେବୀ": 6720,
      "ଖୋଲ": 6721,
      "ପୃଥିବୀର": 6722,
      "March": 6723,
      "ହୋଇପାରିବେ": 6724,
      "ପ୍ରଦର୍ଶିତ": 6725,
      "୨୦୦୦": 6726,
      "ଜାରେ": 6727,
      "ଶତପଥ": 6728,
      "ବଟ": 6729,
      "ଦୁନିଆରେ": 6730,
      "ଇମ୍ରାନ": 6731,
      "ଅମିତାଭ": 6732,
      "ନଦୀର": 6733,
      "କଥାରେ": 6734,
      "ସ୍ବର": 6735,
      "ପ୍ରମାଣପତ୍ର": 6736,
      "ନିହାତି": 6737,
      "ରିଲା": 6738,
      "ସ୍ବୀ": 6739,
      "ପ୍ରାରମ୍ଭ": 6740,
      "ଜବରଦସ୍ତ": 6741,
      "ପଚରା": 6742,
      "ହରେ": 6743,
      "ଲାଲ୍": 6744,
      "ପୁଷ୍ଟି": 6745,
      "କଲେଜର": 6746,
      "ପତ୍ନୀଙ୍କ": 6747,
      "ech": 6748,
      "ପ୍ରବାହିତ": 6749,
      "ସଦସ୍ୟମାନେ": 6750,
      "ଅସ୍ଥାୟୀ": 6751,
      "ସାର୍ଟିଫି": 6752,
      "ଷେକ": 6753,
      "ଲାଞ୍ଚ": 6754,
      "ହୋଇଯାଇଥିବା": 6755,
      "ମାହା": 6756,
      "ଆଇସିସି": 6757,
      "ବଗି": 6758,
      "ପାରିଲେ": 6759,
      "ବାଂଲାଦେଶ": 6760,
      "ଶିବସେନା": 6761,
      "name": 6762,
      "କବାଟ": 6763,
      "ଭାରିଆଣ୍ଟ": 6764,
      "ଆକାରରେ": 6765,
      "ସଂଗୀତ": 6766,
      "ଦେଖାଯାଉଛି": 6767,
      "co": 6768,
      "ଆନ୍ଧ୍ରପ୍ରଦେଶ": 6769,
      "Sub": 6770,
      "ସ୍ଥଳକୁ": 6771,
      "ଶିଳା": 6772,
      "ଫୁଟ୍": 6773,
      "ମାରିଥିଲେ": 6774,
      "ପ୍ରକୋ": 6775,
      "ହେି": 6776,
      "ୱେର": 6777,
      "କଡ଼ାକଡ଼ି": 6778,
      "ପ୍ରତିଷ୍ଠାତା": 6779,
      "ଜିତେ": 6780,
      "Google": 6781,
      "ନିକ୍": 6782,
      "ପରିଡା": 6783,
      "ନିଷ୍କା": 6784,
      "5,": 6785,
      "6,": 6786,
      "ବନି": 6787,
      "ଦେଇପାରିବେ": 6788,
      "ଆଖିରେ": 6789,
      "ପାର୍ଶ୍": 6790,
      "ଆନ୍ତର୍ଜାତିକ": 6791,
      "କ୍ୟାପିଟାଲ": 6792,
      "ଛିଡ଼ା": 6793,
      "ମହାତ୍ମା": 6794,
      "ଏଲି": 6795,
      "30,": 6796,
      "ଚଳାଇଛି": 6797,
      "ଖ୍": 6798,
      "ସିଭି": 6799,
      "ସ୍ୱର୍ଗତ": 6800,
      "ସେତେ": 6801,
      "ଦାରୀ": 6802,
      "ସମ୍ବ": 6803,
      "ଆସାମ": 6804,
      "କଟକରୁ": 6805,
      "ner": 6806,
      "ଛଅ": 6807,
      "ପ୍ରକ୍ରିୟାକୁ": 6808,
      "ଫାଣ୍ଡି": 6809,
      "ସଂଯୋଜକ": 6810,
      "ଗାଳି": 6811,
      "ଥିତ": 6812,
      "ଣ୍ଟାଲ": 6813,
      "କଙ୍ଗନା": 6814,
      "ବିରା": 6815,
      "comp": 6816,
      "ମନୁଷ୍ୟ": 6817,
      "ତଲ": 6818,
      "ଓପି": 6819,
      "କୋଭିଡ଼": 6820,
      "ଡବ୍ଲୁ": 6821,
      "ପ୍ରେମିକ": 6822,
      "ନିମ୍ନଲିଖିତ": 6823,
      "ଅକ୍ସିଜେନ": 6824,
      "ପର୍ୟ୍ୟ": 6825,
      "ଟ୍ରାକ୍ଟର": 6826,
      "ପାଇଲେ": 6827,
      "ଏନ୍ସ": 6828,
      "ଅଭିଯୁକ୍ତଙ୍କ": 6829,
      "ପେକ୍ଟର": 6830,
      "ଖୋଲିବାକୁ": 6831,
      "ପ୍ରତୀକ": 6832,
      "hours": 6833,
      "ହୋମ": 6834,
      "ଶ୍ୟାମ": 6835,
      "ବିନୋ": 6836,
      "ଦୁର": 6837,
      "ଖାଉ": 6838,
      "ଦ୍ରୌ": 6839,
      "୯୨": 6840,
      "ଅଭିଯୁକ୍ତକୁ": 6841,
      "୮୨": 6842,
      "ସଂକ୍ରମଣର": 6843,
      "ଇନ୍ସ": 6844,
      "ଉଡ଼ା": 6845,
      "ନିଷ୍ଠା": 6846,
      "ବିଶ୍ୱକପ୍": 6847,
      "ଭରସା": 6848,
      "ବେଶୀ": 6849,
      "ction": 6850,
      "ବେଶରେ": 6851,
      "ked": 6852,
      "କାଳି": 6853,
      "ଦେଖାଯାଇଛି": 6854,
      "ଟେଷ୍ଟ୍": 6855,
      "ଷ୍ଟେସନରେ": 6856,
      "ଉପଖଣ୍ଡ": 6857,
      "ଜିତିବା": 6858,
      "ories": 6859,
      "କାଗଜପତ୍ର": 6860,
      "ଏକତ୍ର": 6861,
      "8,": 6862,
      "ଆର୍ଯ୍ୟ": 6863,
      "ଚାହୁଁଛି": 6864,
      "ହାତେ": 6865,
      "୨୦୧୧": 6866,
      "କୁଶ": 6867,
      "ଟିଏମସି": 6868,
      "ଅସହାୟ": 6869,
      "ପରିକ୍ରମା": 6870,
      "ଶିକ୍ଷାର୍ଥୀ": 6871,
      "ପିଢ଼ି": 6872,
      "ସାୟ": 6873,
      "ଫ୍ର": 6874,
      "ବାଟରେ": 6875,
      "ପ୍ରସାରିତ": 6876,
      "ହଳଦିଆ": 6877,
      "ଯାଇପାରିବ": 6878,
      "ରଘୁନାଥ": 6879,
      "କେନ୍": 6880,
      "ଖାସ୍": 6881,
      "Name": 6882,
      "ମିମି": 6883,
      "fiel": 6884,
      "ତକୁ": 6885,
      "ଯୋଜନାକୁ": 6886,
      "000": 6887,
      "ଉତ୍ତୋଳନ": 6888,
      "ଦ୍ରୌପଦୀ": 6889,
      "ଉପରୋକ୍ତ": 6890,
      "ଚାଳନା": 6891,
      "ଅଫର": 6892,
      "ମିଂ": 6893,
      "ଭାସି": 6894,
      "ଗଢ଼ି": 6895,
      "କାଉଣ୍ଟର": 6896,
      "ହେଲିକପ୍ଟର": 6897,
      "Cor": 6898,
      "ଡାକରା": 6899,
      "ଅପମାନ": 6900,
      "ରିଟି": 6901,
      "ଘଟାଇ": 6902,
      "ପଡିଛନ୍ତି": 6903,
      "ଗୃହମନ୍ତ୍ରୀ": 6904,
      "ବଲରେ": 6905,
      "www": 6906,
      "OR": 6907,
      "ତୃଣମୂଳ": 6908,
      "ପ୍ରେସ୍": 6909,
      "ଟୀକାକରଣ": 6910,
      "ବ୍ୟବସ୍ଥାର": 6911,
      "ନିର୍ମାତା": 6912,
      "ପୃକ୍ତି": 6913,
      "ଚିନି": 6914,
      "ଦରରେ": 6915,
      "ଖ୍ୟାତ": 6916,
      "ଦର୍ଶକଙ୍କ": 6917,
      "ବାବ": 6918,
      "Lo": 6919,
      "ଆଶିଷ": 6920,
      "କୁଲ": 6921,
      "ଦୀପିକା": 6922,
      "ଉପାଧ୍ୟକ୍ଷ": 6923,
      "ଶ୍ୱର୍": 6924,
      "cribe": 6925,
      "ପାରଳା": 6926,
      "ଏପି": 6927,
      "କାନ୍ଦି": 6928,
      "ସର୍ତ୍ତ": 6929,
      "ରୁଚି": 6930,
      "ଦିଆଯାଉ": 6931,
      "ଶସ୍ତା": 6932,
      "କଦଳ": 6933,
      "ଇନ୍ଦା": 6934,
      "ଲୋଭ": 6935,
      "ans": 6936,
      "ବିହନ": 6937,
      "ଲକ୍ଷିତ": 6938,
      "ସୌର": 6939,
      "Search": 6940,
      "ଖନ": 6941,
      "ସୂଚ": 6942,
      "gy": 6943,
      "ଏନସିବି": 6944,
      "ମିଳିପାରେ": 6945,
      "ଅଭିଜ୍ଞତା": 6946,
      "ୟାର୍": 6947,
      "େଶ୍ୱର": 6948,
      "ସିଷ୍ଟ": 6949,
      "ଯଥାକ୍ରମେ": 6950,
      "ଖୋଜିବା": 6951,
      "ମିଳିନାହିଁ": 6952,
      "ଗଭର୍": 6953,
      "ତପ": 6954,
      "Samaj": 6955,
      "ନିର୍ବାଚନୀ": 6956,
      "ଚିକିତ୍ସାଳୟରେ": 6957,
      "ଗ୍ରାହକଙ୍କୁ": 6958,
      "ମାମଲାକୁ": 6959,
      "ନୀଳଗିରି": 6960,
      "ହାରରେ": 6961,
      "ଖାଁ": 6962,
      "ସଂକେତ": 6963,
      "ମହାରାଷ୍ଟ୍ରର": 6964,
      "ଦଶନ୍ଧି": 6965,
      "ପେନ୍": 6966,
      "content": 6967,
      "sour": 6968,
      "ital": 6969,
      "ରାଉତରାୟ": 6970,
      "ନିର୍ବାହ": 6971,
      "ହାର୍ଦ୍": 6972,
      "ହସି": 6973,
      "ଜମ": 6974,
      "ଅମ୍ବା": 6975,
      "ଣିକ": 6976,
      "କୋଣାର୍କ": 6977,
      "ନୋଟିସ": 6978,
      "ପର୍ଶରେ": 6979,
      "ବାୟୁସେନା": 6980,
      "ବିତରଣ": 6981,
      "ପରିଲକ୍ଷିତ": 6982,
      "ପୀଡି": 6983,
      "ନିଲମ୍": 6984,
      "ଗୋରୁ": 6985,
      "ସମ୍ପାଦନ": 6986,
      "ଫାଉଣ୍ଡେ": 6987,
      "ଆମ୍ବ": 6988,
      "ହଠାତ": 6989,
      "ଓ୍ବାର୍": 6990,
      "ଲେଖିଥିଲେ": 6991,
      "ଡାକ୍ତରଖାନାକୁ": 6992,
      "ମାଇକ୍ରୋ": 6993,
      "ଧକ": 6994,
      "ମାନ୍ୟବର": 6995,
      "କର୍ଫ୍ୟୁ": 6996,
      "ମୁକାବିଲାରେ": 6997,
      "ଚତୁର୍": 6998,
      "ଚୁରା": 6999,
      "row": 7000,
      "ପ୍ରୀତ": 7001,
      "କମଳା": 7002,
      "ya": 7003,
      "ଭଟ୍ଟ": 7004,
      "ଖୋଲିବ": 7005,
      "ଟିପ୍": 7006,
      "ଝାଡ଼ଖଣ୍ଡ": 7007,
      "ସାମ୍ୟ": 7008,
      "1)": 7009,
      "ରାଗି": 7010,
      "ଡଙ୍ଗା": 7011,
      "ଶୀର୍ଷକ": 7012,
      "ପୋଡ଼ି": 7013,
      "ଅଷ୍ଟ୍ରେଲି": 7014,
      "ମିଳୁଥିବା": 7015,
      "ପ୍ରାଥମିକତା": 7016,
      "ତ୍ୱରା": 7017,
      "ପଛକୁ": 7018,
      "ଦେ୍ର୍": 7019,
      "ରଖାଯାଇଥିଲା": 7020,
      "ୟିକା": 7021,
      "ଲାଗେ": 7022,
      "ଛତିଶଗଡ": 7023,
      "ରାଜ୍ୟରୁ": 7024,
      "ଭୋଜି": 7025,
      "ଚାଇନା": 7026,
      "'।": 7027,
      "Art": 7028,
      "6.": 7029,
      "କରିଦେଇଛି": 7030,
      "ମଧୁମେହ": 7031,
      "ବୋଝେଇ": 7032,
      "ଜୀବା": 7033,
      "ଭୋର": 7034,
      "ମାଉ": 7035,
      "ଗାର୍": 7036,
      "ବଢିବାରେ": 7037,
      "ise": 7038,
      "ମାଟୋ": 7039,
      "ପଂଚ": 7040,
      "ପୀଡ଼ିତ": 7041,
      "pic": 7042,
      "କାନ୍ତି": 7043,
      "ଭିନ୍ନକ୍ଷମ": 7044,
      "ଦିଲ୍ଲୀପ": 7045,
      "ବଢିବ": 7046,
      "Res": 7047,
      "ଗୀତା": 7048,
      "ମୃତୁ": 7049,
      "ଟ୍ରାଫିକ": 7050,
      "ସିଙ୍ଗ": 7051,
      "ଲକ୍ଡାଉନ୍": 7052,
      "ଖାନଙ୍କ": 7053,
      "ହରାଇଥିବା": 7054,
      "ପୃଷ୍ଠା": 7055,
      "କର୍ଣ୍ଣାଟ": 7056,
      "ସାନିଟାଇ": 7057,
      "ଜରୁରୀକାଳୀନ": 7058,
      "ଅବସରପ୍ରାପ୍ତ": 7059,
      "ନହେଲେ": 7060,
      "ସଂସଦରେ": 7061,
      "ଟପି": 7062,
      "ଆଇପିଏ": 7063,
      "ପରିବର୍ତ୍ତ": 7064,
      "କମିଶନରେ": 7065,
      "ତୁମ୍ଭେ": 7066,
      "ଇଟିଭି": 7067,
      "ବେଳେବେଳେ": 7068,
      "ଅଗ୍ରଗତି": 7069,
      "ଚାନ୍ଦବାଲି": 7070,
      "ଉଡ଼ି": 7071,
      "ଡ଼ର": 7072,
      "address": 7073,
      "ନିର୍ଦେଶକ": 7074,
      "ଦେଢ଼": 7075,
      "ଚୀନର": 7076,
      "ପ୍ଲାଟଫର୍ମ": 7077,
      "ହଳଦୀ": 7078,
      "ଅଫିସ୍": 7079,
      "ଆକୁ": 7080,
      "କୋହଳ": 7081,
      "ପୁଅର": 7082,
      "ଜିତା": 7083,
      "ଦିଗକୁ": 7084,
      "କିରଣ": 7085,
      "ସଂଯୁକ୍ତ": 7086,
      "ଆଶ୍ୱ": 7087,
      "କ୍ୱାରେଣ୍ଟାଇ": 7088,
      "ଉଲ": 7089,
      "ପରସ୍ପରକୁ": 7090,
      "ପୂର": 7091,
      "ell": 7092,
      "ରନ୍ରେ": 7093,
      "ଦେଖ": 7094,
      "ଯିଏକି": 7095,
      "ଆସା": 7096,
      "ଉଚ୍ଚତା": 7097,
      "ଆଲୋକପାତ": 7098,
      "ଲିଗ୍": 7099,
      "ବିଜେପିରେ": 7100,
      "ପଟା": 7101,
      "୯୧": 7102,
      "ମୋହ": 7103,
      "ପୋଡି": 7104,
      "ଥାଉକି": 7105,
      "ତୁଲାଇ": 7106,
      "ବିମାନବନ୍ଦର": 7107,
      "ଊର୍ଦ୍ଧ୍ୱ": 7108,
      "ସ୍ୱଳ୍ପ": 7109,
      "ଆରସି": 7110,
      "ଏଯା": 7111,
      "ଷ୍ଟେଟ୍": 7112,
      "ଲୋକାର୍": 7113,
      "ୱାୟାର": 7114,
      "ସାମର୍ଥ": 7115,
      "କଞ୍ଚା": 7116,
      "ବାହାରିବା": 7117,
      "ସେଥିମଧ୍ୟରୁ": 7118,
      "ଜମିକୁ": 7119,
      "ଦିବ୍ୟାଙ୍ଗ": 7120,
      "ପ୍ଳ": 7121,
      "ସକ୍ରୀୟ": 7122,
      "ପାଖରୁ": 7123,
      "ପୁନରୁ": 7124,
      "ଟ୍ୱିଟ": 7125,
      "ଢୀ": 7126,
      "ନୋଟିସ୍": 7127,
      "ନିବାସ": 7128,
      "ଉମା": 7129,
      "ବିରଳ": 7130,
      "ପରୋ": 7131,
      "7,": 7132,
      "ପହି": 7133,
      "ଜୀବନ୍ତ": 7134,
      "ଷ୍ଟୋର": 7135,
      "ଏସ୍ଟି": 7136,
      "ଆବଶ୍ୟକୀୟ": 7137,
      "ଏମାନଙ୍କୁ": 7138,
      "ଦେବାରେ": 7139,
      "ରିହାତି": 7140,
      "ଜଳା": 7141,
      "ବରାଦ": 7142,
      "ଶହେ": 7143,
      "ବଚ୍ଚ": 7144,
      "ନୁହନ୍ତି": 7145,
      "ଧରିଛି": 7146,
      "କରିଛୁ": 7147,
      "ାନର": 7148,
      "ଜଷ୍ଟିସ୍": 7149,
      "ବିଶ୍ବକ": 7150,
      "ଗ୍ରାମକୁ": 7151,
      "ନ୍ଧିତ": 7152,
      "ସିଂହଙ୍କ": 7153,
      "କେୟାର": 7154,
      "ଟପ୍": 7155,
      "ଇତିହାସରେ": 7156,
      "ଦେଉଥିଲେ": 7157,
      "ପ୍ରସ୍ତାବକୁ": 7158,
      "କାଳୀ": 7159,
      "ପ୍ରତିଯୋଗୀ": 7160,
      "olog": 7161,
      "ଏଡ": 7162,
      "ବାଙ୍କ": 7163,
      "ହିସାବ": 7164,
      "ପାଦିତ": 7165,
      "ବାରା": 7166,
      "ଆରାମ": 7167,
      "ବିଭା": 7168,
      "ଆଡେ": 7169,
      "କୁମାରଙ୍କ": 7170,
      "କଂପାନି": 7171,
      "ମ୍ୟୁନି": 7172,
      "ପଡ଼ିଥାଏ": 7173,
      "ଶୁଳ୍କ": 7174,
      "ୟତ୍ରୀ": 7175,
      "ଶୋଭାଯାତ୍ରା": 7176,
      "ଦୁନିଆର": 7177,
      "ଝଟକା": 7178,
      "ବ୍ରାଉନ": 7179,
      "ପ୍ରକଟ": 7180,
      "ନିଦେ୍ର୍": 7181,
      "Feb": 7182,
      "ପ୍ରଚୁର": 7183,
      "ଟାଇଟ": 7184,
      "ଅନୁସୂଚିତ": 7185,
      "୧୦୮": 7186,
      "Canc": 7187,
      "ତାଳଚେର": 7188,
      "ଛବି": 7189,
      "lin": 7190,
      "ଗଣିତ": 7191,
      "ଶକ୍ତିର": 7192,
      "ଭିତ୍ତିରେ": 7193,
      "ଭୀମ": 7194,
      "ନେପାଳ": 7195,
      "ବିଭକ୍ତ": 7196,
      "26,": 7197,
      "୯୩": 7198,
      "follow": 7199,
      "ୟସ": 7200,
      "ss": 7201,
      "ଦେହରେ": 7202,
      "ଲାସ": 7203,
      "ପରମା": 7204,
      "ସମ୍ପର୍କକୁ": 7205,
      "ଅତ୍ୟାବଶ୍ୟକ": 7206,
      "ୱାର୍ଣ୍ଣିଂ": 7207,
      "ପ୍ରଭ": 7208,
      "କୋଷ": 7209,
      "ବାଇଁ": 7210,
      "ଅଥବା": 7211,
      "ସାଥ": 7212,
      "ବ୍ରିଟିଶ": 7213,
      "ବୈଷ୍ଣ": 7214,
      "ବ୍ରଜ": 7215,
      "କାହାରି": 7216,
      "ମତରେ": 7217,
      "ହୋମ୍": 7218,
      "ଶୁଣିବା": 7219,
      "ଓରଫ": 7220,
      "ପାଣ୍ଡେ": 7221,
      "ମେସିନ୍": 7222,
      "ରହିଲା": 7223,
      "ଚାଲ": 7224,
      "ମଧୁର": 7225,
      "୮୧": 7226,
      "ସଂକ୍ରା": 7227,
      "ନିମନ୍ତ୍ରଣ": 7228,
      "ଦ୍ଵିତୀୟ": 7229,
      "ଏଠାକୁ": 7230,
      "ମିଳିପାରିବ": 7231,
      "ତିର": 7232,
      "ପଡ଼ିଲା": 7233,
      "ଆକାଉଣ୍ଟରେ": 7234,
      "କରିନାହାନ୍ତି": 7235,
      "Pub": 7236,
      "ଗ୍ରିକ": 7237,
      "ସାମର୍ଥ୍ୟ": 7238,
      "ଧୀ": 7239,
      "ଆଣ": 7240,
      "FacebookTwitter": 7241,
      "୧୨୦": 7242,
      "ବ୍ରୋ": 7243,
      "ଇନ୍ଧନ": 7244,
      "ଗ୍ଲୋ": 7245,
      "କଦଳୀ": 7246,
      "ପ୍ରେମିକା": 7247,
      "ଦେବାଶିଷ": 7248,
      "ୁଆ": 7249,
      "ସର୍ବସାଧାରଣ": 7250,
      "କରୁଥିବାରୁ": 7251,
      "ସାର୍ବଜନୀ": 7252,
      "ପଙ୍କ": 7253,
      "ସ୍କେ": 7254,
      "ମସ୍ତିଷ୍": 7255,
      "ନନ୍ଦନକାନ": 7256,
      "Health": 7257,
      "ଆୟର": 7258,
      "ଯେବେ": 7259,
      "ସୁନୀଲ": 7260,
      "ଗୁଜରା": 7261,
      "କର୍ତ୍ତବ୍ୟ": 7262,
      "ue": 7263,
      "own": 7264,
      "ଛତ୍ରପୁର": 7265,
      "କାନ୍ଥ": 7266,
      "ସଂସ୍ପର୍ଶରେ": 7267,
      "ହୋଇସାରିଛି": 7268,
      "କରୀ": 7269,
      "ବ୍ଲ୍ୟୁ": 7270,
      "କ୍ୱାର୍ଟ": 7271,
      "ନୂଆପଡା": 7272,
      "ଘଟିବ": 7273,
      "ଟେଷ୍ଟିଂ": 7274,
      "ମଲ": 7275,
      "ଏକାଡେମୀ": 7276,
      "ବାଳିକା": 7277,
      "ସ୍ଥାପନା": 7278,
      "ଆଇସିୟୁ": 7279,
      "କରଙ୍କ": 7280,
      "ସତର୍କତା": 7281,
      "odia": 7282,
      "ସ୍ବପ୍": 7283,
      "ଆପଣମାନଙ୍କ": 7284,
      "ୱର": 7285,
      "ସଂଗ": 7286,
      "ଧାଡ଼ି": 7287,
      "ଫର୍ମରେ": 7288,
      "ଯୁଦ୍ଧରେ": 7289,
      "ଭକ୍ତି": 7290,
      "ବିସି": 7291,
      "ଦୋକାନୀ": 7292,
      "ପ୍ରସଙ୍ଗକୁ": 7293,
      "କର୍ମଜୀବି": 7294,
      "und": 7295,
      "aking": 7296,
      "ନିରପେକ୍ଷ": 7297,
      "ଅଧିକରୁ": 7298,
      "କମିସନର": 7299,
      "US": 7300,
      "ଓ୍ବେ": 7301,
      "ଆପତ୍ତି": 7302,
      "ଲୁଟ": 7303,
      "ମୈ": 7304,
      "ଜୀଙ୍କ": 7305,
      "କ୍ୱି": 7306,
      "ହାଇସ୍କୁଲ": 7307,
      "ନିଲମ୍ବିତ": 7308,
      "୍ୟାନ୍": 7309,
      "[]": 7310,
      "ତ୍ମିକ": 7311,
      "କୋଚ୍": 7312,
      "ସ୍ଥ୍ୟା": 7313,
      "ev": 7314,
      "source": 7315,
      "ଏସିଆ": 7316,
      "ସୋନୁ": 7317,
      "ପୁରୀରୁ": 7318,
      "ଉନ୍ମୋଚନ": 7319,
      "ମୃତୁ୍ୟ": 7320,
      "ପଞ୍ଜୀକରଣ": 7321,
      "କାମକୁ": 7322,
      "ମୁନି": 7323,
      "ଆଲର୍ଟ": 7324,
      "ଯୋଗାଇବା": 7325,
      "ଏକାଦଶ": 7326,
      "ନୁହଁନ୍ତି": 7327,
      "ପ୍ରତିରୋଧକ": 7328,
      "Te": 7329,
      "କିଷ": 7330,
      "ଦୈନନ୍ଦିନ": 7331,
      "ନାୟକଙ୍କ": 7332,
      "ସିକ୍ୟୁ": 7333,
      "ଅଜିତ": 7334,
      "ord": 7335,
      "ନିରାପତ୍ତା": 7336,
      "ଆମଦାନୀ": 7337,
      "କେଜ୍ରି": 7338,
      "ସନୀୟ": 7339,
      "ଧୋନୀ": 7340,
      "ଘ୍": 7341,
      "ମିକଙ୍କ": 7342,
      "ସାରିଥିବା": 7343,
      "ମନଗର": 7344,
      "ନିଲାମ": 7345,
      "ପ୍ରିୟା": 7346,
      "ବର୍ମା": 7347,
      "ଖୋର୍ଦ୍ଧାରୁ": 7348,
      "ଭୁବନେଶ୍ଵର": 7349,
      "କମିସନ": 7350,
      "ମଜବୁତ": 7351,
      "ମଦାବାଦ": 7352,
      "ଅଚାନକ": 7353,
      "ged": 7354,
      "ସ୍ଥିରତା": 7355,
      "କହିଲା": 7356,
      "ach": 7357,
      "ଳାରେ": 7358,
      "ସ୍ତରର": 7359,
      "ତତ୍କାଳୀନ": 7360,
      "ଘାତିକ": 7361,
      "ସାଧନ": 7362,
      "ପାଠ୍ୟକ୍ରମ": 7363,
      "ପାଠପଢ଼ା": 7364,
      "ରାଷ୍ଟ୍ରପତିଙ୍କ": 7365,
      "ବିକ୍ରୟ": 7366,
      "ଷ୍ଣା": 7367,
      "ବ୍ୟାକ୍": 7368,
      "ଉଚ୍ଚଶିକ୍ଷା": 7369,
      "ଆଧ୍ୟା": 7370,
      "ଦଫା": 7371,
      "ସିଙ୍ଗା": 7372,
      "ହୋଇପାରିଛି": 7373,
      "ମୃତ୍ୟୁସଂଖ୍ୟା": 7374,
      "କଥାଚିତ୍ର": 7375,
      "କ୍ଷେପଣାସ୍ତ୍ର": 7376,
      "ସହେି": 7377,
      "ଉପଯୋଗୀ": 7378,
      "ବାହୀ": 7379,
      "ଜଣାପଡି": 7380,
      "ମାସରୁ": 7381,
      "କନଫରେ": 7382,
      "Cancel": 7383,
      "ଜାମ୍ମୁ": 7384,
      "ପାକିସ୍ତାନୀ": 7385,
      "ସୃଜନ": 7386,
      "ଉଦ୍ଭି": 7387,
      "ଓ୍ଵି": 7388,
      "ପାଣ୍ଡ୍ୟା": 7389,
      "ସାକ୍ଷୀ": 7390,
      "ID": 7391,
      "ଆନୁଷ୍ଠାନ": 7392,
      "ବନା": 7393,
      "ବଳୟ": 7394,
      "ଟ୍ୟୁବ": 7395,
      "ଇକୋ": 7396,
      "୨୦୦୯": 7397,
      "ବୁଥ୍": 7398,
      "ବ୍ୟାୟାମ": 7399,
      "କରାଯିବାକୁ": 7400,
      "ଆହ୍ବାନ": 7401,
      "Load": 7402,
      "ସେବାରେ": 7403,
      "ଏଡି": 7404,
      "ଜ୍ୱଳ": 7405,
      "ଆବିଷ୍": 7406,
      "ମୁଖ୍ୟମନ୍ତ୍ରୀଙ୍କୁ": 7407,
      "ଚ୍ଛିନ୍ନ": 7408,
      "ନେଲା": 7409,
      "ବାପ": 7410,
      "ଜରରେ": 7411,
      "ମିଳା": 7412,
      "ଦୁର୍ଭାଗ୍ୟ": 7413,
      "ରାଜନଗର": 7414,
      "ବସିଛନ୍ତି": 7415,
      "ଜୀବିତ": 7416,
      "ହୋଲି": 7417,
      "ସଞ୍ଚୟ": 7418,
      "ନେବାର": 7419,
      "ପ୍ରତିଟି": 7420,
      "ph": 7421,
      "ଗବେଷକ": 7422,
      "ଅକ୍ଷର": 7423,
      "ସାର୍ବଜନୀନ": 7424,
      "ଭାରସାମ୍ୟ": 7425,
      "ଲିଷ୍ଟ": 7426,
      "Website": 7427,
      "ପାରଳାଖେମୁଣ୍ଡି": 7428,
      "ପଳା": 7429,
      "ଚେକ୍": 7430,
      "ଫାଟି": 7431,
      "ଦେବୀଙ୍କ": 7432,
      "ଶସ୍ୟ": 7433,
      "ଟରରେ": 7434,
      "ଆନୁଷ୍ଠାନିକ": 7435,
      "କ୍ରୋଧ": 7436,
      "ଗତିବିଧି": 7437,
      "ବଢ଼ିଛି": 7438,
      "ସେକ୍ଟର": 7439,
      "ସେବେ": 7440,
      "ବିଶ୍ରାମ": 7441,
      "ଲଦା": 7442,
      "ଲ୍ଲି": 7443,
      "ରହିଥିବାବେଳେ": 7444,
      "ଇତିମଧ୍ୟରେ": 7445,
      "ଶୁଦ୍ଧ": 7446,
      "ଜିତେନ୍ଦ୍ର": 7447,
      "ସୂଚୀ": 7448,
      "ଅଚଳ": 7449,
      "ସାମନାକୁ": 7450,
      "ସ୍ଥାନର": 7451,
      "ଖୁସିରେ": 7452,
      "ଟଙ୍କାକୁ": 7453,
      "part": 7454,
      "ଏମ୍ସ": 7455,
      "ଭବାନୀପାଟଣା": 7456,
      "ମହାନ୍ତିଙ୍କ": 7457,
      "Polic": 7458,
      "ସଡକ": 7459,
      "ସମ୍ଭାଳି": 7460,
      "ସଂକଟ": 7461,
      "ଅଦାଲ": 7462,
      "ସୁବିଧାରେ": 7463,
      "ପୂଜାର୍ଚ୍ଚ": 7464,
      "ବସ୍ତା": 7465,
      "ଆଇନଗତ": 7466,
      "ପ୍ରଦତ୍ତ": 7467,
      "29,": 7468,
      "ବସବାସ": 7469,
      "ଉପଭୋକ୍ତା": 7470,
      "ବୁଡି": 7471,
      "ଖେଳାଳିଙ୍କୁ": 7472,
      "ହନୁମାନ": 7473,
      "published": 7474,
      "ୋନ୍ନ": 7475,
      "ମାଳି": 7476,
      "ଏହାସହିତ": 7477,
      "ମହୋତ୍ସବ": 7478,
      "ନିର୍ଦ୍ଦେଶନା": 7479,
      "ସମସ୍ତଙ୍କର": 7480,
      "ଗହଣା": 7481,
      "ଅଭିଷେକ": 7482,
      "ଦିବା": 7483,
      "ପିକ": 7484,
      "ଆତ୍ମା": 7485,
      "ସମାନଙ୍କ": 7486,
      "ଉତ୍ତରରେ": 7487,
      "ମନୋଭାବ": 7488,
      "କ୍ଷିକ": 7489,
      "ବୈଧ": 7490,
      "ଗୋଟାଏ": 7491,
      "ପିଂ": 7492,
      "ଲାନି": 7493,
      "ଦୃଷ୍ଟିକୋଣ": 7494,
      "year": 7495,
      "ସ୍ଥ୍ୟାବସ୍ଥା": 7496,
      "ସାଢେ": 7497,
      "କହିଥିଲା": 7498,
      "ES": 7499,
      "ଅବଶିଷ୍ଟ": 7500,
      "ବାବୁଙ୍କ": 7501,
      "2)": 7502,
      "ସମାନେେ": 7503,
      "ମାଧ୍ୟମିକ": 7504,
      "କେନାଲ": 7505,
      "ୟୁନିଟ": 7506,
      "ଲିଟି": 7507,
      "ପଦୋନ୍ନ": 7508,
      "ହଇରା": 7509,
      "ରାଜୁ": 7510,
      "ଗ୍ୟାଙ୍ଗ": 7511,
      "ପହଣ୍ଡି": 7512,
      "ପହଞ୍ଚିଥିଲା": 7513,
      "ଇଣ୍ଟେ": 7514,
      "ରନର": 7515,
      "ଖତ": 7516,
      "ଅପରାଜିତ": 7517,
      "ବିଏସ": 7518,
      "ନିଃ": 7519,
      "ଷାର": 7520,
      "ବେଦୀ": 7521,
      "ବିହାରର": 7522,
      "ବିମାନରେ": 7523,
      "ବାସୁଦେବ": 7524,
      "ଚିନ୍ତାର": 7525,
      "ତୀର୍ଥ": 7526,
      "ରକ୍ଷଣା": 7527,
      "ରଖ": 7528,
      "ସେସବୁ": 7529,
      "following": 7530,
      "ସତ୍ୟପାଠ": 7531,
      "ହରିୟାଣା": 7532,
      "ହୋଇଯାଇଛନ୍ତି": 7533,
      "ଅଟଳ": 7534,
      "ବେହେରାଙ୍କ": 7535,
      "କନେ": 7536,
      "Ad": 7537,
      "କାର୍ଯ୍ୟକାଳ": 7538,
      "ଦୌଡ଼ି": 7539,
      "ଶତପଥୀ": 7540,
      "iss": 7541,
      "ଜେନ୍ସ": 7542,
      "କରୁଥିବାବେଳେ": 7543,
      "ବାସଭବନ": 7544,
      "ଲରୁ": 7545,
      "tr": 7546,
      "ଷେ": 7547,
      "ଗ୍ରାମାଞ୍ଚଳ": 7548,
      "ଆମା": 7549,
      "ମସଲା": 7550,
      "ସସ୍": 7551,
      "କୃତଜ୍ଞ": 7552,
      "ଦର୍ଶାଯାଇଛି": 7553,
      "କିଣିବାକୁ": 7554,
      "ଡର୍": 7555,
      "ସୁବାସ": 7556,
      "ପୁନରୁଦ୍ଧାର": 7557,
      "ସୁନ୍ଦ": 7558,
      "ରେଟ୍": 7559,
      "ବାଙ୍ଗା": 7560,
      "mins": 7561,
      "କାକୁ": 7562,
      "ବୈଶା": 7563,
      "ବଢ଼ିବା": 7564,
      "ବିଗି": 7565,
      "ଉଦ୍ଧବ": 7566,
      "Fro": 7567,
      "100": 7568,
      "ଇଞ୍ଜିନିୟରିଂ": 7569,
      "ଗନ": 7570,
      "ମାଡି": 7571,
      "ଜିଲ୍ଲାପାଳଙ୍କୁ": 7572,
      "ତତ୍ପର": 7573,
      "ସ୍ତମ୍ଭ": 7574,
      "ପକ୍କା": 7575,
      "ୟର୍": 7576,
      "ଇଲେକ୍ଟ୍ରେ": 7577,
      "ହଟି": 7578,
      "କୁଣ୍ଡ": 7579,
      "ରନରେ": 7580,
      "ମହାନ୍ତ": 7581,
      "ଗୁଇନ୍ଦା": 7582,
      "ଡ୍ଡା": 7583,
      "ପ୍ରିମି": 7584,
      "କୋଭା": 7585,
      "ଅର୍ଡର": 7586,
      "ଲଗାଣ": 7587,
      "ଜିଆ": 7588,
      "ସତ୍ତ୍": 7589,
      "ନିତି": 7590,
      "ଫେରିଥିଲେ": 7591,
      "Froala": 7592,
      "ସିଦ୍ଧାର୍ଥ": 7593,
      "ଏବେବି": 7594,
      "(@": 7595,
      "ନରୁ": 7596,
      "27,": 7597,
      "ସିଦ୍ଧା": 7598,
      "ult": 7599,
      "Rec": 7600,
      "ଥାନ୍ତେ": 7601,
      "ଲୋଡ୍": 7602,
      "ବରଫ": 7603,
      "ଦେବେନ୍ଦ୍ର": 7604,
      "ଝଡ଼": 7605,
      "ଡବ୍ଲ୍ୟୁ": 7606,
      "କଟକର": 7607,
      "ବିଶାଖା": 7608,
      "love": 7609,
      "ଆନ୍ତର୍ଜାତୀୟ": 7610,
      "ସାମଗ୍ରିକ": 7611,
      "ସ୍ୱି": 7612,
      "ଦ୍ଦା": 7613,
      "ମଙ୍କ": 7614,
      "ହ୍ୱା": 7615,
      "ଶିଶୁଙ୍କ": 7616,
      "ସୁଦର୍ଶନ": 7617,
      "ଜଳସ୍ତର": 7618,
      "କୁମାରୀ": 7619,
      "ଅସ୍ତ୍": 7620,
      "ଇନଷ୍ଟିଚ୍ୟୁ": 7621,
      "ସମାନଙ୍କେ": 7622,
      "ନେବାରେ": 7623,
      "ପର୍ଯ୍ୟଟ": 7624,
      "ଲୋକା": 7625,
      "ଭଦ୍ରା": 7626,
      "ଘଂଟା": 7627,
      "ପାରିଛି": 7628,
      "ପରିବର୍ତ୍ତନର": 7629,
      "ପୂଜାର୍ଚ୍ଚନା": 7630,
      "ବେଳ": 7631,
      "ନିଅ": 7632,
      "ଅନୁରୂପ": 7633,
      "କଏଦୀ": 7634,
      "ୟଲ": 7635,
      "ଇଥାନ": 7636,
      "ଡାଲି": 7637,
      "ଚିଠିରେ": 7638,
      "ମ୍ୟାନ": 7639,
      "ଲଢି": 7640,
      "ସେକ୍": 7641,
      "ଅଣଦେଖା": 7642,
      "ଦେବାରୁ": 7643,
      "ପୂର୍ଣ୍ଣିମା": 7644,
      "ଓପ": 7645,
      "ପଡ଼ିଲେ": 7646,
      "iven": 7647,
      "acy": 7648,
      "ଶିକ୍ଷାଦାନ": 7649,
      "ଇନ୍ଦ୍ର": 7650,
      "ନମେଣ୍ଟ": 7651,
      "ଳେଶ୍ୱର": 7652,
      "ଘୋଷିତ": 7653,
      "ପ୍ରବଣ": 7654,
      "ସ୍ୱାମୀଙ୍କ": 7655,
      "**": 7656,
      "ପଡେ": 7657,
      "ନିହତ": 7658,
      "reply": 7659,
      "ଲକ୍ଷ୍ମଣ": 7660,
      "ପ୍ରଶାସନକୁ": 7661,
      "ଅଯୋ": 7662,
      "ଥିଲାଗି": 7663,
      "ହସ୍ପିଟାଲକୁ": 7664,
      "ତାଇ": 7665,
      "ଡେପୁଟି": 7666,
      "ସଚିନ": 7667,
      "ପ୍ରୋଜେ": 7668,
      "ସମାରୋହରେ": 7669,
      "ଘଟଣାସ୍ଥଳରୁ": 7670,
      "ics": 7671,
      "interest": 7672,
      "IC": 7673,
      "ପଦର": 7674,
      "ଆପେ": 7675,
      "ଅସମ୍ଭବ": 7676,
      "ପଦ୍ମଶ୍ରୀ": 7677,
      "ଷ୍ଟାଡିୟମ": 7678,
      "ରୋଡ୍": 7679,
      "ଏମିତିକି": 7680,
      "ଅରେ": 7681,
      "ଖୁଲା": 7682,
      "ବିକାଶର": 7683,
      "ମନ୍ଦିରକୁ": 7684,
      "ଡିସି": 7685,
      "ଯେଭଳି": 7686,
      "କୁଳପତି": 7687,
      "ଉଦ୍ଭିଦ": 7688,
      "କ୍ଷତ୍ର": 7689,
      "ଟାଲ୍": 7690,
      "ହାଇକୋର୍ଟଙ୍କ": 7691,
      "Subs": 7692,
      "old": 7693,
      "ରୀତି": 7694,
      "ପେଟରେ": 7695,
      "ଆଧ୍ୟାତ୍ମିକ": 7696,
      "ଟେଣ୍ଡର": 7697,
      "ସେଠି": 7698,
      "ଯୋଗଦେଇଥିଲେ": 7699,
      "ଖରି": 7700,
      "ଖ୍ରୀଷ୍ଟମାସ୍": 7701,
      "ଖୁଣ୍ଟ": 7702,
      "An": 7703,
      "ଗୋପାଳପୁର": 7704,
      "ରାଜସ୍ବ": 7705,
      "ପ୍ରଶ୍ନବା": 7706,
      "ପ୍ରଶାସକ": 7707,
      "ନୃ": 7708,
      "ସ୍ଥଳେ": 7709,
      "ଦେବତା": 7710,
      "ନିଜସ୍ୱ": 7711,
      "ହଇରାଣ": 7712,
      "ବେଦନା": 7713,
      "ସଂସଦର": 7714,
      "ଓଲିଉ": 7715,
      "ମାୟା": 7716,
      "ଅସ୍ତ୍ରଶସ୍ତ୍ର": 7717,
      "ସମୃଦ୍ଧି": 7718,
      "ରାଉଣ୍ଡ": 7719,
      "ବର୍ଜ୍ୟ": 7720,
      "ଥାଇପାରେ": 7721,
      "ଏଡ୍": 7722,
      "ପାଇଥାଏ": 7723,
      "ମନର": 7724,
      "ଙ୍ଗେ": 7725,
      "ଗ୍ରାମବାସୀଙ୍କ": 7726,
      "echn": 7727,
      "ପଠାଯାଇଛି": 7728,
      "ଉତର": 7729,
      "ଏକ୍ସପ୍ରେସ": 7730,
      "ସତ୍ତ୍ବେ": 7731,
      "ଦ୍ୱାଦଶ": 7732,
      "ବ୍ୟବଧାନରେ": 7733,
      "ଲାଗିବା": 7734,
      "ଅନୁଭୂତ": 7735,
      "ଚମ": 7736,
      "-19": 7737,
      "ଣ୍ଡିଂ": 7738,
      "ବୁର୍ଲା": 7739,
      "ପଂଚାୟତର": 7740,
      "have": 7741,
      "ଜଲ": 7742,
      "ପୋତି": 7743,
      "ଡ଼ାର": 7744,
      "ଦିଅ": 7745,
      "ାର୍ଥି": 7746,
      "ଇଣ୍ଡିଆନ": 7747,
      "ପମ୍ପ": 7748,
      "ଭିଡିଓକୁ": 7749,
      "ନାକ": 7750,
      "ପଡ଼େ": 7751,
      "ଶ୍ମ": 7752,
      "ଖଣ୍ଡନ": 7753,
      "ହ୍ନରେ": 7754,
      "ରୋପଚାର": 7755,
      "ରାଜଧାନୀର": 7756,
      "ମନ୍ତ୍ରଣାଳୟର": 7757,
      "ଫାଇନାଲ୍": 7758,
      "ମଞ୍ଜୁର": 7759,
      "ସବୁଦିନ": 7760,
      "ଧାରଣାରେ": 7761,
      "ଭାରତୀ": 7762,
      "ବିସ୍ଫୋରକ": 7763,
      "ଦଣ୍ଡା": 7764,
      "ବର୍ଷକୁ": 7765,
      "ମେଡିକାଲ୍": 7766,
      "ଲମ୍ବ": 7767,
      "ଚକିତ": 7768,
      "ବ୍ୟାଟେ": 7769,
      "ign": 7770,
      "ସାହିର": 7771,
      "କୀଟ": 7772,
      "ଶାଶୁ": 7773,
      "ରମା": 7774,
      "ଏଥିପ୍ରତି": 7775,
      "ପିଏମ": 7776,
      "ଅସ୍ତ୍ରୋପଚାର": 7777,
      "ସ୍ବାଇଁ": 7778,
      "ଡିଗ୍ରି": 7779,
      "ired": 7780,
      "ହେଉନାହିଁ": 7781,
      "ଦାଦା": 7782,
      "ପକାଇବା": 7783,
      "Loc": 7784,
      "ଚଳାଇବା": 7785,
      "ଗାରେ": 7786,
      "ମହାପାତ୍ରଙ୍କ": 7787,
      "ମସିହାରୁ": 7788,
      "କୁମ୍ଭୀର": 7789,
      "ବିଦେଶରେ": 7790,
      "ପ୍ରଣବ": 7791,
      "ଅଗ୍ରୱାଲ": 7792,
      "ଦାମୀ": 7793,
      "Reply": 7794,
      "ଦଳିତ": 7795,
      "ଡେଲି": 7796,
      "ରିଲାଏନ୍ସ": 7797,
      "ଜାଲ": 7798,
      "ମୁଖ୍ୟା": 7799,
      "ash": 7800,
      "କରାତ୍ମକ": 7801,
      "କଡି": 7802,
      "ଦ୍ୱାରସ୍ଥ": 7803,
      "ସିସ୍": 7804,
      "୧୦୦୦": 7805,
      "ଦିନକ": 7806,
      "ah": 7807,
      "ପୃଷ୍ଟି": 7808,
      "ob": 7809,
      "କୋର୍ଟଙ୍କ": 7810,
      "ଜଣକୁ": 7811,
      "ସିନ୍ଧୁ": 7812,
      "ବାହିକ": 7813,
      "ଲକ": 7814,
      "ong": 7815,
      "ଅଡି": 7816,
      "ନାଇଟ୍": 7817,
      "ଜନ୍ମଦିନ": 7818,
      "ପିକ୍": 7819,
      "କାରିଣୀ": 7820,
      "ହାଉସ": 7821,
      "ବ୍ୟକ୍ତିମାନେ": 7822,
      "ଟ୍ରାଫିକ୍": 7823,
      "||": 7824,
      "ବିବାହିତ": 7825,
      "ruary": 7826,
      "ସଂପ୍ରତି": 7827,
      "ଅଶୋ": 7828,
      "ଭୟା": 7829,
      "୨୫୦": 7830,
      "ବିକା": 7831,
      "ମଶା": 7832,
      "erved": 7833,
      "ପର୍ବତ": 7834,
      "ମତ୍ସ୍ୟଜୀବୀ": 7835,
      "ଅମ୍ଳଜାନ": 7836,
      "ଦାୟର": 7837,
      "ବିନ": 7838,
      "ଛାତ": 7839,
      "ଶିକ୍ଷିତ": 7840,
      "ଛାଡ": 7841,
      "February": 7842,
      "anak": 7843,
      "ପରାମର୍ଶଦାତା": 7844,
      "ଆନ୍ଦୋଳନକୁ": 7845,
      "60": 7846,
      "କ୍ଲବ": 7847,
      "କମରେ": 7848,
      "ଇନ୍ସପେକ୍ଟର": 7849,
      "ରାତ୍ର": 7850,
      "ଅନ୍ୟମାନେ": 7851,
      "ଟେଷ୍ଟରେ": 7852,
      "ପୂର୍ବାହ୍ନ": 7853,
      "ଜ୍ୱର": 7854,
      "ମାଲା": 7855,
      "ଫେରୁଥିବା": 7856,
      "ମାର୍କେଟ": 7857,
      "ଗ୍ରାମୀଣ": 7858,
      "ହିମାଚଳ": 7859,
      "କ୍ଷେତ୍ରକୁ": 7860,
      "You": 7861,
      "ତାରୁ": 7862,
      "AT": 7863,
      "ପ୍ରତିମୂର୍ତ୍ତି": 7864,
      "ରଖିଲେ": 7865,
      "ସ୍ବାଭାବିକ": 7866,
      "ବାଙ୍ଗାଲୋର": 7867,
      "ଯାତାୟା": 7868,
      "man": 7869,
      "ମଞ୍ଜୁରୀ": 7870,
      "ରାସନ": 7871,
      "ବିଏସ୍": 7872,
      "ସାରିଲାଣି": 7873,
      "ଜିଏସଟି": 7874,
      "ବର୍ଷାର": 7875,
      "ସାହସ": 7876,
      "କୋବିନ୍ଦ": 7877,
      "ତୁଷାର": 7878,
      "ପରମେଶ୍ବର": 7879,
      "ସିଦ୍ଧାନ୍ତ": 7880,
      "ବିବୃତ୍ତି": 7881,
      "ଯ଼": 7882,
      "ଫଣ୍ଡ": 7883,
      "ଆଜିଠୁ": 7884,
      "Oct": 7885,
      "ପର୍ୟ୍ୟନ୍ତ": 7886,
      "ପ୍ରତିବାଦରେ": 7887,
      "ସଂସଦୀୟ": 7888,
      "cess": 7889,
      "ଡକୁ": 7890,
      "ରୁହନ୍ତି": 7891,
      "ତ୍ୱରାନ୍ୱିତ": 7892,
      "ଡାରୁ": 7893,
      "ଉତ୍ସର୍": 7894,
      "ରୁଷିଆ": 7895,
      "ଶ୍ରମିକଙ୍କ": 7896,
      "ଭୂମିରେ": 7897,
      "ଚଳଚ୍ଚିତ୍ରରେ": 7898,
      "ସୁପ୍ରିମ୍": 7899,
      "କରିଦେଲେ": 7900,
      "ନାଶ": 7901,
      "ପୋର୍ଟାଲ": 7902,
      "ଖାଇଲେ": 7903,
      "ରିଲିଫ": 7904,
      "ପ୍ରଶ୍ନବାଚୀ": 7905,
      "ଯେଉଁମାନଙ୍କର": 7906,
      "ବିନାଶ": 7907,
      "ଆତଙ୍କବାଦୀଙ୍କ": 7908,
      "ଗୌତମ": 7909,
      "କୃଷ": 7910,
      "ଧର୍ମଶାଳା": 7911,
      "ଗୁଜୁରାଟ": 7912,
      "ମାଇଲ": 7913,
      "ପରିବର୍ତନ": 7914,
      "ଆଣିଛି": 7915,
      "ସ୍କୃତ": 7916,
      "ୋଲ": 7917,
      "ୟୁଏଇ": 7918,
      "ଶୋଷଣ": 7919,
      "ସାକ୍ଷାତକାର": 7920,
      "With": 7921,
      "ଆକର୍ଷିତ": 7922,
      "ual": 7923,
      "ଅଲ୍ଲୀ": 7924,
      "ଇସ୍ପାତ": 7925,
      "ବିଶ୍ବର": 7926,
      "Samaja": 7927,
      "ପଦୋନ୍ନତି": 7928,
      "ଖେଳିଥିଲେ": 7929,
      "ସ୍କ୍": 7930,
      "ଇଣ୍ଡିଆନ୍": 7931,
      "ମହାନି": 7932,
      "ks": 7933,
      "ନବମ": 7934,
      "ବ୍ଳକ": 7935,
      "ନିର୍ବାଚନର": 7936,
      "କାନ୍ଧ": 7937,
      "ମୁକେଶ": 7938,
      "ଫର୍ମା": 7939,
      "ସାୟନିକ": 7940,
      "ନିଆଁକୁ": 7941,
      "କ୍କର": 7942,
      "ଦୁଇଦିନ": 7943,
      "ଆୟକର": 7944,
      "ଉପଜିଲ୍ଲାପାଳ": 7945,
      "୧୪୪": 7946,
      "ସନ୍ଦି": 7947,
      "ଜ୍ୟୋତିଷ": 7948,
      "ବ୍ୟକ୍ତିତ୍ୱ": 7949,
      "ଜର୍ମାନୀ": 7950,
      "ଆର୍ଟିଫି": 7951,
      "ହେମନ୍ତ": 7952,
      "ମୁଲତ": 7953,
      "ବିଦାୟ": 7954,
      "ବର୍ଷାରେ": 7955,
      "ବୁଲା": 7956,
      "ଟ୍ୟୁ": 7957,
      "ଉପସ୍ଥିତି": 7958,
      "ଫିଟ୍": 7959,
      "ଜୀବନଶୈଳୀ": 7960,
      "ଶାଳ": 7961,
      "ଫେସ୍": 7962,
      "ଗଭର୍ଣ୍ଣ": 7963,
      "but": 7964,
      "ାବ": 7965,
      "ସ୍ୱାଦ": 7966,
      "ରହେ": 7967,
      "ନେଗେ": 7968,
      "ମିନିଟରେ": 7969,
      "mon": 7970,
      "ହ୍ର": 7971,
      "ର୍ଣ୍ଣି": 7972,
      "ଭିମାନ": 7973,
      "ଟମାଟୋ": 7974,
      "ଗେମ୍": 7975,
      "ଚ୍ୟୁତ": 7976,
      "ood": 7977,
      "Previous": 7978,
      "କାମୁ": 7979,
      "ଦିବ୍ୟଶଙ୍କର": 7980,
      "ଦେଶରୁ": 7981,
      "କହିବାନୁ": 7982,
      "ideo": 7983,
      "ଭେଟ": 7984,
      "ପୃଥକ": 7985,
      "ରିସର୍ଚ୍ଚ": 7986,
      "ଆପଣା": 7987,
      "ରାଷ୍ଟ୍ରମନ୍ତ୍ରୀ": 7988,
      "ଚାହୁଁଥିଲେ": 7989,
      "ଏକ୍": 7990,
      "ବିଷାକ୍ତ": 7991,
      "ମହତ୍ୱ": 7992,
      "ବଲିଉଡର": 7993,
      "Un": 7994,
      "ତୀଶ": 7995,
      "ସଂସ୍କୃତିର": 7996,
      "ସେଟ୍": 7997,
      "Child": 7998,
      "ଅବତରଣ": 7999,
      "ଉତ୍ତରପ୍ରଦେଶର": 8000,
      "ସୁପାରିଶ": 8001,
      "୨୦୧୦": 8002,
      "ବକେ": 8003,
      "ମଦ୍ୟ": 8004,
      "ଉଠୁଛି": 8005,
      "ଫାଇଲ": 8006,
      "ପଡ଼ିବା": 8007,
      "ଦୀର୍ଘଦିନ": 8008,
      "ଆଗତ": 8009,
      "ଆଇସୋ": 8010,
      "ନିଷ୍ପତ୍ତିକୁ": 8011,
      "ଶିକ୍ଷକଙ୍କ": 8012,
      "ପ୍ରକ୍ରିୟାକରଣ": 8013,
      "ସହରକୁ": 8014,
      "ating": 8015,
      "ରେଡ": 8016,
      "Follow": 8017,
      "ଯାଆନ୍ତୁ": 8018,
      "ଟିଟିଲା": 8019,
      "ପଡିଥାଏ": 8020,
      "ବିଧାନସଭାର": 8021,
      "ତ୍ୱଚା": 8022,
      "ସ୍ୱାସ୍ଥ୍ୟସେବା": 8023,
      "କେସନ": 8024,
      "ବାହ୍ୟ": 8025,
      "ପଞ୍ଜାବର": 8026,
      "ser": 8027,
      "ପହଞ୍ଚିଛନ୍ତି": 8028,
      "ନିର୍ବାଚନକୁ": 8029,
      "aily": 8030,
      "ନପାରି": 8031,
      "ବ୍ୟତି": 8032,
      "ମହାମାରୀର": 8033,
      "ବାଳକ": 8034,
      "ହାଲୁକା": 8035,
      "ସେନ୍": 8036,
      "ଶିଆ": 8037,
      "ଶିଶୁର": 8038,
      "ଅପରେସନ୍": 8039,
      "କେଶରୀ": 8040,
      "ରୌପ୍ୟ": 8041,
      "ile": 8042,
      "ଆଶାୟୀ": 8043,
      "AN": 8044,
      "ଖଣିଜ": 8045,
      "ଇସ୍ରା": 8046,
      "ହର୍": 8047,
      "ପାର୍କିଂ": 8048,
      "ଚେରୀ": 8049,
      "କୋହଲିଙ୍କ": 8050,
      "ହୀରାକୁଦ": 8051,
      "ଆଦିତ୍ୟନାଥ": 8052,
      "ବଳା": 8053,
      "ଚିର": 8054,
      "ପଶ୍ଚିମବଙ୍ଗର": 8055,
      "ପାର୍ଥକ୍ୟ": 8056,
      "ଦାବିପତ୍ର": 8057,
      "ସୁଶାନ୍ତଙ୍କ": 8058,
      "ବକ୍ସ": 8059,
      "ଡିସ": 8060,
      "ib": 8061,
      "ମେରୁ": 8062,
      "ଓଲଟି": 8063,
      "ବିହାରରେ": 8064,
      "ଦେବଗଡ": 8065,
      "ଚାପରେ": 8066,
      "କର୍ତ୍ତୃପକ୍ଷଙ୍କ": 8067,
      "କ୍ଷତ": 8068,
      "ସିକ୍": 8069,
      "ପଡିଥିଲେ": 8070,
      "ାରଣ୍ୟ": 8071,
      "ଂଚଳ": 8072,
      "ବୋହି": 8073,
      "ବାଧାପ୍ରାପ୍ତ": 8074,
      "ଶିଳ୍ପା": 8075,
      "ଜିର": 8076,
      "କାର୍ଯ୍ୟନିର୍ବାହୀ": 8077,
      "ଶ୍ରୀରାମ": 8078,
      "ପୁରରୁ": 8079,
      "ହାର୍ଦ୍ଦିକ": 8080,
      "ପରମାଣୁ": 8081,
      "ଦେଇଥାନ୍ତି": 8082,
      "ଟେକ": 8083,
      "ଆଲୋଚନାରେ": 8084,
      "ରିମାଣ୍ଡରେ": 8085,
      "ମଲା": 8086,
      "ଗ୍ରୁପ": 8087,
      "ଯାଇଥିବାରୁ": 8088,
      "ଟସ": 8089,
      "ଡିଜାଇନ୍": 8090,
      "ଇନିଂସ": 8091,
      "ଅଶ୍ୱିନୀ": 8092,
      "ବେେ": 8093,
      "ପହଞ୍ଚାଇ": 8094,
      "ରୁଖ": 8095,
      "ସମ୍ପାଦ": 8096,
      "ରାଣା": 8097,
      "ବସା": 8098,
      "ବାସଭବନରେ": 8099,
      "ପୁରସ୍କୃତ": 8100,
      "ଚାଳିତ": 8101,
      "ଦାମ୍ପ": 8102,
      "ବସିଥିଲେ": 8103,
      "igital": 8104,
      "ଫୋନରେ": 8105,
      "ଜାନୁଆରି": 8106,
      "ପରିବର୍ତ୍ତି": 8107,
      "ନୋଟ୍": 8108,
      "ଭୋଗି": 8109,
      "ଜନସାଧାରଣଙ୍କୁ": 8110,
      "ବକେୟା": 8111,
      "ପିନ୍ଧ": 8112,
      "ଗାଡ଼ିରେ": 8113,
      "ଆକ୍ଟିଭ୍": 8114,
      "ମଧ୍ୟକୁ": 8115,
      "ମୁସଲମାନ": 8116,
      "ମ୍ରା": 8117,
      "ଥୋ": 8118,
      "ଅଭୟାରଣ୍ୟ": 8119,
      "ଖଣ୍ଡଗିରି": 8120,
      "ହର୍ଷ": 8121,
      "ବୋର୍": 8122,
      "ବସୁ": 8123,
      "ଭାଲୁ": 8124,
      "ମେଳ": 8125,
      "ବର୍ତୀ": 8126,
      "ନରସିଂହ": 8127,
      "ଅପରାହ୍ଣ": 8128,
      "ସମାଜବାଦୀ": 8129,
      "ବିବାହର": 8130,
      "ବୁଦ୍ଧ": 8131,
      "arn": 8132,
      "ଅପରାଜିତା": 8133,
      "ନାଳ": 8134,
      "କ୍ୟାବିନେଟ୍": 8135,
      "ରାପି": 8136,
      "ଟ୍ରଷ୍ଟ": 8137,
      "ଛୋ": 8138,
      "ହିତାଧିକାରୀଙ୍କୁ": 8139,
      "ଏଯାଏ": 8140,
      "9,": 8141,
      "ଦାମ୍ପତ୍ୟ": 8142,
      "ଲେଙ୍କା": 8143,
      "ଉଠାଇବା": 8144,
      "ବିନୋଦ": 8145,
      "ତଥ୍ୟକୁ": 8146,
      "ଦଳରୁ": 8147,
      "କ୍ସିନ": 8148,
      "ୟୁରୋପୀୟ": 8149,
      "ମିଶା": 8150,
      "ଶ୍ରୀମନ୍ଦିରରେ": 8151,
      "fer": 8152,
      "ଓହରି": 8153,
      "ଅନ୍ଧାର": 8154,
      "ଅବଦୁ": 8155,
      "ଭଜନ": 8156,
      "ରାୱ": 8157,
      "ଅଶାନ୍ତି": 8158,
      "ଟିକିଏ": 8159,
      "କ୍ଷମତାକୁ": 8160,
      "ଅଧିବେଶନରେ": 8161,
      "ଅନିୟମିତ": 8162,
      "ଠାକରେ": 8163,
      "ସମ୍ବୋ": 8164,
      "ସରିବା": 8165,
      "ଭଙ୍ଗାରୁ": 8166,
      "ନିଗ": 8167,
      "କମୁ": 8168,
      "ହ୍ନା": 8169,
      "ବହିଷ୍କାର": 8170,
      "ଜବାବରେ": 8171,
      "ବଙ୍ଗୋପସାଗରରେ": 8172,
      "ନବୀ": 8173,
      "ଜୋର୍": 8174,
      "ଫୁଟେ": 8175,
      "ଇଭେ": 8176,
      "ଉଡ": 8177,
      "ସମ୍ବର୍ଦ୍ଧ": 8178,
      "ଆଇନକୁ": 8179,
      "ଜାଲରେ": 8180,
      "ଚଞ୍ଚଳ": 8181,
      "ଙ୍ଘ": 8182,
      "quired": 8183,
      "ଅନିଲ": 8184,
      "80": 8185,
      "ମୁର": 8186,
      "ସଙ୍ଗରୋଧ": 8187,
      "ଶିଂ": 8188,
      "ରାଜପୁ": 8189,
      "ଆୟତ୍ତ": 8190,
      "ଦୋକାନରେ": 8191,
      "ପ୍ରଭୃତି": 8192,
      "କ୍ୟାନ": 8193,
      "ଡେରା": 8194,
      "ty": 8195,
      "ଲିୟମ": 8196,
      "twitter": 8197,
      "ଷ୍ଟାର୍ଟ": 8198,
      "ସାଙ୍ଗମାନଙ୍କ": 8199,
      "ପରିବର୍ତ୍ତିତ": 8200,
      "ଯଜ୍ଞ": 8201,
      "ଜାଣିଲେ": 8202,
      "କୁହାଯାଉଥିବା": 8203,
      "ଓର": 8204,
      "ରାଜନାଥ": 8205,
      "ପ୍ରଚଳ": 8206,
      "ଗାଇଡଲାଇନ": 8207,
      "Local": 8208,
      "ବାନ୍ଧ": 8209,
      "ସେଠାକୁ": 8210,
      "ଯାତ୍ରାର": 8211,
      "ବୁଦ୍ଧିଜୀବୀ": 8212,
      "ଡାହାଣ": 8213,
      "ଅନୁଷ୍ଠାନର": 8214,
      "This": 8215,
      "loc": 8216,
      "ଆସୁଥିଲା": 8217,
      "ରିରେ": 8218,
      "ateg": 8219,
      "କଂଗ୍ରେସକୁ": 8220,
      "ପରାଜିତ": 8221,
      "ଶ୍ରୀଲଙ୍କ": 8222,
      "ରୁଷ୍": 8223,
      "ବଡି": 8224,
      "ଛାତ୍ରଙ୍କ": 8225,
      "ଭିଟାମିନ୍": 8226,
      "ସୁପ୍ରିମକୋର୍ଟରେ": 8227,
      "ନିଷ୍କାସନ": 8228,
      "ପ୍ରଜାତିର": 8229,
      "ଗୋପନୀୟ": 8230,
      "ଗୁଜୁରା": 8231,
      "ପୋକ": 8232,
      "ବ୍ରିଟେନ": 8233,
      "oll": 8234,
      "ପଦରେ": 8235,
      "ନେଇପାରିବେ": 8236,
      "ପାଇପ": 8237,
      "ପ୍ରତିଶତରୁ": 8238,
      "ଧୈ": 8239,
      "ବିଶ୍ୱକପ": 8240,
      "ଆଗ୍ରହୀ": 8241,
      "ସମୂହ": 8242,
      "ଉଡି": 8243,
      "ନଜରରେ": 8244,
      "ଆର୍ଟିଫିସିଆଲ": 8245,
      "ଥାନାର": 8246,
      "ଛେଳି": 8247,
      "ଗୋଆ": 8248,
      "ସେଲିବ୍ରିଟି": 8249,
      "କମେଣ୍ଟ": 8250,
      "ବିଶେଷଜ୍ଞମାନେ": 8251,
      "Pinterest": 8252,
      "ଚମକ": 8253,
      "ବିଗ୍": 8254,
      "ରକ୍ଷଣାବେକ୍ଷଣ": 8255,
      "Bre": 8256,
      "ତଟ": 8257,
      "ନେସ୍": 8258,
      "ସମନ୍ୱ": 8259,
      "ଛିଡା": 8260,
      "Tagged": 8261,
      "fields": 8262,
      "ସ୍ବାଗତ": 8263,
      "ପାରିତ": 8264,
      "ଚାହା": 8265,
      "ପ୍ରଭାବୀ": 8266,
      "ଜାନୁୟାରୀ": 8267,
      "ଖେଳିବାକୁ": 8268,
      "ଏଯାଏଁ": 8269,
      "ଚାଲିବା": 8270,
      "ଷଡ଼ଯନ୍ତ୍ର": 8271,
      "ଭାଙ୍ଗିବା": 8272,
      "ପ୍ରଧାନଙ୍କ": 8273,
      "ଚୋପ୍ରା": 8274,
      "ଭରା": 8275,
      "ଭଙ୍ଗାରୁଜା": 8276,
      "ପଡିଲେ": 8277,
      "ପାଇବାର": 8278,
      "କ୍ଲାସ": 8279,
      ".):": 8280,
      "ୟୋଗରେ": 8281,
      "Spread": 8282,
      "ମୁଦ୍ର": 8283,
      "ଲାଗିଛନ୍ତି": 8284,
      "ଦର୍ଶାଇଛନ୍ତି": 8285,
      "ଷଡ଼ଙ୍ଗୀ": 8286,
      "ଲଗାନ୍ତୁ": 8287,
      "ପୁର୍ଣ୍ଣ": 8288,
      "ତାତି": 8289,
      "ଲାଇଟ": 8290,
      "ଭାଷାର": 8291,
      "ଚିତ୍ତ": 8292,
      "ପିଏଫ": 8293,
      "sent": 8294,
      "ଉପଲକ୍ଷେ": 8295,
      "ଡେଭଲ": 8296,
      "ଶୌଚା": 8297,
      "ଖଣ୍ଡି": 8298,
      "ଡେଙ୍ଗୁ": 8299,
      "ନାଗରିକଙ୍କ": 8300,
      "ives": 8301,
      "ମଣ୍ଡଳରେ": 8302,
      "ଦୂତ": 8303,
      "ଯୁକ୍ତରାଷ୍ଟ୍ର": 8304,
      "ରାଜସ୍ଥାନର": 8305,
      "ମଲିକ": 8306,
      "ସେଠାକାର": 8307,
      "ଡ଼ିଆରେ": 8308,
      "ଟିନ": 8309,
      "ଗୃହକୁ": 8310,
      "ପଶ୍ଚିମବଙ୍ଗରେ": 8311,
      "କେସ": 8312,
      "ସହରାଞ୍ଚଳ": 8313,
      "ଗ୍ରାଉ": 8314,
      "ଗୋରି": 8315,
      "ସ୍ନେହ": 8316,
      "ନକ୍ଷତ୍ର": 8317,
      "ରଖିଥିଲା": 8318,
      "ଲୁହ": 8319,
      "ତାନ୍ତ୍ରିକ": 8320,
      "ଜୋରି": 8321,
      "ମେଡ଼ିକାଲ": 8322,
      "ଦମକ": 8323,
      "ଅଧିନରେ": 8324,
      "ep": 8325,
      "ଆବେଦ": 8326,
      "ଘଟଣାଟି": 8327,
      ");": 8328,
      "ମୂର୍": 8329,
      "ସଦୃ": 8330,
      "ବ୍ୟକ୍ତିର": 8331,
      "ଡ଼ାକ୍ତ": 8332,
      "ନିଷେ": 8333,
      "ପୁଲରୁ": 8334,
      "ସଙ୍କୁ": 8335,
      "ଜିଦ": 8336,
      "ରାୟଗଡ଼": 8337,
      "ଇଣ୍ଟେଲି": 8338,
      "ବ୍ଳ": 8339,
      "୨୦୦୮": 8340,
      "ପ୍ରଥମଥର": 8341,
      "ବିଶେଷଜ୍ଞଙ୍କ": 8342,
      "ବିବୃ": 8343,
      "ସାଲେ": 8344,
      "ମୂଲ୍ୟର": 8345,
      "ବ୍ୟାଙ୍କ୍": 8346,
      "ଖଟି": 8347,
      "ସଭ": 8348,
      "ଅପରପକ୍ଷେ": 8349,
      "ଶର୍ମାଙ୍କ": 8350,
      "ସାଲ": 8351,
      "ଶିବି": 8352,
      "70": 8353,
      "ମନୀଷ": 8354,
      "ଲାଇକ": 8355,
      "ଇଭି": 8356,
      "ସମ୍ବୋଧିତ": 8357,
      "ବାହକ": 8358,
      "ମାଗିଥିଲେ": 8359,
      "ଆତଙ୍କବାଦ": 8360,
      "ରକ୍ତଚାପ": 8361,
      "ହେବନି": 8362,
      "ତରା": 8363,
      "କେଦାର": 8364,
      "more": 8365,
      "କମ୍ୟୁ": 8366,
      "ୱାର୍ଡରେ": 8367,
      "ଅତୀତରେ": 8368,
      "ରୁପା": 8369,
      "ରଚି": 8370,
      "ଗାଇଡ୍": 8371,
      "ପାଆନ୍ତି": 8372,
      "ନିର୍ଣ୍ଣ": 8373,
      "ପ୍ରତିଦ୍ୱନ୍ଦ୍ୱ": 8374,
      "ନିକଟତର": 8375,
      "ରଙ୍କ": 8376,
      "ବ୍ରାହ୍ମଣ": 8377,
      "ପୁରୁଷଙ୍କ": 8378,
      "ଭର୍ଚୁଆଲ": 8379,
      "pr": 8380,
      "ଶଙ୍ଖ": 8381,
      "ସିପ୍": 8382,
      "ଗେଟ": 8383,
      "କୋଟିର": 8384,
      "ଶୃତି": 8385,
      "ଆବର୍": 8386,
      "ମଂ": 8387,
      "ବିନ୍ଧା": 8388,
      "ପାଞ୍ଚଟି": 8389,
      "ସିଂଙ୍କ": 8390,
      "Tags": 8391,
      "ଆପଣମାନଙ୍କୁ": 8392,
      "ସ୍ତ୍ରୀଙ୍କ": 8393,
      "ପ୍ଲାନ": 8394,
      "ଉଗ୍ର": 8395,
      "ଫେଲ": 8396,
      "ସଂଗ୍ରାମୀ": 8397,
      "କରାଯିବାର": 8398,
      "ରାସାୟନିକ": 8399,
      "ୱେଷ୍ଟଇଣ୍ଡି": 8400,
      "ଦ୍ୟା": 8401,
      "ଲକଡାଉନ୍": 8402,
      "aw": 8403,
      "ଜିଏସ୍ଟି": 8404,
      "ଅତୁ": 8405,
      "ଟ୍ରୁ": 8406,
      "ପଠାଇବା": 8407,
      "ୱାଲା": 8408,
      "ମେଟ୍ରୋ": 8409,
      "ଳାପ": 8410,
      "ରଦ୍ଦ": 8411,
      "ପ୍ରକଳ୍ପକୁ": 8412,
      "ମଇଦାନ": 8413,
      "ଆକୃଷ୍ଟ": 8414,
      "ସରକାରରେ": 8415,
      "ରାତ୍ରୀ": 8416,
      "ree": 8417,
      "ଆଲୁ": 8418,
      "ୟୁରୋ": 8419,
      "ich": 8420,
      "ଭରତ": 8421,
      "ଯାତାୟତ": 8422,
      "କିଷାନ": 8423,
      "ଡିଜେ": 8424,
      "ଆବିଷ୍କାର": 8425,
      "ଜଗି": 8426,
      "ପଞ୍ଜିକରଣ": 8427,
      "ଗଛରେ": 8428,
      "ମୟୀ": 8429,
      "ରାଜନେତା": 8430,
      "ହରାଇଥିଲେ": 8431,
      "ସମ୍ବର୍ଦ୍ଧିତ": 8432,
      "ଦମକଳ": 8433,
      "ଚଳି": 8434,
      "ଅନୁବାଦ": 8435,
      "ପିତାଙ୍କ": 8436,
      "ହାନୀ": 8437,
      "ଜେନ": 8438,
      "ଅଧିନ": 8439,
      "7.": 8440,
      "ଆଡ଼େ": 8441,
      "ମ୍ପ୍": 8442,
      "ପ୍ରଜାତି": 8443,
      "ଯବାନଙ୍କ": 8444,
      "ବ୍ୟାଟ୍ସମ୍ୟାନ୍": 8445,
      "କରିବାପାଇଁ": 8446,
      "ପ୍ପା": 8447,
      "ବୋତଲ": 8448,
      "ମାଜି": 8449,
      "ସାଇଟ୍": 8450,
      "ଆଲିଆ": 8451,
      "ଦିଆଯାଉଥିବା": 8452,
      "ଦୁର୍ଘଟଣାଗ୍ରସ୍ତ": 8453,
      "ବର୍ଗଙ୍କ": 8454,
      "ପାଏ": 8455,
      "marked": 8456,
      "VE": 8457,
      "କୋରିଆ": 8458,
      "ପାଠକ": 8459,
      "ବରୁଣ": 8460,
      "vacy": 8461,
      "ଅଯୋଧ୍ୟା": 8462,
      "ଜଣାପଡ଼ିଥିଲା": 8463,
      "ବିଶ୍ବବିଦ୍ୟାଳୟ": 8464,
      "Pro": 8465,
      "ହିରୋ": 8466,
      "କୋରୋନା": 8467,
      "ଷ୍ଟୋରି": 8468,
      "ନିଆଯାଇଥିବା": 8469,
      "ଗର୍ବ": 8470,
      "Inter": 8471,
      "ଅକ୍ସିଜେନ୍": 8472,
      "ଧାନ୍ୟ": 8473,
      "ଉର୍ଦ୍ଧ୍ୱ": 8474,
      "ବ୍ୟକ୍ତିବିଶେଷ": 8475,
      "ଟିମର": 8476,
      "କଟକଣାକୁ": 8477,
      "କ୍ଷିତ": 8478,
      "ଗ୍ରାଫି": 8479,
      "ତଦନ୍ତକାରୀ": 8480,
      "31": 8481,
      "ନନ୍ଦି": 8482,
      "ନର୍ସ": 8483,
      "ତ୍ରିମ": 8484,
      "ହାତେଇ": 8485,
      "ge": 8486,
      "ଟିକି": 8487,
      "ଜଙ୍କ": 8488,
      "ନିର୍ଦ୍ଦେଶନାମା": 8489,
      "ଲଗ୍ନ": 8490,
      "ଏହାବ୍ୟତୀତ": 8491,
      "ଶିବିରରେ": 8492,
      "ନ୍ୟାୟାଳୟ": 8493,
      "ସେକେଣ୍ଡ": 8494,
      "କୃପା": 8495,
      "ସିନା": 8496,
      "ଯାତ୍ରୀଙ୍କୁ": 8497,
      "ଗୁଣବ": 8498,
      "ବୈଜ୍ଞାନିକମାନେ": 8499,
      "ହଜି": 8500,
      "ପୁଷ୍ପ": 8501,
      "ଷ୍ଟେସନ୍": 8502,
      "ପ୍ରାର୍ଥି": 8503,
      "ଡିଭିଜନ": 8504,
      "ଉଦ୍ଦିଷ୍ଟ": 8505,
      "ଅନ୍ନ": 8506,
      "ଧୈର୍ଯ୍ୟ": 8507,
      "କାନ୍": 8508,
      "ବଧି": 8509,
      "ଇନ୍ଦି": 8510,
      "ଡୀ": 8511,
      "ଧାମନଗର": 8512,
      "ପରିଚାଳନାରେ": 8513,
      "sc": 8514,
      "ices": 8515,
      "Contact": 8516,
      "କ୍ଳ": 8517,
      "ପରୋକ୍ଷ": 8518,
      "ସମ୍ବର୍ଦ୍ଧନା": 8519,
      "ହୋଟେଲରେ": 8520,
      "ସେତେବେ": 8521,
      "ଞ୍ଜେ": 8522,
      "କଳହ": 8523,
      "ଅପି": 8524,
      "ସାମଗ୍ରୀର": 8525,
      "ଘୋର": 8526,
      "tw": 8527,
      "ନିୟନ୍ତ୍ରିତ": 8528,
      "ାର୍ପଣ": 8529,
      "କଣ୍ଟ୍ରୋଲ": 8530,
      "ଗ୍ରୀନ": 8531,
      "app": 8532,
      "ସଂଗ୍ରହାଳୟ": 8533,
      "Required": 8534,
      "ଦର୍ଶକଙ୍କୁ": 8535,
      "ହୋଇଯିବେ": 8536,
      "ନିମ୍ନରେ": 8537,
      "ଶୟ": 8538,
      "ୱେବ୍": 8539,
      "ବ୍ଯ": 8540,
      "ଟାର୍ଗେଟ୍": 8541,
      "ଡାନ୍ତ": 8542,
      "ଓ୍ଵା": 8543,
      "do": 8544,
      "ମନୋରଂଜନ": 8545,
      "ପର୍ଯ୍ୟବେ": 8546,
      "ଓଡ଼ିଶାଲାଇଭ୍": 8547,
      "ବମ୍ବେ": 8548,
      "କମ୍ୟୁନି": 8549,
      "Article": 8550,
      "ବୁକିଂ": 8551,
      "ସଦସ୍ୟଙ୍କୁ": 8552,
      "ଦୁର୍ଘଟଣାର": 8553,
      "ଅକ୍ତି": 8554,
      "ace": 8555,
      "ବଢ଼ାଇବା": 8556,
      "ଭୁବନେଶ୍ୱରରୁ": 8557,
      "ଶତଃ": 8558,
      "ଗଢି": 8559,
      "ସାମନ୍ତରାୟ": 8560,
      "ଚଢ଼ି": 8561,
      "ୟନ୍": 8562,
      "ଟାଇମ୍": 8563,
      "ରେଡିଓ": 8564,
      "ଟେକି": 8565,
      "ସଦ୍ୟ": 8566,
      "ସଜାଗ": 8567,
      "ରାମନାଥ": 8568,
      "ସବୁଠି": 8569,
      "ବିରେ": 8570,
      "ସାପ୍ତା": 8571,
      "ଖାଆନ୍ତୁ": 8572,
      "କରିପାରିବା": 8573,
      "ଆମ୍ଭେ": 8574,
      "ଶୀତଳ": 8575,
      "ସେଗୁଡ଼ିକ": 8576,
      "story": 8577,
      "ପ୍ରହ": 8578,
      "ଘଂଟାରେ": 8579,
      "ଲେନ": 8580,
      "ପୁରାଣ": 8581,
      "ମୃତ୍ୟୁକୁ": 8582,
      "କଡାକଡି": 8583,
      "ବ୍ୟବହାରକାରୀ": 8584,
      "ପାକିସ୍ତାନରେ": 8585,
      "ବ୍ଲାକ": 8586,
      "ସଚିବଙ୍କ": 8587,
      "ମାଗୁ": 8588,
      "ଚିନ୍": 8589,
      "cou": 8590,
      "ମୁସଲି": 8591,
      "FacebookTwitterGoogle": 8592,
      "Wire": 8593,
      "ଠକ": 8594,
      "ହେବନାହିଁ": 8595,
      "ମାଣ୍ଡ": 8596,
      "ଆରବ": 8597,
      "ଚାହିଁଲେ": 8598,
      "ଉପଚାର": 8599,
      "ବୈଷ୍ଣବ": 8600,
      "ଭର୍ତି": 8601,
      "ସ୍ୱତୀ": 8602,
      "ଲୋକପ୍ରିୟତା": 8603,
      "ପ୍ରସ୍ତାବିତ": 8604,
      "ଇନିଂସରେ": 8605,
      "ପ୍ରଣୟନ": 8606,
      "odisha": 8607,
      "ଧୋଇବା": 8608,
      "ନ୍ଙ୍କ": 8609,
      "ନ୍ତରଣ": 8610,
      "ବଙ୍ଗଳା": 8611,
      "ନିୟମା": 8612,
      "ପ୍ରତିନିଧିତ୍ୱ": 8613,
      "ଚିଂ": 8614,
      "sy": 8615,
      "ଆଇନର": 8616,
      "ଡାଏ": 8617,
      "ଅନ୍ୟମାନଙ୍କୁ": 8618,
      "ଏନଡିଏ": 8619,
      "ଜଗତର": 8620,
      "ଏନଏସି": 8621,
      "ମାନବିକ": 8622,
      "ମହାନିର୍": 8623,
      "ତ୍କାର": 8624,
      "ଥଇଥାନ": 8625,
      "ତର୍କ": 8626,
      "ବର୍ଷୀୟା": 8627,
      "rit": 8628,
      "log": 8629,
      "ଫଟୋରେ": 8630,
      "ଦ୍ଦିନ": 8631,
      "ସୁନି": 8632,
      "ବଢିବା": 8633,
      "ଯୀ": 8634,
      "ପଡ଼ିଆରେ": 8635,
      "ବାବଦକୁ": 8636,
      "ଜିଦ୍": 8637,
      "ସିଦ୍ଧି": 8638,
      "ଗଦା": 8639,
      "ଘାଇ": 8640,
      "ସିଲର": 8641,
      "ବ୍ରିଜ୍": 8642,
      "ପ୍ଲାଷ୍ଟିକ": 8643,
      "ake": 8644,
      "ପଚାରିବାରୁ": 8645,
      "ଅଭିଯୁକ୍ତମାନେ": 8646,
      "Privacy": 8647,
      "te": 8648,
      "ପ୍ରଦର୍ଶନୀ": 8649,
      "ଲାଗିଥାଏ": 8650,
      "ସରପଂଚ": 8651,
      "Breaking": 8652,
      "ପିସି": 8653,
      "ନାଗା": 8654,
      "ବନବିଭାଗ": 8655,
      "ବ୍ୟାଟ୍ସମ୍ୟାନ": 8656,
      "ପ୍ରତିଶୃତି": 8657,
      "ଚଲାଇ": 8658,
      "ଯାଜପୁରରୁ": 8659,
      "Fil": 8660,
      "ରନ୍ର": 8661,
      "ଚାଳ": 8662,
      "ସୌରଭ": 8663,
      "ସୁପ୍ରିମକୋର୍ଟଙ୍କ": 8664,
      "LocalWire": 8665,
      "କଇଁ": 8666,
      "ଗାୟକ": 8667,
      "ମନ୍ତ୍ରୀଙ୍କୁ": 8668,
      "ଡ୍ରି": 8669,
      "ସଟ୍": 8670,
      "nder": 8671,
      "ଶ୍ରୀଯୁକ୍ତ": 8672,
      "ଖନନ": 8673,
      "ଜାଣିଛନ୍ତି": 8674,
      "ସୂଚନାନୁସାରେ": 8675,
      "ଚାଲିଛନ୍ତି": 8676,
      "ଫଳପ୍ରଦ": 8677,
      "9:": 8678,
      "ଟର୍ଣ୍ଣ": 8679,
      "ହୋଇଯିବା": 8680,
      "ଆଇସୋଲେ": 8681,
      "ଗାଙ୍ଗୁ": 8682,
      "ଅଧିଗ୍ରହଣ": 8683,
      "ମାଝି": 8684,
      "ଇଞ୍ଜିନିୟର": 8685,
      "ଭିଂ": 8686,
      "ଫୁସ": 8687,
      "ହସ୍ପିଟାଲ୍": 8688,
      "ଦାରିଦ୍ର": 8689,
      "ସେସ୍": 8690,
      "ସଟ": 8691,
      "ପୂର୍ଣ୍ଣା": 8692,
      "CO": 8693,
      "ଟେଲ": 8694,
      "ଜୁଆ": 8695,
      "ବ୍ରାଣ୍ଡ": 8696,
      "ଇତିହାସର": 8697,
      "ସମ୍ବଲପୁରରୁ": 8698,
      "ପାଢ଼ୀ": 8699,
      "ଶିଳାନ୍ୟାସ": 8700,
      "ଘୂର୍ଣ୍ଣି": 8701,
      "ସଂକ୍ଷିପ୍ତ": 8702,
      "ଶ୍ରୀକାନ୍ତ": 8703,
      "କୃଷକଙ୍କ": 8704,
      "ଇଣ୍ଡୋ": 8705,
      "ଚିଲିକା": 8706,
      "ଖାଉଟି": 8707,
      "କରୁନାହାନ୍ତି": 8708,
      "ନିୟନ୍ତ୍ରଣରେ": 8709,
      "nav": 8710,
      "ସ୍ଥାନାନ୍ତରିତ": 8711,
      "ne": 8712,
      "ଡେଇ": 8713,
      "ପରିଷ୍କାର": 8714,
      "ନିର୍ଣ୍ଣୟ": 8715,
      "ଜକୁ": 8716,
      "ପହଞ୍ଚିବ": 8717,
      "ତେଲେଙ୍ଗାନା": 8718,
      "ସାପ୍ତାହିକ": 8719,
      "ହୋଇନଥିବା": 8720,
      "ମଣ୍ଡପରେ": 8721,
      "ପାଣ୍ଡୁ": 8722,
      "ସହମତି": 8723,
      "ଶୀର୍ଷରେ": 8724,
      "Policy": 8725,
      "ଜନ୍ମଗ୍ରହଣ": 8726,
      "ପାର୍ଶ୍ୱରେ": 8727,
      "IN": 8728,
      "ହୋଲ": 8729,
      "etwork": 8730,
      "ଥିଲ": 8731,
      "ଉଡା": 8732,
      "ସେପରି": 8733,
      "ମାନନ୍ଦ": 8734,
      "ସମେ": 8735,
      "ଲାଗିଲେ": 8736,
      "ଅଧୀ": 8737,
      "ଖୁଲାସା": 8738,
      "ଘଡ଼ି": 8739,
      "ପାତି": 8740,
      "ଜାତିସଂଘ": 8741,
      "ଯାତାୟାତ": 8742,
      "ସେବାର": 8743,
      "ପେମେଣ୍ଟ": 8744,
      "ବଢୁଥିବା": 8745,
      "ବଳରାମ": 8746,
      "3)": 8747,
      "ସମବେଦନା": 8748,
      "ଅଲିମ୍ପିକ୍ସ": 8749,
      "ଡେଲ": 8750,
      "ସୁନ୍ଦରୀ": 8751,
      "ଇଷ୍ଟ": 8752,
      "ୟାନ": 8753,
      "ପାଖେ": 8754,
      "ବିଧିବଦ୍ଧ": 8755,
      "ସିଂହା": 8756,
      "ଦିଗରୁ": 8757,
      "ମଣିଷର": 8758,
      "ହଲ୍": 8759,
      "ପାକିସ୍ତାନକୁ": 8760,
      "ଶ୍ରୀନଗର": 8761,
      "ତୃପକ୍ଷ": 8762,
      "ଆନନ୍ଦପୁର": 8763,
      "ଅକ୍ତିଆର": 8764,
      "ଅଯଥା": 8765,
      "ଟ୍ଵି": 8766,
      "ଇନ୍ଦିରା": 8767,
      "ସାହିରେ": 8768,
      "ଣ୍ଟରେ": 8769,
      "ରାହା": 8770,
      "ଣ୍ତ": 8771,
      "ୱେବ": 8772,
      "କୁହୁ": 8773,
      "ପ୍ରଭାରୀ": 8774,
      "ଅଜବ": 8775,
      "ସମନ୍ୱୟ": 8776,
      "ita": 8777,
      "We": 8778,
      "LL": 8779,
      "ଗୋଷ୍ଠୀର": 8780,
      "ତ୍ୱରେ": 8781,
      "କରୁଥିବାର": 8782,
      "ମଦନ": 8783,
      "ନାୟିକା": 8784,
      "ବିପ୍ଳ": 8785,
      "ବୋଧହୁଏ": 8786,
      "ପାକ୍ଷିକ": 8787,
      "ister": 8788,
      "ରୁଆ": 8789,
      "ସ୍ୱୀକୃତି": 8790,
      "ଧୂଆଁ": 8791,
      "ନିଆଯାଇ": 8792,
      "View": 8793,
      "ଝରି": 8794,
      "ସାଂଘାତିକ": 8795,
      "ଘଟୁଛି": 8796,
      "ପ୍ରାର୍ଥୀଙ୍କୁ": 8797,
      "ବିବେଚିତ": 8798,
      "ଏପ୍ରିଲ୍": 8799,
      "ସମ୍ପ୍ରତି": 8800,
      "ଉଇକେଟ": 8801,
      "ବୃନ୍ଦ": 8802,
      "ative": 8803,
      "ହସ୍ପିଟାଲର": 8804,
      "ବଶତଃ": 8805,
      "ଆଜା": 8806,
      "ସମ୍ଭ": 8807,
      "ହଟାଇବା": 8808,
      "ପୂର୍ଣ": 8809,
      "ଫୁଟବଲ": 8810,
      "ଭିନ୍": 8811,
      "ନିର୍ମଳା": 8812,
      "ସହ୍ୟ": 8813,
      "ସମିତିର": 8814,
      "ଶାରୁ": 8815,
      "କୁଇ": 8816,
      "ଅନୁଷ୍": 8817,
      "fic": 8818,
      "ଭୁବନେଶ୍ବରରେ": 8819,
      "les": 8820,
      "Comments": 8821,
      "ମଞ୍ଜି": 8822,
      "ପେୟୀ": 8823,
      "ବର୍ଦ୍ଧନ": 8824,
      "how": 8825,
      "ଜ୍ଜିତ": 8826,
      "ଦୃଶ୍ୟମାନ": 8827,
      "ଲସି": 8828,
      "ପଡ଼ୁ": 8829,
      "ket": 8830,
      "ଇଲା": 8831,
      "ରସୁ": 8832,
      "ଜେଜେ": 8833,
      "ପ୍ରାରମ୍ଭରେ": 8834,
      "ଜୱା": 8835,
      "ଭାଗୀ": 8836,
      "ଅମା": 8837,
      "କୋରି": 8838,
      "ଅପରାଧିକ": 8839,
      "ଇଣ୍ଟରନେଟ୍": 8840,
      "ଅପ୍ରେ": 8841,
      "ଭଞ୍ଜନ": 8842,
      "overn": 8843,
      "ପ୍ରାକ୍": 8844,
      "ଖୋଜାଖୋଜି": 8845,
      "ସ୍ପର୍ଶ": 8846,
      "ଲକ୍ଷ୍ୟରେ": 8847,
      "ଭଡା": 8848,
      "org": 8849,
      "ଲଗାତର": 8850,
      "କାବୁଲ": 8851,
      "ଜଗତରେ": 8852,
      "ସଶକ୍ତି": 8853,
      "କୃତ୍ରିମ": 8854,
      "ଉଚ୍ଚସ୍ତରୀୟ": 8855,
      "ପରୀକ୍ଷାର୍ଥୀ": 8856,
      "ମନ୍ତ୍ରି": 8857,
      "କ୍ରୀଡ଼ାବିତ୍": 8858,
      "ଧିକରଣ": 8859,
      "ଆକ୍ସନ": 8860,
      "ଏକୁ": 8861,
      "ଉଠିଥିଲା": 8862,
      "8.": 8863,
      "ହାଉସ୍": 8864,
      "ତାରିଣୀ": 8865,
      "ଭେନ୍": 8866,
      "ଉଠାଇଛନ୍ତି": 8867,
      "ଛାତି": 8868,
      "କରିହେବ": 8869,
      "ପ୍ରଭାତ": 8870,
      "ଦ୍ଦମା": 8871,
      "ନୀରବ": 8872,
      "କିସ୍": 8873,
      "ଆକ୍ରାନ୍ତଙ୍କୁ": 8874,
      "ଚ୍ୟାନେଲ": 8875,
      "ଲିରେ": 8876,
      "ରଖିବାରେ": 8877,
      "କୋଣ୍ଡା": 8878,
      "ଏଠାରୁ": 8879,
      "ପାପ": 8880,
      "ଟିସ୍": 8881,
      "ସାହୁଙ୍କୁ": 8882,
      "ବିନ୍": 8883,
      "igation": 8884,
      "Arch": 8885,
      "ଜୈବିକ": 8886,
      "ରପ୍ତାନି": 8887,
      "ଖୁବ୍ଶୀଘ୍ର": 8888,
      "ନିଶ୍ୱାସ": 8889,
      "ପ୍ରତିକୂଳ": 8890,
      "ସାରିବା": 8891,
      "ଲିମିଟେଡ୍": 8892,
      "ଯେଉଁଭଳି": 8893,
      "ସରିଛି": 8894,
      "ସେବାକୁ": 8895,
      "ବାଜପେୟୀ": 8896,
      "mer": 8897,
      "ଉଡ଼ାଣ": 8898,
      "af": 8899,
      "ଚକିଆ": 8900,
      "ସ୍ଲୋ": 8901,
      "ପଦାକୁ": 8902,
      "ଏଠାକାର": 8903,
      "ସବିଶେଷ": 8904,
      "ପ୍ରକୋପ": 8905,
      "ପାରିନଥିଲେ": 8906,
      "ଦିକା": 8907,
      "ଶିକ୍ଷାର": 8908,
      "ଅହମ୍": 8909,
      "ସନ୍ଦିଗ୍ଧ": 8910,
      "ବିଲିୟନ": 8911,
      "Enter": 8912,
      "ନେସ": 8913,
      "ପ୍ରଶିକ୍ଷକ": 8914,
      "ଚଢ": 8915,
      "ମନ୍ଦ": 8916,
      "ରସି": 8917,
      "ସେଣ୍ଟ୍ରା": 8918,
      "ବିଘ୍": 8919,
      "ସ୍ୱେଚ୍ଛାସେବୀ": 8920,
      "199": 8921,
      "ଅଭିଭାଷଣ": 8922,
      "ଲେଟର": 8923,
      "ଟାରୀ": 8924,
      "ଅତ୍ୟାଚାର": 8925,
      "ବାସରେ": 8926,
      "ପ୍ରେମରେ": 8927,
      "ସାମୟିକ": 8928,
      "ରବିନ୍ଦ୍ର": 8929,
      "ଟ୍ରେନିଂ": 8930,
      "ପଣ୍ଡାଙ୍କ": 8931,
      "ପାଶ୍ୱର୍": 8932,
      "ସମାବେଶ": 8933,
      "ପଦବୀରେ": 8934,
      "ମୂଲ୍ୟାୟନ": 8935,
      "ବିୟୋଗରେ": 8936,
      "IT": 8937,
      "୬୦୦": 8938,
      "gram": 8939,
      "କରାଯାଇନାହିଁ": 8940,
      "ଶୃଙ୍ଖଳିତ": 8941,
      "ଦମଦାର": 8942,
      "ଲଢ": 8943,
      "ପର୍ଯ୍ୟଟକଙ୍କ": 8944,
      "ଡ଼େଇ": 8945,
      "ଏସସି": 8946,
      "ସ୍ତରକୁ": 8947,
      "ସଶକ୍ତ": 8948,
      "ପ୍ରବଳରୁ": 8949,
      "କାର୍ଯ୍ୟାଳୟକୁ": 8950,
      "can": 8951,
      "ଅନ୍ତା": 8952,
      "ଆକ୍ରମଣର": 8953,
      "ଦିଲୀ": 8954,
      "ପରିବହ": 8955,
      "ପଟ୍ଟନାୟକଙ୍କୁ": 8956,
      "ଏୟାରପୋର୍ଟ": 8957,
      "ସାଥି": 8958,
      "ଆବଶ୍ୟକତାକୁ": 8959,
      "ୟୁକ୍ରେନର": 8960,
      "ଲିନ୍": 8961,
      "ଅଶୁଭ": 8962,
      "ସମନ୍": 8963,
      "ଅସୁସ୍ଥତା": 8964,
      "କର୍ମକର୍": 8965,
      "ସ୍ୱଚ୍ଛତା": 8966,
      "ଅଣ୍ଟା": 8967,
      "ପଡ଼ିଆ": 8968,
      "lease": 8969,
      "ଶୁଭକାମନା": 8970,
      "ଆବର୍ଜନା": 8971,
      "ହୋଇପଡ଼ିଛି": 8972,
      "ଧୂଳି": 8973,
      "କଥ": 8974,
      "ପୂଜାରୀ": 8975,
      "Po": 8976,
      "ବଢ଼ୁଛି": 8977,
      "ାରଣ": 8978,
      "ସଞ୍": 8979,
      "ମୋଦିଙ୍କୁ": 8980,
      "ଜୋରିମାନା": 8981,
      "ଣ୍ଠା": 8982,
      "ଚୁପ୍": 8983,
      "ଜିମ୍": 8984,
      "ଶାହାରୁ": 8985,
      "ଆଂ": 8986,
      "ଘୃ": 8987,
      "ଦୁଃଖଦ": 8988,
      "କରାଇଛନ୍ତି": 8989,
      "ରଜନୀ": 8990,
      "ଜୀବନୀ": 8991,
      "ଭରେ": 8992,
      "ମସ୍": 8993,
      "ଜେନାଙ୍କ": 8994,
      "ନାମଲେଖା": 8995,
      "ଜୀବାଣୁ": 8996,
      "1:": 8997,
      "ଶୁଣିଲେ": 8998,
      "IP": 8999,
      "8:": 9000,
      "ଦାଗ": 9001,
      "ଜାଳି": 9002,
      "କାଣ୍ଡର": 9003,
      "ଗଙ୍ଗ": 9004,
      "ସେଦିନ": 9005,
      "ଞ୍ଚାଇ": 9006,
      "ଏହାଛଡା": 9007,
      "ପିଏଫ୍": 9008,
      "ବ୍ରାଜି": 9009,
      "୧୧୦": 9010,
      "Under": 9011,
      "bo": 9012,
      "ଦର୍ଶୀ": 9013,
      "ବରୀ": 9014,
      "ୱେବସାଇଟ": 9015,
      "ସରସ୍ୱତୀ": 9016,
      "use": 9017,
      "gh": 9018,
      "ଗୃହର": 9019,
      "କ୍ରେଡି": 9020,
      "TV": 9021,
      "ସଂପର୍କିତ": 9022,
      "ମହତ୍ତ୍ୱ": 9023,
      "ବୋରି": 9024,
      "କରିନଥିଲେ": 9025,
      "ଡାକ୍ତରମାନେ": 9026,
      "ାରୋପ": 9027,
      "ରାଜ୍ୟସ୍ତରୀୟ": 9028,
      "ପ୍ରଥମରୁ": 9029,
      "ସ୍ବପ୍ନ": 9030,
      "ଗଡ଼ି": 9031,
      "ଆଇଡି": 9032,
      "ପରିସ୍ଥିତିର": 9033,
      "ଦଇ": 9034,
      "ତୋଟି": 9035,
      "ଇଞ୍ଚ": 9036,
      "ବ୍ୟାଗ": 9037,
      "ଫେରସ୍ତ": 9038,
      "28,": 9039,
      "ଗ୍ୟାଲେରୀ": 9040,
      "କାଳବୈଶା": 9041,
      "ବଜାରକୁ": 9042,
      "ବ୍ୟବଧାନ": 9043,
      "ଶକ୍ତିକୁ": 9044,
      "ରହିଥାନ୍ତି": 9045,
      "ମହିଳାମାନଙ୍କ": 9046,
      "ରକ୍ଷାବନ୍ଧନ": 9047,
      "ରେଷ୍ଟୁ": 9048,
      "ସଙ୍ଗିକ": 9049,
      "ରଖିବ": 9050,
      "ଇଣ୍ଟେଲିଜେନ୍ସ": 9051,
      "ପ୍ରତିଦ୍ୱନ୍ଦ୍ୱିତା": 9052,
      "ପେନ୍ଦ୍ର": 9053,
      "ସମ୍ପାଦନା": 9054,
      "ସଦୃଶ": 9055,
      "ସଂଜୟ": 9056,
      "edit": 9057,
      "ତର୍": 9058,
      "କାଶୀ": 9059,
      "ଭୁଶୁ": 9060,
      "ଆଇଆଇଟି": 9061,
      "ଗଣମାଧ୍ୟ": 9062,
      "ସର୍ବଦଳୀୟ": 9063,
      "ପଠାଇଛି": 9064,
      "କୁକୁଡ଼ା": 9065,
      "ଚୈ": 9066,
      "କ୍ସର": 9067,
      "ୟୁଟ୍ୟୁବ": 9068,
      "ରାକ୍ଷୀ": 9069,
      "ସୁଚନା": 9070,
      "resp": 9071,
      "letter": 9072,
      "ଅତିବାହିତ": 9073,
      "ଗଂଜାମ": 9074,
      "ଲଗାଯାଇଛି": 9075,
      "ଅର୍ଦ୍ଧଶତକ": 9076,
      "ବଜ୍ରପାତ": 9077,
      "ତାଜା": 9078,
      "ଆରକ୍ଷୀ": 9079,
      "ଲାଲୁ": 9080,
      "କାୟା": 9081,
      "ଘେରାଉ": 9082,
      "ସିକ୍ୟୁରିଟି": 9083,
      "ପାଇକ": 9084,
      "ଜଳର": 9085,
      "ଆକାଉଣ୍ଟକୁ": 9086,
      "ଆଫଗାନିସ୍ତାନରେ": 9087,
      "ଗଣ୍ଡଗୋଳ": 9088,
      "ଚାପି": 9089,
      "ଗ୍ଲା": 9090,
      "ଲ୍ଲଭ": 9091,
      "ଆଶ୍ରମ": 9092,
      "ମିଡ଼ିଆରେ": 9093,
      "ସମର୍ପିତ": 9094,
      "ଠାକୁରଙ୍କ": 9095,
      "ଫୁଟି": 9096,
      "ମସିହାର": 9097,
      "ସଶକ୍ତିକରଣ": 9098,
      "କିଛିଟା": 9099,
      "ଶୌଚାଳୟ": 9100,
      "ବଚ୍ଚନ": 9101,
      "ମାଟ୍ରିକ": 9102,
      "ପଡିଲା": 9103,
      "ଜଗନ୍ନାଥଙ୍କ": 9104,
      "ଏକକ": 9105,
      "ଡିଭାଇ": 9106,
      "ଚକ୍ଷୁ": 9107,
      "ଲୋଡ": 9108,
      "କୃତଜ୍ଞତା": 9109,
      "ଟଣା": 9110,
      "ରେଷ୍ଟୁରା": 9111,
      "ଟ୍ବିଟ୍": 9112,
      "କାର୍ଯ୍ୟକାରିଣୀ": 9113,
      "ନେତୃତ୍ବରେ": 9114,
      "ରେଲୱେ": 9115,
      "ନିରାପଦ": 9116,
      "ପବନର": 9117,
      "ବ୍ୟାଙ୍କରେ": 9118,
      "ପାଣ୍ଡି": 9119,
      "ଅଦ୍": 9120,
      "ଉପଦେ": 9121,
      "ବାତ୍ୟାର": 9122,
      "ଆରଟି": 9123,
      "ୱେଲ": 9124,
      "ଆସିଷ୍ଟା": 9125,
      "ସର୍ବୋତ୍ତମ": 9126,
      "ଜ୍ରେ": 9127,
      "ପଡ଼ିପାରେ": 9128,
      "ବଚ": 9129,
      "ଚିତ୍କାର": 9130,
      "ସମସ୍ୟାରୁ": 9131,
      "ସଂଗରୋଧ": 9132,
      "ଘନିଷ୍ଠ": 9133,
      "ଜନତାଙ୍କ": 9134,
      "ଡ୍ୟାନ୍ସ": 9135,
      "ମାନବୀୟ": 9136,
      "ଗଳ୍ପ": 9137,
      "ଫେଲ୍": 9138,
      "ଗୁଣବତ୍ତା": 9139,
      "ମତବ୍ୟକ୍ତ": 9140,
      "ରୀତିନୀତି": 9141,
      "ନିତ୍ୟ": 9142,
      "କ୍ୟାପଟେନ": 9143,
      "ରକ୍ତଦାନ": 9144,
      "ଭେଙ୍କ": 9145,
      "about": 9146,
      "ବିଡ଼": 9147,
      "ହଜମ": 9148,
      "ମେଲ୍": 9149,
      "ପ୍ରାଧାନ୍ୟ": 9150,
      "ଯୋଡ଼ା": 9151,
      "ସବ୍ୟ": 9152,
      "ସେକ୍ସ": 9153,
      "ଳେଶ": 9154,
      "ଚାକିରିରେ": 9155,
      "Tr": 9156,
      "ଜାରୀ": 9157,
      "ୟୁନିଭର୍": 9158,
      "ଜୟଦେବ": 9159,
      "ଫିଟ": 9160,
      "navigation": 9161,
      "ଭାତ": 9162,
      "ାବଧାନରେ": 9163,
      "produ": 9164,
      "ଡୋର": 9165,
      "ୟୁଜର": 9166,
      "ଜୈବ": 9167,
      "ଜିନ": 9168,
      "lop": 9169,
      "ପନ୍ଥା": 9170,
      "ହସ୍ପିଟାଲ୍ରେ": 9171,
      "ଗୁପ୍ତା": 9172,
      "ବର୍ଗଙ୍କୁ": 9173,
      "ଆତ୍ମସମର୍ପଣ": 9174,
      "ମାଧବ": 9175,
      "ଖେଳିଯାଇଛି": 9176,
      "ଶୋଭାଯାତ୍ରାରେ": 9177,
      "ଦୁଗ୍ଧ": 9178,
      "ଘାତରେ": 9179,
      "ଖେଳାଳୀ": 9180,
      "AC": 9181,
      "ରୋକ୍": 9182,
      "ପମେଣ୍ଟ": 9183,
      "ସଂସାର": 9184,
      "ଫ୍ରେଣ୍ଡ": 9185,
      "ସଂସ୍କୃତ": 9186,
      "ନୌସେନା": 9187,
      "ଖୋଳତା": 9188,
      "ସୁପ୍ରିମୋ": 9189,
      "କୀର୍ତ୍ତି": 9190,
      "ଗୁଣ୍ଡି": 9191,
      "thor": 9192,
      "pur": 9193,
      "Filed": 9194,
      "ରେଜଲ୍ଟ": 9195,
      "ବ୍ରିଜ": 9196,
      "କୁରା": 9197,
      "ବଳକା": 9198,
      "RE": 9199,
      "ଯାନବାହନ": 9200,
      "ଦେବି": 9201,
      "ରୁମ": 9202,
      "ୁଥିଲେ": 9203,
      "ସନ୍ତୁଳନ": 9204,
      "ଓଟି": 9205,
      "ଦେଖାଦେଇପାରେ": 9206,
      "ଲକର": 9207,
      "ଅନଲାଇନରେ": 9208,
      "ଜେନ୍": 9209,
      "ଆନ୍ଦୋଳନର": 9210,
      "ଅଭିଯାନରେ": 9211,
      "ପାହାଡ": 9212,
      "ଦାରିଦ୍ର୍ୟ": 9213,
      "10:": 9214,
      "ଧର୍ମର": 9215,
      "ଆଶୁ": 9216,
      "ଆସନ୍ତି": 9217,
      "ଛାତ୍ରୀଙ୍କ": 9218,
      "ପାଣ୍ଡୁଲିପି": 9219,
      "oneindia": 9220,
      "ରଶ୍ମି": 9221,
      "Network": 9222,
      "ଭୀଷଣ": 9223,
      "ଉପକୂଳରେ": 9224,
      "ସମୁଦ୍ରରେ": 9225,
      "ଲିନ": 9226,
      "ହ୍ରଦ": 9227,
      "ରହିବାର": 9228,
      "ହଜାରେ": 9229,
      "ପ୍ରଜା": 9230,
      "ମାତାଙ୍କ": 9231,
      "ଭାଲ": 9232,
      "ଆଇଏମ": 9233,
      "ଗ୍ରୀନ୍": 9234,
      "କାରବାରରେ": 9235,
      "ଗ୍ରାମାଞ୍ଚଳରେ": 9236,
      "ସାହେବ": 9237,
      "କେରଳରେ": 9238,
      "ସ୍ବାଧୀନତା": 9239,
      "ନାଟ୍ୟ": 9240,
      "ଘାଟନୀ": 9241,
      "4)": 9242,
      "କାଟିବା": 9243,
      "ବିଶୋ": 9244,
      "ଗୃହୀତ": 9245,
      "ଉତ୍ପାଦିତ": 9246,
      "ଡନୀ": 9247,
      "ପ୍ରତିବଦ୍ଧ": 9248,
      "ବେଙ୍ଗ": 9249,
      "IA": 9250,
      "ମିଳନ": 9251,
      "ପଢ଼ିବା": 9252,
      "ମମି": 9253,
      "bar": 9254,
      "ଧକ୍": 9255,
      "ଘନା": 9256,
      "କମିଶନଙ୍କ": 9257,
      "ଆମନ୍ତ୍ର": 9258,
      "ହାଲ": 9259,
      "କ୍ୟାବିନେ": 9260,
      "।।": 9261,
      "ଫେବ୍ରୁଆରି": 9262,
      "ରଖାଯିବ": 9263,
      "ବାଦାମ": 9264,
      "anj": 9265,
      "ଚଳାଇଛନ୍ତି": 9266,
      "ହାଇକୋର୍ଟର": 9267,
      "କେନ୍ଦ୍ରରୁ": 9268,
      "ଲାରେ": 9269,
      "ସାନ୍": 9270,
      "ଗହମ": 9271,
      "ଛାଇ": 9272,
      "ପାଳିକା": 9273,
      "ଳିରେ": 9274,
      "ପୀଠରେ": 9275,
      "ସ୍ବଚ୍ଛ": 9276,
      "ren": 9277,
      "ଯୀଶୁ": 9278,
      "ପ୍ରଶଂସିତ": 9279,
      "ପ୍ରୋଜେକ୍ଟ": 9280,
      "ମୃତ୍ତି": 9281,
      "ମ୍ୟାନେଜ": 9282,
      "ଆଲଗୋରି": 9283,
      "ଫୋର୍": 9284,
      "ଟାଙ୍କି": 9285,
      "ବାର୍ଥ": 9286,
      "ଆତଙ୍କୀ": 9287,
      "ପ୍ରଚଳିତ": 9288,
      "ବ୍ୟକ୍ତିଙ୍କର": 9289,
      "ବଗିଚା": 9290,
      "ଭକ୍ତମାନେ": 9291,
      "sch": 9292,
      "କରିସାରିଛନ୍ତି": 9293,
      "ପକାନ୍ତୁ": 9294,
      "କାଟୁ": 9295,
      "ପେପର": 9296,
      "ଚରମ": 9297,
      "ଙ୍ଗିଆ": 9298,
      "ସରୁ": 9299,
      "ବିବାଦର": 9300,
      "ଲଦାଖ": 9301,
      "କ୍ୟାପ": 9302,
      "ସପ୍": 9303,
      "ଓଁ": 9304,
      "ଚ଼": 9305,
      "ଦସ୍ତା": 9306,
      "next": 9307,
      "ସମ୍ପ୍ରସାରଣ": 9308,
      "ଲୁଗୁ": 9309,
      "ପ୍ରବର୍ତ୍ତନ": 9310,
      "ଜମିର": 9311,
      "କଡ଼ରେ": 9312,
      "ପଠାଇଥିଲେ": 9313,
      "Red": 9314,
      "35": 9315,
      "ମଣ୍ଡଳୀରେ": 9316,
      "ଭିଲି": 9317,
      "land": 9318,
      "ଫାଟ": 9319,
      "କଂଗ୍ରେସରେ": 9320,
      "ଟେନି": 9321,
      "ପାଣିର": 9322,
      "୨୦୦୭": 9323,
      "ଯାପନ": 9324,
      "ଡେଜା": 9325,
      "ଟମ": 9326,
      "daily": 9327,
      "ବିଭ୍ରା": 9328,
      "ଅଷ୍ଟ୍ରେଲିଆର": 9329,
      "ଆଜ୍ଞା": 9330,
      "ହୋଇପଡିଛି": 9331,
      "ଗୋପବନ୍ଧୁ": 9332,
      "Im": 9333,
      "ଚିହ୍ନି": 9334,
      "ens": 9335,
      "ସାହସିକ": 9336,
      "ସନ୍ଥ": 9337,
      "ମଧ୍ୟପ୍ରଦେଶର": 9338,
      "ହେପା": 9339,
      "ପ୍ରାଧିକରଣ": 9340,
      "ବଜେଟରେ": 9341,
      "Digital": 9342,
      "ଅଳ": 9343,
      "ନ୍ନା": 9344,
      "ବାଉଁଶ": 9345,
      "ସାଧ୍ୟ": 9346,
      "ପରମ": 9347,
      "ound": 9348,
      "ବିପ": 9349,
      "ଗଣଦୁଷ୍କର୍ମ": 9350,
      "ଚର୍ମ": 9351,
      "ଲିଙ୍କ୍": 9352,
      "ଖବରକାଗଜ": 9353,
      "ବଞ୍ଚାଇ": 9354,
      "ପୀଡ଼ିତା": 9355,
      "ଗରୀ": 9356,
      "୧୩୦": 9357,
      "ଅନନ୍ୟ": 9358,
      "କଟିବ": 9359,
      "ବିରି": 9360,
      "ବିଲେଇ": 9361,
      "ବିପରୀ": 9362,
      "ପଦାଧିକାରୀ": 9363,
      "ମାର୍କେ": 9364,
      "ଆଇଆର": 9365,
      "ହୋଇନଥିଲା": 9366,
      "ଥଲେ": 9367,
      "ବେଗୁ": 9368,
      "ଭାଗବତ": 9369,
      "ବାନ୍ତି": 9370,
      "ଆଶ୍ୱସ୍ତି": 9371,
      "ସୁଧାରି": 9372,
      "cre": 9373,
      "ସୀତାର": 9374,
      "ଷ୍ଠି": 9375,
      "ଘଟୁଥିବା": 9376,
      "ଶୋକର": 9377,
      "ସଫ୍ଟୱେର": 9378,
      "Kanak": 9379,
      "ard": 9380,
      "ଜୋତା": 9381,
      "ଡିଜିଟାଲ୍": 9382,
      "କଲୋନୀ": 9383,
      "ରସୁଣ": 9384,
      "ମୁଖାର୍ଜୀ": 9385,
      "ଧ୍": 9386,
      "ଷ୍ଟାର୍": 9387,
      "ଆସ୍ଥା": 9388,
      "ତିର୍ତ୍ତ": 9389,
      "କେତେଜଣ": 9390,
      "ହୋଇନି": 9391,
      "ଦୁହିଁଙ୍କ": 9392,
      "ଯୋଗଦେବେ": 9393,
      "ମୁକ୍ତିଲାଭ": 9394,
      "ମହଜୁ": 9395,
      "ବିଳାସ": 9396,
      "ନଚେତ୍": 9397,
      "ସ୍ମାରକ": 9398,
      "ଲେଖିବା": 9399,
      "ହଟା": 9400,
      "ଭୟାବହ": 9401,
      "ଏଥିଲାଗି": 9402,
      "ଶିଷ୍ଟ୍ୟ": 9403,
      "ଅସନ୍ତୁଷ୍ଟ": 9404,
      "ସେଟ": 9405,
      "ସ୍ପୋର୍ଟ": 9406,
      "ଆୟୁର୍": 9407,
      "ବଳବ": 9408,
      "ଦ୍ଧିଷ୍ଟ": 9409,
      "ମଣ୍ଡଳୀର": 9410,
      "ବ୍ୟୟରେ": 9411,
      "ରଖାଯାଇଥିବା": 9412,
      "ପ୍ରତିମା": 9413,
      "gmail": 9414,
      "କିଲୋଗ୍ରାମ": 9415,
      "ଚିତା": 9416,
      "rite": 9417,
      "ଉପରାଷ୍ଟ୍ରପତି": 9418,
      "ଆତଙ୍କବାଦୀମାନେ": 9419,
      "ଗଳା": 9420,
      "ସୁବ୍ରତ": 9421,
      "ତୁରା": 9422,
      "ଦଶୀ": 9423,
      "ହୋଇଗଲାଣି": 9424,
      "ଘାଟିତ": 9425,
      "ତଳୁ": 9426,
      "ଶ୍ରୀକୃଷ୍ଣ": 9427,
      "ଜବରଦଖଲ": 9428,
      "ସିହ୍ନା": 9429,
      "ପଞ୍ଜାବରେ": 9430,
      "ଭଞ୍ଜନଗର": 9431,
      "ପୁଣେ": 9432,
      "ଦସ୍ତ": 9433,
      "ରୋଟି": 9434,
      "ମହିଳାମାନଙ୍କୁ": 9435,
      "ସ୍ଥାପତ୍ୟ": 9436,
      "ଏହାଦ୍ବାରା": 9437,
      "କଣି": 9438,
      "ସଂଲଗ୍ନ": 9439,
      "ରୁଦ୍ର": 9440,
      "ଏଜେଣ୍ଟ": 9441,
      "ଫିଚର": 9442,
      "ପିଏମ୍": 9443,
      "ଟକ୍କର": 9444,
      "ଟେବୁଲ": 9445,
      "ଚଲା": 9446,
      "ତରଣୀ": 9447,
      "ବିଳମ୍ବରେ": 9448,
      "ଜରୀ": 9449,
      "କ୍ୟାପଟେନ୍": 9450,
      "ମହାରାଜା": 9451,
      "ସୁନ୍ଦରଗଡ଼ରୁ": 9452,
      "ଡଙ୍ଗ": 9453,
      "ଚାଲିଗଲା": 9454,
      "ମାଜିଷ୍ଟ୍ରେ": 9455,
      "ରାଜପଥରେ": 9456,
      "ଗୋଡ": 9457,
      "ସେବେଠାରୁ": 9458,
      "ଜିତିଥିଲେ": 9459,
      "ଫେରିଥିବା": 9460,
      "ପୀଡ଼ିତାଙ୍କ": 9461,
      "ଆଣ୍ଡା": 9462,
      "ଆଇଏଏସ୍": 9463,
      "ଝୁଲ": 9464,
      "ଜାଡେଜା": 9465,
      "ଇଣ୍ଡିଆନ୍ସ": 9466,
[...]
