{
  "version": "1.0",
  "truncation": null,
  "padding": null,
  "added_tokens": [
    {
      "id": 0,
      "content": "[PAD]",
      "single_word": false,
      "lstrip": false,
      "rstrip": false,
      "normalized": false,
      "special": true
    },
    {
      "id": 1,
      "content": "[UNK]",
      "single_word": false,
      "lstrip": false,
      "rstrip": false,
      "normalized": false,
      "special": true
    },
    {
      "id": 2,
      "content": "[CLS]",
      "single_word": false,
      "lstrip": false,
      "rstrip": false,
      "normalized": false,
      "special": true
    },
    {
      "id": 3,
      "content": "[SEP]",
      "single_word": false,
      "lstrip": false,
      "rstrip": false,
      "normalized": false,
      "special": true
    },
    {
      "id": 4,
      "content": "[MASK]",
      "single_word": false,
      "lstrip": false,
      "rstrip": false,
      "normalized": false,
      "special": true
    },
    {
      "id": 5,
      "content": "<|endoftext|>",
      "single_word": false,
      "lstrip": false,
      "rstrip": false,
      "normalized": false,
      "special": true
    }
  ],
  "normalizer": {
    "type": "Sequence",
    "normalizers": [
      {
        "type": "Replace",
        "pattern": {
          "Regex": "[^\\u0000-\\u00FF\\u0B00-\\u0B7F\\u0964-\\u0965]"
        },
        "content": ""
      },
      {
        "type": "Replace",
        "pattern": {
          "String": "\\s+"
        },
        "content": " "
      },
      {
        "type": "NFKC"
      }
    ]
  },
  "pre_tokenizer": {
    "type": "Sequence",
    "pretokenizers": [
      {
        "type": "UnicodeScripts"
      }
    ]
  },
  "post_processor": null,
  "decoder": {
    "type": "ByteLevel",
    "add_prefix_space": true,
    "trim_offsets": true,
    "use_regex": true
  },
  "model": {
    "type": "BPE",
    "dropout": null,
    "unk_token": "[UNK]",
    "continuing_subword_prefix": null,
    "end_of_word_suffix": null,
    "fuse_unk": true,
    "byte_fallback": false,
    "ignore_merges": false,
    "vocab": {
      "[PAD]": 0,
      "[UNK]": 1,
      "[CLS]": 2,
      "[SEP]": 3,
      "[MASK]": 4,
      "<|endoftext|>": 5,
      "\u0001": 6,
      "\u0002": 7,
      "\u0003": 8,
      "\t": 9,
      "\n": 10,
      "\r": 11,
      "\u001b": 12,
      "\u001f": 13,
      " ": 14,
      "!": 15,
      "\"": 16,
      "#": 17,
      "$": 18,
      "%": 19,
      "&": 20,
      "'": 21,
      "(": 22,
      ")": 23,
      "*": 24,
      "+": 25,
      ",": 26,
      "-": 27,
      ".": 28,
      "/": 29,
      "0": 30,
      "1": 31,
      "2": 32,
      "3": 33,
      "4": 34,
      "5": 35,
      "6": 36,
      "7": 37,
      "8": 38,
      "9": 39,
      ":": 40,
      ";": 41,
      "<": 42,
      "=": 43,
      ">": 44,
      "?": 45,
      "@": 46,
      "A": 47,
      "B": 48,
      "C": 49,
      "D": 50,
      "E": 51,
      "F": 52,
      "G": 53,
      "H": 54,
      "I": 55,
      "J": 56,
      "K": 57,
      "L": 58,
      "M": 59,
      "N": 60,
      "O": 61,
      "P": 62,
      "Q": 63,
      "R": 64,
      "S": 65,
      "T": 66,
      "U": 67,
      "V": 68,
      "W": 69,
      "X": 70,
      "Y": 71,
      "Z": 72,
      "[": 73,
      "\\": 74,
      "]": 75,
      "^": 76,
      "_": 77,
      "`": 78,
      "a": 79,
      "b": 80,
      "c": 81,
      "d": 82,
      "e": 83,
      "f": 84,
      "g": 85,
      "h": 86,
      "i": 87,
      "j": 88,
      "k": 89,
      "l": 90,
      "m": 91,
      "n": 92,
      "o": 93,
      "p": 94,
      "q": 95,
      "r": 96,
      "s": 97,
      "t": 98,
      "u": 99,
      "v": 100,
      "w": 101,
      "x": 102,
      "y": 103,
      "z": 104,
      "{": 105,
      "|": 106,
      "}": 107,
      "~": 108,
      "": 109,
      "": 110,
      "": 111,
      "": 112,
      "": 113,
      "": 114,
      "": 115,
      "": 116,
      "": 117,
      "": 118,
      "": 119,
      "": 120,
      "": 121,
      "": 122,
      "": 123,
      "¡": 124,
      "¢": 125,
      "£": 126,
      "¤": 127,
      "¥": 128,
      "¦": 129,
      "§": 130,
      "©": 131,
      "«": 132,
      "¬": 133,
      "­": 134,
      "®": 135,
      "°": 136,
      "±": 137,
      "¶": 138,
      "·": 139,
      "»": 140,
      "¿": 141,
      "À": 142,
      "Á": 143,
      "Â": 144,
      "Ã": 145,
      "Ä": 146,
      "Å": 147,
      "Æ": 148,
      "Ç": 149,
      "È": 150,
      "É": 151,
      "Ê": 152,
      "Ë": 153,
      "Ì": 154,
      "Í": 155,
      "Î": 156,
      "Ï": 157,
      "Ð": 158,
      "Ñ": 159,
      "Ò": 160,
      "Ó": 161,
      "Ô": 162,
      "Õ": 163,
      "Ö": 164,
      "×": 165,
      "Ø": 166,
      "Ù": 167,
      "Ú": 168,
      "Ü": 169,
      "Ý": 170,
      "Þ": 171,
      "ß": 172,
      "à": 173,
      "á": 174,
      "â": 175,
      "ã": 176,
      "ä": 177,
      "å": 178,
      "æ": 179,
      "ç": 180,
      "è": 181,
      "é": 182,
      "ê": 183,
      "ë": 184,
      "ì": 185,
      "í": 186,
      "î": 187,
      "ï": 188,
      "ð": 189,
      "ñ": 190,
      "ò": 191,
      "ó": 192,
      "ô": 193,
      "õ": 194,
      "ö": 195,
      "÷": 196,
      "ø": 197,
      "ù": 198,
      "ú": 199,
      "û": 200,
      "ü": 201,
      "ý": 202,
      "þ": 203,
      "ÿ": 204,
      "́": 205,
      "̄": 206,
      "̈": 207,
      "̧": 208,
      "μ": 209,
      "।": 210,
      "॥": 211,
      "ଁ": 212,
      "ଂ": 213,
      "ଃ": 214,
      "଄": 215,
      "ଅ": 216,
      "ଆ": 217,
      "ଇ": 218,
      "ଈ": 219,
      "ଉ": 220,
      "ଊ": 221,
      "ଋ": 222,
      "ଌ": 223,
      "଎": 224,
      "ଏ": 225,
      "ଐ": 226,
      "ଓ": 227,
      "ଔ": 228,
      "କ": 229,
      "ଖ": 230,
      "ଗ": 231,
      "ଘ": 232,
      "ଙ": 233,
      "ଚ": 234,
      "ଛ": 235,
      "ଜ": 236,
      "ଝ": 237,
      "ଞ": 238,
      "ଟ": 239,
      "ଠ": 240,
      "ଡ": 241,
      "ଢ": 242,
      "ଣ": 243,
      "ତ": 244,
      "ଥ": 245,
      "ଦ": 246,
      "ଧ": 247,
      "ନ": 248,
      "ପ": 249,
      "ଫ": 250,
      "ବ": 251,
      "ଭ": 252,
      "ମ": 253,
      "ଯ": 254,
      "ର": 255,
      "ଲ": 256,
      "ଳ": 257,
      "ଵ": 258,
      "ଶ": 259,
      "ଷ": 260,
      "ସ": 261,
      "ହ": 262,
      "଼": 263,
      "ଽ": 264,
      "ା": 265,
      "ି": 266,
      "ୀ": 267,
      "ୁ": 268,
      "ୂ": 269,
      "ୃ": 270,
      "ୄ": 271,
      "୆": 272,
      "େ": 273,
      "ୈ": 274,
      "୉": 275,
      "ୋ": 276,
      "ୌ": 277,
      "୍": 278,
      "୎": 279,
      "ୖ": 280,
      "ୗ": 281,
      "ୟ": 282,
      "ୠ": 283,
      "ୡ": 284,
      "ୢ": 285,
      "ୣ": 286,
      "୤": 287,
      "୥": 288,
      "୦": 289,
      "୧": 290,
      "୨": 291,
      "୩": 292,
      "୪": 293,
      "୫": 294,
      "୬": 295,
      "୭": 296,
      "୮": 297,
      "୯": 298,
      "୰": 299,
      "ୱ": 300,
      "୲": 301,
      "୳": 302,
      "୵": 303,
      "⁄": 304,
      "େ ": 305,
      "ି ": 306,
      "ା ": 307,
      "ାର": 308,
      "୍ର": 309,
      "ୁ ": 310,
      "୍ତ": 311,
      "୍ୟ": 312,
      "ରେ ": 313,
      " କ": 314,
      "। ": 315,
      "କ ": 316,
      "ିବ": 317,
      "ଙ୍": 318,
      "ର ": 319,
      "ାନ": 320,
      "ର୍": 321,
      "ାଇ": 322,
      "କୁ ": 323,
      " ପ": 324,
      " ସ": 325,
      "ିଲ": 326,
      "ନ୍ତ": 327,
      " କର": 328,
      ", ": 329,
      " ବ": 330,
      "ିତ": 331,
      "ନ୍": 332,
      " ହ": 333,
      "ିବା ": 334,
      " ମ": 335,
      "ସ୍": 336,
      "କ୍": 337,
      "ଙ୍କ ": 338,
      "ଥିଲ": 339,
      "ିଛ": 340,
      "ପ୍ର": 341,
      "ନି": 342,
      "ରା": 343,
      "ମ୍": 344,
      "ଦେ": 345,
      "ବି": 346,
      "ଏହ": 347,
      "ାହ": 348,
      "୍ଟ": 349,
      " ଅ": 350,
      "କ୍ଷ": 351,
      "ିକ": 352,
      "ୋଇ": 353,
      "ଡ଼": 354,
      "ମାନ": 355,
      "ବା": 356,
      "ୀ ": 357,
      "ଥିବା ": 358,
      "ାରେ ": 359,
      "ନେ": 360,
      "ରୁ ": 361,
      "େବ": 362,
      "ାମ": 363,
      " ଆ": 364,
      "ଦ୍": 365,
      "ଙ୍କୁ ": 366,
      "ାବ": 367,
      " ଜ": 368,
      "କର": 369,
      "ଧ୍ୟ": 370,
      "ଯାଇ": 371,
      "ାତ": 372,
      "ନ୍ତି ": 373,
      " ପ୍ର": 374,
      "କାର": 375,
      "ାଇଁ": 376,
      "ଏବ": 377,
      "ଣ୍": 378,
      "ନ୍ଦ": 379,
      "ାଲ": 380,
      "ନ ": 381,
      "ଷ୍ଟ": 382,
      "ାୟ": 383,
      "ାକୁ ": 384,
      "ୁର": 385,
      " ହୋଇ": 386,
      "ଏହି ": 387,
      "ସ୍ଥ": 388,
      "ନା ": 389,
      "ଛି ": 390,
      "ିଆ": 391,
      "୍ଚ": 392,
      "ଙ୍କ": 393,
      "ପର": 394,
      "ସ୍ତ": 395,
      "୍ଲ": 396,
      "ିକ ": 397,
      "ୋଗ": 398,
      "ଭି": 399,
      "ସେ": 400,
      "ାଗ": 401,
      "ାର ": 402,
      "ାଳ": 403,
      "ାପ": 404,
      "ିଛି ": 405,
      "ୋଲ": 406,
      "ିଥିଲ": 407,
      " ର": 408,
      "ଏବଂ": 409,
      "୍ୱ": 410,
      "ାସ": 411,
      " ଦ": 412,
      " ବି": 413,
      "ଯ୍ୟ": 414,
      "କ୍ତ": 415,
      ": ": 416,
      "ଣ୍ଡ": 417,
      "େଳ": 418,
      "ତି": 419,
      "ଙ୍ଗ": 420,
      " ଭ": 421,
      "ରାଜ": 422,
      "ାର୍": 423,
      "ମୁ": 424,
      "ଟି ": 425,
      "କ୍ର": 426,
      " ଗ": 427,
      "ପାଇଁ": 428,
      "ଯୋଗ": 429,
      "ସହ": 430,
      "ତା": 431,
      "ାଣ": 432,
      "ଟି": 433,
      "ସମ": 434,
      " ଓ": 435,
      "ପରେ ": 436,
      "ନ୍ତି": 437,
      "େଲ": 438,
      "ସି": 439,
      "ୀୟ": 440,
      "ମି": 441,
      " ନ": 442,
      "ତି ": 443,
      " ଲ": 444,
      "ପୁ": 445,
      "ହି": 446,
      "ାରୁ ": 447,
      "ଦ୍ଧ": 448,
      "ଏକ ": 449,
      "ଛି": 450,
      "୍ରୀ": 451,
      "ମଧ୍ୟ": 452,
      "ଅନ": 453,
      "ାଉ": 454,
      "ଞ୍ଚ": 455,
      "ସୁ": 456,
      "େଉ": 457,
      "ାଏ": 458,
      "ନେଇ": 459,
      "ଡି": 460,
      " ଶ": 461,
      " ଚ": 462,
      "ିନ": 463,
      "ତା ": 464,
      "ଦେଶ": 465,
      "ଷ୍": 466,
      "ଦେଇ": 467,
      "ାନ୍ତ": 468,
      "ଜଣ": 469,
      "ିଲ୍ଲ": 470,
      " ତ": 471,
      "ିଛନ୍ତି ": 472,
      "ମ୍ବ": 473,
      "ଗ୍ର": 474,
      "ରି": 475,
      "ବ୍ୟ": 476,
      " କରା": 477,
      "କି": 478,
      "ୃତ": 479,
      "େଳେ ": 480,
      "ମାନେ ": 481,
      "ପାର": 482,
      " ଉ": 483,
      "ନିର୍": 484,
      "ିବାକୁ ": 485,
      "ୂର୍": 486,
      "ସଂ": 487,
      "ର୍ଷ": 488,
      "ି କ": 489,
      "e ": 490,
      "ୋକ": 491,
      "େତ": 492,
      "ସେ ": 493,
      "ୁବ": 494,
      "ଛନ୍ତି ": 495,
      "ତ୍ତ": 496,
      "ମ୍ପ": 497,
      "ୁଲ": 498,
      "ାଦ": 499,
      "ନ୍ଦ୍ର": 500,
      "ହୋଇ": 501,
      "।\n": 502,
      "ରହ": 503,
      "ଭାବ": 504,
      "  ": 505,
      "ାହି": 506,
      "ନ୍ତୁ ": 507,
      "ରାଜ୍ୟ": 508,
      " ଯ": 509,
      "ଖ୍ୟ": 510,
      "ାତ୍ର": 511,
      "ଶ୍ୱ": 512,
      "ିଛି": 513,
      "ଥିଲେ ": 514,
      "ମନ୍ତ": 515,
      "ିସ": 516,
      "ଣ୍ଟ": 517,
      "ରକାର": 518,
      "ମା": 519,
      "ିଥିଲେ ": 520,
      "ାହିଁ": 521,
      "ଗୁ": 522,
      "ଥିଲା ": 523,
      "ଏହା ": 524,
      "େଟ": 525,
      "୍ତ୍ତ": 526,
      " ହେବ": 527,
      "ତ୍": 528,
      "ିଶ": 529,
      "କା": 530,
      "ସି ": 531,
      "ଣା ": 532,
      "ିରେ ": 533,
      "ଘଟ": 534,
      "ଧାନ": 535,
      " ପାଇଁ": 536,
      "ୋଲି ": 537,
      "ବା ": 538,
      " ଏବଂ": 539,
      " କରି ": 540,
      "ଙ୍କର ": 541,
      "୍ଜ": 542,
      " ଜଣ": 543,
      "ାରତ": 544,
      " ଖ": 545,
      "ବର": 546,
      " ଟ": 547,
      "ଅଧ": 548,
      "ୁତ": 549,
      "ୋଜ": 550,
      "୍ୟା": 551,
      "୨୦": 552,
      "ୟରେ ": 553,
      " କରିବା ": 554,
      "କୋ": 555,
      "t ": 556,
      "ଥାଏ": 557,
      "େନ୍ଦ୍ର": 558,
      "ପଣ": 559,
      "କ୍ରମ": 560,
      "ଦେଖ": 561,
      "େବେ ": 562,
      " ସମ": 563,
      "ନିଜ": 564,
      "ଳି ": 565,
      "ଶ୍": 566,
      " କରାଯାଇ": 567,
      "େର": 568,
      "ଦୁ": 569,
      "ପି": 570,
      "ମ୍ଭ": 571,
      " ଏ": 572,
      "ଗତ": 573,
      " କରି": 574,
      " ସ୍": 575,
      "ଷ୍ଠ": 576,
      "ଞ୍ଜ": 577,
      "ନା": 578,
      "ପା": 579,
      "ସା": 580,
      " ସଂ": 581,
      "ଚନା ": 582,
      "ିଛନ୍ତି": 583,
      "ବେ": 584,
      "ର୍ମ": 585,
      "ପୂର୍": 586,
      "20": 587,
      "ଥିବ": 588,
      "ଜେ": 589,
      " ମଧ୍ୟ": 590,
      "ା କ": 591,
      "ଅନୁ": 592,
      "ଲେ": 593,
      "ା କର": 594,
      "ର୍ଯ୍ୟ": 595,
      "ଜି ": 596,
      "s ": 597,
      "ବେଳେ ": 598,
      "er": 599,
      "ୁହ": 600,
      "ମୋ": 601,
      "ରରେ ": 602,
      " ଅନ": 603,
      "ଶି": 604,
      "ମିଳ": 605,
      "ଳରେ ": 606,
      " କାର୍": 607,
      "ତେବେ ": 608,
      " ସହ": 609,
      "ଣ୍ଣ": 610,
      "ତାଙ୍କ ": 611,
      "ଭାରତ": 612,
      "ପୁର": 613,
      "େସ": 614,
      "ାରୀ": 615,
      " କରିବ": 616,
      "ସ୍ୱ": 617,
      "ଦ୍ୱ": 618,
      "ତ୍ୟ": 619,
      "୍ରୀ ": 620,
      "ଛନ୍ତି": 621,
      "ନ୍ନ": 622,
      " ରହ": 623,
      ". ": 624,
      "ଢ଼": 625,
      "ନ୍ଧ": 626,
      "ାରା ": 627,
      "ଟ୍": 628,
      "ଥିଲା": 629,
      "ଲୋକ": 630,
      "ଯାଉ": 631,
      "ବହ": 632,
      "ଗୋ": 633,
      " କରୁ": 634,
      "ମାନଙ୍କ ": 635,
      ") ": 636,
      "କଟ": 637,
      "in": 638,
      " ସେ": 639,
      "ମହ": 640,
      "ସୂ": 641,
      " ବ୍ୟ": 642,
      "ର୍ଟ": 643,
      "ଜିଲ୍ଲ": 644,
      "ନୀ": 645,
      "ରୋ": 646,
      " ଫ": 647,
      "ାନ୍": 648,
      "ର୍ଥ": 649,
      " ନି": 650,
      "ାରଣ": 651,
      "ଆସ": 652,
      " କାର୍ଯ୍ୟ": 653,
      "େଷ": 654,
      "ାରି": 655,
      "ଅଭି": 656,
      "ି ପ": 657,
      "ଦି": 658,
      " ବର୍ଷ": 659,
      " କହ": 660,
      "- ": 661,
      "ଭାଗ": 662,
      "ଆମ": 663,
      "ଥିଲେ": 664,
      "ଥିବା ବେଳେ ": 665,
      "ୂଆ": 666,
      "ଜି": 667,
      "ରଣ": 668,
      "ି କର": 669,
      "ଥାନ": 670,
      "ବୁ": 671,
      " ୧": 672,
      " କୋ": 673,
      "ଲି": 674,
      "ଉପ": 675,
      "ଜ୍": 676,
      "ଠାରୁ ": 677,
      "ଯିବ": 678,
      "ାହା ": 679,
      "ଆପଣ": 680,
      "ଏଥ": 681,
      "ିଥିଲେ": 682,
      "ର୍ଶ": 683,
      " ପର": 684,
      "ଦୀ": 685,
      "ୁମ": 686,
      "େଉଁ": 687,
      "ନାହିଁ": 688,
      "ର ସ": 689,
      "ଚ୍ଚ": 690,
      "d ": 691,
      "ରଖ": 692,
      " ସୁ": 693,
      "କ୍ଷା ": 694,
      "ଆର": 695,
      " ଦେଇ": 696,
      "ନରେ ": 697,
      "ଙ୍କା ": 698,
      "on": 699,
      "ଦ୍ୟ": 700,
      "ଯୁ": 701,
      "କାଶ": 702,
      "ଏବେ ": 703,
      "ପରି ": 704,
      "ିର": 705,
      "ବାକୁ ": 706,
      "ଥମ": 707,
      "th": 708,
      "ସ୍ଥିତ": 709,
      " ଭାବ": 710,
      "ଅନ୍ୟ": 711,
      "ମୃତ": 712,
      "ୀବ": 713,
      "ଭଳି ": 714,
      "ଥା ": 715,
      "ଠାରେ ": 716,
      "ିୟ": 717,
      "ଶୁ": 718,
      "ବର ": 719,
      "ଆଇ": 720,
      "ପୋ": 721,
      "ାଜ": 722,
      "an": 723,
      "ଲାଗ": 724,
      "େଶ": 725,
      " ସରକାର": 726,
      "ଯାଇଛି ": 727,
      "ଲୋ": 728,
      "ତ୍ର": 729,
      "କହ": 730,
      "ନ୍ତୁ": 731,
      " ମି": 732,
      "ମିତ": 733,
      " ହେଉ": 734,
      "ପରି": 735,
      "ଉତ୍ତ": 736,
      "ପୂର୍ବ": 737,
      "ରେ ପ": 738,
      "ଦାନ": 739,
      "ar": 740,
      "ଦିନ": 741,
      "ପାରିବ": 742,
      "ୌଣ": 743,
      "at": 744,
      "ଡ଼ିଶ": 745,
      "କାର୍": 746,
      "ଲା ": 747,
      "ରେ": 748,
      "ବସ": 749,
      "କ୍ଷରୁ ": 750,
      "ାକ": 751,
      "ଆଜି ": 752,
      "ମାନଙ୍କୁ ": 753,
      "ପୁର ": 754,
      " ଘ": 755,
      "ନୂଆ": 756,
      "ସ୍ଥାନ": 757,
      "ହ୍": 758,
      "ୋନା ": 759,
      "ୃଷ୍ଟ": 760,
      "ର ପ୍ର": 761,
      "ୌଣସି ": 762,
      "ଯେ ": 763,
      "ିକା ": 764,
      "ଷ୍ଟ୍ର": 765,
      "ଦଳ": 766,
      "202": 767,
      "କିନ୍ତୁ ": 768,
      " କି": 769,
      "ହେବ": 770,
      " ଅଧ": 771,
      "ହେଲ": 772,
      "ୁବନେ": 773,
      "ରେ କ": 774,
      "ମୁଖ୍ୟ": 775,
      "ଟିଏ": 776,
      "ଜଣେ ": 777,
      " ମୁ": 778,
      "ୀଙ୍କ ": 779,
      "ସହିତ": 780,
      " ଇ": 781,
      "ଦ୍ର": 782,
      "ସମସ୍ତ": 783,
      "ସ୍ୟ": 784,
      "ପରିବ": 785,
      "ଅଧିକ ": 786,
      "ାଟ": 787,
      " ବୋଲି ": 788,
      "ଶେଷ": 789,
      "ର କ": 790,
      "ଫଳ": 791,
      "ଗା": 792,
      "ବୋଲି ": 793,
      " ରା": 794,
      "।  ": 795,
      "ର୍ତ୍ତ": 796,
      "କଳ": 797,
      "ଉପରେ ": 798,
      "ଜନ": 799,
      "କାର୍ଯ୍ୟ": 800,
      "..": 801,
      "ବାଚ": 802,
      "ଦି ": 803,
      " କରିଥିଲେ ": 804,
      "ଯୁକ୍ତ": 805,
      "ସୂଚନା ": 806,
      "ାଳୟ": 807,
      "ାର ସ": 808,
      "ରେ ସ": 809,
      "ାଷ": 810,
      " କରିବାକୁ ": 811,
      " ଦେ": 812,
      " ମହ": 813,
      "ନ୍ତ୍ର": 814,
      "ାୟକ ": 815,
      "ୀନ": 816,
      "ୋଷ": 817,
      "ୋଟ": 818,
      "ଭୁବନେ": 819,
      " ଡ": 820,
      "ଚାର": 821,
      "ଲେ ": 822,
      " ଅନୁ": 823,
      "ବର୍ଷ": 824,
      "ାଇବା ": 825,
      "ତାଙ୍କୁ ": 826,
      "କରେ ": 827,
      "ା ପ": 828,
      " ସି": 829,
      "ୃଦ୍ଧ": 830,
      "ଚଳ": 831,
      "or": 832,
      "en": 833,
      " ଧ": 834,
      " କରିଛନ୍ତି ": 835,
      "ିର ": 836,
      "ଶ୍ୟ": 837,
      "ଘଟଣ": 838,
      "େଇ": 839,
      "ୀର ": 840,
      "ମନ୍ତ୍ରୀ ": 841,
      "ଚ୍": 842,
      "ଦିଆ": 843,
      "ହିଳ": 844,
      "ବସ୍ଥ": 845,
      " ନିର୍": 846,
      "ିଥିଲା ": 847,
      "୍ପ": 848,
      "ଚି": 849,
      "ମନ୍ତ୍ରୀ": 850,
      "ିତ୍": 851,
      "୍ମ": 852,
      "ବାହ": 853,
      "ମାଣ": 854,
      "ଶ୍ର": 855,
      "ଲା": 856,
      "ା ସ": 857,
      "ଡି ": 858,
      " ଭାବେ ": 859,
      " ୨": 860,
      "ମେ": 861,
      " ଏହି ": 862,
      "2021": 863,
      "ୀତ": 864,
      "y ": 865,
      "ରୁ": 866,
      "ଆଉ": 867,
      "ଦୁଇ": 868,
      "a ": 869,
      "୧୦": 870,
      "ବାଦ": 871,
      "ନ୍ୟ": 872,
      "ଟ୍ର": 873,
      " ଏକ ": 874,
      "ାସ୍ଥ": 875,
      "ନେକ ": 876,
      "େଣ": 877,
      "ଜାର": 878,
      "ରୋଧ": 879,
      "ଓଡ଼ିଶ": 880,
      "ର ଅ": 881,
      "ଦର୍ଶ": 882,
      "ବି ": 883,
      "ଡ୍": 884,
      " ପରି": 885,
      "es": 886,
      "ଭିନ୍ନ": 887,
      "ବିଜେ": 888,
      "ଲ୍": 889,
      "ାରିଖ": 890,
      "ଯେଉଁ": 891,
      "ବାର": 892,
      "ବୁ ": 893,
      "ଦିଲ୍ଲ": 894,
      "ମୁଖ": 895,
      "ର୍ଯ୍ୟନ୍ତ": 896,
      "୍ୟୁ ": 897,
      "ୋଲିସ": 898,
      "ିଲା ": 899,
      "ରି ": 900,
      "ହି ": 901,
      "ପି ": 902,
      "ର୍ବ": 903,
      " ପ୍ରତି": 904,
      "ଜ୍ଞ": 905,
      "ବିବ": 906,
      "ଦ୍ୱାରା ": 907,
      "ବର୍ତ୍ତ": 908,
      "ଶ୍ରୀ": 909,
      " ଛ": 910,
      "ିତ ହୋଇ": 911,
      "ାହା": 912,
      "l ": 913,
      "୧୯": 914,
      "ଯାଇଛି": 915,
      "୍ଷ": 916,
      "ଏହାକୁ ": 917,
      "ଭାବେ ": 918,
      "ଗୁଡ଼": 919,
      "ହେଉ": 920,
      "ଚାଲ": 921,
      "ହେଲେ ": 922,
      "ସ୍କ": 923,
      "ଗୁର": 924,
      "ାଧ": 925,
      "ରେ ଅ": 926,
      "ସରକାର": 927,
      "ାର୍ଥ": 928,
      "ଜୀବ": 929,
      "ଣି ": 930,
      " ନେ": 931,
      " ଜିଲ୍ଲ": 932,
      "୍ରେ ": 933,
      "ବାସ": 934,
      "ଥିବାରୁ ": 935,
      "ାନ୍ତି ": 936,
      "ାଙ୍କ ": 937,
      "ପଡ଼": 938,
      "ିଲେ ": 939,
      " ଅଭି": 940,
      " ଗ୍ର": 941,
      "ୟୁ": 942,
      "ଜୟ": 943,
      "କି ": 944,
      "ଭୟ": 945,
      "ଦ୍ଦେଶ": 946,
      "କ୍ରମଣ": 947,
      "ଶ୍ଚ": 948,
      " ଲକ୍ଷ": 949,
      " ପକ୍ଷରୁ ": 950,
      "ରେ ପ୍ର": 951,
      "ଏସ": 952,
      "କେ": 953,
      " କ୍ଷ": 954,
      "କ୍ସ": 955,
      "ପଦ": 956,
      " ପାଇ": 957,
      "ଜାର ": 958,
      "ସମୟରେ ": 959,
      " ମାନ": 960,
      "ଯେ": 961,
      "ଭୁବନେଶ୍ୱ": 962,
      "ପ୍": 963,
      "ହଞ୍ଚ": 964,
      "ବିଧ": 965,
      "ଆରମ୍ଭ": 966,
      "ମ୍ପର୍": 967,
      "ମଧ୍ୟରେ ": 968,
      "ଯାଏ": 969,
      "ରହିଛି ": 970,
      " ନେଇ": 971,
      "ସଭ": 972,
      "ସେହି": 973,
      "' ": 974,
      "ରାମ": 975,
      "ଂସ": 976,
      "ିମ": 977,
      "କାଳ": 978,
      " ତାରିଖ": 979,
      "ମାତ୍ର": 980,
      "କ୍ତି ": 981,
      "ାଖ": 982,
      "ନିୟ": 983,
      "ବଶ୍ୟ": 984,
      "ଥାଏ ": 985,
      "ନର ": 986,
      "ଗ୍ରହ": 987,
      "ଦେବ": 988,
      "କେନ୍ଦ୍ର": 989,
      " ସ୍ୱ": 990,
      "ିବା ପାଇଁ": 991,
      "ଲେଖ": 992,
      "ରୀ": 993,
      "େତ୍ର": 994,
      "ିକାର": 995,
      "ଟେ": 996,
      "di": 997,
      "ା ବ": 998,
      "ା ପ୍ର": 999,
      "ଲକ୍ଷ": 1000,
      "େଁ": 1001,
      "ଅଭିଯୋଗ": 1002,
      "ହ୍ନ": 1003,
      " ବିଭାଗ": 1004,
      "ଘଟଣା ": 1005,
      "ରେ ଆ": 1006,
      "ଭୂ": 1007,
      " ଉପ": 1008,
      "କୁ": 1009,
      "ଗ୍ରାମ": 1010,
      "ର୍ଚ୍ଚ": 1011,
      "ମନ": 1012,
      "ବତ": 1013,
      " ଯୋଗ": 1014,
      "the ": 1015,
      "ଗ୍ରେସ": 1016,
      "ନାମ": 1017,
      "ା ଓ": 1018,
      "ିକାରୀ": 1019,
      " ରାଜ୍ୟ": 1020,
      "ଜାତ": 1021,
      "ଚିତ": 1022,
      "ପ୍ରତି": 1023,
      "ିବ ": 1024,
      " ହେଲ": 1025,
      "ଂଗ୍ରେସ": 1026,
      "ଲ୍ୟ": 1027,
      "ାୟତ": 1028,
      "ଗୋଟିଏ": 1029,
      "ସାଧ": 1030,
      "ic": 1031,
      " ଲୋକ": 1032,
      "ଟର ": 1033,
      "େଟ୍": 1034,
      " ମୋ": 1035,
      "ୁହା": 1036,
      " ପରେ ": 1037,
      "ଶାସ": 1038,
      "ସାମ": 1039,
      "ସଂଖ୍ୟ": 1040,
      "ା ଅ": 1041,
      " ଦୁ": 1042,
      "ାକ୍ତ": 1043,
      "ିଥିବା ": 1044,
      "ପୋର୍ଟ": 1045,
      "ପକ୍ଷ": 1046,
      " ମା": 1047,
      "ଯାଇଥିବା ": 1048,
      "ାସ୍ଥ୍ୟ": 1049,
      "ରକୁ ": 1050,
      "ନି ": 1051,
      "ମୃତ୍ୟୁ ": 1052,
      " ପରିବ": 1053,
      "ପ୍ରଥମ": 1054,
      "କିଛି ": 1055,
      "ଞ୍ଚଳ": 1056,
      "ou": 1057,
      "ାଣି ": 1058,
      "ବିଶ୍ୱ": 1059,
      "ବ୍ର": 1060,
      "ିଥିଲା": 1061,
      " କୁମ": 1062,
      "ଏଥି": 1063,
      "ାରି ": 1064,
      "ତାଙ୍କର ": 1065,
      "ିକୁ ": 1066,
      "କ୍ରାନ୍ତ": 1067,
      " କରିଥିଲେ": 1068,
      "ନିଆ": 1069,
      "ଗଡ଼": 1070,
      " ଆର": 1071,
      " ଉପରେ ": 1072,
      "ଂଶ": 1073,
      "ଗିର": 1074,
      "ର ଆ": 1075,
      " ରଖ": 1076,
      "ପ୍ତ": 1077,
      "ିବା ପରେ ": 1078,
      "ଟୋ": 1079,
      "ାଲି ": 1080,
      "ମହିଳ": 1081,
      " ମିଳ": 1082,
      "er ": 1083,
      " ସ୍ଥାନ": 1084,
      "ମାମ": 1085,
      "ପୂର୍ଣ୍ଣ": 1086,
      "ହ୍ନଟ": 1087,
      "ନିର୍ବାଚ": 1088,
      "ଡ଼ି ": 1089,
      "େଖ": 1090,
      "ଟଙ୍କା ": 1091,
      "ର୍ଣ୍ଣ": 1092,
      "ed ": 1093,
      "େବଳ": 1094,
      "ିଅ": 1095,
      "କରୋନା ": 1096,
      "ୀଙ୍କୁ ": 1097,
      "ଦିଲ୍ଲୀ": 1098,
      "ବହାର": 1099,
      "ର ବି": 1100,
      "ାନୁ": 1101,
      "ମୂ": 1102,
      "ଲ୍ଲ": 1103,
      "୦୦": 1104,
      "ଂହ": 1105,
      "ୋନ": 1106,
      " ୩": 1107,
      "ନିକଟ": 1108,
      "ିକା": 1109,
      "ମା ": 1110,
      " ଚି": 1111,
      "ପତି ": 1112,
      "୍ୟୁ": 1113,
      "ମ୍ବା ": 1114,
      " କରିଛନ୍ତି": 1115,
      "2021 ": 1116,
      " କରିବା ପାଇଁ": 1117,
      "ଯାହା ": 1118,
      "ୁଁ": 1119,
      " ନାହିଁ": 1120,
      "ବିଦ୍ୟ": 1121,
      "ସେମାନେ ": 1122,
      "ମ୍ବର ": 1123,
      "o ": 1124,
      " ହୋଇଛି ": 1125,
      "ଭିତ": 1126,
      "ପ୍ରଶ୍": 1127,
      "ଶୀ": 1128,
      "ଟେ ": 1129,
      " ହେବା ": 1130,
      "om": 1131,
      "ଆହ": 1132,
      "ତେଣ": 1133,
      "ିକିତ୍": 1134,
      "ୁହେଁ": 1135,
      "ତୁ": 1136,
      "ଦାୟ": 1137,
      "ଦନ୍ତ": 1138,
      "େଷ୍ଟ": 1139,
      "ପୁଲ": 1140,
      " ପୂର୍": 1141,
      "ବୈ": 1142,
      " ଦିନ": 1143,
      "ୁଥିବା ": 1144,
      "at ": 1145,
      "ଦୂ": 1146,
      "କରଣ": 1147,
      "ାବେଳେ ": 1148,
      "ି କହ": 1149,
      "ପୂର୍ବରୁ ": 1150,
      " ହଜାର ": 1151,
      "ଟାଲ": 1152,
      "କଙ୍କ ": 1153,
      "ର ପ": 1154,
      " ଦିଆ": 1155,
      " କର୍ମ": 1156,
      " କରାଯାଇଛି ": 1157,
      "st": 1158,
      "ec": 1159,
      "ୋର": 1160,
      "ଶତ": 1161,
      "it": 1162,
      "ତ୍ସ": 1163,
      "ଚ୍ଛ": 1164,
      "ତେଣୁ ": 1165,
      "ମୁଁ": 1166,
      " ସା": 1167,
      " ନିଜ": 1168,
      "ଯୁବ": 1169,
      "ଥି": 1170,
      "ବିରୋଧ": 1171,
      "ୋର୍": 1172,
      "କା ": 1173,
      "ୋଧ": 1174,
      "ଖବର ": 1175,
      "ସମ୍": 1176,
      "ପତ୍ତ": 1177,
      "ବିଷ": 1178,
      "ଜଣାପ": 1179,
      " ଆସ": 1180,
      "ତନ": 1181,
      "ଅନେକ ": 1182,
      "ଗଣ": 1183,
      " ଆରମ୍ଭ": 1184,
      "କାରଣ": 1185,
      "ଏଥିରେ ": 1186,
      "ଧ୍ୟମ": 1187,
      "େବେଳେ ": 1188,
      " କିଛି ": 1189,
      "ଯାୟ": 1190,
      " କରିଛି ": 1191,
      "ଯାଉଛି ": 1192,
      " ସେ ": 1193,
      "ାତ୍ରୀ": 1194,
      "ସ୍ପ": 1195,
      " ପା": 1196,
      "ଦିନ ": 1197,
      "ସାଧାରଣ": 1198,
      "ସାର": 1199,
      " ଦେଖ": 1200,
      "ଡିଓ": 1201,
      "କ୍ତି": 1202,
      "ୁଛି ": 1203,
      "ଆଗ": 1204,
      "ନାହିଁ ": 1205,
      "ଗାଁ": 1206,
      "ୁଆ": 1207,
      "ିକ୍ର": 1208,
      "ଏସ୍": 1209,
      " ମଧ୍ୟରେ ": 1210,
      "ଣି": 1211,
      "କୌଣସି ": 1212,
      "ଅପ": 1213,
      "ର୍ଗ": 1214,
      "ଗ୍": 1215,
      "ଭେ": 1216,
      "| ": 1217,
      "ଶିକ୍ଷ": 1218,
      "ଭାରତୀୟ": 1219,
      "ପାଇ": 1220,
      "ଯୋଜ": 1221,
      "ଭଲ": 1222,
      "େକ ": 1223,
      "ିବେ ": 1224,
      " କେନ୍ଦ୍ର": 1225,
      "ର ବ": 1226,
      "ପୁଲିସ": 1227,
      "ଆମେ ": 1228,
      "ଗୁରୁତ": 1229,
      "ଏକ": 1230,
      "ି ହୋଇ": 1231,
      "ୂପ": 1232,
      "ସେହିପରି ": 1233,
      "କୁ ନେଇ": 1234,
      "ଲାଗି ": 1235,
      "ାନ୍ତି": 1236,
      " ପୁ": 1237,
      "ଧାର": 1238,
      "ପଡ": 1239,
      "ଏଭଳି ": 1240,
      "ିଲା": 1241,
      "ଛାତ୍ର": 1242,
      "୧୨": 1243,
      " ପାର": 1244,
      "ଏହାର": 1245,
      "ଉତ୍ତର ": 1246,
      "ଯାହ": 1247,
      "ଟ୍ଟ": 1248,
      "ଦେଶରେ ": 1249,
      "ଦକ୍ଷ": 1250,
      "ପାଳ": 1251,
      " ହୋଇଥିବା ": 1252,
      " ଗୋ": 1253,
      "ଯାଇଥିଲା ": 1254,
      "ୀରେ ": 1255,
      "ିକିତ୍ସ": 1256,
      "ଜାଣ": 1257,
      "em": 1258,
      "ିକି ": 1259,
      "ଫଳରେ ": 1260,
      "ଥିବାବେଳେ ": 1261,
      " କରୋନା ": 1262,
      "ପାଖ": 1263,
      " ଭାରତ": 1264,
      "ଡିଆ": 1265,
      "ଳ୍ପ": 1266,
      "ମତ": 1267,
      " ସମୟରେ ": 1268,
      "on ": 1269,
      "ଯଦି ": 1270,
      "ନା କର": 1271,
      "al": 1272,
      "୧୫": 1273,
      "ନ୍ନ ": 1274,
      " ହେଉଛି ": 1275,
      "0 ": 1276,
      "ୃହ": 1277,
      " କୋଟି ": 1278,
      "ନବ": 1279,
      " ରାଜ": 1280,
      "ୃଷ": 1281,
      "ନ୍ତର୍": 1282,
      " ମୁଖ୍ୟ": 1283,
      "ଭା": 1284,
      "ରୋଗ": 1285,
      " କରାଯିବ": 1286,
      "ମିଶ": 1287,
      "କର ": 1288,
      " କହିଛନ୍ତି ": 1289,
      " ଟଙ୍କା ": 1290,
      "ହେ": 1291,
      "କୋର୍ଟ": 1292,
      " ଅନ୍ୟ": 1293,
      "କ୍ରିୟ": 1294,
      "re": 1295,
      "ନ୍ସ": 1296,
      "ସ୍ତୁତ": 1297,
      "ଫ୍": 1298,
      "ହାତ": 1299,
      "ରହିଛି": 1300,
      "ଚାଷ": 1301,
      "ରାସ୍ତ": 1302,
      "ଖେଳ": 1303,
      "ତାହା ": 1304,
      "ନାଥ": 1305,
      "ଲାଇ": 1306,
      " ଡି": 1307,
      "ୋଷଣା ": 1308,
      "ିକ୍": 1309,
      "ରାଜ୍ୟରେ ": 1310,
      "ପ୍ରଧାନ": 1311,
      "ବାନ": 1312,
      "ଥିରେ ": 1313,
      "ଜଳ": 1314,
      " କ୍ର": 1315,
      " ଶି": 1316,
      "ୀକ୍ଷ": 1317,
      "ଠି ": 1318,
      "ଜୁ": 1319,
      "ଥର ": 1320,
      "ା କରା": 1321,
      "କ୍ୟ": 1322,
      "ସ୍ତାନ": 1323,
      "ଦ୍ଧା ": 1324,
      "ଙ୍କ ସହ": 1325,
      "ସମୟ": 1326,
      "ବ୍": 1327,
      "ଚାଳ": 1328,
      "ିବାକୁ ମିଳ": 1329,
      "ୟାର": 1330,
      "ସୋ": 1331,
      "ବଳ": 1332,
      "ଟିଭ": 1333,
      " ସାମ": 1334,
      "ଷ୍ଠାନ": 1335,
      "ବର୍ତ୍ତମାନ": 1336,
      " ସହିତ": 1337,
      "ବସାୟ": 1338,
      "ing": 1339,
      "୧୧": 1340,
      "ପୋଲିସ": 1341,
      " ୫": 1342,
      "ୀ ଓ": 1343,
      "ରାଷ୍ଟ୍ର": 1344,
      "କରା": 1345,
      "ଡା ": 1346,
      " ଦି": 1347,
      "ମାର": 1348,
      "sh": 1349,
      "ସେମାନଙ୍କ ": 1350,
      "ବୃଦ୍ଧ": 1351,
      "।   ": 1352,
      "େପ": 1353,
      "ବଡ଼": 1354,
      "ଫେର": 1355,
      "ବାର ": 1356,
      " ଲାଗ": 1357,
      "ିଲ୍": 1358,
      "ଡ଼ିଆ": 1359,
      "ଗିରଫ": 1360,
      "M ": 1361,
      "ଟା ": 1362,
      " ପର୍ଯ୍ୟନ୍ତ": 1363,
      "ସୁର": 1364,
      "ି କରା": 1365,
      "ବ୍ଲ": 1366,
      "ଷ୍ପତ୍ତ": 1367,
      " ୪": 1368,
      " ବେ": 1369,
      "ହିଁ": 1370,
      "ଲୋକ ": 1371,
      " ଗୁ": 1372,
      "ବାଇ": 1373,
      "କୋଭି": 1374,
      "ମି ": 1375,
      "ଭାଇ": 1376,
      "ସନ୍": 1377,
      "ରାଇ": 1378,
      "୧୮": 1379,
      "ରହି": 1380,
      "ାଣି": 1381,
      " ବିଷ": 1382,
      "ପାଦ": 1383,
      " ପୂର୍ବ": 1384,
      "ପାରେ ": 1385,
      "େମ": 1386,
      "ସଙ୍ଗ": 1387,
      "ସିଆ": 1388,
      "ଭିନ୍ନ ": 1389,
      "ସେହି ": 1390,
      "ଞ୍ଚଳରେ ": 1391,
      "ପ୍ରଶ୍ନ ": 1392,
      "ବିଶେଷ": 1393,
      "ିତୀୟ": 1394,
      "/2021 ": 1395,
      "ମନ୍ଦ": 1396,
      "ନିର୍ଦ୍ଦେଶ": 1397,
      "ବିଭିନ୍ନ": 1398,
      "କାରୀ": 1399,
      "ଓଡ଼ିଶା ": 1400,
      " ତାଙ୍କ ": 1401,
      "ମାସ": 1402,
      "ଭିଡିଓ": 1403,
      "ନିବ": 1404,
      "ପ୍ରକାଶ": 1405,
      "ଜିଲ୍ଲା ": 1406,
      "କର୍ମ": 1407,
      "ଉଭୟ": 1408,
      "ଡାକ୍ତ": 1409,
      "ଦେହ": 1410,
      "ଯାତ୍ର": 1411,
      " ୨୦": 1412,
      "ାନ୍ସ": 1413,
      "ନର": 1414,
      " ରହିଛି ": 1415,
      "ଦନ": 1416,
      "ଂଚ": 1417,
      "ମାନଙ୍କର ": 1418,
      "ପୂ": 1419,
      " ହେ": 1420,
      " ସୂ": 1421,
      "ଲୋଚନା ": 1422,
      "ଜାତୀୟ": 1423,
      " ମେ": 1424,
      "ପାରିବେ ": 1425,
      "ସାରେ ": 1426,
      "ଦା": 1427,
      "ାପତି ": 1428,
      "ରିପୋର୍ଟ": 1429,
      " ମାସ": 1430,
      "ଡ଼ା ": 1431,
      "ଦ୍ଧାର": 1432,
      "ନାରେ ": 1433,
      "ସମ୍ପ": 1434,
      " ଆମ": 1435,
      " ଖେଳ": 1436,
      "to ": 1437,
      "ନାଲ": 1438,
      "ବଶ୍ୟକ": 1439,
      "f ": 1440,
      "ାଦ୍ୟ": 1441,
      "ଡିକ": 1442,
      "ଲଗ": 1443,
      "୧୪": 1444,
      "am": 1445,
      " କରାଯାଇଛି": 1446,
      "ସବୁ ": 1447,
      "ଡ଼ି": 1448,
      "ରର ": 1449,
      "ଧିକ ": 1450,
      "ମ୍ପାନ": 1451,
      "ୁଏ": 1452,
      " ସମସ୍ତ": 1453,
      "ଦର୍ଶନ": 1454,
      "ୋଳ": 1455,
      "କଳ୍ପ": 1456,
      "ତଦନ୍ତ": 1457,
      "ସେ କହ": 1458,
      "ଚାରୀ": 1459,
      "ଦୁର୍": 1460,
      " ଦଳ": 1461,
      "ତୃତ": 1462,
      "ାନ୍ଧ": 1463,
      "ଥ୍ୟ": 1464,
      "୩୦": 1465,
      "ଝିଅ": 1466,
      "ସ୍ୱାସ୍ଥ୍ୟ": 1467,
      " ପ୍ରଧାନ": 1468,
      "ରା ": 1469,
      "ସିଂହ": 1470,
      "କେବଳ": 1471,
      " ସ୍ଥ": 1472,
      " କରିଥିବା ": 1473,
      " ଚିହ୍ନଟ": 1474,
      "ମିତି ": 1475,
      " କ୍ଷେତ୍ର": 1476,
      "ାପ୍ତ": 1477,
      "ୂଳ": 1478,
      "ew": 1479,
      "ୁରୋ": 1480,
      "ତିରେ ": 1481,
      "ti": 1482,
      "ଡିଶ": 1483,
      "ରେ ଥିବା ": 1484,
      "୨୧": 1485,
      " କରୁଥିବା ": 1486,
      "ୀ ବ": 1487,
      " ୱ": 1488,
      "ସ୍ଥିତି ": 1489,
      "ିତ୍ର": 1490,
      "ିଲ୍ମ": 1491,
      "ବନ୍ଧ": 1492,
      "ସଂଖ୍ୟା ": 1493,
      " ଷ୍ଟ": 1494,
      "ନକୁ ": 1495,
      "ିଂ": 1496,
      " ହୋଇଛନ୍ତି ": 1497,
      "ହେଉଛି ": 1498,
      "ୁଷ": 1499,
      "ପିଟାଲ": 1500,
      "ନିକ ": 1501,
      "ସିହ": 1502,
      " ସାହ": 1503,
      "ଆହୁର": 1504,
      " ପ୍ରଦାନ": 1505,
      "/ ": 1506,
      "ପେ": 1507,
      "st ": 1508,
      "ଭୁବନେଶ୍ୱର": 1509,
      " କରିବେ ": 1510,
      "ତେ ": 1511,
      " କାମ": 1512,
      "ov": 1513,
      " ଆଇ": 1514,
      " ରେ ": 1515,
      "ାପରେ ": 1516,
      "ପ୍ରତ": 1517,
      "ଭର": 1518,
      "ଘର ": 1519,
      "ଧ୍ୟକ୍ଷ": 1520,
      "ଉତ୍ତର": 1521,
      "ପାରେ": 1522,
      "ତଥା ": 1523,
      " ବିଶ୍ୱ": 1524,
      " ବୋଲ": 1525,
      " ମିଶ": 1526,
      "ଲୁ": 1527,
      "ଞ୍ଚାୟତ": 1528,
      "କରି ": 1529,
      "ଯିବା ": 1530,
      "ଏନେଇ": 1531,
      "ପ୍ରତି ": 1532,
      "ବସ୍ଥା ": 1533,
      "ମାଲ": 1534,
      "ଯୋଗ୍ୟ": 1535,
      "es ": 1536,
      "ାଁ": 1537,
      "ଟ୍ଟନ": 1538,
      " କେ": 1539,
      "ବେଶ": 1540,
      "ବିଭାଗ": 1541,
      "ଯାଇଥିଲା": 1542,
      " ହୋଇଛି": 1543,
      "and ": 1544,
      "ଜ୍ଞାନ": 1545,
      "ଭବ": 1546,
      "ନୋ": 1547,
      " ପୁର": 1548,
      "ହଣ": 1549,
      "ଗ୍ରହଣ": 1550,
      " ସୃଷ୍ଟ": 1551,
      " ଆପଣ": 1552,
      " କୌଣସି ": 1553,
      " କାରଣ": 1554,
      "ବ୍ୟବହାର": 1555,
      "ନ୍ତା ": 1556,
      "ାୟକ": 1557,
      "ପୁଣି ": 1558,
      "ପତ୍ର": 1559,
      "୨୨": 1560,
      "ହାସ": 1561,
      " ଦୁଇ": 1562,
      "ଡେ": 1563,
      "ଏଠାରେ ": 1564,
      "ଏମ୍": 1565,
      "ଳା ": 1566,
      " ଚାଲ": 1567,
      " ଦେଶ": 1568,
      " ବାହ": 1569,
      "ଏମ": 1570,
      "ାପାଳ": 1571,
      " କୁମାର": 1572,
      "of ": 1573,
      "ସାମ୍": 1574,
      ".\n": 1575,
      "ଷ୍ପତ୍ତି ": 1576,
      "େତେବେଳେ ": 1577,
      "ୟନ": 1578,
      "ପଟେ ": 1579,
      "ୋକ ": 1580,
      "ନ୍ଦୁ": 1581,
      "ସୂଚ": 1582,
      "କାଇ": 1583,
      "ଦିବ": 1584,
      "ନୂଆଦିଲ୍ଲୀ": 1585,
      "ଙ୍କ ପାଇଁ": 1586,
      "ଦସ୍ୟ": 1587,
      " ଏହା ": 1588,
      "ଏହାର ": 1589,
      "ୀକ୍ଷା ": 1590,
      "ବନ୍ଦ": 1591,
      " ସମ୍": 1592,
      "୧୬": 1593,
      " ପ୍ରତିଶତ": 1594,
      "ଗଠ": 1595,
      " ହେବ ": 1596,
      "ri": 1597,
      "ଦୃଷ୍ଟ": 1598,
      " କରନ୍ତୁ": 1599,
      "ମଧ୍ୟରୁ ": 1600,
      "ପରିବାର": 1601,
      "ସ୍ପିଟାଲ": 1602,
      "ବୋଲ": 1603,
      "ଡ୍ର": 1604,
      "ସମ୍ବ": 1605,
      "ଠାଇ": 1606,
      " ମହିଳ": 1607,
      "ଦାବ": 1608,
      "କର୍": 1609,
      "ବେ ": 1610,
      "ସମସ୍ୟ": 1611,
      "ଆୟ": 1612,
      "? ": 1613,
      "ରିଆ": 1614,
      "କୁ ପ": 1615,
      "ଛାତ୍ରୀ": 1616,
      " ସମୟ": 1617,
      "୧୭": 1618,
      "ାଞ୍ଚ": 1619,
      "ଚିକିତ୍ସ": 1620,
      "ତାଲ": 1621,
      "ବିଦ୍ୟାଳୟ": 1622,
      "il": 1623,
      "ନନ୍ଦ": 1624,
      "ing ": 1625,
      "el": 1626,
      " ମାମ": 1627,
      "ଅର୍ଥ": 1628,
      "ି ପାଇ": 1629,
      "ଯାଉଛି": 1630,
      "ରୁ ଅଧିକ ": 1631,
      "ଖଣ୍ଡ": 1632,
      "ପର୍": 1633,
      " ଭିତ": 1634,
      "ac": 1635,
      " କାର୍ଯ୍ୟକ୍ରମ": 1636,
      "ରାୟ": 1637,
      "କିସ୍ତାନ": 1638,
      " ନିର୍ବାଚ": 1639,
      "ସମ୍ପର୍": 1640,
      "କ୍ରମିତ": 1641,
      " ମୃତ": 1642,
      "ବୀ": 1643,
      "in ": 1644,
      " ମନ୍ତ": 1645,
      "ଣ୍ଡିଆ": 1646,
      "ତନ୍ତ୍ର": 1647,
      " ଟି": 1648,
      "ରେ ବି": 1649,
      "ନ୍ମ": 1650,
      " କିମ୍ବା ": 1651,
      "ଙ୍କାର": 1652,
      "ନୀତି ": 1653,
      " ସମ୍ପର୍": 1654,
      "ହାଇ": 1655,
      "ିବାରେ ": 1656,
      "ମାଧ୍ୟମ": 1657,
      "୫୦": 1658,
      " ବ୍ୟା": 1659,
      "ଜୀବନ": 1660,
      "ag": 1661,
      "ଚଳିତ": 1662,
      "ବିବାହ": 1663,
      " ପି": 1664,
      "କ୍ଷେତ୍ର": 1665,
      "ନିର୍ବାଚନ": 1666,
      "ବିଜେପି ": 1667,
      " ଗ୍ରହଣ": 1668,
      "ଜର ": 1669,
      "ber ": 1670,
      " ଜନ": 1671,
      "ସଂକ୍ରମଣ": 1672,
      " ବିଜେ": 1673,
      "ପାଠ": 1674,
      "ୈତ": 1675,
      "ାଇବା ପାଇଁ": 1676,
      " ଜୀବ": 1677,
      "ିଣ": 1678,
      "ଯାୟୀ": 1679,
      "ସାଇ": 1680,
      "ସ୍ଥାନୀୟ": 1681,
      " ଅଧିକାରୀ": 1682,
      "ନ୍ତ୍ରଣ": 1683,
      " ବହ": 1684,
      "କୁହା": 1685,
      " ବନ୍ଦ": 1686,
      "କାମ": 1687,
      "ତମ": 1688,
      "ଏଲ": 1689,
      "ତାର": 1690,
      " ୬": 1691,
      "ିକେଟ": 1692,
      "ରାଉ": 1693,
      "ଦ୍ବ": 1694,
      " ରି": 1695,
      "ଦୃ": 1696,
      " କରିଛି": 1697,
      "ଦେଇଛନ୍ତି ": 1698,
      " ମସିହ": 1699,
      "ଦେଖିବାକୁ ମିଳ": 1700,
      "ୁଛନ୍ତି ": 1701,
      "/0": 1702,
      "ରକ୍ଷ": 1703,
      "୧୩": 1704,
      "ଲି ": 1705,
      " ଓଡ଼ିଶ": 1706,
      "ଆଶ": 1707,
      "୨୪": 1708,
      "ସ୍ତ୍ର": 1709,
      "ଜୁ ": 1710,
      " ଟ୍ର": 1711,
      " ହୋଇଥିଲା ": 1712,
      " ଶୁ": 1713,
      "ତାକୁ ": 1714,
      "ମୋଟ": 1715,
      "ର୍ଘ": 1716,
      "ଉତ୍": 1717,
      "ରିକ": 1718,
      "ଗୁରୁତ୍ୱ": 1719,
      "ିତା ": 1720,
      "ହାର": 1721,
      "ଗର": 1722,
      "ପଥ": 1723,
      " ରହିଛି": 1724,
      "ବ୍ୟବସାୟ": 1725,
      " ବୈ": 1726,
      "ନିଜର ": 1727,
      "ବହୁ ": 1728,
      "ପହଞ୍ଚ": 1729,
      " ରେ": 1730,
      "ନେତା ": 1731,
      "ଶୁଭ": 1732,
      "କାନ": 1733,
      "ଫିସ": 1734,
      " ଘଣ୍ଟ": 1735,
      "ol": 1736,
      "ନାକୁ ": 1737,
      "ିଲି": 1738,
      " ପଟ୍ଟନ": 1739,
      " ଥିବା ": 1740,
      "ମ୍ବାଇ": 1741,
      "ଦୀପ": 1742,
      "ପର୍ଯ୍ୟନ୍ତ": 1743,
      "ରେ ବ": 1744,
      "ିବେ": 1745,
      "ଏନ": 1746,
      "ଭୁ": 1747,
      "ଦ୍ୱିତୀୟ": 1748,
      " ଶ୍ର": 1749,
      "ନୟ": 1750,
      "ରେ ଏକ ": 1751,
      "ଏଥିପାଇଁ": 1752,
      " କହିଛନ୍ତି": 1753,
      "ଚେତ": 1754,
      "ଭଦ୍ର": 1755,
      "ାଡ଼": 1756,
      "ଗ୍ରୀ": 1757,
      "୍ରାସ": 1758,
      "ent": 1759,
      "କୃତ": 1760,
      "ପ୍ରାୟ": 1761,
      "ଫ୍ର": 1762,
      " ଜଣେ ": 1763,
      "ଅବ": 1764,
      " ସମ୍ପ": 1765,
      "ଷ୍ଣ": 1766,
      "ସେଠାରେ ": 1767,
      "ିତ୍ୱ": 1768,
      "; ": 1769,
      "19": 1770,
      "ାଙ୍କୁ ": 1771,
      "ର୍ସ": 1772,
      "ଜଣାପଡ଼": 1773,
      "ଲୋକେ ": 1774,
      "ମନ୍ତେ ": 1775,
      " ବୁ": 1776,
      "ଣୀ": 1777,
      "ଳେ ": 1778,
      "ୃତି ": 1779,
      "ଶ୍ଚିମ": 1780,
      "ସୁବିଧ": 1781,
      "ରାଜ୍ୟ ସରକାର": 1782,
      "ନୁହେଁ": 1783,
      " ବୃଦ୍ଧ": 1784,
      "ସେବ": 1785,
      "୍ୟାଚ": 1786,
      "ଭାବନା ": 1787,
      "ଳା": 1788,
      "ଟିଂ": 1789,
      "ୂର୍ଣ୍ଣ": 1790,
      "ଶାନ୍ତ": 1791,
      "ମୟ": 1792,
      "ad": 1793,
      "ୀନ ": 1794,
      " ପୁଲ": 1795,
      " ସୂଚନା ": 1796,
      " ଅର୍ଥ": 1797,
      " ପଦ": 1798,
      "ସ୍କୁଲ": 1799,
      "ଘର": 1800,
      "ରିଷ୍ଠ": 1801,
      "ରେ ପହଞ୍ଚ": 1802,
      "ଦେବା ": 1803,
      "( ": 1804,
      "ାଙ୍ଗ": 1805,
      "ନିର୍ମାଣ": 1806,
      "ା ପାଇଁ": 1807,
      "ବଶ୍ୟକ ": 1808,
      "ଉଚ୍ଚ": 1809,
      " ସଭ": 1810,
      ", 2021": 1811,
      "ହୋଇଥିବା ": 1812,
      "ir": 1813,
      "ଦାସ": 1814,
      "କେତ": 1815,
      "ଥା": 1816,
      "ଜ୍ୟ": 1817,
      "ଗୁଡ଼ିକ ": 1818,
      "ରାଧ": 1819,
      "2 ": 1820,
      "ବହୁତ": 1821,
      "ଏପରି ": 1822,
      "ଠୁ ": 1823,
      "ଓଡିଶ": 1824,
      "ସ୍କାର": 1825,
      "ର୍ଥିକ ": 1826,
      "ପ୍ରଦାନ": 1827,
      "PM ": 1828,
      " ପ୍ରକାଶ": 1829,
      "ଜିଲ": 1830,
      "al ": 1831,
      " କାର": 1832,
      "ାଲ୍": 1833,
      "ଦିଆଯାଇଥିବା ": 1834,
      "ରାମର୍ଶ": 1835,
      "ଆକ୍ରାନ୍ତ": 1836,
      "ବସରରେ ": 1837,
      " ବିଷୟରେ ": 1838,
      "ମାମଲା ": 1839,
      "ଶୁଣ": 1840,
      "k ": 1841,
      "ରୂପ": 1842,
      "ୋହ": 1843,
      "ପରିବର୍ତ୍ତ": 1844,
      "ମାମଲ": 1845,
      "ଏହି ଅ": 1846,
      "୨୫": 1847,
      "କଂଗ୍ରେସ": 1848,
      "ର୍ଦ୍ଧ": 1849,
      "ୟସ": 1850,
      "େନ୍": 1851,
      "ିତ୍ୟ": 1852,
      " କରିଥାଏ": 1853,
      " ନୁହେଁ": 1854,
      "ରେ ରହ": 1855,
      "ଗଡ": 1856,
      "ସଫଳ": 1857,
      "କୁ ଆ": 1858,
      "େନ": 1859,
      "ବାହାର": 1860,
      "): ": 1861,
      " ଗ୍ରାମ": 1862,
      "ଫିଲ୍ମ": 1863,
      "ିସ୍": 1864,
      "ନାହ": 1865,
      "ବ୍ୟକ୍ତି": 1866,
      "ନାର": 1867,
      "ଚିବ": 1868,
      "ସବୁ": 1869,
      "ଦାର": 1870,
      "ାଣ୍ଡ": 1871,
      "ଧାନସଭ": 1872,
      "....": 1873,
      "ାଭ": 1874,
      "ୋଷଣା କର": 1875,
      "ଜିତ": 1876,
      "ଦା ": 1877,
      "ମୁଖ୍ୟମନ୍ତ୍ରୀ ": 1878,
      "ୁଛି": 1879,
      "କୋଭିଡ": 1880,
      " କରାଯାଇଥିଲା ": 1881,
      "ଥାନ୍ତି ": 1882,
      "ବୈଠ": 1883,
      "ାର୍ଡ": 1884,
      "ସର୍": 1885,
      " ପୂର୍ବରୁ ": 1886,
      "ଉନ୍ନ": 1887,
      "ାଇବାକୁ ": 1888,
      "ସ୍ବା": 1889,
      "ୋର ": 1890,
      " ଜଳ": 1891,
      "ତାହ": 1892,
      "ଉଲ୍ଲ": 1893,
      "ଙ୍କ ପ": 1894,
      " ଏବେ ": 1895,
      " ୭": 1896,
      " ନିୟ": 1897,
      "ଫୋ": 1898,
      "କାଲି ": 1899,
      " କଲେ ": 1900,
      "ପୁଅ": 1901,
      "ସର": 1902,
      "େଲ୍": 1903,
      "ମହିଳା ": 1904,
      "ୀମାନେ ": 1905,
      "ୂତନ": 1906,
      " କଂଗ୍ରେସ": 1907,
      "ିକାରୀ ": 1908,
      "ାନୁଷ୍ଠାନ": 1909,
      "ଓ୍": 1910,
      "ଖାଦ୍ୟ": 1911,
      "ସୁନ୍ଦ": 1912,
      "ଭାବରେ ": 1913,
      "ମୁଖ୍ୟମନ୍ତ୍ରୀ": 1914,
      "ସମେତ": 1915,
      "ମୁଣ୍ଡ": 1916,
      "େଜ": 1917,
      "ସେତ": 1918,
      "ୀ ପ": 1919,
      "ଲାଭ": 1920,
      "ଆମେର": 1921,
      "ଶିକ୍ଷା ": 1922,
      "ପୁଟ": 1923,
      "ାତ୍ମ": 1924,
      " କରୁଛନ୍ତି ": 1925,
      "ହତ୍ୟ": 1926,
      " କରନ୍ତୁ ": 1927,
      "ch": 1928,
      "ନୈତ": 1929,
      "ଗଞ୍ଜ": 1930,
      "ାଡ": 1931,
      "ଙ୍ଗଲ": 1932,
      " କଥା ": 1933,
      "Odi": 1934,
      " ବ୍ୟବହାର": 1935,
      "ଙ୍ଗଳ": 1936,
      "ଦେଶର ": 1937,
      "ଗୃହ": 1938,
      "ଆପଣଙ୍କ ": 1939,
      " କର୍ମଚାରୀ": 1940,
      " କୁ": 1941,
      "ରେ ଏହି ": 1942,
      "our": 1943,
      "ଘ୍ର": 1944,
      "ାୟତା ": 1945,
      "ହୋଇଛି ": 1946,
      "ଚନ୍ଦ୍ର": 1947,
      "ହତ": 1948,
      "ଭୁବନେଶ୍ୱର ": 1949,
      "ଯିବ ": 1950,
      "ଗର ": 1951,
      "ଏହାପରେ ": 1952,
      "ସୁସ୍ଥ": 1953,
      ", 2021\n": 1954,
      "୍ୟାନ": 1955,
      "ଥାନା ": 1956,
      "ାହାଯ୍ୟ": 1957,
      "ଶଂସ": 1958,
      "ଘଟଣାରେ ": 1959,
      " ହେବାକୁ ": 1960,
      "ଫାଇ": 1961,
      "ଚା": 1962,
      " ସମା": 1963,
      "ସେମାନଙ୍କୁ ": 1964,
      "ବାକ୍ୟ": 1965,
      "ଦେଖା": 1966,
      "ଜା ": 1967,
      "ଧ୍ୟାନ": 1968,
      " ଥିଲେ ": 1969,
      "ଥରେ ": 1970,
      " ବିବ": 1971,
      "ଶ୍ରମ": 1972,
      "ସଲ": 1973,
      "ପ୍ରିୟ": 1974,
      "ପ୍ରତ୍ୟ": 1975,
      "କାର୍ଯ୍ୟକ୍ରମ": 1976,
      "ଖୁ": 1977,
      "ember ": 1978,
      " ସେବ": 1979,
      "ପାରିବେ": 1980,
      " ପର୍ଯ୍ୟ": 1981,
      " ତାରିଖରେ ": 1982,
      "ଶିଶ": 1983,
      "ନ ଓ": 1984,
      " ପୋଲିସ": 1985,
      "ୁତି ": 1986,
      " ଜାରି ": 1987,
      " ଯୋଜ": 1988,
      "ମାଳ": 1989,
      "ଶାସନ": 1990,
      "ଧର୍ମ": 1991,
      " ଆଜି ": 1992,
      " ଅଭିଯୋଗ": 1993,
      "ମେଣ୍ଟ": 1994,
      "କଙ୍କୁ ": 1995,
      " ସୁର": 1996,
      "ଭୁବନେଶ୍": 1997,
      "ଦ୍ୟମ": 1998,
      " ରହି": 1999,
      "ow": 2000,
      " କମି": 2001,
      "ୁଟ": 2002,
      "ାକୁ ନେଇ": 2003,
      "ବ୍ୟା": 2004,
      " ପ୍ରଥମ": 2005,
      "ାପନ": 2006,
      "ମୁମ୍ବାଇ": 2007,
      "ନିକଟରେ ": 2008,
      " ନୂଆ": 2009,
      "ଲୋକଙ୍କ ": 2010,
      "ବିଜୟ": 2011,
      "ati": 2012,
      "ଚିହ୍ନଟ": 2013,
      " ୮": 2014,
      "ୁର ": 2015,
      "ପାକିସ୍ତାନ": 2016,
      "ରଖି ": 2017,
      "େଣ୍ଟ": 2018,
      " ରୋଗ": 2019,
      " କରିବା ସହ": 2020,
      "ିବା ସହ": 2021,
      "ାତ୍": 2022,
      "ତୀତ": 2023,
      "as": 2024,
      "ରାଲ": 2025,
      "ଚେ": 2026,
      " ତଥା ": 2027,
      " କଲେ": 2028,
      "ବ୍ୟାପ": 2029,
      "ବାୟ": 2030,
      "ଦୀର୍ଘ": 2031,
      "ବଡ": 2032,
      " କରିବାରେ ": 2033,
      "େଟ୍ର": 2034,
      "ମୀ": 2035,
      "ାମୀ ": 2036,
      "ାର ସମ୍": 2037,
      " ଲେଖ": 2038,
      "ଉତ୍ସ": 2039,
      "ପ୍ରଭାବ": 2040,
      "ପର୍ଯ୍ୟ": 2041,
      "ଥିପାଇଁ": 2042,
      " ହୋଇଛନ୍ତି": 2043,
      "ଠିକ୍": 2044,
      "ଏପର": 2045,
      "କଟକ": 2046,
      "୍ୟାସ": 2047,
      "ଲେଖନ୍ତୁ": 2048,
      "ବସ୍ଥାରେ ": 2049,
      "କୁ ଅନ୍ୟ": 2050,
      "ପୃ": 2051,
      "କାବ": 2052,
      "ର ଏକ ": 2053,
      " ପରିବାର": 2054,
      "ଶ୍ୱର ": 2055,
      "ଅନୁଷ୍ଠ": 2056,
      " ୧୦": 2057,
      "8 ": 2058,
      "ଆକ୍ରମଣ": 2059,
      "କ୍ଟ": 2060,
      "ତଙ୍କ": 2061,
      "ଘଟଣାସ୍ଥ": 2062,
      " ଅଞ୍ଚଳ": 2063,
      "ବାଲେ": 2064,
      " ଅଧିକ ": 2065,
      " ପୂ": 2066,
      " ଆକ୍ରାନ୍ତ": 2067,
      "ଆସୁ": 2068,
      "ଦୁଇଟି ": 2069,
      "ଚିନ୍ତ": 2070,
      "ଙ୍କର": 2071,
      "ମୂଲ୍ୟ": 2072,
      "ଦେଇଥିଲେ ": 2073,
      "ed": 2074,
      "ଜିଲ୍ଲାରେ ": 2075,
      "ସକାଳ": 2076,
      "ଯେତେବେଳେ ": 2077,
      " କରିଥିଲା ": 2078,
      "କ୍ଷମ": 2079,
      "New": 2080,
      "ନିଶ୍ଚ": 2081,
      "ସାହ": 2082,
      "ଖୁବ": 2083,
      "1 ": 2084,
      " ସ୍ତ": 2085,
      "ରେ ଭ": 2086,
      "ଜଣାପଡ": 2087,
      "dat": 2088,
      "is ": 2089,
      " ଲି": 2090,
      " ବ୍ର": 2091,
      "ବିଷୟରେ ": 2092,
      "କାଉ": 2093,
      "ନିଷ୍ପତ୍ତି ": 2094,
      "ଗି": 2095,
      "ରଫ": 2096,
      "10": 2097,
      "ନୀୟ": 2098,
      "ଉଦ୍ଧାର": 2099,
      " ମିଡିଆ": 2100,
      "ଗୁଡ": 2101,
      "\t\n": 2102,
      "ଞ୍ଜନ": 2103,
      "ଶ୍ରୀ ": 2104,
      "ାନି": 2105,
      "ଯୁକ୍ତି ": 2106,
      "    ": 2107,
      "ଲୋକଙ୍କୁ ": 2108,
      " ନିକଟ": 2109,
      "ଯାଏ ": 2110,
      " ବିଧ": 2111,
      " ବା": 2112,
      "ନୈତିକ ": 2113,
      "ଟକ": 2114,
      "ପ୍ଟ": 2115,
      "com": 2116,
      "ାପାତ୍ର": 2117,
      "or ": 2118,
      " ମିଶ୍ର": 2119,
      "ସନ୍ତ": 2120,
      " ହେଲା ": 2121,
      "% ": 2122,
      " ଆଉ": 2123,
      "କ ଅ": 2124,
      "ଉଠ": 2125,
      " ଯୁବ": 2126,
      " ସୋ": 2127,
      "ଜଗ": 2128,
      "ପରିବାର ": 2129,
      "ଥି ": 2130,
      "ଯୋଗୁଁ": 2131,
      "ନୀ ": 2132,
      "ଗରେ ": 2133,
      "ନ୍ତର୍ଗତ": 2134,
      " ହି": 2135,
      "ଟିକ": 2136,
      "ଦିଆଯାଇଥିବା ବାକ୍ୟ": 2137,
      "ବାଳ": 2138,
      " ଗୁର": 2139,
      "ୁଳ": 2140,
      " ଭାବେ ଲେଖନ୍ତୁ": 2141,
      "ଦିଆଯାଇଥିବା ବାକ୍ୟକୁ ଅନ୍ୟ": 2142,
      "ଦିଆଯାଇଥିବା ବାକ୍ୟକୁ ଅନ୍ୟ ଭାବେ ଲେଖନ୍ତୁ": 2143,
      "ଧରି ": 2144,
      " ଶିକ୍ଷ": 2145,
      "ଅଧିକାରୀ": 2146,
      " ବିରୋଧ": 2147,
      " ପ୍ରତ": 2148,
      "5 ": 2149,
      "ପ୍ଲ": 2150,
      "ଉପସ୍ଥିତ": 2151,
      "ଯାନ": 2152,
      " ତାଙ୍କୁ ": 2153,
      "up": 2154,
      " ସମସ୍ୟ": 2155,
      "ପ୍ରଥମେ ": 2156,
      "ପ୍ତାହ": 2157,
      "ଷଦ": 2158,
      "୨୩": 2159,
      " ନାହିଁ ": 2160,
      " ପାଳ": 2161,
      "ଣ୍ଡା ": 2162,
      "ହନ": 2163,
      "ତିନି ": 2164,
      "କୁଲ": 2165,
      "ବଶ୍ୟକତା ": 2166,
      "lic": 2167,
      " ଦେଇଥିଲେ ": 2168,
      "\" ": 2169,
      "Th": 2170,
      "ି କହିଛନ୍ତି ": 2171,
      " ବିଭିନ୍ନ": 2172,
      "ବାଦୀ": 2173,
      "ନୀତି": 2174,
      "ିତି ": 2175,
      "ିଆର": 2176,
      "ୁରନ୍ତ": 2177,
      "ଉଦ": 2178,
      "ହଁ": 2179,
      "କହିଛନ୍ତି ": 2180,
      " ହଜାର": 2181,
      "ଯୋଜନା ": 2182,
      "ଟେଲ": 2183,
      "ଗତକାଲି ": 2184,
      " ବ୍ଲ": 2185,
      "ବୁଝ": 2186,
      "ଶିଷ୍ଟ": 2187,
      "ଚର୍ଚ୍ଚ": 2188,
      "ଭାଷ": 2189,
      "ମହା": 2190,
      "ୋକାନ": 2191,
      "ap": 2192,
      "ବିକାଶ": 2193,
      " ଭଲ": 2194,
      " ଦେଇଛନ୍ତି ": 2195,
      " ଅନେକ ": 2196,
      "ଶ୍ବ": 2197,
      "ହେବ ": 2198,
      "ନ୍ଦୋଳ": 2199,
      "ଯାଇଥିଲେ ": 2200,
      "ିବାର": 2201,
      "ଯାଉଥିବା ": 2202,
      "ନିୟମ": 2203,
      "ତ୍ମ": 2204,
      "ଷଣ": 2205,
      "ଗୁଡ଼ିକ": 2206,
      "ରାଟ": 2207,
      "et": 2208,
      "ଖୋଲ": 2209,
      "କିମ୍ବା ": 2210,
      " ହେଲେ ": 2211,
      "ପ୍ରସ୍ତୁତ": 2212,
      "// ": 2213,
      "ଂସଦ": 2214,
      " ହାତ": 2215,
      "ତଥ୍ୟ": 2216,
      "ଥାନାରେ ": 2217,
      "ସତ": 2218,
      "ଫଟୋ": 2219,
      "ାଳୟରେ ": 2220,
      "ମଦ": 2221,
      "ବନ": 2222,
      "ପୂର୍ବତନ": 2223,
      "ନରେନ୍ଦ୍ର": 2224,
      " ଯେ ": 2225,
      "ପ୍ରଧାନମନ୍ତ୍ରୀ ": 2226,
      "ହିତ": 2227,
      " ମୂ": 2228,
      " ମାଧ୍ୟମ": 2229,
      "ହେର": 2230,
      "ିକାରେ ": 2231,
      "ଉକ୍ତ": 2232,
      "ଶାଳ": 2233,
      " ସ୍ୱାସ୍ଥ୍ୟ": 2234,
      "ସମର୍ଥ": 2235,
      "ରଙ୍ଗ": 2236,
      "ାକି ": 2237,
      "ଗ୍ରାହ": 2238,
      " ଆଣ": 2239,
      "ତନ ": 2240,
      " ଶେଷ": 2241,
      "ସୃଷ୍ଟ": 2242,
      "ଉଲ୍ଲେଖ": 2243,
      "ଚିତ୍ର": 2244,
      "୍ୟାଚ୍": 2245,
      " ଚଳ": 2246,
      " ହୋଇଥିଲା": 2247,
      "ପକ୍ଷରେ ": 2248,
      "ସୀ": 2249,
      "ଶି ": 2250,
      " ଗଣ": 2251,
      " ଭଳି ": 2252,
      "ଚାପ": 2253,
      "ଚାହ": 2254,
      " ହୋଇଥିଲେ ": 2255,
      "ଯୋ": 2256,
      "ସୂଚନା": 2257,
      "ସ୍ଥ୍ୟ": 2258,
      "୪୦": 2259,
      " ଛାତ୍ର": 2260,
      "ଳୀ": 2261,
      " ପୁଲିସ": 2262,
      "ଖୋର୍": 2263,
      "ିଲେ": 2264,
      "ିଏ": 2265,
      "ଆପଣଙ୍କୁ ": 2266,
      "ିଆଇ": 2267,
      "ୋଜିତ": 2268,
      "ଫି": 2269,
      "ଜନ୍ମ": 2270,
      "କ୍ଷେପ": 2271,
      "ରମ": 2272,
      "ୁଲାଇ": 2273,
      " କୁ ": 2274,
      " ସିଂହ": 2275,
      "ଲାଙ୍ଗ": 2276,
      "ନିମନ୍ତେ ": 2277,
      " ଲୋକ ": 2278,
      " କମ୍ପାନ": 2279,
      "ଭିତରେ ": 2280,
      " ହେବେ ": 2281,
      " ଦିନ ": 2282,
      " ବିଦ୍ୟ": 2283,
      "ଧି ": 2284,
      " ଭାବରେ ": 2285,
      " ଜେ": 2286,
      " ପ୍ରସ୍ତୁତ": 2287,
      "ସର୍ବ": 2288,
      "ସୂଚନା ଅନୁ": 2289,
      "ନବୀନ": 2290,
      "Nov": 2291,
      "pl": 2292,
      "ଦିଲ୍ଲୀ ": 2293,
      "ଆସନ୍ତା ": 2294,
      " ଅଞ୍ଚଳରେ ": 2295,
      " ଗୋଟିଏ": 2296,
      " ଦେବା ": 2297,
      "ଦତ୍ତ": 2298,
      "ur": 2299,
      "ଆହୁରି ": 2300,
      "ଦକ୍ଷିଣ": 2301,
      "ଓଡ଼ିଆ": 2302,
      " କୁମାର ": 2303,
      "ବଢ଼": 2304,
      "ଶିବ": 2305,
      "ା ହୋଇ": 2306,
      "ୀପ": 2307,
      "ନାଁ": 2308,
      "ସନ": 2309,
      "ଣା": 2310,
      "ାରା": 2311,
      " ହେବା ପରେ ": 2312,
      " ଶ୍ରୀ": 2313,
      "ଣ୍ଡି": 2314,
      "ରଖାନ": 2315,
      " ଅପ": 2316,
      "ବାଧିକ ": 2317,
      "ତାବ": 2318,
      "ହେବା ": 2319,
      " ୯": 2320,
      "ର୍ଭ": 2321,
      "ରାପୁଟ": 2322,
      "ଡିକାଲ": 2323,
      " ମନ୍ଦ": 2324,
      "ପାତ": 2325,
      "ବିରୋଧରେ ": 2326,
      "େଦ": 2327,
      "ନିକ": 2328,
      "li": 2329,
      " ହସ୍ପିଟାଲ": 2330,
      "--": 2331,
      "ାର୍ଥୀ": 2332,
      "ଯାୟୀ ": 2333,
      "ସ୍ପଷ୍ଟ": 2334,
      "ାମିଲ": 2335,
      " ନିର୍ମାଣ": 2336,
      "ୀର": 2337,
      "ro": 2338,
      "ବିଧାୟକ ": 2339,
      "ାଣ୍ଟ": 2340,
      "ତଃ": 2341,
      " କୋଭି": 2342,
      "ପ୍ରକାର": 2343,
      "ଘରେ ": 2344,
      "Po": 2345,
      "ଜିଲ୍ଲାରୁ ": 2346,
      "ାଜିକ ": 2347,
      "ୂର": 2348,
      "ମାନଙ୍କ": 2349,
      "ଏବଂ ": 2350,
      "୨୦୦": 2351,
      "ାଇଛନ୍ତି ": 2352,
      "ୁରୀ": 2353,
      "ବ୍ୟକ୍ତି ": 2354,
      "ଏନ୍": 2355,
      " ଆଶ": 2356,
      "ଗୁଳ": 2357,
      "୍ଚ୍ଚ": 2358,
      " ଥର ": 2359,
      " କରାଯାଇଥିଲା": 2360,
      "ଲିଉ": 2361,
      "est ": 2362,
      "ଉଚିତ": 2363,
      " ମାର": 2364,
      " ବି ": 2365,
      " ଜାତ": 2366,
      "ସିଆଲ": 2367,
      "ମନ୍ଦିର ": 2368,
      "us": 2369,
      "ଟକ ": 2370,
      "ସାଦ": 2371,
      "ଏହା": 2372,
      "ଜିଟିଭ": 2373,
      "ଦଶ": 2374,
      "ବାବ": 2375,
      "ୁଇ": 2376,
      " ଧରି ": 2377,
      "ଘାଟ": 2378,
      " ମାନେ ": 2379,
      "ଜର": 2380,
      "ଯାଜ": 2381,
      "ା କହ": 2382,
      " କ୍ୟ": 2383,
      "ଶକ୍ତି ": 2384,
      " ପୋ": 2385,
      "ାର୍ଗ": 2386,
      "ଇଂ": 2387,
      " ନିର୍ଦ୍ଦେଶ": 2388,
      "କନ": 2389,
      "ତିହାସ": 2390,
      "ସହଯୋଗ": 2391,
      "ear": 2392,
      "କାରଣରୁ ": 2393,
      "କର୍ଡ": 2394,
      "ଦେଉ": 2395,
      "\n ": 2396,
      "କଟକ ": 2397,
      "ଥାନ୍ତି": 2398,
      "ସନ୍ଦ": 2399,
      "ter": 2400,
      "ସ୍ତାବ": 2401,
      "  । ": 2402,
      "୨୬": 2403,
      "ୁତ୍": 2404,
      " କରୁଛି ": 2405,
      "ପ୍ରେମ": 2406,
      "ଫୁଲ": 2407,
      "ଙ୍କ ଅ": 2408,
      "ୃଷି ": 2409,
      "un": 2410,
      "Dec": 2411,
      "ାଲି": 2412,
      "ା ଆ": 2413,
      "ଖୋଜ": 2414,
      "ଙ୍ଖ": 2415,
      " ଖୋଲ": 2416,
      " ପ୍ରତି ": 2417,
      "ଦେବାକୁ ": 2418,
      "ନରେନ୍ଦ୍ର ମୋ": 2419,
      "ିକେଟ୍": 2420,
      "ଏକା": 2421,
      "3 ": 2422,
      "ମାନ୍ୟ": 2423,
      "et ": 2424,
      "ଅଭିଯୁକ୍ତ": 2425,
      " ସୁସ୍ଥ": 2426,
      "ିଲୋ": 2427,
      "ାଏଁ": 2428,
      " ଆୟ": 2429,
      "ve ": 2430,
      " ସୁଦ୍ଧା ": 2431,
      "ଘାତ": 2432,
      "ଦୂର": 2433,
      " ଠ": 2434,
      "4 ": 2435,
      " କରିପାର": 2436,
      " ପ୍ରଭାବ": 2437,
      "ସୂଚନାଯୋଗ୍ୟ": 2438,
      "ବଙ୍ଗ": 2439,
      "େତେ ": 2440,
      "ଶୀଳ": 2441,
      "ନ୍ଦୁଝ": 2442,
      "ହୁଲ": 2443,
      "ନେତୃତ": 2444,
      " ସାଧ": 2445,
      "ମୂଳ": 2446,
      "କମ": 2447,
      "ଟିକା ": 2448,
      "ସିଲ": 2449,
      "ରେ ମଧ୍ୟ": 2450,
      "ନ୍ୟୁ": 2451,
      " ୟୁ": 2452,
      " ଚାଷ": 2453,
      "ଛାତ୍ରଛାତ୍ରୀ": 2454,
      " କରିବେ": 2455,
      "ଆଜି": 2456,
      " ୨୪": 2457,
      "har": 2458,
      "ାଳି ": 2459,
      " ସଚିବ": 2460,
      "ନିଷ": 2461,
      "ଜିଲ୍ଲାପାଳ": 2462,
      "ୃତ୍ତ": 2463,
      " ଇଣ୍ଡିଆ": 2464,
      "ଦେଖି ": 2465,
      "eb": 2466,
      "ାମ୍": 2467,
      "ଗଞ୍ଜାମ": 2468,
      " ପାଖ": 2469,
      "ବିଜେଡି ": 2470,
      " ଥିଲା ": 2471,
      "ସିଂ": 2472,
      "ଆଇନ": 2473,
      "ଦକ୍ଷେପ": 2474,
      "ଆଲୋଚନା ": 2475,
      "ଜେଲ": 2476,
      "ବେଦନ": 2477,
      " ଭାଇ": 2478,
      "an ": 2479,
      "ଦର ": 2480,
      "ମହାମ": 2481,
      "୨୮": 2482,
      " ହରାଇ": 2483,
      " ଦ୍ୱାରା ": 2484,
      " ଦାସ": 2485,
      "ବଜ": 2486,
      " ସଂଖ୍ୟ": 2487,
      "ଘଟଣାସ୍ଥଳରେ ": 2488,
      " ଚନ୍ଦ୍ର": 2489,
      "ଟାଇ": 2490,
      "ସୂଚନା ମିଳ": 2491,
      "ରିକ ": 2492,
      " ଜିଲ୍ଲା ": 2493,
      "ପରୀକ୍ଷ": 2494,
      "ସଂକ୍ରମିତ": 2495,
      " ଉତ୍ତ": 2496,
      "ମୁଦ୍ର": 2497,
      "ପ୍ରଧାନମନ୍ତ୍ରୀ": 2498,
      "ସାମିଲ": 2499,
      "ଲ୍ୟାଣ": 2500,
      "ନେତ": 2501,
      "ନାଗ": 2502,
      " ଥ": 2503,
      "୨୭": 2504,
      "କୁ ଅ": 2505,
      "ୀ ଆ": 2506,
      " ବଢ଼": 2507,
      "ସୁରକ୍ଷା ": 2508,
      "ଢ଼ନ୍ତୁ ": 2509,
      "ିପାର": 2510,
      " ଖବର ": 2511,
      "ରାଷ୍ଟ୍ରପତି ": 2512,
      " ଭୂ": 2513,
      "ଦେଇଛନ୍ତି": 2514,
      " ସମ୍ବ": 2515,
      "କେଲ": 2516,
      "ସିବ": 2517,
      "ବ୍ୟୁରୋ": 2518,
      " ପ୍ଲ": 2519,
      "ମତା ": 2520,
      " ସୃଷ୍ଟି କର": 2521,
      "ରହିବ": 2522,
      "କଥା ": 2523,
      " ପ୍ରମୁଖ": 2524,
      "ପତି": 2525,
      "ଛୋଟ": 2526,
      "ାଗତ": 2527,
      "ର ହୋଇ": 2528,
      "ର ମ": 2529,
      "ପୀ": 2530,
      "ପରିଚାଳ": 2531,
      "ପା ": 2532,
      "ସ୍ଥିତିରେ ": 2533,
      "ିଥାଏ": 2534,
      "ାତା ": 2535,
      "କାରୀ ": 2536,
      " ସବୁ ": 2537,
      " ମସିହାରେ ": 2538,
      "ସ୍ବ": 2539,
      "ସ୍କ ": 2540,
      "ପାଟ": 2541,
      "ଭୁଲ": 2542,
      "ସୁନ୍ଦର": 2543,
      "oo": 2544,
      "ଗଲା ": 2545,
      "ମତି ": 2546,
      " ନିର୍ବାଚନ": 2547,
      "ତ୍ୱ": 2548,
      "ଆବଶ୍ୟକ ": 2549,
      " କ୍ଷେତ୍ରରେ ": 2550,
      "କେଉଁ": 2551,
      "ବର୍ତ୍ତୀ ": 2552,
      "ଧର": 2553,
      "ଝାର": 2554,
      "ଲୋକମାନେ ": 2555,
      " ଆଲୋଚନା ": 2556,
      " ନେତା ": 2557,
      " ଯେ": 2558,
      "ପୁରୀ": 2559,
      "ପଶ୍ଚିମ": 2560,
      " ସରକାରଙ୍କ ": 2561,
      "ସ୍ଥାନରେ ": 2562,
      " ନାମ": 2563,
      "ନିଶ୍ଚିତ": 2564,
      "ex": 2565,
      "ଦୟ": 2566,
      "In": 2567,
      "ସମାଜ": 2568,
      " ଅତି": 2569,
      "ହୁଏ": 2570,
      "ସାହାଯ୍ୟ": 2571,
      " ଡାକ୍ତ": 2572,
      "ାଫ": 2573,
      "ଘଟିଛି ": 2574,
      "ପ୍ରମୁଖ": 2575,
      "ତୁରନ୍ତ": 2576,
      "ଣୁ ": 2577,
      "ସମ୍ବଲ": 2578,
      "ବିବାଦ": 2579,
      "ାଚ": 2580,
      "୍ୱି": 2581,
      "ଜୀ": 2582,
      "ର ଓ": 2583,
      " ସାମ୍": 2584,
      "େସନ": 2585,
      "ଣ୍ଡି ": 2586,
      "କ୍ଟର ": 2587,
      "ଜଗତ": 2588,
      "ସିଦ୍ଧ": 2589,
      "ନୁ": 2590,
      "ଗୁରୁତ୍ୱପୂର୍ଣ୍ଣ": 2591,
      "ଚେଷ୍ଟ": 2592,
      "ରହିଥିବା ": 2593,
      "ଲକ୍ଷ୍ୟ": 2594,
      "ାନ୍ୟ": 2595,
      "ଖବର": 2596,
      "ପାଗ": 2597,
      " କମ": 2598,
      " ଅନୁସାରେ ": 2599,
      "ସେ କହିଛନ୍ତି ": 2600,
      "େଙ୍କ": 2601,
      "ରିକ୍ତ": 2602,
      "ଗିରି ": 2603,
      "ଘରୋଇ": 2604,
      "ଣ୍ଠ": 2605,
      "...\n": 2606,
      "ଯେଉଁଥିରେ ": 2607,
      " ବା ": 2608,
      "କେନ୍ଦ୍ରାପ": 2609,
      "ଶକ୍ତ": 2610,
      "her": 2611,
      "ାର୍ଯ୍ୟ": 2612,
      "ବୋ": 2613,
      " ରନ୍": 2614,
      "ଭଞ୍ଜ": 2615,
      " ହୁଏ": 2616,
      " ପ୍ରକାର": 2617,
      "କାଉଣ୍ଟ": 2618,
      " ରାସ୍ତ": 2619,
      "ବିନ୍ଦ": 2620,
      "), ": 2621,
      "ମନ୍ତ୍ର": 2622,
      "ା କରି ": 2623,
      " ହୋଇଥିବା ବେଳେ ": 2624,
      "ୃଷ୍ଣ": 2625,
      "ାମୀ": 2626,
      "Re": 2627,
      "ଙ୍କ ମୃତ୍ୟୁ ": 2628,
      " ଟି ": 2629,
      "ଆର୍": 2630,
      "ତୃତୀୟ": 2631,
      " ରହିବ": 2632,
      "ଚୟ": 2633,
      " ମନ୍ତ୍ରୀ": 2634,
      "ad ": 2635,
      "ଧୁ": 2636,
      "କୂଳ": 2637,
      "ଫେ": 2638,
      "ପଢ": 2639,
      "ସିଥିବା ": 2640,
      "ୋଜନ": 2641,
      "ଘୁ": 2642,
      " ସ୍ଥାନରେ ": 2643,
      "ଯୋଗାଇ": 2644,
      "ରାଜଧାନ": 2645,
      "ଖର୍ଚ୍ଚ": 2646,
      "ୁଛନ୍ତି": 2647,
      "େକ୍ଷ": 2648,
      "ରୀୟ": 2649,
      "ବଲାଙ୍ଗ": 2650,
      "ରୁଜୁ ": 2651,
      "ଏମିତି ": 2652,
      " ଅଭିଯୁକ୍ତ": 2653,
      "ି କିଛି ": 2654,
      " ମହାପାତ୍ର": 2655,
      "ସ୍ୱତନ୍ତ୍ର": 2656,
      "ବାରେ ": 2657,
      " ବ୍ୟକ୍ତି": 2658,
      "ସହାୟତା ": 2659,
      "ିକାଂଶ": 2660,
      "ମଙ୍ଗଳ": 2661,
      "ଚାହୁଁ": 2662,
      "ବ ": 2663,
      "201": 2664,
      "ନ୍ନାଥ": 2665,
      " ମାମଲା ": 2666,
      "updat": 2667,
      "ଲବ୍": 2668,
      "ଦୀ ": 2669,
      "ହ୍ମ": 2670,
      "ଏହାସ": 2671,
      " ହାଇ": 2672,
      "ପରୀକ୍ଷା ": 2673,
      "e to ": 2674,
      "ପୁନ": 2675,
      "ଦ୍ବାରା ": 2676,
      "େଟ୍ରୋଲ": 2677,
      "ନଷ୍ଟ": 2678,
      " ସର": 2679,
      "\n\n": 2680,
      "ଲଣ୍ଡ": 2681,
      "ରାଜ୍ୟର ": 2682,
      "ଗୁଡ଼ିକୁ ": 2683,
      "ୟାର ": 2684,
      "ସାରା ": 2685,
      "ଜ୍ଜ": 2686,
      "ାଯାଇଛି ": 2687,
      "ବର୍ଷା ": 2688,
      " ଦେବାକୁ ": 2689,
      "୨୯": 2690,
      "ଏହି ସମୟରେ ": 2691,
      "ସମ୍ମାନ": 2692,
      "ରାପ": 2693,
      "ଗଠନ": 2694,
      " ନ ": 2695,
      "ଡାଉ": 2696,
      " ଏକ": 2697,
      "ବିମାନ": 2698,
      "ଷଧ": 2699,
      "ସଂଘ": 2700,
      " କରିଥିଲା": 2701,
      " ରୁ ": 2702,
      "ରଙ୍କ ": 2703,
      " ରାଷ୍ଟ୍ର": 2704,
      " ମନ": 2705,
      "ସମସ୍ୟା ": 2706,
      "କମ୍": 2707,
      "ହ୍ରାସ": 2708,
      "ରଥ": 2709,
      "ିରୁ ": 2710,
      "Odish": 2711,
      "the l": 2712,
      "ଜୋ": 2713,
      "7 ": 2714,
      "ପଞ୍ଚ": 2715,
      "ବଢ": 2716,
      "ଃଖ": 2717,
      " ହୋଇପାର": 2718,
      " ହେଉଥିବା ": 2719,
      "id": 2720,
      " ହାସ": 2721,
      "ଂଟ": 2722,
      "con": 2723,
      "The ": 2724,
      "ଟଙ୍କାର": 2725,
      " ପଟ୍ଟନାୟକ ": 2726,
      "ଡା": 2727,
      "କୋରାପୁଟ": 2728,
      "ପ୍ରଦେଶ": 2729,
      "ୂର୍ଯ୍ୟ": 2730,
      " ଜି": 2731,
      "ବିକ": 2732,
      "ପ୍ରାପ୍ତ": 2733,
      "ଭୋଟ": 2734,
      "ାୟଣ": 2735,
      " ଗାଁ": 2736,
      " ବୈଠ": 2737,
      "ଉଦ୍ୟମ": 2738,
      " ସିଂ": 2739,
      "ାନ୍ତର": 2740,
      " ଘଣ୍ଟା ": 2741,
      "6 ": 2742,
      " କରାଯିବ ": 2743,
      "ଉତ୍ପାଦ": 2744,
      "ା ଏବଂ": 2745,
      "ସେତେବେଳେ ": 2746,
      "ଔଷଧ": 2747,
      "ଣ୍ଡଳ": 2748,
      "ଙ୍କ କ": 2749,
      "କ୍ଟୋ": 2750,
      "ପାନ": 2751,
      " ପର୍ଯ୍ୟାୟ": 2752,
      "ଦ୍ଵ": 2753,
      "ାଖଲ": 2754,
      " ଚିକିତ୍ସ": 2755,
      "କାଣ୍ଡ": 2756,
      "ରଫରୁ ": 2757,
      "ଶା": 2758,
      "ୁନ": 2759,
      "ପଛ": 2760,
      " ସ୍କୁଲ": 2761,
      "ୀ ଏବଂ": 2762,
      "ାଇଥିଲେ ": 2763,
      "ଘଣ୍ଟ": 2764,
      "11": 2765,
      " କି ": 2766,
      "ପରିବର୍ତ୍ତନ": 2767,
      "କ ଓ": 2768,
      "ଟିମ୍": 2769,
      "ିକାର ": 2770,
      " ଭାରତୀୟ": 2771,
      "ଘରକୁ ": 2772,
      "ୁଙ୍କ ": 2773,
      "ଧାନସଭା ": 2774,
      "ିତ ": 2775,
      "ଲାଗିଛି ": 2776,
      " ପରିଚାଳ": 2777,
      "ଚ୍ଚିତ୍ର": 2778,
      "ଗଷ୍ଟ": 2779,
      "ୃତି": 2780,
      "ୁଡ଼": 2781,
      "ଶହ": 2782,
      "I ": 2783,
      " ଲାଭ": 2784,
      "ଙ୍ଗା ": 2785,
      "କୋଟି ": 2786,
      "ଛା": 2787,
      " ଆଗ": 2788,
      "ସୁରକ୍ଷ": 2789,
      " ହୋଇଥାଏ": 2790,
      " କରାଯାଉଛି ": 2791,
      "ସମସ୍ତେ ": 2792,
      "ାନାଳ": 2793,
      "କମାନେ ": 2794,
      "ତୀ": 2795,
      "ମାନସ": 2796,
      " କରିବା ପରେ ": 2797,
      "ର୍କ": 2798,
      "ଶିଳ୍ପ": 2799,
      "ent ": 2800,
      "ଯା": 2801,
      "ବିଭିନ୍ନ ": 2802,
      "tion": 2803,
      "ଗଜ": 2804,
      " କରୁଛନ୍ତି": 2805,
      "ଅତି": 2806,
      "ul": 2807,
      "ଟିକୁ ": 2808,
      "ହୋଇଛି": 2809,
      "ାହିଁକି ": 2810,
      "ନିଆଁ": 2811,
      " ପ୍ରକ୍ରିୟ": 2812,
      "ାଥମ": 2813,
      " ରିପୋର୍ଟ": 2814,
      "ଣ୍ଡା": 2815,
      "କ୍ସି": 2816,
      "ାହାର": 2817,
      "ମାମଲାରେ ": 2818,
      "ୟାସ": 2819,
      "ଫେସ": 2820,
      " ଦେଉ": 2821,
      "ଣୀ ": 2822,
      "ra": 2823,
      " ଯୁ": 2824,
      "atest ": 2825,
      "ନ୍ ": 2826,
      "ଦାୟିତ୍ୱ": 2827,
      " ମୂଲ୍ୟ": 2828,
      "ate ": 2829,
      "ନିର": 2830,
      " ପୁଅ": 2831,
      "ଗୁଡିକ ": 2832,
      " ଅବ": 2833,
      " କରିବାର": 2834,
      "ଳମ୍ବ": 2835,
      "ାରାଷ୍ଟ୍ର": 2836,
      " ବିଜୟ": 2837,
      "େଙ୍କାନାଳ": 2838,
      "po": 2839,
      "ଗୁଡି": 2840,
      "20 ": 2841,
      "ଫା ": 2842,
      "ସୁପ୍ର": 2843,
      "ଦିଅ": 2844,
      "si": 2845,
      "ଜରେ ": 2846,
      "ଯୁଦ୍ଧ": 2847,
      "୩ ଜଣ": 2848,
      "ୁଥିଲେ ": 2849,
      " କୋର୍ଟ": 2850,
      "ଶୋ": 2851,
      "ଙ୍କ ମଧ୍ୟରେ ": 2852,
      "ୋର୍ଡ": 2853,
      "ବ୍ୟବସ୍ଥ": 2854,
      "ରସ": 2855,
      "ସିଆଲ ମିଡିଆ": 2856,
      "ବିଶ୍ୱାସ": 2857,
      " ଉତ୍": 2858,
      " କରନ୍ତି ": 2859,
      "ଣିଷ": 2860,
      " ଅଫିସ": 2861,
      "ବରିଷ୍ଠ": 2862,
      "ାର ସମ୍ଭାବନା ": 2863,
      "ତାପ": 2864,
      "ଚାକି": 2865,
      "ଜାରି ": 2866,
      "େତୁ ": 2867,
      "ଗୀତ": 2868,
      "ୈଳ": 2869,
      "ତେଲ": 2870,
      "ପଦକ୍ଷେପ": 2871,
      "ତ୍ତ୍ୱ": 2872,
      "ି କୁହା": 2873,
      "ପକ୍ଷରୁ ": 2874,
      "ିବା": 2875,
      "ରକ୍ତ": 2876,
      "ଦାବି କର": 2877,
      "କଣ": 2878,
      " ପ୍ରାୟ": 2879,
      "ାତ୍ମକ ": 2880,
      " କହିଛନ୍ତି ଯେ ": 2881,
      "ଘୋଷଣା କର": 2882,
      " ବର୍ଷା ": 2883,
      "ର ପ୍ରଥମ": 2884,
      "ମୁକ୍ତ": 2885,
      "ଶୁକ୍ର": 2886,
      "ତ୍ୟା ": 2887,
      "ଶ୍ଵ": 2888,
      " ସେମାନଙ୍କ ": 2889,
      "ବେଳ": 2890,
      "ଲବ୍ଧ": 2891,
      "ମାଲକାନ": 2892,
      "କେନ୍ଦୁଝ": 2893,
      "ଗୋଷ୍ଠ": 2894,
      "ିବାରୁ ": 2895,
      "ଜବତ": 2896,
      " ଟେଷ୍ଟ": 2897,
      "ତଳେ ": 2898,
      "ଆଖ": 2899,
      " ମହିଳା ": 2900,
      "ସାରେ": 2901,
      " ଶାସ": 2902,
      "୍ୟତ": 2903,
      "ub": 2904,
      "ାଲେ": 2905,
      "ମହାନ": 2906,
      "ପରିଷଦ": 2907,
      " ସମ୍ପର୍କରେ ": 2908,
      "ାରମ୍ଭ": 2909,
      "ଗାର": 2910,
      " କୋଟି ଟଙ୍କା ": 2911,
      "ନ୍ଧମାଳ": 2912,
      "ଗଲେ ": 2913,
      " ସାଧାରଣ": 2914,
      "ସମ୍ଭ": 2915,
      " ମ୍ୟାଚ": 2916,
      "ନିମ୍": 2917,
      " ଅଛି ": 2918,
      "ଏଫ": 2919,
      "12": 2920,
      "ପ୍ରଶଂସ": 2921,
      "ଠା": 2922,
      "ଦ୍ଦ": 2923,
      "ଅନୁଷ୍ଠିତ": 2924,
      "ଶୀଘ୍ର": 2925,
      "th ": 2926,
      "ତ୍ୟନ୍ତ": 2927,
      "ଓ ": 2928,
      "ଞ୍ଜାବ": 2929,
      "୬୦": 2930,
      "୍ରି": 2931,
      "ଚିତ୍": 2932,
      "ାଣିପାଗ": 2933,
      " ଖୁ": 2934,
      "ାଇନ": 2935,
      "ରରୁ ": 2936,
      "ୋପ": 2937,
      "ନଜର ": 2938,
      " ଲଗ": 2939,
      "ଗ୍ନି": 2940,
      "ଭକ୍ତ": 2941,
      "ବସ୍ତ": 2942,
      " ଘଟଣା ": 2943,
      "କ୍ଷେତ୍ରରେ ": 2944,
      "ତାରିଖ": 2945,
      "ରାତି ": 2946,
      "ୌର": 2947,
      "ସେପଟେ ": 2948,
      " ଗତ": 2949,
      "ଯାତ୍ରା ": 2950,
      "ପିଲା": 2951,
      "ଙ୍କ ସଂଖ୍ୟା ": 2952,
      "ଏହା ପରେ ": 2953,
      "ାହାଣ": 2954,
      "! ": 2955,
      " ହାସଲ": 2956,
      "ଦତ୍ତ ": 2957,
      "ୋତ୍ସ": 2958,
      "ଦ୍ଦେଶ୍ୟ": 2959,
      " କା": 2960,
      "ାଇଭ": 2961,
      " ଜବତ": 2962,
      "ମଳ": 2963,
      " ସଂକ୍ରମିତ": 2964,
      "ବାଟ": 2965,
      "ତୁମ": 2966,
      " ଯେଉଁ": 2967,
      " ବୟସ": 2968,
      "ment": 2969,
      "2022": 2970,
      "ସ୍ଥା ": 2971,
      " ଶିଶ": 2972,
      "କର୍ଷ": 2973,
      "ୃପକ୍ଷ": 2974,
      "ଦେଇଥିଲେ": 2975,
      " ବ୍ୟବସ୍ଥ": 2976,
      "ନ ଏବଂ": 2977,
      "ମିଶ୍ର": 2978,
      " ମାମଲ": 2979,
      "ଏହି ଅବସରରେ ": 2980,
      "ୌଦ୍ଧ": 2981,
      "ଶରୀ": 2982,
      "ସନ୍ତୋଷ": 2983,
      "୍ବ": 2984,
      "ଋଣ": 2985,
      "ାଳି": 2986,
      "ନୂଆଦିଲ୍ଲୀ ": 2987,
      " ତଦନ୍ତ": 2988,
      "ସାଂସଦ": 2989,
      "ma": 2990,
      " ପରୀକ୍ଷ": 2991,
      "ନେତୃତ୍ୱ": 2992,
      "ିକ୍ରିୟ": 2993,
      "ଶୋଧ": 2994,
      " ଗଠ": 2995,
      "ର୍କ ": 2996,
      " ବନ୍ଧ": 2997,
      "କାନ୍ତ": 2998,
      "ରେ ସେ ": 2999,
      "ଜଣକ ": 3000,
      " ନିଆ": 3001,
      " ଲାଗି ": 3002,
      " କମିଶ": 3003,
      " ବଡ": 3004,
      "ଏଲ୍": 3005,
      "ବୃଦ୍ଧି ପାଇ": 3006,
      "ରେଳ": 3007,
      "ଭୋ": 3008,
      " ଜୀବନ": 3009,
      "ନାକୁ ଆସ": 3010,
      " ପଦକ୍ଷେପ": 3011,
      "ସ୍ତୁତି ": 3012,
      "ନାହାନ୍ତି ": 3013,
      " କହିଥିଲେ ": 3014,
      "ଖୁବ୍": 3015,
      "କରୋନ": 3016,
      " ପ୍ରଦର୍ଶନ": 3017,
      "ପିଲ": 3018,
      "ଆଗକୁ ": 3019,
      "ମୋବାଇ": 3020,
      "ତିନି": 3021,
      "ହଜାର ": 3022,
      "ୁଣା ": 3023,
      "ନୂତନ": 3024,
      " କାର୍ଯ୍ୟାଳୟ": 3025,
      "ବାଦିକ ": 3026,
      "ପୋଷ୍ଟ": 3027,
      "ଢେଙ୍କାନାଳ": 3028,
      "|\n": 3029,
      "ଆଧାର": 3030,
      " ଗୁରୁତ": 3031,
      " ବାର": 3032,
      "ନ୍ଧ୍ର": 3033,
      " ଅଛନ୍ତି ": 3034,
      "ଦେଇଛି ": 3035,
      "ଦୈ": 3036,
      "ଚୁ": 3037,
      "ଭାରତର ": 3038,
      " ଶ୍ରେଣ": 3039,
      "ିକାଶ": 3040,
      "res": 3041,
      " ଜାର": 3042,
      " ଭାଷ": 3043,
      " ବଢ": 3044,
      "le": 3045,
      " କରିପାରିବେ ": 3046,
      "ଝାରସୁ": 3047,
      " ସୀ": 3048,
      "ବାଧ": 3049,
      "ହେରା": 3050,
      "St": 3051,
      " ଟିମ୍": 3052,
      "ମିଟର ": 3053,
      "ab": 3054,
      " ବେଳେ ": 3055,
      "ବୁଧ": 3056,
      "ଆର୍ଥିକ ": 3057,
      "ଏପରିକି ": 3058,
      "get ": 3059,
      "ି କରି ": 3060,
      "as ": 3061,
      "ରେ ହ": 3062,
      "ନଦୀ": 3063,
      " ଏହାକୁ ": 3064,
      " ବ୍ୟବସାୟ": 3065,
      " ମନ୍ତ୍ରୀ ": 3066,
      " ସଦସ୍ୟ": 3067,
      "ମିଳନୀ": 3068,
      "ୁଅ": 3069,
      "ସଂପର୍": 3070,
      "ଚେତନ": 3071,
      "ଲକ୍ଷ୍ମ": 3072,
      "ାଡି": 3073,
      "ସ୍ଵ": 3074,
      "୨ ଜଣ": 3075,
      "୩୫": 3076,
      "ଦିଗ": 3077,
      "ାର୍ଥୀ ": 3078,
      "ନିୟନ୍ତ୍ରଣ": 3079,
      "ମାଗ": 3080,
      "ଭାଗ୍ୟ": 3081,
      "ମୃତଦେହ": 3082,
      "୍ଯ": 3083,
      "ଖାନ": 3084,
      "ସ୍ମ": 3085,
      "ିବେଶ": 3086,
      " ଦିବ": 3087,
      "ଏ ନେଇ": 3088,
      "ଏହି": 3089,
      "ରୀ ": 3090,
      "ଦିଆଯାଇଛି ": 3091,
      "ାଧୀନ": 3092,
      "AM ": 3093,
      " କରାଯାଇଥିବା ": 3094,
      "   ": 3095,
      "ଦଳର ": 3096,
      "] ": 3097,
      "ବିଚାର": 3098,
      "୍ରମ": 3099,
      "ପ୍ରଭ": 3100,
      "ାଗଡ଼": 3101,
      "ନ୍ତର୍ଜାତୀୟ": 3102,
      "ସୁବିଧା ": 3103,
      "ହସ୍ପିଟାଲ": 3104,
      "ଦୃଷ୍ଟିରେ ": 3105,
      "ପରାମର୍ଶ": 3106,
      "ସରକାରୀ": 3107,
      " ବାବ": 3108,
      " ତାହା ": 3109,
      "ଯାହାକି ": 3110,
      "ଜଗନ୍ନାଥ": 3111,
      "ig": 3112,
      "ଜଙ୍ଗଲ": 3113,
      "ଅଧିକାଂଶ": 3114,
      "ୟମ": 3115,
      "ସୋମ": 3116,
      "ଅଛି ": 3117,
      "ୁରୋଧ": 3118,
      "ay": 3119,
      " ଜିଲ୍ଲାରେ ": 3120,
      "ଦ୍ୱାର": 3121,
      "our ": 3122,
      "ଂଚଳ": 3123,
      " ସ୍ଥାନୀୟ": 3124,
      "ସମ୍ପୂର୍ଣ୍ଣ": 3125,
      "ାୟକଙ୍କ ": 3126,
      "ଏଣ୍ଟ": 3127,
      "ାର୍ଜ": 3128,
      "Shar": 3129,
      "ପ୍ଟେ": 3130,
      " ବଡ଼": 3131,
      "ଯିବାକୁ ": 3132,
      "A ": 3133,
      "ାର୍କ ": 3134,
      "ମିଶାଇ": 3135,
      " ହେଉଛନ୍ତି ": 3136,
      " ହେବେ": 3137,
      "୭୦": 3138,
      "ନ ପ": 3139,
      "ଗୁଣ": 3140,
      "ବନ୍ଧୁ": 3141,
      " ସଂଗ୍ରହ": 3142,
      "ଏହି ପ୍ର": 3143,
      "lick ": 3144,
      "ିବି": 3145,
      "ରବିବ": 3146,
      " ଦେଇଥିଲେ": 3147,
      "Post": 3148,
      " ୧୯": 3149,
      " ଉତ୍ସ": 3150,
      "ଳି": 3151,
      " ବିମାନ": 3152,
      "ଆଣ": 3153,
      "ପଞ୍ଚାୟତ": 3154,
      "ଗଣମାଧ୍ୟମ": 3155,
      "ଚାଲି": 3156,
      "କୀୟ": 3157,
      "ସଦ": 3158,
      "ଶନିବ": 3159,
      "ସେଥିପାଇଁ": 3160,
      " ପଞ୍ଚାୟତ": 3161,
      "ବ୍ଦ": 3162,
      "ଫଳତା ": 3163,
      " କାର୍ଡ": 3164,
      "ପୁରୀ ": 3165,
      "େତେକ ": 3166,
      " କରାଇ": 3167,
      "ଋଷ": 3168,
      "ି ଓ": 3169,
      " ସଭାପତି ": 3170,
      "କନକ ": 3171,
      "ଗଛ": 3172,
      "ଅନୁସାରେ ": 3173,
      "ଯୋଗୁ ": 3174,
      "ୁଟି ": 3175,
      "ଏତେ ": 3176,
      "ସର ": 3177,
      "ପୁରୁଷ": 3178,
      "ସଭାପତି ": 3179,
      " ସାର": 3180,
      " ବିକାଶ": 3181,
      " ସ୍ପ": 3182,
      "ତାରେ ": 3183,
      "ରିଆରେ ": 3184,
      "ବୁଲ": 3185,
      "ମହିଳା": 3186,
      " ତଥ୍ୟ": 3187,
      " ବିଚାର": 3188,
      "ଭିତ୍ତ": 3189,
      " ପ୍ରକଳ୍ପ": 3190,
      "ଦୋକାନ": 3191,
      "here to ": 3192,
      "ବ୍ୟତୀତ": 3193,
      "ଏଥିସହ": 3194,
      " ଦେଇଛନ୍ତି": 3195,
      "ବୁଠାରୁ ": 3196,
      "ଚ୍ଛେଦ": 3197,
      "ଭାଙ୍ଗ": 3198,
      "ଘଟଣାର ": 3199,
      "ପାଣି ": 3200,
      " କେବଳ": 3201,
      "ତଥ": 3202,
      "ଏହାସହ": 3203,
      " ର ": 3204,
      "ପାଖରେ ": 3205,
      "ଇସ": 3206,
      "ନ କରି ": 3207,
      "ପ୍ରତ୍ୟେକ ": 3208,
      "oc": 3209,
      "ବରଙ୍ଗ": 3210,
      "ପ୍ରାଣ": 3211,
      "ଦ୍ଦି": 3212,
      "ଅଧିକ": 3213,
      "ତ୍ନୀ": 3214,
      "ଟେଷ୍ଟ": 3215,
      "ମ୍ପର": 3216,
      " ସାହୁ ": 3217,
      " ଭିତରେ ": 3218,
      "ପ୍ରତିବ": 3219,
      "ବର୍ଗ": 3220,
      " ଖାଦ୍ୟ": 3221,
      " କଲ୍ୟାଣ": 3222,
      " ପାଠ": 3223,
      "ଶ୍ଚର୍ଯ୍ୟ": 3224,
      "en ": 3225,
      " ହ୍ରାସ": 3226,
      "ସୁଯୋଗ": 3227,
      "ଅନୁମତି ": 3228,
      " ଯୋ": 3229,
      "es on ": 3230,
      " ୧୫": 3231,
      "ିକାକରଣ": 3232,
      "ିକ୍ରମ": 3233,
      "ବିକ ": 3234,
      " ସର୍": 3235,
      "୪୫": 3236,
      "ଙ୍ଗ୍": 3237,
      "କୋଭିଡ୍": 3238,
      "ଛୁ ": 3239,
      "।  । ": 3240,
      "ବୈଠକରେ ": 3241,
      "ାଯୋଗ": 3242,
      " ଯୋଗୁଁ": 3243,
      "ସେନା ": 3244,
      " ଥିଲେ": 3245,
      "ଲିସ୍": 3246,
      "ation": 3247,
      "is": 3248,
      " ହୋଇଥିଲେ": 3249,
      "ିନାହିଁ": 3250,
      "ା କରିବା ": 3251,
      " ଦାବ": 3252,
      " ବାହାର": 3253,
      "ଭୁବନେଶ୍ବର": 3254,
      "େଷ୍ଠ": 3255,
      "ବିଷ୍ୟତ": 3256,
      " ସୁଯୋଗ": 3257,
      " କ୍ଲ": 3258,
      "Click ": 3259,
      "ଗିରି": 3260,
      "ବ୍ୟବସ୍ଥା ": 3261,
      "ସ୍ତରୀୟ": 3262,
      "ମହାମାରୀ": 3263,
      " ସପ୍ତାହ": 3264,
      "ଆସନ୍ତ": 3265,
      "ସେମାନଙ୍କର ": 3266,
      "ଜଣାପଡିଛି ": 3267,
      " ବିଧାୟକ ": 3268,
      "ଥାନା ଅ": 3269,
      "ରାଶି": 3270,
      "ୟୁକ୍ର": 3271,
      "ଚଳିତ ବର୍ଷ": 3272,
      "ଦରକାର": 3273,
      "୮୦": 3274,
      "୪ ଜଣ": 3275,
      " କିଲୋ": 3276,
      "ଲିଉଡ": 3277,
      "ରାହ୍": 3278,
      "ଏତ": 3279,
      "ଗୁରୁବ": 3280,
      " ଅନୁଯାୟୀ": 3281,
      "ବିଦେଶ": 3282,
      " ପରୀକ୍ଷା ": 3283,
      "ହାସଲ": 3284,
      "ହେବାକୁ ": 3285,
      "ଚରଣ": 3286,
      "ଦଳରେ ": 3287,
      "ୃଙ୍ଖ": 3288,
      "ସ୍ବାସ୍ଥ୍ୟ": 3289,
      "the latest ": 3290,
      "କଳାହା": 3291,
      "ନିଯୁକ୍ତି ": 3292,
      " ସେମାନେ ": 3293,
      "ରତ": 3294,
      " ପ୍ରତ୍ୟ": 3295,
      "ଚାଷୀ": 3296,
      "ୟୋଗ": 3297,
      "ର ଶ": 3298,
      "ବଲ": 3299,
      "ତ୍ମହ": 3300,
      "ଙ୍କୁ ଗିରଫ": 3301,
      "ଜାମ": 3302,
      "ସମ୍ପର୍କରେ ": 3303,
      " ବିଜେପି ": 3304,
      "ଆହତ": 3305,
      "ବୁବ": 3306,
      "ପ୍ରବଳ": 3307,
      "୍ୟ୍ୟ": 3308,
      "ଦିବାସ": 3309,
      "ଙ୍କ ସହିତ": 3310,
      "ଜୀବନ ": 3311,
      " ପଡ଼": 3312,
      "Click here to ": 3313,
      "ବର୍ଣ୍ଣ": 3314,
      "ାର୍କ": 3315,
      "ତଳ": 3316,
      "ସେହିଭଳି ": 3317,
      "for ": 3318,
      "updates on ": 3319,
      "get the latest ": 3320,
      "Click here to get the latest ": 3321,
      "Click here to get the latest updates on ": 3322,
      "ନ୍ୟବାଦ": 3323,
      "ର୍ପଣ": 3324,
      "ିମକୋର୍ଟ": 3325,
      "ଷ୍ଟ୍ରେଲ": 3326,
      " ଦେବ": 3327,
      "ଯାଞ୍ଚ": 3328,
      "ଲାଲ": 3329,
      "ଏଫ୍": 3330,
      "ନ ପାଇଁ": 3331,
      "୧୦୦": 3332,
      "ଚର": 3333,
      " ରୂପ": 3334,
      "ପରିଣ": 3335,
      "ପୋଲ": 3336,
      "ଯେଉଁମାନେ ": 3337,
      "ି କୋ": 3338,
      " ଝ": 3339,
      "ଆରୀ ": 3340,
      " କାରଣରୁ ": 3341,
      "ମାନଙ୍କ ପାଇଁ": 3342,
      "ାଙ୍କ": 3343,
      "ବିଜେପି": 3344,
      " ବ୍ୟୁରୋ": 3345,
      "କ୍ଟୋବର ": 3346,
      " ବହୁତ": 3347,
      "ଆହୁରି ପ": 3348,
      " ମାଲ": 3349,
      " ବିଷୟ": 3350,
      " ଭାଗ": 3351,
      "ସୁଦ୍ଧା ": 3352,
      "ଭେମ୍ବର ": 3353,
      " ଦିଅ": 3354,
      "19 ": 3355,
      "ାକୃତ": 3356,
      "ବର୍ତ୍ତୀ": 3357,
      "ବ୍ରି": 3358,
      "ୂତନ ": 3359,
      "କେ ": 3360,
      "ାଗ୍ର": 3361,
      "ୁରି ": 3362,
      "ଅନ୍ୟପଟେ ": 3363,
      " ମିନି": 3364,
      "ଯାଇଥିଲେ": 3365,
      "ଡ଼ା": 3366,
      "ଟିର ": 3367,
      "ଗତ ୨୪": 3368,
      " ମୃତ୍ୟୁ ": 3369,
      "ଗତି ": 3370,
      "ହୋଇଥିଲା ": 3371,
      "ଯନ୍ତ୍ର": 3372,
      "ୀକୁ ": 3373,
      " ଯୋଜନା ": 3374,
      " ଆଦି ": 3375,
      " କେଉଁ": 3376,
      "ସାଙ୍ଗ": 3377,
      "ଡାକ୍ତରଖାନ": 3378,
      " ବିଶେଷ": 3379,
      "ବଞ୍ଚ": 3380,
      "୍ରୁ ": 3381,
      " ଠାରୁ ": 3382,
      "ପ୍ରବେଶ": 3383,
      " ଦିଆଯାଇଛି ": 3384,
      ")\n": 3385,
      "ଚାଲିଛି ": 3386,
      "ମହାରାଷ୍ଟ୍ର": 3387,
      "ଦେଲେ ": 3388,
      "ଦୁର୍ବ": 3389,
      "ାହାକୁ ": 3390,
      "ଦୌ": 3391,
      "ବିକ୍ର": 3392,
      " ମାଧ୍ୟମରେ ": 3393,
      "ଅନୁଭବ": 3394,
      "ସ୍ଥାପନ": 3395,
      "ବ୍ରହ୍ମ": 3396,
      " ଦର୍ଶ": 3397,
      "News": 3398,
      "ମ୍ୟାଚ": 3399,
      "ବାଧ୍ୟ": 3400,
      "ବାସ୍ତ": 3401,
      " ମୁଖ୍ୟମନ୍ତ୍ରୀ": 3402,
      "ି ନ": 3403,
      "ବୟ": 3404,
      "ି ଆ": 3405,
      "ଦ୍ଧା": 3406,
      "ରିୟ": 3407,
      " ହେଉଛି": 3408,
      "ରେକର୍ଡ": 3409,
      "ୋଭ": 3410,
      "ନେଟ": 3411,
      "ୋମ": 3412,
      " ଲୋକେ ": 3413,
      " କରୋନା ଆକ୍ରାନ୍ତ": 3414,
      "କେଶ": 3415,
      "ୀକରଣ": 3416,
      "ସେମ୍ବର ": 3417,
      "ଶବ": 3418,
      " କ୍ୟା": 3419,
      "ଦ୍ଦିଷ୍ଟ": 3420,
      "ଆରମ୍ଭ କରି ": 3421,
      "ଯାହା": 3422,
      " ନୂତନ": 3423,
      " କମ୍": 3424,
      "ପ୍ରିଲ": 3425,
      "ଜଗତସିଂହ": 3426,
      "ି ଅ": 3427,
      "ବେଦ": 3428,
      "ଗବାନ": 3429,
      "ସମା": 3430,
      "ଜଣାପଡ଼ିଛି ": 3431,
      ".  । ": 3432,
      " ଅଧିକାରୀ ": 3433,
      "ମିକା ": 3434,
      "ପୁରରୁ ": 3435,
      "ରକ୍ଷା ": 3436,
      " ଜିଲ୍ଲାରୁ ": 3437,
      "ଦୁଃଖ": 3438,
      "ନ୍ଦୁ ": 3439,
      "ନିଜେ ": 3440,
      "ଡେଲ": 3441,
      " ଗାନ୍ଧ": 3442,
      "ି କରାଯାଇଛି ": 3443,
      " ସହଯୋଗ": 3444,
      "ଡାକ୍ତର ": 3445,
      "ହାଇକୋର୍ଟ": 3446,
      "ଭଦ୍ରକ ": 3447,
      "ଗମ": 3448,
      "ହେଲା ": 3449,
      "ାଇଡ": 3450,
      "ସତ୍ୟ": 3451,
      " ପାଳନ": 3452,
      "ା କରିବାକୁ ": 3453,
      "୩୧": 3454,
      "ଜିଲ୍ଲାର": 3455,
      "ଞ୍ଜି": 3456,
      "ାପାଖ": 3457,
      " ସମେତ": 3458,
      "୍ତ୍ତୃପକ୍ଷ": 3459,
      "ଉଚିତ୍": 3460,
      "ୋଲ୍": 3461,
      " ମହା": 3462,
      "ତାର ": 3463,
      "ବାସୀ ": 3464,
      "ଙ୍କର ମୃତ୍ୟୁ ": 3465,
      "ଧନ": 3466,
      " ଘୋଷଣା କର": 3467,
      "ଆତଙ୍କ": 3468,
      "ବ୍ୟକ୍ତ": 3469,
      "ରାସ୍ତା ": 3470,
      "ନ୍ୟା ": 3471,
      "ପୁଲିସ୍": 3472,
      "ଚନ": 3473,
      " ମୁଖ୍ୟମନ୍ତ୍ରୀ ": 3474,
      " ଅଫ୍": 3475,
      " ଏଠାରେ ": 3476,
      "ଗାନ୍ଧ": 3477,
      "୍ୟାଣ୍ଡ": 3478,
      " ଟଙ୍କ": 3479,
      "ପୂରଣ": 3480,
      " ଉଚ୍ଚ": 3481,
      "ଦିବସ": 3482,
      "to": 3483,
      " କଲେଜ": 3484,
      " ସ୍ବା": 3485,
      " କଣ": 3486,
      " ଡ୍ର": 3487,
      "ତୁଳ": 3488,
      "ଘଟି": 3489,
      "ଆମର ": 3490,
      "ମିଳିଥିବା ": 3491,
      "ଷ୍ଟ୍ରେଲିଆ": 3492,
      " ସେହି ": 3493,
      "ର ସମ୍": 3494,
      "ାହିତ": 3495,
      " ଫେର": 3496,
      " କଥ": 3497,
      " ନିଷ୍ପତ୍ତି ": 3498,
      " କାଳ": 3499,
      "ଗସ୍ତ": 3500,
      "।    ": 3501,
      " ଗୃହ": 3502,
      "ସେୟାର": 3503,
      " ନମ୍ବର ": 3504,
      "ଦଣ୍ଡ": 3505,
      "ାଥମିକ ": 3506,
      "ାରୀ ": 3507,
      "ରକ୍ଷଣ": 3508,
      " ବ୍ୟବସ୍ଥା ": 3509,
      "ରାହୁଲ": 3510,
      "ରାଜନୈତିକ ": 3511,
      " ରାଉ": 3512,
      " ରାଜ୍ୟରେ ": 3513,
      " ପହଞ୍ଚ": 3514,
      "ବାଲ": 3515,
      "ପର ": 3516,
      "ଙ୍କଠାରୁ ": 3517,
      " ପରିବର୍ତ୍ତ": 3518,
      "ସେ କହିଛନ୍ତି": 3519,
      "ମେଡିକାଲ": 3520,
      "କନ୍ଧମାଳ": 3521,
      "କିପରି ": 3522,
      "ପହଞ୍ଚି ": 3523,
      "୨ଟି ": 3524,
      "Ap": 3525,
      "ାବାଦ": 3526,
      "୨୦୨୧": 3527,
      "ଉଦ୍": 3528,
      "ବୁବେଳେ ": 3529,
      "ସାମାଜିକ ": 3530,
      "ଭୋଗ": 3531,
      "ଭାରତରେ ": 3532,
      " ମାତ୍ର": 3533,
      " ଲାଇ": 3534,
      "ାଦକ ": 3535,
      "ଟିଭି ": 3536,
      " ସୁରକ୍ଷା ": 3537,
      " ଜାଣ": 3538,
      "ଜନକ ": 3539,
      "କନକ ବ୍ୟୁରୋ": 3540,
      "ଗ୍ରୀ ": 3541,
      "ମାମଲା ରୁଜୁ ": 3542,
      "ଯାହାକୁ ": 3543,
      "ନବରଙ୍ଗ": 3544,
      "ାନ୍ଦ": 3545,
      "........": 3546,
      "ଗ୍ରାମର ": 3547,
      "ଙ୍କ ସମେତ": 3548,
      "୨୦୨୦": 3549,
      "କ୍ଷୟ": 3550,
      "ମିକ୍ର": 3551,
      "କହିଛନ୍ତି": 3552,
      "ମାଣ୍ଡ": 3553,
      "ଦୃଷ୍ଟିରେ ରଖି ": 3554,
      " ସଂପର୍": 3555,
      "ନେବା ": 3556,
      "ୂରଭଞ୍ଜ": 3557,
      "ଶାସନ ": 3558,
      "ଘୋଷଣା ": 3559,
      " ଝିଅ": 3560,
      "ଖାଇ": 3561,
      "େକ": 3562,
      "by ": 3563,
      "ପାରିବ ": 3564,
      "ଶିଶୁ ": 3565,
      "ଆଜ": 3566,
      " ପାଲ": 3567,
      "ଫଗ": 3568,
      " କରିବା": 3569,
      "ଣ୍ଟର": 3570,
      " କରୁଛି": 3571,
      " ଯାତ୍ର": 3572,
      "ମେ ": 3573,
      " ଉତ୍ପାଦ": 3574,
      " ସମସ୍ୟା ": 3575,
      "ମୁଖୀନ": 3576,
      "ିବ ବୋଲି ": 3577,
      "ଆଗାମୀ ": 3578,
      "ହଜାର": 3579,
      "ସେଥିରେ ": 3580,
      "ସାବ": 3581,
      "ୃକ୍ତ": 3582,
      "ଘଟିଛି": 3583,
      "ର ବିଭିନ୍ନ": 3584,
      "ଭେଟ": 3585,
      "ରାତିରେ ": 3586,
      "କମ୍ପାନ": 3587,
      " ନିୟମ": 3588,
      "୦୦୦": 3589,
      "ଆଇପି": 3590,
      "କ୍ଲି": 3591,
      "ନଗ": 3592,
      " ଉପସ୍ଥିତ": 3593,
      " କରାଯିବା ": 3594,
      " କରିବା ଲାଗି ": 3595,
      " ସଂକ୍ରମଣ": 3596,
      " ତାଙ୍କର ": 3597,
      "ଟ୍ୱି": 3598,
      "ଚିକିତ୍ସା ": 3599,
      " ଭି": 3600,
      "ଷ୍ଟମ": 3601,
      "ବୌଦ୍ଧ": 3602,
      "ଫୁ": 3603,
      " ଲୋକଙ୍କୁ ": 3604,
      " କମିଟି ": 3605,
      "ଖିତ": 3606,
      " ଲକ୍ଷ ଟଙ୍କା ": 3607,
      "iv": 3608,
      "ହର": 3609,
      "ଧ୍ୟା ": 3610,
      " କଳ": 3611,
      "ପାର୍ଟ": 3612,
      "ବିତ": 3613,
      "ାଇବା ପରେ ": 3614,
      "ଟଙ୍କ": 3615,
      "ରେ ଭର୍ତ୍ତ": 3616,
      "୩ଟି ": 3617,
      " ଜାତୀୟ": 3618,
      "ଦୃଶ୍ୟ": 3619,
      "ପାଲ": 3620,
      "ଏମିତ": 3621,
      "ତେବେ ଏହି ": 3622,
      "ାଉଥିବା ": 3623,
      "ଜା": 3624,
      "ରଖା": 3625,
      "ଆନ୍ଦୋଳ": 3626,
      " କଟକ": 3627,
      "ଯୁବକ ": 3628,
      "ଙ୍କ ପକ୍ଷରୁ ": 3629,
      "ହେଁ": 3630,
      "ୱାଲ": 3631,
      " ଅଛନ୍ତି": 3632,
      "ଫର୍ମ": 3633,
      "ଟିରେ ": 3634,
      "ାପି ": 3635,
      "ହେରା ": 3636,
      " ଅଧ୍ୟକ୍ଷ": 3637,
      "।\n\n": 3638,
      " ଅନ୍ୟାନ୍ୟ": 3639,
      "November ": 3640,
      "ହୃ": 3641,
      "ବେଷ": 3642,
      "ିବାର ": 3643,
      "କିଏ": 3644,
      "ମ୍ୟ": 3645,
      " ପାର୍ଟ": 3646,
      " କରୁଥିଲେ ": 3647,
      "ଜଣାପଡ଼ିଛି": 3648,
      "ମ୍ର": 3649,
      "ଦ୍ମ": 3650,
      " ରନ": 3651,
      "କକୁ ": 3652,
      "ଜଣଙ୍କ ": 3653,
      "ଭଳ": 3654,
      "ଦେଇଥିବା ": 3655,
      "ଗଭ": 3656,
      "app": 3657,
      "ଚଢ଼": 3658,
      "ତିଶ": 3659,
      "ବିନା ": 3660,
      " ବ୍ୟକ୍ତି ": 3661,
      "ପ୍ଟେମ୍ବର ": 3662,
      "9 ": 3663,
      "ିଛା ": 3664,
      "ାବି": 3665,
      "ଚେଷ୍ଟା କର": 3666,
      "୯୦": 3667,
      "ମାର୍ଟ": 3668,
      "ପରିସ୍ଥିତି ": 3669,
      "ଉଠାଇ": 3670,
      " ବର୍ଗ": 3671,
      "ସମାନ": 3672,
      " ବର": 3673,
      "କଥ": 3674,
      "ହସିଲ": 3675,
      "ଡ଼ିତ": 3676,
      "ଗୋଳ": 3677,
      "ହାର ": 3678,
      "ଏହାକୁ ନେଇ": 3679,
      " ଲୋକଙ୍କ ": 3680,
      "କଲ": 3681,
      "ାପାଖି ": 3682,
      " ଚିନ୍ତ": 3683,
      "ନିୟମିତ": 3684,
      "ଅଧିନ": 3685,
      "ଦୁର୍ଘଟଣା ": 3686,
      "ଭାପତି ": 3687,
      "୭୫": 3688,
      " ଦେଖା": 3689,
      " ଦକ୍ଷ": 3690,
      "କ୍ରି": 3691,
      " ବଜ": 3692,
      "ୀ ସ": 3693,
      "ep": 3694,
      " ଭୁବନେ": 3695,
      "ାହ୍": 3696,
      ", '": 3697,
      "େସ୍": 3698,
      " ସୁବିଧ": 3699,
      "ନିଜକୁ ": 3700,
      "େସନ୍": 3701,
      " ଆମେର": 3702,
      "ମୋତେ ": 3703,
      " ତାଲ": 3704,
      "ଜିଲା ": 3705,
      "ହଳ": 3706,
      "ଉତ୍ସବ": 3707,
      " କ୍ରିକେଟ": 3708,
      "ଯିଏ": 3709,
      " ମ୍ୟାଚ୍": 3710,
      " ଥିଲା": 3711,
      "ୌଶ": 3712,
      "କ୍ୱ": 3713,
      " ନୀ": 3714,
      "ପ୍ରଶ୍ନ": 3715,
      "ନୀତ": 3716,
      "ଉଦ୍ଦେଶ୍ୟ": 3717,
      " ପ୍ରଶ୍": 3718,
      "କୁମ": 3719,
      "ଲାଗୁ ": 3720,
      " ଭୋଟ": 3721,
      "ରଙ୍କୁ ": 3722,
      " ଦାୟ": 3723,
      "ରେ ଯୋଗ": 3724,
      "ହସ୍ତ": 3725,
      "ଷ୍କର୍ମ": 3726,
      "ସାକ୍ଷ": 3727,
      "ାଉନ": 3728,
      " ଶୀ": 3729,
      "ହିନ୍ଦୁ": 3730,
      " ଆସୁ": 3731,
      "ବିଧାନ": 3732,
      " ଯାହା ": 3733,
      "ସୁନ୍ଦରଗଡ଼": 3734,
      " ଦିବସ": 3735,
      "sit": 3736,
      "ସେବା ": 3737,
      "ଓଡ଼ିଶା ରିପୋର୍ଟ": 3738,
      "ସାଥ": 3739,
      "ସର୍ବାଧିକ ": 3740,
      " ଜିତ": 3741,
      "ଆବଶ୍ୟକ": 3742,
      "ଦର": 3743,
      "କିଂ": 3744,
      " କିମ୍ବ": 3745,
      " ଦୁର୍": 3746,
      "ଜମି ": 3747,
      "ନାବାଳ": 3748,
      "ଲାଗିଛି": 3749,
      "ବଣ": 3750,
      " ଫିଲ୍ମ": 3751,
      "ଶମ": 3752,
      "ପଜିଟିଭ": 3753,
      "ାଟି ": 3754,
      "ଯାତ୍ରୀ": 3755,
      " ସେବା ": 3756,
      "2020 ": 3757,
      "ି କହିଛନ୍ତି": 3758,
      "ଅଞ୍ଚଳ": 3759,
      " କରାଯାଉ": 3760,
      "ଅନୁଗୁଳ": 3761,
      "ସୌ": 3762,
      " ରଙ୍ଗ": 3763,
      "Sam": 3764,
      "ଫ୍ଲ": 3765,
      "କେହି ": 3766,
      "ିରରେ ": 3767,
      "ଜମି": 3768,
      "ାହରଣ": 3769,
      " ଓଡ଼ିଶା ": 3770,
      "ଜାଗ": 3771,
      "ଙ୍କଟ": 3772,
      "ଯୁବତ": 3773,
      " ସାଇ": 3774,
      " ବହୁ ": 3775,
      " ନାଗ": 3776,
      "ଥିବାର ": 3777,
      "are ": 3778,
      "ଶ୍ବର ": 3779,
      " ଗିର": 3780,
      "ମୁଖ୍ୟମନ୍ତ୍ରୀ ନବୀନ": 3781,
      "ine ": 3782,
      " ଚିହ୍ନଟ ହୋଇଛନ୍ତି ": 3783,
      "ଦାମ": 3784,
      "କେନ୍ଦ୍ର ସରକାର": 3785,
      "ୁଥିବା ବେଳେ ": 3786,
      " ପ୍ରସଙ୍ଗ": 3787,
      "ସ୍ଥାପ": 3788,
      "ବାଣି": 3789,
      "ର ଏହି ": 3790,
      "୩୬": 3791,
      " ସ୍ଥିତ": 3792,
      "ରେ କିଛି ": 3793,
      "ବାରମ୍ବ": 3794,
      "ଉପର": 3795,
      "ଇସ୍ତ": 3796,
      "ଭର୍ତ୍ତ": 3797,
      "ଂଚାୟତ": 3798,
      " ମୁଁ": 3799,
      " ପାତ୍ର": 3800,
      "ଅପରାଧ": 3801,
      "ମାତ": 3802,
      "* ": 3803,
      " ସେମାନଙ୍କୁ ": 3804,
      "ଆମକୁ ": 3805,
      " ଅବସ୍ଥାରେ ": 3806,
      "ଜିଲାନ୍ସ": 3807,
      "ଅନୁରୋଧ": 3808,
      "ମୁହଁ": 3809,
      "ବାସୀ": 3810,
      "ରେ କୌଣସି ": 3811,
      "dia": 3812,
      "ସ୍କୃତ": 3813,
      " ସର୍ବ": 3814,
      "ମନ୍ଦିର": 3815,
      "ନାନ": 3816,
      "କର୍ଷଣ": 3817,
      "ଅନୁଯାୟୀ": 3818,
      "ସରକାରଙ୍କ ": 3819,
      "ମ୍ମଦ": 3820,
      "ା ପର୍ଯ୍ୟନ୍ତ": 3821,
      "ଭୂମି ": 3822,
      "ତ୍ୟା": 3823,
      "ରିଜ": 3824,
      "ୁଦ୍ର": 3825,
      "ଗୁଡିକ": 3826,
      "ରେଇ": 3827,
      "ପ୍ରଧାନମନ୍ତ୍ରୀ ନରେନ୍ଦ୍ର ମୋ": 3828,
      " ହଜାର ଟଙ୍କା ": 3829,
      " ନେବା ": 3830,
      "op": 3831,
      "ପିନ୍ଧ": 3832,
      "ପରିମାଣ": 3833,
      "ପରିଣତ": 3834,
      "ଜଣାଇ": 3835,
      "ାଧିକାରୀ": 3836,
      "ଗଲ": 3837,
      "ର ଜଣେ ": 3838,
      " ସଂଘ": 3839,
      "um": 3840,
      "ନିଯୁକ୍ତ": 3841,
      "ନୂତନ ": 3842,
      "ଉପଲବ୍ଧ": 3843,
      "ା ବ୍ଲ": 3844,
      "ଡିତ": 3845,
      " ମୋଟ": 3846,
      "ଟେଲି": 3847,
      "ିନୀ": 3848,
      "ମୁକାବ": 3849,
      " ବିକ୍ର": 3850,
      "ସଭା ": 3851,
      " ଆହ": 3852,
      "ଉନ୍ନତି ": 3853,
      " ନିଜର ": 3854,
      "ଏଥି ": 3855,
      "ନିର୍ବାଚନରେ ": 3856,
      "ଭୂତ": 3857,
      " ହୋଇଥାଏ ": 3858,
      " ବିଦ୍ୟାଳୟ": 3859,
      "ମୋଦ": 3860,
      "ସମଗ୍ର": 3861,
      "କୁହାଯାଇଛି ": 3862,
      "ରୁଷ": 3863,
      " ପକାଇ": 3864,
      "ଓଡ଼ିଶାରେ ": 3865,
      "ave ": 3866,
      "ବାଣିଜ୍ୟ": 3867,
      "ak": 3868,
      "ଅପର": 3869,
      " ଚର୍ଚ୍ଚ": 3870,
      "ାଷ୍ଟ": 3871,
      " କରାଯାଉଛି": 3872,
      "ପରିବେଶ": 3873,
      "ର୍ମା": 3874,
      "ପୁରୁଣା ": 3875,
      " କୁହା": 3876,
      "ଚାରୀ ": 3877,
      " ବାସ": 3878,
      "Com": 3879,
      "ଶ୍ମୀ": 3880,
      " ଆର୍ଥିକ ": 3881,
      "ସୂର୍ଯ୍ୟ": 3882,
      "ମଧ": 3883,
      "ଏକ ଅ": 3884,
      "ୁରୀ ": 3885,
      " କରିବ ": 3886,
      " ଦେଖିବାକୁ ମିଳ": 3887,
      "ାଶ": 3888,
      "= ": 3889,
      "ଓଡିଶା ": 3890,
      "ରୁ ଅ": 3891,
      "ପାଣିପାଗ": 3892,
      "ଲିଖିତ": 3893,
      " ସାହୁ": 3894,
      "ଏହା ସହିତ": 3895,
      " ମତ": 3896,
      " ତଳେ ": 3897,
      "ଶ୍ୱର": 3898,
      "ିଥିବା ବେଳେ ": 3899,
      "କୃଷ୍ଣ": 3900,
      "ମାଡ଼": 3901,
      " ବିଭାଗ ପକ୍ଷରୁ ": 3902,
      " ଜାରି ରଖ": 3903,
      "ଜନିତ": 3904,
      " ଶହ": 3905,
      " ଦାଖଲ": 3906,
      " ଅଛି": 3907,
      " ଯାଇ": 3908,
      "i ": 3909,
      " ବର୍ଷର ": 3910,
      "ଚଳଚ୍ଚିତ୍ର": 3911,
      " ବିତ": 3912,
      "ଭ୍ୟ": 3913,
      "ଦେଖନ୍ତୁ ": 3914,
      "ଯାଜପୁର ": 3915,
      "ଘନ": 3916,
      "ନଥିବା ": 3917,
      "ମୌ": 3918,
      "୨୦୧୯": 3919,
      "ସୁଖ": 3920,
      " ଆଧାର": 3921,
      "ତାପମାତ୍ର": 3922,
      "ିକରଣ": 3923,
      " ସମ୍ମାନ": 3924,
      "ପ୍ରସାଦ": 3925,
      "ଦୃଢ଼": 3926,
      "ଧ୍ୟାରେ ": 3927,
      "୩୭": 3928,
      "େକ୍": 3929,
      "ୟର ": 3930,
      "ଅଭିନୟ": 3931,
      " କରନ୍ତି": 3932,
      "ଟା": 3933,
      "ଆସି ": 3934,
      "ବିପଦ": 3935,
      "ନେକ": 3936,
      "ିଆରି କର": 3937,
      "ମୁତାବ": 3938,
      "ଆତ୍ମ": 3939,
      "ଇଣ୍ଡିଆ": 3940,
      "ମଣିଷ": 3941,
      "େଷଣ": 3942,
      "ay ": 3943,
      "ଏସବୁ ": 3944,
      "ାଲୋ": 3945,
      "ନିଷ୍ଠ": 3946,
      "୩୮": 3947,
      "ଚି ": 3948,
      "ନିରା": 3949,
      "ଷୟ": 3950,
      "ed f": 3951,
      "କ୍ରମେ ": 3952,
      "ପିତ": 3953,
      "ହର ": 3954,
      "ଯିବ ବୋଲି ": 3955,
      "ସମ୍ଭବ": 3956,
      "ସେଥି": 3957,
      " ଗିରଫ": 3958,
      "ରେ ଚ": 3959,
      "ଆପଣଙ୍କର ": 3960,
      "ଭଦ୍ରକ": 3961,
      "ଆମେରିକା ": 3962,
      "ମିଳିବ": 3963,
      "ସମ୍ପର୍କ ": 3964,
      "ଦିଆଯାଇଛି": 3965,
      "ମୋବାଇଲ": 3966,
      "ପାଳନ": 3967,
      "ାର୍ମ": 3968,
      " ବଜାର": 3969,
      "ମାଆ": 3970,
      "ଚ୍ଛା ": 3971,
      "ଫାଇନାଲ": 3972,
      " ମାନଙ୍କୁ ": 3973,
      "ht": 3974,
      "ସ୍ତ୍ରୀ": 3975,
      "ଜିନିଷ": 3976,
      " ବର୍ଷୀୟ": 3977,
      " ଅନୁଷ୍ଠ": 3978,
      "ଆଶ୍ଚର୍ଯ୍ୟ": 3979,
      "ସୁପ୍ରିମକୋର୍ଟ": 3980,
      " ଶାସନ": 3981,
      "ଭୁକ୍ତ": 3982,
      " ମନ୍ଦିର ": 3983,
      "ସମ୍ମିଳନୀ": 3984,
      "କେତେକ ": 3985,
      " ପତ୍ର": 3986,
      " ପକ୍ଷ": 3987,
      "ମହିଳାଙ୍କ ": 3988,
      "ଙ୍କ ଉପରେ ": 3989,
      "ସେୟାର ": 3990,
      "ମନୋର": 3991,
      "୪୮": 3992,
      " ଆଫ୍ର": 3993,
      "କାର୍ଯ୍ୟାନୁଷ୍ଠାନ": 3994,
      "ଜମ": 3995,
      "ାଇଲ": 3996,
      " ବୟ": 3997,
      " ଏହାର": 3998,
      "କମି": 3999,
      " ଅତିଥି ": 4000,
      " ପୁରସ୍କାର": 4001,
      "ଶୀତ": 4002,
      "lish": 4003,
      "ିବାନ": 4004,
      "ରୁଦ୍ଧ": 4005,
      "ଡୁ": 4006,
      "ଖବର ପାଇ": 4007,
      "ହଠ": 4008,
      "ପ୍ରଭୁ": 4009,
      "ଶେଷରେ ": 4010,
      "ଛୁ": 4011,
      "କୃଷ": 4012,
      " ଦୁଇଟି ": 4013,
      "ାହାଁ": 4014,
      "କୋଲ": 4015,
      "ଚାଲି ": 4016,
      "୯୯": 4017,
      " ଟଙ୍କାର": 4018,
      " କୋଭିଡ": 4019,
      "ଶିକ୍ଷକ ": 4020,
      "ନାୟକ ": 4021,
      "December ": 4022,
      "କେବେ ": 4023,
      "୬ ଜଣ": 4024,
      "ଇଂଲଣ୍ଡ": 4025,
      "ହ୍ଲ": 4026,
      " ଉଭୟ": 4027,
      ":\n": 4028,
      " ଆମେ ": 4029,
      "ି ହୋଇଛି ": 4030,
      "ଚାର ": 4031,
      "ମୁହ": 4032,
      "News ": 4033,
      "୪ଟି ": 4034,
      "ମୃତ୍ୟୁ": 4035,
      " ଶିକ୍ଷା ": 4036,
      "ନିଅ": 4037,
      "ary ": 4038,
      "ବିଷୟ": 4039,
      "ସମାଧାନ": 4040,
      "ମାନସିକ ": 4041,
      "ଖରାପ": 4042,
      " କରିପାରିବେ": 4043,
      "ନ୍ଦା ": 4044,
      "ବଦଳ": 4045,
      "ଧନ୍ୟବାଦ": 4046,
      "ସବୁଠାରୁ ": 4047,
      "ିଥାଏ ": 4048,
      "ବିଲ": 4049,
      "est": 4050,
      " ଦିଲ୍ଲ": 4051,
      "Oc": 4052,
      "ଞ୍ଜୟ": 4053,
      "ଶାଖ": 4054,
      "ପାତ୍ର": 4055,
      "ଜଣା": 4056,
      " ସୁନ୍ଦ": 4057,
      "କ୍କା ": 4058,
      "ରକେଲ": 4059,
      "ୀନରେ ": 4060,
      "ଟାରେ ": 4061,
      "og": 4062,
      "ଦିନକୁ ": 4063,
      "ଲଗାଇ": 4064,
      "ନିଲ": 4065,
      "ଯାତ": 4066,
      "ଟୁ": 4067,
      " ଘଟ": 4068,
      " ପରିବେଶ": 4069,
      "ୁହଁ": 4070,
      "ା କରିଛନ୍ତି ": 4071,
      "ଦ୍ଵାରା ": 4072,
      "ରାଶି ": 4073,
      " ଟିକା ": 4074,
      "ଡାଇ": 4075,
      "ମୟୂରଭଞ୍ଜ": 4076,
      " ଭାଙ୍ଗ": 4077,
      " ଦିନରେ ": 4078,
      "ଟ୍ରେ": 4079,
      "ଜୁଲାଇ": 4080,
      "ନୟାଗଡ଼": 4081,
      " ଗା": 4082,
      "ବ୍ୟବହ": 4083,
      "----": 4084,
      " ପରିମାଣ": 4085,
      " ବିବାହ": 4086,
      " ନା": 4087,
      "ଇତିହାସ": 4088,
      "ବାସୀଙ୍କ ": 4089,
      "ଚତୁ": 4090,
      "ୀ ଅ": 4091,
      "Dec ": 4092,
      "ଦେଖିବାକୁ ମିଳିଛି ": 4093,
      "ାସ୍": 4094,
      "ଜନ ": 4095,
      "ପିଇ": 4096,
      "Nov ": 4097,
      "ଯାଏଁ": 4098,
      " ହାର": 4099,
      "ବିଶ୍ବ": 4100,
      "କର୍ତ୍ତ": 4101,
      "ି କୌଣସି ": 4102,
      "ଭ୍ୟାସ": 4103,
      "ଫଗାନି": 4104,
      "ଯୁଗ": 4105,
      "ୁଲି ": 4106,
      "କଳନ": 4107,
      " ପ୍ରତିଷ୍ଠ": 4108,
      "ନେତ୍ରୀ": 4109,
      "ସ୍ଥଳ": 4110,
      " ପାର୍": 4111,
      "ର ସହ": 4112,
      "ଏଇ": 4113,
      "ସଫଳତା ": 4114,
      "ଦିନରେ ": 4115,
      "୫ ଜଣ": 4116,
      " ଜିଲ୍ଲାପାଳ": 4117,
      "ାଦାନ": 4118,
      "lec": 4119,
      " ରେଳ": 4120,
      " ଅନୁଭବ": 4121,
      "କହିଥିଲେ ": 4122,
      " ଚା": 4123,
      "ଚୋ": 4124,
      "ଟରେ ": 4125,
      "ବିଳମ୍ବ": 4126,
      "କୁ ଯାଇ": 4127,
      " ବିକ": 4128,
      "ନିର୍ବାଚନ ": 4129,
      "ନ୍ନାଇ": 4130,
      "ୋଟେଲ": 4131,
      "ୱାର୍ଡ": 4132,
      "ସୋନ": 4133,
      " କାର୍ଯ୍ୟାନୁଷ୍ଠାନ": 4134,
      "ବର୍": 4135,
      " ଓଭ": 4136,
      "ି କେନ୍ଦ୍ର": 4137,
      "ଡିଏ": 4138,
      "ପୃକ୍ତ": 4139,
      " କର୍": 4140,
      "ନାହାନ୍ତି": 4141,
      "ବିରାଟ": 4142,
      " ଥର ପାଇଁ": 4143,
      "ରୋଜ": 4144,
      "ରାଣ": 4145,
      "ରାସ୍ତାରେ ": 4146,
      "ଡିଜି": 4147,
      "ପୋଷ": 4148,
      " ବ୍ୟାପ": 4149,
      "ସନ୍ଦେହ": 4150,
      "ଡର ": 4151,
      "ବିଶିଷ୍ଟ": 4152,
      "ଅଂଶ": 4153,
      "ଟନ": 4154,
      "ା କରିଥିଲେ ": 4155,
      "କିଲ": 4156,
      " କହିବା ": 4157,
      "ସମର୍ଥନ": 4158,
      "ଖୁସି ": 4159,
      "ago": 4160,
      "ଭାଇରାଲ": 4161,
      "ର୍ତ୍ତମାନ": 4162,
      " କରିବା ସହିତ": 4163,
      "ନିର୍ଭର": 4164,
      " ଆବଶ୍ୟକତା ": 4165,
      "ଦ୍ବିତୀୟ": 4166,
      "କାଳୀନ": 4167,
      " ପୁରୁଷ": 4168,
      " ହିଁ": 4169,
      "ାବ୍ୟ": 4170,
      " ଅଫ": 4171,
      "ୃଦ୍ଧି ": 4172,
      "ଶ୍ରେଷ୍ଠ": 4173,
      "ଙ୍କ ଆ": 4174,
      " କରାଯିବ ବୋଲି ": 4175,
      "ନଗର ": 4176,
      "୍ଵ": 4177,
      "ପ୍ରମାଣ": 4178,
      "ସନ୍ଧାନ": 4179,
      " ୩୦": 4180,
      "ଲାଇନ": 4181,
      "ିଆରି ": 4182,
      "ଆଇସି": 4183,
      "ୋନ୍": 4184,
      "ପୁରସ୍କାର": 4185,
      " ରାଜ୍ୟ ସରକାର": 4186,
      "କରୋନା ସଂକ୍ରମଣ": 4187,
      "ଠିକ ": 4188,
      "ଅନ୍ୟପକ୍ଷରେ ": 4189,
      "ଅଧିକାରୀ ": 4190,
      "ହେଉଥିବା ": 4191,
      "ଝାରସୁଗୁଡ଼": 4192,
      "ନାର ": 4193,
      "ore ": 4194,
      "ug": 4195,
      " ୧୮": 4196,
      "ୁରକ୍ଷା ": 4197,
      "ପ୍ରକଳ୍ପ": 4198,
      "ଟିକାକରଣ": 4199,
      "େରା ": 4200,
      "ସିଆଲ ମିଡିଆରେ ": 4201,
      "ବ୍ୟକ୍ତିଗତ": 4202,
      "ବତନ୍ତ୍ର": 4203,
      "ଭାର": 4204,
      "ମାରେ ": 4205,
      "le ": 4206,
      "ବରଗଡ଼": 4207,
      " ରହିବ ": 4208,
      "ପରିଚୟ": 4209,
      "ସ୍କୃତି ": 4210,
      "ାଗଜ": 4211,
      "ାକୃତିକ ": 4212,
      " କଲ": 4213,
      " ସଙ୍ଗ": 4214,
      " ଲକ୍ଷ୍ୟ": 4215,
      "ରାୟଗଡ଼": 4216,
      "ହଂଚ": 4217,
      "ବେଗ": 4218,
      "ଭିଜିଲାନ୍ସ": 4219,
      " ପଡ": 4220,
      "ବିଜେଡି": 4221,
      "ରୋକ": 4222,
      "ଧୀରେ ": 4223,
      "ଖୋର୍ଦ୍ଧା ": 4224,
      "ଲୋକପ୍ରିୟ": 4225,
      " ପଟ୍ଟନାୟକ": 4226,
      " ହେବାରେ ": 4227,
      "େଦନ": 4228,
      "ମିତା ": 4229,
      "ଲାଇନ୍": 4230,
      " ବେହେରା": 4231,
      "୨ ": 4232,
      "ନଙ୍କ ": 4233,
      " ବିଭାଗର ": 4234,
      "ସୁଧ": 4235,
      "ମୁଦାୟ": 4236,
      "ଜେନ୍": 4237,
      "ଫଗାନିସ୍ତାନ": 4238,
      "ଆହୁରି ପଢ଼ନ୍ତୁ ": 4239,
      "ବର୍ତ": 4240,
      "ି କାମ": 4241,
      "ସୁରକ୍ଷିତ": 4242,
      "ଦୈନିକ ": 4243,
      "କ୍ଷତି ": 4244,
      "ଜିଲ୍ଲାର ": 4245,
      "ନାରାୟଣ": 4246,
      "ାଇମ": 4247,
      "ମ୍ୟାଚ୍": 4248,
      "ସ୍ତରରେ ": 4249,
      "ce": 4250,
      "ବ୍ୟାଙ୍କ ": 4251,
      "ହରାଇ": 4252,
      "ବାପା ": 4253,
      "ବୃଦ୍ଧି ": 4254,
      " କିଣ": 4255,
      " କରିଥିବା ବେଳେ ": 4256,
      "n ": 4257,
      "ପ୍ରସ": 4258,
      "ଭବିଷ୍ୟତ": 4259,
      "ମକ ": 4260,
      "ାର୍ଷ": 4261,
      "କିତ": 4262,
      "ମାର୍ଚ୍ଚ": 4263,
      "ରାଉତ": 4264,
      "ଫ୍ଟ": 4265,
      " ବୋ": 4266,
      "ଠିକ": 4267,
      " ହେବ ବୋଲି ": 4268,
      "ଥାଆ": 4269,
      "ବୈଠକ ": 4270,
      "ଶିଶୁ": 4271,
      " ମନ୍ତ୍ରଣ": 4272,
      "h ": 4273,
      "କୁ ଆସ": 4274,
      "ଶାନ୍ତି ": 4275,
      "ସାମ୍ବାଦିକ ": 4276,
      " ଓ ପ": 4277,
      "ପୂଜ": 4278,
      " ଦେଶରେ ": 4279,
      "ହେଉଛି": 4280,
      "ସୂଚନା ମିଳିଛି ": 4281,
      " ସାମିଲ": 4282,
      " ପ୍ରମାଣ": 4283,
      "ତରଫରୁ ": 4284,
      "ରେ ପ୍ରଥମ": 4285,
      "Odisha ": 4286,
      "ଡ଼ିଓ": 4287,
      " କରେ ": 4288,
      "ସ୍ଥାୟ": 4289,
      "im": 4290,
      "ପେକ୍ଷ": 4291,
      "ପୁରରେ ": 4292,
      " ସମାଜ": 4293,
      "ଗେ": 4294,
      "ଯଦି ଆପଣ": 4295,
      "ଶିଖ": 4296,
      "କ୍ଷଣ": 4297,
      "ାଦବ": 4298,
      " ଏଥିରେ ": 4299,
      "ପଞ୍ଜାବ": 4300,
      "ରୀର ": 4301,
      "ଅଟ": 4302,
      "irst ": 4303,
      " ଓ ଅ": 4304,
      " କୃଷ": 4305,
      "ସେଲ": 4306,
      "ଣ୍ଟି": 4307,
      "କ୍ରୀ": 4308,
      " ତେବେ ": 4309,
      "ସକ୍ଷମ": 4310,
      " କର୍ତ୍ତୃପକ୍ଷ": 4311,
      "ମନରେ ": 4312,
      " ମାମଲାରେ ": 4313,
      "ପ୍ରସ୍ତାବ": 4314,
      "ଶ୍ମ": 4315,
      "ଯଦ": 4316,
      "ଞ୍ଜନ ": 4317,
      "ପ୍ରସଙ୍ଗ": 4318,
      "ଏକ୍ସ": 4319,
      "ପାଇବା ପାଇଁ": 4320,
      " ଘରକୁ ": 4321,
      " ସଂଖ୍ୟା ": 4322,
      "େବୃ": 4323,
      "ାଉଣ୍ଡ": 4324,
      " ଅଟେ ": 4325,
      " ପ୍ରାଣ": 4326,
      "ଥାନା ଅନ୍ତର୍ଗତ": 4327,
      " ୧୧": 4328,
      "ରହିବ ": 4329,
      " ଜଙ୍ଗଲ": 4330,
      "ଲମ୍ବ": 4331,
      "ିକ୍ରିୟା ": 4332,
      " ସନ୍": 4333,
      " ସବୁ": 4334,
      "ିନ୍": 4335,
      " ବଳ": 4336,
      "ୁଥିଲେ": 4337,
      "ଡିଂ": 4338,
      "ଭୁବନେଶ୍ବର ": 4339,
      " ମନ୍ତ୍ରଣାଳୟ": 4340,
      "ମନ୍ତ୍ରଣ": 4341,
      " ଆବଶ୍ୟକ ": 4342,
      "ଗୁଲ": 4343,
      " ବର୍ତ୍ତମାନ": 4344,
      "ି କରାଯାଇଛି": 4345,
      "କରିବା ": 4346,
      "ମୂର୍ତ୍ତ": 4347,
      "En": 4348,
      "୩୪": 4349,
      "ଏହି କାର୍ଯ୍ୟକ୍ରମ": 4350,
      "ସଂଗ୍ରହ": 4351,
      "ହେତୁ ": 4352,
      "?\n": 4353,
      "ଶୋଇ": 4354,
      "କୁ ମଧ୍ୟ": 4355,
      "ରେ ସାମିଲ": 4356,
      "ଟିଆ": 4357,
      "ବ୍ୟାପକ ": 4358,
      "ାଉଛି ": 4359,
      "ଭଗବାନ": 4360,
      "ମଜ": 4361,
      "୫ଟି ": 4362,
      "ମିଳିତ": 4363,
      " ଜୁ": 4364,
      "କେତେ ": 4365,
      "ବାଲି": 4366,
      "ାକ ": 4367,
      " ଏସ": 4368,
      " ପାଇଛି ": 4369,
      "ଧୁନିକ ": 4370,
      "ଆସି": 4371,
      "wi": 4372,
      " ମିଳିବ": 4373,
      "ାପି": 4374,
      " ଶୀଘ୍ର": 4375,
      "ତ୍ରି": 4376,
      " ବାତ": 4377,
      "କଟକଣା ": 4378,
      "ଅନୁଷ୍ଠିତ ହୋଇ": 4379,
      "ବାଲେଶ୍ୱର ": 4380,
      "ସମସ୍ତଙ୍କୁ ": 4381,
      "out ": 4382,
      " ଘର ": 4383,
      "ଦେଇଛି": 4384,
      " ମାଗ": 4385,
      "ଗରିବ": 4386,
      " କରୋନ": 4387,
      "ନିମ୍ନ": 4388,
      " ଅନୁମ": 4389,
      " ଭିଡିଓ": 4390,
      " ନିମନ୍ତେ ": 4391,
      "ଏଣୁ ": 4392,
      " ସେଠାରେ ": 4393,
      " ଦିଆଯାଇଛି": 4394,
      "ଆନ୍ଧ୍ର": 4395,
      "ବିଜ୍ଞାନ": 4396,
      "ୁ ଓ": 4397,
      "ିନ ": 4398,
      "ର ବିକାଶ": 4399,
      "୍ୱାନ": 4400,
      " କରିବାର ": 4401,
      " ନେଉ": 4402,
      ":0": 4403,
      "ଶୋକ ": 4404,
      "ମର": 4405,
      "ଗୁରୁତ୍": 4406,
      " ଓଡିଶ": 4407,
      "pro": 4408,
      "AR": 4409,
      "ଭ୍": 4410,
      "ଙ୍କ ନାମ": 4411,
      " ତା": 4412,
      "ଦ୍ରୁତ": 4413,
      " ଆସି": 4414,
      "ମଣ୍ଡ": 4415,
      "ch ": 4416,
      "ଫୋନ୍": 4417,
      ":5": 4418,
      " ପାକିସ୍ତାନ": 4419,
      "ବିହାର": 4420,
      "ଦ୍ୟୋଗ": 4421,
      " ମେଡିକାଲ": 4422,
      "ୀ ମ": 4423,
      " ନିକଟରେ ": 4424,
      "ଆସନ୍ତାକ": 4425,
      "ପାର୍": 4426,
      " କୁମାର ସ": 4427,
      "ୋଗ୍ର": 4428,
      "ବିତ୍ର": 4429,
      " ୧୨": 4430,
      "ଅତିରିକ୍ତ": 4431,
      "ାମୂଳ": 4432,
      "ୀ ଦଳ": 4433,
      "ୁଇଁ": 4434,
      "ରାଷ୍ଟ୍ରୀୟ": 4435,
      "ଦୁଷ୍କର୍ମ": 4436,
      "ଗୋଲ": 4437,
      "oll": 4438,
      "(+": 4439,
      "ଗାଡ଼ି ": 4440,
      " ଛାତ୍ରଛାତ୍ରୀ": 4441,
      "ଜାଣିବା ": 4442,
      "କାହିଁକି ": 4443,
      " ପରିସ": 4444,
      "ବିସ୍": 4445,
      "ମାଧ୍ୟମରେ ": 4446,
      "ଶ୍ରୁତି ": 4447,
      "tions ": 4448,
      "ହିନ୍ଦୁସ୍ଥାନ": 4449,
      "ନିଷ୍ପତ୍ତି ନେଇ": 4450,
      "ିକାଲ": 4451,
      "ସିଆଇ": 4452,
      "ଙ୍କ ମଧ୍ୟରୁ ": 4453,
      "ହେଉଛନ୍ତି ": 4454,
      "ଥାଉ": 4455,
      "ାଲୁ": 4456,
      "uc": 4457,
      "ଏପର୍ଯ୍ୟନ୍ତ": 4458,
      " ଅନୁଯାୟୀ ": 4459,
      "ଦୋଷ": 4460,
      "ଗୁଡିକୁ ପ": 4461,
      "ହତ୍ୟା ": 4462,
      "ଶୃଙ୍ଖ": 4463,
      "ିଙ୍ଗ": 4464,
      "ଯଥ": 4465,
      "ଂଚଳରେ ": 4466,
      "ଏହାପ": 4467,
      "ଦରେ ": 4468,
      "ଆଦି ": 4469,
      "ଏହା ଏକ ": 4470,
      "ନ୍ୟାୟ": 4471,
      ":4": 4472,
      " ଉଦ୍ୟମ": 4473,
      " ପିଲା": 4474,
      "୩୯": 4475,
      " ଗୁଡ଼": 4476,
      " କ୍ଷମତା ": 4477,
      "ଗୁଳି ": 4478,
      "ିଲିୟ": 4479,
      "ିକତା ": 4480,
      "ତ୍ରରୁ ": 4481,
      " କିଲୋମିଟର ": 4482,
      "ମତ୍": 4483,
      " ନୂତନ ଅ": 4484,
      " କୋଟି ଟଙ୍କାର": 4485,
      "୩ ": 4486,
      " ଛୋଟ": 4487,
      " ଘୋଷଣା ": 4488,
      "ାର ସମା": 4489,
      "େତିକି ": 4490,
      " କୋଭିଡ୍": 4491,
      "ଜାଇ": 4492,
      "ମୋର ": 4493,
      " ବିଷୟରେ ସମସ୍ତ": 4494,
      " ପଛ": 4495,
      ":3": 4496,
      " କୃଷି ": 4497,
      "ଶୀର୍ଷ": 4498,
      "ଧି": 4499,
      "ଆଜିର ": 4500,
      "ସୂଚନା ଦେଇଛନ୍ତି ": 4501,
      "ର କିଛି ": 4502,
      "ୋଜ୍": 4503,
      "ପଡ଼େଟ": 4504,
      "ୀବ୍ର": 4505,
      "ରୁଣ": 4506,
      "ସିଏ": 4507,
      "ବାଦୀ ": 4508,
      "ା କରି": 4509,
      "il ": 4510,
      "ଏଠାରେ କୋଭିଡ": 4511,
      "ସମ୍ବଲପୁର ": 4512,
      "କରିବାକୁ ": 4513,
      "ାଗୁଡ଼": 4514,
      " ନୂତନ ଅପଡ଼େଟ": 4515,
      " ବିଷୟରେ ସମସ୍ତ ନୂତନ ଅପଡ଼େଟ": 4516,
      " ବିଷୟରେ ସମସ୍ତ ନୂତନ ଅପଡ଼େଟଗୁଡିକୁ ପ": 4517,
      "ୌଶଳ": 4518,
      "ଭୂମି": 4519,
      "ତ୍ମହତ୍ୟ": 4520,
      "ୃତ୍ୟ": 4521,
      "ଗୁଆ": 4522,
      "ଏଠାରେ କୋଭିଡ ବିଷୟରେ ସମସ୍ତ ନୂତନ ଅପଡ଼େଟଗୁଡିକୁ ପ": 4523,
      "ନାଇ": 4524,
      "ରେ ଅନେକ ": 4525,
      "ବାୟୁ ": 4526,
      "ରାଜସ୍ଥାନ": 4527,
      "ଜର୍": 4528,
      " ୧୪": 4529,
      "ଡାକ": 4530,
      "ଚାଲିଥିବା ": 4531,
      " ଶିବ": 4532,
      " ବାୟ": 4533,
      "ାଣିରେ ": 4534,
      " କ୍ରୀ": 4535,
      "ସନ ": 4536,
      "ଥ୍": 4537,
      " ରୋ": 4538,
      "ଟାର୍ଗ": 4539,
      "ବଜାର": 4540,
      "ମାନଙ୍କ ସହ": 4541,
      "ଠା ": 4542,
      "ଅର୍": 4543,
      "ଯିବା ପରେ ": 4544,
      "ର ପ୍ରତି": 4545,
      "ବାତ୍ୟା ": 4546,
      "ନ୍ୟାସ": 4547,
      " ଖଣ୍ଡ": 4548,
      " ପ୍ରଧାନମନ୍ତ୍ରୀ ": 4549,
      "*\n": 4550,
      "ଗଲା": 4551,
      "୨୦୨୨": 4552,
      "ିନୀ ": 4553,
      "ସାଗ": 4554,
      "ଥିଲେ ମଧ୍ୟ": 4555,
      "be ": 4556,
      " ଖୁସି ": 4557,
      " ପରି ": 4558,
      "vi": 4559,
      "ଯାଇଥାଏ": 4560,
      "ଟ୍ରେ ": 4561,
      " ଦୋକାନ": 4562,
      "ାନି ": 4563,
      " ବାଇ": 4564,
      "ନିର୍ଦ୍ଦିଷ୍ଟ": 4565,
      "ତିନୋ": 4566,
      "ର ମୁଖ୍ୟ": 4567,
      "ଗ୍ରସ୍ତ": 4568,
      "ରେ କାମ": 4569,
      "ରୋଗୀ": 4570,
      " ମହାନ୍ତି ": 4571,
      "କାର୍ଯ୍ୟକାରୀ": 4572,
      "ହୋଇଥିଲା": 4573,
      " ଚିହ୍ନଟ ହୋଇଛନ୍ତି": 4574,
      " ଅଧିନ": 4575,
      " ସ୍ବାସ୍ଥ୍ୟ": 4576,
      "ତ୍ତି ": 4577,
      "ଦେବେ ": 4578,
      "ାର ସମାଧାନ": 4579,
      " ଅନୁମତି ": 4580,
      "ଉପାୟ": 4581,
      "ିତ୍ବ": 4582,
      "ଗର୍ଭ": 4583,
      "ହୋ": 4584,
      "ଟିମ": 4585,
      " ବିଭିନ୍ନ ": 4586,
      " ସ୍ତରରେ ": 4587,
      " ପୁଣି ": 4588,
      " ଆଇନ": 4589,
      "କୁ ଖ": 4590,
      " ଘର": 4591,
      "ଯୋଗିତ": 4592,
      "ଲିଙ୍ଗ": 4593,
      "ପଡ଼ିବ": 4594,
      " କରିଥାଏ ": 4595,
      " ଡେ": 4596,
      "୭ ଜଣ": 4597,
      "ଦଳୀୟ": 4598,
      " ଶୁଣ": 4599,
      " ମନ୍ତ୍ର": 4600,
      "18": 4601,
      "ଥିବାର": 4602,
      " ଜରିଆରେ ": 4603,
      "କ୍ରମିତ ହୋଇ": 4604,
      "ଟାରୁ ": 4605,
      "ପଢ଼": 4606,
      "େୟ": 4607,
      "ଦାର ": 4608,
      " ଘଣ୍ଟା ମଧ୍ୟରେ ": 4609,
      "ଘରୁ ": 4610,
      "ସାମାନ୍ୟ": 4611,
      " ପ୍ରେମ": 4612,
      "2019 ": 4613,
      " ଜନ୍ମ": 4614,
      "ଲେଜ": 4615,
      " ପ୍ରାର୍ଥ": 4616,
      " ପଜିଟିଭ": 4617,
      "ଭଣ୍ଡ": 4618,
      "ପ୍ରଭାବିତ": 4619,
      " କିନ୍ତୁ ": 4620,
      "ଅତି ": 4621,
      "ମାଓ": 4622,
      " ମାନସ": 4623,
      "କଷ୍ଟ": 4624,
      "ବୋଧ": 4625,
      "30": 4626,
      " ପୃ": 4627,
      " ଦିଗ": 4628,
      " ଜୟ": 4629,
      "ଥାଇ": 4630,
      "ତଥାପି ": 4631,
      "ବ୍ଲକ ": 4632,
      " ସେନା ": 4633,
      " ଗଠନ": 4634,
      "ସ୍ୱା": 4635,
      "ଘାଟନ": 4636,
      " ଆପଣଙ୍କ ": 4637,
      "ସାଧାରଣତଃ": 4638,
      "େରି ": 4639,
      "ନିର୍ଦେଶ": 4640,
      "ସିଧ": 4641,
      "କୁ ପ୍ର": 4642,
      "ସୁଶାନ୍ତ": 4643,
      "ତିନୋଟି ": 4644,
      "କରି": 4645,
      "post ": 4646,
      " ବୁଝ": 4647,
      "ତ୍ନ": 4648,
      "appear": 4649,
      " ପାଣି ": 4650,
      "ହିନ୍ଦୁସ୍ଥାନ ସମା": 4651,
      "ଭି ": 4652,
      " ସତ": 4653,
      "ରାନ": 4654,
      "ପଶ୍ଚିମବଙ୍ଗ": 4655,
      "ଥାନ୍ତ": 4656,
      " ୧୬": 4657,
      " ସହାୟତା ": 4658,
      "ନୀଳ": 4659,
      " ମାର୍ଚ୍ଚ": 4660,
      "ଚର୍ଚ୍ଚା ": 4661,
      "ଜାଣନ୍ତୁ ": 4662,
      "ଦାବି ": 4663,
      "ଅଞ୍ଚଳରେ ": 4664,
      "ତ୍ୟାଦ": 4665,
      " ଅଭିଯାନ": 4666,
      "ପ୍ରଭୁ ": 4667,
      "ଫୋରଣ": 4668,
      "Wh": 4669,
      "ଳଖ": 4670,
      "ଶବ୍ଦ": 4671,
      "ଜରୁରୀ": 4672,
      " ମୁତ": 4673,
      "ଇସ୍ତଫା ": 4674,
      "ରିଲି": 4675,
      "ନିଷ୍": 4676,
      "ଗୋଷ୍ଠୀ": 4677,
      "ଶ୍ବର": 4678,
      "Al": 4679,
      " ଅଧ୍ୟ": 4680,
      "ଜ୍ୟୋ": 4681,
      "ଚୀନ": 4682,
      "ପଚାର": 4683,
      " ଏକା": 4684,
      "ଘଟଣାର ତଦନ୍ତ": 4685,
      "ବାର ସ": 4686,
      "ାଟା ": 4687,
      " ଏଭଳି ": 4688,
      "ଆୟୋଜିତ": 4689,
      " ବିଦେଶ": 4690,
      "ଲରେ ": 4691,
      "ଇଁ": 4692,
      "ନିଧି ": 4693,
      "ସଚେତନ": 4694,
      " ଖୁବ": 4695,
      "ତୁମ୍ଭ": 4696,
      " ଜିଲ": 4697,
      "ୋଲୋଜ": 4698,
      "ଅତ୍ୟନ୍ତ": 4699,
      " ଆତଙ୍କ": 4700,
      "State ": 4701,
      "ମିଳି": 4702,
      "ମ୍ପି": 4703,
      "ା ପୋଲିସ": 4704,
      "ଆବେଦନ": 4705,
      "କ୍ଟ୍ର": 4706,
      "କ୍ଲିକ୍": 4707,
      "ଅପରାହ୍": 4708,
      "ପାଖାପାଖି ": 4709,
      "ev": 4710,
      "ମାନଙ୍କ ମଧ୍ୟରେ ": 4711,
      " ଦ୍ର": 4712,
      "ନେତା": 4713,
      "ଅଧ୍ୟ": 4714,
      "ର ଉପ": 4715,
      "ା ସମ୍": 4716,
      "ଶିଷ": 4717,
      "କରିଥିଲେ ": 4718,
      " ମହାନ୍ତି": 4719,
      "ି କର୍ମ": 4720,
      " କରିନ": 4721,
      "ବେଶ୍": 4722,
      "ଏହି ଘଟଣା ": 4723,
      "ଚିଠି ": 4724,
      "ut": 4725,
      "ା ସୃଷ୍ଟ": 4726,
      "କେଟ": 4727,
      "ରାଉରକେଲ": 4728,
      "ଓଡ଼ିଶା": 4729,
      " ଇଂ": 4730,
      "ସରକାରୀ ": 4731,
      "ଅଛି": 4732,
      "ଥିବେ ": 4733,
      "ଉଦାହରଣ": 4734,
      "ର ଖବର ": 4735,
      "ଶାସନ ପକ୍ଷରୁ ": 4736,
      "ଋତୁ": 4737,
      "ଚୌ": 4738,
      "ମାଛ": 4739,
      "ଣ୍ଟ୍ର": 4740,
      "ext ": 4741,
      "୍ୟୁବ": 4742,
      "କ୍ଷୋଭ": 4743,
      " ହୁଅ": 4744,
      " ପରିଚାଳନା ": 4745,
      "ଏଠାରେ କୋଭିଡ ବିଷୟରେ ସମସ୍ତ ନୂତନ ଅପଡ଼େଟଗୁଡିକୁ ପଢ଼ନ୍ତୁ ": 4746,
      "ଦାବି": 4747,
      "ଉତ୍ତମ": 4748,
      "Elec": 4749,
      " ପରାମର୍ଶ": 4750,
      "ସାମ୍ନାକୁ ଆସ": 4751,
      "ତାଲିବାନ": 4752,
      "ଗୁରୁତର ": 4753,
      " ବୃଦ୍ଧି ପାଇ": 4754,
      " ହୋଇପାରେ ": 4755,
      "ପଟ": 4756,
      "ଯେପରି ": 4757,
      "ଯଦି": 4758,
      "ଆସନ୍ତୁ ": 4759,
      "ଙ୍କ ବିରୋଧରେ ": 4760,
      "ଲୋଚ": 4761,
      "ନିଂ": 4762,
      "ସ୍ଥାନାନ୍ତର": 4763,
      "ବାଣ": 4764,
      " ଲୁ": 4765,
      " ଫୁଟ": 4766,
      "ରିଂ": 4767,
      "ଶୁଭେ": 4768,
      "ଣ୍ଡର ": 4769,
      "ାଳନ": 4770,
      " ନୁହେଁ ": 4771,
      " ସଂସ୍ଥ": 4772,
      "ସମୁଦ୍ର": 4773,
      " ଅଟ": 4774,
      " ନେବାକୁ ": 4775,
      "ଚନ୍ଦ": 4776,
      "ବୟସ": 4777,
      "ା ନ": 4778,
      " ରାୟ": 4779,
      " ଅଂଶ": 4780,
      " ଉଦ୍ଧାର": 4781,
      " ଆଖ": 4782,
      "ର୍ତ": 4783,
      "ଏହା ସହ": 4784,
      " ଗସ୍ତ": 4785,
      "ମନେ ": 4786,
      "ହତ୍ୟା": 4787,
      " କୋହ": 4788,
      " ମୁକାବ": 4789,
      "ଚେନ୍ନାଇ": 4790,
      " ଅବସରରେ ": 4791,
      "କେଇ": 4792,
      "ା ସରକାର": 4793,
      "ାଡିୟମ": 4794,
      "ମ୍ମ": 4795,
      " ୫୦": 4796,
      "୫୫": 4797,
      "ିସାର": 4798,
      "ଓଡ଼ିଶାର": 4799,
      " ରାଜପଥ": 4800,
      "ରାଗ": 4801,
      "୍ରୀଷ୍ଟ": 4802,
      "ମୋଟ୍": 4803,
      "s ago": 4804,
      "ବିଧାନସଭା ": 4805,
      "ସପ୍ତାହ": 4806,
      "ist": 4807,
      "ଦେଖିବାକୁ ": 4808,
      "ବେଷଣା ": 4809,
      " ସକାଳ": 4810,
      " ପ୍ରଶଂସ": 4811,
      "ଙ୍କ ଦ୍ୱାରା ": 4812,
      "ଯୋଜନାରେ ": 4813,
      "ଣାରେ ": 4814,
      " ପ୍ରସ୍ତୁତି ": 4815,
      "ଶଙ୍କର ": 4816,
      " କହିଛନ୍ତି ଯେ": 4817,
      "ସଦସ୍ୟ": 4818,
      "ଅଗ୍ନି": 4819,
      " ଶକ୍ତି ": 4820,
      "ଫୁଟ": 4821,
      " ସମାନ": 4822,
      "୪୬": 4823,
      "ତିକ୍ରମ": 4824,
      "କ୍ଷତି": 4825,
      "ଙ୍କୁ ନେଇ": 4826,
      "ଡିସେମ୍ବର ": 4827,
      "ଦ୍ଧି": 4828,
      " ବୋଲି କୁହା": 4829,
      "ଗ୍ଧ": 4830,
      "ଏଥର ": 4831,
      "େନ ": 4832,
      "ାର୍ଟ": 4833,
      " ବୃଦ୍ଧି ": 4834,
      "ome": 4835,
      "୧ ": 4836,
      "ers": 4837,
      "ଦିତ୍ୟ": 4838,
      "ଚରାଉ": 4839,
      "ଡ଼ାଇ": 4840,
      "ାଉଳ": 4841,
      " ପ୍ରଶାସ": 4842,
      "ସାନ": 4843,
      " କଲା ": 4844,
      "ପେଟ୍ରୋଲ": 4845,
      " ଗୁରୁତ୍ୱ": 4846,
      "ଅଣ": 4847,
      "ବଲିଉଡ": 4848,
      " ମାସରେ ": 4849,
      "ଆଉ ଏକ ": 4850,
      " ବିବାଦ": 4851,
      "ଆନନ୍ଦ": 4852,
      "ଏଥିରୁ ": 4853,
      "ଜାନୁ": 4854,
      "କିମ୍ବ": 4855,
      "new": 4856,
      "ଧାରଣ": 4857,
      "ଓହ୍ଲ": 4858,
      " ଏହାର ": 4859,
      "ଏମାନେ ": 4860,
      "Odisha": 4861,
      "qu": 4862,
      "ହୋଇଥାଏ": 4863,
      "ିବାଦ": 4864,
      "ନିବେଶ": 4865,
      "ପାରନ୍ତି ": 4866,
      "ଆଇନ ": 4867,
      " ରୁ": 4868,
      " ବଦଳ": 4869,
      "ଏହା ପୂର୍ବରୁ ": 4870,
      "for": 4871,
      "ାଦଶ": 4872,
      "ଖଲ": 4873,
      "ଫି ": 4874,
      " ୟ": 4875,
      "ନାମକ ": 4876,
      "ପସନ୍ଦ": 4877,
      "ତହସିଲ": 4878,
      "ଳିତ": 4879,
      "େଲେ ": 4880,
      "ar ": 4881,
      "୍ୟାନ୍": 4882,
      "ଶିତ": 4883,
      "ଛାତ୍ରୀ ": 4884,
      "ୃତୀୟ": 4885,
      "କ୍ଲ": 4886,
      "କୃଷି ": 4887,
      "Posts": 4888,
      "କ୍ୟା": 4889,
      "ିବି ": 4890,
      "କନକ ବ୍ୟୁରୋ ": 4891,
      " ଘଟଣାସ୍ଥଳରେ ": 4892,
      "ବିଜୁ ": 4893,
      "ଧାରା ": 4894,
      "ପ୍ରଶାସ": 4895,
      "୪୭": 4896,
      "+ ": 4897,
      " ତୃତୀୟ": 4898,
      "ଦ୍ରାବାଦ": 4899,
      " ଉଠ": 4900,
      " ସାଙ୍ଗ": 4901,
      " ସମ୍ବନ୍ଧ": 4902,
      "ି କେ": 4903,
      "ଦୂରେଇ": 4904,
      "ଷ୍କାର": 4905,
      "ଉନ୍ନତ": 4906,
      "ଦାଲ": 4907,
      "ନେତ୍ରୀ ": 4908,
      "ର୍ଣ୍ଣାଟ": 4909,
      " ହୋଇପାରେ": 4910,
      "େଡ": 4911,
      "ମ୍ବୁଲ": 4912,
      "ୁଥିଲା ": 4913,
      " ଟିକ": 4914,
      "ଯାଇଥିବା ବେଳେ ": 4915,
      "ବିଦ୍ୟୁତ": 4916,
      "wit": 4917,
      "Ch": 4918,
      "ଲଢ଼": 4919,
      "ାଳୀ": 4920,
      "ନିକିଆ": 4921,
      "ବାସୀଙ୍କୁ ": 4922,
      "om ": 4923,
      " ବସ": 4924,
      " ସେୟାର": 4925,
      " ସ୍ପଷ୍ଟ": 4926,
      "ଦୂରରେ ": 4927,
      "ୁରୁ": 4928,
      "ିତ ହୋଇଛି ": 4929,
      "ଶେଖ": 4930,
      " ହେବାର": 4931,
      "ଆଜି ସକାଳ": 4932,
      " କେତେକ ": 4933,
      "ଦାଶ": 4934,
      " ବିରୋଧରେ ": 4935,
      "୩୩": 4936,
      " ଯୋଗାଇ": 4937,
      " ଶିଶୁ ": 4938,
      "୍ୟାଙ୍ଗ": 4939,
      " ସେଠ": 4940,
      " ରହିଛନ୍ତି ": 4941,
      "ଧର୍ମେନ୍ଦ୍ର": 4942,
      " ଚୌ": 4943,
      "ାରୀରିକ ": 4944,
      "Share ": 4945,
      "ର ସଦସ୍ୟ": 4946,
      "୨୦୧୮": 4947,
      "ନରୁ ": 4948,
      " ୨୫": 4949,
      "ବ୍ୟାଟିଂ": 4950,
      "ନିଟ୍": 4951,
      "ନଭେମ୍ବର ": 4952,
      "ସହରରେ ": 4953,
      "ାଧୀନତା ": 4954,
      "ିଚ": 4955,
      "ପଡ଼ା ": 4956,
      "ଛତିଶ": 4957,
      " କରୁଥିଲେ": 4958,
      "୍ୟାଲେ": 4959,
      "ଦୁଇ ଜଣ": 4960,
      "ଷ୍ଟର ": 4961,
      "ରେ ମ": 4962,
      "ମିଳିଛି ": 4963,
      "ବନ୍ଧୁ ": 4964,
      ":1": 4965,
      "ଡିସି": 4966,
      " ଆବେଦନ": 4967,
      " ଶ୍ରମ": 4968,
      "ଧ୍ୟକ୍ଷତାରେ ": 4969,
      " ଶାସନ ସଚିବ": 4970,
      "ାଣିଗ୍ରାହ": 4971,
      "ଅଫିସ": 4972,
      "େରଳ": 4973,
      " ଆକ୍ରମଣ": 4974,
      "ପଡି": 4975,
      "ସ୍ମାର୍ଟ": 4976,
      "Elections ": 4977,
      "ାମିଲନା": 4978,
      "ସହାୟକ ": 4979,
      "ଜ୍ଞପ୍ତ": 4980,
      " ତୁଳ": 4981,
      "State Elections ": 4982,
      " ବେଶ": 4983,
      "Click here to get the latest updates on State Elections ": 4984,
      " କରିବା ଏବଂ": 4985,
      "ପଢନ୍ତୁ ": 4986,
      "ଓମିକ୍ର": 4987,
      "ମ୍ୱ": 4988,
      "ସୁନା ": 4989,
      "ଲାର": 4990,
      " ସାରା ": 4991,
      "୪୯": 4992,
      " କରିପାରିବ": 4993,
      "ସ୍ଥିତିକୁ ": 4994,
      " ଡାକ୍ତରଖାନ": 4995,
      "ାଫଳ": 4996,
      "ୀନ୍": 4997,
      " ତରଫରୁ ": 4998,
      " ଆହତ": 4999,
      "ଗୁଜ": 5000,
      " ଯୋଗୁ ": 5001,
      "The post ": 5002,
      "ରହିଛନ୍ତି ": 5003,
      "କୁ ଫେର": 5004,
      "HA": 5005,
      " ପୋଲ": 5006,
      "ାସଳଖ": 5007,
      " ଧର": 5008,
      " ସମ୍ପର୍କ ": 5009,
      "କମ୍ପ": 5010,
      "ଭାବ୍ୟ": 5011,
      "ରେ ସରକାର": 5012,
      "ନିଗମ": 5013,
      "ଆଲ": 5014,
      "ମୁନା ": 5015,
      " ପ୍ରକ୍ରିୟା ": 5016,
      "ର୍ମା ": 5017,
      "ଆପ": 5018,
      "ଗ୍ରାମ୍": 5019,
      "Con": 5020,
      "ମାଲକାନଗିରି ": 5021,
      " କରିଥାନ୍ତି ": 5022,
      "ସାଂ": 5023,
      "ନଜ": 5024,
      "ON": 5025,
      " ଦୂ": 5026,
      "ଶୋକ": 5027,
      " ଚାଲାଣ": 5028,
      "ର ସମସ୍ତ": 5029,
      "ଯଦିଓ": 5030,
      "Ar": 5031,
      "ାକ୍": 5032,
      "ପକାଇ": 5033,
      " ଘଣ୍ଟାରେ ": 5034,
      " ପ୍ରଧାନମନ୍ତ୍ରୀ": 5035,
      "ରେ ଜଣେ ": 5036,
      "ଚାଇ": 5037,
      " ଆଣ୍ଡ": 5038,
      "ଦେଖାଇ": 5039,
      "ଆସୁଥିବା ": 5040,
      "00": 5041,
      "ର ଏବଂ": 5042,
      "wor": 5043,
      " ନିର୍ବାଚନରେ ": 5044,
      " ରେକର୍ଡ": 5045,
      "ବସ୍": 5046,
      "ି କରିବା ": 5047,
      "ାଇବା ସହ": 5048,
      "ଶିକ୍ଷଣ": 5049,
      "ଅଗଷ୍ଟ": 5050,
      "ବାପା": 5051,
      "ଢେଇ": 5052,
      "ଘୁଚାପ": 5053,
      " ଉନ୍ନ": 5054,
      " ହୋଇଯାଇଛି ": 5055,
      "ନିର୍ବାହ": 5056,
      "ହଠାତ୍": 5057,
      " ସମ୍ପୂର୍ଣ୍ଣ": 5058,
      "ଟର": 5059,
      "with ": 5060,
      "ଦାଲତ": 5061,
      "ବାସ୍ତବ": 5062,
      "ବାପ": 5063,
      "ଚାହିଁ": 5064,
      "କୁ ସ": 5065,
      "ଇନ": 5066,
      "ce ": 5067,
      "ନ୍ୟୁଜ୍": 5068,
      "ୋଶ": 5069,
      "ପୀଠ": 5070,
      "ରେ ଭାରତ": 5071,
      "ାଉଛନ୍ତି ": 5072,
      " ବନ": 5073,
      "ମାଲକାନଗିରି": 5074,
      "ରିମାନ": 5075,
      " ଯୋଗାଣ": 5076,
      "ରାଲ୍": 5077,
      "ଏପ୍ରିଲ": 5078,
      " ମଣ୍ଡ": 5079,
      "କାରୀଙ୍କ ": 5080,
      " ଓ କ": 5081,
      "ଓ୍ଵ": 5082,
      "ଶା ": 5083,
      " ଆଲ": 5084,
      "ଅନୁଯାୟୀ ": 5085,
      "ଭାଜ": 5086,
      "ଡାଉନ୍": 5087,
      " ପ୍ରସାଦ": 5088,
      " ଆଶଙ୍କା ": 5089,
      "ା ବଢ଼": 5090,
      "ଚକ୍ର": 5091,
      " ପ୍ରସ୍ତାବ": 5092,
      " ପରିବାର ": 5093,
      "ଜାପ": 5094,
      "ୱେବ": 5095,
      " ସରକାରୀ": 5096,
      "ାସ୍ତ୍ର": 5097,
      " ପରିଷଦ": 5098,
      " ଖାନ": 5099,
      "ଏଥିସହିତ": 5100,
      "କ୍ଲିକ୍ କରନ୍ତୁ": 5101,
      "ର ଗ": 5102,
      ":2": 5103,
      "tic": 5104,
      "ଗୁରୁ": 5105,
      " ପଠାଇ": 5106,
      " ନବ": 5107,
      " ରାତିରେ ": 5108,
      " ବାହାରେ ": 5109,
      " ସାଂସଦ": 5110,
      " ଆପଣଙ୍କୁ ": 5111,
      "Pre": 5112,
      "ି ହୋଇଛି": 5113,
      "ନୌ": 5114,
      "୪ ": 5115,
      "ation ": 5116,
      "ହରି": 5117,
      " ଟିମ": 5118,
      "ନମ୍ବର ": 5119,
      "େସନ ": 5120,
      "ik": 5121,
      "୮ ଜଣ": 5122,
      "ସାକ୍ଷାତ": 5123,
      "ୱାର": 5124,
      "wh": 5125,
      "ସଂପର୍କରେ ": 5126,
      "ପୁତ୍ର": 5127,
      "ପରିଚାଳନା ": 5128,
      " ଯୁଦ୍ଧ": 5129,
      "ଠାକ": 5130,
      "ମନୋ": 5131,
      "ଅଭିଯାନ": 5132,
      " ପଢ଼": 5133,
      "ପତ୍ନୀ": 5134,
      "ରଞ୍ଜନ": 5135,
      "କରୁ ": 5136,
      "ଦର୍ଶନ ": 5137,
      "ରାଜ୍ୟପାଳ": 5138,
      "ିକର ": 5139,
      "ରୋହିତ": 5140,
      "ୟଂ": 5141,
      "ନ୍ଥ": 5142,
      "aj": 5143,
      "ପାଞ୍ଚ": 5144,
      "ପ୍ରାର୍ଥୀ": 5145,
      "ତାଲିକା ": 5146,
      " ତାରିଖରୁ ": 5147,
      "ମ୍ବୁଲାନ୍ସ": 5148,
      " ସନ୍ତ": 5149,
      "ସେଇ": 5150,
      "ଓ ଅ": 5151,
      "ଜୀବନରେ ": 5152,
      " ପଢ": 5153,
      "ସ୍ଥଳରେ ": 5154,
      " ସାମଗ୍ରୀ": 5155,
      "ମାଇ": 5156,
      "ଦୁର୍ବଳ": 5157,
      "ଏଚ": 5158,
      "ଙ୍କ ଠାରୁ ": 5159,
      "2022  ": 5160,
      "and": 5161,
      " କଟକଣା ": 5162,
      "ust ": 5163,
      " ପିନ୍ଧ": 5164,
      " ପାଲଟ": 5165,
      "ନିର୍ଦ୍ଦେଶକ ": 5166,
      "ଚାର୍ଯ୍ୟ": 5167,
      "ଦେବା ପାଇଁ": 5168,
      "ପ୍ରତିଷ୍ଠ": 5169,
      "ଘଣ୍ଟା ": 5170,
      "sc": 5171,
      " ବଡ ଖବର ": 5172,
      "ଶିକାର": 5173,
      "ତାଳ": 5174,
      "ଅଧିକାର": 5175,
      " ସମର୍ଥ": 5176,
      "ମାନଙ୍କ ସହିତ": 5177,
      "ାମତ": 5178,
      "ଜନସାଧାରଣ": 5179,
      "ଆସନ୍ତାକାଲି ": 5180,
      "dit": 5181,
      "ି କହିଥିଲେ ": 5182,
      "Octo": 5183,
      " ଥାନା ": 5184,
      "୬୫": 5185,
      "ୀମ": 5186,
      "ପ୍ରାର୍ଥ": 5187,
      "ଦମ": 5188,
      "ଦୁର୍ଗ": 5189,
      "ବ୍ୟସ୍ତ": 5190,
      "ଗୁଡ଼ିକର ": 5191,
      "ଟେଲିଗ୍ରାମ୍": 5192,
      "ରବିବାର ": 5193,
      "ଫେସର ": 5194,
      "ତାହାକୁ ": 5195,
      "ଏହା ବ୍ୟତୀତ": 5196,
      "ପ୍ରଣ": 5197,
      " ରଥ": 5198,
      "ତର": 5199,
      " ଭୂମିକା ": 5200,
      " ଏଠାରେ କ୍ଲିକ୍ କରନ୍ତୁ": 5201,
      "ଜୟନ୍ତ": 5202,
      "ିପ": 5203,
      "ର ଖବର ଏବେ ": 5204,
      " ଦକ୍ଷିଣ": 5205,
      "ଗାଡି ": 5206,
      "ଶ୍ରୀଲ": 5207,
      "ସମସ୍ତ ବଡ ଖବର ": 5208,
      "ଓଡ଼ିଶା ରିପୋର୍ଟର ଖବର ଏବେ ": 5209,
      "ପାଇବା ପାଇଁ ଏଠାରେ କ୍ଲିକ୍ କରନ୍ତୁ": 5210,
      "ଟେଲିଗ୍ରାମ୍ ରେ": 5211,
      "ସମସ୍ତ ବଡ ଖବର ପାଇବା ପାଇଁ ଏଠାରେ କ୍ଲିକ୍ କରନ୍ତୁ": 5212,
      "ଓଡ଼ିଶା ରିପୋର୍ଟର ଖବର ଏବେ ଟେଲିଗ୍ରାମ୍ ରେ": 5213,
      "ଙ୍କ ନେତୃତ୍ୱ": 5214,
      "କର୍ମଚାରୀ": 5215,
      " ପରିସରରେ ": 5216,
      "୍ରୋ": 5217,
      "ଚଢ": 5218,
      "କୁ କ": 5219,
      " ସ୍ଥିତି ": 5220,
      "ଶୁକ୍ରବାର ": 5221,
      "ନିର୍ମିତ": 5222,
      " ଆଡ": 5223,
      "ଫରେ": 5224,
      " ପ୍ରାପ୍ତ": 5225,
      "October ": 5226,
      "ାହାନ୍ତି ": 5227,
      "ମଣ୍ଡଳ": 5228,
      "ଖାଇବା ": 5229,
      "ର ସର୍ବ": 5230,
      "ଛାଡ଼": 5231,
      "ଶନିବାର ": 5232,
      " ଅଗଷ୍ଟ": 5233,
      "S ": 5234,
      "ୋଗ୍ୟ": 5235,
      "୧୯୯": 5236,
      "cl": 5237,
      "ବରଂ": 5238,
      "ରହିବା ": 5239,
      " ଜିଲ୍ଲାର": 5240,
      "ବୃ": 5241,
      "ନକ": 5242,
      "ଗଜପତି ": 5243,
      " ଫ୍ର": 5244,
      "App": 5245,
      " ଲେଖାଏଁ": 5246,
      " ବର୍ଷ ବୟସ": 5247,
      "ଆଡ": 5248,
      "ରଜ": 5249,
      " ଉପାୟ": 5250,
      "ଗରମ": 5251,
      " ଜେନା ": 5252,
      "ଜିଲା": 5253,
      " ବ୍ୟବ": 5254,
      " ଦାବି କର": 5255,
      "ଆବଶ୍ୟକତା ": 5256,
      "0\n": 5257,
      "ପ୍ରକ୍ରିୟ": 5258,
      " ଖାଇ": 5259,
      " ବିଧାନସଭା ": 5260,
      "ସହଜ": 5261,
      "ଭୂମ": 5262,
      " ଅର୍": 5263,
      "ଦସ୍ତ": 5264,
      " ତାର": 5265,
      "ସମ୍ପୃକ୍ତ": 5266,
      "ସେପ୍ଟେମ୍ବର ": 5267,
      "ଫଳାଫଳ": 5268,
      "ଲେଖାଏଁ": 5269,
      "ପ୍ରକୃତ": 5270,
      "ଯାଆ": 5271,
      "ନାହିଁ ବୋଲି ": 5272,
      "ସଂପୃକ୍ତ": 5273,
      " ରକ୍ତ": 5274,
      "ନିଷ୍ପତ୍ତ": 5275,
      " ଜୁଲାଇ": 5276,
      " ବ୍ୟାଙ୍କ ": 5277,
      "ଗାଁର ": 5278,
      "ୁରା ": 5279,
      "ପରିସ": 5280,
      " ସକ୍ରିୟ": 5281,
      " କର୍ମଚାରୀ ": 5282,
      "ତାପମାତ୍ରା ": 5283,
      " ଶୁଭ": 5284,
      " ୧୭": 5285,
      " ଜାରି କର": 5286,
      "ପୋର": 5287,
      " ଜାନୁ": 5288,
      " ବୈଠକରେ ": 5289,
      "କିଣ": 5290,
      "of the ": 5291,
      "ବିଜେପ": 5292,
      "ସ୍ବତନ୍ତ୍ର": 5293,
      "ଅଷ୍ଟ୍ରେଲିଆ": 5294,
      "ାର୍ଷିକ ": 5295,
      "ର୍ଚ": 5296,
      "ଚୋର": 5297,
      "ଲକ୍ଷଣ": 5298,
      " ବିଜ୍ଞାନ": 5299,
      " ପଦକ ": 5300,
      "Home": 5301,
      "ଲକ୍ଷ୍ମୀ": 5302,
      "ପଢନ୍ତୁ ଓଡ଼ିଶା ରିପୋର୍ଟର ଖବର ଏବେ ଟେଲିଗ୍ରାମ୍ ରେ": 5303,
      "ାୟ ରଖ": 5304,
      "ebsit": 5305,
      " ମଲ୍ଲ": 5306,
      "ହୁ": 5307,
      "ated ": 5308,
      "?  । ": 5309,
      "ଭିବ": 5310,
      "ପାଟଣା ": 5311,
      " କେବେ ": 5312,
      "ତା ଏବଂ": 5313,
      "ଞ୍ଚଳିକ ": 5314,
      "କରାଯାଇଛି ": 5315,
      "ବିଶେଷଜ୍ଞ": 5316,
      "ବିଶେଷ କରି ": 5317,
      " ନଷ୍ଟ": 5318,
      " କରେ": 5319,
      " କିଶ": 5320,
      "ବାଦ୍": 5321,
      "ou ": 5322,
      "ନେଟ୍": 5323,
      "୬ ": 5324,
      "ବହେଳ": 5325,
      "ଶୁଣାଣି ": 5326,
      "witter": 5327,
      " ବାପ": 5328,
      " ନିୟନ୍ତ୍ରଣ": 5329,
      " କହିଲେ ": 5330,
      "ନନ୍ଦନ": 5331,
      "ତୀବ୍ର": 5332,
      "ଫସଲ": 5333,
      "ଯୋଗାଯୋଗ": 5334,
      "ୀକାର": 5335,
      "ସ୍ଥିର": 5336,
      " ଦେଇଛି ": 5337,
      "ଜାନ": 5338,
      "ସଂସଦ": 5339,
      "ଅବଗତ": 5340,
      " ସୁରକ୍ଷ": 5341,
      "ବିଧାନସଭ": 5342,
      " କ୍ୱ": 5343,
      "ିକିତ୍ସାଧ": 5344,
      "ମାସରେ ": 5345,
      "ଯୋଗାଣ": 5346,
      "ରେ କେନ୍ଦ୍ର": 5347,
      "ଦୁନିଆ": 5348,
      "ଚାଲାଣ": 5349,
      "ww": 5350,
      " ନିଶ୍ଚ": 5351,
      "କୃତି ": 5352,
      "କଳାପ": 5353,
      " ଚେ": 5354,
      "୍ୟା ": 5355,
      " ଫାଇ": 5356,
      "ସୂଚନା ଅନୁଯାୟୀ": 5357,
      " କେତେ ": 5358,
      "ସଭାରେ ": 5359,
      "ଗାଁରେ ": 5360,
      " ଲଗାଇ": 5361,
      "ିକୀୟ": 5362,
      "ଶ୍ୱାସ": 5363,
      "ଟିସ": 5364,
      "ଦାୟକ ": 5365,
      "26": 5366,
      "ff": 5367,
      "ରାଶିଫଳ": 5368,
      "ା କରିଥିବା ": 5369,
      "ଆଦିବାସ": 5370,
      "ପାରିବାର": 5371,
      "୧ ଜଣ": 5372,
      "ବେଲ": 5373,
      "ସ୍ୱାମୀ": 5374,
      "କେନ୍ଦୁଝର ": 5375,
      "\" \"": 5376,
      " କମ୍ପାନୀ": 5377,
      " ଜଗତ": 5378,
      "ଶ୍ରେଣ": 5379,
      "ର ସଭାପତି ": 5380,
      "କିଭଳି ": 5381,
      " ସଂପର୍କରେ ": 5382,
      "rom ": 5383,
      "ଜାଣି ": 5384,
      "ମୁଖ୍ୟମନ୍ତ୍ରୀ ନବୀନ ପଟ୍ଟନାୟକ ": 5385,
      " ପ୍ରୟାସ": 5386,
      " ମୁଖ": 5387,
      "ଗୁରୁତ୍ବ": 5388,
      " କାର୍ଯ୍ୟରେ ": 5389,
      "୨୦୧୭": 5390,
      " ବୋର୍ଡ": 5391,
      "କୁଳ": 5392,
      " ଗୋଷ୍ଠ": 5393,
      "sp": 5394,
      "ଦେଇଥିଲା ": 5395,
      " ମାଝ": 5396,
      "ନିୟୋଜିତ": 5397,
      "ଳ୍": 5398,
      "ଖାଲି ": 5399,
      " ଅଟେ": 5400,
      "ଅଙ୍ଗ": 5401,
      " ପୁନ": 5402,
      "ର କର୍ମ": 5403,
      "େଳକୁ ": 5404,
      " ସଂଗଠ": 5405,
      "ଏହାଦ୍ୱାରା ": 5406,
      "ଶ୍ରୀମନ୍ଦିର ": 5407,
      "ଭାବିକ ": 5408,
      " ଜୋ": 5409,
      "ଭଉ": 5410,
      "ଚାରି ": 5411,
      "ାମୁ": 5412,
      " ଅନ୍ତର୍ଗତ": 5413,
      "ସ୍ପର": 5414,
      "ୁହନ୍ତି ": 5415,
      "ଂଜନ": 5416,
      "end": 5417,
      "ଟିଭ୍": 5418,
      "ୱେ": 5419,
      "ମାନବ": 5420,
      "ପେଟ": 5421,
      ", 2021 ": 5422,
      " ଓ ସ": 5423,
      "ଖ୍ରୀଷ୍ଟ": 5424,
      " ଫଳ": 5425,
      " କାଟ": 5426,
      " ପ୍ରଥମେ ": 5427,
      "ନିଟ": 5428,
      " ପରିବର୍ତ୍ତନ": 5429,
      " ଉତ୍ସବ": 5430,
      "Pr": 5431,
      "ା କରିବା ପାଇଁ": 5432,
      "uary ": 5433,
      "କଳାହାଣ୍ଡି ": 5434,
      "ଟେକ୍": 5435,
      "ଚାରି": 5436,
      "ପରିବାର ଲୋକେ ": 5437,
      "ଳିକ ": 5438,
      "ାବଳ": 5439,
      "ଗୋବିନ୍ଦ": 5440,
      " ତେଲ": 5441,
      "ଟୁଇ": 5442,
      "ନେବାକୁ ": 5443,
      "ଅଭାବ": 5444,
      "av": 5445,
      "ଯାଇଛନ୍ତି ": 5446,
      "ଦୂଷଣ": 5447,
      "ଇଣ୍ଟର": 5448,
      "ଅନ୍ତ": 5449,
      "େଣ୍ଡ": 5450,
      "ିନି ": 5451,
      " ଯୋଗେ ": 5452,
      "ed first ": 5453,
      " ଅଭାବ": 5454,
      "କାତ": 5455,
      "ଅନୁମାନ": 5456,
      " ମହାମ": 5457,
      " ଅଧିକାର": 5458,
      "appeared first ": 5459,
      "appeared first on ": 5460,
      "ଙ୍କ୍": 5461,
      "କ ଭାବେ ": 5462,
      "ଖେଳା": 5463,
      "ହେବ ବୋଲି ": 5464,
      " ଅପରାଧ": 5465,
      "ସକ୍ରିୟ": 5466,
      "ାବାର": 5467,
      "ema": 5468,
      "ଳାକାର": 5469,
      " ଜଗ": 5470,
      "ଗୌ": 5471,
      "ଡାକ୍ତର": 5472,
      "ଛାଡ଼ି ": 5473,
      " ବେହେରା ": 5474,
      " କରିଥାନ୍ତି": 5475,
      "ନାୟକ": 5476,
      "ଦିଗରେ ": 5477,
      "ସଂସ୍ଥ": 5478,
      " ଦୃଷ୍ଟ": 5479,
      " କୋଟି": 5480,
      "ପ୍ରଦାୟ": 5481,
      " ଯୁବକ ": 5482,
      "ମାତ୍ରାରେ ": 5483,
      "ବିର": 5484,
      " ଖେଳାଳି ": 5485,
      "ହନ ": 5486,
      "ସଂପୂର୍ଣ୍ଣ": 5487,
      " ଜେନା": 5488,
      "ଉତ୍କଳ": 5489,
      "ଦେବୀ": 5490,
      "ଣ୍ଟନ": 5491,
      "ଏୟାର": 5492,
      "ା ପ୍ରଦାନ": 5493,
      "ଦୃଢ": 5494,
      "୬ଟି ": 5495,
      "ଯାଇଥାଏ ": 5496,
      "ଭଙ୍ଗ": 5497,
      "ିବାରେ ଲାଗିଛି ": 5498,
      "ପରେ": 5499,
      "ାବନୀ ": 5500,
      "ନଥିଲେ ": 5501,
      "ୋଟି ": 5502,
      "ପଦ୍ମ": 5503,
      "ସ୍କୋ": 5504,
      " କରାଯାଇଥାଏ": 5505,
      "ଅଛନ୍ତି ": 5506,
      "ହଟ": 5507,
      " ଓ ବ": 5508,
      "ook": 5509,
      "ଏସି": 5510,
      "୍ୟାୟ": 5511,
      "ାଇଛି ": 5512,
      " ପ୍ରଚାର": 5513,
      "ଯାହାର": 5514,
      "ୋନା": 5515,
      "More ": 5516,
      ", \"": 5517,
      " ଏନ": 5518,
      "ଉପଯୁକ୍ତ": 5519,
      "୍ସ": 5520,
      "ଜିଲ୍ଲା ପ୍ର": 5521,
      "ବୃତ୍ତ": 5522,
      "ଆସିଥିବା ": 5523,
      "BAR": 5524,
      "ବୋଲି କହିଛନ୍ତି ": 5525,
      "କ୍ଷୀ": 5526,
      "ହଲ": 5527,
      " ନାୟକ ": 5528,
      " ରହିବା ": 5529,
      " ଗଛ": 5530,
      "eg": 5531,
      "ଟାର୍ଗେଟ": 5532,
      " ବ୍ୟକ୍ତ": 5533,
      "ନଥିଲା ": 5534,
      "ରଖିବା ": 5535,
      " ଭାଇରାଲ": 5536,
      "କାରାତ୍ମକ ": 5537,
      " ଦୀ": 5538,
      "ା କରାଯାଇଛି ": 5539,
      "୩୨": 5540,
      "େଲି": 5541,
      "ପ୍ରକାଶ ପାଇ": 5542,
      "ା ବୃଦ୍ଧ": 5543,
      "୮୫": 5544,
      " ଜଣାପ": 5545,
      "ଳାଚଳ": 5546,
      "ଦେବା": 5547,
      " ଏସ୍": 5548,
      " ସାହିତ୍ୟ": 5549,
      "ଚତୁର୍ଥ": 5550,
      "କୁହାଯାଇଛି": 5551,
      "ସ୍ପତି ": 5552,
      "A K": 5553,
      " ଦୃ": 5554,
      " ଘଟଣ": 5555,
      "tr": 5556,
      "ଭୟଙ୍କର ": 5557,
      "ାଥ": 5558,
      "ପରବର୍ତ୍ତୀ": 5559,
      "ଗୋପାଳ": 5560,
      "HABAR": 5561,
      "]\n": 5562,
      "ONA K": 5563,
      "ONA KHABAR": 5564,
      "ଞ୍ଜଳି ": 5565,
      " ପଶ୍ଚିମ": 5566,
      "appeared first on ONA KHABAR": 5567,
      "ିନାହିଁ ": 5568,
      " କିଏ": 5569,
      " ଓଡ଼ିଆ": 5570,
      "ରୁ ଉ": 5571,
      "ରାଜଧାନୀ ": 5572,
      " ଅଧିବେଶ": 5573,
      "ଗହ": 5574,
      "ଫୋନ": 5575,
      "ବିଭାଗ ପକ୍ଷରୁ ": 5576,
      "ort": 5577,
      " ଖର୍ଚ୍ଚ": 5578,
      "୪୪": 5579,
      "ପୋଖ": 5580,
      "ତ୍ତ୍ୱେ ": 5581,
      " ମଧ୍ୟରୁ ": 5582,
      " ସୁବିଧା ": 5583,
      "ହୋଇଥିବା ବେଳେ ": 5584,
      " କହିଛି ": 5585,
      "ର୍ବାଧିକ ": 5586,
      " ଅଭିନେତା ": 5587,
      "ବ୍ୟୟ": 5588,
      "ଆକାଉଣ୍ଟ": 5589,
      " ବିଶ୍ୱବିଦ୍ୟାଳୟ": 5590,
      "ାନୀ": 5591,
      "ବିନି": 5592,
      "୯ ଜଣ": 5593,
      "ୁକ ": 5594,
      "ୋତ୍ସାହ": 5595,
      "ଠିନ": 5596,
      " ପୋଷ୍ଟ": 5597,
      "ଦକ୍ଷିଣ ଆଫ୍ର": 5598,
      "ବ୍ରହ୍ମପୁର ": 5599,
      " ମୁଣ୍ଡ": 5600,
      "ଗୁରୁବାର ": 5601,
      " ପ୍ରସ": 5602,
      "େରୀ": 5603,
      "ର କାର୍ଯ୍ୟ": 5604,
      " କନ": 5605,
      " ରାହୁଲ": 5606,
      " କରାଯାଏ": 5607,
      "ା କେନ୍ଦ୍ର": 5608,
      "ଆଇପିଏଲ": 5609,
      "ଧମକ ": 5610,
      "ଯୋଜନା କର": 5611,
      "ମୀ ": 5612,
      " ଓଭରରେ ": 5613,
      "େଶ୍ୱର ": 5614,
      "ମନ ": 5615,
      "ରାଜନୀତି": 5616,
      "ୁଡ": 5617,
      " ବିଶ୍ବ": 5618,
      " ଜ୍": 5619,
      "ସିସି ": 5620,
      "ଗଭୀର ": 5621,
      "ାନ୍ତୁ ": 5622,
      "2022 ": 5623,
      "ଚିକିତ୍ସା ପାଇଁ": 5624,
      "ହିଂସ": 5625,
      "ାରେ": 5626,
      " ସେଣ୍ଟ": 5627,
      "ly ": 5628,
      "ସାମଗ୍ରୀ": 5629,
      "ସ୍ୱପ୍": 5630,
      "ଖି": 5631,
      " ଗୁଣ": 5632,
      " ବୈଠକ ": 5633,
      " ଖବର": 5634,
      "ରହିଥିବା ବେଳେ ": 5635,
      "ୋର୍ସ": 5636,
      " ସମ୍ପାଦକ ": 5637,
      " ଯୋଗାଯୋଗ": 5638,
      "ବସର ": 5639,
      "ନେଉ": 5640,
      "ର ସବୁଠାରୁ ": 5641,
      "ାତି ": 5642,
      "ଛୁଆ": 5643,
      "ପ୍ରେସ": 5644,
      "ମୋହନ": 5645,
      " ବିଶିଷ୍ଟ": 5646,
      "ଶ୍ମୀର ": 5647,
      " ଦଳର ": 5648,
      " ନୋ": 5649,
      "ଜଣାପଡିଛି": 5650,
      "ଯାଜପୁର": 5651,
      "ତତ୍": 5652,
      "this ": 5653,
      " ଏପରି ": 5654,
      "ଦିନେ ": 5655,
      "ତ୍ନୀ ": 5656,
      " ସମ୍ମୁଖ": 5657,
      "କୂ": 5658,
      "ଏମାନଙ୍କ ": 5659,
      "ଦାଖଲ": 5660,
      " ଯାଞ୍ଚ": 5661,
      "ଜେ ": 5662,
      "ନୀତିରେ ": 5663,
      "ଅପେକ୍ଷ": 5664,
      "ବତୀ": 5665,
      "୍ୟତା ": 5666,
      " ଓ ମ": 5667,
      "ାମାନେ ": 5668,
      "ମୁହାଁ": 5669,
      "ପ୍ରାଥମିକ ": 5670,
      " ହୋଇଥିବାରୁ ": 5671,
      "ନ୍ଦ୍ୱ": 5672,
      "ାହାଁନ୍ତି ": 5673,
      "ନ୍ୱ": 5674,
      "ବ୍ରତ": 5675,
      " ସାମାଜିକ ": 5676,
      "ଲଗାତ": 5677,
      "ସିନେ": 5678,
      "ବୈଜ୍ଞାନ": 5679,
      "ଦେଖା ": 5680,
      "ସାହିତ୍ୟ": 5681,
      "ଲେକ୍ଟ୍ର": 5682,
      "ଅନ୍ୟତମ": 5683,
      "ବିଦ୍ୟାଳୟରେ ": 5684,
      "ଆସିଛି ": 5685,
      "2022\n": 5686,
      " ପୂରଣ": 5687,
      "ଷ୍ମ": 5688,
      "ର୍ଗସ": 5689,
      "ବ୍ୟବ": 5690,
      "By ": 5691,
      "ପୁରା ": 5692,
      "ଘୋଷ": 5693,
      "ସେଠାରୁ ": 5694,
      "ପ୍ରଦୀପ": 5695,
      "କେନ୍ଦ୍ରୀୟ": 5696,
      " ଦେଶର ": 5697,
      " ରାଉତ": 5698,
      "ଆର ": 5699,
      "ମ୍ସ": 5700,
      " ଶରୀ": 5701,
      "ପରିଚିତ": 5702,
      " ରଖା": 5703,
      " ପ୍ରଣ": 5704,
      " ହେବାରୁ ": 5705,
      "ି ପକ୍ଷରୁ ": 5706,
      "29": 5707,
      "27": 5708,
      "ତିଆରି ": 5709,
      "ଅଭିଯୋଗ କରିଛନ୍ତି ": 5710,
      " ମସିହା ": 5711,
      ")- ": 5712,
      "ଶ୍ରମିକ": 5713,
      "ତୁମେ ": 5714,
      "ଅଲ": 5715,
      "ହୋଟେଲ": 5716,
      "ସବୁବେଳେ ": 5717,
      "ଂଜ": 5718,
      "ଏକାଧିକ ": 5719,
      "ଧାମ": 5720,
      "ୀଙ୍କ ସହ": 5721,
      "ପରିକି ": 5722,
      "ରହି ": 5723,
      "ମହିଳାମାନେ ": 5724,
      "ବୃହ": 5725,
      "ମୁତାବକ ": 5726,
      "ାରେଣ୍ଟ": 5727,
      "କାରେ ": 5728,
      "ଟେନ": 5729,
      "ang": 5730,
      "ରୋଜଗାର": 5731,
      "ସୂଚନା ଅନୁସାରେ ": 5732,
      "ଯବାନ": 5733,
      "ସୂଚନା ମିଳିଛି": 5734,
      "Ema": 5735,
      "ଗଜପତି": 5736,
      " ପାଖରେ ": 5737,
      "ି କୋର୍ଟ": 5738,
      "ାରାୟଣ": 5739,
      "ବର୍ତ୍ତୀ ଖବର": 5740,
      "ଦ୍ଧାରିତ": 5741,
      "ସତର୍କ ": 5742,
      "Aug": 5743,
      "ମଞ୍ଜ": 5744,
      "େହ": 5745,
      "int": 5746,
      " ଆନ୍ଦୋଳ": 5747,
      "୭ ": 5748,
      " ଧର୍ମ": 5749,
      " ସଫଳ": 5750,
      " ନାମକ ": 5751,
      "୍ରୁ": 5752,
      "ଗତବର୍ଷ": 5753,
      "ମୋଦି ": 5754,
      "15": 5755,
      " ଯଦି ": 5756,
      "ussi": 5757,
      "ଲଗା ": 5758,
      " ସ୍ୱତନ୍ତ୍ର": 5759,
      "ପରିବା ": 5760,
      "ଅଧିନାୟକ ": 5761,
      " ହାର ": 5762,
      " ଛା": 5763,
      "16": 5764,
      "ବିଶ୍ୱବିଦ୍ୟାଳୟ": 5765,
      " କିପରି ": 5766,
      " କରୋନା ପଜିଟିଭ": 5767,
      "ନ୍ତୁ ନାହିଁ": 5768,
      " ନ୍ୟୁ": 5769,
      "ଛାଡ": 5770,
      "ବାଦିକ": 5771,
      "ବାଜ": 5772,
      "ଶରୀରରେ ": 5773,
      "ାର ସମ୍ମୁଖୀନ": 5774,
      "। '": 5775,
      "ଭାଇରସ": 5776,
      "୍ରମଣ": 5777,
      "ୁଥିବାରୁ ": 5778,
      "ମ୍ବରରେ ": 5779,
      "ତୃ": 5780,
      "ଚୟନ": 5781,
      "ିତ ହୋଇଥିଲା ": 5782,
      " ପସନ୍ଦ": 5783,
      "ସମ୍ପାଦ": 5784,
      "Odia ": 5785,
      "ସୁଧାର": 5786,
      " ହେବା": 5787,
      "ପରିସ୍ଥିତିରେ ": 5788,
      "ଟିଏମ": 5789,
      " ଥାନାରେ ": 5790,
      "ublish": 5791,
      "ମନ୍ଦିରରେ ": 5792,
      "ଯୌ": 5793,
      "ଧର ": 5794,
      "24": 5795,
      "ିଲେଣ": 5796,
      "ାଗଡ": 5797,
      "ତାମିଲନା": 5798,
      "ହୃଦୟ": 5799,
      "ବୁଧବାର ": 5800,
      " ଦ୍ୱ": 5801,
      "ସୃଷ୍ଟି କର": 5802,
      "ମଙ୍ଗଳବାର ": 5803,
      "ପ୍ରତିଶତ": 5804,
      "ଅସୁବିଧ": 5805,
      "ସମ୍ବଲପୁର": 5806,
      "ମହାପାତ୍ର": 5807,
      "ବାଲି ": 5808,
      "ସଂଗଠ": 5809,
      " ବରିଷ୍ଠ": 5810,
      "ରେ ଆୟ": 5811,
      "କମାନଙ୍କୁ ": 5812,
      "ରହୁଥିବା ": 5813,
      " ଶ୍ରେଣୀ": 5814,
      " କରୁଥିବା ବେଳେ ": 5815,
      " ହେଇ": 5816,
      "ଏହି ଘଟଣାରେ ": 5817,
      "ବିବେ": 5818,
      "େସନରେ ": 5819,
      " ବର୍ଷ ଧରି ": 5820,
      "ଆଫଗାନିସ୍ତାନ": 5821,
      " ପଣ୍ଡ": 5822,
      " ହିତ": 5823,
      "ପରିବାରକୁ ": 5824,
      "ବ୍ୟାଙ୍କ": 5825,
      "ଅକ୍ଟୋବର ": 5826,
      "ଗ୍ରାମରେ ": 5827,
      "ପୁଣି ଥରେ ": 5828,
      "ଲଘୁଚାପ": 5829,
      "ମାଡ": 5830,
      " ମନ୍ଦିର": 5831,
      "2. ": 5832,
      "conf": 5833,
      " ଶିଳ୍ପ": 5834,
      " ହାଇକୋର୍ଟ": 5835,
      " ସଫଳତା ": 5836,
      "//": 5837,
      "ଲକ": 5838,
      "ସା ": 5839,
      "ଏଣ": 5840,
      "erv": 5841,
      "ପ୍ରେକ୍ଷ": 5842,
      "ର ଅନେକ ": 5843,
      "Samb": 5844,
      "୨୦୧୪": 5845,
      "ଭୁବନେଶ୍ୱରରେ ": 5846,
      "ସଙ୍ଗେ ": 5847,
      "କୁ ବୃଦ୍ଧି ପାଇ": 5848,
      " କାହାଣ": 5849,
      " ଧରଣ": 5850,
      "ଚାନ୍ଦ": 5851,
      "ଏଚ୍": 5852,
      "ର୍ଗସ ବ୍ୟୁରୋ": 5853,
      "ଐତିହାସ": 5854,
      " ଦେଇଥିବା ": 5855,
      "େଜନା ": 5856,
      "ମାଟି ": 5857,
      " ଅତିଥି ଭାବେ ": 5858,
      "ାଂଶ": 5859,
      "ିଭୂମି ": 5860,
      "କ ଏବଂ": 5861,
      " କହିଥିଲେ ଯେ ": 5862,
      "ଗ୍ଲ": 5863,
      "ା କରିଥିଲେ": 5864,
      "ିଦ": 5865,
      " ଚଳଚ୍ଚିତ୍ର": 5866,
      "ାନୁମାନ": 5867,
      "ବିଶ୍": 5868,
      "ସ୍କୃତି": 5869,
      "ିର ପ୍ର": 5870,
      " ବିଜେଡି ": 5871,
      "Fac": 5872,
      "no": 5873,
      " ହୋଇଯିବ": 5874,
      "Le": 5875,
      "ଉନ୍ନୟନ": 5876,
      "ଜଗତସିଂହପୁର ": 5877,
      "Russi": 5878,
      "କୀ": 5879,
      "ାନନ୍ଦ": 5880,
      "day": 5881,
      "Ab": 5882,
      "ଦ୍ଧାରଣ": 5883,
      "ନାଁରେ ": 5884,
      "ଳାଇ": 5885,
      " ସୃଷ୍ଟି ": 5886,
      " ଜଣାଇ": 5887,
      "Jun": 5888,
      "ଜାତି ": 5889,
      "ଉତ୍ପାଦନ": 5890,
      "ଉପଯୋଗ": 5891,
      "ଗୁଡା ": 5892,
      "ଅଫ": 5893,
      "କୁ ଏକ ": 5894,
      "ଯେଉଁଠାରେ ": 5895,
      " ଉଦ": 5896,
      "ଗ୍ରୁ": 5897,
      "ଅଳ୍ପ": 5898,
      "ନ୍ତର୍ଭୁକ୍ତ": 5899,
      "ରାମତି ": 5900,
      "ମତାମତ": 5901,
      "ଖାଲ": 5902,
      "ସୋମବାର ": 5903,
      "ଡବ୍ଲ": 5904,
      "ନଥିବାରୁ ": 5905,
      "ଦୃଷ୍ଟିରୁ ": 5906,
      " କ୍ଷତି ": 5907,
      " ମୁମ୍ବାଇ": 5908,
      "ଚା ": 5909,
      "ଟ୍ କରି ": 5910,
      "ମିଥ": 5911,
      " ବଞ୍ଚ": 5912,
      "ଚାକିରି ": 5913,
      "କହିଲେ ": 5914,
      " କରୋନା ସଂକ୍ରମିତ": 5915,
      "ରେ ପ୍ରାୟ": 5916,
      " ଦେବା ପାଇଁ": 5917,
      "ଦୁର୍ଘଟଣାରେ ": 5918,
      "ାପିଟାଲ": 5919,
      "ଶୂ": 5920,
      "ା ବଢ": 5921,
      " ପରିସ୍ଥିତି ": 5922,
      "ip": 5923,
      "ୋଚ୍ଚ": 5924,
      "ସମସ୍ତଙ୍କ ": 5925,
      "ଡାକ୍ତରଖାନାରେ ": 5926,
      "17": 5927,
      "ଭା ": 5928,
      "ନ୍ତିମ": 5929,
      "ଅଭିନେତା ": 5930,
      " ଜ୍ଞ": 5931,
      "ସିସିଆଇ": 5932,
      "ଟୀ": 5933,
      " ଖୋଜ": 5934,
      "ଢ଼ି ": 5935,
      "ଦକ୍ଷତା ": 5936,
      "ସିର ": 5937,
      " ଜେଲ": 5938,
      "ଟିସ୍": 5939,
      "25": 5940,
      "ତାମୂଳ": 5941,
      "in the ": 5942,
      "ଇନ୍": 5943,
      "ମେଲ": 5944,
      "ବୋର୍ଡ": 5945,
      "ଆପ୍": 5946,
      " ଭଉ": 5947,
      " ସହାୟକ ": 5948,
      "ଷଡ଼": 5949,
      "ଙ୍କ କହିବା ": 5950,
      "ଅନ୍ୟାନ୍ୟ": 5951,
      " ଓ ଆ": 5952,
      "18 ": 5953,
      " ପ୍ରାର୍ଥୀ ": 5954,
      "ଶୋଧନ": 5955,
      "ପର୍ଯ୍ୟୟ": 5956,
      " ୧୩": 5957,
      " ତିନି ": 5958,
      "ଦୂର ": 5959,
      "ଙ୍କୁ ମଧ୍ୟ": 5960,
      "ଙ୍କ ଅଧ୍ୟକ୍ଷତାରେ ": 5961,
      "ସିବିଆଇ": 5962,
      "Share": 5963,
      "ାଲୋଚନା ": 5964,
      "୍ତ୍ତା ": 5965,
      " ବ୍ୟାଙ୍କ": 5966,
      "ହିନ୍ଦୁସ୍ଥାନ ସମାଚାର": 5967,
      " ଅଗ୍ର": 5968,
      " ଗ୍ରାହ": 5969,
      "ବଦ": 5970,
      "your ": 5971,
      "ସ୍ୱାଗତ": 5972,
      "ିଆଲ": 5973,
      "୬୭": 5974,
      " ଚଳାଚଳ": 5975,
      "kra": 5976,
      "ଆନ୍ଦୋଳନ": 5977,
      "ଶପଥ": 5978,
      "ଡିଜିଟାଲ": 5979,
      "ର ସୁ": 5980,
      "ଠାକୁ ": 5981,
      "ଧରା": 5982,
      " ପ୍ରଦେଶ": 5983,
      "ର କ୍ଷ": 5984,
      " ଲୋକମାନେ ": 5985,
      "Comment": 5986,
      "ମାସ୍କ ": 5987,
      "ର ଆବଶ୍ୟକତା ": 5988,
      " ପେ": 5989,
      "ଟ୍ସ": 5990,
      " ବସ୍ତ": 5991,
      "...": 5992,
      "ମଲ": 5993,
      "ଟର୍": 5994,
      "ସିପ": 5995,
      "ହୀନ": 5996,
      "ସମୀକ୍ଷ": 5997,
      "Ukra": 5998,
      "ori": 5999,
      "ବିସ୍ତ": 6000,
      " ରହି ": 6001,
      "ଧିରେ ": 6002,
      " ବୋଲି କହିଛନ୍ତି ": 6003,
      "Russia ": 6004,
      " ଦେବେ ": 6005,
      " ଫଟୋ": 6006,
      "ପ୍ରଚାର": 6007,
      "ପୁନଃ": 6008,
      "ଜୋର": 6009,
      " ମିଟର ": 6010,
      " ପାଉ": 6011,
      "ପୁଣ": 6012,
      "ଚାଲିଛି": 6013,
      "ollow": 6014,
      "ପଡା ": 6015,
      "୪୨": 6016,
      "ସନ୍ତୁ": 6017,
      "200": 6018,
      "ୌପ": 6019,
      " ସୂଚନା ଦେଇଛନ୍ତି ": 6020,
      "ପଡିବ": 6021,
      "ାନ୍ତୁ": 6022,
      "ହରଣ": 6023,
      "ଙ୍କୁ ଅ": 6024,
      " ପର୍ବ": 6025,
      " ଉଠାଇ": 6026,
      " ପଏଣ୍ଟ": 6027,
      "ୌର ": 6028,
      "ଏହାଛ": 6029,
      " କରାଯାଇପାରିବ": 6030,
      "୍ଦୀ": 6031,
      "ତ୍ରୁ": 6032,
      "ପ୍ରୟାସ": 6033,
      "ସେ କହିଥିଲେ ": 6034,
      "ed by ": 6035,
      "ିବା ଲାଗି ": 6036,
      " ନିର୍ଦ୍ଦେଶକ ": 6037,
      "ଯାହାର ": 6038,
      "ନାଲ୍": 6039,
      "13": 6040,
      "ମହିଳାଙ୍କୁ ": 6041,
      "ଚାର୍ଜ": 6042,
      " ପ୍ରଭ": 6043,
      " ଜମି": 6044,
      "କୁମ୍ଭ": 6045,
      " ତଳ": 6046,
      "ଲକ୍": 6047,
      " ପୀ": 6048,
      "Ukraine ": 6049,
      " ପାଣିଗ୍ରାହ": 6050,
      "କପ୍": 6051,
      "୬୮": 6052,
      "ବର୍ତ୍ତମାନ ସୁଦ୍ଧା ": 6053,
      "ପାଣ୍ଡ": 6054,
      "ଅନୁଷ୍ଠାନ": 6055,
      "ପୁଣି": 6056,
      " କରି କ": 6057,
      "ି ପଡ଼": 6058,
      "ପ୍ରଭୁଙ୍କ ": 6059,
      "ର କୌଣସି ": 6060,
      " ପଇସ": 6061,
      "conflic": 6062,
      "ତିବ": 6063,
      "ାଇମବ୍ର": 6064,
      "oun": 6065,
      "ୀଙ୍କ ପାଇଁ": 6066,
      "ତଙ୍କ ": 6067,
      " ଦାୟିତ୍ୱ": 6068,
      "ପ୍ରି": 6069,
      "ଜଷ୍ଟ": 6070,
      "ବାକି ": 6071,
      "ଉପକୂଳ": 6072,
      "ରହିଥିଲା ": 6073,
      "ମାମଲାର ": 6074,
      "ିକାକୁ ": 6075,
      "ରବି": 6076,
      "ଜବାବ": 6077,
      "ା କହିଛନ୍ତି ": 6078,
      " ଯାଏ": 6079,
      "ମହମ୍ମଦ": 6080,
      "ରୀଣ": 6081,
      " ପହଞ୍ଚି ": 6082,
      "duc": 6083,
      " ଠାରେ ": 6084,
      "ୀୟ ଜଳ": 6085,
      "ଟିଳ": 6086,
      "କାଳୀନ ": 6087,
      "ଗୋପ": 6088,
      "ଧାରଣା ": 6089,
      "ିବା ସହିତ": 6090,
      " ସତ୍ୟ": 6091,
      "ବହୁ": 6092,
      "ସେହିପର": 6093,
      " ହୋଇ ": 6094,
      "୦୮": 6095,
      "ୱା": 6096,
      "ର ପ୍ରଧାନ": 6097,
      "ଟାମ": 6098,
      "ନିଂସ": 6099,
      "ବାହାରେ ": 6100,
      "ଇଓ": 6101,
      "ର ମଧ୍ୟ": 6102,
      "ର ଅଧ୍ୟକ୍ଷ": 6103,
      "ାରିପଦ": 6104,
      " ପୂର୍ବତ": 6105,
      "dia ": 6106,
      "ଅନ୍ୟପକ୍ଷ": 6107,
      " କାରବାର": 6108,
      "ୟା ": 6109,
      "ଦିନ ଧରି ": 6110,
      "ଏହିପରି ": 6111,
      "ସଫ": 6112,
      " ପ୍ରାର୍ଥୀ": 6113,
      " ମୋବାଇ": 6114,
      "୫୦୦": 6115,
      "1. ": 6116,
      "ଭୂତା": 6117,
      "ତାର ସହ": 6118,
      "ଞ୍ଜିନିୟ": 6119,
      "ାହାର ": 6120,
      " ସ୍ୱାଇଁ": 6121,
      "ଶ୍ରମିକ ": 6122,
      "ଯେକୌଣସି ": 6123,
      "ର ପ୍ରଭାବ": 6124,
      "Click here to get the latest updates on Ukraine ": 6125,
      "Russia conflic": 6126,
      "ପରିଶ": 6127,
      "ର ଅର୍ଥ": 6128,
      "ଘଟିଥିବା ": 6129,
      "ଯୋଗଦେଇ": 6130,
      "ଯଥେଷ୍ଟ": 6131,
      "ିଆର ": 6132,
      "ପୃଥିବ": 6133,
      "ଜନତା ": 6134,
      " ସଂସ୍ଥା ": 6135,
      "ଏହାର ସ": 6136,
      "ର୍ଦ୍ଧ୍ୱ": 6137,
      " ଆବଶ୍ୟକ": 6138,
      "ାନା ": 6139,
      "ଦେବଗଡ଼": 6140,
      "ଅର୍ଥାତ୍": 6141,
      " ଆଲୋଚନା କର": 6142,
      " ହେତୁ ": 6143,
      " ଚିତ୍ର": 6144,
      "ଭିଡ଼": 6145,
      ", (": 6146,
      "ିକୋ": 6147,
      "ୁରି": 6148,
      "ଅତ୍ୟ": 6149,
      "[+": 6150,
      " ନ୍ୟାୟ": 6151,
      "ପେକ୍ଷା ": 6152,
      "me ": 6153,
      "ଦୀପ୍ତ": 6154,
      "ଜିଲାଣ୍ଡ": 6155,
      "େଙ୍ଗ": 6156,
      "ମାନେ": 6157,
      "ମସିହ": 6158,
      " ବରଂ": 6159,
      "ଜ୍ଞପ୍ତି ": 6160,
      " ଦୀର୍ଘ": 6161,
      "ବାରମ୍ବାର": 6162,
      "ତ୍ୟାଦି ": 6163,
      " ହେବା ସହ": 6164,
      "ଖେଳାଳି": 6165,
      "ପୁଳ": 6166,
      "ସିସି": 6167,
      "ରେ ଏହା ": 6168,
      "ପୋଲିସ୍": 6169,
      "ଗୁରୁ ": 6170,
      " ରାସ୍ତା ": 6171,
      " ସୋମ": 6172,
      "ନଜର ଆସ": 6173,
      " ଭିତ୍ତ": 6174,
      "ଭିଡ": 6175,
      "ମୁକାବିଲ": 6176,
      " ହୁଏ ": 6177,
      "ଖୋର୍ଦ୍ଧ": 6178,
      " ନଂ": 6179,
      "ପ୍ରଶାନ୍ତ": 6180,
      "ୂର୍ତ୍ତ": 6181,
      " ବିଶେଷଜ୍ଞ": 6182,
      " ମଣ୍ଡଳ": 6183,
      " ରାମ": 6184,
      " ରହିଥିବା ": 6185,
      "ୀ କ": 6186,
      "ଭିଡ଼ିଓ": 6187,
      " ବ୍ଲକ ": 6188,
      " ଯାଏଁ": 6189,
      " ଚାଲିଛି ": 6190,
      "ବର୍ତମାନ": 6191,
      " ହେଉଛନ୍ତି": 6192,
      " ଏବଂ ଅ": 6193,
      "ଧର୍ମେନ୍ଦ୍ର ପ୍ରଧାନ": 6194,
      "ପୁସ୍ତ": 6195,
      "ପର୍ଯ୍ୟାୟ": 6196,
      "ସେମାନଙ୍କ ମଧ୍ୟରୁ ": 6197,
      "ଓଡ଼ିଶାର ": 6198,
      "ଦେଖିବାକୁ ମିଳିଛି": 6199,
      "୍ୟାଲେଞ୍ଜ": 6200,
      "୭୭": 6201,
      "per": 6202,
      " ମଙ୍ଗଳ": 6203,
      "ବାହାରି ": 6204,
      "ାୟତାରେ ": 6205,
      "ଗଲେ": 6206,
      "ଜନ୍": 6207,
      "ୁନି ": 6208,
      "28": 6209,
      "ତୁ ": 6210,
      "ମେଳ": 6211,
      "ଗୁପ୍ତ": 6212,
      " ବର୍ଷରୁ ": 6213,
      " ବିପଦ": 6214,
      "ାହାଜ": 6215,
      " ବ୍ୟବହ": 6216,
      "PM": 6217,
      " ଆୟୋଜନ": 6218,
      "ନିଖୋଜ": 6219,
      " ଦ୍ୱିତୀୟ": 6220,
      " ବୁଲ": 6221,
      " ଗଣମାଧ୍ୟମ": 6222,
      "ଦିଆଯିବ": 6223,
      "ମୃତକଙ୍କ ": 6224,
      "େବୁଲ": 6225,
      "ବାତ": 6226,
      "ଜିଲ୍ଲା": 6227,
      "ନବରଙ୍ଗପୁର ": 6228,
      "ତିଆରି କର": 6229,
      "ଚିଠି ଲେଖ": 6230,
      "ଜୁନ୍": 6231,
      "ାୟା ": 6232,
      "14": 6233,
      "ସ୍ତ୍ରୀ ": 6234,
      " ରାଷ୍ଟ୍ରପତି ": 6235,
      "ବାତ୍ୟ": 6236,
      "ହିନ୍ଦୁ ": 6237,
      "ିଲି ": 6238,
      "ରେ ପ୍ରବେଶ": 6239,
      "Faceb": 6240,
      "ଜୈ": 6241,
      "ରାଜ୍ୟ ସରକାରଙ୍କ ": 6242,
      "୬୯": 6243,
      "ଆତଙ୍କବାଦୀ": 6244,
      "from ": 6245,
      "ର ସାମ": 6246,
      " ବିପକ୍ଷ": 6247,
      "ବ୍ୟବସାୟୀ": 6248,
      "ପର୍ବ": 6249,
      "ଚୂ": 6250,
      "ତ୍ରୀ": 6251,
      " ମୌ": 6252,
      "ନକ ": 6253,
      " ସଂଗଠନ": 6254,
      "ଯାଉଛନ୍ତି ": 6255,
      "ଗତ କିଛି ": 6256,
      "୫ ": 6257,
      "ଡୋ": 6258,
      "ବୟାନ": 6259,
      " କେନ୍ଦ୍ର ସରକାର": 6260,
      "ତ୍ତମ": 6261,
      " ଥିବାରୁ ": 6262,
      "ଶକ୍ତିଶ": 6263,
      "ନାଶ": 6264,
      "2018 ": 6265,
      "ାରୁ": 6266,
      " ଅପର": 6267,
      " ନେଇଥିଲେ ": 6268,
      " ପଣ୍ଡା": 6269,
      "େବି ": 6270,
      "ଅନ୍ତର୍ଜାତୀୟ": 6271,
      " ଜିନିଷ": 6272,
      " ନାୟକ": 6273,
      "ଆଗରେ ": 6274,
      "ତୁଳନାରେ ": 6275,
      " ଅର୍ପଣ": 6276,
      "ଦୃଷ୍ଟି ": 6277,
      "ରୂ": 6278,
      "ାଧିକ ": 6279,
      "str": 6280,
      " ପୂର୍ଣ୍ଣ": 6281,
      "ପିସ": 6282,
      " ସ୍କୋ": 6283,
      " ଠାକ": 6284,
      " ଜନତା ": 6285,
      "ଧାର ": 6286,
      "୍ୟାମ": 6287,
      ", 2022\n": 6288,
      "ବକ୍ତ": 6289,
      "ବିସ୍ଫୋରଣ": 6290,
      "ିଙ୍କ ": 6291,
      "ିପାରେ ": 6292,
      "କ୍ରିକେଟ": 6293,
      " ଶିକ୍ଷକ ": 6294,
      "ସଂଯୋଗ": 6295,
      "ି କରିବାକୁ ": 6296,
      "ଜଣଙ୍କୁ ": 6297,
      " ସମ୍ଭ": 6298,
      "ହାତି ": 6299,
      "ଜୀବି": 6300,
      " ଇନ୍": 6301,
      "ା ପାଇ": 6302,
      " ଘରେ ": 6303,
      "ବାଣୀ": 6304,
      " ଥିବା ବେଳେ ": 6305,
      "ଶୁଭାରମ୍ଭ": 6306,
      "ସି କ": 6307,
      " କଷ୍ଟ": 6308,
      "ିଧ": 6309,
      "୪୩": 6310,
      "ରବ": 6311,
      " ଉଲ୍ଲ": 6312,
      " ମନ୍ତ୍ରାଳୟ": 6313,
      "୭୮": 6314,
      "ାଆ": 6315,
      " ପ୍ରିୟ": 6316,
      "ଦ୍ୱନ୍ଦ୍ୱ": 6317,
      "ଶୁକ୍ରବାର": 6318,
      "ଂଲା": 6319,
      "ଜଣାଇଛନ୍ତି ": 6320,
      "ା କରାଯାଉଛି ": 6321,
      "ଆଇଆଇ": 6322,
      "୨୦୧୬": 6323,
      "ଡ୍ରାଇଭ": 6324,
      "ଶୁ ": 6325,
      "ାଉସ": 6326,
      " ଯବାନ": 6327,
      " ହୋଇପାରିବ": 6328,
      ".) ": 6329,
      "ାହୁ ": 6330,
      "ବିରୁଦ୍ଧ": 6331,
      "ଡେଇ": 6332,
      " ପୋଷ": 6333,
      "ଷ୍ପ": 6334,
      " ଲହ": 6335,
      "ମ୍ପିକ୍ସ": 6336,
      "ଭୂଷଣ": 6337,
      "ଡାଉନ": 6338,
      " ପୂଜ": 6339,
      "ରଖିଛନ୍ତି ": 6340,
      "ର ସମ୍ପ": 6341,
      " ଶତାବ": 6342,
      "ରାତ୍ର": 6343,
      "ଅନେକ": 6344,
      "ହାଟ": 6345,
      "ରେଖ": 6346,
      "କେମିତି ": 6347,
      "ଅନୁଧ୍ୟାନ": 6348,
      "ଅଭିଯୋଗ ହୋଇଛି ": 6349,
      "ରବିବାର": 6350,
      "ଘୋ": 6351,
      "ା କର୍ମ": 6352,
      " ଦିଗରେ ": 6353,
      "ସହର": 6354,
      " ବଲ": 6355,
      "ଭୋଜ": 6356,
      "ନେହ": 6357,
      " ୪୦": 6358,
      "ନୋଲୋଜ": 6359,
      "କଳାହାଣ୍ଡି": 6360,
      "ଇଚ୍ଛ": 6361,
      "କେନ୍ଦୁଝର": 6362,
      "ଯେତେ ": 6363,
      " ପାଇବେ ": 6364,
      " ହୋଇଥିବାବେଳେ ": 6365,
      "ରାଜନୀତି ": 6366,
      "ଏ ସମ୍ପର୍କରେ ": 6367,
      "ିଆଣ୍ଟ": 6368,
      " ଘରୋଇ": 6369,
      "ଶ୍ରଦ୍ଧ": 6370,
      "ପାରନ୍ତି": 6371,
      "ବିଲ୍": 6372,
      " ଦଶ": 6373,
      "ats": 6374,
      " ପାଇଁ ଏକ ": 6375,
      "22": 6376,
      "ନୁହେଁ ": 6377,
      " ମିନିଟ୍": 6378,
      " ସ୍ଵ": 6379,
      " କହିଥିଲେ": 6380,
      " ସୈ": 6381,
      "ଗଞ୍ଜେଇ": 6382,
      "ଶନିବାର": 6383,
      "କିଆ": 6384,
      "ପୂର୍ବବର୍ତ୍ତୀ ": 6385,
      "ତୀ ": 6386,
      "ନ୍ତ୍ରୀ": 6387,
      "ect": 6388,
      "ଆକାଶ": 6389,
      "ସୋମବାର": 6390,
      " ଯାଦବ": 6391,
      "ର ଶିକାର": 6392,
      "ସ୍ପର୍ଶ": 6393,
      "ିବଦ୍ଧ": 6394,
      "ାର୍ଣ୍ଣ": 6395,
      "ଗୁଡ଼ିକରେ ": 6396,
      " କର୍ମଚାରୀଙ୍କୁ ": 6397,
      " କ୍ଷତି": 6398,
      "ଶ୍ରୟ": 6399,
      "ସିଏସ": 6400,
      " କରାଗ": 6401,
      "ତର ": 6402,
      "ast ": 6403,
      "ଶୁଣା ": 6404,
      " ଫି": 6405,
      "ସୁନ୍ଦର ": 6406,
      "ଲୋକମାନଙ୍କୁ ": 6407,
      "ଗୁଡିକୁ ": 6408,
      " ଜୀବନରେ ": 6409,
      " ସ୍ବ": 6410,
      " ଦୂର": 6411,
      "୫୮": 6412,
      " ଲୋ": 6413,
      "ସ୍ୱଚ୍ଛ": 6414,
      " ଆଇପି": 6415,
      "ମିଳିବ ": 6416,
      " କେସ୍": 6417,
      "ବିଭାଗୀୟ": 6418,
      "ରୂପେ ": 6419,
      "ଗୁରୁବାର": 6420,
      " ଅଂଚଳ": 6421,
      " ନୀତି ": 6422,
      "ାରାଜ": 6423,
      "ତା ଓ": 6424,
      "ଗ୍ୟାସ": 6425,
      "ସଲମାନ": 6426,
      "ସିବି ": 6427,
      "ାଳୀ ": 6428,
      "ଙ୍କ ନିର୍ଦ୍ଦେଶ": 6429,
      "ାଟଫର୍ମ": 6430,
      "ଯାହାକୁ ନେଇ": 6431,
      "Mar": 6432,
      "ମତଦାନ": 6433,
      "ହାତରେ ": 6434,
      "୪୧": 6435,
      " ଦର ": 6436,
      "ସଂଖ୍ୟାରେ ": 6437,
      "ଅପ୍": 6438,
      "୯୮": 6439,
      "ess": 6440,
      " ୨୧": 6441,
      "ous ": 6442,
      " ପାନ": 6443,
      "ଙ୍ଗୁ": 6444,
      "ହେବେ ": 6445,
      "ସୋସିଆଲ ମିଡିଆରେ ": 6446,
      "ର ବରିଷ୍ଠ": 6447,
      " ଏକ୍ସ": 6448,
      " ବିଳମ୍ବ": 6449,
      "ଥିଲି ": 6450,
      "କରୋନାର ": 6451,
      "ିବା ଏବଂ": 6452,
      "ପ୍ରସ୍ତୁତି ": 6453,
      "ବାଘ": 6454,
      " ଜର": 6455,
      " ସଂଯୋଗ": 6456,
      " ଚଳିତ": 6457,
      ".    ": 6458,
      " କରିବାରୁ ": 6459,
      "ଏହି ଭିଡିଓ": 6460,
      "୍ୟାସ୍": 6461,
      "ନୃତ୍ୟ": 6462,
      "ଐତିହାସିକ ": 6463,
      "Sep": 6464,
      "ଅଧ୍ୟକ୍ଷ": 6465,
      " ମିଳିବ ": 6466,
      " ଏପ୍ରିଲ": 6467,
      "ଗ୍ସ": 6468,
      "ପୂର୍ବତନ ": 6469,
      "ଘରର ": 6470,
      "ମନୋରଞ୍ଜନ": 6471,
      " ଅମିତ": 6472,
      "ିପାରେ": 6473,
      "10 ": 6474,
      "ନା କରା": 6475,
      "ହତ୍ୟାକାଣ୍ଡ": 6476,
      "।\"": 6477,
      "ଲ୍ୟାଣ୍ଡ": 6478,
      "ପାରି ": 6479,
      "ଗିତ": 6480,
      "୦୯": 6481,
      "ରସ୍": 6482,
      "ଶାସ୍ତ୍ର": 6483,
      "ଦେଖିଲେ ": 6484,
      " କ୍ରମେ ": 6485,
      " ମହିଳାଙ୍କ ": 6486,
      " ରୂପେ ": 6487,
      "cont": 6488,
      " ଉକ୍ତ": 6489,
      "ଆକଳନ": 6490,
      " ସମାଧାନ": 6491,
      "ଚାଷୀ ": 6492,
      "Read ": 6493,
      "ାଇମବ୍ରାଞ୍ଚ": 6494,
      "August ": 6495,
      "ଜଣା ପ": 6496,
      " ବିଚାରପତି ": 6497,
      "ାବ୍ୟସ୍ତ": 6498,
      "s of ": 6499,
      "ାହାଡ଼": 6500,
      "ୁଙ୍କୁ ": 6501,
      "ାୟାର": 6502,
      " ନାହିଁ ବୋଲି ": 6503,
      " କରାଯାଏ ": 6504,
      "ରେ ପ୍ରଧାନ": 6505,
      "ି ହୋଇଥିବା ": 6506,
      "ସନ୍ଧ୍ୟା ": 6507,
      "ଜୁଳି ": 6508,
      "Next ": 6509,
      "ତାଲିକାରେ ": 6510,
      "ରକ୍ଷିତ": 6511,
      ",\n": 6512,
      "ଡ଼କ ": 6513,
      "ଓ୍ବ": 6514,
      "ଗୁରୁତର ଅ": 6515,
      "ଲେଖା ": 6516,
      " ଆକାଉଣ୍ଟ": 6517,
      " ଗୋଲ": 6518,
      "ିବେ ବୋଲି ": 6519,
      " ଜିଲ୍ଲାର ": 6520,
      "ଲୁହ": 6521,
      "ୁଣ": 6522,
      " ଜମି ": 6523,
      "ମୁହିଁ": 6524,
      "ରମେଶ": 6525,
      "Tag": 6526,
      "ଢ଼େ ": 6527,
      " କମ୍ପାନୀ ": 6528,
      "ଗଣେଶ": 6529,
      "ଚେତାବନୀ ": 6530,
      " ଢ": 6531,
      "be": 6532,
      "ଘଟଣାସ୍ଥଳ": 6533,
      "ଶୁଣାଣ": 6534,
      "ଅମ": 6535,
      "ଚଢ଼ାଉ": 6536,
      "ରେ କଂଗ୍ରେସ": 6537,
      " ମୂଳ": 6538,
      "ବୁଧବାର": 6539,
      "ଭୋଟ୍": 6540,
      "ରୋଷ": 6541,
      "ଶୈ": 6542,
      "ବୁଠୁ ": 6543,
      " କେଶ": 6544,
      " ସାମ୍ବାଦିକ ": 6545,
      "କହିଥିଲେ": 6546,
      " ପରିଚୟ": 6547,
      "ଆସିବା ": 6548,
      " ପରିଶ୍ରମ": 6549,
      "ଭୂମିକା ": 6550,
      "ଛାଡି ": 6551,
      "ଧୋଇ": 6552,
      " ଏବଂ ସ": 6553,
      "ପିଓ": 6554,
      "ବୋଲି କୁହା": 6555,
      " ପ୍ରଶ୍ନ": 6556,
      "ହାଇଦ୍ରାବାଦ": 6557,
      "ତଦନ୍ତ ଆରମ୍ଭ": 6558,
      " ପିଇ": 6559,
      "ଓଲ": 6560,
      " କେହି ": 6561,
      "ସହର ": 6562,
      "ବାୟତ": 6563,
      "ାରୋହ": 6564,
      "ଆଖି ": 6565,
      "au": 6566,
      ") : ": 6567,
      "ଏହି ସବୁ ": 6568,
      "କ୍ସ୍": 6569,
      "C ": 6570,
      "ଛୁଇଁ": 6571,
      "ର ପ୍ରମୁଖ": 6572,
      "ଦିନ ତଳେ ": 6573,
      "ାୟତଃ": 6574,
      "ଜବର": 6575,
      "ଜଲ": 6576,
      "େଲୋ": 6577,
      "ପ୍ରେ ": 6578,
      "ଙ୍କ କାର୍ଯ୍ୟାଳୟ": 6579,
      "ଡ଼େ ": 6580,
      "ସହରର ": 6581,
      "ଙ୍କ ପୁଅ": 6582,
      "କୁହାଯାଉଛି ": 6583,
      "ୋଗ୍ରାମ": 6584,
      "ିତ ହୋଇଥିବା ": 6585,
      "ସଂଗ୍ରାମ": 6586,
      "ତେ": 6587,
      "ପାଦକ ": 6588,
      " ଜ୍ଞାନ": 6589,
      " ଅକ୍ଟୋବର ": 6590,
      "ବଲାଙ୍ଗୀର ": 6591,
      "ନ୍ତରୀଣ": 6592,
      " ପଟ୍ଟନାୟକଙ୍କ ": 6593,
      " ହୋ": 6594,
      "ରେ ପ୍ରକାଶ": 6595,
      "ame ": 6596,
      "ନିକଟସ୍ଥ": 6597,
      "୫୯": 6598,
      " ଦେଲେ ": 6599,
      " ଛାଡ଼": 6600,
      "ନାମରେ ": 6601,
      "ଏହି ସମୟ": 6602,
      "ନିବାସ": 6603,
      "୨ଜଣ": 6604,
      " ନିଅ": 6605,
      "କ୍ରେ ": 6606,
      "ଗବେଷଣା ": 6607,
      "ଚର୍ଯ୍ୟ": 6608,
      " ଆନନ୍ଦ": 6609,
      " ସୁସ୍ଥ ହୋଇଛନ୍ତି ": 6610,
      " ଖାନ୍": 6611,
      " ପଣ୍ଡା ": 6612,
      "ଦିଲ୍ଲୀରେ ": 6613,
      "ଙ୍କ କାର୍ଯ୍ୟ": 6614,
      "ୁରଭଞ୍ଜ": 6615,
      "ଚାଉଳ": 6616,
      "ନାତ": 6617,
      "23": 6618,
      "Us": 6619,
      "ଭର ": 6620,
      " ମାନଙ୍କ ": 6621,
      "ା ବନ୍ଦ": 6622,
      " ଚୁ": 6623,
      "ଛତ୍ର": 6624,
      "ଯାତ୍ରାରେ ": 6625,
      "ସାମ୍ବାଦିକ ସମ୍ମିଳନୀ": 6626,
      "ଏଥି ସହିତ": 6627,
      "that ": 6628,
      "ସ୍ର": 6629,
      " ପ୍ରତ୍ୟେକ ": 6630,
      "ବିଫଳ": 6631,
      "ବିଭିନ୍ନ ପ୍ରକାର": 6632,
      " ଓଡ଼ିଶାରେ ": 6633,
      "ନା କରିଥିଲେ ": 6634,
      "ଉଲ୍ଲେଖଯୋଗ୍ୟ": 6635,
      "ପୂର୍ବବର୍ତ୍ତୀ ଖବର ": 6636,
      " କମ୍ପ": 6637,
      "ସିଧାସଳଖ": 6638,
      "ା କରିଛନ୍ତି": 6639,
      "ନଂ": 6640,
      "ଷୟିକ ": 6641,
      "କିଶ": 6642,
      "ଠିଆ": 6643,
      " ଜିଲା ": 6644,
      "ସେଥିରୁ ": 6645,
      "ଓଡିଆ": 6646,
      "ିଲାଣି ": 6647,
      "ଯିବା ପାଇଁ": 6648,
      "୫୭": 6649,
      "ଦୁର୍ବୃତ୍ତ": 6650,
      "min": 6651,
      " ମିଳିଛି ": 6652,
      "ଭ୍ର": 6653,
      "କହି": 6654,
      "ିଆଜ": 6655,
      "ମିଟେ": 6656,
      "ଜିଂ": 6657,
      "ବାନ୍ଧ": 6658,
      "ଆସନ୍ତୁ ଜାଣିବା ": 6659,
      " ଶତ": 6660,
      " ସେଲ": 6661,
      "ଚିଠ": 6662,
      "୍ୟାଗ": 6663,
      "୍ୟୁନି": 6664,
      "ନିତ": 6665,
      "par": 6666,
      "ସ୍ୱାମ": 6667,
      "ଉପୁ": 6668,
      " ତି": 6669,
      " ନଥିବା ": 6670,
      "ଫେବୃ": 6671,
      "କୁର": 6672,
      "ାରଣା ": 6673,
      "ment ": 6674,
      " ଅଞ୍ଚଳର ": 6675,
      " ଗୁରୁତ୍ୱପୂର୍ଣ୍ଣ": 6676,
      "ଜ୍ଞତା ": 6677,
      "ଆଗ୍ରହ": 6678,
      "ଆହ୍ୱାନ": 6679,
      "ଭୁତ": 6680,
      " ଅଧିନାୟକ ": 6681,
      "ସାତ": 6682,
      "ଶୁଣି ": 6683,
      "ଜ୍ୟୋତି": 6684,
      " ସାହାଯ୍ୟ": 6685,
      " ସୂତ୍ରରୁ ": 6686,
      "ିଆସୁ": 6687,
      "ନଗର": 6688,
      "ଖେଳାଳି ": 6689,
      " ଶତାବ୍ଦୀ": 6690,
      "ସୂଚନା ଦେଇଛନ୍ତି": 6691,
      "୧୯୮": 6692,
      "ରେ ପ୍ରବଳ": 6693,
      "ଏବେ ବି ": 6694,
      "େୟାର": 6695,
      "ରାତି": 6696,
      "ଏହି ଫିଲ୍ମ": 6697,
      "ମ୍ପରିକ ": 6698,
      "ମୁଖେ ": 6699,
      " ପ୍ରତାପ": 6700,
      "ପୁଞ୍ଜ": 6701,
      "ପୋଲିସ ": 6702,
      "ବାବୁ": 6703,
      " ମଣିଷ": 6704,
      "ହେବା ପରେ ": 6705,
      " ଉଦ୍": 6706,
      "ୀମାନଙ୍କୁ ": 6707,
      "Leave ": 6708,
      "ଫେରାର": 6709,
      "ମିତ୍ର": 6710,
      " ନାରାୟଣ": 6711,
      " ଖେଳାଳି": 6712,
      "ଯେମିତି ": 6713,
      "ିପାରିବେ ": 6714,
      " କଟକ ": 6715,
      " ଯୋଜନାରେ ": 6716,
      "ଜରିଆରେ ": 6717,
      "ସେ କହିଛନ୍ତି ଯେ ": 6718,
      " ନଭେମ୍ବର ": 6719,
      "ଶରୀର ": 6720,
      "ଡ଼କୁ ": 6721,
      "୍ୟାନେଲ": 6722,
      "ଦିଅନ୍ତୁ": 6723,
      "ସଚିବ": 6724,
      "ଗତି": 6725,
      "ଉତ୍ତର ପ୍ର": 6726,
      "/12": 6727,
      "ଦ୍ରୋହ": 6728,
      " ପିଲ": 6729,
      " କରିବେ ବୋଲି ": 6730,
      " ମାନସିକ ": 6731,
      " ନାଗରିକ": 6732,
      "ମ୍ଳ": 6733,
      " ସୁଖ": 6734,
      "ପବିତ୍ର": 6735,
      "ାଇଟ": 6736,
      "ମଞ୍ଚ": 6737,
      " ସଂରକ୍ଷଣ": 6738,
      "ମନ୍ତବ୍ୟ": 6739,
      "ସ୍ୱାମୀ ": 6740,
      " ନିଷ୍": 6741,
      "ୁଲି": 6742,
      "ଚୀନ୍": 6743,
      "କଲେଜ": 6744,
      "/11": 6745,
      " ସମିତି ": 6746,
      "ଓହ୍ଲାଇ": 6747,
      "m ": 6748,
      "ଘଟଣାକୁ ନେଇ": 6749,
      "ଜେନେ": 6750,
      "ିବାକୁ ପାଇ": 6751,
      "ବସ୍ତୁ ": 6752,
      "ାର୍ମିକ ": 6753,
      " ନଦୀ": 6754,
      "ପଡିବ ": 6755,
      "ରଖିବାକୁ ": 6756,
      "ଯଥା ": 6757,
      "ର ବିଭିନ୍ନ ": 6758,
      "ଡଙ୍ଗ": 6759,
      "ବିତା ": 6760,
      " ଅନୁଷ୍ଠିତ": 6761,
      " ଭୟ": 6762,
      "ମୁକାବିଲା ": 6763,
      " ମୃତ୍ୟୁ": 6764,
      "ଖୋର୍ଦ୍ଧା": 6765,
      "ଉତ୍ତରପ୍ରଦେଶ": 6766,
      "ାହାନ୍ତି": 6767,
      "୍ୟାନ୍ସ": 6768,
      " କାର୍ଯ୍ୟକ୍ରମରେ ": 6769,
      "ଯେଉଁଠି ": 6770,
      "ମଣ": 6771,
      "ଟକ ରଖ": 6772,
      "ଗତ ୨୪ ଘଣ୍ଟା ମଧ୍ୟରେ ": 6773,
      "କାର୍ଡ": 6774,
      " ଅଧିକ": 6775,
      "େଡ୍": 6776,
      " ତାକୁ ": 6777,
      "ାୟିକା ": 6778,
      " ଖାଇବା ": 6779,
      "ଶାରୀରିକ ": 6780,
      "ନ ଉପରେ ": 6781,
      "ଦୁଇଜଣ": 6782,
      "ସଂରକ୍ଷଣ": 6783,
      "ମୋଦନ": 6784,
      "ill ": 6785,
      "age ": 6786,
      "ସଭ୍ୟ": 6787,
      "ରେ ପ୍ରତି": 6788,
      "ଦୁହେଁ": 6789,
      "ସୁବର୍ଣ୍ଣ": 6790,
      "Sp": 6791,
      "ଦିଅନ୍ତୁ ": 6792,
      "କୋଇ": 6793,
      "ଭଳି କ": 6794,
      "କେରଳ": 6795,
      "ଓ୍ୱ": 6796,
      "!\n": 6797,
      "ରାଜିତ": 6798,
      "ସୈ": 6799,
      "ଅକ୍ଷୟ": 6800,
      "ow ": 6801,
      "ାହାରି ": 6802,
      "ବାରମ୍ବାର ": 6803,
      "ିଆସ": 6804,
      "କହି ": 6805,
      "ନିଷ୍ପତ୍ତି ନିଆ": 6806,
      "ିତ ହୋଇଛି": 6807,
      "କରୋନା ମହାମାରୀ": 6808,
      " ଟେ": 6809,
      " ସୌ": 6810,
      "ାର ସମ୍ଭାବନା ରହିଛି ": 6811,
      "ିଫ": 6812,
      " ରଣ": 6813,
      " ଦିନ ଧରି ": 6814,
      "ଯାହାଫଳରେ ": 6815,
      "ଲଗା": 6816,
      "ର ଅଭାବ": 6817,
      "ଭାରତ ": 6818,
      " ଖୁବ୍": 6819,
      "ଉପସ୍ଥିତ ଥିଲେ ": 6820,
      " ଇନ": 6821,
      " ହୋଇଯାଇଛି": 6822,
      "Un": 6823,
      "କୋଟ": 6824,
      "ବ୍ୟବହୃତ": 6825,
      " ତ୍ରି": 6826,
      "ବୀର ": 6827,
      "ଯାଉଥିଲା ": 6828,
      " ଡିଜେଲ": 6829,
      "ଧା": 6830,
      "D ": 6831,
      "ଙ୍ଗାଲ": 6832,
      "ୁହନ୍ତି": 6833,
      "ଅମିତ": 6834,
      "ପ୍ରସାରଣ": 6835,
      "ୟୁ ": 6836,
      "୭୯": 6837,
      "mar": 6838,
      "ାରମ୍ଭିକ ": 6839,
      "ମୁଖ୍ୟମନ୍ତ୍ରୀଙ୍କ ": 6840,
      " ଅନୁଷ୍ଠାନ": 6841,
      " ପାରିବ": 6842,
      "ଟିଭି": 6843,
      "ର୍ଗତ": 6844,
      "ୁଖ": 6845,
      "ବିଦ୍ୟୁତ୍": 6846,
      "ତାଲିମ": 6847,
      "ପଲ": 6848,
      " ରାଜ୍ୟର ": 6849,
      " ସହରରେ ": 6850,
      "ଭାସ": 6851,
      "ଘଟଣାକୁ ": 6852,
      "tp": 6853,
      "ବଲ୍": 6854,
      "ଶାସକ ": 6855,
      "ପାରିବାରିକ ": 6856,
      "ପ୍ରାକୃତିକ ": 6857,
      "ଦେଶିକ ": 6858,
      " ଦେଖାଇ": 6859,
      "ଙ୍କ ସଂଖ୍ୟ": 6860,
      " ନିଷ୍ପତ୍ତି ନେଇ": 6861,
      "ପ୍ରଦେଶର ": 6862,
      " ୨୮": 6863,
      "ସୂଚନା ଦିଆଯାଇଛି ": 6864,
      "ଜାତି": 6865,
      "ହୀ": 6866,
      "କାରରେ ": 6867,
      "ଟ୍ରେନ୍": 6868,
      "About ": 6869,
      "ରହସ୍ୟ": 6870,
      "ରେଡ୍": 6871,
      "ବୀ ": 6872,
      " ବିଶ୍ୱାଳ": 6873,
      "ଦିବ୍ୟ": 6874,
      "ଡୁ ": 6875,
      "ଏସପି ": 6876,
      "ଆଲୋକ": 6877,
      "ମଙ୍ଗଳବାର": 6878,
      "ସବୁଠୁ ": 6879,
      "କର୍ଣ୍ଣାଟ": 6880,
      "ସଂକ୍ରମିତ ହୋଇ": 6881,
      "ସିଟି ": 6882,
      "ଣ୍ଠି ": 6883,
      "He": 6884,
      "୭ଟି ": 6885,
      "ସ୍ଥିର ": 6886,
      "ାପାଇଁ": 6887,
      "ଆରମ୍ଭ ହୋଇଛି ": 6888,
      ":  ": 6889,
      " ରିଲି": 6890,
      "ଅବସ୍ଥା ": 6891,
      " ଆର୍": 6892,
      "ress ": 6893,
      " ଫୁ": 6894,
      "ଲିଉଡ୍": 6895,
      " ହୋଇପଡ଼": 6896,
      " ପାଟ": 6897,
      "ଟ୍ସମ": 6898,
      "ଦୂରତା ": 6899,
      " ଅଙ୍ଗ": 6900,
      "ପ୍ରାର୍ଥୀ ": 6901,
      " ଉପଲବ୍ଧ": 6902,
      "ିଆ ": 6903,
      " କିମି ": 6904,
      "ମାନ୍ତ": 6905,
      " ହେବାର ": 6906,
      "ଦିଲ୍ଲୀର ": 6907,
      "ଫେରି": 6908,
      "ା ପ୍ରକାଶ": 6909,
      " ଗଞ୍ଜ": 6910,
      " ଭୋ": 6911,
      "ୌରବ": 6912,
      "ୀକୃତ": 6913,
      "ମାନେ ମଧ୍ୟ": 6914,
      " ଅତ୍ୟନ୍ତ": 6915,
      "କହିଛନ୍ତି ଯେ ": 6916,
      "ତାଧିକ ": 6917,
      "ର ମୂଲ୍ୟ": 6918,
      "ସିନ୍": 6919,
      "ଗାଡ଼": 6920,
      "ant": 6921,
      " ତିଆରି କର": 6922,
      " ଛାତ୍ରୀ": 6923,
      "ଛାତ": 6924,
      " ତାରିଖ ପର୍ଯ୍ୟନ୍ତ": 6925,
      "ମ୍ବର": 6926,
      " କମିଶନ": 6927,
      "କର୍ଷଣୀୟ": 6928,
      "ସେନ୍ସ": 6929,
      "ିତ୍ରୀ": 6930,
      " ପ୍ରକାଶ ପାଇ": 6931,
      "ଭାଙ୍ଗି ": 6932,
      "ତାଙ୍କ ସହ": 6933,
      "ଠାରୁ ଆରମ୍ଭ କରି ": 6934,
      " ରହିଥିବା ବେଳେ ": 6935,
      "ଜ୍ୱ": 6936,
      "& ": 6937,
      "ଚାଷୀଙ୍କ ": 6938,
      "ଆସୁଛି ": 6939,
      " ଦିଅନ୍ତୁ": 6940,
      "ନିବେଦନ": 6941,
      "ଗର ନିଗମ": 6942,
      "ହାନ": 6943,
      " ଏତ": 6944,
      " ବିଲ": 6945,
      "ସଂସ୍ଥା ": 6946,
      "E ": 6947,
      "ଦ୍ୟାନ": 6948,
      "ଜଣା ": 6949,
      "କାଠ": 6950,
      " ହେଲା": 6951,
      "ସହଜରେ ": 6952,
      "ିଷ୍ଟ": 6953,
      "ାର ଓ": 6954,
      "୍ଳ": 6955,
      " ଦୀପ": 6956,
      " ଯାତ୍ରୀ": 6957,
      "ଗ୍ରାମା": 6958,
      " ସେମାନଙ୍କର ": 6959,
      "ମତ୍କାର": 6960,
      " ଗୁଡ": 6961,
      "ଅନୁସନ୍ଧାନ": 6962,
      "କୁ ପଠାଇ": 6963,
      "ଠାକାର": 6964,
      "ଏ ": 6965,
      " ସିରି": 6966,
      " ତୁଳନାରେ ": 6967,
      " ଚେଷ୍ଟ": 6968,
      " ସଂପୂର୍ଣ୍ଣ": 6969,
      "Jul": 6970,
      " ଅତିରିକ୍ତ": 6971,
      "/10": 6972,
      "ରେ ପରିଣତ": 6973,
      "ର ବା": 6974,
      "Whats": 6975,
      " ଚାଳ": 6976,
      "lin": 6977,
      " କ୍ରିକେଟ୍": 6978,
      "ଦିଆଯାଇ": 6979,
      "ଆସିଥିଲେ ": 6980,
      "ଏହି ମାମଲାରେ ": 6981,
      "ଜାରି କର": 6982,
      " ପୁଲିସ୍": 6983,
      "ସେ ନିଜ": 6984,
      "ତାହେଲେ ": 6985,
      "ସାପ": 6986,
      "ପାରୁ ": 6987,
      "ଜିଓ": 6988,
      " ଓ ପରିବାର": 6989,
      "ନିକଟରୁ ": 6990,
      "ବିନେଟ": 6991,
      "ର ସବୁ ": 6992,
      "ନ୍ଧକ ": 6993,
      " ପର୍ଯ୍ୟାୟରେ ": 6994,
      "ଭାରତକୁ ": 6995,
      "ମୂର୍ତ୍ତି ": 6996,
      "ଦେଶକୁ ": 6997,
      "ର ସୁରକ୍ଷା ": 6998,
      "କର୍କଟ": 6999,
      "/04": 7000,
      "ter ": 7001,
      "ଅଭିନେତ୍ରୀ": 7002,
      "ାଦାର": 7003,
      "ଚରା ": 7004,
      "ପ୍ୟା": 7005,
      " ସୁପର": 7006,
      "ସେହି ସମୟରେ ": 7007,
      "ସଂସ୍କୃତି ": 7008,
      "କୃତି": 7009,
      " ଟ୍ୱି": 7010,
      " ସମସ୍ତେ ": 7011,
      "ଫୋର": 7012,
      "ଗୋଟେ ": 7013,
      "ଗ୍ନ": 7014,
      "ିବିଆଇ": 7015,
      "ି କି ": 7016,
      "ନକଲି ": 7017,
      "ାବେଶ": 7018,
      "ୂରଣ": 7019,
      "ତତ୍ତ୍ୱ": 7020,
      "ାବଶ୍ୟ": 7021,
      "tion ": 7022,
      "ର ଚ": 7023,
      "ାଉଁ": 7024,
      "/08": 7025,
      " ଆହୁରି ": 7026,
      "ଗା ": 7027,
      "ାମେଣ୍ଟ": 7028,
      " ଜଡିତ": 7029,
      " ଆସି ": 7030,
      "me": 7031,
      "ହେବାକୁ ଥିବା ": 7032,
      "ପ୍ରୋ": 7033,
      "ଆସାମ": 7034,
      "ବଲାଙ୍ଗୀର": 7035,
      " ମହାମାରୀ": 7036,
      "ନଥିଲା": 7037,
      "୬୬": 7038,
      "ହସ": 7039,
      " ହରି": 7040,
      "ଓକିଲ": 7041,
      " ପରିବହନ": 7042,
      "ଚଳିତବର୍ଷ": 7043,
      "ଭିତରକୁ ": 7044,
      " ପ୍ରବେଶ": 7045,
      "କୋଣ": 7046,
      ". । ": 7047,
      "କାରୀଙ୍କୁ ": 7048,
      "ାଜିକ": 7049,
      "ଗାଡି": 7050,
      " ମନୋ": 7051,
      "ଜାଲ": 7052,
      "ଧକ୍କା ": 7053,
      "ଟ୍ରାଫ": 7054,
      "ମୁଖ୍ୟ ଚିକିତ୍ସ": 7055,
      "ଉଚିତ୍ ": 7056,
      " ୱିକେଟ୍": 7057,
      "ଆଶା ": 7058,
      "ୱେ ": 7059,
      "ା ପ୍ରତି ": 7060,
      " ଉପସ୍ଥିତ ଥିଲେ ": 7061,
      " ପଥ": 7062,
      "ରହିବାକୁ ": 7063,
      "ଷ୍ଟାଡିୟମ": 7064,
      "ଗୁଜରାଟ": 7065,
      "ଭେଟି ": 7066,
      "ର୍ବାଦ": 7067,
      "ାକର୍ମ": 7068,
      "ରେ ସମ୍": 7069,
      "ଜୁନ ": 7070,
      " ହସ୍ତ": 7071,
      "କୁ ଗିରଫ": 7072,
      " ସାକ୍ଷ": 7073,
      "ମାର୍": 7074,
      "ୟୁରୋ": 7075,
      "ଡେମ": 7076,
      "ଶିକ୍ଷୟ": 7077,
      "ଃ ": 7078,
      "ଯଥା": 7079,
      " ହୋଇସାର": 7080,
      "ସଙ୍କଟ": 7081,
      "୍ୟାଲ": 7082,
      "s and ": 7083,
      "ରନ୍": 7084,
      " ପାର୍ଟି ": 7085,
      "ଶାନ": 7086,
      "ଅସୁସ୍ଥ": 7087,
      "ଛତିଶଗଡ଼": 7088,
      " ଜାଗ": 7089,
      "ରୁ ବାହାର": 7090,
      "କିଛି": 7091,
      "ବହି": 7092,
      "ସତର୍କ": 7093,
      " ଆସିଛି ": 7094,
      "ମନୋଜ": 7095,
      "WhatsApp": 7096,
      "/07": 7097,
      " ପେଟ୍ରୋଲ": 7098,
      " ଚୋ": 7099,
      "ଏକମାତ୍ର": 7100,
      "ସୂଚିତ": 7101,
      "ଦର୍ଶାଇ": 7102,
      " ସୁନ୍ଦର": 7103,
      " ଧାନ": 7104,
      " ସଂକ୍ରାନ୍ତ": 7105,
      "Pri": 7106,
      "ତ୍ନ ": 7107,
      " ସଂସ୍କୃତି ": 7108,
      "ମାନ୍ୟତା ": 7109,
      " ଉତ୍ପାଦନ": 7110,
      " ବୋଲି କହ": 7111,
      "୍ନୌ": 7112,
      " ଲାଗୁ ": 7113,
      "ଗତ ବର୍ଷ": 7114,
      "ଏହାରି ": 7115,
      " ଦିଆଯିବ": 7116,
      " ରଖିବାକୁ ": 7117,
      "ଉଦ୍ଧାର କରି ": 7118,
      "ହୋଇଥାଏ ": 7119,
      "July ": 7120,
      "୫୨": 7121,
      "ୂଜ": 7122,
      "ନୂଆପଡ଼": 7123,
      " ଉପର": 7124,
      " ରହିବେ ": 7125,
      " ବିନା ": 7126,
      " ପାଇବେ": 7127,
      "ଏକ କ": 7128,
      "ବିଜୟୀ": 7129,
      "ଏହା ମଧ୍ୟ": 7130,
      "ଧୋ": 7131,
      "ପୃଷ୍ଠ": 7132,
      "୍ ": 7133,
      " ପ୍ୟା": 7134,
      "ସମ୍ଭାବ୍ୟ": 7135,
      "ଅର୍ଥାତ": 7136,
      " ତୁରନ୍ତ": 7137,
      "/06": 7138,
      "ଭୂତି ": 7139,
      "କଣ୍ଠ": 7140,
      "ସୂଚନା ଅନୁସାରେ": 7141,
      "ବିଏମ୍": 7142,
      "/11/2021 ": 7143,
      " ବ୍ରି": 7144,
      "ଜାତୀୟ ରାଜପଥ": 7145,
      "େଟରେ ": 7146,
      "ଚର ": 7147,
      "ଶୈଳ": 7148,
      "ିକି ନୁହେଁ": 7149,
      "ଙ୍କୁ ଭେଟ": 7150,
      "ପିଲା ": 7151,
      "ଗୁଜୁ": 7152,
      "ଯୋଗିତା ": 7153,
      "der": 7154,
      "ସଞ୍ଜୟ": 7155,
      " ଡୋଜ୍": 7156,
      " ରାଜନୈତିକ ": 7157,
      "ର କାରଣ": 7158,
      "ନିରଞ୍ଜନ": 7159,
      "ାକର": 7160,
      "ସୁନିଶ୍ଚିତ": 7161,
      "ଜଗତସିଂହପୁର": 7162,
      "ଭୀତ": 7163,
      "ାଇନ୍": 7164,
      "ଓଡିଶା": 7165,
      "କ୍ସନ": 7166,
      "ପ୍ରଦ": 7167,
      "ଲୁଟ": 7168,
      "ଦୁର୍ନୀତି ": 7169,
      "all ": 7170,
      "ସ୍ଵାସ୍ଥ୍ୟ": 7171,
      "ହ୍ୟ": 7172,
      "ମୃତ୍ୟୁ ହୋଇଛି": 7173,
      "ଶୁଭ ଅ": 7174,
      "ଚଳାଇ": 7175,
      "ମୋବାଇଲ୍": 7176,
      "ସିନ": 7177,
      "ଙ୍କ ଏହି ": 7178,
      "ଦଖଲ": 7179,
      "ରାଖଣ୍ଡ": 7180,
      "ରାଜୟ": 7181,
      " ମଜ": 7182,
      "ରେ ପହଞ୍ଚି ": 7183,
      "୍ୟୁଟ": 7184,
      " ରାସ୍ତାରେ ": 7185,
      "ରଞ୍ଜନ ": 7186,
      "ଷ୍ଟାର": 7187,
      "ାଣିଜ୍ୟ": 7188,
      "ପହ": 7189,
      "ପ୍ରତିକ୍ରିୟା ": 7190,
      "୫୬": 7191,
      "ହେବାରୁ ": 7192,
      " ଗତିରେ ": 7193,
      " ସେପ୍ଟେମ୍ବର ": 7194,
      "ic ": 7195,
      "ଯାଉଥିବା ବେଳେ ": 7196,
      "ଚିହ୍ନଟ ହୋଇଥିବା ": 7197,
      "/10/2021 ": 7198,
      "ast": 7199,
      "ଲାଣ୍ଡ": 7200,
      " ଆଦିବାସ": 7201,
      " ଅଧିକାରୀମାନେ ": 7202,
      "ିବା ନେଇ": 7203,
      "ଜିଲ୍ଲା ସ": 7204,
      " ହେବାକୁ ଥିବା ": 7205,
      "/09": 7206,
      "ଶକ୍ତି": 7207,
      "you ": 7208,
      "ଭବନରେ ": 7209,
      " ମଞ୍ଜ": 7210,
      "ସେହ": 7211,
      " କରିପାରନ୍ତି": 7212,
      "କରିଛନ୍ତି ": 7213,
      "/12/2021 ": 7214,
      "ଆଠ": 7215,
      "ଟ୍ ": 7216,
      "ଶାହ": 7217,
      "ପ୍ରତିଦିନ ": 7218,
      " ପାରିବେ ": 7219,
      "ଏହାକୁ ମିଶାଇ": 7220,
      "/07/2021 ": 7221,
      "ସଂଘର୍ଷ": 7222,
      "ud": 7223,
      "କୁ ଦୃଷ୍ଟିରେ ରଖି ": 7224,
      " ଆତ୍ମ": 7225,
      "Pol": 7226,
      " ଅଧୀନରେ ": 7227,
      "ନବରଙ୍ଗପୁର": 7228,
      "ୁଥିଲା": 7229,
      "ଦେଇଥିଲା": 7230,
      "ସ୍ତି ": 7231,
      "ସକାଳୁ ": 7232,
      "ନ୍ଦର୍ଯ୍ୟ": 7233,
      " ଟଙ୍କାରେ ": 7234,
      " କରାଯାଉଥିବା ": 7235,
      "ସୂଚନ": 7236,
      "--------": 7237,
      "େରିଆ": 7238,
      " ନିଜେ ": 7239,
      "ଜାପାନ": 7240,
      "୧ ଲକ୍ଷ": 7241,
      " ଦୁଃଖ": 7242,
      "ସେନ": 7243,
      "ଭାଷଣ": 7244,
      "ଙ୍ଗରେ ": 7245,
      "ିଛୁ ": 7246,
      "ାକ୍ଷ": 7247,
      "ଅନୁପ": 7248,
      " ଅନୁସାରେ": 7249,
      "ିବୁ ": 7250,
      "ାହୁ": 7251,
      "ଭୋକ୍ତ": 7252,
      " ଫ୍ଲ": 7253,
      " ଡିଗ୍ରୀ": 7254,
      " ପଟେ ": 7255,
      " ଇତିହାସ": 7256,
      "ବନ୍ୟ": 7257,
      "/06/2021 ": 7258,
      "T ": 7259,
      "ପଲ୍ଲ": 7260,
      "ହିନ୍ଦ": 7261,
      "ର ଆହତ": 7262,
      "ରହିଥାଏ": 7263,
      "ଗୁରୁତର ଅବସ୍ଥାରେ ": 7264,
      "ଯିବେ ": 7265,
      " ୨୨": 7266,
      " ବସ୍": 7267,
      " ଆଧାରରେ ": 7268,
      " ଦେହ": 7269,
      "ସଦା": 7270,
      " ଅପରାହ୍": 7271,
      "ରେ ପୀ": 7272,
      " ସିରିଜ": 7273,
      "ର୍ଦ୍ଧିତ": 7274,
      " ଥାନ": 7275,
      " ଖରାପ": 7276,
      "୩ଜଣ": 7277,
      "ଙ୍କୁ": 7278,
      "ାଗ୍ରାମ": 7279,
      " ଜୀବନ ": 7280,
      "ଖୁସି": 7281,
      "ଅଧି": 7282,
      "ଙ୍କେତ": 7283,
      "ଜିଷ୍ଟ୍ର": 7284,
      "http": 7285,
      "ଆଉଟ": 7286,
      "ଖୋ": 7287,
      "ଇଲେକ୍ଟ୍ର": 7288,
      "ଠକେଇ": 7289,
      "ଅନ୍": 7290,
      "ଦାଦ": 7291,
      "ସୀମା ": 7292,
      "ବିଧାୟକ": 7293,
      "ଅହ": 7294,
      "ବିରାଟ କୋହ": 7295,
      "ଆୟୋଜନ": 7296,
      "କଲେ ": 7297,
      "କିଛି ସମୟ": 7298,
      "ସ୍ପେଶ": 7299,
      "ି କରାଯାଇଥିଲା ": 7300,
      "ଆପଣଙ୍କ ପାଇଁ": 7301,
      " ଇଣ୍ଡ": 7302,
      "ଜୁନ": 7303,
      "ୁଛୁ ": 7304,
      " ଜିତି ": 7305,
      "କାଶେ ": 7306,
      " ନିରା": 7307,
      "ରୋଗୀଙ୍କ ": 7308,
      "କୋଟି ଟଙ୍କା ": 7309,
      "ୀରୁ ": 7310,
      "୍ୟକ୍ରମ": 7311,
      " ଅଲ": 7312,
      "ଏତଲା ": 7313,
      "ଯନ୍ତ୍ରଣା ": 7314,
      " ଜଣଙ୍କୁ ": 7315,
      "ପ୍ରଦର୍ଶନ": 7316,
      "ୁଆଲ": 7317,
      "ଦିନର ": 7318,
      "ance": 7319,
      "ପିଛା ": 7320,
      "ପ୍ରତିଶ୍ରୁତି ": 7321,
      " ସହର ": 7322,
      "ମଲ୍ଲ": 7323,
      "ମୟୁରଭଞ୍ଜ": 7324,
      "it ": 7325,
      " ଶୁକ୍ର": 7326,
      "ଅଧୀନରେ ": 7327,
      "/09/2021 ": 7328,
      " ଯେତେବେଳେ ": 7329,
      " ମହାସ": 7330,
      " କାହିଁକି ": 7331,
      "ପାଣ": 7332,
      "ଇଣ୍ଡି": 7333,
      "ଭିମୁଖ୍ୟ": 7334,
      "ଖାତ": 7335,
      "ାୟନ": 7336,
      "ସ୍ମରଣ": 7337,
      "ହା": 7338,
      "ରବି ": 7339,
      " ୨୬": 7340,
      " ଓ ପ୍ର": 7341,
      " ଗୀତ": 7342,
      "ଦାୟିତ୍ବ": 7343,
      "ବାଚସ୍ପତି ": 7344,
      "ୀମା ": 7345,
      " ବୁଧ": 7346,
      " ଅଧିକାରୀଙ୍କୁ ": 7347,
      "ରେ ସଫଳତା ": 7348,
      "ାମଣା ": 7349,
      "ଚରାଉଚର": 7350,
      "ବ୍ୟକ୍ତିଙ୍କୁ ": 7351,
      "ଶସ୍ତ୍ର": 7352,
      "ଦୁବ": 7353,
      "ିମି": 7354,
      "ଆପଣମାନେ ": 7355,
      " ଅପେକ୍ଷ": 7356,
      "ଦାବି କରିଛନ୍ତି ": 7357,
      "ର ବିଷୟ": 7358,
      " କ୍ୟାରି": 7359,
      "ପରିବହନ": 7360,
      " ମୁକାବିଲ": 7361,
      "ଲିମ୍ପିକ୍ସ": 7362,
      "ରେ କେ": 7363,
      " କଳାକାର": 7364,
      " କାର୍ଯ୍ୟକଳାପ": 7365,
      "ନାଗରିକ": 7366,
      "/04/2021 ": 7367,
      " ଯାହ": 7368,
      "ଉଲ୍ଲେଖନୀୟ": 7369,
      "ଂଘନ": 7370,
      "ାହ୍ନ ": 7371,
      "ଦିନକୁ ଦିନ": 7372,
      "ରୋଗୀ ": 7373,
      "ଜାମିନ": 7374,
      "ମ୍ ": 7375,
      " ଭକ୍ତ": 7376,
      "ଦୁର୍ଘଟଣ": 7377,
      " କରିବାକୁ ଚାହୁଁ": 7378,
      "ପ୍ରତିବାଦ": 7379,
      "ବରୋଧ": 7380,
      "କଳା": 7381,
      "was ": 7382,
      "କାର୍ଯ୍ୟରତ": 7383,
      "ଏହି କ": 7384,
      "ବ୍ୟକ୍ତିଙ୍କ ": 7385,
      "/08/2021 ": 7386,
      "ିକ ଭାବେ ": 7387,
      "ବତ୍ତ": 7388,
      " ମିଶି ": 7389,
      "ଥିଲି": 7390,
      "ନିର୍ବାଚନ ପାଇଁ": 7391,
      "ମାର୍ଗ": 7392,
      "ସମ୍ବନ୍ଧ": 7393,
      "ଏବଂ ଏହି ": 7394,
      "ସଂଗଠନ": 7395,
      " କେନ୍ଦ୍ରୀୟ": 7396,
      "ପ୍ରଶାସନ": 7397,
      "ରେ ଅଛନ୍ତି ": 7398,
      "ଦାତ": 7399,
      "Facebook": 7400,
      "ା କରାଯାଇଛି": 7401,
      "ରେ ପହଞ୍ଚିଛି": 7402,
      " ଓ୍": 7403,
      "rit": 7404,
      "ଝିରେ ": 7405,
      "କୋହ": 7406,
      "ଅଭିଯୋଗରେ ": 7407,
      "ଚିକିତ୍ସିତ": 7408,
      "ସିଙ୍ଗ": 7409,
      "େର ": 7410,
      " ଶବ୍ଦ": 7411,
      "ମାଂସ": 7412,
      "ୁରୂପ": 7413,
      " ପୂର୍ବେ ": 7414,
      " ସରପଞ୍ଚ": 7415,
      "ତିରିକ୍ତ": 7416,
      "କପ": 7417,
      " ମ୍ୟାନ": 7418,
      " ଓ ": 7419,
      " ଶ୍ରୀ ": 7420,
      " ତୁ": 7421,
      "ଉଦ୍ଧ": 7422,
      " ଘରକୁ ଫେର": 7423,
      "କାଲ": 7424,
      "ସେ ତାଙ୍କ ": 7425,
      " ପ୍ରୟୋଗ": 7426,
      "ଡେ ": 7427,
      "ବାଇକ୍": 7428,
      ":-": 7429,
      "so ": 7430,
      "ଜର୍ମାନ": 7431,
      " ଙ୍କ ": 7432,
      " ଡିସେମ୍ବର ": 7433,
      "ା କରୁଥିବା ": 7434,
      " କରିସାର": 7435,
      "ସୃଷ୍ଟି ": 7436,
      "ରେ ପୋଲିସ": 7437,
      "ମ୍ୟାନ": 7438,
      "ିଥିଲେ ମଧ୍ୟ": 7439,
      "୍ରିକ ": 7440,
      "ିବାସ": 7441,
      " ସମସ୍ତଙ୍କୁ ": 7442,
      "ରୁ ଊ": 7443,
      "୨୦୧୫": 7444,
      " ଶନିବ": 7445,
      "ିତ ରାତିରେ ": 7446,
      "ନିଧି": 7447,
      "ure": 7448,
      " ଫୁଲ": 7449,
      " କୌଶଳ": 7450,
      "ବଦଳରେ ": 7451,
      "ୟୁକ୍ରେନ": 7452,
      "will ": 7453,
      "ା ପଞ୍ଚାୟତ": 7454,
      "ପୂରା ": 7455,
      "ତୈଳ": 7456,
      "ପ୍ରଧାନମନ୍ତ୍ରୀ ମୋ": 7457,
      "ପିଇବା ": 7458,
      "ମାଲିକ": 7459,
      "ନ୍ମୋ": 7460,
      "ଜେଲ୍": 7461,
      "ଇଣ୍ଡ": 7462,
      " ପ୍ରବାହ": 7463,
      "ନିମ": 7464,
      "େଶ୍ୱ": 7465,
      "_ ": 7466,
      " ଶାହ": 7467,
      "ସୋଲ": 7468,
      "କ୍ସ୍ଟ": 7469,
      "ତଲ": 7470,
      " କାର୍ଯ୍ୟକାରୀ": 7471,
      "ଗଙ୍ଗ": 7472,
      " ସ୍ୱରୂପ": 7473,
      "ଜୋର ": 7474,
      "ଯୋଗିତାରେ ": 7475,
      "ରହିଛନ୍ତି": 7476,
      "email ": 7477,
      "ବିଜେପିର ": 7478,
      "pr": 7479,
      "not ": 7480,
      "କରାଯାଇଛି": 7481,
      " ୱେବ": 7482,
      "ସାଇଟ": 7483,
      "ସହାୟ": 7484,
      "ୋପସାଗ": 7485,
      "ower": 7486,
      " ଆଗକୁ ": 7487,
      "Twitter": 7488,
      "/05": 7489,
      " ନାଁ": 7490,
      " ସୀମା ": 7491,
      "ାରଜ": 7492,
      "େରୀ ": 7493,
      "eo": 7494,
      " ମିଳିତ": 7495,
      "କୃଷ୍ଟ": 7496,
      "ଲୋକାଲ": 7497,
      " ଦିଆଯାଇ": 7498,
      " ରବିବ": 7499,
      "Leave a ": 7500,
      "ଭବାନ": 7501,
      "ବିଆଇ": 7502,
      " ଓ ପରିବାର କଲ୍ୟାଣ": 7503,
      "ଭାଷା ": 7504,
      "ther ": 7505,
      "ୱାଇ": 7506,
      " ପାଣ୍ଡ": 7507,
      "ିବାରେ ଲାଗିଛି": 7508,
      "v ": 7509,
      "Jan": 7510,
      "ସ୍ତି": 7511,
      "କାସ": 7512,
      " ଗୁଡିକ ": 7513,
      "ହେଲା": 7514,
      " ୨୯": 7515,
      "ଆଉଟ୍": 7516,
      "ାହ୍ମ": 7517,
      " ୨୭": 7518,
      "ପ୍ତମ": 7519,
      " ଘଟଣାସ୍ଥଳରେ ପହଞ୍ଚି ": 7520,
      "ଦେଓ": 7521,
      "ଧ୍ୱ": 7522,
      "Sept": 7523,
      " ପାଇଁ ": 7524,
      "ସ୍ନାନ": 7525,
      " ବ୍ୟତୀତ": 7526,
      "An": 7527,
      " ଛାଡ": 7528,
      "ଉତ୍ସାହ": 7529,
      "ବେଳକୁ ": 7530,
      "://": 7531,
      " ପିଲା ": 7532,
      "ଣ୍ଟି ": 7533,
      "ୋହୂ": 7534,
      "ଡ଼ାକ": 7535,
      "ଆଉ କିଛି ": 7536,
      "ଡର": 7537,
      "ଷଷ୍ଠ": 7538,
      "ଅସୁବିଧା ": 7539,
      "ରାଜା ": 7540,
      "ଭେଦ": 7541,
      " ମଧ": 7542,
      "ଖ୍ୟାତ": 7543,
      " ଯାଉ": 7544,
      "ଦିଙ୍କ ": 7545,
      "June ": 7546,
      "େପଣ": 7547,
      "ାର ସଦସ୍ୟ": 7548,
      "୦୭": 7549,
      "ଶାଲ": 7550,
      "/03": 7551,
      "ପଟ୍ଟନ": 7552,
      "ଉପା": 7553,
      "ଫିଆ": 7554,
      "ଇମ୍ର": 7555,
      "ଉପରକୁ ": 7556,
      "ଜିଲାପାଳ": 7557,
      " ଲକ୍ଷ ଟଙ୍କାର": 7558,
      "ଡରେ ": 7559,
      " ଭିତରକୁ ": 7560,
      "ବନ୍ଧୁଗଣ": 7561,
      "ଙ୍କ ମଧ୍ୟ": 7562,
      " ଦୁର୍ବ": 7563,
      "ଚୋରି ": 7564,
      "ବାହା": 7565,
      "ଉତ୍ତେଜନା ": 7566,
      "erg": 7567,
      " ହାତରେ ": 7568,
      "କଳା ": 7569,
      "ଟ୍ୱିଟ": 7570,
      " ଶୋ": 7571,
      "ାମା ": 7572,
      "ସୁନ୍ଦରଗଡ": 7573,
      "୦୫": 7574,
      " ଏବଂ ": 7575,
      "ସରେ ": 7576,
      "କ୍ସଲ": 7577,
      "ଅଳ": 7578,
      " ୩୧": 7579,
      " ବିଭାଗୀୟ": 7580,
      "ଶୀର୍ବାଦ": 7581,
      "ବିଦ": 7582,
      "ଟ୍ରା": 7583,
      "ପୂଜା ": 7584,
      "ତେବେ ଏହା ": 7585,
      " ସିଦ୍ଧ": 7586,
      "ବାରିପଦ": 7587,
      "ht ": 7588,
      " ବୋଲି କ": 7589,
      "ମାଲିକ ": 7590,
      "ମାଓବାଦୀ": 7591,
      "ବିସିସିଆଇ": 7592,
      "ଂଲାଦେଶ": 7593,
      "ଜଣାଯାଇଛି ": 7594,
      "ରାଞ୍ଚଳ": 7595,
      "September ": 7596,
      "ଆହୁରି ମଧ୍ୟ": 7597,
      "ପ୍ରସିଦ୍ଧ": 7598,
      "ା କରିଛି ": 7599,
      "ଛକ ": 7600,
      " ସମଗ୍ର": 7601,
      "ାରିଥିବା ": 7602,
      "ପରିପ୍ରେକ୍ଷ": 7603,
      "IS": 7604,
      "ତାହାର": 7605,
      "କ୍ରୋ": 7606,
      "ାସେବ": 7607,
      "ଏସଆଇ": 7608,
      " ବାଲ": 7609,
      " ବିଧାନସଭ": 7610,
      "କତା ": 7611,
      " ବର୍ଷ ପରେ ": 7612,
      "ଶ୍ରଦ୍ଧା": 7613,
      " ନିର୍ବାଚନ ": 7614,
      "ଥାଆନ୍ତି ": 7615,
      " ଦାଶ": 7616,
      " କ୍ୟାପ": 7617,
      "ଅବଶ୍ୟ": 7618,
      " ସିନେ": 7619,
      "May ": 7620,
      "ମ୍ପର୍କରେ ": 7621,
      "ail": 7622,
      "ଡ ": 7623,
      " ରୁହ": 7624,
      "ବୋଲି କ": 7625,
      " ଗୁଡିକ": 7626,
      "ମ୍ପରା ": 7627,
      " ଲକ୍ଷରୁ ": 7628,
      "ଆତ୍ମହତ୍ୟ": 7629,
      "ଜର୍ସ": 7630,
      "ପ୍ରେର": 7631,
      " ରହିଥିଲା ": 7632,
      " ନିଶ୍ଚିତ": 7633,
      "ନ୍ୟୁଜିଲାଣ୍ଡ": 7634,
      "ତପ": 7635,
      " ୨୩": 7636,
      " ରଖି ": 7637,
      "ସାଥୀ": 7638,
      "ଏଏସ୍": 7639,
      " ସୁନା ": 7640,
      "ଖଣି ": 7641,
      "ରୁ ଆରମ୍ଭ": 7642,
      "୍ୟୁବରଣ": 7643,
      "ାଦୀପ": 7644,
      " ଅନ୍ତ": 7645,
      "ଡ଼ରେ ": 7646,
      "ଅଧିକ ପଢ": 7647,
      "ଭ୍ୟନ୍ତରୀଣ": 7648,
      "we": 7649,
      "ଧୂ": 7650,
      "ସମାଲୋଚନା ": 7651,
      "କେନ୍ଦ୍ରାପଡ଼ା": 7652,
      " ଦେଖି ": 7653,
      "ୋତ୍ସାହିତ": 7654,
      "ଲେଖିଛନ୍ତି": 7655,
      "ରବିନ୍ଦ": 7656,
      "ଏଭଳି ଏକ ": 7657,
      "କ୍ଷକ ": 7658,
      "ଖିଳ": 7659,
      "ପନ୍ନ": 7660,
      "୮ଟି ": 7661,
      "ରେଞ୍ଜ": 7662,
      " ସାମ୍ନାକୁ ଆସ": 7663,
      "ମିଶ୍ରଣ": 7664,
      "ୂର୍ବ": 7665,
      "ଦାୟୀ": 7666,
      "x ": 7667,
      " ବିଜେପି": 7668,
      "ଯିବାରୁ ": 7669,
      " ବିହାର": 7670,
      "ବାରୁ ": 7671,
      " ୧୦୦": 7672,
      "................": 7673,
      "ଚିକ": 7674,
      "ଉପକରଣ": 7675,
      " ଅଭ୍ୟାସ": 7676,
      "ପୁଣିଥରେ ": 7677,
      "ବାଲେଶ୍ୱ": 7678,
      "ଯାଇଛନ୍ତି": 7679,
      "ଏହି ଆ": 7680,
      "ଆସନରେ ": 7681,
      "ପଥର ": 7682,
      "ଜେଇ": 7683,
      " କରିବା ଉଚିତ": 7684,
      "ଲେଖିଛନ୍ତି ": 7685,
      "ଦଳକୁ ": 7686,
      "ମମତା ": 7687,
      "ସ୍କରଣ": 7688,
      "ହୋଇପାରେ ": 7689,
      "ସମସ୍ୟାର ସମାଧାନ": 7690,
      "େଦନଶୀଳ": 7691,
      "over": 7692,
      "ିବା ଆରମ୍ଭ": 7693,
      "ଆଶଙ୍କା ": 7694,
      "ପଠାଇ": 7695,
      "୭୬": 7696,
      "ass": 7697,
      "ଇଂରାଜ": 7698,
      "3. ": 7699,
      "୫୪": 7700,
      " ନାବାଳ": 7701,
      "ore": 7702,
      "Cont": 7703,
      "ସ୍ୱୟଂ": 7704,
      "ମୌସୁ": 7705,
      "ା ପକ୍ଷରୁ ": 7706,
      "ଜ୍ଞାପନ": 7707,
      "ବୀନ୍ଦ୍ର": 7708,
      " ସରକାରଙ୍କୁ ": 7709,
      "କମିଶ": 7710,
      "କହିବାକୁ ": 7711,
      "ସଦର ": 7712,
      " ବାଟ": 7713,
      "ବିଶେଷକରି ": 7714,
      "ଦେଲା ": 7715,
      " ସୂର୍ଯ୍ୟ": 7716,
      "ଖବର ଓଡ଼ିଶା": 7717,
      " ମ୍ୟାଚ୍ରେ ": 7718,
      "ବିଶାଳ": 7719,
      "ଏବଂ ଏହା ": 7720,
      " ଆଗରେ ": 7721,
      "ପ୍ରତିଦିନ": 7722,
      "/05/2021 ": 7723,
      "ଚାନ": 7724,
      "ସ୍ୱାଧୀନତା ": 7725,
      "ଢି ": 7726,
      " ମୁତାବ": 7727,
      "ନେଇଥିଲେ ": 7728,
      " ନେଇଛନ୍ତି ": 7729,
      "ଯାହା ଫଳରେ ": 7730,
      "ମରି": 7731,
      " ପାଇବା ": 7732,
      " ସବୁବେଳେ ": 7733,
      "ର ପ୍ରାୟ": 7734,
      "ଭାଷାରେ ": 7735,
      "ଲୀ": 7736,
      "ବୋଲି କହ": 7737,
      "ମକ": 7738,
      "ନିଲମ୍ବ": 7739,
      "Eng": 7740,
      "ଉଡ଼": 7741,
      "ଜୀବୀ": 7742,
      "ପିପିଲ": 7743,
      " ସଂସଦ": 7744,
      "ପ୍ରବଳ ବର୍ଷା ": 7745,
      "ଭାଲ": 7746,
      "ଅଛନ୍ତି": 7747,
      "ଦାରଖ": 7748,
      "ପରିଶ୍ରମ": 7749,
      " ୱିକେଟ": 7750,
      " କେତ": 7751,
      " ଓ ନ": 7752,
      "ରିରେ ": 7753,
      " ଟିକାକରଣ": 7754,
      "ର ନ": 7755,
      "ସୁଲ": 7756,
      "କି ନାହିଁ": 7757,
      "/03/2021 ": 7758,
      " ଚିହ୍ନଟ ହୋଇଥିବା ବେଳେ ": 7759,
      "ଏକାଠି ": 7760,
      "ନ୍ତ୍ରୀ ": 7761,
      " କାଗଜ": 7762,
      "ପୁରା": 7763,
      "ଶିକ୍ଷା": 7764,
      "େବ୍ରୁ": 7765,
      "ମର୍": 7766,
      "ମହାନଗର ନିଗମ": 7767,
      "ସରଳ": 7768,
      " ଜାରି ରହିଛି ": 7769,
      "ବିବେଚନା ": 7770,
      "ୀତା ": 7771,
      "ଅପହରଣ": 7772,
      "ଅବସ": 7773,
      "ଫୁଲ୍ଲ": 7774,
      "ଆରି ": 7775,
      "ଦିଆଯାଇଥିଲା ": 7776,
      "ମଇ": 7777,
      " ଉତ୍ତର": 7778,
      "ତିକ": 7779,
      " କାର୍ଯ୍ୟାନୁଷ୍ଠାନ ଗ୍ରହଣ": 7780,
      "ଆରୋଗ୍ୟ": 7781,
      " ଅଂଚଳରେ ": 7782,
      " ବିକଳ୍ପ": 7783,
      "ala ": 7784,
      "Rel": 7785,
      "ରେ ଅବ": 7786,
      " ସାମନ୍ତ": 7787,
      "ଫ୍ରାନ୍ସ": 7788,
      " ରାଜଧାନ": 7789,
      "ସ୍ୱୀକାର": 7790,
      "ମାନ୍": 7791,
      "ପ୍ରକାରର ": 7792,
      "କ ଅନ୍ତର୍ଗତ": 7793,
      "ମନ୍ତ୍ରଣାଳୟ": 7794,
      "ିବା ପୂର୍ବରୁ ": 7795,
      "କୁ ସ୍ଥାନାନ୍ତର": 7796,
      "s are ": 7797,
      "ଶତକ ": 7798,
      " କରିବ ବୋଲି ": 7799,
      "ସ୍ ": 7800,
      "ଟିନ୍": 7801,
      "ରିୟାଣ": 7802,
      "ର ପୂର୍ବତନ": 7803,
      "ଅନ୍ୟ ଏକ ": 7804,
      "ଟିମ୍ ଇଣ୍ଡିଆ": 7805,
      "ିକପ୍ଟ": 7806,
      "ମହାସ": 7807,
      " ଅଭିନେତ୍ରୀ": 7808,
      "ଂଘ": 7809,
      "ହିସାବ": 7810,
      "ଏହି ଦୁଇ": 7811,
      " ହଜାରରୁ ଅଧିକ ": 7812,
      "ଶୁଭର": 7813,
      "ାନ୍ଥ": 7814,
      "ଭିଟାମ": 7815,
      "one": 7816,
      "ଯୁବତୀ ": 7817,
      "ବର୍ଷର ": 7818,
      " ଏବଂ ଆ": 7819,
      "ସରଣ": 7820,
      "ାବଳୀ": 7821,
      " ମୁକ୍ତ": 7822,
      " ଉଦ୍ଦେଶ୍ୟ": 7823,
      "ର ସମ୍ମୁଖୀନ": 7824,
      "ଟା ପର୍ଯ୍ୟନ୍ତ": 7825,
      "ଡାଲ": 7826,
      "୮୮": 7827,
      "ଜଟିଳ": 7828,
      "କଂ": 7829,
      "ା କରାଯାଇ": 7830,
      "ଶ୍ରୀଲଙ୍କା ": 7831,
      "ଙ୍କ ନିକଟରେ ": 7832,
      "ପଞ୍ଜ": 7833,
      "ଉପସ୍ଥିତିରେ ": 7834,
      "ସ୍ଥାନୀୟ ଲୋକେ ": 7835,
      " ସାମଲ": 7836,
      "ୂହ": 7837,
      " ଆସନ୍ତା ": 7838,
      "କାଳେ ": 7839,
      " ଶିଶୁ": 7840,
      "ହ୍ରାସ ପାଇ": 7841,
      "ପଂଚାୟତ": 7842,
      " କମିଶନର ": 7843,
      "୦୨": 7844,
      "୭୨": 7845,
      "ନିକ୍": 7846,
      " ଦିଅନ୍ତୁ ": 7847,
      "ଳେଷଣ": 7848,
      "ବେହେରା": 7849,
      "ପରେ ସେ ": 7850,
      " ଶିଖ": 7851,
      " ହସ୍ପିଟାଲରେ ": 7852,
      " ପୂର୍ବତନ": 7853,
      "ବଜାୟ ରଖ": 7854,
      "ଇଡି ": 7855,
      "ତ୍ୟାଧୁନିକ ": 7856,
      " ଚର୍ଚ୍ଚା ": 7857,
      "ଓଡ଼ିଶା ରିପୋର୍ଟର": 7858,
      "ହାର୍": 7859,
      "କ୍ସିଜେ": 7860,
      "େବେ": 7861,
      "ବାରଣ": 7862,
      " ଲେ": 7863,
      "ଶୁଭରଙ୍ଗ": 7864,
      "ସନ୍ତାନ": 7865,
      "ଭେଣ୍ଟ": 7866,
      "ah": 7867,
      "odi": 7868,
      "ମୋର୍ଚ୍ଚ": 7869,
      "ଥବା ": 7870,
      "ଚଢାଉ": 7871,
      "ରିବ": 7872,
      " ଭବିଷ୍ୟତ": 7873,
      "ଦରକାର ": 7874,
      " ଲହର ": 7875,
      "ବୈଠକ": 7876,
      "ଷ୍ଟାଣ୍ଡ": 7877,
      "ଯୁବକଙ୍କ ": 7878,
      " ଫେବୃ": 7879,
      " କ୍ରମ": 7880,
      " ଡିଜି": 7881,
      "ପ୍ରତିବର୍ଷ": 7882,
      "ଦଶମ": 7883,
      "ବାହାରକୁ ": 7884,
      " ସ୍ଥାପନ": 7885,
      "ବିବାଦୀୟ": 7886,
      " ଅପେକ୍ଷା ": 7887,
      "ର କଥା ": 7888,
      " ଜନିତ": 7889,
      "ିମ୍": 7890,
      "ରାଦ": 7891,
      " କଟ": 7892,
      "ା କଂଗ୍ରେସ": 7893,
      "ବୃଦ୍ଧି କର": 7894,
      "ଚରିତ୍ର": 7895,
      " ସ୍ମ": 7896,
      "ଭୁଲ୍": 7897,
      " ଭୋଗ": 7898,
      " ବିଶ୍ୱାସ": 7899,
      "କାଶ୍ମୀ": 7900,
      "ମୁତାବକ": 7901,
      " ପ୍ରତିବାଦ": 7902,
      "ଓଡ଼ିଆ ପୁଅ": 7903,
      "ବିରୋଧୀ ଦଳ": 7904,
      "ଖାନା ": 7905,
      "େଟର ": 7906,
      " ଭାର": 7907,
      "ଗତ ୨୪ ଘଣ୍ଟାରେ ": 7908,
      "୬୨": 7909,
      "ା କଲେ ": 7910,
      "ି ଏବଂ": 7911,
      " ନିଯୁକ୍ତି ": 7912,
      " ଘଟଣାରେ ": 7913,
      "ଜଣେ ବ୍ୟକ୍ତି ": 7914,
      " ସମ୍ପର୍କ": 7915,
      " ଖେଳି ": 7916,
      " ୟୁକ୍ର": 7917,
      "ମାତ୍ରେ ": 7918,
      " ଟେକ୍": 7919,
      "ୱାନ": 7920,
      "se ": 7921,
      "ଧାର୍ଯ୍ୟ": 7922,
      "ବ୍ୟବହାର କରି ": 7923,
      "ର ସରକାର": 7924,
      "ଯୋଗ ଦେଇ": 7925,
      "ତୋ": 7926,
      "ଦେହାନ୍ତ": 7927,
      "ରେ ଫ": 7928,
      "ମାର୍କ": 7929,
      "ାବା": 7930,
      "ତ୍ମହତ୍ୟା ": 7931,
      "କମିଟି ": 7932,
      " ବୟସ୍କ ": 7933,
      "ପୋଖରୀ": 7934,
      " ଇନିଂସ": 7935,
      " ଉଦ୍ୟୋଗ": 7936,
      "ାପତି": 7937,
      "କାତା ": 7938,
      "ଓଜନ": 7939,
      "କରୋନା": 7940,
      "ଶୁଭେଚ୍ଛା ": 7941,
      "the f": 7942,
      "21": 7943,
      " ବଙ୍ଗ": 7944,
      "ପ୍ରାଚ": 7945,
      "ନିର୍ଯାତ": 7946,
      " ବର୍ଷରେ ": 7947,
      "ଯେପରିକି ": 7948,
      "ବୃଷ": 7949,
      "ସିଆଲ୍": 7950,
      "କାର୍ଯ୍ୟାନୁଷ୍ଠାନ ଗ୍ରହଣ": 7951,
      "ସନ୍ତୁଷ୍ଟ": 7952,
      "ବିକ୍ଷୋଭ": 7953,
      "ଆଶଙ୍କ": 7954,
      " ଏଥିପାଇଁ": 7955,
      "ଆଇନ୍": 7956,
      "ପଡ଼ିବ ": 7957,
      "ପ୍ରତିନିଧି ": 7958,
      "ସୋସିଆଲ ମିଡିଆ": 7959,
      "ୋତ୍ସବ": 7960,
      " ବାବଦ": 7961,
      " ପଂଚାୟତ": 7962,
      " କାର୍ୟ୍ୟ": 7963,
      "ଉପସ୍ଥାପନ": 7964,
      "ଗାଈ": 7965,
      "ବସି ": 7966,
      " ଦେଇଛି": 7967,
      "୫୩": 7968,
      " ଜୀ": 7969,
      " ସଂସ୍କୃତି": 7970,
      "ି ପୋଲିସ": 7971,
      "ନା କରି ": 7972,
      "ଯାବ": 7973,
      " ସେନ": 7974,
      "inter": 7975,
      " ସୁଦ୍ଧ": 7976,
      " ଓମିକ୍ର": 7977,
      "ଦ୍ବାର": 7978,
      "ଗ୍ରାହକ ": 7979,
      " ବନ୍ଧୁ": 7980,
      " ଜଡ଼ିତ": 7981,
      "ନ ଥିବା ": 7982,
      " କୃଷ୍ଣ": 7983,
      "ଐତି": 7984,
      "ମାରି ": 7985,
      "୦୩": 7986,
      "ଜୀବନଚର୍ଯ୍ୟ": 7987,
      "ରେ ରହୁଥିବା ": 7988,
      "Edit": 7989,
      "୬୪": 7990,
      "ରେ ପହଞ୍ଚିଛି ": 7991,
      "ସ ": 7992,
      " ମଲ": 7993,
      "ଲାଗି": 7994,
      "ର ବ୍ଲ": 7995,
      "ରାଜସ୍ୱ": 7996,
      "କ୍ଷି": 7997,
      "ନିର୍ଦ୍ଧାରିତ": 7998,
      "ଗର୍": 7999,
      "ବିଶ୍ୱର ": 8000,
      "ପ୍ରଶାସନ ": 8001,
      " ସରକାରୀ ": 8002,
      "ଧାନରେ ": 8003,
      "ସ୍ୱାର୍ଥ": 8004,
      "ମେଷ": 8005,
      "ୁ୍ୟ": 8006,
      "ତାଙ୍କ": 8007,
      " ବିଲ୍": 8008,
      "ଯାହାଦ୍ୱାରା ": 8009,
      "ପଣ୍ଡ": 8010,
      " ମୁହଁ": 8011,
      "ମାସ୍": 8012,
      "rig": 8013,
      "ଉପକୃତ": 8014,
      "ୁହାଁ": 8015,
      "ଏହିଭଳି ": 8016,
      " ରାତି ": 8017,
      "ାର ବିଷୟ": 8018,
      "।\n2. ": 8019,
      "ଆସନ": 8020,
      "ଜାନୁଆରୀ ": 8021,
      "ମିଳିଛି": 8022,
      " ପଜିଟିଭ୍": 8023,
      "Wi": 8024,
      "କେଣ୍ଡ": 8025,
      " ୨୦୨୧": 8026,
      " ଅନୁକୂଳ": 8027,
      "ର ସଂ": 8028,
      "ରଖନ୍ତୁ ": 8029,
      "ସମ୍ବାଦ": 8030,
      "କରିବା ପାଇଁ": 8031,
      " ସୃଷ୍ଟି ହୋଇ": 8032,
      "ୋତ୍ତମ": 8033,
      "enc": 8034,
      " ଭୁଲ": 8035,
      "୍ତ୍ତିକ ": 8036,
      "ିତ ହୋଇଥିଲା": 8037,
      ".)- ": 8038,
      "ରହିଥିଲା": 8039,
      " ସମ୍ପାଦ": 8040,
      "ମୋଦୀ": 8041,
      " ହୃ": 8042,
      "ଞ୍": 8043,
      "ଭର୍": 8044,
      "େମୁଣ୍ଡ": 8045,
      "ବହୁଳ": 8046,
      "ସ୍ତର ": 8047,
      "ନୟାଗଡ": 8048,
      "କଣ୍ଟ": 8049,
      " ଆକ୍ରାନ୍ତଙ୍କ ସଂଖ୍ୟା ": 8050,
      "ଚନ୍ଦନ": 8051,
      " ଗ୍ରୁ": 8052,
      " କରିଥିଲ": 8053,
      "ରୁ ୩": 8054,
      "ଲକ୍ଷ୍ନୌ": 8055,
      " ଏମ": 8056,
      " ପୃଷ୍ଠ": 8057,
      "େରା": 8058,
      "ଠାରୁ ଅଧିକ ": 8059,
      " ଗୁରୁବ": 8060,
      "websit": 8061,
      "ସାମ୍ବାଦିକ": 8062,
      "ତାଙ୍କର": 8063,
      " ମଇ": 8064,
      "January ": 8065,
      "ସେଣ୍ଟ": 8066,
      "ମ୍ଭୀର ": 8067,
      "ଚାଷୀମାନେ ": 8068,
      "ain": 8069,
      "ସୂଚନା ଦିଆଯାଇଛି": 8070,
      " ବାଣିଜ୍ୟ": 8071,
      "ାରେ ଥିବା ": 8072,
      " ଦିନିକିଆ": 8073,
      " ପ୍ରାଥମିକ ": 8074,
      "ବିକଳ୍ପ": 8075,
      " ହକି ": 8076,
      " ହିତାଧିକାରୀ": 8077,
      " ଥିବାବେଳେ ": 8078,
      "ଭୂତାଣୁ ": 8079,
      "ଘରକୁ ଫେର": 8080,
      "ଜମା ": 8081,
      "ମହାନଦୀ": 8082,
      " ରାଶି ": 8083,
      "ବନ ": 8084,
      "ୁରା": 8085,
      "ଶ୍ରଦ୍ଧାଳ": 8086,
      "ଦ୍ୱୀପ": 8087,
      " ଆତଙ୍କବାଦୀ": 8088,
      "ରେ କରା": 8089,
      "କରାଯାଇ": 8090,
      " ସ୍ଥଳ": 8091,
      " ଜନସାଧାରଣ": 8092,
      "ନ୍ତର୍ଜାତ": 8093,
      "ତା ପାଇଁ": 8094,
      "ରେ ତାଙ୍କ ": 8095,
      "ାଧୀନ ": 8096,
      "ହସ୍ତାନ୍ତର": 8097,
      "ଙ୍ଘ": 8098,
      "ublished": 8099,
      " ଟୁ": 8100,
      "ା କମି": 8101,
      "ନବା": 8102,
      "ରେ କୁହା": 8103,
      " ଆମେରିକା ": 8104,
      "ଣ୍ତ": 8105,
      " ପାଣିପାଗ": 8106,
      " ନେଇଥିବା ": 8107,
      " ଆଦ": 8108,
      "ୁନାହିଁ": 8109,
      "ଦେଲେ": 8110,
      " ଗତି ": 8111,
      "ମହାନ୍ତି": 8112,
      "ନାରୀ": 8113,
      " ଗ୍ରୀ": 8114,
      "ଟିକେ ": 8115,
      "ଭଣ୍ଡାର": 8116,
      "ଟେନ୍": 8117,
      ".) - ": 8118,
      "ଦିନଟି ": 8119,
      " ପରୀକ୍ଷଣ": 8120,
      "ଶ୍ରୀ ପ୍ରଧାନ": 8121,
      " ହସ": 8122,
      "ଅଗ୍ନିଶମ": 8123,
      "ହ୍ୱ": 8124,
      "ବାତିଲ": 8125,
      "ଜବ": 8126,
      "ir ": 8127,
      "ଝୁଲ": 8128,
      "୮୯": 8129,
      " ମାର୍ଗ": 8130,
      "Li": 8131,
      " ହେବା ପାଇଁ": 8132,
      "ram": 8133,
      " ଟଙ୍କା": 8134,
      "ସମ୍ବୋଧ": 8135,
      "ଅନୁସାରେ": 8136,
      "ଆମ୍ଭ": 8137,
      " କ୍ୟାମ୍ପ": 8138,
      "ରେ ସର୍ବାଧିକ ": 8139,
      " କରିପାରନ୍ତି ": 8140,
      "ଶ୍ରୀମତ": 8141,
      " ଲିଟର ": 8142,
      "ାର କାରଣ": 8143,
      "ପ୍ରୀତ": 8144,
      "ଘଟିଥିଲା ": 8145,
      "ହୃଦ": 8146,
      "ବଲାଙ୍ଗିର ": 8147,
      "ଫିଙ୍ଗ": 8148,
      "Your ": 8149,
      "ୋସିଏସ": 8150,
      "add": 8151,
      " ପଟ": 8152,
      " ଇନଷ୍ଟ": 8153,
      " ରହିଥାଏ": 8154,
      "ତାଙ୍କର ମୃତ୍ୟୁ ": 8155,
      " ହେବାରେ ଲାଗିଛି ": 8156,
      "ଅସ୍ତ୍ର": 8157,
      " ଗାଇଡ": 8158,
      "ରାହ": 8159,
      " ସାମଗ୍ରୀ ": 8160,
      "ଏଣିକି ": 8161,
      "୦୪": 8162,
      "ନମୁନା ": 8163,
      "ାବିତ୍": 8164,
      "।[": 8165,
      "ଏସି ": 8166,
      "ବାଧ୍ୟତାମୂଳ": 8167,
      "ି କେହି ": 8168,
      " ଥାଏ": 8169,
      "ଡ଼ାନ୍ତ": 8170,
      "ିସବୁ ": 8171,
      "ାଉନ୍": 8172,
      "ଦିନ ହେବ": 8173,
      " ନେଇଥିଲେ": 8174,
      "ରେ ରହି ": 8175,
      "ାମଚ": 8176,
      " ଚାକି": 8177,
      "ରାହୁଲ ଗାନ୍ଧ": 8178,
      " ସେତିକି ": 8179,
      "ନେଇଥିବା ": 8180,
      "ରିତ": 8181,
      "ୋକ୍ତ": 8182,
      " ସଂଘର୍ଷ": 8183,
      "ପିଟି ": 8184,
      "୦୬": 8185,
      "ରାଉରକେଲା ": 8186,
      "୪ଜଣ": 8187,
      "ଙ୍କ ପାଖ": 8188,
      "English": 8189,
      " ଗ୍ରାମର ": 8190,
      " ପଟେଲ": 8191,
      "ଐତିହ୍ୟ": 8192,
      "ନ୍ଧୁ ": 8193,
      " ଧାରଣ": 8194,
      "ରାଷ୍ଟ୍ରପତି": 8195,
      " ମାର୍": 8196,
      "ମାନଙ୍କରେ ": 8197,
      " ଫସଲ": 8198,
      "ନୀୟ ଘଟଣା ": 8199,
      "ଏହି କାରଣରୁ ": 8200,
      "ରିଫ": 8201,
      "ଦାବାଦ": 8202,
      "ଦିନିକିଆ": 8203,
      "ସେଠ": 8204,
      " କଂ": 8205,
      "ଅଟୋ": 8206,
      " ପିଛା ": 8207,
      "ନିଶ": 8208,
      " ହୋଇପଡ": 8209,
      " ବାଲେ": 8210,
      "କ୍ରାଇମବ୍ରାଞ୍ଚ": 8211,
      "ଆଜି ସକାଳେ ": 8212,
      "ନିଧ": 8213,
      " ନେତା": 8214,
      "ଝାଡ଼": 8215,
      "ରନ": 8216,
      "ସାହସ": 8217,
      "ଆଗାମୀ ଦିନରେ ": 8218,
      "ସ୍ଥାୟୀ": 8219,
      "।' ": 8220,
      "ବ୍ଲକ୍": 8221,
      " ସବୁଠାରୁ ": 8222,
      "ଘୋଷଣା କରିଛନ୍ତି ": 8223,
      "ଲାଇନରେ ": 8224,
      " ଦର": 8225,
      "ାଏଲ": 8226,
      "ସରପଞ୍ଚ": 8227,
      "ବ୍ୟବହାର ": 8228,
      " ବେଶ୍": 8229,
      "ath": 8230,
      "ଭୀ": 8231,
      "ହୋଇଥିଲେ ": 8232,
      " ଲଢ଼": 8233,
      "ଲକ୍ଷ ଟଙ୍କା ": 8234,
      "ାଯାଇ": 8235,
      "ମହାନ୍ତି ": 8236,
      "https": 8237,
      " ସର୍ବାଧିକ ": 8238,
      " ଜରିଆ": 8239,
      "ପ୍ରକାଶ କରିଛନ୍ତି ": 8240,
      "ା କରାଯାଉଛି": 8241,
      "ାଣୀ": 8242,
      "ଶୁଭ ରଙ୍ଗ": 8243,
      "ରିମାନା ": 8244,
      " କରିଥିବାରୁ ": 8245,
      " ପ୍ରଭାବରେ ": 8246,
      "lo": 8247,
      "ଗୃ": 8248,
      "Power": 8249,
      "ସାୟ": 8250,
      "ବିଶ୍ଵ": 8251,
      "ୂଚନା ": 8252,
      "ଏହା ଉପରେ ": 8253,
      "ଜେନ୍ସ": 8254,
      "ରୁମ": 8255,
      "ରେ ପଡ଼": 8256,
      "ରେ ନିଜ": 8257,
      "ଷ୍ଟି": 8258,
      "ଆଗରୁ ": 8259,
      "Post ": 8260,
      "େକ୍ସ": 8261,
      "ଆସିବ": 8262,
      "ାଚଳ": 8263,
      " ବିପକ୍ଷରେ ": 8264,
      "ାହତ": 8265,
      "ତିନିଟି ": 8266,
      " ସାଗ": 8267,
      "ା ଗାନ୍ଧ": 8268,
      "ଟିକସ": 8269,
      " ସଭ୍ୟ": 8270,
      "ସୁପର": 8271,
      "ଅଭିନେତ୍ରୀ ": 8272,
      "କେହ": 8273,
      "ରେ ପକାଇ": 8274,
      "ରେ ଆଜି ": 8275,
      "ଠାକୁର": 8276,
      "ଗଡା ": 8277,
      "ାପୁର": 8278,
      "ଟଲ": 8279,
      "ଆମ୍ବୁଲାନ୍ସ": 8280,
      "ଦମ୍ପ": 8281,
      " ବିଶ୍": 8282,
      " ଶର୍ମା": 8283,
      "୍ୟାକ": 8284,
      " ଭଦ୍ର": 8285,
      "ଟିକେଟ": 8286,
      "ଦୁଲ": 8287,
      "ିତ ହୋଇଥିଲେ ": 8288,
      "ାପିତ": 8289,
      "ପ୍ରମୋଦ": 8290,
      "ବୁଦ୍ଧ": 8291,
      "ଶୃଙ୍ଖଳା ": 8292,
      "ଖାଇବାକୁ ": 8293,
      "ଜଣେ": 8294,
      " ଷ୍ଟ୍ର": 8295,
      " ଆପ୍": 8296,
      " ଅସ୍ତ୍ର": 8297,
      "ହାତୀ": 8298,
      "ସିରି": 8299,
      "ା କହିଛନ୍ତି": 8300,
      "ସମୃଦ୍ଧ": 8301,
      "ଅଭିଯୋଗ ହୋଇଛି": 8302,
      "ିକିତ୍ସାଧୀନ": 8303,
      "ର କୋ": 8304,
      "ନର୍": 8305,
      "ଲଟ": 8306,
      "ଛୁଟି ": 8307,
      "ଆଘାତ": 8308,
      "ବରଗଡ": 8309,
      " ଓ ଅନ୍ୟ": 8310,
      "ବାଲେଶ୍ୱର": 8311,
      "ଷ୍ଣୁ ": 8312,
      "ିଲେଣି ": 8313,
      "ଚିହ୍ନ": 8314,
      "ପ୍ରଦୂଷଣ": 8315,
      "ଲୁଣ": 8316,
      "ରୋଷେଇ": 8317,
      " ଦାବି": 8318,
      "ଜାଇନ": 8319,
      " ତମ": 8320,
      "ାଉଛି": 8321,
      "ୋଶୀ ": 8322,
      " କଥା": 8323,
      "ନେତାଙ୍କ ": 8324,
      " ପ୍ରଶାସନ": 8325,
      " ଯାତ୍ରା ": 8326,
      "ାର ସ୍ୱ": 8327,
      " କରୁ ": 8328,
      " ଚିକିତ୍ସା ": 8329,
      "ଭାରତ ସରକାର": 8330,
      "ରେ ବିଜୟ": 8331,
      "ା କିଛି ": 8332,
      "ହୁଏତ": 8333,
      " ଔଷଧ": 8334,
      "କ୍ଷିତ": 8335,
      "ect ": 8336,
      " ଶର୍ମା ": 8337,
      " ତାହ": 8338,
      "ନ ଦେଇ": 8339,
      "the": 8340,
      " ଏତେ ": 8341,
      "ରଣୀ": 8342,
      "୍ୟାର": 8343,
      "ସମ୍ପର୍କ": 8344,
      "ି କରାଯାଇଥିଲା": 8345,
      " ଭୂମ": 8346,
      "ଏଆଇ": 8347,
      "ମୃତକ ": 8348,
      " ହର": 8349,
      "୮ ": 8350,
      "ବୋଲି ସେ ": 8351,
      "Goo": 8352,
      " ରହିଛନ୍ତି": 8353,
      "କ୍ରୀଡ଼": 8354,
      " ଶକ୍ତ": 8355,
      "ଇନ୍ଦ": 8356,
      "ିକ ଓ": 8357,
      "ିଲ୍ଡ": 8358,
      " କହି ": 8359,
      "କରିଥିଲେ": 8360,
      "ାଟି": 8361,
      "ହକି ": 8362,
      "ଷ୍ଟେଲ": 8363,
      "ବର୍ଷରେ ": 8364,
      "ଭିନ୍ନ ଭିନ୍ନ": 8365,
      "ଙ୍କ ନିକଟ": 8366,
      "ସ୍ତୁ": 8367,
      "ିଯାଇଛି ": 8368,
      " ନିଜକୁ ": 8369,
      "ଉଦ୍ଦେଶ୍ୟରେ ": 8370,
      "ରାଜଧାନୀ": 8371,
      "Last ": 8372,
      "ବାୟୁ": 8373,
      "ଏସ୍ପି ": 8374,
      "ଭିତରୁ ": 8375,
      "ଦେଖିବାକୁ ମିଳିଥିଲା ": 8376,
      "ଜିନ": 8377,
      "ମହାମାରୀ ": 8378,
      "ଏହିସବୁ ": 8379,
      " ବିଭାଗ ": 8380,
      "read ": 8381,
      "୍ୟାଙ୍କ": 8382,
      "ସଙ୍ଗୀତ": 8383,
      "ାଇଟ୍": 8384,
      " ଫୋନ୍": 8385,
      "ନିଶ୍ଚୟ": 8386,
      "ସାବଧାନ": 8387,
      "ନିଷ୍ପତି ": 8388,
      "୫୧": 8389,
      " ତାପ": 8390,
      "ନିଆଁ ଲାଗ": 8391,
      "ନିନ୍ଦ": 8392,
      "ବୁକ୍": 8393,
      " ଏନ୍": 8394,
      " ମୁଦ୍ର": 8395,
      " ତହସିଲ": 8396,
      "ଆହୁରି ଦେଖନ୍ତୁ ": 8397,
      "ପତ୍ତି ": 8398,
      " ସମ୍ପତ୍ତି ": 8399,
      "ର୍ଣ୍ଣାମେଣ୍ଟ": 8400,
      " ବର୍": 8401,
      "ାର୍ବଜ": 8402,
      "ଯିବା ସହ": 8403,
      "ର ଫ": 8404,
      "କ୍ଷିପ୍ତ": 8405,
      " ଦିନିଆ": 8406,
      "ହୁଏ ": 8407,
      "ଏକାଠ": 8408,
      " କାର୍ଯ୍ୟାଳୟରେ ": 8409,
      " କରାଯାଇଥିବା ବେଳେ ": 8410,
      "ରେ ଆୟୋଜିତ": 8411,
      "ୁଦ୍ରିକ ": 8412,
      "ା ସୃଷ୍ଟି କର": 8413,
      "ଜିର ": 8414,
      "ଜିଲାରେ ": 8415,
      "ମାନଙ୍କର": 8416,
      " ଓ ଗ": 8417,
      "00 ": 8418,
      " କଣ୍ଟ": 8419,
      " ସମୁଦ୍ର": 8420,
      "ରେ ଆଗ": 8421,
      " ପଦାର୍ଥ": 8422,
      "ସ୍ଥାପିତ": 8423,
      "ଏବଂ ଅ": 8424,
      " କରୋନାରେ ": 8425,
      "କ୍ରମାଗତ": 8426,
      "ିକରେ ": 8427,
      "୭୧": 8428,
      " ଚଳାଇ": 8429,
      "ହିଣୀ": 8430,
      "୍ର୍": 8431,
      "ନୀଲ": 8432,
      "ପାରିନ": 8433,
      "ତ୍ରିପାଠ": 8434,
      "ପରାସ୍ତ": 8435,
      " ନନ୍ଦ": 8436,
      "ନାବାଳିକା ": 8437,
      "ଅଗ୍ର": 8438,
      " ପୁସ୍ତ": 8439,
      "ଯେତିକି ": 8440,
      "ାୟୀ": 8441,
      "ନିଜ ନିଜ": 8442,
      "Ex": 8443,
      " ରହିବାକୁ ": 8444,
      "କରୋନା ଆକ୍ରାନ୍ତ": 8445,
      "ନିମ୍ନ ": 8446,
      "4. ": 8447,
      "ଜେଣ୍ଟ": 8448,
      "ସୂଚନାନୁ": 8449,
      "୍ୟାପ": 8450,
      " ସଚେତନ": 8451,
      "ାବାର୍ତ୍ତ": 8452,
      "ପୁରର ": 8453,
      "co": 8454,
      "ଯାଦବ": 8455,
      "ଟ୍ବି": 8456,
      " ଗୁଡ଼ିକ ": 8457,
      "ାର ଏକ ": 8458,
      " କହିଛି": 8459,
      "ମୂଳକ ": 8460,
      " ବାବଦରେ ": 8461,
      "ଖସି ": 8462,
      "ବଂଶ": 8463,
      "news": 8464,
      "ଆଦର୍ଶ": 8465,
      "ନୁଷ୍ଠାନ": 8466,
      "ବାସି": 8467,
      "ାର୍ଣ୍ଣିଂ": 8468,
      "ବୃହତ": 8469,
      "ବିଭାଗର ": 8470,
      "ଡିକୁ ": 8471,
      "ମାଧ": 8472,
      " ପଞ୍ଚ": 8473,
      "ରାଶିର ": 8474,
      " ସମିତ": 8475,
      " ପ୍ରଶ୍ନ ": 8476,
      " ବିସ୍ତ": 8477,
      "ବ୍ଲକ": 8478,
      "ଆରାଧ": 8479,
      "ଟିଶ": 8480,
      "ିଙ୍କୁ ": 8481,
      " ତ୍ର": 8482,
      "ସୂଚନା ଅନୁଯାୟୀ ": 8483,
      "ଦାରି": 8484,
      "ଅଭିଭାବ": 8485,
      "କାଗଜ": 8486,
      "Related ": 8487,
      " ମୃତ୍ୟୁ ସଂଖ୍ୟା ": 8488,
      "ଳାସ": 8489,
      " ପାଞ୍ଚ": 8490,
      " ଠିକ୍": 8491,
      " ମାନବ": 8492,
      " କିଛି": 8493,
      "ଜେନ୍ସି ": 8494,
      " ସପ୍ତାହରେ ": 8495,
      "୭୪": 8496,
      "ମୋହ": 8497,
      "ers ": 8498,
      "war": 8499,
      " ସୋସିଆଲ ମିଡିଆରେ ": 8500,
      "ରାଜଧାନୀରେ ": 8501,
      "repl": 8502,
      "ପରବର୍ତ୍ତୀ ସମୟରେ ": 8503,
      "ନିର୍ଦ୍ଦେଶ ଦେଇଛନ୍ତି ": 8504,
      "ୂର୍ବରୁ ": 8505,
      "ଉଦ୍ୟୋଗ": 8506,
      "ଖୋଲା ": 8507,
      " ପୁରୁଣା ": 8508,
      "ଳୟ": 8509,
      "ମ୍ଫ": 8510,
      "ଏପଟେ ": 8511,
      "ପାରମ୍ପରିକ ": 8512,
      "ଶାସିତ": 8513,
      "ମସ": 8514,
      "ଚ୍ଛାସେବ": 8515,
      "ଟଙ୍କା": 8516,
      "ଭିବୃଦ୍ଧି ": 8517,
      ") , ": 8518,
      "ସ୍ମିତ": 8519,
      "ଧାର୍ମିକ ": 8520,
      "ମ୍ବା": 8521,
      "ପହଂଚ": 8522,
      "ଶୁଭ ଅଙ୍କ ": 8523,
      "ଟାଙ୍ଗ": 8524,
      "ଦେଇଥାଏ": 8525,
      "ବିପୁଳ": 8526,
      "act ": 8527,
      "ି ପାଇଁ": 8528,
      " କୋଲ": 8529,
      "ଦିନିଆ": 8530,
      " ପରିସ୍ଥିତିରେ ": 8531,
      "ଆୟୋଗ": 8532,
      "ାଙ୍କ ସହ": 8533,
      "ାୟାମ": 8534,
      "ଉଜ୍ଜ": 8535,
      " ସାଂ": 8536,
      "ସଂଗ": 8537,
      "ସୂଚନାଯୋଗ୍ୟ ଯେ": 8538,
      " ସୁସ୍ଥ ହୋଇ": 8539,
      "ଭ୍ରମଣ": 8540,
      "ନଥିଲେ": 8541,
      "ଭାଇରସ୍": 8542,
      "ମୁଖ୍ୟତଃ": 8543,
      " ଭାରତର ": 8544,
      " ୬୦": 8545,
      " ବାସି": 8546,
      "ତ୍ତ୍": 8547,
      " ମୁତୟନ": 8548,
      " କର୍ମଚାରୀମାନେ ": 8549,
      "ସମ୍ପର୍କୀୟ": 8550,
      "ି ପଡ": 8551,
      "ରେ ସାମ": 8552,
      "ୁନ ": 8553,
      "ଭାନ": 8554,
      "ଅନନ୍ତ": 8555,
      "ହାତୀ ": 8556,
      "କୁ ନିଆ": 8557,
      " କୃଷକ ": 8558,
      " ପରିଦର୍ଶନ": 8559,
      "Apri": 8560,
      "ମିଲ": 8561,
      "ଅଭିଯୋଗ ଆଣ": 8562,
      "ଆଳ": 8563,
      "ଜେନା ": 8564,
      "Sh": 8565,
      "ମେଶ": 8566,
      " ଚାହ": 8567,
      "ଷ୍ଟୋ": 8568,
      " ହ୍ରାସ ପାଇ": 8569,
      "ସତ୍ତ୍ୱେ ": 8570,
      "ଶାଳୀ": 8571,
      " ମମତା ": 8572,
      "ିୟମ": 8573,
      "ନଙ୍କୁ ": 8574,
      " ବେହେର": 8575,
      "ସୀମ": 8576,
      "ାର ସମ୍ଭାବନା ରହିଛି": 8577,
      "ରୁ ଇସ୍ତଫା ": 8578,
      "iel": 8579,
      "ଜଳସେ": 8580,
      "କେନ୍ଦ୍ରାପଡ଼ା ": 8581,
      " ପଞ୍ଜ": 8582,
      " ହୋଇଯାଇଥିଲା ": 8583,
      "ସାଜ": 8584,
      "ଲପୁର ": 8585,
      "ମଡେଲ": 8586,
      " ଓଡ଼ିଶାର": 8587,
      " ମୋବାଇଲ": 8588,
      "ବଦ୍ଧ": 8589,
      "2020": 8590,
      "ପାରିଶ": 8591,
      "ବିକଶିତ": 8592,
      "ସୁଥିବା ": 8593,
      " ହେବାକୁ ଯାଉଛି ": 8594,
      "ସମ୍ମାନିତ": 8595,
      "ଥିବେ": 8596,
      "ame": 8597,
      "ା କରୁଛି ": 8598,
      " ସଂକ୍ରମିତ ହୋଇ": 8599,
      "ଗ୍ରାମବାସୀ": 8600,
      "ଇନଷ୍ଟ": 8601,
      "ଦାନ୍ତ": 8602,
      "ଆଧାରିତ": 8603,
      "ଚିନ୍ତା ": 8604,
      "ହାରୀ": 8605,
      "ନାମାଙ୍କ": 8606,
      " ଦିଲ୍ଲୀ": 8607,
      "ବାମ": 8608,
      "ଅପରପକ୍ଷ": 8609,
      "ଡ଼ିକାଲ": 8610,
      "time ": 8611,
      "ାବଶ୍ୟକ ": 8612,
      " ୨୦୨୦": 8613,
      "ଦିନ ପୂର୍ବରୁ ": 8614,
      "has ": 8615,
      "ଏହା ହେଉଛି ": 8616,
      "ଙ୍କ ନେତୃତ୍ୱରେ ": 8617,
      "ଲାଗିଥିବା ": 8618,
      "ସଚେତନତା ": 8619,
      "ଚଳାଚଳ": 8620,
      "ଗୁଣ୍ଡ": 8621,
      " ପଞ୍ଜାବ": 8622,
      "ରେ କେବଳ": 8623,
      "P ": 8624,
      "ସଂପର୍କ ": 8625,
      "ଣାକୁ ": 8626,
      " ସଙ୍କଟ": 8627,
      "ପ୍ରତାପ": 8628,
      " ଶୃଙ୍ଖ": 8629,
      "ଅପରାହ୍ନ ": 8630,
      "ଗ୍ନିଶମ": 8631,
      " ୨ଟି ": 8632,
      " ଛୁଇଁ": 8633,
      "ଦେବା ପରେ ": 8634,
      "ନ୍ୟାସନାଲ": 8635,
      "ଗ୍ରହଣ କରିଥିଲେ ": 8636,
      " ବାରମ୍ବ": 8637,
      "ାକୁ": 8638,
      "ନ୍ଦର ": 8639,
      "ବିରୋଧୀ": 8640,
      "କେନ୍ଦ୍ରାପଡା ": 8641,
      " ମିଡ଼ିଆ": 8642,
      "e of ": 8643,
      "କୁଦ": 8644,
      " ବ୍ୟକ୍ତିଗତ": 8645,
      "୭୩": 8646,
      "ବସନ୍ତ": 8647,
      "ରେ ପହଂଚ": 8648,
      "ାହାଣ୍ଡି ": 8649,
      " ଆସିବା ପରେ ": 8650,
      "୯୫": 8651,
      "କାରବାର": 8652,
      "ା କରୁଛନ୍ତି ": 8653,
      "ଡିଜେଲ": 8654,
      " ରୋଗୀ": 8655,
      "ା କୁ": 8656,
      "ପ୍ରଧାନମନ୍ତ୍ରୀ ନରେନ୍ଦ୍ର ମୋଦି ": 8657,
      "କଲ୍ୟାଣ": 8658,
      "ତାପରେ ": 8659,
      "ପ୍ରଥମ ଥର ପାଇଁ": 8660,
      " ସନ୍ତାନ": 8661,
      " ମହାନ": 8662,
      " ଦେବା": 8663,
      "ବରଣ": 8664,
      " ବିଧାୟକ": 8665,
      "ରେ ରହିଛି ": 8666,
      "ଠାବ": 8667,
      " ସଂସ୍କାର": 8668,
      "ଅନୁଗୋଳ": 8669,
      "Sub": 8670,
      "୬୩": 8671,
      " ବ୍ୟୟ": 8672,
      "ତେଜ": 8673,
      "ପରୀକ୍ଷଣ": 8674,
      "ପରିଚାଳିତ": 8675,
      "ric": 8676,
      "ଗ୍ରାମବାସୀ ": 8677,
      " କର୍ପୋର": 8678,
      "Goog": 8679,
      "କେନ୍ଦ୍ରମନ୍ତ୍ରୀ ": 8680,
      "ଯୁବକ": 8681,
      "ଲଢ": 8682,
      "ନବୀନ ": 8683,
      " ମୋତେ ": 8684,
      "ଉଦୟ": 8685,
      "ମାତା ": 8686,
      "ନା କରି": 8687,
      "comment": 8688,
      "l  ": 8689,
      "ଣମୂଳ": 8690,
      "ଏକ ବଡ଼": 8691,
      " ତୁମ": 8692,
      "ଆୟୁ": 8693,
      "ଟଙ୍କାରେ ": 8694,
      "ର ଭାବେ ": 8695,
      "ାପକ ": 8696,
      "ଯେଉଁଥିପାଇଁ": 8697,
      "Email": 8698,
      "ଭାବି": 8699,
      "ଆଞ୍ଚଳିକ ": 8700,
      "ver": 8701,
      "March ": 8702,
      " ଚଢ଼": 8703,
      "ିବା ସମୟରେ ": 8704,
      " ସହର": 8705,
      "ତାକା ": 8706,
      "ତ୍ୟେକ ": 8707,
      "ତାବରଣ": 8708,
      "ଯୋଜକ ": 8709,
      "ଶୋଭା": 8710,
      "ଏହି କାର୍ଯ୍ୟକ୍ରମରେ ": 8711,
      " ଚତୁ": 8712,
      "hour": 8713,
      " ମିଳିଛି": 8714,
      "ସନ୍ଧ୍ୟାରେ ": 8715,
      " ଦିଆଯାଇଥିଲା ": 8716,
      "ସ୍ଥାୟୀ ": 8717,
      "ଞ୍ଚଳର ": 8718,
      "ୁଷ୍ୟ": 8719,
      "ଜାତିର ": 8720,
      "ାବାହ": 8721,
      " ଲିମିଟେ": 8722,
      " ଏକର ": 8723,
      "ସଂଖ୍ୟକ ": 8724,
      "ନିରାଶ": 8725,
      " କର୍ମଚାରୀଙ୍କ ": 8726,
      "ହେବାର": 8727,
      " ଲକ୍ଷ୍ମ": 8728,
      "ଝାରସୁଗୁଡ଼ା ": 8729,
      "ଜିଲ୍ଲା ପରିଷଦ": 8730,
      "ାଗ୍": 8731,
      "ଚ୍ଛି": 8732,
      "ସିଟ୍": 8733,
      " ଜୈ": 8734,
      " ଗାଡ଼ି ": 8735,
      "ାଗାର": 8736,
      "ରେ ସମ୍ପ": 8737,
      "All ": 8738,
      "ମଣି ": 8739,
      "ସାଉ": 8740,
      "ଶସ୍ତ": 8741,
      "ିକୋଣ": 8742,
      "ଶୋଧିତ": 8743,
      "ଭୟଭୀତ": 8744,
      "ପ୍ସ": 8745,
      " ହେଉଥିବା ବେଳେ ": 8746,
      "ଲମ୍ବନ": 8747,
      "ଷା": 8748,
      "ରୁ ୧୦": 8749,
      "ାନ୍ତ୍ରିକ ": 8750,
      " ବାଧ୍ୟ": 8751,
      " କୂ": 8752,
      "ଡକ୍ଟର ": 8753,
      "ପରଲୋକ ": 8754,
      "ବେଳେ": 8755,
      " ବ୍ରହ୍ମ": 8756,
      " ଯନ୍ତ୍ର": 8757,
      " ବନ୍ଧୁ ": 8758,
      "ୟାରୀ ": 8759,
      " ବାଧ": 8760,
      " ୟୁନି": 8761,
      "ଏହି ବୈଠକରେ ": 8762,
      "ବିରୁଦ୍ଧରେ ": 8763,
      " ଦ୍ରୁତ": 8764,
      "ଏପରି ଏକ ": 8765,
      "ମନ୍ଦିର ପ୍ର": 8766,
      "ଶିକ୍ଷାନୁଷ୍ଠାନ": 8767,
      " ସିଷ୍ଟମ": 8768,
      "ଲେଖା": 8769,
      "ାହାଁନ୍ତି": 8770,
      " ଫୋ": 8771,
      "April ": 8772,
      "ଠନ": 8773,
      "କନ୍ୟା ": 8774,
      " ବୈଜ୍ଞାନ": 8775,
      " ଯୁକ୍ତ": 8776,
      "ରୁହ": 8777,
      "ମସିହାରେ ": 8778,
      "ial ": 8779,
      "ନିପରିବା ": 8780,
      " ଯାଇଛି ": 8781,
      "India": 8782,
      " ପାଇଁ ଅ": 8783,
      "ପରିବର୍ତ୍ତେ ": 8784,
      "ଘଟଣାର": 8785,
      "ି କରୋନା ": 8786,
      "ା ବ୍ଲକ ": 8787,
      " ଡାକ୍ତରଖାନାରେ ": 8788,
      "ଅନ୍ଧ": 8789,
      "ପ୍ରଦୀପ୍ତ": 8790,
      " ବିନି": 8791,
      " ମୁକାବିଲା ": 8792,
      " କରା ": 8793,
      "ଏମସି ": 8794,
      "Read": 8795,
      "ଆବାସ": 8796,
      "ଟ୍ରକ୍": 8797,
      " ଜଣଙ୍କ ": 8798,
      "its ": 8799,
      "iz": 8800,
      "ଖୋଳ": 8801,
      "ଚଣ୍ଡ": 8802,
      "କ୍ରୀୟ": 8803,
      " କଳା ": 8804,
      "ବାବୁ ": 8805,
      "ଯୁବକଙ୍କୁ ": 8806,
      "ା କାମ": 8807,
      "ୀତାର": 8808,
      "ସେ ଜଣେ ": 8809,
      " ମୁହାଁ": 8810,
      "ବଢ଼ାଇ": 8811,
      "ର୍ଦ୍ଧ୍ବ": 8812,
      "ld ": 8813,
      "ମହାପ୍ରଭୁଙ୍କ ": 8814,
      "ରଘୁ": 8815,
      " ମିନିଟ": 8816,
      " ତୈଳ": 8817,
      "ରୁ ୫": 8818,
      "କୁମାର": 8819,
      " ସୁଧ": 8820,
      " ଧରଣର ": 8821,
      "ହାଜ": 8822,
      "ପରଠାରୁ ": 8823,
      "ପରିବାରର ": 8824,
      "ଖିଆ": 8825,
      "ଜେର": 8826,
      " ସଙ୍ଗୀତ": 8827,
      " ଭୁବନେଶ୍ୱ": 8828,
      "କାରୀମାନେ ": 8829,
      "୦୧": 8830,
      "ୋଷଣ": 8831,
      "େନର ": 8832,
      "ା କରିବା ପରେ ": 8833,
      "ଗୁଳି": 8834,
      "ପ୍ରତିରକ୍ଷା ": 8835,
      " ମହିଳାଙ୍କୁ ": 8836,
      " କରିବା ଦ୍ୱାରା ": 8837,
      "ସେ ନେଇ": 8838,
      " ବେଳ": 8839,
      "ଅନୁମୋଦନ": 8840,
      "ove ": 8841,
      " ରଖିଛନ୍ତି ": 8842,
      "ଆଗେଇ": 8843,
      "ଦେବୀ ": 8844,
      "କମ୍ପାନୀ": 8845,
      "ବେଆଇନ ": 8846,
      "ଧୀରେ ଧୀରେ ": 8847,
      "ୋତ୍ସାହନ ": 8848,
      " ମାଇ": 8849,
      "ପ୍ରଶାସନିକ ": 8850,
      "କାକରଣ": 8851,
      "ର ବୃଦ୍ଧ": 8852,
      " ବିଦ୍ୟୁତ": 8853,
      " ଯୋଗ୍ୟ": 8854,
      "ବାବଦ": 8855,
      "ର କାମ": 8856,
      "ଯେହେତୁ ": 8857,
      " ଡ୍ରାଇଭ": 8858,
      "ରେ ଆଲୋଚନା ": 8859,
      "ମତ୍ସ୍ୟ": 8860,
      "ଏହାପୂର୍ବରୁ ": 8861,
      "ଶୈଳୀ": 8862,
      " ପ୍ରଦୀପ": 8863,
      "କୁ ରୋକ": 8864,
      "ଜଳବାୟୁ ": 8865,
      "ମଧ୍ୟମ": 8866,
      "ଦର୍ଶକ ": 8867,
      "ା କୌଣସି ": 8868,
      "ସେନେଇ": 8869,
      " ପୋର୍ଟ": 8870,
      "୍ଦ": 8871,
      " ଏୟାର": 8872,
      "ଶ୍ରୀଜଗନ୍ନାଥ": 8873,
      "ity ": 8874,
      "ସମୀକ୍ଷା ": 8875,
      "ଡେନ୍": 8876,
      " ପ୍ରତିରୋଧ": 8877,
      "ୟମ୍": 8878,
      "ଲୋକସଭା ": 8879,
      "ାକୁ ଆସ": 8880,
      "ଲମ୍ବା ": 8881,
      " ପ୍ରୋ": 8882,
      "କର୍ତ୍ତା ": 8883,
      "ପାସ": 8884,
      "ୁନାହିଁ ": 8885,
      " ଋଣ": 8886,
      " କାଠ": 8887,
      "ରାଓ": 8888,
      "ିଲିୟନ ": 8889,
      "ରେ ରଖ": 8890,
      " ମିଳି": 8891,
      "ିବୁ": 8892,
      " ଦ୍ବାରା ": 8893,
      "ଦକ୍ଷିଣ ଆଫ୍ରିକା ": 8894,
      "OR": 8895,
      "Cor": 8896,
      "www": 8897,
      "ମୁକ୍ତି ": 8898,
      "ଜବରଦସ୍ତ": 8899,
      "ଆଦାୟ": 8900,
      "ରେ ଆକ୍ରାନ୍ତ": 8901,
      " ପ୍ରକାଶ କରିଛନ୍ତି ": 8902,
      " ତ୍ରିପାଠ": 8903,
      ")। ": 8904,
      "ଟିଲ": 8905,
      "ଜଣେ ମହିଳା ": 8906,
      "ଗୁରୁତ୍ବପୂର୍ଣ୍ଣ": 8907,
      " ଦଳରେ ": 8908,
      "ରେ ଆସି ": 8909,
      "ର ଆୟ": 8910,
      "ଭିଜନ": 8911,
      "ାଫ୍": 8912,
      "ମାରି": 8913,
      "କାର୍ଯ୍ୟକ୍ରମରେ ": 8914,
      " ୱାର୍ଡ": 8915,
      "ଚଢ଼ଉ": 8916,
      "୯୪": 8917,
      "ଆମେରିକାର ": 8918,
      " ଭାଙ୍ଗି ": 8919,
      "ଭବାନୀ": 8920,
      "ପ୍ଳ": 8921,
      "ତାକୁ ନେଇ": 8922,
      "ଇଚ୍ଛା ": 8923,
      " ସୂଚନା ଦେଇଛନ୍ତି": 8924,
      "କୁ ବିରୋଧ": 8925,
      " ଭୁବନେଶ୍ୱର ": 8926,
      "ହିମା": 8927,
      " ଉତ୍ତର ": 8928,
      "Sear": 8929,
      "ା କେ": 8930,
      "ଫାଇଦା ": 8931,
      " ନାହାନ୍ତି ": 8932,
      "se": 8933,
      "ଲାର ": 8934,
      "କାର୍ଯ୍ୟାଳୟ": 8935,
      "ସମାପ୍ତ": 8936,
      "ମୁଖ୍ୟ ଶାସନ ସଚିବ": 8937,
      "u ": 8938,
      "ମର ": 8939,
      " ରାଉଣ୍ଡ": 8940,
      "ଦୁବାଇ": 8941,
      "ଯାଉଛନ୍ତି": 8942,
      " ଅଧି": 8943,
      "ସେମାନଙ୍କ": 8944,
      "କାୟ": 8945,
      "କୁ ଅଧିକ ": 8946,
      "ଉଦଘାଟନ": 8947,
      " ଉପକରଣ": 8948,
      "ଭିଲ": 8949,
      "ଡ୍ରଗ୍ସ": 8950,
      " ଡାକ୍ତର ": 8951,
      "ତାରିଖରେ ": 8952,
      "ରିଲ": 8953,
      "ଙ୍କ ସହଯୋଗ": 8954,
      "Samaj": 8955,
      "ପତ୍ନୀ ": 8956,
      "ase ": 8957,
      "ଝେଇ": 8958,
      "ଶୁଖ": 8959,
      "ଶ୍ୟାମ": 8960,
      "ସୌମ୍ୟ": 8961,
      "ଭାରତ ଓ": 8962,
      " ସୁପ୍ର": 8963,
      "ଆମେରିକୀୟ": 8964,
      " ପୁରୀ ": 8965,
      "ିମା ": 8966,
      " ହେବାରେ ଲାଗିଛି": 8967,
      "ଆମେରିକାରେ ": 8968,
      "ରାୟଗଡ଼ା ": 8969,
      "ୁରିଆ": 8970,
      "ନିର୍ଦ୍ଧାରଣ": 8971,
      "ଶହ ଶହ": 8972,
      "Lo": 8973,
      " ଅନୁରୋଧ": 8974,
      "ଜଣାଶୁଣା ": 8975,
      "୍ୟାକ୍ସ": 8976,
      "ରାଣୀ": 8977,
      "sour": 8978,
      "ୌଚ": 8979,
      "ର୍ମୁ": 8980,
      " ରାଇ": 8981,
      "ଯୋଗ ଦେଇଥିଲେ ": 8982,
      " ଭାଷାରେ ": 8983,
      " ବ୍ୟାଟିଂ": 8984,
      "ଲୋଭ": 8985,
      "ପିଲାମାନେ ": 8986,
      "ଏବଂ ସ": 8987,
      "ୁଦ": 8988,
      "ପୂର୍ବାନୁମାନ": 8989,
      "ଲାଇନ ": 8990,
      "ଗଣତନ୍ତ୍ର": 8991,
      "ଆଣି ": 8992,
      "ହେଇ": 8993,
      "କୋଲକାତ": 8994,
      " କୋରାପୁଟ": 8995,
      "ହୋଇପାରେ": 8996,
      " ହୋଟେଲ": 8997,
      " ରହିବେ": 8998,
      "ୁମେହ": 8999,
      "ଗୃହିଣୀ": 9000,
      " ପଡି": 9001,
      "ସମୁଦାୟ": 9002,
      "ଟିଏମ୍": 9003,
      " ମାମଲା ରୁଜୁ ": 9004,
      "ଣୁ": 9005,
      "ବନ୍ୟା ": 9006,
      "ବିରୋଧୀ ": 9007,
      "ମାଟୋ": 9008,
      " ୨୦୨୨": 9009,
      "ପ୍ରାଣ ହରାଇ": 9010,
      "india": 9011,
      " ୩ଟି ": 9012,
      "ନଜର ରଖ": 9013,
      " ରଖିବା ": 9014,
      "ଚିନ୍ତାଧ": 9015,
      " ଷ୍ଟାଡିୟମ": 9016,
      "ଡିଆର": 9017,
      " ବାୟୁ": 9018,
      "rib": 9019,
      "ମ୍ବୁ ": 9020,
      "de": 9021,
      "ଅଧିକାରୀମାନେ ": 9022,
      "ଲ୍ସ": 9023,
      "ଚିଲ": 9024,
      " ନାଗରିକ ": 9025,
      "ଡେଇଁ": 9026,
      "ଅର୍ଗସ ବ୍ୟୁରୋ": 9027,
      "ମଙ୍ଗ": 9028,
      "କାଟି ": 9029,
      " ହିସ": 9030,
      "ୀଣ": 9031,
      "ସମ୍ଭାବନା ": 9032,
      "ଲିଙ୍କ ": 9033,
      "ଜୀବନଚର୍ଯ୍ୟା": 9034,
      " ଧ୍ୟାନ": 9035,
      "ସ୍ଲ": 9036,
      "ୟୁରୋପ": 9037,
      "ିକଙ୍କ ": 9038,
      "ର ଛ": 9039,
      "ଉଡ": 9040,
      "ାନ୍ତର ": 9041,
      " ଅନୁସନ୍ଧାନ": 9042,
      "ରେ ଏ": 9043,
      "Related Posts": 9044,
      " ଏବଂ ଏହା ": 9045,
      "ମୌଳିକ ": 9046,
      "ହ୍ବାନ": 9047,
      "ସ୍କୃତିକ ": 9048,
      " ଘଂଟ": 9049,
      "ଟ୍ରି": 9050,
      "୧୫୦": 9051,
      "ସିନ ": 9052,
      "୯ଟି ": 9053,
      "ନାଙ୍କ ": 9054,
      "ାଚାର ": 9055,
      "ଦୋ": 9056,
      " ସଫ": 9057,
      "ନଚେତ": 9058,
      " ସମ୍ବନ୍ଧୀୟ": 9059,
      "ମଧ୍ୟ ଏହି ": 9060,
      "ତେବେ ସେ ": 9061,
      "ାଙ୍କର ": 9062,
      "ନିରୀ": 9063,
      "କ୍ଷ୍ମ": 9064,
      "ପିଟ": 9065,
      "or  ": 9066,
      "ଖତ": 9067,
      "ଦେ୍ର୍": 9068,
      "ଗତି କର": 9069,
      "ାହିଦ": 9070,
      "ଭିନ୍ନକ୍ଷମ": 9071,
      " ସଂସ୍କରଣ": 9072,
      "ଭଲପ": 9073,
      "ଗଂ": 9074,
      "େଧ": 9075,
      "ଦେବ ": 9076,
      " ପଠ": 9077,
      " ମହାରାଷ୍ଟ୍ର": 9078,
      "ଏହି ରୋଗ": 9079,
      " ପ୍ରତିନିଧି ": 9080,
      "ିତ ହୋଇଯାଇଛି ": 9081,
      "ଜଣାଯାଇଛି": 9082,
      "ବୁଦ୍ଧି": 9083,
      "୍ଟିଫ": 9084,
      "port": 9085,
      "ପିଲାଙ୍କ ": 9086,
      "ବୁତ": 9087,
      "ଦର୍ଶିତ": 9088,
      "ର ସବୁଠୁ ": 9089,
      "ବାର୍ଷିକ ": 9090,
      " ଜେନେ": 9091,
      " ଅଭିନୟ": 9092,
      "ପାଠ ପଢ": 9093,
      "ଜିତ୍": 9094,
      " ଆସିବ": 9095,
      "ଆଗାମୀ": 9096,
      "ବ ବୋଲି ": 9097,
      "ପାସ୍": 9098,
      "ମଧ୍ୟପ୍ରଦେଶ": 9099,
      "ଯେ ସେ ": 9100,
      "ରେ ହାଜ": 9101,
      "୍ୱିତ": 9102,
      "ିକମାନେ ": 9103,
      "ପରିସରରେ ": 9104,
      "ିବାକୁ ଚାହୁଁ": 9105,
      "ଘଟିଥିଲା": 9106,
      "କାହାକୁ ": 9107,
      "ew ": 9108,
      "ାଉଛନ୍ତି": 9109,
      "୍ୟୁଟର ": 9110,
      "ନ୍ତର୍ଜାତିକ ": 9111,
      " କରିବା ସମୟରେ ": 9112,
      "ରପ୍ରାପ୍ତ": 9113,
      "ଶରୀରକୁ ": 9114,
      "ବିଶ୍ୱରେ ": 9115,
      " ସ୍ତ୍ରୀ": 9116,
      " ଯୋଡ଼ି ": 9117,
      "ା କରିବେ ": 9118,
      "ବୀର": 9119,
      "ଙ୍କ ପରାମର୍ଶ": 9120,
      "mark": 9121,
      "ାନିଟାଇ": 9122,
      "ବେଷଣ": 9123,
      " ମହଲ": 9124,
      "ନରସିଂହ": 9125,
      "ical ": 9126,
      "ଦାସ ": 9127,
      "ନେଲେ ": 9128,
      " ରାଜନୀତି ": 9129,
      "ରୟ": 9130,
      "ଦୃଶ": 9131,
      "Vi": 9132,
      "ବୋଲି କହିଛନ୍ତି": 9133,
      "Odia": 9134,
      "ଳାଖ": 9135,
      "ଫେରାଇ": 9136,
      " ମିଡିଆରେ ": 9137,
      "p ": 9138,
      "ମାଗଣା ": 9139,
      "ସଂଶୋଧନ": 9140,
      " ସମାରୋହ": 9141,
      "ଦିନ ପରେ ": 9142,
      "୩୦୦": 9143,
      "hours ago": 9144,
      "ଚମତ୍କାର": 9145,
      "୯ ": 9146,
      "ାକରଣ": 9147,
      "ର ପ୍ରତିଷ୍ଠ": 9148,
      " ସଭାରେ ": 9149,
      "man": 9150,
      " ହିସାବ": 9151,
      " ଦୃଶ୍ୟ": 9152,
      "ଭବନ": 9153,
      "ିଜ": 9154,
      " ପ୍ରଫେସର ": 9155,
      "ରେ ଅନୁଷ୍ଠିତ": 9156,
      "ଡଃ": 9157,
      "ସବୁଜ": 9158,
      "ତ୍ରୁଟି ": 9159,
      "ଚାଷୀଙ୍କୁ ": 9160,
      " ଓ ବି": 9161,
      " ଇଂଲଣ୍ଡ": 9162,
      "୧୦ଟି ": 9163,
      "ମେହେ": 9164,
      "ଅଧିବେଶ": 9165,
      "୬୧": 9166,
      "Sambad ": 9167,
      " ମଦ": 9168,
      " ପରିବାରର ": 9169,
      "ନ୍ଧି ": 9170,
      "ଟୋକି": 9171,
      "ପୃଥ": 9172,
      "ମଧୁ": 9173,
      "ବିନିଯୋଗ": 9174,
      " ପରବର୍ତ୍ତୀ ଖବର": 9175,
      "ମିଫାଇନାଲ": 9176,
      "ୈଠ": 9177,
      "ରାୟଗଡ଼ା": 9178,
      "କଶ୍ମୀ": 9179,
      " ବେସ": 9180,
      " ଅଧିକାରୀଙ୍କ ": 9181,
      "ିତ ହୋଇଛନ୍ତି ": 9182,
      " ଦିଆଯିବ ": 9183,
      "ସଂଖ୍ୟା": 9184,
      "ବନ୍ତ": 9185,
      "େକ୍ଷା ": 9186,
      "ପୋଷଣ": 9187,
      "ପିତା ": 9188,
      " ଚୋର": 9189,
      " ନେତୃତ": 9190,
      "ାଧିକାରୀ ": 9191,
      "ସମ୍ମୁଖ": 9192,
      "Res": 9193,
      "ନାଟ": 9194,
      "ଆଗୁଆ": 9195,
      " ଅଧିକାଂଶ": 9196,
      "ସ୍ମୃତି ": 9197,
      "ସୁଫଳ": 9198,
      "ଏଡ": 9199,
      "ଥାନାରେ ଅଭିଯୋଗ": 9200,
      " ଡିଗ୍ରୀ ": 9201,
      "Polic": 9202,
      "ନେତୃତ୍ବ": 9203,
      "|  ": 9204,
      "ech": 9205,
      " ଦିନ ମଧ୍ୟରେ ": 9206,
      "େଟ୍ରେ ": 9207,
      "ସଲି": 9208,
      "ବିଦ୍ୟାଳୟର ": 9209,
      "କରୋନାରେ ": 9210,
      " ଜିଲ୍ଲା ପ୍ର": 9211,
      "ନ ଅ": 9212,
      "Last updat": 9213,
      "ଇଟିଭି ": 9214,
      "ିକାଙ୍କ ": 9215,
      " ନିର୍ଦେଶ": 9216,
      "କ୍ଷୁଦ୍ର": 9217,
      "ବିପର୍ଯ୍ୟୟ": 9218,
      "ତିଆର": 9219,
      " ଚାଷୀ": 9220,
      " ମତଦାନ": 9221,
      " ସୂଚ": 9222,
      " ବଣ୍ଟନ": 9223,
      "ଶ୍ରାମ": 9224,
      "ାଉଣ୍ଟ": 9225,
      "ବାବଦରେ ": 9226,
      "ଥାଆନ୍ତି": 9227,
      "ନ୍ଧନ ": 9228,
      "ଏମ୍ସ": 9229,
      "ଭିତ୍ତିଭୂମି ": 9230,
      "କିନ୍ତୁ ସେ ": 9231,
      "ବି ପ": 9232,
      "ରମାନେ ": 9233,
      "ଉତ୍ତରାଖଣ୍ଡ": 9234,
      "ଥିରୁ ": 9235,
      "ନିର୍ଭରଶୀଳ": 9236,
      " ଧନ୍ୟବାଦ": 9237,
      "ଉତ୍ସାହିତ": 9238,
      "ର ବ୍ୟବହାର": 9239,
      "ଅଧିକ ପଢନ୍ତୁ": 9240,
      " ଆମକୁ ": 9241,
      "ଲଢେଇ": 9242,
      "mo": 9243,
      "ଲକ୍ଷେ ": 9244,
      "ଶତାଧିକ ": 9245,
      "ୟନ ": 9246,
      " ଜା": 9247,
      "କାର୍ଯ୍ୟରେ ": 9248,
      "କମାନଙ୍କ ": 9249,
      " ଜବାବ": 9250,
      "2021\n": 9251,
      "ରଣୀ ": 9252,
      "ସ୍ପେଶାଲ": 9253,
      "ନଳ": 9254,
      "ଚିବ ": 9255,
      " ତିଆରି ": 9256,
      "olog": 9257,
      "ଖୁଣ୍ଟ": 9258,
      " ଗରମ": 9259,
      "ଏବଂ ତାଙ୍କ ": 9260,
      "ପେୟ": 9261,
      "ଏବେ": 9262,
      "ଶ୍ରଦ୍ଧାଞ୍ଜଳି ": 9263,
      " ପଶ୍ଚିମବଙ୍ଗ": 9264,
      " ଅହ": 9265,
      "ଗଣିତ": 9266,
      "ରେ ସର୍ବ": 9267,
      "ଯୋଗୀ": 9268,
      "ଡିପିଓ": 9269,
      " ଇଣ୍ଟ": 9270,
      "ପ୍ରାୟତଃ": 9271,
      " ଆନ୍ଦୋଳନ": 9272,
      "ପରିପ୍ରେକ୍ଷୀରେ ": 9273,
      "Google": 9274,
      " ଜଗନ୍ନାଥ": 9275,
      " ଯାନ": 9276,
      "ାଗି ": 9277,
      " ଆୟୋଗ": 9278,
      "ାର ପ୍ର": 9279,
      " ପାଖାପାଖି ": 9280,
      "ାକ୍ଟ": 9281,
      "ak ": 9282,
      " କରନ୍ତୁଃ": 9283,
      "ତାହାର ": 9284,
      " ଅଭିନେତ୍ରୀ ": 9285,
      "ବ୍ୟାଟ": 9286,
      " ବର୍ଷରୁ କମ୍": 9287,
      "ଟାଣ": 9288,
      "ସ୍ଥଗିତ": 9289,
      "ସୃଷ୍ଟି ହୋଇ": 9290,
      "ସର୍ଚ୍ଚ": 9291,
      " ମହାନ୍ତ": 9292,
      " ରୋଗୀଙ୍କ ": 9293,
      " କରୋନା ପଜିଟିଭ୍": 9294,
      "ୋଳନ": 9295,
      "ଚର୍ଚ୍ଚିତ": 9296,
      "ନିଆର": 9297,
      "ଅତ୍ୟଧିକ ": 9298,
      "ୱାର୍": 9299,
      "ଗଲାଣି ": 9300,
      "ହିତାଧିକାରୀ": 9301,
      "ଜାମ୍": 9302,
      "ଯାକ ": 9303,
      "ଲୋକାଲ ୱ": 9304,
      "ମ୍ମୁ": 9305,
      " କହିବ": 9306,
      "ରେ ସମ୍ମାନ": 9307,
      " ପ୍ରାଣ ହରାଇ": 9308,
      "କନ୍ୟା": 9309,
      "ଚାଲି ଚାଲି ": 9310,
      "ର୍ଡ": 9311,
      " କିଭଳି ": 9312,
      "ତା ଉପରେ ": 9313,
      "ାଗ୍ରସ୍ତ": 9314,
      "୨୦୧୩": 9315,
      " ନଥିଲା ": 9316,
      "ଗଣ୍ଡ": 9317,
      "ଯାଉଥିଲା": 9318,
      "ଣ୍ଟାଲ": 9319,
      "ଘଟଣା ସ୍ଥଳରେ ": 9320,
      "ଯୋଗଦାନ": 9321,
      " ସ୍ମାର୍ଟ": 9322,
      "ବିକ୍ରି ": 9323,
      "ର୍ମି": 9324,
      "ାଏନ୍ସ": 9325,
      "ରହିବେ ": 9326,
      " କ୍ୟାପିଟାଲ": 9327,
      " ଅଫିସର ": 9328,
      " ଠିକ": 9329,
      " ଚାଲି": 9330,
      "all": 9331,
      "ତେବେ ଆପଣ": 9332,
      "ଣ୍ଢ": 9333,
      "ମନ୍ତ୍ରୀଙ୍କ ": 9334,
      "ଇତି": 9335,
      "ନୁ ": 9336,
      "ରୁ ୪": 9337,
      " କରାଯାଇଥାଏ ": 9338,
      "ସାଇକେଲ": 9339,
      "ମହାରାଜ": 9340,
      " ନିମ୍": 9341,
      "ସାମ୍ୟ": 9342,
      "କିଶୋର ": 9343,
      "Feb": 9344,
      " କରିଥିବାବେଳେ ": 9345,
      "ଏହା ଦ୍ୱାରା ": 9346,
      " ବିଭାଗରେ ": 9347,
      " ଗୋଷ୍ଠୀ": 9348,
      "ଖୁବଶୀଘ୍ର": 9349,
      "ପୁଷ୍ଟ": 9350,
      "ି କରିଥିଲେ ": 9351,
      "ପୌ": 9352,
      "କେନ୍ଦ୍ର ସରକାରଙ୍କ ": 9353,
      " ମାଛ": 9354,
      "ି କରାଯାଇ": 9355,
      "ରିଲିଜ୍": 9356,
      "ନିର୍ମଳ": 9357,
      "com ": 9358,
      " ଜରୁରୀ": 9359,
      "ଆମେରିକାର": 9360,
      "ରେଜ": 9361,
      "ଳ୍ପନା ": 9362,
      "ଓଡିଶାରେ ": 9363,
      "ଓ୍ବା": 9364,
      " ଅତି ": 9365,
      " କ୍ଷମତ": 9366,
      "N ": 9367,
      " କିଛି ସମୟ": 9368,
      "୮୪": 9369,
      "ପାରେ ବୋଲି ": 9370,
      "କେଉଁଠି ": 9371,
      "ଶୁଦ୍ଧ": 9372,
      "ଅପେକ୍ଷା ": 9373,
      "ଭିସ": 9374,
      "ଓ ସ": 9375,
      "ମ୍ମୁ ": 9376,
      "କ୍ଳ": 9377,
      "ଦ୍ଵିତୀୟ": 9378,
      " ମଞ୍ଚ": 9379,
      " ଭାରତରେ ": 9380,
      " ଦୁନିଆ": 9381,
      " କମିଟି": 9382,
      "ବଲିଉଡ୍": 9383,
      "ାଥମିକତା ": 9384,
[...]
