{
  "version": "1.0",
  "truncation": null,
  "padding": null,
  "added_tokens": [
    {
      "id": 0,
      "content": "[PAD]",
      "single_word": false,
      "lstrip": false,
      "rstrip": false,
      "normalized": false,
      "special": true
    },
    {
      "id": 1,
      "content": "[UNK]",
      "single_word": false,
      "lstrip": false,
      "rstrip": false,
      "normalized": false,
      "special": true
    },
    {
      "id": 2,
      "content": "[CLS]",
      "single_word": false,
      "lstrip": false,
      "rstrip": false,
      "normalized": false,
      "special": true
    },
    {
      "id": 3,
      "content": "[SEP]",
      "single_word": false,
      "lstrip": false,
      "rstrip": false,
      "normalized": false,
      "special": true
    },
    {
      "id": 4,
      "content": "[MASK]",
      "single_word": false,
      "lstrip": false,
      "rstrip": false,
      "normalized": false,
      "special": true
    },
    {
      "id": 5,
      "content": "<|endoftext|>",
      "single_word": false,
      "lstrip": false,
      "rstrip": false,
      "normalized": false,
      "special": true
    }
  ],
  "normalizer": {
    "type": "Sequence",
    "normalizers": [
      {
        "type": "Replace",
        "pattern": {
          "Regex": "[^\\u0000-\\u00FF\\u0B00-\\u0B7F\\u0964\\u0965\\u2018\\u2019\\u201C\\u201D]"
        },
        "content": ""
      },
      {
        "type": "Replace",
        "pattern": {
          "String": "\\s+"
        },
        "content": " "
      },
      {
        "type": "NFKC"
      }
    ]
  },
  "pre_tokenizer": {
    "type": "Sequence",
    "pretokenizers": [
      {
        "type": "UnicodeScripts"
      }
    ]
  },
  "post_processor": null,
  "decoder": {
    "type": "ByteLevel",
    "add_prefix_space": true,
    "trim_offsets": true,
    "use_regex": true
  },
  "model": {
    "type": "BPE",
    "dropout": null,
    "unk_token": "[UNK]",
    "continuing_subword_prefix": null,
    "end_of_word_suffix": null,
    "fuse_unk": true,
    "byte_fallback": false,
    "ignore_merges": false,
    "vocab": {
      "[PAD]": 0,
      "[UNK]": 1,
      "[CLS]": 2,
      "[SEP]": 3,
      "[MASK]": 4,
      "<|endoftext|>": 5,
      "\u0001": 6,
      "\u0002": 7,
      "\u0003": 8,
      "\t": 9,
      "\n": 10,
      "\r": 11,
      "\u001b": 12,
      "\u001f": 13,
      " ": 14,
      "!": 15,
      "\"": 16,
      "#": 17,
      "$": 18,
      "%": 19,
      "&": 20,
      "'": 21,
      "(": 22,
      ")": 23,
      "*": 24,
      "+": 25,
      ",": 26,
      "-": 27,
      ".": 28,
      "/": 29,
      "0": 30,
      "1": 31,
      "2": 32,
      "3": 33,
      "4": 34,
      "5": 35,
      "6": 36,
      "7": 37,
      "8": 38,
      "9": 39,
      ":": 40,
      ";": 41,
      "<": 42,
      "=": 43,
      ">": 44,
      "?": 45,
      "@": 46,
      "A": 47,
      "B": 48,
      "C": 49,
      "D": 50,
      "E": 51,
      "F": 52,
      "G": 53,
      "H": 54,
      "I": 55,
      "J": 56,
      "K": 57,
      "L": 58,
      "M": 59,
      "N": 60,
      "O": 61,
      "P": 62,
      "Q": 63,
      "R": 64,
      "S": 65,
      "T": 66,
      "U": 67,
      "V": 68,
      "W": 69,
      "X": 70,
      "Y": 71,
      "Z": 72,
      "[": 73,
      "\\": 74,
      "]": 75,
      "^": 76,
      "_": 77,
      "`": 78,
      "a": 79,
      "b": 80,
      "c": 81,
      "d": 82,
      "e": 83,
      "f": 84,
      "g": 85,
      "h": 86,
      "i": 87,
      "j": 88,
      "k": 89,
      "l": 90,
      "m": 91,
      "n": 92,
      "o": 93,
      "p": 94,
      "q": 95,
      "r": 96,
      "s": 97,
      "t": 98,
      "u": 99,
      "v": 100,
      "w": 101,
      "x": 102,
      "y": 103,
      "z": 104,
      "{": 105,
      "|": 106,
      "}": 107,
      "~": 108,
      "": 109,
      "": 110,
      "": 111,
      "": 112,
      "": 113,
      "": 114,
      "": 115,
      "": 116,
      "": 117,
      "": 118,
      "": 119,
      "": 120,
      "": 121,
      "": 122,
      "": 123,
      "¡": 124,
      "¢": 125,
      "£": 126,
      "¤": 127,
      "¥": 128,
      "¦": 129,
      "§": 130,
      "©": 131,
      "«": 132,
      "¬": 133,
      "­": 134,
      "®": 135,
      "°": 136,
      "±": 137,
      "¶": 138,
      "·": 139,
      "»": 140,
      "¿": 141,
      "À": 142,
      "Á": 143,
      "Â": 144,
      "Ã": 145,
      "Ä": 146,
      "Å": 147,
      "Æ": 148,
      "Ç": 149,
      "È": 150,
      "É": 151,
      "Ê": 152,
      "Ë": 153,
      "Ì": 154,
      "Í": 155,
      "Î": 156,
      "Ï": 157,
      "Ð": 158,
      "Ñ": 159,
      "Ò": 160,
      "Ó": 161,
      "Ô": 162,
      "Õ": 163,
      "Ö": 164,
      "×": 165,
      "Ø": 166,
      "Ù": 167,
      "Ú": 168,
      "Ü": 169,
      "Ý": 170,
      "Þ": 171,
      "ß": 172,
      "à": 173,
      "á": 174,
      "â": 175,
      "ã": 176,
      "ä": 177,
      "å": 178,
      "æ": 179,
      "ç": 180,
      "è": 181,
      "é": 182,
      "ê": 183,
      "ë": 184,
      "ì": 185,
      "í": 186,
      "î": 187,
      "ï": 188,
      "ð": 189,
      "ñ": 190,
      "ò": 191,
      "ó": 192,
      "ô": 193,
      "õ": 194,
      "ö": 195,
      "÷": 196,
      "ø": 197,
      "ù": 198,
      "ú": 199,
      "û": 200,
      "ü": 201,
      "ý": 202,
      "þ": 203,
      "ÿ": 204,
      "́": 205,
      "̄": 206,
      "̈": 207,
      "̧": 208,
      "μ": 209,
      "।": 210,
      "॥": 211,
      "ଁ": 212,
      "ଂ": 213,
      "ଃ": 214,
      "଄": 215,
      "ଅ": 216,
      "ଆ": 217,
      "ଇ": 218,
      "ଈ": 219,
      "ଉ": 220,
      "ଊ": 221,
      "ଋ": 222,
      "ଌ": 223,
      "଎": 224,
      "ଏ": 225,
      "ଐ": 226,
      "ଓ": 227,
      "ଔ": 228,
      "କ": 229,
      "ଖ": 230,
      "ଗ": 231,
      "ଘ": 232,
      "ଙ": 233,
      "ଚ": 234,
      "ଛ": 235,
      "ଜ": 236,
      "ଝ": 237,
      "ଞ": 238,
      "ଟ": 239,
      "ଠ": 240,
      "ଡ": 241,
      "ଢ": 242,
      "ଣ": 243,
      "ତ": 244,
      "ଥ": 245,
      "ଦ": 246,
      "ଧ": 247,
      "ନ": 248,
      "ପ": 249,
      "ଫ": 250,
      "ବ": 251,
      "ଭ": 252,
      "ମ": 253,
      "ଯ": 254,
      "ର": 255,
      "ଲ": 256,
      "ଳ": 257,
      "ଵ": 258,
      "ଶ": 259,
      "ଷ": 260,
      "ସ": 261,
      "ହ": 262,
      "଼": 263,
      "ଽ": 264,
      "ା": 265,
      "ି": 266,
      "ୀ": 267,
      "ୁ": 268,
      "ୂ": 269,
      "ୃ": 270,
      "ୄ": 271,
      "୆": 272,
      "େ": 273,
      "ୈ": 274,
      "୉": 275,
      "ୋ": 276,
      "ୌ": 277,
      "୍": 278,
      "୎": 279,
      "ୖ": 280,
      "ୗ": 281,
      "ୟ": 282,
      "ୠ": 283,
      "ୡ": 284,
      "ୢ": 285,
      "ୣ": 286,
      "୤": 287,
      "୥": 288,
      "୦": 289,
      "୧": 290,
      "୨": 291,
      "୩": 292,
      "୪": 293,
      "୫": 294,
      "୬": 295,
      "୭": 296,
      "୮": 297,
      "୯": 298,
      "୰": 299,
      "ୱ": 300,
      "୲": 301,
      "୳": 302,
      "୵": 303,
      "‘": 304,
      "’": 305,
      "“": 306,
      "”": 307,
      "⁄": 308,
      "େ ": 309,
      "ି ": 310,
      "ା ": 311,
      "ାର": 312,
      "୍ର": 313,
      "ୁ ": 314,
      "୍ତ": 315,
      "୍ୟ": 316,
      "ରେ ": 317,
      " କ": 318,
      "। ": 319,
      "କ ": 320,
      "ିବ": 321,
      "ଙ୍": 322,
      "ର ": 323,
      "ାନ": 324,
      "ର୍": 325,
      "ାଇ": 326,
      "କୁ ": 327,
      " ପ": 328,
      " ସ": 329,
      "ିଲ": 330,
      "ନ୍ତ": 331,
      " କର": 332,
      ", ": 333,
      " ବ": 334,
      "ିତ": 335,
      "ନ୍": 336,
      " ହ": 337,
      "ିବା ": 338,
      " ମ": 339,
      "ସ୍": 340,
      "କ୍": 341,
      "ଙ୍କ ": 342,
      "ଥିଲ": 343,
      "ିଛ": 344,
      "ପ୍ର": 345,
      "ନି": 346,
      "ରା": 347,
      "ମ୍": 348,
      "ଦେ": 349,
      "ବି": 350,
      "ଏହ": 351,
      "ାହ": 352,
      "୍ଟ": 353,
      "କ୍ଷ": 354,
      " ଅ": 355,
      "ିକ": 356,
      "ୋଇ": 357,
      "ଡ଼": 358,
      "ମାନ": 359,
      "ବା": 360,
      "ୀ ": 361,
      "ଥିବା ": 362,
      "ାରେ ": 363,
      "ନେ": 364,
      "ରୁ ": 365,
      "େବ": 366,
      "ାମ": 367,
      " ଆ": 368,
      "ଦ୍": 369,
      "ଙ୍କୁ ": 370,
      "ାବ": 371,
      " ଜ": 372,
      "କର": 373,
      "ଧ୍ୟ": 374,
      "ଯାଇ": 375,
      "ାତ": 376,
      "ନ୍ତି ": 377,
      "କାର": 378,
      " ପ୍ର": 379,
      "ାଇଁ": 380,
      "ଏବ": 381,
      "ଣ୍": 382,
      "ନ୍ଦ": 383,
      "ାଲ": 384,
      "ଷ୍ଟ": 385,
      "ନ ": 386,
      "ାୟ": 387,
      "ାକୁ ": 388,
      "ୁର": 389,
      " ହୋଇ": 390,
      "ଏହି ": 391,
      "ସ୍ଥ": 392,
      "ନା ": 393,
      "ଛି ": 394,
      "ିଆ": 395,
      "୍ଚ": 396,
      "ଙ୍କ": 397,
      "ପର": 398,
      "ସ୍ତ": 399,
      "୍ଲ": 400,
      "ିକ ": 401,
      "ୋଗ": 402,
      "ଭି": 403,
      "ସେ": 404,
      "ାଗ": 405,
      "ାଳ": 406,
      " ଦ": 407,
      "ିଛି ": 408,
      "ାପ": 409,
      "ୋଲ": 410,
      "ିଥିଲ": 411,
      " ର": 412,
      "ଏବଂ": 413,
      "୍ୱ": 414,
      "ାସ": 415,
      " ବି": 416,
      "ାର ": 417,
      "ଯ୍ୟ": 418,
      "କ୍ତ": 419,
      ": ": 420,
      "ଣ୍ଡ": 421,
      "େଳ": 422,
      "ତି": 423,
      "ଙ୍ଗ": 424,
      " ଭ": 425,
      "ରାଜ": 426,
      "ମୁ": 427,
      "ାର୍": 428,
      "ଟି ": 429,
      "କ୍ର": 430,
      "ତା": 431,
      " ଗ": 432,
      "ପାଇଁ": 433,
      "ସହ": 434,
      "ଯୋଗ": 435,
      "ାଣ": 436,
      "ଟି": 437,
      "ସମ": 438,
      " ଓ": 439,
      "ପରେ ": 440,
      "ନ୍ତି": 441,
      "େଲ": 442,
      "ସି": 443,
      "ୀୟ": 444,
      "ମି": 445,
      "ତି ": 446,
      " ନ": 447,
      " ଲ": 448,
      "ପୁ": 449,
      "ହି": 450,
      "ାରୁ ": 451,
      "ଦ୍ଧ": 452,
      "ଏକ ": 453,
      "ଛି": 454,
      "୍ରୀ": 455,
      "ମଧ୍ୟ": 456,
      "ଅନ": 457,
      "ାଉ": 458,
      "ଞ୍ଚ": 459,
      "ସୁ": 460,
      "େଉ": 461,
      "ାଏ": 462,
      "ନେଇ": 463,
      "ଡି": 464,
      " ଶ": 465,
      " ଚ": 466,
      "ିନ": 467,
      "ଦେଶ": 468,
      "ଷ୍": 469,
      "ଦେଇ": 470,
      "ତା ": 471,
      "ଜଣ": 472,
      "ିଲ୍ଲ": 473,
      "ାନ୍ତ": 474,
      "ିଛନ୍ତି ": 475,
      " ତ": 476,
      "ମ୍ବ": 477,
      "ଗ୍ର": 478,
      "ବ୍ୟ": 479,
      "ରି": 480,
      "କି": 481,
      " କରା": 482,
      "ୃତ": 483,
      "େଳେ ": 484,
      "ମାନେ ": 485,
      "ପାର": 486,
      " ଉ": 487,
      "ନିର୍": 488,
      "ିବାକୁ ": 489,
      "ୂର୍": 490,
      "ସଂ": 491,
      "ର୍ଷ": 492,
      "ି କ": 493,
      "e ": 494,
      "ୋକ": 495,
      "େତ": 496,
      "ସେ ": 497,
      "ୁବ": 498,
      "ଛନ୍ତି ": 499,
      "ତ୍ତ": 500,
      "ମ୍ପ": 501,
      "ୁଲ": 502,
      "ାଦ": 503,
      "ନ୍ଦ୍ର": 504,
      "ହୋଇ": 505,
      "ଭାବ": 506,
      "।\n": 507,
      "  ": 508,
      "ାହି": 509,
      "ରହ": 510,
      "ନ୍ତୁ ": 511,
      "ରାଜ୍ୟ": 512,
      "ଖ୍ୟ": 513,
      " ଯ": 514,
      "ାତ୍ର": 515,
      "ିଛି": 516,
      "ଶ୍ୱ": 517,
      "ଥିଲେ ": 518,
      "ମନ୍ତ": 519,
      "ିସ": 520,
      "ମା": 521,
      "ଣ୍ଟ": 522,
      "ରକାର": 523,
      "ିଥିଲେ ": 524,
      "ାହିଁ": 525,
      "ଗୁ": 526,
      "ଥିଲା ": 527,
      "ଏହା ": 528,
      "େଟ": 529,
      "୍ତ୍ତ": 530,
      "ତ୍": 531,
      " ହେବ": 532,
      "ିଶ": 533,
      "କା": 534,
      "ସି ": 535,
      "ଣା ": 536,
      "ିରେ ": 537,
      "ଘଟ": 538,
      "ଧାନ": 539,
      " ପାଇଁ": 540,
      "ୋଲି ": 541,
      "ବା ": 542,
      " ଏବଂ": 543,
      " କରି ": 544,
      "ଙ୍କର ": 545,
      "୍ଜ": 546,
      " ଜଣ": 547,
      "ାରତ": 548,
      " ଖ": 549,
      "ବର": 550,
      "ଅଧ": 551,
      "ୁତ": 552,
      " ଟ": 553,
      "୍ୟା": 554,
      "ୋଜ": 555,
      "୨୦": 556,
      "ୟରେ ": 557,
      " କରିବା ": 558,
      "କୋ": 559,
      "t ": 560,
      "ଥାଏ": 561,
      "େନ୍ଦ୍ର": 562,
      "ପଣ": 563,
      "କ୍ରମ": 564,
      "ଦେଖ": 565,
      "େବେ ": 566,
      "ନିଜ": 567,
      " ସମ": 568,
      "ଳି ": 569,
      "ଶ୍": 570,
      " କରାଯାଇ": 571,
      "େର": 572,
      "ଗତ": 573,
      "ପି": 574,
      "ମ୍ଭ": 575,
      " ଏ": 576,
      " କରି": 577,
      " ସ୍": 578,
      "ଷ୍ଠ": 579,
      "ନା": 580,
      "ଞ୍ଜ": 581,
      "ଦୁ": 582,
      "ପା": 583,
      "ସା": 584,
      " ସଂ": 585,
      "ଚନା ": 586,
      "ିଛନ୍ତି": 587,
      "ବେ": 588,
      "ପୂର୍": 589,
      "ର୍ମ": 590,
      "20": 591,
      "ଥିବ": 592,
      "ଜେ": 593,
      " ମଧ୍ୟ": 594,
      "ା କ": 595,
      "ଅନୁ": 596,
      "ଲେ": 597,
      "ା କର": 598,
      "ର୍ଯ୍ୟ": 599,
      "ଜି ": 600,
      "s ": 601,
      "ବେଳେ ": 602,
      "er": 603,
      "ୁହ": 604,
      "ମୋ": 605,
      "ରରେ ": 606,
      " ଅନ": 607,
      "ଶି": 608,
      "ମିଳ": 609,
      "ଳରେ ": 610,
      " କାର୍": 611,
      "ତେବେ ": 612,
      " ସହ": 613,
      "ଣ୍ଣ": 614,
      "ଭାରତ": 615,
      "ତାଙ୍କ ": 616,
      "ପୁର": 617,
      "େସ": 618,
      " ରହ": 619,
      "ାରୀ": 620,
      " କରିବ": 621,
      "ସ୍ୱ": 622,
      "ଦ୍ୱ": 623,
      "ତ୍ୟ": 624,
      "୍ରୀ ": 625,
      "ଛନ୍ତି": 626,
      "ନ୍ନ": 627,
      ". ": 628,
      "ଢ଼": 629,
      "ନ୍ଧ": 630,
      "ାରା ": 631,
      "ଟ୍": 632,
      "ଥିଲା": 633,
      "ଲୋକ": 634,
      "ଯାଉ": 635,
      "ବହ": 636,
      "ଗୋ": 637,
      " କରୁ": 638,
      "ମାନଙ୍କ ": 639,
      ") ": 640,
      "କଟ": 641,
      "in": 642,
      "ମହ": 643,
      " ସେ": 644,
      "ସୂ": 645,
      " ବ୍ୟ": 646,
      "ର୍ଟ": 647,
      "ଜିଲ୍ଲ": 648,
      "ନୀ": 649,
      "ରୋ": 650,
      " ଫ": 651,
      "ାନ୍": 652,
      "ର୍ଥ": 653,
      " ନି": 654,
      "ାରଣ": 655,
      "ଆସ": 656,
      "େଷ": 657,
      "ାରି": 658,
      "ଅଭି": 659,
      " କାର୍ଯ୍ୟ": 660,
      "ି ପ": 661,
      " ବର୍ଷ": 662,
      " କହ": 663,
      "- ": 664,
      "ଭାଗ": 665,
      "ଆମ": 666,
      "ଥିଲେ": 667,
      "ଜି": 668,
      "ଥିବା ବେଳେ ": 669,
      "ୂଆ": 670,
      "ରଣ": 671,
      "ି କର": 672,
      "ଥାନ": 673,
      "ବୁ": 674,
      " ୧": 675,
      "ଲି": 676,
      " କୋ": 677,
      "ଉପ": 678,
      "ଜ୍": 679,
      "ଠାରୁ ": 680,
      "ଯିବ": 681,
      "ାହା ": 682,
      "ଆପଣ": 683,
      "ଏଥ": 684,
      "ଦି": 685,
      "ିଥିଲେ": 686,
      "ର୍ଶ": 687,
      " ପର": 688,
      "ୁମ": 689,
      "ନାହିଁ": 690,
      "େଉଁ": 691,
      "ଦୀ": 692,
      "ର ସ": 693,
      "ଚ୍ଚ": 694,
      "ରଖ": 695,
      "କ୍ଷା ": 696,
      " ସୁ": 697,
      "ଆର": 698,
      " ଦେଇ": 699,
      "d ": 700,
      "ନରେ ": 701,
      "ଙ୍କା ": 702,
      "on": 703,
      "ଦ୍ୟ": 704,
      "ଯୁ": 705,
      "କାଶ": 706,
      "ଏବେ ": 707,
      "ପରି ": 708,
      "ିର": 709,
      "ବାକୁ ": 710,
      "ଥମ": 711,
      "th": 712,
      "ସ୍ଥିତ": 713,
      " ଭାବ": 714,
      "ଅନ୍ୟ": 715,
      "ମୃତ": 716,
      "ୀବ": 717,
      "ଭଳି ": 718,
      "ଥା ": 719,
      "ଠାରେ ": 720,
      "ିୟ": 721,
      "ଶୁ": 722,
      "ବର ": 723,
      "ଆଇ": 724,
      "ପୋ": 725,
      "ାଜ": 726,
      "an": 727,
      "ଲାଗ": 728,
      "େଶ": 729,
      " ସରକାର": 730,
      "ଯାଇଛି ": 731,
      "ଲୋ": 732,
      "ତ୍ର": 733,
      "କହ": 734,
      "ନ୍ତୁ": 735,
      "ମିତ": 736,
      " ମି": 737,
      "ପରି": 738,
      " ହେଉ": 739,
      "ଉତ୍ତ": 740,
      "ପୂର୍ବ": 741,
      "ରେ ପ": 742,
      "ଦାନ": 743,
      "ar": 744,
      "ପାରିବ": 745,
      "ୌଣ": 746,
      "at": 747,
      "କାର୍": 748,
      "ଡ଼ିଶ": 749,
      "ଲା ": 750,
      "ବସ": 751,
      "କ୍ଷରୁ ": 752,
      "ଆଜି ": 753,
      "ାକ": 754,
      "ମାନଙ୍କୁ ": 755,
      "ପୁର ": 756,
      " ଘ": 757,
      "ରେ": 758,
      "ନୂଆ": 759,
      "ସ୍ଥାନ": 760,
      "ହ୍": 761,
      "ୋନା ": 762,
      "ୃଷ୍ଟ": 763,
      "ର ପ୍ର": 764,
      "ୌଣସି ": 765,
      "ଯେ ": 766,
      "ିକା ": 767,
      "ଷ୍ଟ୍ର": 768,
      "202": 769,
      "କିନ୍ତୁ ": 770,
      "ଦଳ": 771,
      "ହେଲ": 772,
      "ହେବ": 773,
      "ିବାର": 774,
      "ର କ": 775,
      " ଅଧ": 776,
      "ୁବନେ": 777,
      "ମୁଖ୍ୟ": 778,
      "ଦିନ": 779,
      "ରେ କ": 780,
      "ଟିଏ": 781,
      "ଜଣେ ": 782,
      "ସହିତ": 783,
      "ୀଙ୍କ ": 784,
      " ମୁ": 785,
      "ସମସ୍ତ": 786,
      " ଇ": 787,
      "ଦ୍ର": 788,
      "ସ୍ୟ": 789,
      "ବାର": 790,
      "ଅଧିକ ": 791,
      "ାଟ": 792,
      " ବୋଲି ": 793,
      " କି": 794,
      "ଶେଷ": 795,
      "ଫଳ": 796,
      "ଗା": 797,
      "ବୋଲି ": 798,
      " ରା": 799,
      "କଳ": 800,
      "ର୍ତ୍ତ": 801,
      "ଉପରେ ": 802,
      "କାର୍ଯ୍ୟ": 803,
      "।  ": 804,
      "ଜନ": 805,
      "..": 806,
      "ବାଚ": 807,
      "ଦି ": 808,
      " କରିଥିଲେ ": 809,
      "ଯୁକ୍ତ": 810,
      "ସୂଚନା ": 811,
      "ାଳୟ": 812,
      "କରେ ": 813,
      "ାଷ": 814,
      " କରିବାକୁ ": 815,
      " ସି": 816,
      " ଦେ": 817,
      " ମହ": 818,
      "ନ୍ତ୍ର": 819,
      "ାୟକ ": 820,
      "ୀନ": 821,
      "ଚାର": 822,
      "ୋଷ": 823,
      "ୋଟ": 824,
      "ଭୁବନେ": 825,
      "ଲେ ": 826,
      " ଡ": 827,
      " ଅନୁ": 828,
      "ବର୍ଷ": 829,
      "ାଇବା ": 830,
      "ତାଙ୍କୁ ": 831,
      "ରେ ସ": 832,
      "ଚଳ": 833,
      "ୃଦ୍ଧ": 834,
      "ା ପ": 835,
      "or": 836,
      "en": 837,
      " ଧ": 838,
      " କରିଛନ୍ତି ": 839,
      "ଶ୍ୟ": 840,
      "ଘଟଣ": 841,
      "େଇ": 842,
      "ିର ": 843,
      "ମନ୍ତ୍ରୀ ": 844,
      "ୀର ": 845,
      "ଚ୍": 846,
      "ହିଳ": 847,
      "ବସ୍ଥ": 848,
      "ଦିଆ": 849,
      " ନିର୍": 850,
      "ିଥିଲା ": 851,
      "୍ପ": 852,
      "ଚି": 853,
      "ମନ୍ତ୍ରୀ": 854,
      "ିତ୍": 855,
      "ମେ": 856,
      "ବାହ": 857,
      "ମାଣ": 858,
      "ଶ୍ର": 859,
      "ଲା": 860,
      "୍ମ": 861,
      "ଡି ": 862,
      "ା ସ": 863,
      " ୨": 864,
      " ଭାବେ ": 865,
      " ଏହି ": 866,
      "ଜାର": 867,
      "2021": 868,
      "ୀତ": 869,
      "y ": 870,
      "ଆଉ": 871,
      "a ": 872,
      "ରୁ": 873,
      "୧୦": 874,
      "ବାଦ": 875,
      "ନ୍ୟ": 876,
      "ଟ୍ର": 877,
      "ାସ୍ଥ": 878,
      " ଏକ ": 879,
      "ନେକ ": 880,
      "େଣ": 881,
      "ଓଡ଼ିଶ": 882,
      "ରୋଧ": 883,
      "ର ଅ": 884,
      "ବି ": 885,
      "ଡ୍": 886,
      "ଦର୍ଶ": 887,
      " ପରି": 888,
      "ଦୁଇ": 889,
      "es": 890,
      "ଭିନ୍ନ": 891,
      "ବିଜେ": 892,
      "ଲ୍": 893,
      "ାରିଖ": 894,
      "ଯେଉଁ": 895,
      "ବୁ ": 896,
      "ମୁଖ": 897,
      "ର୍ଯ୍ୟନ୍ତ": 898,
      "ୋଲିସ": 899,
      "୍ୟୁ ": 900,
      "ଦିଲ୍ଲ": 901,
      "ିଲା ": 902,
      "ରି ": 903,
      "ହି ": 904,
      "ପି ": 905,
      "ଜ୍ଞ": 906,
      " ପ୍ରତି": 907,
      "ର୍ବ": 908,
      "ଦ୍ୱାରା ": 909,
      "ବର୍ତ୍ତ": 910,
      "ଶ୍ରୀ": 911,
      " ଛ": 912,
      "ିତ ହୋଇ": 913,
      "ାହା": 914,
      "l ": 915,
      "୧୯": 916,
      "ଯାଇଛି": 917,
      "ଏହାକୁ ": 918,
      "୍ଷ": 919,
      "ହେଲେ ": 920,
      "ଭାବେ ": 921,
      "ଗୁଡ଼": 922,
      "ହେଉ": 923,
      "ଚାଲ": 924,
      "ସ୍କ": 925,
      "ସରକାର": 926,
      "ଗୁର": 927,
      "ାଧ": 928,
      "ରେ ଅ": 929,
      "ଜୀବ": 930,
      "ାର୍ଥ": 931,
      "ଣି ": 932,
      " ନେ": 933,
      " ଜିଲ୍ଲ": 934,
      "ବାସ": 935,
      "୍ରେ ": 936,
      "ଥିବାରୁ ": 937,
      "ପଡ଼": 938,
      "ିଲେ ": 939,
      "ାଙ୍କ ": 940,
      "ାନ୍ତି ": 941,
      " ଅଭି": 942,
      " ଗ୍ର": 943,
      "ୟୁ": 944,
      "ଜୟ": 945,
      "କି ": 946,
      "ଭୟ": 947,
      "ଦ୍ଦେଶ": 948,
      "କ୍ରମଣ": 949,
      "ଶ୍ଚ": 950,
      " ଲକ୍ଷ": 951,
      " ପକ୍ଷରୁ ": 952,
      "ରେ ପ୍ର": 953,
      "ଏସ": 954,
      "କେ": 955,
      " କ୍ଷ": 956,
      "କ୍ସ": 957,
      "ିକାର": 958,
      " ସ୍ୱ": 959,
      "ପଦ": 960,
      " ପାଇ": 961,
      "ପ୍": 962,
      "ସମୟରେ ": 963,
      "ଯେ": 964,
      " ମାନ": 965,
      "ଭୁବନେଶ୍ୱ": 966,
      "ହଞ୍ଚ": 967,
      "ଆରମ୍ଭ": 968,
      "ବିଧ": 969,
      "ମ୍ପର୍": 970,
      "ଜାର ": 971,
      "ମଧ୍ୟରେ ": 972,
      "ଯାଏ": 973,
      "ା ବ": 974,
      "ସଭ": 975,
      " ନେଇ": 976,
      "ସେହି": 977,
      "ରାମ": 978,
      "କାଳ": 979,
      "' ": 980,
      "ଂସ": 981,
      "ିମ": 982,
      "ମାତ୍ର": 983,
      " ତାରିଖ": 984,
      "କ୍ତି ": 985,
      "ାଖ": 986,
      "ନିୟ": 987,
      "ବଶ୍ୟ": 988,
      "ଥାଏ ": 989,
      "ରହିଛି ": 990,
      "ନର ": 991,
      "ଗ୍ରହ": 992,
      "କେନ୍ଦ୍ର": 993,
      "ଦେବ": 994,
      "ପରିବ": 995,
      "ିବା ପାଇଁ": 996,
      "ଲେଖ": 997,
      "ରୀ": 998,
      "େତ୍ର": 999,
      "ଟେ": 1000,
      "di": 1001,
      "ା ପ୍ର": 1002,
      "ଲକ୍ଷ": 1003,
      "ବିବ": 1004,
      " ଦୁ": 1005,
      "େଁ": 1006,
      "ଅଭିଯୋଗ": 1007,
      "ହ୍ନ": 1008,
      " ବିଭାଗ": 1009,
      "ଘଟଣା ": 1010,
      "ରେ ଆ": 1011,
      "ଭୂ": 1012,
      "କୁ": 1013,
      " ଉପ": 1014,
      "ଗ୍ରାମ": 1015,
      "ନାମ": 1016,
      "ର୍ଚ୍ଚ": 1017,
      "ବତ": 1018,
      "the ": 1019,
      " ଯୋଗ": 1020,
      "ମନ": 1021,
      "ଗ୍ରେସ": 1022,
      "ାର ସ": 1023,
      "ିକାରୀ": 1024,
      "ଜାତ": 1025,
      " ରାଜ୍ୟ": 1026,
      "ା ଓ": 1027,
      "ପ୍ରତି": 1028,
      "ଚିତ": 1029,
      "ିବ ": 1030,
      " ହେଲ": 1031,
      "ଂଗ୍ରେସ": 1032,
      "ଲ୍ୟ": 1033,
      "ଗୋଟିଏ": 1034,
      " ଦିନ": 1035,
      "ାୟତ": 1036,
      "ସାଧ": 1037,
      "ic": 1038,
      " ମା": 1039,
      "ସାମ": 1040,
      " ଲୋକ": 1041,
      "େଟ୍": 1042,
      "ଟର ": 1043,
      "ୁହା": 1044,
      "ଶାସ": 1045,
      " ମୋ": 1046,
      " ପରେ ": 1047,
      "ସଂଖ୍ୟ": 1048,
      "ା ଅ": 1049,
      "ାକ୍ତ": 1050,
      "ିଥିବା ": 1051,
      "ପୋର୍ଟ": 1052,
      "ପକ୍ଷ": 1053,
      " ଦି": 1054,
      "ଯାଇଥିବା ": 1055,
      "ାସ୍ଥ୍ୟ": 1056,
      "ମୃତ୍ୟୁ ": 1057,
      "ରକୁ ": 1058,
      "ନି ": 1059,
      "ପ୍ରଥମ": 1060,
      "କିଛି ": 1061,
      "ଞ୍ଚଳ": 1062,
      "ou": 1063,
      "ବ୍ର": 1064,
      "ବିଶ୍ୱ": 1065,
      "ାଣି ": 1066,
      "ିଥିଲା": 1067,
      " କୁମ": 1068,
      "ଏଥି": 1069,
      "ାରି ": 1070,
      "ତାଙ୍କର ": 1071,
      "ିକୁ ": 1072,
      "କ୍ରାନ୍ତ": 1073,
      " କରିଥିଲେ": 1074,
      "ନିଆ": 1075,
      "ଗଡ଼": 1076,
      " ଆର": 1077,
      " ଉପରେ ": 1078,
      "ର ଆ": 1079,
      " ରଖ": 1080,
      "ଂଶ": 1081,
      "ଗିର": 1082,
      "ପ୍ତ": 1083,
      "ିବା ପରେ ": 1084,
      "ମହିଳ": 1085,
      "ଟୋ": 1086,
      "ାଲି ": 1087,
      " ମିଳ": 1088,
      "er ": 1089,
      "ମାମ": 1090,
      " ସ୍ଥାନ": 1091,
      "ପୂର୍ଣ୍ଣ": 1092,
      "ହ୍ନଟ": 1093,
      "ନିର୍ବାଚ": 1094,
      "ଡ଼ି ": 1095,
      "େଖ": 1096,
      "ଟଙ୍କା ": 1097,
      "ର୍ଣ୍ଣ": 1098,
      "େବଳ": 1099,
      "କରୋନା ": 1100,
      "ୀଙ୍କୁ ": 1101,
      "ବହାର": 1102,
      "ed ": 1103,
      "ର ବି": 1104,
      "ମୂ": 1105,
      "ାନୁ": 1106,
      "ଲ୍ଲ": 1107,
      "୦୦": 1108,
      "ଂହ": 1109,
      "ଦିଲ୍ଲୀ": 1110,
      "ୋନ": 1111,
      " ୩": 1112,
      "ନିକଟ": 1113,
      "ିକା": 1114,
      " ଚି": 1115,
      "ପତି ": 1116,
      "୍ୟୁ": 1117,
      " କରିଛନ୍ତି": 1118,
      "ମ୍ବା ": 1119,
      "2021 ": 1120,
      " କରିବା ପାଇଁ": 1121,
      "ଯାହା ": 1122,
      "ୁଁ": 1123,
      " ନାହିଁ": 1124,
      "ବିଦ୍ୟ": 1125,
      "ସେମାନେ ": 1126,
      "ମ୍ବର ": 1127,
      "o ": 1128,
      " ହୋଇଛି ": 1129,
      "ଶୀ": 1130,
      "ଭିତ": 1131,
      "ପ୍ରଶ୍": 1132,
      "ଟେ ": 1133,
      "om": 1134,
      " ହେବା ": 1135,
      "ଆହ": 1136,
      "ତେଣ": 1137,
      "ୁହେଁ": 1138,
      "ିକିତ୍": 1139,
      "ତୁ": 1140,
      "େଷ୍ଟ": 1141,
      "ଦନ୍ତ": 1142,
      "ପୁଲ": 1143,
      "ାୟୀ": 1144,
      "ବୈ": 1145,
      " ପୂର୍": 1146,
      "ୁଥିବା ": 1147,
      "at ": 1148,
      " ଦିଆ": 1149,
      "ମା ": 1150,
      "କରଣ": 1151,
      "ାବେଳେ ": 1152,
      "ପୂର୍ବରୁ ": 1153,
      "ି କହ": 1154,
      "ଦୂ": 1155,
      "ଟାଲ": 1156,
      "କଙ୍କ ": 1157,
      "ର ପ": 1158,
      " କର୍ମ": 1159,
      " କରାଯାଇଛି ": 1160,
      "st": 1161,
      "ec": 1162,
      "ଶତ": 1163,
      "it": 1164,
      " ହଜାର ": 1165,
      "ତ୍ସ": 1166,
      "ଚ୍ଛ": 1167,
      "ୋର": 1168,
      " ସା": 1169,
      "ମୁଁ": 1170,
      "ତେଣୁ ": 1171,
      " ନିଜ": 1172,
      "ଥି": 1173,
      "ଯୁବ": 1174,
      "ବିରୋଧ": 1175,
      "ସମ୍": 1176,
      "ୋର୍": 1177,
      "ୋଧ": 1178,
      "କା ": 1179,
      "ଖବର ": 1180,
      "ବିଷ": 1181,
      "ପତ୍ତ": 1182,
      "ଏହାର": 1183,
      "ଜଣାପ": 1184,
      " ଆସ": 1185,
      "ତନ": 1186,
      "ଅନେକ ": 1187,
      "ଗଣ": 1188,
      " ସେ ": 1189,
      "କାରଣ": 1190,
      "ଏଥିରେ ": 1191,
      "ଧ୍ୟମ": 1192,
      " ଆରମ୍ଭ": 1193,
      "େବେଳେ ": 1194,
      " କିଛି ": 1195,
      "ସାର": 1196,
      " କରିଛି ": 1197,
      "ଯାଉଛି ": 1198,
      "ାତ୍ରୀ": 1199,
      "ସ୍ପ": 1200,
      " ପା": 1201,
      "ସାଧାରଣ": 1202,
      "କ୍ତି": 1203,
      " ଦେଖ": 1204,
      "ଡିଓ": 1205,
      "ଆଗ": 1206,
      "ୁଛି ": 1207,
      "ନାହିଁ ": 1208,
      "ଗାଁ": 1209,
      "ୁଆ": 1210,
      "ିକ୍ର": 1211,
      "ଣି": 1212,
      "ଏସ୍": 1213,
      " ମଧ୍ୟରେ ": 1214,
      "ଅପ": 1215,
      "କୌଣସି ": 1216,
      "ଗ୍": 1217,
      "ର୍ଗ": 1218,
      "ଭେ": 1219,
      "ଶିକ୍ଷ": 1220,
      "| ": 1221,
      "ଯୋଜ": 1222,
      "ପାଇ": 1223,
      "ଦାୟ": 1224,
      "ଭାରତୀୟ": 1225,
      "ଭଲ": 1226,
      "େକ ": 1227,
      "ିବେ ": 1228,
      "ର ବ": 1229,
      " କେନ୍ଦ୍ର": 1230,
      "ପୁଲିସ": 1231,
      "ଆମେ ": 1232,
      "ଗୁରୁତ": 1233,
      "ଏକ": 1234,
      "ି ହୋଇ": 1235,
      "ସେହିପରି ": 1236,
      "ଧାର": 1237,
      "ୂପ": 1238,
      "କୁ ନେଇ": 1239,
      "ଲାଗି ": 1240,
      "ପଡ": 1241,
      "ଏଭଳି ": 1242,
      " ପୁ": 1243,
      "ିଲା": 1244,
      "ଛାତ୍ର": 1245,
      "୧୨": 1246,
      " ପାର": 1247,
      "ଯାହ": 1248,
      "ଉତ୍ତର ": 1249,
      "ାନ୍ତି": 1250,
      "ଟ୍ଟ": 1251,
      "ପାଳ": 1252,
      "ଦେଶରେ ": 1253,
      " ହୋଇଥିବା ": 1254,
      " ଗୋ": 1255,
      "ଯାଇଥିଲା ": 1256,
      "ୀରେ ": 1257,
      "ିଅ": 1258,
      "ିକିତ୍ସ": 1259,
      "ଜାଣ": 1260,
      "em": 1261,
      "ିକି ": 1262,
      "ଫଳରେ ": 1263,
      "ଦକ୍ଷ": 1264,
      "ଥିବାବେଳେ ": 1265,
      "ପାଖ": 1266,
      " କରୋନା ": 1267,
      "ଡିଆ": 1268,
      "ଳ୍ପ": 1269,
      " ଭାରତ": 1270,
      "ମତ": 1271,
      " ସମୟରେ ": 1272,
      "ଯଦି ": 1273,
      "on ": 1274,
      "ନା କର": 1275,
      "al": 1276,
      "୧୫": 1277,
      "ନ୍ନ ": 1278,
      "0 ": 1279,
      "ୃହ": 1280,
      " କୋଟି ": 1281,
      "ନବ": 1282,
      " ରାଜ": 1283,
      " ହେଉଛି ": 1284,
      "ୃଷ": 1285,
      "re": 1286,
      "ନ୍ତର୍": 1287,
      " ମୁଖ୍ୟ": 1288,
      "ଭା": 1289,
      "ମିଶ": 1290,
      " କରାଯିବ": 1291,
      "କର ": 1292,
      " କହିଛନ୍ତି ": 1293,
      "ହେ": 1294,
      " ଟଙ୍କା ": 1295,
      "କୋର୍ଟ": 1296,
      "କ୍ରିୟ": 1297,
      " ଅନ୍ୟ": 1298,
      "ରୋଗ": 1299,
      "ନ୍ସ": 1300,
      "ସ୍ତୁତ": 1301,
      "ଫ୍": 1302,
      "ହାତ": 1303,
      "ଚାଷ": 1304,
      "ରାସ୍ତ": 1305,
      "ଖେଳ": 1306,
      "ତାହା ": 1307,
      "ନାଥ": 1308,
      "ଲାଇ": 1309,
      " ଡି": 1310,
      "ୋଷଣା ": 1311,
      "ରାଜ୍ୟରେ ": 1312,
      "ିକ୍": 1313,
      "ପ୍ରଧାନ": 1314,
      "ବାନ": 1315,
      "ଥିରେ ": 1316,
      "ରହିଛି": 1317,
      "ଜଳ": 1318,
      "ୟାର": 1319,
      " ଶି": 1320,
      " କ୍ର": 1321,
      "ୀକ୍ଷ": 1322,
      "ଠି ": 1323,
      "ଜୁ": 1324,
      "ଥର ": 1325,
      "କ୍ୟ": 1326,
      "ା କରା": 1327,
      "ସ୍ତାନ": 1328,
      "ଙ୍କ ସହ": 1329,
      "ସମୟ": 1330,
      "ଦ୍ଧା ": 1331,
      "ବ୍": 1332,
      "ସୋ": 1333,
      "ଚାଳ": 1334,
      " ସାମ": 1335,
      "ିବାକୁ ମିଳ": 1336,
      "ଦିନ ": 1337,
      "ବଳ": 1338,
      "ଟିଭ": 1339,
      "ଷ୍ଠାନ": 1340,
      "ବର୍ତ୍ତମାନ": 1341,
      " ସହିତ": 1342,
      "ing": 1343,
      "୧୧": 1344,
      "ମାର": 1345,
      "ପୋଲିସ": 1346,
      " ୫": 1347,
      "କରା": 1348,
      "ରାଷ୍ଟ୍ର": 1349,
      "ୀ ଓ": 1350,
      "ଡା ": 1351,
      "sh": 1352,
      "ସେମାନଙ୍କ ": 1353,
      "ବୃଦ୍ଧ": 1354,
      "।   ": 1355,
      "ବଡ଼": 1356,
      "ଫେର": 1357,
      "େପ": 1358,
      "ିଲ୍": 1359,
      " ଲାଗ": 1360,
      "ଡ଼ିଆ": 1361,
      "ଗିରଫ": 1362,
      "ସୁର": 1363,
      "M ": 1364,
      " ପର୍ଯ୍ୟନ୍ତ": 1365,
      "ଟା ": 1366,
      "ବ୍ଲ": 1367,
      "ି କରା": 1368,
      "ଷ୍ପତ୍ତ": 1369,
      " ୪": 1370,
      "ହିଁ": 1371,
      " ବେ": 1372,
      "ଲୋକ ": 1373,
      " ଗୁ": 1374,
      "କୋଭି": 1375,
      "ବାଇ": 1376,
      "ସନ୍": 1377,
      "ଭାଇ": 1378,
      "ମି ": 1379,
      "୧୮": 1380,
      "ାଣି": 1381,
      "ପାଦ": 1382,
      " ବିଷ": 1383,
      "ପାରେ ": 1384,
      " ପୂର୍ବ": 1385,
      "ରାଇ": 1386,
      "ରହି": 1387,
      "ସଙ୍ଗ": 1388,
      "େମ": 1389,
      " ରହିଛି ": 1390,
      "ସିଆ": 1391,
      "ସେହି ": 1392,
      "ଭିନ୍ନ ": 1393,
      "ଞ୍ଚଳରେ ": 1394,
      "ପ୍ରଶ୍ନ ": 1395,
      "ବିଶେଷ": 1396,
      "ିତୀୟ": 1397,
      "/2021 ": 1398,
      "ମନ୍ଦ": 1399,
      "ନିର୍ଦ୍ଦେଶ": 1400,
      " କୁମାର": 1401,
      "ବିଭିନ୍ନ": 1402,
      "କାରୀ": 1403,
      " ସୂ": 1404,
      "ଓଡ଼ିଶା ": 1405,
      "ମାସ": 1406,
      " ତାଙ୍କ ": 1407,
      "ଭିଡିଓ": 1408,
      "ପ୍ରକାଶ": 1409,
      "ଜିଲ୍ଲା ": 1410,
      "କର୍ମ": 1411,
      "ଉଭୟ": 1412,
      "ଡାକ୍ତ": 1413,
      "ଦେହ": 1414,
      "ଯାତ୍ର": 1415,
      "ାନ୍ସ": 1416,
      " ୨୦": 1417,
      "େନ": 1418,
      "ଦନ": 1419,
      "ଂଚ": 1420,
      "ମାନଙ୍କର ": 1421,
      "ପୂ": 1422,
      "ଲୋଚନା ": 1423,
      "ଜାତୀୟ": 1424,
      " ହେ": 1425,
      "ପାରିବେ ": 1426,
      "ସାରେ ": 1427,
      "ନର": 1428,
      "ାପତି ": 1429,
      "ସମ୍ପ": 1430,
      "ଦ୍ଧାର": 1431,
      " ମାସ": 1432,
      "ଡ଼ା ": 1433,
      "ନାରେ ": 1434,
      " ପରିବ": 1435,
      " ମେ": 1436,
      " ଖେଳ": 1437,
      "to ": 1438,
      " ଆମ": 1439,
      "ବଶ୍ୟକ": 1440,
      "f ": 1441,
      "ାଦ୍ୟ": 1442,
      "ଲଗ": 1443,
      "ଡିକ": 1444,
      "ସବୁ ": 1445,
      "୧୪": 1446,
      "am": 1447,
      " କରାଯାଇଛି": 1448,
      "ରିପୋର୍ଟ": 1449,
      "ଡ଼ି": 1450,
      "ରର ": 1451,
      "ଧିକ ": 1452,
      " ଦଳ": 1453,
      "ମ୍ପାନ": 1454,
      "ୁଏ": 1455,
      " ସମସ୍ତ": 1456,
      "ୋଳ": 1457,
      "ଦର୍ଶନ": 1458,
      "କଳ୍ପ": 1459,
      "ତଦନ୍ତ": 1460,
      "ସେ କହ": 1461,
      "ଚାରୀ": 1462,
      " ସମ୍": 1463,
      "ତୃତ": 1464,
      " ଦୁଇ": 1465,
      "ଦା": 1466,
      "ାନ୍ଧ": 1467,
      "ଥ୍ୟ": 1468,
      "୩୦": 1469,
      "ଝିଅ": 1470,
      "ଦୁର୍": 1471,
      "ସ୍ୱାସ୍ଥ୍ୟ": 1472,
      " ପ୍ରଧାନ": 1473,
      "ସିଂହ": 1474,
      "କେବଳ": 1475,
      "ରା ": 1476,
      " କରିଥିବା ": 1477,
      "ମିତି ": 1478,
      " ସ୍ଥ": 1479,
      " ଚିହ୍ନଟ": 1480,
      " କ୍ଷେତ୍ର": 1481,
      "ାପ୍ତ": 1482,
      "ew": 1483,
      "ୂଳ": 1484,
      "ୁରୋ": 1485,
      "ତିରେ ": 1486,
      "ti": 1487,
      "ଡିଶ": 1488,
      "ରେ ଥିବା ": 1489,
      "୨୧": 1490,
      " କରୁଥିବା ": 1491,
      "ହେଉଛି ": 1492,
      "ପରିବାର": 1493,
      "ସ୍ଥିତି ": 1494,
      "ିଲ୍ମ": 1495,
      "ିତ୍ର": 1496,
      " ୱ": 1497,
      "ବନ୍ଧ": 1498,
      "ସଂଖ୍ୟା ": 1499,
      " ଷ୍ଟ": 1500,
      " ହୋଇଛନ୍ତି ": 1501,
      "ୁଷ": 1502,
      " ସାହ": 1503,
      " ବୋଲ": 1504,
      "ପିଟାଲ": 1505,
      "ନିକ ": 1506,
      "ସିହ": 1507,
      "ଆହୁର": 1508,
      "/ ": 1509,
      " ପ୍ରଦାନ": 1510,
      "st ": 1511,
      " କରିବେ ": 1512,
      "ଭୁବନେଶ୍ୱର": 1513,
      "ତେ ": 1514,
      " କାମ": 1515,
      "ିଂ": 1516,
      "ov": 1517,
      "ପ୍ରତ": 1518,
      " ଆଇ": 1519,
      "ଭର": 1520,
      "ଘର ": 1521,
      "ଧ୍ୟକ୍ଷ": 1522,
      " ରେ ": 1523,
      "ତଥା ": 1524,
      "ପାରେ": 1525,
      "ଉତ୍ତର": 1526,
      "ଲୁ": 1527,
      " ବିଶ୍ୱ": 1528,
      " ମିଶ": 1529,
      "ଞ୍ଚାୟତ": 1530,
      "କରି ": 1531,
      "ାଲ୍": 1532,
      "ଯିବା ": 1533,
      "ପ୍ରତି ": 1534,
      "ଏନେଇ": 1535,
      " ବାହ": 1536,
      "ବସ୍ଥା ": 1537,
      "ଯୋଗ୍ୟ": 1538,
      "ଟ୍ଟନ": 1539,
      "ାଁ": 1540,
      "es ": 1541,
      "ବେଶ": 1542,
      "ବିଭାଗ": 1543,
      "ଯାଇଥିଲା": 1544,
      " ହୋଇଛି": 1545,
      "and ": 1546,
      "ଜ୍ଞାନ": 1547,
      "ଭବ": 1548,
      " ସୃଷ୍ଟ": 1549,
      "ନକୁ ": 1550,
      "ଗ୍ରହଣ": 1551,
      "ବ୍ୟବହାର": 1552,
      "ହଣ": 1553,
      " ପୁର": 1554,
      " ଆପଣ": 1555,
      "ନ୍ତା ": 1556,
      "ବସାୟ": 1557,
      " କୌଣସି ": 1558,
      "ପତ୍ର": 1559,
      "ାୟକ": 1560,
      "ପୁଣି ": 1561,
      " କାରଣ": 1562,
      "୨୨": 1563,
      "ାଇବ": 1564,
      "ହାସ": 1565,
      "ମାଲ": 1566,
      "ଏଠାରେ ": 1567,
      "ନୋ": 1568,
      "ଏମ୍": 1569,
      "ଏମ": 1570,
      "ଳା ": 1571,
      " ଦେଶ": 1572,
      "ିବେ": 1573,
      " ଚାଲ": 1574,
      "ାପାଳ": 1575,
      "ାପରେ ": 1576,
      "of ": 1577,
      "ସାମ୍": 1578,
      "େଜ": 1579,
      "ଷ୍ପତ୍ତି ": 1580,
      ".\n": 1581,
      "େତେବେଳେ ": 1582,
      "ୟନ": 1583,
      "ପଟେ ": 1584,
      "ନ୍ଦୁ": 1585,
      "ୋକ ": 1586,
      "ସୂଚ": 1587,
      "’ ": 1588,
      "ନୂଆଦିଲ୍ଲୀ": 1589,
      "ଙ୍କ ପାଇଁ": 1590,
      "ଦସ୍ୟ": 1591,
      " ଏହା ": 1592,
      "ବନ୍ଦ": 1593,
      "ୀକ୍ଷା ": 1594,
      "୧୬": 1595,
      "ବୋଲ": 1596,
      "ଗଠ": 1597,
      " ହେବ ": 1598,
      " ପ୍ରତିଶତ": 1599,
      "ଦିବ": 1600,
      "ri": 1601,
      " କରନ୍ତୁ": 1602,
      "ମଧ୍ୟରୁ ": 1603,
      "ସମ୍ବ": 1604,
      "ସ୍ପିଟାଲ": 1605,
      "ଡ୍ର": 1606,
      "କୁ ପ": 1607,
      " ବୈ": 1608,
      " ମହିଳ": 1609,
      "କର୍": 1610,
      "ଉଠ": 1611,
      "ଆୟ": 1612,
      "ସମସ୍ୟ": 1613,
      " ବ୍ୟା": 1614,
      "ଦୃଷ୍ଟ": 1615,
      "ଛାତ୍ରୀ": 1616,
      "ରିଆ": 1617,
      " ସମୟ": 1618,
      "୧୭": 1619,
      "ଣୀ": 1620,
      "ାଞ୍ଚ": 1621,
      "ଚିକିତ୍ସ": 1622,
      "ତାଲ": 1623,
      "ବିଦ୍ୟାଳୟ": 1624,
      "il": 1625,
      "ଦ୍ବ": 1626,
      "ଅର୍ଥ": 1627,
      "ପେ": 1628,
      "? ": 1629,
      "ନନ୍ଦ": 1630,
      "ing ": 1631,
      "el": 1632,
      " ମାମ": 1633,
      "ଯାଉଛି": 1634,
      "ରୁ ଅଧିକ ": 1635,
      "ଖଣ୍ଡ": 1636,
      "ପର୍": 1637,
      "ଯାୟୀ": 1638,
      " ଭିତ": 1639,
      "ac": 1640,
      "ରାୟ": 1641,
      "ମ୍ପର୍କରେ ": 1642,
      "କିସ୍ତାନ": 1643,
      " ନିର୍ବାଚ": 1644,
      "କ୍ରମିତ": 1645,
      "in ": 1646,
      "ଣ୍ଡିଆ": 1647,
      " ବହ": 1648,
      " ମନ୍ତ": 1649,
      " ମୃତ": 1650,
      "ତନ୍ତ୍ର": 1651,
      " କାର୍ଯ୍ୟକ୍ରମ": 1652,
      "ନ୍ମ": 1653,
      "ରେ ବି": 1654,
      " ଟି": 1655,
      "ଙ୍କାର": 1656,
      "ନୀତି ": 1657,
      "ମାଧ୍ୟମ": 1658,
      "ଦାବ": 1659,
      "ିବାରେ ": 1660,
      " ରି": 1661,
      "୫୦": 1662,
      "ହାଇ": 1663,
      "ଜୀବନ": 1664,
      "ag": 1665,
      "ଚଳିତ": 1666,
      "କ୍ଷେତ୍ର": 1667,
      "ନିର୍ବାଚନ": 1668,
      " ପି": 1669,
      "ବିଜେପି ": 1670,
      " ଗ୍ରହଣ": 1671,
      "ber ": 1672,
      " ଜନ": 1673,
      "କାଇ": 1674,
      " ବନ୍ଦ": 1675,
      "ସଂକ୍ରମଣ": 1676,
      "ପାଠ": 1677,
      " ବିଜେ": 1678,
      "ହାର": 1679,
      "କୁହା": 1680,
      "ବୀ": 1681,
      "ାଇବା ପାଇଁ": 1682,
      " ଜୀବ": 1683,
      "ସ୍ଥାନୀୟ": 1684,
      "ନ୍ତ୍ରଣ": 1685,
      " ଅଧିକାରୀ": 1686,
      "ବିବାହ": 1687,
      "କାମ": 1688,
      "ତାର": 1689,
      "ତମ": 1690,
      " କେ": 1691,
      "ଏଲ": 1692,
      "ାଇନ": 1693,
      " ୬": 1694,
      "ିକେଟ": 1695,
      "ରାଉ": 1696,
      " କରିଛି": 1697,
      " ରହିଛି": 1698,
      "ଦେଇଛନ୍ତି ": 1699,
      " ମସିହ": 1700,
      "ଦେଖିବାକୁ ମିଳ": 1701,
      "ୈତ": 1702,
      "/0": 1703,
      "ୁଛନ୍ତି ": 1704,
      "୧୩": 1705,
      "ଆଶ": 1706,
      "ଲି ": 1707,
      "୨୪": 1708,
      "େନ୍": 1709,
      " ଓଡ଼ିଶ": 1710,
      "ସ୍ତ୍ର": 1711,
      "ଏହାର ": 1712,
      " ହୋଇଥିଲା ": 1713,
      "ଜୁ ": 1714,
      " କିମ୍ବା ": 1715,
      " ଟ୍ର": 1716,
      " ଶୁ": 1717,
      "ଉତ୍": 1718,
      "ମୋଟ": 1719,
      "ର୍ଘ": 1720,
      "ଗୁରୁତ୍ୱ": 1721,
      "ରିକ": 1722,
      "ରକ୍ଷ": 1723,
      "ିତା ": 1724,
      "ଗର": 1725,
      "ପଥ": 1726,
      " ରେ": 1727,
      "ସାଇ": 1728,
      "ତାକୁ ": 1729,
      "ନିଜର ": 1730,
      "ବହୁ ": 1731,
      "ପହଞ୍ଚ": 1732,
      "ନେତା ": 1733,
      "ଶୁଭ": 1734,
      "କାନ": 1735,
      "ଫିସ": 1736,
      " ଘଣ୍ଟ": 1737,
      "ol": 1738,
      "ିଲି": 1739,
      " ପଟ୍ଟନ": 1740,
      "ପର୍ଯ୍ୟନ୍ତ": 1741,
      " ଥିବା ": 1742,
      "ରେ ବ": 1743,
      "ଏନ": 1744,
      "ମ୍ବାଇ": 1745,
      "ଭୁ": 1746,
      "ିଣ": 1747,
      "ଦ୍ୱିତୀୟ": 1748,
      " ବୁ": 1749,
      "ାଇବାକୁ ": 1750,
      "ଦୀପ": 1751,
      "ଦୃ": 1752,
      " ସମ୍ପ": 1753,
      " ଶ୍ର": 1754,
      "ଜର ": 1755,
      "ରେ ଏକ ": 1756,
      "ନୟ": 1757,
      "ନାକୁ ": 1758,
      "ଏଥିପାଇଁ": 1759,
      " କହିଛନ୍ତି": 1760,
      "ଚେତ": 1761,
      "ଥା": 1762,
      "ଭଦ୍ର": 1763,
      "ଗ୍ରୀ": 1764,
      "ାଡ଼": 1765,
      "୍ରାସ": 1766,
      "ent": 1767,
      "କୃତ": 1768,
      "ପ୍ରାୟ": 1769,
      "ଅବ": 1770,
      "ଫ୍ର": 1771,
      " ଜଣେ ": 1772,
      "ଷ୍ଣ": 1773,
      "; ": 1774,
      "ସେଠାରେ ": 1775,
      " ବୃଦ୍ଧ": 1776,
      "ିତ୍ୱ": 1777,
      "19": 1778,
      " ସୂଚନା ": 1779,
      "ର୍ସ": 1780,
      "ଲୋକେ ": 1781,
      "ଜଣାପଡ଼": 1782,
      "ଳା": 1783,
      "ମନ୍ତେ ": 1784,
      "ୃତି ": 1785,
      "ଳେ ": 1786,
      "ନୁହେଁ": 1787,
      "ସୁବିଧ": 1788,
      "ଶ୍ଚିମ": 1789,
      "ସେବ": 1790,
      "ରାଜ୍ୟ ସରକାର": 1791,
      "ଭାବନା ": 1792,
      "ବାର ": 1793,
      " ଦିନ ": 1794,
      "୍ୟାଚ": 1795,
      "ାଙ୍କୁ ": 1796,
      "ଟିଂ": 1797,
      "ୂର୍ଣ୍ଣ": 1798,
      "ଶାନ୍ତ": 1799,
      "ମୟ": 1800,
      "ad": 1801,
      "ୀନ ": 1802,
      " ପୁଲ": 1803,
      "ସ୍କୁଲ": 1804,
      " ପଦ": 1805,
      "ରିଷ୍ଠ": 1806,
      "ରେ ପହଞ୍ଚ": 1807,
      " ଅର୍ଥ": 1808,
      "ଦେବା ": 1809,
      "( ": 1810,
      "ନିର୍ମାଣ": 1811,
      " ସଭ": 1812,
      "ା ପାଇଁ": 1813,
      "ଉଚ୍ଚ": 1814,
      "ବଶ୍ୟକ ": 1815,
      ", 2021": 1816,
      "ହୋଇଥିବା ": 1817,
      "ଘର": 1818,
      "ାଙ୍ଗ": 1819,
      "କେତ": 1820,
      "ir": 1821,
      "ଜ୍ୟ": 1822,
      "ରାଧ": 1823,
      "ଗୁଡ଼ିକ ": 1824,
      "ବହୁତ": 1825,
      "2 ": 1826,
      "ଏପରି ": 1827,
      "ଓଡିଶ": 1828,
      "ସ୍କାର": 1829,
      " କାର": 1830,
      "ପ୍ରଦାନ": 1831,
      "ର୍ଥିକ ": 1832,
      "ାଡ": 1833,
      "ଦାର": 1834,
      "ାର୍ଡ": 1835,
      "PM ": 1836,
      " ପ୍ରକାଶ": 1837,
      "al ": 1838,
      "ଠୁ ": 1839,
      "ଜିଲ": 1840,
      "ରାମର୍ଶ": 1841,
      "ଦିଆଯାଇଥିବା ": 1842,
      "ଆକ୍ରାନ୍ତ": 1843,
      "ବସରରେ ": 1844,
      "ୋହ": 1845,
      "ମାମଲା ": 1846,
      " ବିଷୟରେ ": 1847,
      "ଶୁଣ": 1848,
      "k ": 1849,
      "ପରିବର୍ତ୍ତ": 1850,
      "ମାମଲ": 1851,
      "ଏହି ଅ": 1852,
      "କଂଗ୍ରେସ": 1853,
      "୨୫": 1854,
      "ର୍ଦ୍ଧ": 1855,
      "ୟସ": 1856,
      "ଗଡ": 1857,
      "ବାହାର": 1858,
      "ିତ୍ୟ": 1859,
      " କରିଥାଏ": 1860,
      "କୁ ଆ": 1861,
      "ଫିଲ୍ମ": 1862,
      "ରେ ରହ": 1863,
      "ସଫଳ": 1864,
      " ନୁହେଁ": 1865,
      "ନାର": 1866,
      "ିସ୍": 1867,
      "): ": 1868,
      " ଗ୍ରାମ": 1869,
      "ସବୁ": 1870,
      "ବ୍ୟକ୍ତି": 1871,
      "ସର୍": 1872,
      "ାଣ୍ଡ": 1873,
      "ଧାନସଭ": 1874,
      "....": 1875,
      "ଚିବ": 1876,
      "ୋଷଣା କର": 1877,
      "ାଭ": 1878,
      "ୁଛି": 1879,
      "ମୁଖ୍ୟମନ୍ତ୍ରୀ ": 1880,
      "କୋଭିଡ": 1881,
      "ବୈଠ": 1882,
      " କରାଯାଇଥିଲା ": 1883,
      "ନାହ": 1884,
      " ପୂର୍ବରୁ ": 1885,
      "ଉନ୍ନ": 1886,
      "ଦା ": 1887,
      "ସ୍ବା": 1888,
      " ଜଳ": 1889,
      "ାୟୀ ": 1890,
      "ଉଲ୍ଲ": 1891,
      "ଙ୍କ ପ": 1892,
      "ଫୋ": 1893,
      " ୭": 1894,
      "ଥାନ୍ତି ": 1895,
      " ଏବେ ": 1896,
      "ଜିତ": 1897,
      "ସର": 1898,
      " ନିୟ": 1899,
      "ୋର ": 1900,
      "ମୀ": 1901,
      "କାଲି ": 1902,
      "ପୁଅ": 1903,
      "େଲ୍": 1904,
      " କଲେ ": 1905,
      "ମହିଳା ": 1906,
      "ରୂପ": 1907,
      "ୂତନ": 1908,
      "ିକାରୀ ": 1909,
      " କଂଗ୍ରେସ": 1910,
      "ାନୁଷ୍ଠାନ": 1911,
      "ଓ୍": 1912,
      "ଖାଦ୍ୟ": 1913,
      "ସୁନ୍ଦ": 1914,
      "ଭାବରେ ": 1915,
      "ମୁଖ୍ୟମନ୍ତ୍ରୀ": 1916,
      "ସମେତ": 1917,
      "ମୁଣ୍ଡ": 1918,
      "ସେତ": 1919,
      "ଲାଭ": 1920,
      "ଚା": 1921,
      "ଆମେର": 1922,
      " ପୋଲିସ": 1923,
      "ପୁଟ": 1924,
      "ଶିକ୍ଷା ": 1925,
      "ାତ୍ମ": 1926,
      " ପର୍ଯ୍ୟ": 1927,
      " କରୁଛନ୍ତି ": 1928,
      "ହତ୍ୟ": 1929,
      "ch": 1930,
      "ନୈତ": 1931,
      "ଗଞ୍ଜ": 1932,
      " ବିବ": 1933,
      " କରନ୍ତୁ ": 1934,
      "ଙ୍ଗଲ": 1935,
      "େଣ୍ଟ": 1936,
      " ବ୍ୟବହାର": 1937,
      " କଥା ": 1938,
      "Odi": 1939,
      "ଦେଶର ": 1940,
      "ବେ ": 1941,
      "ଗୃହ": 1942,
      "ଆପଣଙ୍କ ": 1943,
      "ଙ୍ଗଳ": 1944,
      " କର୍ମଚାରୀ": 1945,
      "ରେ ଏହି ": 1946,
      "our": 1947,
      " କୁ": 1948,
      "ଘ୍ର": 1949,
      "ାୟତା ": 1950,
      "ହୋଇଛି ": 1951,
      "ହତ": 1952,
      "ଚନ୍ଦ୍ର": 1953,
      "ଯିବ ": 1954,
      "ଭୁବନେଶ୍ୱର ": 1955,
      " ପୂ": 1956,
      "ଗର ": 1957,
      "ସୁସ୍ଥ": 1958,
      "ଏହାପରେ ": 1959,
      "ତାହ": 1960,
      ", 2021\n": 1961,
      "୍ୟାନ": 1962,
      "ଥାନା ": 1963,
      "ମେଣ୍ଟ": 1964,
      " ସୁର": 1965,
      "ାହାଯ୍ୟ": 1966,
      "ଶଂସ": 1967,
      "ଘଟଣାରେ ": 1968,
      " ପରିବାର": 1969,
      "କାର୍ଯ୍ୟକ୍ରମ": 1970,
      " ହେବାକୁ ": 1971,
      " ସମା": 1972,
      "ସେମାନଙ୍କୁ ": 1973,
      "ଦାସ": 1974,
      "ବାକ୍ୟ": 1975,
      "ଦେଖା": 1976,
      "ଧ୍ୟାନ": 1977,
      "ଥରେ ": 1978,
      " ଥିଲେ ": 1979,
      "ପ୍ରତ୍ୟ": 1980,
      "ସଲ": 1981,
      "ପ୍ରିୟ": 1982,
      "ଖୁ": 1983,
      " ସେବ": 1984,
      "ember ": 1985,
      "ପାରିବେ": 1986,
      " ରହି": 1987,
      "ଶ୍ରମ": 1988,
      "ଶିଶ": 1989,
      " ତାରିଖରେ ": 1990,
      "ନିବ": 1991,
      "ୁତି ": 1992,
      "ଶାସନ": 1993,
      " ଜାରି ": 1994,
      "ମାଳ": 1995,
      "ଧର୍ମ": 1996,
      " ଅଭିଯୋଗ": 1997,
      " ଆଜି ": 1998,
      " ରୋଗ": 1999,
      "କଙ୍କୁ ": 2000,
      " ଯୋଜ": 2001,
      "ଭୁବନେଶ୍": 2002,
      "ନ ଓ": 2003,
      "ow": 2004,
      "ୀମାନେ ": 2005,
      " କମି": 2006,
      "ୁଟ": 2007,
      "ଦ୍ୟମ": 2008,
      "ବ୍ୟା": 2009,
      "ାକୁ ନେଇ": 2010,
      "ମୁମ୍ବାଇ": 2011,
      "ାପନ": 2012,
      "ଲୋକଙ୍କ ": 2013,
      "ନିକଟରେ ": 2014,
      "ବିଜୟ": 2015,
      " ନୂଆ": 2016,
      "ଚିହ୍ନଟ": 2017,
      "ati": 2018,
      "ପାକିସ୍ତାନ": 2019,
      " ପ୍ରଥମ": 2020,
      "ବଡ": 2021,
      "ରଖି ": 2022,
      " କରିବା ସହ": 2023,
      "ିବା ସହ": 2024,
      "ାତ୍": 2025,
      "ୁର ": 2026,
      "as": 2027,
      "ତୀତ": 2028,
      " ୮": 2029,
      "ରାଲ": 2030,
      " ତଥା ": 2031,
      "ବ୍ୟାପ": 2032,
      "ବାୟ": 2033,
      " କଲେ": 2034,
      "ି ପାଇ": 2035,
      "ଚେ": 2036,
      " କରିବାରେ ": 2037,
      "େଟ୍ର": 2038,
      "ଜା ": 2039,
      "ପ୍ରଭାବ": 2040,
      " ବ୍ର": 2041,
      "ାମୀ ": 2042,
      "ବ୍ୟବସାୟ": 2043,
      "ରବ": 2044,
      "ଉତ୍ସ": 2045,
      "ପର୍ଯ୍ୟ": 2046,
      "ଥିପାଇଁ": 2047,
      " ଲେଖ": 2048,
      " ହୋଇଛନ୍ତି": 2049,
      "ଠିକ୍": 2050,
      "ର ଏକ ": 2051,
      "ଏପର": 2052,
      "୍ୟାସ": 2053,
      " ପାଳ": 2054,
      "ଲେଖନ୍ତୁ": 2055,
      "ପୃ": 2056,
      "ବସ୍ଥାରେ ": 2057,
      "କାବ": 2058,
      "କଟକ": 2059,
      "କୁ ଅନ୍ୟ": 2060,
      "ଅନୁଷ୍ଠ": 2061,
      "ସନ": 2062,
      "ଶ୍ୱର ": 2063,
      " ୧୦": 2064,
      " ବା": 2065,
      "ଦୀର୍ଘ": 2066,
      "8 ": 2067,
      "କ୍ଟ": 2068,
      "ଆକ୍ରମଣ": 2069,
      "ତଙ୍କ": 2070,
      "ଘଟଣାସ୍ଥ": 2071,
      " ଅଞ୍ଚଳ": 2072,
      "ବାଲେ": 2073,
      "ଆସୁ": 2074,
      " ଅଧିକ ": 2075,
      " ଆକ୍ରାନ୍ତ": 2076,
      "ମୂଲ୍ୟ": 2077,
      "ଚିନ୍ତ": 2078,
      "ଙ୍କର": 2079,
      "ସକାଳ": 2080,
      "ed": 2081,
      "ଦେଇଥିଲେ ": 2082,
      "ଜିଲ୍ଲାରେ ": 2083,
      "ଯେତେବେଳେ ": 2084,
      "ସାହ": 2085,
      " କରିଥିଲା ": 2086,
      " ସ୍ତ": 2087,
      "କ୍ଷମ": 2088,
      "ନିଶ୍ଚ": 2089,
      "New": 2090,
      "ଖୁବ": 2091,
      "ଜଣାପଡ": 2092,
      "ରଫ": 2093,
      "1 ": 2094,
      "dat": 2095,
      "ରେ ଭ": 2096,
      " ହଜାର": 2097,
      "ବିଷୟରେ ": 2098,
      "ଗି": 2099,
      "is ": 2100,
      " ଲି": 2101,
      "କାଉ": 2102,
      "ନିଷ୍ପତ୍ତି ": 2103,
      "ଉଦ୍ଧାର": 2104,
      "10": 2105,
      "ଗୁଡ": 2106,
      " ମିଡିଆ": 2107,
      "\t\n": 2108,
      "ଞ୍ଜନ": 2109,
      "ଟକ": 2110,
      "ଶ୍ରୀ ": 2111,
      "ାନି": 2112,
      "ଯୁକ୍ତି ": 2113,
      "ଲୋକଙ୍କୁ ": 2114,
      "    ": 2115,
      " ବ୍ଲ": 2116,
      "ଯାଏ ": 2117,
      " ନିକଟ": 2118,
      " ବିଧ": 2119,
      "ନୈତିକ ": 2120,
      "ପ୍ଟ": 2121,
      "ଡେ": 2122,
      " ସୋ": 2123,
      "ସନ୍ତ": 2124,
      "com": 2125,
      "ାପାତ୍ର": 2126,
      " ମିଶ୍ର": 2127,
      "or ": 2128,
      "% ": 2129,
      "କ ଅ": 2130,
      " ଆଉ": 2131,
      "ଳୀ": 2132,
      " ଯୁବ": 2133,
      "ଜଗ": 2134,
      " ହେଲା ": 2135,
      "ଯୋଗୁଁ": 2136,
      "ଥି ": 2137,
      "ସୀ": 2138,
      "ନ୍ତର୍ଗତ": 2139,
      "ଦିଆଯାଇଥିବା ବାକ୍ୟ": 2140,
      "ନୀ ": 2141,
      " ଗୁର": 2142,
      " ହି": 2143,
      " ଭାବେ ଲେଖନ୍ତୁ": 2144,
      "ଦିଆଯାଇଥିବା ବାକ୍ୟକୁ ଅନ୍ୟ": 2145,
      "ଦିଆଯାଇଥିବା ବାକ୍ୟକୁ ଅନ୍ୟ ଭାବେ ଲେଖନ୍ତୁ": 2146,
      "ବାଳ": 2147,
      "ଗରେ ": 2148,
      "ଧରି ": 2149,
      "ଅଧିକାରୀ": 2150,
      " ଶିକ୍ଷ": 2151,
      "ୁଳ": 2152,
      " ବିରୋଧ": 2153,
      "ପ୍ଲ": 2154,
      "5 ": 2155,
      "ଉପସ୍ଥିତ": 2156,
      "ଯାନ": 2157,
      "ଏବଂ ": 2158,
      "ାଇଛନ୍ତି ": 2159,
      "up": 2160,
      " ପ୍ରତ": 2161,
      "ଦୁଇଟି ": 2162,
      "ପ୍ରଥମେ ": 2163,
      "ପ୍ତାହ": 2164,
      "ଷଦ": 2165,
      " ସମସ୍ୟ": 2166,
      "୨୩": 2167,
      " ନାହିଁ ": 2168,
      "ତିନି ": 2169,
      "ଣ୍ଡା ": 2170,
      "ହନ": 2171,
      "କୁଲ": 2172,
      "ବଶ୍ୟକତା ": 2173,
      "ଟିକ": 2174,
      "lic": 2175,
      "ପରିବାର ": 2176,
      "\" ": 2177,
      " ଦେଇଥିଲେ ": 2178,
      "Th": 2179,
      "ନୀତି": 2180,
      "ି କହିଛନ୍ତି ": 2181,
      "ବାଦୀ": 2182,
      " ବିଭିନ୍ନ": 2183,
      "ୁରନ୍ତ": 2184,
      "ହଁ": 2185,
      "ିତି ": 2186,
      " ସ୍ୱାସ୍ଥ୍ୟ": 2187,
      "କହିଛନ୍ତି ": 2188,
      "ଯୋଜନା ": 2189,
      "ଉଦ": 2190,
      "ିଆର": 2191,
      "ଗତକାଲି ": 2192,
      "ଟେଲ": 2193,
      "ବୁଝ": 2194,
      "ଶିଷ୍ଟ": 2195,
      "ଭାଷ": 2196,
      "ମହା": 2197,
      "ଚର୍ଚ୍ଚ": 2198,
      "ୋକାନ": 2199,
      "ବିକାଶ": 2200,
      "ap": 2201,
      " ଭଲ": 2202,
      " ଦାସ": 2203,
      " ଦେଇଛନ୍ତି ": 2204,
      "ହେବ ": 2205,
      "ଶ୍ବ": 2206,
      " ଅନେକ ": 2207,
      "ନ୍ଦୋଳ": 2208,
      "ନିୟମ": 2209,
      "ଯାଉଥିବା ": 2210,
      "ଯାଇଥିଲେ ": 2211,
      "କିମ୍ବା ": 2212,
      "ଷଣ": 2213,
      "ତ୍ମ": 2214,
      "ଗୁଡ଼ିକ": 2215,
      "ରାଟ": 2216,
      "et": 2217,
      "ଖୋଲ": 2218,
      "ପ୍ରସ୍ତୁତ": 2219,
      "ୁରୀ": 2220,
      " ସିଂହ": 2221,
      " ହେଲେ ": 2222,
      "// ": 2223,
      "ଂସଦ": 2224,
      "ୀପ": 2225,
      "ସତ": 2226,
      " ହାତ": 2227,
      "ତଥ୍ୟ": 2228,
      "ଥାନାରେ ": 2229,
      "ଫଟୋ": 2230,
      "ାଳୟରେ ": 2231,
      "ପୂର୍ବତନ": 2232,
      "ପ୍ରଧାନମନ୍ତ୍ରୀ ": 2233,
      "ନରେନ୍ଦ୍ର": 2234,
      "ମଦ": 2235,
      " ଯେ ": 2236,
      " ତାଙ୍କୁ ": 2237,
      "ନୀୟ": 2238,
      "ହେର": 2239,
      "ାର୍ଥୀ": 2240,
      "ବନ": 2241,
      "ଉକ୍ତ": 2242,
      "ଶାଳ": 2243,
      "ିକାରେ ": 2244,
      " ମୂ": 2245,
      " ମାଧ୍ୟମ": 2246,
      "ସମର୍ଥ": 2247,
      "ାକି ": 2248,
      "ଗ୍ରାହ": 2249,
      "ସୃଷ୍ଟ": 2250,
      " ଆଣ": 2251,
      "ତନ ": 2252,
      "ହିତ": 2253,
      "ଚିତ୍ର": 2254,
      " ଶେଷ": 2255,
      "ଉଲ୍ଲେଖ": 2256,
      "୍ୟାଚ୍": 2257,
      "ିଏ": 2258,
      " ହୋଇଥିଲା": 2259,
      "ପକ୍ଷରେ ": 2260,
      "ଶି ": 2261,
      " ଗଣ": 2262,
      "ଫି": 2263,
      "ଚାହ": 2264,
      "ଯୋ": 2265,
      " ହୋଇଥିଲେ ": 2266,
      "ଚାପ": 2267,
      "ସୂଚନା": 2268,
      "୪୦": 2269,
      "ସ୍ଥ୍ୟ": 2270,
      " ଛାତ୍ର": 2271,
      "ଖୋର୍": 2272,
      " ପୁଲିସ": 2273,
      " ଚଳ": 2274,
      "ିଲେ": 2275,
      "ଜନ୍ମ": 2276,
      "ଆପଣଙ୍କୁ ": 2277,
      "ୋଜିତ": 2278,
      "ିଆଇ": 2279,
      "କ୍ଷେପ": 2280,
      " ଭଳି ": 2281,
      "ସର୍ବ": 2282,
      "ନିମନ୍ତେ ": 2283,
      "ଲାଙ୍ଗ": 2284,
      " ଲୋକ ": 2285,
      " କମ୍ପାନ": 2286,
      "ଭିତରେ ": 2287,
      "ରମ": 2288,
      "ରଙ୍ଗ": 2289,
      " ହେବେ ": 2290,
      " ବିଦ୍ୟ": 2291,
      "ଧି ": 2292,
      " ଭାବରେ ": 2293,
      "ସୂଚନା ଅନୁ": 2294,
      "ନବୀନ": 2295,
      " ପ୍ରସ୍ତୁତ": 2296,
      "Nov": 2297,
      "pl": 2298,
      "ଆସନ୍ତା ": 2299,
      " ଅଞ୍ଚଳରେ ": 2300,
      " କୁ ": 2301,
      " ଦେବା ": 2302,
      " ଗୋଟିଏ": 2303,
      "ଓଡ଼ିଆ": 2304,
      "ur": 2305,
      "ାଲି": 2306,
      "ଆହୁରି ": 2307,
      " ଜେ": 2308,
      "ନାଁ": 2309,
      "ବଢ଼": 2310,
      "ଦିଲ୍ଲୀ ": 2311,
      "ଶିବ": 2312,
      "ଦତ୍ତ": 2313,
      "ା ହୋଇ": 2314,
      "ାରା": 2315,
      "ଣା": 2316,
      " ହେବା ପରେ ": 2317,
      "ଣ୍ଡି": 2318,
      "ରଖାନ": 2319,
      " ଶ୍ରୀ": 2320,
      " ବି ": 2321,
      "ହେବା ": 2322,
      "ବାଧିକ ": 2323,
      " ଅପ": 2324,
      "ତାବ": 2325,
      "ର୍ଭ": 2326,
      "ରାପୁଟ": 2327,
      "ଡିକାଲ": 2328,
      " ମନ୍ଦ": 2329,
      "ପାତ": 2330,
      "ବିରୋଧରେ ": 2331,
      "ନିକ": 2332,
      "li": 2333,
      "ଦକ୍ଷିଣ": 2334,
      "ଯାୟୀ ": 2335,
      " ହସ୍ପିଟାଲ": 2336,
      "--": 2337,
      "ସ୍ପଷ୍ଟ": 2338,
      "ro": 2339,
      " ନିର୍ମାଣ": 2340,
      "ବିଧାୟକ ": 2341,
      " ପୋ": 2342,
      "ାଣ୍ଟ": 2343,
      "ତଃ": 2344,
      "ୂର": 2345,
      "ପ୍ରକାର": 2346,
      "ୁଲାଇ": 2347,
      "ଘରେ ": 2348,
      " ୯": 2349,
      "Po": 2350,
      " କୋଭି": 2351,
      "ଜିଲ୍ଲାରୁ ": 2352,
      "ାଜିକ ": 2353,
      "ମାନଙ୍କ": 2354,
      "୨୦୦": 2355,
      "ମ୍ପର୍କ": 2356,
      "ବ୍ୟକ୍ତି ": 2357,
      "ଏନ୍": 2358,
      "ଗୁଳ": 2359,
      "୍ଚ୍ଚ": 2360,
      " ଆଶ": 2361,
      " ଥର ": 2362,
      " କରାଯାଇଥିଲା": 2363,
      "ଲିଉ": 2364,
      "est ": 2365,
      "ଉଚିତ": 2366,
      "us": 2367,
      "ସିଆଲ": 2368,
      "ମନ୍ଦିର ": 2369,
      " ମାର": 2370,
      " ଜାତ": 2371,
      "ସାଦ": 2372,
      "ଏହା": 2373,
      "ଟକ ": 2374,
      "ାମିଲ": 2375,
      "ଜିଟିଭ": 2376,
      "ବାବ": 2377,
      "ୁଇ": 2378,
      " ଧରି ": 2379,
      "ଘାଟ": 2380,
      " ମାନେ ": 2381,
      "ାମୀ": 2382,
      "ଯାଜ": 2383,
      "ସହଯୋଗ": 2384,
      " କ୍ୟ": 2385,
      "ଇଂ": 2386,
      "ାର୍ଗ": 2387,
      "କନ": 2388,
      "ା କହ": 2389,
      "ଶକ୍ତି ": 2390,
      "ଜର": 2391,
      "ତିହାସ": 2392,
      " ନିର୍ଦ୍ଦେଶ": 2393,
      "େଦ": 2394,
      "ear": 2395,
      "କାରଣରୁ ": 2396,
      "କର୍ଡ": 2397,
      "କଟକ ": 2398,
      "ଦେଉ": 2399,
      "ସନ୍ଦ": 2400,
      "  । ": 2401,
      "ପୁରୀ": 2402,
      "\n ": 2403,
      "ter": 2404,
      "ଦଶ": 2405,
      "ସ୍ତାବ": 2406,
      "ପ୍ରେମ": 2407,
      "୨୬": 2408,
      "ୁତ୍": 2409,
      "ଫୁଲ": 2410,
      " କରୁଛି ": 2411,
      "ଙ୍କ ଅ": 2412,
      "ୃଷି ": 2413,
      "un": 2414,
      "Dec": 2415,
      "ଖୋଜ": 2416,
      "ଙ୍ଖ": 2417,
      "ା ଆ": 2418,
      " ଖୋଲ": 2419,
      "ଦେବାକୁ ": 2420,
      "ନରେନ୍ଦ୍ର ମୋ": 2421,
      " ପ୍ରତି ": 2422,
      "ିକେଟ୍": 2423,
      "ମ୍ପର୍କ ": 2424,
      "ଏକା": 2425,
      " ପାଖ": 2426,
      "ମାନ୍ୟ": 2427,
      "3 ": 2428,
      "et ": 2429,
      "ଅଭିଯୁକ୍ତ": 2430,
      "ାମ୍": 2431,
      " ସୁସ୍ଥ": 2432,
      "ିଲୋ": 2433,
      "ାଏଁ": 2434,
      "ଘାତ": 2435,
      "ve ": 2436,
      " ସୁଦ୍ଧା ": 2437,
      " ଆୟ": 2438,
      " ଠ": 2439,
      " ସାଧ": 2440,
      "4 ": 2441,
      "ୀର": 2442,
      " କରିପାର": 2443,
      "ଥାନ୍ତି": 2444,
      "ାସନ": 2445,
      "ସୂଚନାଯୋଗ୍ୟ": 2446,
      "ାର ସମ୍": 2447,
      "କମ": 2448,
      "ନ୍ଦୁଝ": 2449,
      "ମୂଳ": 2450,
      "େତେ ": 2451,
      "ଶୀଳ": 2452,
      "ବଙ୍ଗ": 2453,
      "ରେ ମଧ୍ୟ": 2454,
      "ହୁଲ": 2455,
      "ନେତୃତ": 2456,
      "ଟିକା ": 2457,
      "ନ୍ୟୁ": 2458,
      "ସିଲ": 2459,
      " ପ୍ରଭାବ": 2460,
      " ୟୁ": 2461,
      " ଚାଷ": 2462,
      "ଛାତ୍ରଛାତ୍ରୀ": 2463,
      "ଆଜି": 2464,
      " କରିବେ": 2465,
      " ୨୪": 2466,
      " ସଚିବ": 2467,
      "har": 2468,
      "ଦୂର": 2469,
      "ନିଷ": 2470,
      "ଜିଲ୍ଲାପାଳ": 2471,
      "ୃତ୍ତ": 2472,
      "ଠାଇ": 2473,
      "ାଳି ": 2474,
      "ଦେଖି ": 2475,
      "eb": 2476,
      "ଗଞ୍ଜାମ": 2477,
      "ସାମିଲ": 2478,
      "ବିଜେଡି ": 2479,
      " ଇଣ୍ଡିଆ": 2480,
      "ସିଂ": 2481,
      "ଆଇନ": 2482,
      "ଆଲୋଚନା ": 2483,
      " ଥିଲା ": 2484,
      "ବେଦନ": 2485,
      "ଜେଲ": 2486,
      "ଦକ୍ଷେପ": 2487,
      "an ": 2488,
      " ଭାଇ": 2489,
      "ମହାମ": 2490,
      "୨୮": 2491,
      " ହରାଇ": 2492,
      "ଘଟଣାସ୍ଥଳରେ ": 2493,
      " ସଂଖ୍ୟ": 2494,
      " ଦ୍ୱାରା ": 2495,
      " ଚନ୍ଦ୍ର": 2496,
      "ସୂଚନା ମିଳ": 2497,
      "ରିକ ": 2498,
      "ପରୀକ୍ଷ": 2499,
      "ର ମ": 2500,
      "ସଂକ୍ରମିତ": 2501,
      " ଜିଲ୍ଲା ": 2502,
      "କୁ ଅ": 2503,
      "ମୁଦ୍ର": 2504,
      "ପ୍ରଧାନମନ୍ତ୍ରୀ": 2505,
      " ବଢ଼": 2506,
      " ଉତ୍ତ": 2507,
      "ଲ୍ୟାଣ": 2508,
      "େସନ": 2509,
      "ନାଗ": 2510,
      "ନେତ": 2511,
      " ସମ୍ବ": 2512,
      "୨୭": 2513,
      "ସୁରକ୍ଷା ": 2514,
      "ବଜ": 2515,
      " ଥ": 2516,
      " ପ୍ଲ": 2517,
      "ଢ଼ନ୍ତୁ ": 2518,
      "ପାଟ": 2519,
      "ିପାର": 2520,
      " ଖବର ": 2521,
      "କାରୀ ": 2522,
      "ରାଷ୍ଟ୍ରପତି ": 2523,
      "ଦେଇଛନ୍ତି": 2524,
      " ସୃଷ୍ଟି କର": 2525,
      "କେଲ": 2526,
      "ସିବ": 2527,
      " ଭୂ": 2528,
      "ବ୍ୟୁରୋ": 2529,
      "କଥା ": 2530,
      "ମତା ": 2531,
      " ପ୍ରମୁଖ": 2532,
      " ସବୁ ": 2533,
      "ପତି": 2534,
      "ର ହୋଇ": 2535,
      "ପୀ": 2536,
      "ଛୋଟ": 2537,
      "ାଗତ": 2538,
      " ବା ": 2539,
      "ପରିଚାଳ": 2540,
      "ବର୍ତ୍ତୀ ": 2541,
      "ଜୀ": 2542,
      "ଅନ୍ତୁ ": 2543,
      "ପା ": 2544,
      "ସ୍ଥିତିରେ ": 2545,
      "ିଥାଏ": 2546,
      "ଆବଶ୍ୟକ ": 2547,
      " ମସିହାରେ ": 2548,
      "ସ୍ବ": 2549,
      "ଭୁଲ": 2550,
      "ାତା ": 2551,
      "ର ଓ": 2552,
      "oo": 2553,
      "ଗଲା ": 2554,
      "ମତି ": 2555,
      "କେଉଁ": 2556,
      " ନିର୍ବାଚନ": 2557,
      "ତ୍ୱ": 2558,
      " କ୍ଷେତ୍ରରେ ": 2559,
      "ରହିବ": 2560,
      "ଝାର": 2561,
      "ଧର": 2562,
      "ଲୋକମାନେ ": 2563,
      " ଆଲୋଚନା ": 2564,
      " ନେତା ": 2565,
      " ଯେ": 2566,
      " ସଦସ୍ୟ": 2567,
      "ସ୍କ ": 2568,
      "ପଶ୍ଚିମ": 2569,
      " ବୈଠ": 2570,
      " ସରକାରଙ୍କ ": 2571,
      "ସ୍ଥାନରେ ": 2572,
      "ନିଶ୍ଚିତ": 2573,
      "ାଫ": 2574,
      "ସମାଜ": 2575,
      " ସାମ୍": 2576,
      "ex": 2577,
      "In": 2578,
      "ଟାଇ": 2579,
      " ଅତି": 2580,
      "ହୁଏ": 2581,
      "ସୁନ୍ଦର": 2582,
      "ଦୟ": 2583,
      "ସାହାଯ୍ୟ": 2584,
      "ସମ୍ବଲ": 2585,
      " ଡାକ୍ତ": 2586,
      "ଘଟିଛି ": 2587,
      "ତୁରନ୍ତ": 2588,
      "ପ୍ରମୁଖ": 2589,
      "ଣୁ ": 2590,
      "ୀ ଆ": 2591,
      "ସଦ": 2592,
      "୍ୱି": 2593,
      "ସିଦ୍ଧ": 2594,
      "ଣ୍ଡି ": 2595,
      "ଜଗତ": 2596,
      "ଗୁରୁତ୍ୱପୂର୍ଣ୍ଣ": 2597,
      "କ୍ଟର ": 2598,
      " କମ": 2599,
      "ଚେଷ୍ଟ": 2600,
      "ଲକ୍ଷ୍ୟ": 2601,
      " ରନ୍": 2602,
      "ଖବର": 2603,
      "ପାଗ": 2604,
      "ାନ୍ୟ": 2605,
      "ାଚ": 2606,
      "ନୁ": 2607,
      "ସେ କହିଛନ୍ତି ": 2608,
      " ଅନୁସାରେ ": 2609,
      "େଙ୍କ": 2610,
      "ରିକ୍ତ": 2611,
      "ଘରୋଇ": 2612,
      "ଗିରି ": 2613,
      "ଣ୍ଠ": 2614,
      "ରହିଥିବା ": 2615,
      "ଯେଉଁଥିରେ ": 2616,
      "...\n": 2617,
      "କେନ୍ଦ୍ରାପ": 2618,
      "ଶକ୍ତ": 2619,
      "her": 2620,
      "ାର୍ଯ୍ୟ": 2621,
      "ଭଞ୍ଜ": 2622,
      "କାଉଣ୍ଟ": 2623,
      " ହୁଏ": 2624,
      " ପ୍ରକାର": 2625,
      " ରାସ୍ତ": 2626,
      "ବିନ୍ଦ": 2627,
      "ମନ୍ତ୍ର": 2628,
      "), ": 2629,
      "ା କରି ": 2630,
      " ହୋଇଥିବା ବେଳେ ": 2631,
      "ଆର୍": 2632,
      "ୃଷ୍ଣ": 2633,
      "ବୋ": 2634,
      "Re": 2635,
      "ଙ୍କ ମୃତ୍ୟୁ ": 2636,
      "ତୃତୀୟ": 2637,
      " ନାମ": 2638,
      " ଟି ": 2639,
      "ତୀ": 2640,
      "ଚୟ": 2641,
      " ରହିବ": 2642,
      " ମନ୍ତ୍ରୀ": 2643,
      "ଧୁ": 2644,
      "ad ": 2645,
      "କୂଳ": 2646,
      "ସିଥିବା ": 2647,
      "ପଢ": 2648,
      "ୋଜନ": 2649,
      "ଘୁ": 2650,
      "ଫେ": 2651,
      " ସିଂ": 2652,
      " ସ୍ଥାନରେ ": 2653,
      "ୁଛନ୍ତି": 2654,
      "ରାଜଧାନ": 2655,
      "େକ୍ଷ": 2656,
      "ଖର୍ଚ୍ଚ": 2657,
      "ରୀୟ": 2658,
      "ବଲାଙ୍ଗ": 2659,
      "ଏମିତି ": 2660,
      " ଅଭିଯୁକ୍ତ": 2661,
      "ରୁଜୁ ": 2662,
      "ସ୍ୱତନ୍ତ୍ର": 2663,
      "ି କିଛି ": 2664,
      " ମହାପାତ୍ର": 2665,
      " ବ୍ୟକ୍ତି": 2666,
      "ସହାୟତା ": 2667,
      "ିକାଂଶ": 2668,
      "ଚାହୁଁ": 2669,
      "201": 2670,
      "ମଙ୍ଗଳ": 2671,
      "ନ୍ନାଥ": 2672,
      " ମାମଲା ": 2673,
      "updat": 2674,
      "ଲବ୍": 2675,
      "ହ୍ମ": 2676,
      "ପୁନ": 2677,
      "ଦୀ ": 2678,
      "ପରୀକ୍ଷା ": 2679,
      "ଏହାସ": 2680,
      "ସମ୍ମାନ": 2681,
      "ାଇଥିଲେ ": 2682,
      "e to ": 2683,
      "ଦ୍ବାରା ": 2684,
      " ନ ": 2685,
      "େଟ୍ରୋଲ": 2686,
      "ସାରା ": 2687,
      " ହାଇ": 2688,
      "\n\n": 2689,
      "ନଷ୍ଟ": 2690,
      "ରାଜ୍ୟର ": 2691,
      "ଲଣ୍ଡ": 2692,
      "ଗୁଡ଼ିକୁ ": 2693,
      "ଜ୍ଜ": 2694,
      "ାଯାଇଛି ": 2695,
      " ପର୍ଯ୍ୟାୟ": 2696,
      " ଦେବାକୁ ": 2697,
      "୨୯": 2698,
      "ବର୍ଷା ": 2699,
      "ୁନ": 2700,
      "ଗଠନ": 2701,
      "ଏହି ସମୟରେ ": 2702,
      " କରିବାର": 2703,
      "ରାପ": 2704,
      "ଡାଉ": 2705,
      "ବିମାନ": 2706,
      "ଷଧ": 2707,
      "ରଙ୍କ ": 2708,
      "ସଂଘ": 2709,
      " ଏକ": 2710,
      " କରିଥିଲା": 2711,
      " ରୁ ": 2712,
      " ମନ": 2713,
      "କମ୍": 2714,
      "ସମସ୍ୟା ": 2715,
      " ରାଷ୍ଟ୍ର": 2716,
      "ହ୍ରାସ": 2717,
      "ଂଟ": 2718,
      "ଜୋ": 2719,
      "ପଞ୍ଚ": 2720,
      "Odish": 2721,
      "the l": 2722,
      "7 ": 2723,
      "ିରୁ ": 2724,
      "ବଢ": 2725,
      "ଃଖ": 2726,
      " ରିପୋର୍ଟ": 2727,
      " ହୋଇପାର": 2728,
      " ହେଉଥିବା ": 2729,
      "id": 2730,
      "ଡା": 2731,
      "con": 2732,
      "The ": 2733,
      "ଟଙ୍କାର": 2734,
      " ପଟ୍ଟନାୟକ ": 2735,
      "କୋରାପୁଟ": 2736,
      "ପ୍ରଦେଶ": 2737,
      "ବିକ": 2738,
      "ୂର୍ଯ୍ୟ": 2739,
      "ପ୍ରାପ୍ତ": 2740,
      "ଭୋଟ": 2741,
      "ାୟଣ": 2742,
      " ଗାଁ": 2743,
      "ିତ ": 2744,
      " ଜି": 2745,
      " ଘଣ୍ଟା ": 2746,
      " କରାଯିବ ": 2747,
      "6 ": 2748,
      "ଉତ୍ପାଦ": 2749,
      "ାନ୍ତର": 2750,
      "ଉଦ୍ୟମ": 2751,
      "ସେତେବେଳେ ": 2752,
      "ାହାର": 2753,
      "ଔଷଧ": 2754,
      " ସର": 2755,
      "ପାନ": 2756,
      "କ୍ଟୋ": 2757,
      "ା ଏବଂ": 2758,
      "ଦ୍ଵ": 2759,
      "ୟାର ": 2760,
      " ହାସ": 2761,
      "ାଣୀ": 2762,
      "ାଖଲ": 2763,
      "ଶା": 2764,
      " ଚିକିତ୍ସ": 2765,
      "ଙ୍କ କ": 2766,
      "କାଣ୍ଡ": 2767,
      "ପଛ": 2768,
      "ରଫରୁ ": 2769,
      "ଘଣ୍ଟ": 2770,
      "11": 2771,
      "ପରିବର୍ତ୍ତନ": 2772,
      " ସ୍କୁଲ": 2773,
      "ରଥ": 2774,
      " ସମ୍ପର୍କରେ ": 2775,
      " କି ": 2776,
      "ଣ୍ଡଳ": 2777,
      "ଣୀ ": 2778,
      "ଟିମ୍": 2779,
      "ଘରକୁ ": 2780,
      "ୁଙ୍କ ": 2781,
      " ଭାରତୀୟ": 2782,
      "ଧାନସଭା ": 2783,
      "ଲାଗିଛି ": 2784,
      "ୃତି": 2785,
      "ଚ୍ଚିତ୍ର": 2786,
      "ଗଷ୍ଟ": 2787,
      " ପରିଚାଳ": 2788,
      "ଯା": 2789,
      "ଶହ": 2790,
      "I ": 2791,
      " ଲାଭ": 2792,
      "ଙ୍ଗା ": 2793,
      "କୋଟି ": 2794,
      "ଛା": 2795,
      "ସୁରକ୍ଷ": 2796,
      "ୁଡ଼": 2797,
      "ସମସ୍ତେ ": 2798,
      " ହୋଇଥାଏ": 2799,
      " ଆଗ": 2800,
      " କରାଯାଉଛି ": 2801,
      "ାନାଳ": 2802,
      "କମାନେ ": 2803,
      "କ ଓ": 2804,
      " କରିବା ପରେ ": 2805,
      "ମାନସ": 2806,
      "ଶିଳ୍ପ": 2807,
      "ଗଜ": 2808,
      "ବିଭିନ୍ନ ": 2809,
      "tion": 2810,
      " କରୁଛନ୍ତି": 2811,
      "ଅତି": 2812,
      "ହୋଇଛି": 2813,
      "ent ": 2814,
      "ul": 2815,
      "ର୍କ": 2816,
      "ାହିଁକି ": 2817,
      "ଟିକୁ ": 2818,
      "ନିଆଁ": 2819,
      "ାଥମ": 2820,
      " ପ୍ରକ୍ରିୟ": 2821,
      "ଣ୍ଡା": 2822,
      "କ୍ସି": 2823,
      "ମାମଲାରେ ": 2824,
      "ୟାସ": 2825,
      " ଦେଉ": 2826,
      "ବିବାଦ": 2827,
      "ra": 2828,
      "ସରକାରୀ": 2829,
      "atest ": 2830,
      " ଯୁ": 2831,
      "ate ": 2832,
      " ଦେବ": 2833,
      "ମ୍ଭବ": 2834,
      "ଗୁଡିକ ": 2835,
      " କୁମାର ": 2836,
      " ପୁଅ": 2837,
      "ଶୋ": 2838,
      " ମୂଲ୍ୟ": 2839,
      "ଯୋଗାଇ": 2840,
      "ଳମ୍ବ": 2841,
      "ାରାଷ୍ଟ୍ର": 2842,
      " ଅବ": 2843,
      "େଙ୍କାନାଳ": 2844,
      "po": 2845,
      " ବିଜୟ": 2846,
      "ୋର୍ଡ": 2847,
      "ଗୁଡି": 2848,
      "ସୁପ୍ର": 2849,
      "20 ": 2850,
      "ଯୁଦ୍ଧ": 2851,
      "si": 2852,
      "ଫା ": 2853,
      "୩ ଜଣ": 2854,
      "ୀ ଏବଂ": 2855,
      "ୁଥିଲେ ": 2856,
      " କୋର୍ଟ": 2857,
      "ବ୍ୟବସ୍ଥ": 2858,
      "ପକ୍ଷରୁ ": 2859,
      "ଗୀତ": 2860,
      "ଓ ": 2861,
      "ଙ୍କ ମଧ୍ୟରେ ": 2862,
      "ବିଶ୍ୱାସ": 2863,
      "ସିଆଲ ମିଡିଆ": 2864,
      "ିବା": 2865,
      "ଣିଷ": 2866,
      " କରନ୍ତି ": 2867,
      " ଉତ୍": 2868,
      "ବରିଷ୍ଠ": 2869,
      " ଅଫିସ": 2870,
      "ଜାରି ": 2871,
      "ଚାକି": 2872,
      "ପଦକ୍ଷେପ": 2873,
      "ତେଲ": 2874,
      "େତୁ ": 2875,
      "ତ୍ତ୍ୱ": 2876,
      "ନ୍ ": 2877,
      "ଜରେ ": 2878,
      "ି କୁହା": 2879,
      "ର ପ୍ରଥମ": 2880,
      " ପଦକ୍ଷେପ": 2881,
      "ଗାର": 2882,
      "ି କରି ": 2883,
      "ଘୋଷଣା କର": 2884,
      " ପ୍ରାୟ": 2885,
      "ାତ୍ମକ ": 2886,
      "ମୁକ୍ତ": 2887,
      " କହିଛନ୍ତି ଯେ ": 2888,
      " ବର୍ଷା ": 2889,
      "ତ୍ୟା ": 2890,
      "ଶୁକ୍ର": 2891,
      "ଶ୍ଵ": 2892,
      " ବନ୍ଧ": 2893,
      "ବେଳ": 2894,
      "ଲବ୍ଧ": 2895,
      " ସେମାନଙ୍କ ": 2896,
      "ମାଲକାନ": 2897,
      "କେନ୍ଦୁଝ": 2898,
      "ଗୋଷ୍ଠ": 2899,
      "ଜବତ": 2900,
      "ଆଖ": 2901,
      "ିବାରୁ ": 2902,
      " ସାଧାରଣ": 2903,
      " ଟେଷ୍ଟ": 2904,
      "ତଳେ ": 2905,
      "ଫେସ": 2906,
      "ରକ୍ତ": 2907,
      "ସାରେ": 2908,
      "ାଲେ": 2909,
      "ରସ": 2910,
      "ମହାନ": 2911,
      "ub": 2912,
      " ମହିଳା ": 2913,
      "୍ୟତ": 2914,
      "ୈଳ": 2915,
      " ଘଟଣା ": 2916,
      "ପରିଷଦ": 2917,
      "ାରମ୍ଭ": 2918,
      "ାଇଭ": 2919,
      " କୋଟି ଟଙ୍କା ": 2920,
      "ନ୍ଧମାଳ": 2921,
      "ଗଲେ ": 2922,
      "ନିମ୍": 2923,
      " ମ୍ୟାଚ": 2924,
      "ତାପ": 2925,
      "ଏଫ": 2926,
      "12": 2927,
      "ଠା": 2928,
      " ଅଛି ": 2929,
      "ପ୍ରଶଂସ": 2930,
      "ଦ୍ଦ": 2931,
      "ଶୀଘ୍ର": 2932,
      "୍ବ": 2933,
      "ଅନୁଷ୍ଠିତ": 2934,
      " ବାର": 2935,
      "th ": 2936,
      "ତ୍ୟନ୍ତ": 2937,
      "ୋପ": 2938,
      "ଞ୍ଜାବ": 2939,
      "ରରୁ ": 2940,
      "୬୦": 2941,
      "ଚିତ୍": 2942,
      "ାଣିପାଗ": 2943,
      " ଖୁ": 2944,
      "ନଜର ": 2945,
      "ଗ୍ନି": 2946,
      " ଲଗ": 2947,
      "ଭକ୍ତ": 2948,
      "କ୍ଷେତ୍ରରେ ": 2949,
      "ତାରିଖ": 2950,
      "ରାତି ": 2951,
      "ସେପଟେ ": 2952,
      "! ": 2953,
      "ପିଲା": 2954,
      "ଙ୍କ ସଂଖ୍ୟା ": 2955,
      "ଏହା ପରେ ": 2956,
      " ହାସଲ": 2957,
      "ୋତ୍ସ": 2958,
      "ଦତ୍ତ ": 2959,
      "ଯାତ୍ରା ": 2960,
      "ଦ୍ଦେଶ୍ୟ": 2961,
      " କା": 2962,
      "ତୁମ": 2963,
      " ଜବତ": 2964,
      "ବାଟ": 2965,
      " ସଂକ୍ରମିତ": 2966,
      " ବୟସ": 2967,
      "୍ରି": 2968,
      "ଦାୟିତ୍ୱ": 2969,
      "ment": 2970,
      "2022": 2971,
      " ଯେଉଁ": 2972,
      " ବାବ": 2973,
      "ସ୍ଥା ": 2974,
      " ଶିଶ": 2975,
      "କର୍ଷ": 2976,
      "ମଳ": 2977,
      "ବସ୍ତ": 2978,
      "ୃପକ୍ଷ": 2979,
      "ଦେଇଥିଲେ": 2980,
      "ମିଶ୍ର": 2981,
      "ସନ୍ତୋଷ": 2982,
      "ଏହି ଅବସରରେ ": 2983,
      " ବ୍ୟବସ୍ଥ": 2984,
      "ୌଦ୍ଧ": 2985,
      " ମାମଲ": 2986,
      "ଶରୀ": 2987,
      "ାଳି": 2988,
      "ରୀ ": 2989,
      "ନ ଏବଂ": 2990,
      "ଋଣ": 2991,
      "ନୂଆଦିଲ୍ଲୀ ": 2992,
      " ବଡ": 2993,
      " ତଦନ୍ତ": 2994,
      "ସାଂସଦ": 2995,
      "ma": 2996,
      " ପରୀକ୍ଷ": 2997,
      "ନେତୃତ୍ୱ": 2998,
      "ିକ୍ରିୟ": 2999,
      "ଶୋଧ": 3000,
      "ରେ ସେ ": 3001,
      "ର୍କ ": 3002,
      "କାନ୍ତ": 3003,
      "ଜଣକ ": 3004,
      " ଗଠ": 3005,
      "ତିନି": 3006,
      " ନିଆ": 3007,
      " ଲାଗି ": 3008,
      "ଏଲ୍": 3009,
      " କମିଶ": 3010,
      "ଭୋ": 3011,
      "ନାକୁ ଆସ": 3012,
      "ସ୍ତୁତି ": 3013,
      "ଖୁବ୍": 3014,
      " ଜୀବନ": 3015,
      " କହିଥିଲେ ": 3016,
      "କରୋନ": 3017,
      "ଅଧିକ": 3018,
      "ପିଲ": 3019,
      " ପ୍ରଦର୍ଶନ": 3020,
      "ଆଗକୁ ": 3021,
      "ଆଧାର": 3022,
      "ମୋବାଇ": 3023,
      "ପୋଷ୍ଟ": 3024,
      "ୁଣା ": 3025,
      "ନୂତନ": 3026,
      " କାର୍ଯ୍ୟାଳୟ": 3027,
      "ବାଦିକ ": 3028,
      "ବ୍ଦ": 3029,
      "ଢେଙ୍କାନାଳ": 3030,
      "ରେଳ": 3031,
      " ବଢ": 3032,
      " ଗୁରୁତ": 3033,
      "|\n": 3034,
      " ସୀ": 3035,
      "ନ୍ଧ୍ର": 3036,
      " ଅଛନ୍ତି ": 3037,
      "ଚୁ": 3038,
      "ଦେଇଛି ": 3039,
      "ଭାରତର ": 3040,
      " ପଞ୍ଚାୟତ": 3041,
      " ଜାର": 3042,
      "res": 3043,
      " ବେଳେ ": 3044,
      "ିକାଶ": 3045,
      "ନାହାନ୍ତି ": 3046,
      " ଶ୍ରେଣ": 3047,
      "le": 3048,
      "ବର୍ତ୍ତୀ": 3049,
      " ଭାଷ": 3050,
      "ଝାରସୁ": 3051,
      " କରିପାରିବେ ": 3052,
      "ପର୍କରେ ": 3053,
      "ିନୀ": 3054,
      "ହେରା": 3055,
      "ବାଧ": 3056,
      "ହଜାର ": 3057,
      " ଏହାକୁ ": 3058,
      "St": 3059,
      " ଦିବ": 3060,
      "ମିଟର ": 3061,
      "ଆର୍ଥିକ ": 3062,
      "ab": 3063,
      " ପାଳନ": 3064,
      "ଲକ୍ଷ୍ମ": 3065,
      " ଟିମ୍": 3066,
      "ନଦୀ": 3067,
      "ବୁଧ": 3068,
      "ଏପରିକି ": 3069,
      "get ": 3070,
      " ଦାବ": 3071,
      " ମନ୍ତ୍ରୀ ": 3072,
      "ରେ ହ": 3073,
      "ମିଳନୀ": 3074,
      "ସ୍ଵ": 3075,
      "ାଡି": 3076,
      "ଚେତନ": 3077,
      "୨ ଜଣ": 3078,
      "୩୫": 3079,
      "୍ଯ": 3080,
      "ଅଛି ": 3081,
      " ରୂପ": 3082,
      "ାର୍ଥୀ ": 3083,
      "ଦୈ": 3084,
      "ନିୟନ୍ତ୍ରଣ": 3085,
      "ମାଗ": 3086,
      "ଭାଗ୍ୟ": 3087,
      "ମୃତଦେହ": 3088,
      "as ": 3089,
      "ଖାନ": 3090,
      " ବିକାଶ": 3091,
      "ସ୍ମ": 3092,
      " ଗତ": 3093,
      "ିବେଶ": 3094,
      "ବିଚାର": 3095,
      "ଏହି": 3096,
      " ବଡ଼": 3097,
      "ଏ ନେଇ": 3098,
      "ାଧୀନ": 3099,
      " କରାଯାଇଥିବା ": 3100,
      "AM ": 3101,
      "ଦ୍ୱାର": 3102,
      "   ": 3103,
      "] ": 3104,
      "ପ୍ରଭ": 3105,
      "ସୋମ": 3106,
      "୍ରମ": 3107,
      "ଦିଆଯାଇଛି ": 3108,
      "ାଗଡ଼": 3109,
      "ନ୍ତର୍ଜାତୀୟ": 3110,
      "ସମ୍ପୂର୍ଣ୍ଣ": 3111,
      "ସୁବିଧା ": 3112,
      "ଦଳର ": 3113,
      "ହସ୍ପିଟାଲ": 3114,
      " ସ୍ପ": 3115,
      "ପରାମର୍ଶ": 3116,
      "ଦୃଷ୍ଟିରେ ": 3117,
      "ଯାହାକି ": 3118,
      "ଜଙ୍ଗଲ": 3119,
      "ଦାବି କର": 3120,
      "ଜଗନ୍ନାଥ": 3121,
      " ତାହା ": 3122,
      "ig": 3123,
      "ଅଧିକାଂଶ": 3124,
      "ୟମ": 3125,
      "ୁରୋଧ": 3126,
      "ାଇଡ": 3127,
      "ଦିଗ": 3128,
      "ିବି": 3129,
      "ay": 3130,
      " ଜିଲ୍ଲାରେ ": 3131,
      "ବୈଠକରେ ": 3132,
      "our ": 3133,
      "ଂଚଳ": 3134,
      "ଏଣ୍ଟ": 3135,
      "ାୟକଙ୍କ ": 3136,
      " ସ୍ଥାନୀୟ": 3137,
      "Shar": 3138,
      "ଅନ୍ତୁ": 3139,
      "ପ୍ଟେ": 3140,
      "ର ଶ": 3141,
      "ଯିବାକୁ ": 3142,
      "A ": 3143,
      " ହେବେ": 3144,
      " ହେଉଛନ୍ତି ": 3145,
      "୭୦": 3146,
      "ାର୍କ ": 3147,
      "ବନ୍ଧୁ": 3148,
      "ମିଶାଇ": 3149,
      "ଗୁଣ": 3150,
      "ଏହି ପ୍ର": 3151,
      " ସଂଗ୍ରହ": 3152,
      "lick ": 3153,
      " ଦେଇଥିଲେ": 3154,
      "Post": 3155,
      "ଶନ": 3156,
      "ଳି": 3157,
      " ୧୯": 3158,
      " ବିମାନ": 3159,
      " ଉତ୍ସ": 3160,
      "ପଞ୍ଚାୟତ": 3161,
      "ଗଣମାଧ୍ୟମ": 3162,
      "ଚାଲି": 3163,
      "ାର୍ଜ": 3164,
      "ଆଣ": 3165,
      " ସାର": 3166,
      "ସେଥିପାଇଁ": 3167,
      "ିବାଦ": 3168,
      " କାର୍ଡ": 3169,
      " ସଭାପତି ": 3170,
      "ଛୁ": 3171,
      "ପୁରୀ ": 3172,
      "େତେକ ": 3173,
      "ଫଳତା ": 3174,
      "ଋଷ": 3175,
      " ବିଚାର": 3176,
      "କନକ ": 3177,
      "ବୁଲ": 3178,
      "ଗଛ": 3179,
      "ଅନୁସାରେ ": 3180,
      "ଚାଷୀ": 3181,
      "ଯୋଗୁ ": 3182,
      "ସଭାପତି ": 3183,
      "ଏତେ ": 3184,
      "ସମ୍ପର୍କରେ ": 3185,
      "ପୁରୁଷ": 3186,
      "ି ଓ": 3187,
      "ରିଆରେ ": 3188,
      "ମହିଳା": 3189,
      "ତାରେ ": 3190,
      "ଫାଇ": 3191,
      " ତଥ୍ୟ": 3192,
      "ଭିତ୍ତ": 3193,
      " ଅନୁଯାୟୀ": 3194,
      "ବ୍ୟତୀତ": 3195,
      "here to ": 3196,
      " ବାହାର": 3197,
      " ପ୍ରକଳ୍ପ": 3198,
      "ଏଥିସହ": 3199,
      "ସର ": 3200,
      " ଦେଇଛନ୍ତି": 3201,
      "ଭାଙ୍ଗ": 3202,
      "ଚ୍ଛେଦ": 3203,
      "ପାଖରେ ": 3204,
      "ପାଣି ": 3205,
      "ତଥ": 3206,
      "ଏହାସହ": 3207,
      "ବୁଠାରୁ ": 3208,
      "ପ୍ରତ୍ୟେକ ": 3209,
      "ଇସ": 3210,
      " କେବଳ": 3211,
      "ବରଙ୍ଗ": 3212,
      "oc": 3213,
      "ଦ୍ଦି": 3214,
      "ତ୍ନୀ": 3215,
      "ଟେଷ୍ଟ": 3216,
      "ଦୋକାନ": 3217,
      " ସର୍": 3218,
      "ମ୍ପର": 3219,
      " ସାହୁ ": 3220,
      " ଭିତରେ ": 3221,
      "ନ ପ": 3222,
      " ଖାଦ୍ୟ": 3223,
      " କଲ୍ୟାଣ": 3224,
      "ଶ୍ଚର୍ଯ୍ୟ": 3225,
      "ସୁଯୋଗ": 3226,
      " ହ୍ରାସ": 3227,
      "en ": 3228,
      "ବର୍ଗ": 3229,
      " ପାଠ": 3230,
      "ଅନୁମତି ": 3231,
      " ଯୋ": 3232,
      "es on ": 3233,
      " ୧୫": 3234,
      "ିକାକରଣ": 3235,
      "ଙ୍ଗ୍": 3236,
      "ିକ୍ରମ": 3237,
      "ବିକ ": 3238,
      "୪୫": 3239,
      "କୋଭିଡ୍": 3240,
      " ସପ୍ତାହ": 3241,
      "।  । ": 3242,
      "ାଯୋଗ": 3243,
      " ଯୋଗୁଁ": 3244,
      "ation": 3245,
      "ଛୁ ": 3246,
      "ସେନା ": 3247,
      " ଥିଲେ": 3248,
      "ଲିସ୍": 3249,
      "is": 3250,
      " ହୋଇଥିଲେ": 3251,
      "ିନାହିଁ": 3252,
      "ା କରିବା ": 3253,
      " ର ": 3254,
      "ଭୁବନେଶ୍ବର": 3255,
      "େଷ୍ଠ": 3256,
      "ବିଷ୍ୟତ": 3257,
      " ସକାଳ": 3258,
      " ସୁଯୋଗ": 3259,
      "ବ୍ୟବସ୍ଥା ": 3260,
      "ଗିରି": 3261,
      "Click ": 3262,
      "ସ୍ତରୀୟ": 3263,
      "ଆସନ୍ତ": 3264,
      "ଦର ": 3265,
      "ସେମାନଙ୍କର ": 3266,
      " କ୍ଲ": 3267,
      "ମହାମାରୀ": 3268,
      "ନିର": 3269,
      "ଜଣାପଡିଛି ": 3270,
      "ରାଶି": 3271,
      "ଥାନା ଅ": 3272,
      "ଚଳିତ ବର୍ଷ": 3273,
      " ବିଧାୟକ ": 3274,
      "ୟୁକ୍ର": 3275,
      "୮୦": 3276,
      "୪ ଜଣ": 3277,
      " କିଲୋ": 3278,
      "ଲିଉଡ": 3279,
      "ରାହ୍": 3280,
      "ଏତ": 3281,
      "ଗୁରୁବ": 3282,
      "ବିଦେଶ": 3283,
      "ହେବାକୁ ": 3284,
      "ହାସଲ": 3285,
      "ଚରଣ": 3286,
      "ସ୍ବାସ୍ଥ୍ୟ": 3287,
      "ୃଙ୍ଖ": 3288,
      " ପରୀକ୍ଷା ": 3289,
      "the latest ": 3290,
      "କଳାହା": 3291,
      " ବହୁତ": 3292,
      "ଦଳରେ ": 3293,
      "ନିଯୁକ୍ତି ": 3294,
      "ଘଟଣାର ": 3295,
      " ପଡ଼": 3296,
      " ସେମାନେ ": 3297,
      "ୟୋଗ": 3298,
      " ରନ": 3299,
      " ଦର୍ଶ": 3300,
      "ରତ": 3301,
      "ଙ୍କୁ ଗିରଫ": 3302,
      "ତ୍ମହ": 3303,
      "ଜାମ": 3304,
      "ଦରକାର": 3305,
      " ପ୍ରତ୍ୟ": 3306,
      "ଆହତ": 3307,
      " ବିଜେପି ": 3308,
      "ପ୍ରବଳ": 3309,
      "ବୁବ": 3310,
      "୍ୟ୍ୟ": 3311,
      "ଙ୍କ ସହିତ": 3312,
      "ଦିବାସ": 3313,
      "ଜୀବନ ": 3314,
      "ଜିଲ୍ଲାର": 3315,
      "Click here to ": 3316,
      "ତଳ": 3317,
      "ସେହିଭଳି ": 3318,
      "for ": 3319,
      "updates on ": 3320,
      "get the latest ": 3321,
      "Click here to get the latest ": 3322,
      "Click here to get the latest updates on ": 3323,
      "ସୌ": 3324,
      "ନ୍ୟବାଦ": 3325,
      "ାର୍କ": 3326,
      "ବର୍ଣ୍ଣ": 3327,
      "ଲାଲ": 3328,
      "ର୍ପଣ": 3329,
      "ିମକୋର୍ଟ": 3330,
      "ଷ୍ଟ୍ରେଲ": 3331,
      "ପୋଲ": 3332,
      "ଏଫ୍": 3333,
      "ଯାଞ୍ଚ": 3334,
      " ଝ": 3335,
      "୧୦୦": 3336,
      "ବଲ": 3337,
      "ପରିଣ": 3338,
      " ପହଞ୍ଚ": 3339,
      "ଯେଉଁମାନେ ": 3340,
      "ି କୋ": 3341,
      "ବିଜେପି": 3342,
      "ଆରୀ ": 3343,
      " କାରଣରୁ ": 3344,
      "ମାନଙ୍କ ପାଇଁ": 3345,
      " ବ୍ୟୁରୋ": 3346,
      "କ୍ଟୋବର ": 3347,
      "ଆହୁରି ପ": 3348,
      "ଚର": 3349,
      "ାଙ୍କ": 3350,
      " ଭାଗ": 3351,
      "ସୁଦ୍ଧା ": 3352,
      "ଭେମ୍ବର ": 3353,
      " ମାଲ": 3354,
      "19 ": 3355,
      "ବ୍ରି": 3356,
      "ାକୃତ": 3357,
      " ବିଷୟ": 3358,
      "ୂତନ ": 3359,
      "ଡ଼ା": 3360,
      "ାଗ୍ର": 3361,
      "ଅନ୍ୟପଟେ ": 3362,
      "ଯାଇଥିଲେ": 3363,
      " ମିନି": 3364,
      "ି ନ": 3365,
      "ଗତ ୨୪": 3366,
      " ଦିଆଯାଇଛି ": 3367,
      "କେ ": 3368,
      "ସାଙ୍ଗ": 3369,
      "ଟିର ": 3370,
      "ଗତି ": 3371,
      "ହୋଇଥିଲା ": 3372,
      "ଯନ୍ତ୍ର": 3373,
      "ି ଅ": 3374,
      " କେଉଁ": 3375,
      "ଡାକ୍ତରଖାନ": 3376,
      "ବଞ୍ଚ": 3377,
      " ବିଶେଷ": 3378,
      " ଠାରୁ ": 3379,
      " ଆଦି ": 3380,
      " ମୃତ୍ୟୁ ": 3381,
      "ଚନ": 3382,
      "ପ୍ରବେଶ": 3383,
      "ମହାରାଷ୍ଟ୍ର": 3384,
      ")\n": 3385,
      "ଚାଲିଛି ": 3386,
      "୍ରୁ ": 3387,
      "ଦେଲେ ": 3388,
      "ବିକ୍ର": 3389,
      "ଶବ": 3390,
      "ାହାକୁ ": 3391,
      "ବ୍ରହ୍ମ": 3392,
      " ଯୋଜନା ": 3393,
      "ଅନୁଭବ": 3394,
      "ସ୍ଥାପନ": 3395,
      "ି ଆ": 3396,
      "ମ୍ୟାଚ": 3397,
      "News": 3398,
      "ବାଧ୍ୟ": 3399,
      " ମାଧ୍ୟମରେ ": 3400,
      "ବାସ୍ତ": 3401,
      "ଦ୍ଧା": 3402,
      "ୋଭ": 3403,
      " ମୁଖ୍ୟମନ୍ତ୍ରୀ": 3404,
      "ବୟ": 3405,
      " ହେଉଛି": 3406,
      "ନେଟ": 3407,
      "ଦୌ": 3408,
      "ିକାର ": 3409,
      "ଦୁର୍ବ": 3410,
      " ଲୋକେ ": 3411,
      "କେଶ": 3412,
      "ରିୟ": 3413,
      " କରୋନା ଆକ୍ରାନ୍ତ": 3414,
      "ସେମ୍ବର ": 3415,
      "ସମା": 3416,
      "ଦ୍ଦିଷ୍ଟ": 3417,
      "ଆରମ୍ଭ କରି ": 3418,
      "ଯାହା": 3419,
      "ପ୍ରିଲ": 3420,
      " ନୂତନ": 3421,
      " କମ୍": 3422,
      "ଜଗତସିଂହ": 3423,
      "ବେଦ": 3424,
      "ୋମ": 3425,
      "ଗବାନ": 3426,
      "ଜଣାପଡ଼ିଛି ": 3427,
      " କ୍ୟା": 3428,
      " ଅଧିକାରୀ ": 3429,
      "ପୁରରୁ ": 3430,
      ".  । ": 3431,
      "ସତ୍ୟ": 3432,
      "ମିକା ": 3433,
      "ୀକରଣ": 3434,
      "ସେୟାର": 3435,
      " ଜିଲ୍ଲାରୁ ": 3436,
      "ନିଜେ ": 3437,
      "ଡେଲ": 3438,
      "ି କରାଯାଇଛି ": 3439,
      "ନ୍ଦୁ ": 3440,
      "ଗମ": 3441,
      "ହାଇକୋର୍ଟ": 3442,
      "ହେଲା ": 3443,
      "ଡାକ୍ତର ": 3444,
      "ରକ୍ଷା ": 3445,
      "ଭଦ୍ରକ ": 3446,
      " ଗାନ୍ଧ": 3447,
      "ା କରିବାକୁ ": 3448,
      "ବୃଦ୍ଧି ପାଇ": 3449,
      "୩୧": 3450,
      "ଞ୍ଜି": 3451,
      "ୋଲ୍": 3452,
      "ାପାଖ": 3453,
      "୍ତ୍ତୃପକ୍ଷ": 3454,
      "ଧନ": 3455,
      "ଉଚିତ୍": 3456,
      " ସମେତ": 3457,
      "ଆତଙ୍କ": 3458,
      " ସୁରକ୍ଷା ": 3459,
      "ଙ୍କର ମୃତ୍ୟୁ ": 3460,
      "ବାସୀ ": 3461,
      " ସହଯୋଗ": 3462,
      " ମହା": 3463,
      "ବ୍ୟକ୍ତ": 3464,
      " ଘୋଷଣା କର": 3465,
      "ଗାନ୍ଧ": 3466,
      "ବାସୀ": 3467,
      "ରାସ୍ତା ": 3468,
      "ପୁଲିସ୍": 3469,
      "ୁରି ": 3470,
      " ମୁଖ୍ୟମନ୍ତ୍ରୀ ": 3471,
      " ଅଫ୍": 3472,
      " ଏଠାରେ ": 3473,
      "୍ୟାଣ୍ଡ": 3474,
      "ପୂରଣ": 3475,
      " ଟଙ୍କ": 3476,
      "to": 3477,
      "ଆମର ": 3478,
      "ତୁଳ": 3479,
      " କଲେଜ": 3480,
      " ଉଚ୍ଚ": 3481,
      "ଷ୍ଟ୍ରେଲିଆ": 3482,
      "ନ୍ୟା ": 3483,
      "ଘଟି": 3484,
      " ସ୍ବା": 3485,
      "ାହିତ": 3486,
      " ଦକ୍ଷ": 3487,
      "ମିଳିଥିବା ": 3488,
      " ଡ୍ର": 3489,
      " ସେହି ": 3490,
      "ର ସମ୍": 3491,
      " ଫେର": 3492,
      " ନିଷ୍ପତ୍ତି ": 3493,
      "ଗସ୍ତ": 3494,
      "ଦୁଃଖ": 3495,
      " ପାଲ": 3496,
      "।    ": 3497,
      " ଗୃହ": 3498,
      " କାଳ": 3499,
      "ଦିବସ": 3500,
      " ନମ୍ବର ": 3501,
      " କଥ": 3502,
      "ାଥମିକ ": 3503,
      "ରାହୁଲ": 3504,
      "ରାଜନୈତିକ ": 3505,
      " ରାଉ": 3506,
      " ରାଜ୍ୟରେ ": 3507,
      "ହଜାର": 3508,
      " ବ୍ୟବସ୍ଥା ": 3509,
      "ବାଲ": 3510,
      "ଫୁ": 3511,
      "ଙ୍କଠାରୁ ": 3512,
      "କିପରି ": 3513,
      "ାରୀ ": 3514,
      "ସେ କହିଛନ୍ତି": 3515,
      "ମେଡିକାଲ": 3516,
      "କନ୍ଧମାଳ": 3517,
      "ଦଣ୍ଡ": 3518,
      "ପର ": 3519,
      " ସନ୍": 3520,
      " ପରିବର୍ତ୍ତ": 3521,
      "ସାମାଜିକ ": 3522,
      "ଉଦ୍": 3523,
      "ପହଞ୍ଚି ": 3524,
      "୨ଟି ": 3525,
      "Ap": 3526,
      "୨୦୨୧": 3527,
      "ାବାଦ": 3528,
      "ବୁବେଳେ ": 3529,
      "ଭୋଗ": 3530,
      "ଭାରତରେ ": 3531,
      "ାନ୍ଦ": 3532,
      "ରେକର୍ଡ": 3533,
      "ଗ୍ରୀ ": 3534,
      "ାଦକ ": 3535,
      " ମାତ୍ର": 3536,
      "ଟିଭି ": 3537,
      "ନ୍ଦୋଳନ": 3538,
      "ଜନକ ": 3539,
      " ଲାଇ": 3540,
      "କନକ ବ୍ୟୁରୋ": 3541,
      "ଯାହାକୁ ": 3542,
      "ମାମଲା ରୁଜୁ ": 3543,
      " ଜାଣ": 3544,
      "ନବରଙ୍ଗ": 3545,
      "ାବି": 3546,
      "........": 3547,
      "ଗ୍ରାମର ": 3548,
      " ନୀ": 3549,
      "ଙ୍କ ସମେତ": 3550,
      "କହିଛନ୍ତି": 3551,
      "୨୦୨୦": 3552,
      " ବ୍ୟବସାୟ": 3553,
      "କ୍ଷୟ": 3554,
      "ମିକ୍ର": 3555,
      "ମାଣ୍ଡ": 3556,
      "ଦୃଷ୍ଟିରେ ରଖି ": 3557,
      "ଘୋଷଣା ": 3558,
      "ନେବା ": 3559,
      "େକ": 3560,
      "ୂରଭଞ୍ଜ": 3561,
      "ଶାସନ ": 3562,
      " ବାସ": 3563,
      "ଆଜ": 3564,
      " କରିବା": 3565,
      "ଶିଶୁ ": 3566,
      "by ": 3567,
      "ପାରିବ ": 3568,
      " କରୁଛି": 3569,
      " ଝିଅ": 3570,
      "ରକ୍ଷଣ": 3571,
      "ଫଗ": 3572,
      "ସାବ": 3573,
      "ଣ୍ଟର": 3574,
      "ମୁଖୀନ": 3575,
      " ଉତ୍ପାଦ": 3576,
      " ଯାତ୍ର": 3577,
      " ବର": 3578,
      " ଭି": 3579,
      "ିବ ବୋଲି ": 3580,
      "ଆଗାମୀ ": 3581,
      "ସେଥିରେ ": 3582,
      "ପାଲ": 3583,
      " ସମସ୍ୟା ": 3584,
      "ଦ୍ମ": 3585,
      "ୃକ୍ତ": 3586,
      "ଘଟିଛି": 3587,
      "ର ବିଭିନ୍ନ": 3588,
      " କରାଇ": 3589,
      "କମ୍ପାନ": 3590,
      "ଭେଟ": 3591,
      "ରାତିରେ ": 3592,
      "” ": 3593,
      "ଆଇପି": 3594,
      "୦୦୦": 3595,
      " ନିୟମ": 3596,
      " ତାଙ୍କର ": 3597,
      "କ୍ଲି": 3598,
      " ଉପସ୍ଥିତ": 3599,
      " କରାଯିବା ": 3600,
      " କରିବା ଲାଗି ": 3601,
      "ଟ୍ୱି": 3602,
      " ସଂକ୍ରମଣ": 3603,
      "ଚିକିତ୍ସା ": 3604,
      "ବୌଦ୍ଧ": 3605,
      " ଲୋକଙ୍କୁ ": 3606,
      " ଲକ୍ଷ ଟଙ୍କା ": 3607,
      "iv": 3608,
      " କମିଟି ": 3609,
      " ବଜ": 3610,
      "ପାର୍ଟ": 3611,
      " କଳ": 3612,
      "ାଇବା ପରେ ": 3613,
      "ଟଙ୍କ": 3614,
      "ଧ୍ୟା ": 3615,
      "ରେ ଭର୍ତ୍ତ": 3616,
      "ଖିତ": 3617,
      "୩ଟି ": 3618,
      "ଏମିତ": 3619,
      "ହର": 3620,
      "ତେବେ ଏହି ": 3621,
      "ାଉଥିବା ": 3622,
      "ରଖା": 3623,
      " ଦୁର୍": 3624,
      "ଉତ୍ସବ": 3625,
      " ଜାତୀୟ": 3626,
      "ଯୁବକ ": 3627,
      "ଙ୍କ ପକ୍ଷରୁ ": 3628,
      "ୱାଲ": 3629,
      " ଅଛନ୍ତି": 3630,
      "ମ୍ର": 3631,
      "ଫର୍ମ": 3632,
      "ହେଁ": 3633,
      " ବର୍ଗ": 3634,
      " କଟକ": 3635,
      "ଟିରେ ": 3636,
      "ାପି ": 3637,
      "ବିତ": 3638,
      "ହୃ": 3639,
      " ଅନ୍ୟାନ୍ୟ": 3640,
      "ମ୍ୟ": 3641,
      "ହେରା ": 3642,
      "ଫାଇନ": 3643,
      " ଅଧ୍ୟକ୍ଷ": 3644,
      "କିଏ": 3645,
      "November ": 3646,
      "ବେଷ": 3647,
      "।\n\n": 3648,
      "ଜଣାପଡ଼ିଛି": 3649,
      " କରୁଥିଲେ ": 3650,
      " ପାର୍ଟ": 3651,
      "ଭଳ": 3652,
      "ମେ ": 3653,
      "ନଗ": 3654,
      "ଜଣଙ୍କ ": 3655,
      "ଦେଇଥିବା ": 3656,
      " ରଙ୍ଗ": 3657,
      "ାଶ": 3658,
      "ଗଭ": 3659,
      "୯୦": 3660,
      "ଚଢ଼": 3661,
      "app": 3662,
      "ତିଶ": 3663,
      "ପ୍ଟେମ୍ବର ": 3664,
      " ବ୍ୟକ୍ତି ": 3665,
      "ବିନା ": 3666,
      "କଥ": 3667,
      "9 ": 3668,
      "ିଛା ": 3669,
      "ସମାନ": 3670,
      "ଚେଷ୍ଟା କର": 3671,
      "ମାର୍ଟ": 3672,
      "ପରିସ୍ଥିତି ": 3673,
      "ଘନ": 3674,
      "କଲ": 3675,
      "ଡ଼ିତ": 3676,
      "ହସିଲ": 3677,
      "ପ୍ରାଣ": 3678,
      "ଗୋଳ": 3679,
      " ସର୍ବ": 3680,
      " ପତ୍ର": 3681,
      "ାପାଖି ": 3682,
      "ଏହାକୁ ନେଇ": 3683,
      "ନିୟମିତ": 3684,
      " ପାତ୍ର": 3685,
      "ଅଧିନ": 3686,
      " ଚିନ୍ତ": 3687,
      "୭୫": 3688,
      " ଲୋକଙ୍କ ": 3689,
      " ଦେଖା": 3690,
      "କ୍ରି": 3691,
      "ପ୍ରଶ୍ନ": 3692,
      "ep": 3693,
      "ଷ୍ଟମ": 3694,
      " ଥିଲା": 3695,
      "େସ୍": 3696,
      " ଭୁବନେ": 3697,
      "ଭାପତି ": 3698,
      "ାହ୍": 3699,
      ", '": 3700,
      "ନିଜକୁ ": 3701,
      "ଅନୁଯାୟୀ": 3702,
      "େସନ୍": 3703,
      " ସୁବିଧ": 3704,
      "ରଙ୍କୁ ": 3705,
      "ମୋତେ ": 3706,
      " ଦୁଇଟି ": 3707,
      "କ୍ୱ": 3708,
      " ଆମେର": 3709,
      "ଜିଲା ": 3710,
      "ସର୍ବାଧିକ ": 3711,
      "ହଳ": 3712,
      " ତାଲ": 3713,
      "ଯିଏ": 3714,
      " କ୍ରିକେଟ": 3715,
      " ଦିବସ": 3716,
      " ବହୁ ": 3717,
      " ମ୍ୟାଚ୍": 3718,
      "ଗୌ": 3719,
      "ୌଶ": 3720,
      "ଦୁର୍ଘଟଣା ": 3721,
      "ଉଦ୍ଦେଶ୍ୟ": 3722,
      "ନୀତ": 3723,
      "କୁମ": 3724,
      "ରେ ଯୋଗ": 3725,
      "ଲାଗୁ ": 3726,
      " ପ୍ରଶ୍": 3727,
      " ଭୋଟ": 3728,
      "ାଉନ": 3729,
      "ହସ୍ତ": 3730,
      "ାର ସମ୍ଭାବନା ": 3731,
      "ସାକ୍ଷ": 3732,
      "ଷ୍କର୍ମ": 3733,
      "ହିନ୍ଦୁ": 3734,
      "ସମ୍ଭବ": 3735,
      "ବିଧାନ": 3736,
      " ଆସୁ": 3737,
      "ସେବା ": 3738,
      "ସୁନ୍ଦରଗଡ଼": 3739,
      "ସାଥ": 3740,
      "sit": 3741,
      "ଓଡ଼ିଶା ରିପୋର୍ଟ": 3742,
      "ନ ପାଇଁ": 3743,
      " ଯାହା ": 3744,
      "ଆବଶ୍ୟକ": 3745,
      " ଜିତ": 3746,
      "ୀକୁ ": 3747,
      "କିଂ": 3748,
      "ଶମ": 3749,
      "ଜମି ": 3750,
      "ଲାଗିଛି": 3751,
      "ନାବାଳ": 3752,
      "ପଜିଟିଭ": 3753,
      "ାଟି ": 3754,
      " ବିକ୍ର": 3755,
      "ଯାତ୍ରୀ": 3756,
      " ସେବା ": 3757,
      "ଅଞ୍ଚଳ": 3758,
      "ି କହିଛନ୍ତି": 3759,
      "2020 ": 3760,
      "ଫ୍ଲ": 3761,
      " ଶୀ": 3762,
      " କରାଯାଉ": 3763,
      "ଅନୁଗୁଳ": 3764,
      "Sam": 3765,
      "କେହି ": 3766,
      "ର ଏହି ": 3767,
      "ଜମି": 3768,
      " ବଜାର": 3769,
      "ଜାଗ": 3770,
      "ିରରେ ": 3771,
      "ାହରଣ": 3772,
      "ଙ୍କଟ": 3773,
      "are ": 3774,
      " ନାଗ": 3775,
      "ମୁଖ୍ୟମନ୍ତ୍ରୀ ନବୀନ": 3776,
      " ଗିର": 3777,
      "ଶ୍ବର ": 3778,
      " ଚିହ୍ନଟ ହୋଇଛନ୍ତି ": 3779,
      "ine ": 3780,
      " ଏହାର": 3781,
      "କେନ୍ଦ୍ର ସରକାର": 3782,
      "ବଣ": 3783,
      " ତା": 3784,
      "ସ୍ଥାପ": 3785,
      "ୁଥିବା ବେଳେ ": 3786,
      "ବାଣି": 3787,
      " ଫିଲ୍ମ": 3788,
      "୩୬": 3789,
      "ବାରମ୍ବ": 3790,
      " ଓଡ଼ିଶା ": 3791,
      "ଉପର": 3792,
      "ଖାଇ": 3793,
      " ପ୍ରସଙ୍ଗ": 3794,
      " ସ୍ଥିତ": 3795,
      " ସାଇ": 3796,
      "ରେ କିଛି ": 3797,
      "ଇସ୍ତ": 3798,
      "ଭର୍ତ୍ତ": 3799,
      "ଂଚାୟତ": 3800,
      "dia": 3801,
      "ମାତ": 3802,
      "ଅପରାଧ": 3803,
      "ତ୍ୟା": 3804,
      "ପାଳନ": 3805,
      "* ": 3806,
      "ଆମକୁ ": 3807,
      "ଦର": 3808,
      "ସରକାରଙ୍କ ": 3809,
      " ସେମାନଙ୍କୁ ": 3810,
      "ଜିଲାନ୍ସ": 3811,
      " ଅବସ୍ଥାରେ ": 3812,
      "ଅନୁରୋଧ": 3813,
      "ମୁହଁ": 3814,
      "ରେ କୌଣସି ": 3815,
      "ସ୍କୃତ": 3816,
      "ମନ୍ଦିର": 3817,
      " ଆହ": 3818,
      "କର୍ଷଣ": 3819,
      "ମ୍ମଦ": 3820,
      " ସଙ୍ଗ": 3821,
      "ୁଦ୍ର": 3822,
      " ମୁଁ": 3823,
      "ା ପର୍ଯ୍ୟନ୍ତ": 3824,
      "ଭୂମି ": 3825,
      "ର ଜଣେ ": 3826,
      "ଗୁଡିକ": 3827,
      "ପ୍ରଧାନମନ୍ତ୍ରୀ ନରେନ୍ଦ୍ର ମୋ": 3828,
      "ରେଇ": 3829,
      "ପିନ୍ଧ": 3830,
      " ହଜାର ଟଙ୍କା ": 3831,
      "ାଷ୍ଟ": 3832,
      "op": 3833,
      "ଯୁବତ": 3834,
      "ପରିମାଣ": 3835,
      "ପରିଣତ": 3836,
      "ନାନ": 3837,
      "ରିଜ": 3838,
      " ନେବା ": 3839,
      "ାଧିକାରୀ": 3840,
      "ଗଲ": 3841,
      " ସଂଘ": 3842,
      "um": 3843,
      "ମୁକାବ": 3844,
      "ନୂତନ ": 3845,
      "ନିଯୁକ୍ତ": 3846,
      "ନାଲ": 3847,
      "ଉପଲବ୍ଧ": 3848,
      "ଡିତ": 3849,
      "ା ବ୍ଲ": 3850,
      "ଟେଲି": 3851,
      " ମୋଟ": 3852,
      "ସଭା ": 3853,
      "ଉନ୍ନତି ": 3854,
      " ନିଜର ": 3855,
      "ଏଥି ": 3856,
      "ନିର୍ବାଚନରେ ": 3857,
      "ଭୂତ": 3858,
      "ସମଗ୍ର": 3859,
      " ହୋଇଥାଏ ": 3860,
      "ମୋଦ": 3861,
      " ବିଦ୍ୟାଳୟ": 3862,
      "କୁହାଯାଇଛି ": 3863,
      "ଓଡ଼ିଶାରେ ": 3864,
      "ଅପର": 3865,
      "ବାଣିଜ୍ୟ": 3866,
      "ave ": 3867,
      " ଦିଲ୍ଲ": 3868,
      "ak": 3869,
      "ପରିବେଶ": 3870,
      " ପକ୍ଷ": 3871,
      "ସୂର୍ଯ୍ୟ": 3872,
      "ର୍ମା": 3873,
      " କରାଯାଉଛି": 3874,
      " ଚର୍ଚ୍ଚ": 3875,
      "ପୁରୁଣା ": 3876,
      "ଚାରୀ ": 3877,
      "ଶ୍ମୀ": 3878,
      "ଚଳଚ୍ଚିତ୍ର": 3879,
      "ୁରୀ ": 3880,
      "Com": 3881,
      " ଆର୍ଥିକ ": 3882,
      "ମଧ": 3883,
      "ଏକ ଅ": 3884,
      " ଦେଖିବାକୁ ମିଳ": 3885,
      "ରୁଷ": 3886,
      " କରିବ ": 3887,
      "ଓଡିଶା ": 3888,
      "= ": 3889,
      "ରୁ ଅ": 3890,
      "ପାଣିପାଗ": 3891,
      "ଏହା ସହିତ": 3892,
      " ସାହୁ": 3893,
      " ବିତ": 3894,
      "କୃଷ୍ଣ": 3895,
      "ଦୃଶ୍ୟ": 3896,
      " କିମ୍ବ": 3897,
      " ଦାଖଲ": 3898,
      " ମତ": 3899,
      "ିଥିବା ବେଳେ ": 3900,
      "ମାଡ଼": 3901,
      " ବିଭାଗ ପକ୍ଷରୁ ": 3902,
      "ଜନିତ": 3903,
      " ଜାରି ରଖ": 3904,
      " ଅଛି": 3905,
      " ଯାଇ": 3906,
      " ଶହ": 3907,
      "ଶ୍ୱର": 3908,
      " ତଳେ ": 3909,
      " ବର୍ଷର ": 3910,
      "i ": 3911,
      "ଲିଖିତ": 3912,
      "ତାପମାତ୍ର": 3913,
      "ଦେଖନ୍ତୁ ": 3914,
      " ଆଧାର": 3915,
      "ଯାଜପୁର ": 3916,
      "ଭ୍ୟ": 3917,
      "ସୁଖ": 3918,
      "୨୦୧୯": 3919,
      "ିକରଣ": 3920,
      "ପ୍ରସାଦ": 3921,
      "ିବାର ": 3922,
      "୩୭": 3923,
      "ଧ୍ୟାରେ ": 3924,
      " କରନ୍ତି": 3925,
      "ଅଭିନୟ": 3926,
      "େକ୍": 3927,
      "ସମ୍ପର୍କ ": 3928,
      " ସମ୍ମାନ": 3929,
      "ୟର ": 3930,
      "ଆସି ": 3931,
      "ନଥିବା ": 3932,
      "ଇଣ୍ଡିଆ": 3933,
      " ହୁ": 3934,
      "ଟା": 3935,
      "ଆତ୍ମ": 3936,
      " କୁହା": 3937,
      "ନେକ": 3938,
      "ଜମ": 3939,
      "ବିପଦ": 3940,
      "ିଆରି କର": 3941,
      "ମୁତାବ": 3942,
      "ମଣିଷ": 3943,
      "େଷଣ": 3944,
      "ay ": 3945,
      "ନିଷ୍ଠ": 3946,
      "ଏସବୁ ": 3947,
      "ାଲୋ": 3948,
      "୩୮": 3949,
      "ନିରା": 3950,
      "ଚି ": 3951,
      "ଷୟ": 3952,
      "ପିତ": 3953,
      "ed f": 3954,
      "ହର ": 3955,
      " ବିବାହ": 3956,
      "କ୍ରମେ ": 3957,
      "ଜା": 3958,
      "ଯିବ ବୋଲି ": 3959,
      "ସେଥି": 3960,
      " ଶାସନ": 3961,
      "ଭଦ୍ରକ": 3962,
      " ଗିରଫ": 3963,
      "ମାଆ": 3964,
      "ଆପଣଙ୍କର ": 3965,
      "ତାର ": 3966,
      " ବୟ": 3967,
      "ମୋବାଇଲ": 3968,
      "ଆମେରିକା ": 3969,
      "ଦାମ": 3970,
      "ସ୍ତ୍ରୀ": 3971,
      "ରେ ଚ": 3972,
      "ାର୍ମ": 3973,
      "ht": 3974,
      " ମାନଙ୍କୁ ": 3975,
      "ଜିନିଷ": 3976,
      "ଚ୍ଛା ": 3977,
      "ଆଶ୍ଚର୍ଯ୍ୟ": 3978,
      " ବର୍ଷୀୟ": 3979,
      "ସୁପ୍ରିମକୋର୍ଟ": 3980,
      " ଅନୁଷ୍ଠ": 3981,
      "ସମ୍ମିଳନୀ": 3982,
      " ହାର": 3983,
      "ସମର୍ଥନ": 3984,
      "ଭୁକ୍ତ": 3985,
      "ଦିଆଯାଇଛି": 3986,
      "କେତେକ ": 3987,
      "ଦୃଢ଼": 3988,
      " ମନ୍ଦିର ": 3989,
      "ାଇଲ": 3990,
      "ମହିଳାଙ୍କ ": 3991,
      "ଙ୍କ ଉପରେ ": 3992,
      " ପାର୍": 3993,
      "ମନୋର": 3994,
      "୪୮": 3995,
      "ଡୁ": 3996,
      "ହାର ": 3997,
      "କଳନ": 3998,
      "କାର୍ଯ୍ୟାନୁଷ୍ଠାନ": 3999,
      " ଆଫ୍ର": 4000,
      "କମି": 4001,
      " ଅତିଥି ": 4002,
      "ମୌ": 4003,
      "ଶିଶୁ": 4004,
      "lish": 4005,
      "ିବାନ": 4006,
      "ଜଣାଇ": 4007,
      "ହଠ": 4008,
      "ଖବର ପାଇ": 4009,
      "ପ୍ରଭୁ": 4010,
      "ାଦବ": 4011,
      "ଶେଷରେ ": 4012,
      "େନ ": 4013,
      "କୃଷ": 4014,
      "ଥିବାର ": 4015,
      "ମିଳିବ": 4016,
      "୯୯": 4017,
      " ପୁରସ୍କାର": 4018,
      "କୋଲ": 4019,
      "ାହାଁ": 4020,
      "ଚାଲି ": 4021,
      " ଦାୟ": 4022,
      " ଚା": 4023,
      " ଟଙ୍କାର": 4024,
      "ରୁଦ୍ଧ": 4025,
      "କେବେ ": 4026,
      "ଶିକ୍ଷକ ": 4027,
      "December ": 4028,
      " କୋଭିଡ": 4029,
      "ନାୟକ ": 4030,
      "୬ ଜଣ": 4031,
      "ଇଂଲଣ୍ଡ": 4032,
      ":\n": 4033,
      "ହ୍ଲ": 4034,
      "ବିଷୟ": 4035,
      "ମୁହ": 4036,
      "ି ହୋଇଛି ": 4037,
      "ମୃତ୍ୟୁ": 4038,
      " ଉଭୟ": 4039,
      "ସମାଧାନ": 4040,
      "News ": 4041,
      "୪ଟି ": 4042,
      "ସବୁଠାରୁ ": 4043,
      "ary ": 4044,
      " ଆମେ ": 4045,
      " ବିକ": 4046,
      " ଶିକ୍ଷା ": 4047,
      "ମାନସିକ ": 4048,
      "ଖରାପ": 4049,
      " କରିପାରିବେ": 4050,
      "ବଦଳ": 4051,
      "ଧନ୍ୟବାଦ": 4052,
      "ିଥାଏ ": 4053,
      "ନ୍ଦା ": 4054,
      "est": 4055,
      "ପାତ୍ର": 4056,
      "Oc": 4057,
      "ଞ୍ଜୟ": 4058,
      "ବିଲ": 4059,
      "ଜଣା": 4060,
      "ରକେଲ": 4061,
      "ହୁ": 4062,
      "କ୍କା ": 4063,
      "ଟୁ": 4064,
      "ୀନରେ ": 4065,
      "ଟାରେ ": 4066,
      "ସେୟାର ": 4067,
      "ଶାଖ": 4068,
      " ଦିନରେ ": 4069,
      "og": 4070,
      " ଘଟ": 4071,
      "ନିଲ": 4072,
      "ଯାତ": 4073,
      " ସୁନ୍ଦ": 4074,
      " ରେଳ": 4075,
      "ା କରିଛନ୍ତି ": 4076,
      "ଦ୍ଵାରା ": 4077,
      "ରାଶି ": 4078,
      "ୁହଁ": 4079,
      " ପରିବେଶ": 4080,
      "ମୟୂରଭଞ୍ଜ": 4081,
      " ଟିକା ": 4082,
      "ାସ୍": 4083,
      " ବର୍ତ୍ତ": 4084,
      "ଜୁଲାଇ": 4085,
      "ନୟାଗଡ଼": 4086,
      " ଭାଙ୍ଗ": 4087,
      " ନା": 4088,
      "----": 4089,
      " ପରିମାଣ": 4090,
      "ଇତିହାସ": 4091,
      "ଚତୁ": 4092,
      " ଗା": 4093,
      "ବାସୀଙ୍କ ": 4094,
      "Dec ": 4095,
      "ଦେଖିବାକୁ ମିଳିଛି ": 4096,
      "ପିଇ": 4097,
      "ଜନ ": 4098,
      "ଯାଏଁ": 4099,
      "Nov ": 4100,
      "ର ସହ": 4101,
      "ବିଶ୍ବ": 4102,
      "କର୍ତ୍ତ": 4103,
      "ି କୌଣସି ": 4104,
      "ଯୁଗ": 4105,
      "ଭ୍ୟାସ": 4106,
      "ଫଗାନି": 4107,
      "ନେତ୍ରୀ": 4108,
      "ୁଲି ": 4109,
      "ଙ୍କ ଆ": 4110,
      "ବସାୟୀ": 4111,
      "କୁ ଯାଇ": 4112,
      "ଏଇ": 4113,
      "ସଫଳତା ": 4114,
      "ୱାର୍ଡ": 4115,
      " ଅଫ": 4116,
      "୫ ଜଣ": 4117,
      " ପ୍ରତିଷ୍ଠ": 4118,
      " ଜିଲ୍ଲାପାଳ": 4119,
      "ଦିନକୁ ": 4120,
      "ଚୋ": 4121,
      "ଶୀତ": 4122,
      "ାଦାନ": 4123,
      "lec": 4124,
      "କହିଥିଲେ ": 4125,
      " ଅନୁଭବ": 4126,
      "ବିଳମ୍ବ": 4127,
      "ସୋନ": 4128,
      "ଦିନରେ ": 4129,
      "ନିର୍ବାଚନ ": 4130,
      "ନ୍ନାଇ": 4131,
      "ୋଟେଲ": 4132,
      " କାର୍ଯ୍ୟାନୁଷ୍ଠାନ": 4133,
      "ଟରେ ": 4134,
      "ବ୍ୟବହ": 4135,
      "ଭାର": 4136,
      "ଡାଇ": 4137,
      "ି କେନ୍ଦ୍ର": 4138,
      "ଡିଏ": 4139,
      "ପୃକ୍ତ": 4140,
      "ବିରାଟ": 4141,
      " ଓଭ": 4142,
      " କର୍": 4143,
      " ଥର ପାଇଁ": 4144,
      "ଡିଜି": 4145,
      "ସନ୍ଦେହ": 4146,
      "ରାସ୍ତାରେ ": 4147,
      "ପୋଷ": 4148,
      "ଟନ": 4149,
      "ଅଂଶ": 4150,
      " ବ୍ୟାପ": 4151,
      "ବିଶିଷ୍ଟ": 4152,
      "ା କରିଥିଲେ ": 4153,
      "କିଲ": 4154,
      "ଖୁସି ": 4155,
      "ଭାଇରାଲ": 4156,
      "ago": 4157,
      " କହିବା ": 4158,
      "ପୁରସ୍କାର": 4159,
      "ନିର୍ଭର": 4160,
      "ଡର ": 4161,
      " କରିବା ସହିତ": 4162,
      "ଶ୍ରେଷ୍ଠ": 4163,
      "ଦ୍ବିତୀୟ": 4164,
      "କାଳୀନ": 4165,
      " ଆବଶ୍ୟକତା ": 4166,
      " ପୁରୁଷ": 4167,
      " ବୋ": 4168,
      " କରାଯିବ ବୋଲି ": 4169,
      "ସନ୍ଧାନ": 4170,
      "ାବ୍ୟ": 4171,
      "ପ୍ରମାଣ": 4172,
      "ଲାଇନ": 4173,
      " ହିଁ": 4174,
      " ୩୦": 4175,
      "ନାହାନ୍ତି": 4176,
      "୍ଵ": 4177,
      " ପଡ": 4178,
      "ିଆରି ": 4179,
      " ବାୟ": 4180,
      " ରହିବ ": 4181,
      "ଆଇସି": 4182,
      "କ୍ଷଣ": 4183,
      "ଚାର ": 4184,
      " ରାଜ୍ୟ ସରକାର": 4185,
      "କରୋନା ସଂକ୍ରମଣ": 4186,
      "ଠିକ ": 4187,
      "ସ୍ଥଳ": 4188,
      "ଅନ୍ୟପକ୍ଷରେ ": 4189,
      "ଅଧିକାରୀ ": 4190,
      "ରୋଜ": 4191,
      "ହେଉଥିବା ": 4192,
      "ପ୍ରକଳ୍ପ": 4193,
      "ଝାରସୁଗୁଡ଼": 4194,
      "ୋନ୍": 4195,
      " ବର୍ତ୍ତମାନ": 4196,
      "ug": 4197,
      "ore ": 4198,
      " ୧୮": 4199,
      "ଟିକାକରଣ": 4200,
      "ବ୍ୟକ୍ତିଗତ": 4201,
      "ସିଆଲ ମିଡିଆରେ ": 4202,
      "ରାଣ": 4203,
      "ବତନ୍ତ୍ର": 4204,
      "େରା ": 4205,
      "ୃଦ୍ଧି ": 4206,
      "ପରିଚୟ": 4207,
      "ମାରେ ": 4208,
      "ବରଗଡ଼": 4209,
      "le ": 4210,
      "ାକୃତିକ ": 4211,
      "ାଗଜ": 4212,
      "ସ୍କୃତି ": 4213,
      "ରାୟଗଡ଼": 4214,
      "ହଂଚ": 4215,
      "ବିଜେଡି": 4216,
      " ଲକ୍ଷ୍ୟ": 4217,
      "ଭିଜିଲାନ୍ସ": 4218,
      " କଲ": 4219,
      "ଲୋକପ୍ରିୟ": 4220,
      "ଧୀରେ ": 4221,
      "ଖୋର୍ଦ୍ଧା ": 4222,
      " ଅଟେ ": 4223,
      " ପଟ୍ଟନାୟକ": 4224,
      " ହେବାରେ ": 4225,
      " ସବୁ": 4226,
      "ମିତା ": 4227,
      "କୁ ଆସ": 4228,
      "ଲଗାଇ": 4229,
      " ବେହେରା": 4230,
      "ସମ୍ପର୍କ": 4231,
      "ଲାଇନ୍": 4232,
      " ବିଭାଗର ": 4233,
      " ବଳ": 4234,
      "୨ ": 4235,
      "ମୁଦାୟ": 4236,
      " ଉଠ": 4237,
      "ଜେନ୍": 4238,
      "ଫଗାନିସ୍ତାନ": 4239,
      "ସୁରକ୍ଷିତ": 4240,
      "ବର୍ତ": 4241,
      "ଆହୁରି ପଢ଼ନ୍ତୁ ": 4242,
      "ସୁଧ": 4243,
      "ଥିବାର": 4244,
      "ି କାମ": 4245,
      "କ୍ଷତି ": 4246,
      " ଅଧ୍ୟ": 4247,
      "ମ୍ୟାଚ୍": 4248,
      "ce": 4249,
      "ସ୍ତରରେ ": 4250,
      "ବାପା ": 4251,
      "ନାରାୟଣ": 4252,
      "ାଇମ": 4253,
      "ବ୍ୟାଙ୍କ ": 4254,
      "ବେଗ": 4255,
      "ହରାଇ": 4256,
      " କରିଥିବା ବେଳେ ": 4257,
      "ଭବିଷ୍ୟତ": 4258,
      "n ": 4259,
      "ମକ ": 4260,
      "କଣ": 4261,
      "କୁ ମଧ୍ୟ": 4262,
      "ବୃଦ୍ଧି ": 4263,
      " ସାମିଲ": 4264,
      "ାର୍ଷ": 4265,
      "ମାର୍ଚ୍ଚ": 4266,
      "ପ୍ରସ": 4267,
      "ରାଉତ": 4268,
      "ଫ୍ଟ": 4269,
      "ଥାଆ": 4270,
      "ବୈଠକ ": 4271,
      " ହେବ ବୋଲି ": 4272,
      " ମନ୍ତ୍ରଣ": 4273,
      " ଦେଶରେ ": 4274,
      "h ": 4275,
      "ସାମ୍ବାଦିକ ": 4276,
      "ଶିଖ": 4277,
      "ନଗର ": 4278,
      "ଶାନ୍ତି ": 4279,
      "ହେଉଛି": 4280,
      "ରବିବାର": 4281,
      "ତରଫରୁ ": 4282,
      "ପ୍ରତିବ": 4283,
      " ଓ ପ": 4284,
      "ଠିକ": 4285,
      "ପୂଜ": 4286,
      "ସୂଚନା ମିଳିଛି ": 4287,
      "ଶୁକ୍ରବାର": 4288,
      "ପୁରରେ ": 4289,
      "ରେ ପ୍ରଥମ": 4290,
      "im": 4291,
      " ସମାଜ": 4292,
      " ପ୍ରମାଣ": 4293,
      "ପେକ୍ଷ": 4294,
      " କରେ ": 4295,
      "ଡ଼ିଓ": 4296,
      "ଯଦି ଆପଣ": 4297,
      " ବାତ": 4298,
      "ରୀର ": 4299,
      "ପଞ୍ଜାବ": 4300,
      "କ୍ରୀ": 4301,
      "ଗେ": 4302,
      "Odisha ": 4303,
      " ଏଥିରେ ": 4304,
      "irst ": 4305,
      "ସେଲ": 4306,
      " କୃଷ": 4307,
      "ମନରେ ": 4308,
      "ସକ୍ଷମ": 4309,
      " ତେବେ ": 4310,
      " କର୍ତ୍ତୃପକ୍ଷ": 4311,
      "ପ୍ରସଙ୍ଗ": 4312,
      "ପ୍ରସ୍ତାବ": 4313,
      "ୀ ପ": 4314,
      " ମାମଲାରେ ": 4315,
      "ଏକ୍ସ": 4316,
      "ଯଦ": 4317,
      "ଞ୍ଜନ ": 4318,
      "ପାଇବା ପାଇଁ": 4319,
      "ଦୈନିକ ": 4320,
      " ଘରକୁ ": 4321,
      "ଶ୍ମ": 4322,
      " ସଂଖ୍ୟା ": 4323,
      "େବୃ": 4324,
      "ୁଥିଲେ": 4325,
      "ାଉଣ୍ଡ": 4326,
      "ଶନିବାର": 4327,
      "ଲମ୍ବ": 4328,
      "ଥାନା ଅନ୍ତର୍ଗତ": 4329,
      " ୧୧": 4330,
      "ିକ୍ରିୟା ": 4331,
      " ଜଙ୍ଗଲ": 4332,
      "ଗୁଲ": 4333,
      "ରୋକ": 4334,
      "କରିବା ": 4335,
      "ଭୁବନେଶ୍ବର ": 4336,
      "ଡିଂ": 4337,
      "ମନ୍ତ୍ରଣ": 4338,
      " ମନ୍ତ୍ରଣାଳୟ": 4339,
      " ଆବଶ୍ୟକ ": 4340,
      "ି କରାଯାଇଛି": 4341,
      "ମୂର୍ତ୍ତ": 4342,
      " ପକାଇ": 4343,
      "En": 4344,
      "ିନ୍": 4345,
      "୩୪": 4346,
      "ସଂଗ୍ରହ": 4347,
      "ଅଟ": 4348,
      "ାଇବାରେ ": 4349,
      "ଏହି କାର୍ଯ୍ୟକ୍ରମ": 4350,
      " ଓ ଅ": 4351,
      "ହେତୁ ": 4352,
      "ଶୋଇ": 4353,
      "ିଙ୍ଗ": 4354,
      "ଟିଆ": 4355,
      " ଅବସରରେ ": 4356,
      "ରହିବ ": 4357,
      "ବ୍ୟାପକ ": 4358,
      "କେତେ ": 4359,
      "ୁରକ୍ଷା ": 4360,
      "ତ୍ରୁ": 4361,
      "ଭଗବାନ": 4362,
      "ବାଲି": 4363,
      "ମିଳିତ": 4364,
      "ାଉଛି ": 4365,
      "ମଜ": 4366,
      " ଜୁ": 4367,
      " ପାଇଛି ": 4368,
      "୫ଟି ": 4369,
      "ଆସି": 4370,
      "ାକ ": 4371,
      "ଧୁନିକ ": 4372,
      " ଏସ": 4373,
      "wi": 4374,
      "ଶବ୍ଦ": 4375,
      "ଙ୍କ ନାମ": 4376,
      "ାଲୁ": 4377,
      " ଦିଆଯାଇଛି": 4378,
      "ଅନୁଷ୍ଠିତ ହୋଇ": 4379,
      "ତ୍ରି": 4380,
      " ଶୀଘ୍ର": 4381,
      "ାଣୀ ": 4382,
      "କଟକଣା ": 4383,
      "ବାଲେଶ୍ୱର ": 4384,
      "ସମସ୍ତଙ୍କୁ ": 4385,
      "out ": 4386,
      "ଦେଇଛି": 4387,
      "ମଣ୍ଡ": 4388,
      "ବଜାର": 4389,
      " ଭିଡିଓ": 4390,
      "ନିମ୍ନ": 4391,
      "ଗରିବ": 4392,
      "ବିହାର": 4393,
      " ଅନୁମ": 4394,
      "ଆନ୍ଧ୍ର": 4395,
      " ମାଗ": 4396,
      "ାପି": 4397,
      "ଏଣୁ ": 4398,
      " ସେଠାରେ ": 4399,
      "ବିଜ୍ଞାନ": 4400,
      " ନିମନ୍ତେ ": 4401,
      " କରୋନ": 4402,
      "ର ବିକାଶ": 4403,
      "ିନ ": 4404,
      " ଘର ": 4405,
      "୍ୱାନ": 4406,
      "ମର": 4407,
      " ନେଉ": 4408,
      ":0": 4409,
      "ୁ ଓ": 4410,
      "ଶୋକ ": 4411,
      " ସମ୍ପର୍କ": 4412,
      "ଗୁରୁତ୍": 4413,
      "pro": 4414,
      "AR": 4415,
      "ଣ୍ଟି": 4416,
      " ଓଡିଶ": 4417,
      "ପାର୍": 4418,
      "ାଳୀ": 4419,
      "ch ": 4420,
      " ଆସି": 4421,
      "ରୋଗୀ": 4422,
      ":5": 4423,
      " ପାକିସ୍ତାନ": 4424,
      "ଫୋନ୍": 4425,
      "ଦ୍ୟୋଗ": 4426,
      " ମେଡିକାଲ": 4427,
      "ମାଧ୍ୟମରେ ": 4428,
      " ଗଠନ": 4429,
      "ଆସନ୍ତାକ": 4430,
      "ଭ୍": 4431,
      " ନିକଟରେ ": 4432,
      "ୋଗ୍ର": 4433,
      "ବିତ୍ର": 4434,
      "ଅତିରିକ୍ତ": 4435,
      "ରାଷ୍ଟ୍ରୀୟ": 4436,
      "ଜରୁରୀ": 4437,
      " ୧୨": 4438,
      "ଗୋଲ": 4439,
      "ାମୂଳ": 4440,
      "ୁଇଁ": 4441,
      "oll": 4442,
      "କାହିଁକି ": 4443,
      "ଆଦି ": 4444,
      " ପରିସ": 4445,
      "(+": 4446,
      "ଗାଡ଼ି ": 4447,
      "ଜାଣିବା ": 4448,
      " ଛାତ୍ରଛାତ୍ରୀ": 4449,
      "ସିଆଇ": 4450,
      "ବିସ୍": 4451,
      "ଘାଟନ": 4452,
      "ଙ୍କ ମଧ୍ୟରୁ ": 4453,
      "ହିନ୍ଦୁସ୍ଥାନ": 4454,
      "ଶ୍ରୁତି ": 4455,
      "ନିଷ୍ପତ୍ତି ନେଇ": 4456,
      " ରୋ": 4457,
      "tions ": 4458,
      "ବର୍": 4459,
      "କକୁ ": 4460,
      "ିକାଲ": 4461,
      "ଶୀର୍ଷ": 4462,
      "ହେଉଛନ୍ତି ": 4463,
      "ଅର୍": 4464,
      "ଥାଉ": 4465,
      "ହତ୍ୟା ": 4466,
      "?\n": 4467,
      "ୀ ଦଳ": 4468,
      "uc": 4469,
      "ଗୁଡିକୁ ପ": 4470,
      "ଏପର୍ଯ୍ୟନ୍ତ": 4471,
      " ଅନୁଯାୟୀ ": 4472,
      "ଶୃଙ୍ଖ": 4473,
      "ଯଥ": 4474,
      "ଂଚଳରେ ": 4475,
      "ଜିଲ୍ଲାର ": 4476,
      " ପିଲା": 4477,
      "ସଚେତନ": 4478,
      "ଗୋଷ୍ଠୀ": 4479,
      "ଏହାପ": 4480,
      "ଦରେ ": 4481,
      "ନାର ": 4482,
      "ରେ ସାମିଲ": 4483,
      "ଏହା ଏକ ": 4484,
      ":4": 4485,
      "ନ୍ୟାୟ": 4486,
      "୩୯": 4487,
      "ିତ୍ବ": 4488,
      " ମିଳିବ": 4489,
      " ପଛ": 4490,
      "ଗୁଳି ": 4491,
      " ଗୁଡ଼": 4492,
      "ିଲିୟ": 4493,
      " କ୍ଷମତା ": 4494,
      " କିଲୋମିଟର ": 4495,
      "ମତ୍": 4496,
      "ତ୍ରରୁ ": 4497,
      "ିକତା ": 4498,
      "କରି": 4499,
      " କୋଟି ଟଙ୍କାର": 4500,
      "୩ ": 4501,
      " ନୂତନ ଅ": 4502,
      "ର କିଛି ": 4503,
      "େତିକି ": 4504,
      " ଦିଗ": 4505,
      " ଛୋଟ": 4506,
      " ଦୋକାନ": 4507,
      " ଉଦ୍ୟମ": 4508,
      "ଧି": 4509,
      " ଘୋଷଣା ": 4510,
      " ବିଷୟରେ ସମସ୍ତ": 4511,
      "ଦୁଷ୍କର୍ମ": 4512,
      " କୋଭିଡ୍": 4513,
      ":3": 4514,
      "ଆଜିର ": 4515,
      "ଓଡ଼ିଶାର": 4516,
      "ସମ୍ବଲପୁର ": 4517,
      "ସୂଚନା ଦେଇଛନ୍ତି ": 4518,
      "ଭୂମି": 4519,
      " କିଣ": 4520,
      "େଣ୍ଡ": 4521,
      "କରିବାକୁ ": 4522,
      "ୋଜ୍": 4523,
      "ପଡ଼େଟ": 4524,
      "ସିଏ": 4525,
      " କୃଷି ": 4526,
      "ୀବ୍ର": 4527,
      "ବାଦୀ ": 4528,
      "ର ମୁଖ୍ୟ": 4529,
      "ରୁଣ": 4530,
      "ଏଠାରେ କୋଭିଡ": 4531,
      "ା କରି": 4532,
      "il ": 4533,
      "ାଗୁଡ଼": 4534,
      " ନୂତନ ଅପଡ଼େଟ": 4535,
      " ବିଷୟରେ ସମସ୍ତ ନୂତନ ଅପଡ଼େଟ": 4536,
      " ବିଷୟରେ ସମସ୍ତ ନୂତନ ଅପଡ଼େଟଗୁଡିକୁ ପ": 4537,
      "ୌଶଳ": 4538,
      "ଦୋଷ": 4539,
      "ତ୍ମହତ୍ୟ": 4540,
      "ୃତ୍ୟ": 4541,
      "ାଇବେ ": 4542,
      "ମୋର ": 4543,
      "ଗୁଆ": 4544,
      " ପାଇବ": 4545,
      "ଜର୍": 4546,
      "ଏଠାରେ କୋଭିଡ ବିଷୟରେ ସମସ୍ତ ନୂତନ ଅପଡ଼େଟଗୁଡିକୁ ପ": 4547,
      "ଦ୍ରୁତ": 4548,
      "ରେ ଅନେକ ": 4549,
      "ରାଜସ୍ଥାନ": 4550,
      "ବାୟୁ ": 4551,
      "ଡାକ": 4552,
      "ାର ସମା": 4553,
      " ୧୪": 4554,
      "ଚାଲିଥିବା ": 4555,
      " ଲୁ": 4556,
      "ର ପ୍ରତି": 4557,
      "ବାତ୍ୟା ": 4558,
      " ଦ୍ର": 4559,
      "ାଣିରେ ": 4560,
      "ଥ୍": 4561,
      " ଶିବ": 4562,
      "ଗଲା": 4563,
      "ଟାର୍ଗ": 4564,
      " କ୍ରୀ": 4565,
      "ମାନଙ୍କ ସହ": 4566,
      "ଯିବା ପରେ ": 4567,
      "ସାଗ": 4568,
      "ସୋମବାର": 4569,
      "*\n": 4570,
      " ଖଣ୍ଡ": 4571,
      "୨୦୨୨": 4572,
      "ସନ ": 4573,
      " ପ୍ରଧାନମନ୍ତ୍ରୀ ": 4574,
      "ନଙ୍କ ": 4575,
      "ିନୀ ": 4576,
      "ବୁଧବାର": 4577,
      "be ": 4578,
      "ଥିଲେ ମଧ୍ୟ": 4579,
      "vi": 4580,
      " ଖୁସି ": 4581,
      "ଯାଇଥାଏ": 4582,
      "ରେ କାମ": 4583,
      "ନିର୍ଦ୍ଦିଷ୍ଟ": 4584,
      "ତିନୋ": 4585,
      "ଅନ୍ତି ": 4586,
      " ବସ": 4587,
      "ଗ୍ରସ୍ତ": 4588,
      "କାର୍ଯ୍ୟକାରୀ": 4589,
      "ାନି ": 4590,
      " ମହାନ୍ତି ": 4591,
      "ହୋଇଥିଲା": 4592,
      " ଡେ": 4593,
      "ନାଇ": 4594,
      "ର ଉପ": 4595,
      " ଚିହ୍ନଟ ହୋଇଛନ୍ତି": 4596,
      " ପରି ": 4597,
      "ଟ୍ରେ ": 4598,
      " ସ୍ବାସ୍ଥ୍ୟ": 4599,
      " ଅଧିନ": 4600,
      "ତ୍ତି ": 4601,
      "ହୋ": 4602,
      "ଦେବେ ": 4603,
      " ଅନୁମତି ": 4604,
      "ଗର୍ଭ": 4605,
      " ସତ": 4606,
      "କୁ ଖ": 4607,
      " ମନ୍ତ୍ର": 4608,
      "ଟିମ": 4609,
      "ଜାଇ": 4610,
      " ସ୍ତରରେ ": 4611,
      " ବିଭିନ୍ନ ": 4612,
      "ାର ସମାଧାନ": 4613,
      " ଆଇନ": 4614,
      "ଯୋଗିତ": 4615,
      " ପୁଣି ": 4616,
      "ଲିଙ୍ଗ": 4617,
      " ଅଟ": 4618,
      " କରିଥାଏ ": 4619,
      "୭ ଜଣ": 4620,
      " ବୁଝ": 4621,
      "18": 4622,
      "ପଢ଼": 4623,
      " ଶୁଣ": 4624,
      "କ୍ରମିତ ହୋଇ": 4625,
      "ଅଛି": 4626,
      " ପାଣି ": 4627,
      "ପଡ଼ିବ": 4628,
      " ସରକାରୀ": 4629,
      "ଟାରୁ ": 4630,
      " ପଜିଟିଭ": 4631,
      "କୁ ପ୍ର": 4632,
      "ଲେଜ": 4633,
      " ଘଣ୍ଟା ମଧ୍ୟରେ ": 4634,
      "ଘରୁ ": 4635,
      "ସାମାନ୍ୟ": 4636,
      " ମୁତ": 4637,
      " ପୃ": 4638,
      "2019 ": 4639,
      "ପ୍ରଭାବିତ": 4640,
      " ଜରିଆରେ ": 4641,
      "ଭଣ୍ଡ": 4642,
      " ରୁ": 4643,
      "ଅତି ": 4644,
      "େୟ": 4645,
      "କଷ୍ଟ": 4646,
      " ଜନ୍ମ": 4647,
      "ମାଓ": 4648,
      "ତ୍ନ": 4649,
      "ବୋଧ": 4650,
      "30": 4651,
      " ପ୍ରେମ": 4652,
      "ତଥାପି ": 4653,
      "ବ୍ଲକ ": 4654,
      "ସ୍ୱା": 4655,
      "ଥାଇ": 4656,
      "ଦଳୀୟ": 4657,
      " ମାନସ": 4658,
      " ସେନା ": 4659,
      "ନିର୍ଦେଶ": 4660,
      "ସାଧାରଣତଃ": 4661,
      "ସିଧ": 4662,
      "ନୀଳ": 4663,
      " ଆପଣଙ୍କ ": 4664,
      "ା ନ": 4665,
      "ସୁଶାନ୍ତ": 4666,
      " ଅଂଶ": 4667,
      "ତିନୋଟି ": 4668,
      "ରାନ": 4669,
      "post ": 4670,
      "appear": 4671,
      "ହିନ୍ଦୁସ୍ଥାନ ସମା": 4672,
      " ଜୟ": 4673,
      "ପଶ୍ଚିମବଙ୍ଗ": 4674,
      "ଉପାୟ": 4675,
      "େରି ": 4676,
      " ୧୬": 4677,
      " ଘର": 4678,
      " ମାର୍ଚ୍ଚ": 4679,
      "ଭି ": 4680,
      "ଜାଣନ୍ତୁ ": 4681,
      " ସହାୟତା ": 4682,
      "ଅଞ୍ଚଳରେ ": 4683,
      "ତ୍ୟାଦ": 4684,
      "ଉଠାଇ": 4685,
      "ପ୍ରଭୁ ": 4686,
      "ଚର୍ଚ୍ଚା ": 4687,
      "ଫୋରଣ": 4688,
      "Wh": 4689,
      "ଳଖ": 4690,
      "ସଂସଦ": 4691,
      "ଇସ୍ତଫା ": 4692,
      "ନିଷ୍": 4693,
      "ଶ୍ବର": 4694,
      " ହେବାର": 4695,
      "ଜ୍ୟୋ": 4696,
      "Al": 4697,
      "ଆବେଦନ": 4698,
      "ଚୀନ": 4699,
      "ପଚାର": 4700,
      "ଆୟୋଜିତ": 4701,
      "ଘଟଣାର ତଦନ୍ତ": 4702,
      " ଏକା": 4703,
      "ଲରେ ": 4704,
      "ଇଁ": 4705,
      " ବିଦେଶ": 4706,
      "ଅତ୍ୟନ୍ତ": 4707,
      "ତୁମ୍ଭ": 4708,
      " ଏଭଳି ": 4709,
      "ନିଧି ": 4710,
      " ଜିଲ": 4711,
      "କ୍ଟ୍ର": 4712,
      "ୋଲୋଜ": 4713,
      "ମିଳି": 4714,
      "ମ୍ପି": 4715,
      "State ": 4716,
      "ଚୌ": 4717,
      " ଆତଙ୍କ": 4718,
      " ଖୁବ": 4719,
      "ଅପରାହ୍": 4720,
      "ା ପୋଲିସ": 4721,
      "କ୍ଲିକ୍": 4722,
      "ପାଖାପାଖି ": 4723,
      "ାଟା ": 4724,
      "ev": 4725,
      "ଠା ": 4726,
      "ମାନଙ୍କ ମଧ୍ୟରେ ": 4727,
      "ନେତା": 4728,
      "ଅଧ୍ୟ": 4729,
      "ଲାର": 4730,
      "କରିଥିଲେ ": 4731,
      " ପରାମର୍ଶ": 4732,
      "ସରକାରୀ ": 4733,
      "ଶିଷ": 4734,
      " ମହାନ୍ତି": 4735,
      "ଓଡ଼ିଶା": 4736,
      "େଡ": 4737,
      " ଅଭିଯାନ": 4738,
      "ି କର୍ମ": 4739,
      "ବେଶ୍": 4740,
      "ା ସମ୍": 4741,
      " ବେଶ": 4742,
      " କରିନ": 4743,
      "ମଙ୍ଗଳବାର": 4744,
      "ଅଧିକାର": 4745,
      "ଏହି ଘଟଣା ": 4746,
      "ut": 4747,
      "ଚିଠି ": 4748,
      "କେଟ": 4749,
      "ରାଉରକେଲ": 4750,
      "ା ସୃଷ୍ଟ": 4751,
      " ଇଂ": 4752,
      "ଥିବେ ": 4753,
      "ର ଖବର ": 4754,
      "ଉଦାହରଣ": 4755,
      "ଋତୁ": 4756,
      "ଶାସନ ପକ୍ଷରୁ ": 4757,
      "ମାଛ": 4758,
      "ରିଲି": 4759,
      "ext ": 4760,
      "ଣ୍ଟ୍ର": 4761,
      "୍ୟୁବ": 4762,
      " ବୋଲି କୁହା": 4763,
      "କ୍ଷୋଭ": 4764,
      "ଉତ୍ତମ": 4765,
      "ଏଠାରେ କୋଭିଡ ବିଷୟରେ ସମସ୍ତ ନୂତନ ଅପଡ଼େଟଗୁଡିକୁ ପଢ଼ନ୍ତୁ ": 4766,
      "Elec": 4767,
      "ସାମ୍ନାକୁ ଆସ": 4768,
      " କାହ": 4769,
      "ଙ୍କ ବିରୋଧରେ ": 4770,
      "ପଟ": 4771,
      "ତାଲିବାନ": 4772,
      "ଗୁରୁତର ": 4773,
      " ପରିଚାଳନା ": 4774,
      "ଯଦି": 4775,
      "ଯେପରି ": 4776,
      "ଲୋଚ": 4777,
      " ହୋଇପାରେ ": 4778,
      "ଆସନ୍ତୁ ": 4779,
      "ନିଂ": 4780,
      "ସ୍ଥାନାନ୍ତର": 4781,
      "ଶୁଭେ": 4782,
      "ସମୁଦ୍ର": 4783,
      " ଫୁଟ": 4784,
      "ରିଂ": 4785,
      " ରେକର୍ଡ": 4786,
      "ନାମକ ": 4787,
      " ଉଦ୍ଧାର": 4788,
      " ନୁହେଁ ": 4789,
      "ବୟସ": 4790,
      "ଚନ୍ଦ": 4791,
      " ନେବାକୁ ": 4792,
      " ସଂସ୍ଥ": 4793,
      " ସମାନ": 4794,
      " ରାୟ": 4795,
      "ମନେ ": 4796,
      "ହତ୍ୟା": 4797,
      "ଏହା ସହ": 4798,
      " ଗସ୍ତ": 4799,
      "ଚେନ୍ନାଇ": 4800,
      "ଓମିକ୍ର": 4801,
      " କୋହ": 4802,
      "କେଇ": 4803,
      " ବିବାଦ": 4804,
      "ାଡିୟମ": 4805,
      "ମ୍ମ": 4806,
      "ା ସରକାର": 4807,
      "ିସାର": 4808,
      "ସପ୍ତାହ": 4809,
      " ୫୦": 4810,
      " ଦୃ": 4811,
      "୫୫": 4812,
      " ରାଜପଥ": 4813,
      "ଯୋଜନାରେ ": 4814,
      "୍ରୀଷ୍ଟ": 4815,
      "ମୋଟ୍": 4816,
      "s ago": 4817,
      " ମୁକାବ": 4818,
      "ୀ ସ": 4819,
      "ist": 4820,
      "ଅନ୍ତି": 4821,
      "ଦେଖିବାକୁ ": 4822,
      " ଆଖ": 4823,
      "ବିଧାନସଭା ": 4824,
      "ସଦସ୍ୟ": 4825,
      " ପ୍ରାର୍ଥ": 4826,
      "ଙ୍କ ଦ୍ୱାରା ": 4827,
      "ର୍ତ": 4828,
      "ବେଷଣା ": 4829,
      "ଣାରେ ": 4830,
      " ବୃଦ୍ଧି ": 4831,
      " ପ୍ରଶଂସ": 4832,
      " ବଦଳ": 4833,
      "ରାଗ": 4834,
      " କହିଛନ୍ତି ଯେ": 4835,
      " ପ୍ରସ୍ତୁତି ": 4836,
      "ଅଗ୍ନି": 4837,
      "ଫୁଟ": 4838,
      "ଶଙ୍କର ": 4839,
      "୪୬": 4840,
      "କ୍ଷତି": 4841,
      " କରିବାର ": 4842,
      "ତିକ୍ରମ": 4843,
      "ଙ୍କୁ ନେଇ": 4844,
      "ଡିସେମ୍ବର ": 4845,
      " ଶକ୍ତି ": 4846,
      "ଦ୍ଧି": 4847,
      "ଏଥର ": 4848,
      "ଥାନ୍ତ": 4849,
      "ers": 4850,
      "ଗ୍ଧ": 4851,
      "ଫାଇନାଲ": 4852,
      "ome": 4853,
      "୧ ": 4854,
      "କିମ୍ବ": 4855,
      "ଦିତ୍ୟ": 4856,
      "ଦାବି ": 4857,
      "ଚରାଉ": 4858,
      "ାର୍ଟ": 4859,
      "ସାନ": 4860,
      "ଅଣ": 4861,
      "ାଉଳ": 4862,
      "Odisha": 4863,
      "ଆନନ୍ଦ": 4864,
      "ପେଟ୍ରୋଲ": 4865,
      " କଲା ": 4866,
      " ପ୍ରଶାସ": 4867,
      " ମାସରେ ": 4868,
      "ବଲିଉଡ": 4869,
      " ଗୁରୁତ୍ୱ": 4870,
      "ଆଉ ଏକ ": 4871,
      "ଜାନୁ": 4872,
      " ବନ": 4873,
      "ଏଥିରୁ ": 4874,
      "new": 4875,
      "ଲକ୍ଷ୍ମୀ": 4876,
      " ସମ୍ବନ୍ଧ": 4877,
      "ଧାରଣ": 4878,
      "ଓହ୍ଲ": 4879,
      "କ୍ୟା": 4880,
      "ଏମାନେ ": 4881,
      "ହୋଇଥାଏ": 4882,
      "qu": 4883,
      "ନିବେଶ": 4884,
      "ାଦଶ": 4885,
      "ପାରନ୍ତି ": 4886,
      "ଆଇନ ": 4887,
      "ଏହା ପୂର୍ବରୁ ": 4888,
      "for": 4889,
      "ିବି ": 4890,
      "ଖଲ": 4891,
      "ପସନ୍ଦ": 4892,
      "କୃଷି ": 4893,
      "ଛାତ୍ରୀ ": 4894,
      "ତହସିଲ": 4895,
      "ଳିତ": 4896,
      "ଶିତ": 4897,
      " ସାଙ୍ଗ": 4898,
      "ବିଜୁ ": 4899,
      "ar ": 4900,
      "Posts": 4901,
      " ଘଟଣାସ୍ଥଳରେ ": 4902,
      "ୃତୀୟ": 4903,
      "କନକ ବ୍ୟୁରୋ ": 4904,
      "୍ୟାନ୍": 4905,
      " ୟ": 4906,
      " ଦୂ": 4907,
      "ପ୍ରଶାସ": 4908,
      "ଧାରା ": 4909,
      "୪୭": 4910,
      "ୀ ମ": 4911,
      " ରହିଛନ୍ତି ": 4912,
      "+ ": 4913,
      "କୁ ସ": 4914,
      "ଦ୍ରାବାଦ": 4915,
      " ତୃତୀୟ": 4916,
      "ଉନ୍ନତ": 4917,
      "ଷ୍କାର": 4918,
      "ଦାଲ": 4919,
      "ନେତ୍ରୀ ": 4920,
      " କିନ୍ତୁ ": 4921,
      "ଦୂରେଇ": 4922,
      "ର୍ଣ୍ଣାଟ": 4923,
      "ମ୍ବୁଲ": 4924,
      "ବିଦ୍ୟୁତ": 4925,
      " ସେୟାର": 4926,
      "ଦାର ": 4927,
      "ଯାଇଥିବା ବେଳେ ": 4928,
      "wit": 4929,
      "ଲଢ଼": 4930,
      "Ch": 4931,
      "ୁଥିଲା ": 4932,
      " ହୋଇପାରେ": 4933,
      "ୟୁନି": 4934,
      "ନିକିଆ": 4935,
      "ବାସୀଙ୍କୁ ": 4936,
      "om ": 4937,
      "କ୍ଲ": 4938,
      "ଆଜି ସକାଳ": 4939,
      " ସ୍ପଷ୍ଟ": 4940,
      "ିତ ହୋଇଛି ": 4941,
      "ଦୂରରେ ": 4942,
      "କୀୟ": 4943,
      "ଶେଖ": 4944,
      " ବୈଠକରେ ": 4945,
      "ୁରୁ": 4946,
      "ଦାବି": 4947,
      " କେତେକ ": 4948,
      "୩୩": 4949,
      " ସମ୍ଭାବନା ": 4950,
      " ବିରୋଧରେ ": 4951,
      " ଟିକ": 4952,
      " ସେଠ": 4953,
      "ଫି ": 4954,
      "୍ୟାଙ୍ଗ": 4955,
      " ଚୌ": 4956,
      " ଶିଶୁ ": 4957,
      "ଧର୍ମେନ୍ଦ୍ର": 4958,
      "ୱାର": 4959,
      "ାରୀରିକ ": 4960,
      "ର ସଦସ୍ୟ": 4961,
      "Share ": 4962,
      "୨୦୧୮": 4963,
      " ପୋଲ": 4964,
      "ବ୍ୟାଟିଂ": 4965,
      "ଗୁରୁବାର": 4966,
      " ୨୫": 4967,
      "ିଚ": 4968,
      "ନଭେମ୍ବର ": 4969,
      "ସହରରେ ": 4970,
      "ର ଏବଂ": 4971,
      "ପଡ଼ା ": 4972,
      "ଛତିଶ": 4973,
      "ସ୍ୱାମୀ": 4974,
      "ାଧୀନତା ": 4975,
      " ରଥ": 4976,
      "୍ୟାଲେ": 4977,
      "ପଡି": 4978,
      " ସାରା ": 4979,
      "ଡିସି": 4980,
      "ମିଳିଛି ": 4981,
      " ଆବେଦନ": 4982,
      ":1": 4983,
      "ବନ୍ଧୁ ": 4984,
      "ଅଫିସ": 4985,
      " କରୁଥିଲେ": 4986,
      "ରେ ମ": 4987,
      "ସ୍ମାର୍ଟ": 4988,
      "ଧ୍ୟକ୍ଷତାରେ ": 4989,
      " ଶାସନ ସଚିବ": 4990,
      "ାଣିଗ୍ରାହ": 4991,
      " ଶ୍ରମ": 4992,
      "େରଳ": 4993,
      " ଆକ୍ରମଣ": 4994,
      " କଣ": 4995,
      "Elections ": 4996,
      "ାମିଲନା": 4997,
      "ସହାୟକ ": 4998,
      "ଜ୍ଞପ୍ତ": 4999,
      "ସଂପର୍କରେ ": 5000,
      "State Elections ": 5001,
      "Click here to get the latest updates on State Elections ": 5002,
      "ଡ଼ାଇ": 5003,
      "ପଢନ୍ତୁ ": 5004,
      " ତୁଳ": 5005,
      "ସୁନା ": 5006,
      " ଅଧିକାର": 5007,
      "ର ସମସ୍ତ": 5008,
      "ବାଣ": 5009,
      " ଜିଲ୍ଲାର": 5010,
      " କରିବା ଏବଂ": 5011,
      "୪୯": 5012,
      " କରିପାରିବ": 5013,
      "ସ୍ଥିତିକୁ ": 5014,
      "ାଫଳ": 5015,
      " ଡାକ୍ତରଖାନ": 5016,
      "ବାସ୍ତବ": 5017,
      "ପ୍ରାର୍ଥୀ": 5018,
      " ସମ୍ପୂର୍ଣ୍ଣ": 5019,
      "ୀନ୍": 5020,
      "କୁ ଫେର": 5021,
      " ଆହତ": 5022,
      "ଗୁଜ": 5023,
      "ପରବର୍ତ୍ତୀ": 5024,
      "ଆଲ": 5025,
      " ତରଫରୁ ": 5026,
      "ି କେ": 5027,
      "The post ": 5028,
      " ଯୋଗୁ ": 5029,
      "କମ୍ପ": 5030,
      " ସମ୍ପର୍କ ": 5031,
      " ଦକ୍ଷିଣ": 5032,
      "ଆପ": 5033,
      "HA": 5034,
      "ାସଳଖ": 5035,
      " ମଣ୍ଡ": 5036,
      "ଭାବ୍ୟ": 5037,
      "ନିଗମ": 5038,
      " ଦାବି କର": 5039,
      " ଧର": 5040,
      "ଗ୍ରାମ୍": 5041,
      "ଦୁଇ ଜଣ": 5042,
      "Con": 5043,
      " ପ୍ରକ୍ରିୟା ": 5044,
      "ସାଂ": 5045,
      "ାକ୍": 5046,
      "ମାଲକାନଗିରି ": 5047,
      "ON": 5048,
      " ଚାଲାଣ": 5049,
      "ଶୋକ": 5050,
      "ମୁନା ": 5051,
      "Ar": 5052,
      "ର୍ମା ": 5053,
      "ରେ ଜଣେ ": 5054,
      "ଯଦିଓ": 5055,
      " ଘଣ୍ଟାରେ ": 5056,
      " ପ୍ରଧାନମନ୍ତ୍ରୀ": 5057,
      " ଆଣ୍ଡ": 5058,
      "ନଜ": 5059,
      "00": 5060,
      "ବାପା": 5061,
      "ଆସୁଥିବା ": 5062,
      " ୟୁନି": 5063,
      "ବସ୍": 5064,
      "wor": 5065,
      " ନିର୍ବାଚନରେ ": 5066,
      "ଇନ": 5067,
      "ରହିଛନ୍ତି ": 5068,
      "ାଇବା ସହ": 5069,
      "ଶିକ୍ଷଣ": 5070,
      "ଅଗଷ୍ଟ": 5071,
      "ଷ୍ଟର ": 5072,
      "ଘୁଚାପ": 5073,
      "ଢେଇ": 5074,
      "ହଠାତ୍": 5075,
      "ନିର୍ବାହ": 5076,
      " ହୋଇଯାଇଛି ": 5077,
      " ଉନ୍ନ": 5078,
      "with ": 5079,
      "ବାପ": 5080,
      "ଦାଲତ": 5081,
      "ିବା ସହିତ": 5082,
      "ଚାହିଁ": 5083,
      "ନ୍ୟୁଜ୍": 5084,
      "ଣ୍ଡର ": 5085,
      "ୀମ": 5086,
      "ପୀଠ": 5087,
      "ce ": 5088,
      "୍ରୁ": 5089,
      "ମାଲକାନଗିରି": 5090,
      "ାଉଛନ୍ତି ": 5091,
      "ରେ ଭାରତ": 5092,
      "ରିମାନ": 5093,
      "ରାଲ୍": 5094,
      " ଯୋଗାଣ": 5095,
      "ଅଭିଯାନ": 5096,
      "ଏପ୍ରିଲ": 5097,
      "ୋଶ": 5098,
      "ଅନୁଯାୟୀ ": 5099,
      "ଓ୍ଵ": 5100,
      " କରିଥାନ୍ତି ": 5101,
      " ଓ କ": 5102,
      "କାରୀଙ୍କ ": 5103,
      "ଡାଉନ୍": 5104,
      "ଭାଜ": 5105,
      "ୱେବ": 5106,
      " ବାଇ": 5107,
      " ସାଂସଦ": 5108,
      " ପ୍ରସାଦ": 5109,
      "ଗୁରୁ": 5110,
      "ଯାହାର": 5111,
      " ଆଶଙ୍କା ": 5112,
      "ଜାପ": 5113,
      "ଶା ": 5114,
      "ନ କରି ": 5115,
      "ଚକ୍ର": 5116,
      "ପୌ": 5117,
      "ା ବଢ଼": 5118,
      "ାସ୍ତ୍ର": 5119,
      " ପରିଷଦ": 5120,
      "ମ୍ୱ": 5121,
      "କ୍ଲିକ୍ କରନ୍ତୁ": 5122,
      "ଏଥିସହିତ": 5123,
      " ଖାନ": 5124,
      " ପ୍ରସ୍ତାବ": 5125,
      " ଆଲ": 5126,
      ":2": 5127,
      "tic": 5128,
      " ରାତିରେ ": 5129,
      "ନୌ": 5130,
      " ନବ": 5131,
      " ଆପଣଙ୍କୁ ": 5132,
      "Pre": 5133,
      " କମ୍ପାନୀ": 5134,
      "ି ହୋଇଛି": 5135,
      "ହରି": 5136,
      "ାଇଛି ": 5137,
      "୪ ": 5138,
      "ାହାନ୍ତି ": 5139,
      "ଫେସର ": 5140,
      " ଟିମ": 5141,
      " ପାଲଟ": 5142,
      " ପଢ଼": 5143,
      "ନମ୍ବର ": 5144,
      "ik": 5145,
      "େସନ ": 5146,
      "ation ": 5147,
      "୮ ଜଣ": 5148,
      " ସନ୍ତ": 5149,
      "ସାକ୍ଷାତ": 5150,
      "wh": 5151,
      "ପରିଚାଳନା ": 5152,
      "ପୁତ୍ର": 5153,
      "ିକର ": 5154,
      "ମନୋ": 5155,
      "କ୍ଷୀ": 5156,
      "ଠାକ": 5157,
      " ଯୁଦ୍ଧ": 5158,
      "ଦେବୀ": 5159,
      "ପତ୍ନୀ": 5160,
      " ବ୍ୟାଙ୍କ ": 5161,
      " ପଢ": 5162,
      "ପାଞ୍ଚ": 5163,
      " ସାମଗ୍ରୀ": 5164,
      "ରାଜ୍ୟପାଳ": 5165,
      "ୟଂ": 5166,
      "ତାଲିକା ": 5167,
      "ସେଇ": 5168,
      "aj": 5169,
      "ଜୀବନରେ ": 5170,
      " ତାରିଖରୁ ": 5171,
      "ମ୍ବୁଲାନ୍ସ": 5172,
      "ଦର୍ଶନ ": 5173,
      "ାନୀ": 5174,
      " ଏହାର ": 5175,
      "ଓ ଅ": 5176,
      "ପ୍ରତିଷ୍ଠ": 5177,
      "ସ୍ଥଳରେ ": 5178,
      "ଏଚ": 5179,
      "and": 5180,
      "2022  ": 5181,
      " ବାହାରେ ": 5182,
      "ରୋହିତ": 5183,
      " କଟକଣା ": 5184,
      "ust ": 5185,
      "ଅନ୍ତ": 5186,
      "ନିର୍ଦ୍ଦେଶକ ": 5187,
      "ବ୍ୟବସାୟୀ": 5188,
      "କୁ କ": 5189,
      "ଙ୍କ ଠାରୁ ": 5190,
      " ପିନ୍ଧ": 5191,
      "ସଂପର୍": 5192,
      " ରକ୍ତ": 5193,
      "ଚାର୍ଯ୍ୟ": 5194,
      "ଦେବା ପାଇଁ": 5195,
      "ତାଳ": 5196,
      "ନ୍ଥ": 5197,
      " ବଡ ଖବର ": 5198,
      "ଗୁଡ଼ିକର ": 5199,
      "sc": 5200,
      "ଘଣ୍ଟା ": 5201,
      " ଜାରି କର": 5202,
      " ଯୋଗାଇ": 5203,
      "ନରୁ ": 5204,
      "ଆଡ": 5205,
      "ମାନଙ୍କ ସହିତ": 5206,
      " ସମର୍ଥ": 5207,
      "ାମତ": 5208,
      "ଜନସାଧାରଣ": 5209,
      "ଆସନ୍ତାକାଲି ": 5210,
      "ିବା ଲାଗି ": 5211,
      "dit": 5212,
      " ଅର୍": 5213,
      " ଥାନା ": 5214,
      "ପକାଇ": 5215,
      "Octo": 5216,
      "ି କହିଥିଲେ ": 5217,
      "୬୫": 5218,
      "ବ୍ୟସ୍ତ": 5219,
      "ଟେଲିଗ୍ରାମ୍": 5220,
      "ପ୍ରଣ": 5221,
      " ଆଡ": 5222,
      " ବୈଠକ ": 5223,
      " ସଂପର୍କରେ ": 5224,
      "ବେଲ": 5225,
      "ସୂଚନା ଅନୁଯାୟୀ": 5226,
      "ତାହାକୁ ": 5227,
      "ମାଇ": 5228,
      " ଅଟେ": 5229,
      "ଏହା ବ୍ୟତୀତ": 5230,
      "ଦୁର୍ବଳ": 5231,
      " ଦୀ": 5232,
      "ରେ ସରକାର": 5233,
      "କର୍ମଚାରୀ": 5234,
      " ଏଠାରେ କ୍ଲିକ୍ କରନ୍ତୁ": 5235,
      "ଙ୍କ ନେତୃତ୍ୱ": 5236,
      "ଜୟନ୍ତ": 5237,
      "କରୁ ": 5238,
      " ଭୂମିକା ": 5239,
      "ର ଖବର ଏବେ ": 5240,
      "ଶ୍ରୀଲ": 5241,
      "ଗାଡି ": 5242,
      "ଛାଡ଼": 5243,
      " ବେଳ": 5244,
      "ସମସ୍ତ ବଡ ଖବର ": 5245,
      "ଓଡ଼ିଶା ରିପୋର୍ଟର ଖବର ଏବେ ": 5246,
      "ପାଇବା ପାଇଁ ଏଠାରେ କ୍ଲିକ୍ କରନ୍ତୁ": 5247,
      "ଟେଲିଗ୍ରାମ୍ ରେ": 5248,
      "ସମସ୍ତ ବଡ ଖବର ପାଇବା ପାଇଁ ଏଠାରେ କ୍ଲିକ୍ କରନ୍ତୁ": 5249,
      "ଓଡ଼ିଶା ରିପୋର୍ଟର ଖବର ଏବେ ଟେଲିଗ୍ରାମ୍ ରେ": 5250,
      " ଅଗଷ୍ଟ": 5251,
      "ଫରେ": 5252,
      "ିପ": 5253,
      "ଚଢ": 5254,
      "ନିର୍ମିତ": 5255,
      " ପରିସରରେ ": 5256,
      " ସୁରକ୍ଷ": 5257,
      "ଶିକାର": 5258,
      "October ": 5259,
      "ଦମ": 5260,
      "ର ସର୍ବ": 5261,
      " ସ୍ଥିତି ": 5262,
      "ଖାଇବା ": 5263,
      "୍ରୋ": 5264,
      " ସକ୍ରିୟ": 5265,
      " ପ୍ରାପ୍ତ": 5266,
      "ସମ୍ପୃକ୍ତ": 5267,
      "ଗାଁର ": 5268,
      "ୋଗ୍ୟ": 5269,
      "୧୯୯": 5270,
      "cl": 5271,
      "ବରଂ": 5272,
      "ାଳନ": 5273,
      "ଗଜପତି ": 5274,
      "App": 5275,
      " ଲେଖାଏଁ": 5276,
      "ଗରମ": 5277,
      "ବୃ": 5278,
      " ବର୍ଷ ବୟସ": 5279,
      "S ": 5280,
      " ବୋର୍ଡ": 5281,
      "ଟର": 5282,
      " ଉପାୟ": 5283,
      "ପ୍ରକ୍ରିୟ": 5284,
      "ନକ": 5285,
      "ଭୂମ": 5286,
      " ଜେନା ": 5287,
      "ଜିଲା": 5288,
      "ସୃଷ୍ଟି କର": 5289,
      " ବ୍ୟବ": 5290,
      " ସୌ": 5291,
      "0\n": 5292,
      "ସହଜ": 5293,
      " ଦୃଷ୍ଟ": 5294,
      " ବାପ": 5295,
      "ସେପ୍ଟେମ୍ବର ": 5296,
      " ବିଧାନସଭା ": 5297,
      "ପ୍ରକୃତ": 5298,
      "କିଣ": 5299,
      "ଫଳାଫଳ": 5300,
      "ଲେଖାଏଁ": 5301,
      " ପରିବାର ": 5302,
      "ଯାଆ": 5303,
      "ଆବଶ୍ୟକତା ": 5304,
      "ସଂପୃକ୍ତ": 5305,
      "ନିଷ୍ପତ୍ତ": 5306,
      "ପରିସ": 5307,
      " କର୍ମଚାରୀ ": 5308,
      " ଜୁଲାଇ": 5309,
      " ମଲ୍ଲ": 5310,
      "ଅଷ୍ଟ୍ରେଲିଆ": 5311,
      "ନାହିଁ ବୋଲି ": 5312,
      "ତାପମାତ୍ରା ": 5313,
      " ୧୭": 5314,
      "ପୋର": 5315,
      "ୁରା ": 5316,
      "େରୀ": 5317,
      "ସ୍ବତନ୍ତ୍ର": 5318,
      " ଜାନୁ": 5319,
      "of the ": 5320,
      "ଭିବ": 5321,
      "ଦସ୍ତ": 5322,
      "ବିଜେପ": 5323,
      "ାର୍ଷିକ ": 5324,
      "ଲକ୍ଷଣ": 5325,
      "ଚୋର": 5326,
      "Home": 5327,
      "ର୍ଚ": 5328,
      " ପଦକ ": 5329,
      "ପଢନ୍ତୁ ଓଡ଼ିଶା ରିପୋର୍ଟର ଖବର ଏବେ ଟେଲିଗ୍ରାମ୍ ରେ": 5330,
      "ାୟ ରଖ": 5331,
      " ବିଜ୍ଞାନ": 5332,
      "ebsit": 5333,
      "ତର": 5334,
      " ଉତ୍ସବ": 5335,
      "ated ": 5336,
      "ମିନି": 5337,
      "?  । ": 5338,
      "ପାଟଣା ": 5339,
      " ଶୁଭ": 5340,
      "ଞ୍ଚଳିକ ": 5341,
      " କେବେ ": 5342,
      "ମଣ୍ଡଳ": 5343,
      "ଦୁର୍ଗ": 5344,
      "କରାଯାଇଛି ": 5345,
      "ତା ଏବଂ": 5346,
      "ବିଶେଷଜ୍ଞ": 5347,
      "ବିଶେଷ କରି ": 5348,
      "ବାଦ୍": 5349,
      "ନେଟ୍": 5350,
      " କରେ": 5351,
      " ନଷ୍ଟ": 5352,
      "ତୀବ୍ର": 5353,
      "୬ ": 5354,
      " କିଶ": 5355,
      "ବହେଳ": 5356,
      "ou ": 5357,
      "ଶୁଣାଣି ": 5358,
      "witter": 5359,
      "ନନ୍ଦନ": 5360,
      " ନିୟନ୍ତ୍ରଣ": 5361,
      "ରଞ୍ଜନ": 5362,
      "ଫସଲ": 5363,
      "ଯୋଗାଯୋଗ": 5364,
      "ବିଧାନସଭ": 5365,
      "ସ୍ଥିର": 5366,
      "ଅବଗତ": 5367,
      "ମାସରେ ": 5368,
      " ଦେଇଛି ": 5369,
      "ଯୋଗାଣ": 5370,
      "ିକିତ୍ସାଧ": 5371,
      " କହିଲେ ": 5372,
      "ଚାଲାଣ": 5373,
      "ww": 5374,
      "ରେ କେନ୍ଦ୍ର": 5375,
      "କଳାପ": 5376,
      "୍ୟା ": 5377,
      " କ୍ୱ": 5378,
      "କୃତି ": 5379,
      "ସଭାରେ ": 5380,
      " ନିଶ୍ଚ": 5381,
      "ରଜ": 5382,
      "ିକୀୟ": 5383,
      "ଟିସ": 5384,
      "ପାରିବାର": 5385,
      " କେତେ ": 5386,
      "ଗାଁରେ ": 5387,
      "ଆଦିବାସ": 5388,
      "ଗୁରୁତ୍ବ": 5389,
      "ଦାୟକ ": 5390,
      "26": 5391,
      "ff": 5392,
      "ରାଶିଫଳ": 5393,
      "ା କରିଥିବା ": 5394,
      "୧ ଜଣ": 5395,
      " ଫ୍ର": 5396,
      "ଶ୍ରେଣ": 5397,
      "କେନ୍ଦୁଝର ": 5398,
      "\" \"": 5399,
      "ର ସଭାପତି ": 5400,
      " ଜଗତ": 5401,
      "କିଭଳି ": 5402,
      "ହଟ": 5403,
      "ପ୍ରାର୍ଥ": 5404,
      " ଚେ": 5405,
      "rom ": 5406,
      "ମୁଖ୍ୟମନ୍ତ୍ରୀ ନବୀନ ପଟ୍ଟନାୟକ ": 5407,
      "କୀ": 5408,
      " ପ୍ରଚାର": 5409,
      " ଅନ୍ତର୍ଗତ": 5410,
      " କୁମାର ସ": 5411,
      " କାର୍ଯ୍ୟରେ ": 5412,
      "୨୦୧୭": 5413,
      " ପ୍ରୟାସ": 5414,
      "sp": 5415,
      "ଦେଇଥିଲା ": 5416,
      "କୁଳ": 5417,
      "ୱେ": 5418,
      "ଅଙ୍ଗ": 5419,
      " ଗୋଷ୍ଠ": 5420,
      " ମାଝ": 5421,
      "ନିୟୋଜିତ": 5422,
      " ମୁଖ": 5423,
      "ଖାଲି ": 5424,
      "ଳ୍": 5425,
      "ର କର୍ମ": 5426,
      "ମାନବ": 5427,
      " ସଂଗଠ": 5428,
      "ଜାଣି ": 5429,
      "ଦୁନିଆ": 5430,
      "ଶ୍ୱାସ": 5431,
      "ଶ୍ରୀମନ୍ଦିର ": 5432,
      "ଦାଶ": 5433,
      "ଏହାଦ୍ୱାରା ": 5434,
      "ୀକାର": 5435,
      "ୋନା": 5436,
      "ଭଉ": 5437,
      "ଭାବିକ ": 5438,
      " ପୁନ": 5439,
      "ଏୟାର": 5440,
      "ପେଟ": 5441,
      "ଚାରି ": 5442,
      " ଦାୟିତ୍ୱ": 5443,
      "ସ୍ପର": 5444,
      "ାମୁ": 5445,
      "ଂଜନ": 5446,
      "end": 5447,
      "ୁହନ୍ତି ": 5448,
      "ଟିଭ୍": 5449,
      "ଖ୍ରୀଷ୍ଟ": 5450,
      ", 2021 ": 5451,
      "ବତୀ": 5452,
      " ଫଳ": 5453,
      " କାଟ": 5454,
      "ଟେକ୍": 5455,
      " ପରିବର୍ତ୍ତନ": 5456,
      "Pr": 5457,
      "ା କରିବା ପାଇଁ": 5458,
      "uary ": 5459,
      " ଅଭାବ": 5460,
      "ଚାରି": 5461,
      "କଳାହାଣ୍ଡି ": 5462,
      " ପ୍ରଥମେ ": 5463,
      "ପରିବାର ଲୋକେ ": 5464,
      "ଗୋବିନ୍ଦ": 5465,
      "ଳିକ ": 5466,
      "ଜାନ": 5467,
      "ାବାର": 5468,
      "ଟୁଇ": 5469,
      "ଦେଖାଇ": 5470,
      "ଇଣ୍ଟର": 5471,
      " ତେଲ": 5472,
      "ଅଭାବ": 5473,
      "ସକ୍ରିୟ": 5474,
      "ନେବାକୁ ": 5475,
      "ପଦ୍ମ": 5476,
      "av": 5477,
      "କାତ": 5478,
      "ଦୂଷଣ": 5479,
      "ଅନୁମାନ": 5480,
      " ଜୋ": 5481,
      "ed first ": 5482,
      "ଙ୍କ୍": 5483,
      "ଯାଇଛନ୍ତି ": 5484,
      " ଯୋଗେ ": 5485,
      "ିବେଦନ": 5486,
      "appeared first ": 5487,
      "appeared first on ": 5488,
      "ଖେଳା": 5489,
      " ମହାମ": 5490,
      "ିନି ": 5491,
      "ema": 5492,
      "କ ଭାବେ ": 5493,
      "ହେବ ବୋଲି ": 5494,
      "ଗହ": 5495,
      "ଛାଡ଼ି ": 5496,
      "ଳାକାର": 5497,
      "ଉତ୍କଳ": 5498,
      "ସଂସ୍ଥ": 5499,
      " ଘଟଣ": 5500,
      "ର କାର୍ଯ୍ୟ": 5501,
      " ଅପରାଧ": 5502,
      "ିବା ଏବଂ": 5503,
      " ସ୍ୱତନ୍ତ୍ର": 5504,
      "ନାୟକ": 5505,
      " ବେହେରା ": 5506,
      " କୋଟି": 5507,
      " ଜଗ": 5508,
      " ଯୁବକ ": 5509,
      "ସଂପୂର୍ଣ୍ଣ": 5510,
      " ଖେଳାଳି ": 5511,
      " ଜେନା": 5512,
      "ଣ୍ଟନ": 5513,
      "ଅଛନ୍ତି ": 5514,
      "୬ଟି ": 5515,
      "ପରେ": 5516,
      "ଭଙ୍ଗ": 5517,
      "ଯାଇଥାଏ ": 5518,
      "ା ପ୍ରଦାନ": 5519,
      "ାବନୀ ": 5520,
      "ିବାରେ ଲାଗିଛି ": 5521,
      " ବରିଷ୍ଠ": 5522,
      "ହନ ": 5523,
      "ବିର": 5524,
      "ୋଟି ": 5525,
      " ତାର": 5526,
      "ପ୍ରଦାୟ": 5527,
      "ମାତ୍ରାରେ ": 5528,
      " ସ୍ୱାଇଁ": 5529,
      "ସ୍କୋ": 5530,
      " କରାଯାଇଥାଏ": 5531,
      "ook": 5532,
      "ଏସି": 5533,
      "ବୋଲି କହିଛନ୍ତି ": 5534,
      " ଏନ": 5535,
      " ପଶ୍ଚିମ": 5536,
      ", \"": 5537,
      "More ": 5538,
      "ଜିଲ୍ଲା ପ୍ର": 5539,
      "ଆସିଥିବା ": 5540,
      "ଉପଯୁକ୍ତ": 5541,
      "BAR": 5542,
      "୍ୟାୟ": 5543,
      "ୁଡ": 5544,
      "ବୃତ୍ତ": 5545,
      "ହଲ": 5546,
      "eg": 5547,
      "ଡାକ୍ତର": 5548,
      "ଟାର୍ଗେଟ": 5549,
      " ନାୟକ ": 5550,
      " ପୋଷ୍ଟ": 5551,
      " ଗଛ": 5552,
      " ବ୍ୟକ୍ତ": 5553,
      " ଭାଇରାଲ": 5554,
      "କାରାତ୍ମକ ": 5555,
      "େଲି": 5556,
      "୩୨": 5557,
      "ା କରାଯାଇଛି ": 5558,
      "ବାରମ୍ବାର": 5559,
      "ା ବୃଦ୍ଧ": 5560,
      "୮୫": 5561,
      "ଦେବା": 5562,
      " ଜଣାପ": 5563,
      "ଳାଚଳ": 5564,
      " ସାହିତ୍ୟ": 5565,
      "ନଥିଲା ": 5566,
      "କୁହାଯାଇଛି": 5567,
      "ଚତୁର୍ଥ": 5568,
      "ନଥିଲେ ": 5569,
      "ସ୍ପତି ": 5570,
      "A K": 5571,
      " ବୃଦ୍ଧି ପ": 5572,
      "ଗତ କିଛି ": 5573,
      " ଏସ୍": 5574,
      "tr": 5575,
      "ଭୟଙ୍କର ": 5576,
      "HABAR": 5577,
      "]\n": 5578,
      "ଗୋପାଳ": 5579,
      "ONA K": 5580,
      "ONA KHABAR": 5581,
      "appeared first on ONA KHABAR": 5582,
      "ଦିଗରେ ": 5583,
      "ବିନି": 5584,
      "ିନାହିଁ ": 5585,
      "ରୁ ଉ": 5586,
      "ଦୃଢ": 5587,
      "ଞ୍ଜଳି ": 5588,
      "ରାଜଧାନୀ ": 5589,
      " କରିଥାନ୍ତି": 5590,
      " ଅଧିବେଶ": 5591,
      "ort": 5592,
      "ଫୋନ": 5593,
      "୯ ଜଣ": 5594,
      "ବିଭାଗ ପକ୍ଷରୁ ": 5595,
      "ଚାଇ": 5596,
      "ପୋଖ": 5597,
      "୪୪": 5598,
      " ଖର୍ଚ୍ଚ": 5599,
      "ଆକାଉଣ୍ଟ": 5600,
      "ାଥ": 5601,
      "ତ୍ତ୍ୱେ ": 5602,
      " ମଧ୍ୟରୁ ": 5603,
      "ାର ଓ": 5604,
      "ହୋଇଥିବା ବେଳେ ": 5605,
      " କହିଛି ": 5606,
      " ଓଡ଼ିଆ": 5607,
      " ସୁବିଧା ": 5608,
      "ବ୍ୟୟ": 5609,
      " ସଫଳ": 5610,
      " ସମ୍ମୁଖ": 5611,
      " ଅଭିନେତା ": 5612,
      " ବିଶ୍ୱବିଦ୍ୟାଳୟ": 5613,
      " ପଣ୍ଡ": 5614,
      "ୋତ୍ସାହ": 5615,
      "ଠିନ": 5616,
      "େଶ୍ୱର ": 5617,
      " ପୂରଣ": 5618,
      "ବ୍ରହ୍ମପୁର ": 5619,
      " ମୁଣ୍ଡ": 5620,
      "ୁକ ": 5621,
      "ମୀ ": 5622,
      " ରାହୁଲ": 5623,
      "ା କେନ୍ଦ୍ର": 5624,
      "ଆଇପିଏଲ": 5625,
      "ଧମକ ": 5626,
      " ଦଳର ": 5627,
      " କରାଯାଏ": 5628,
      " କନ": 5629,
      "ଯୋଜନା କର": 5630,
      " ସମ୍ପାଦକ ": 5631,
      " ଓଭରରେ ": 5632,
      "ରାଜନୀତି": 5633,
      "ମନ ": 5634,
      "୍ସ": 5635,
      " ପହଞ୍ଚି ": 5636,
      " ବିଶ୍ବ": 5637,
      "ଗଭୀର ": 5638,
      "ସିସି ": 5639,
      "ସ୍ୱପ୍": 5640,
      " ପାଇଛି": 5641,
      " ଜ୍": 5642,
      "ଖି": 5643,
      "ସାମଗ୍ରୀ": 5644,
      "ଚିକିତ୍ସା ପାଇଁ": 5645,
      "2022 ": 5646,
      " ସେଣ୍ଟ": 5647,
      "ହିଂସ": 5648,
      " ଶ୍ରେଣୀ": 5649,
      "ly ": 5650,
      "ାନ୍ତୁ ": 5651,
      "ଦକ୍ଷିଣ ଆଫ୍ର": 5652,
      " ଗୁଣ": 5653,
      "ୋର୍ସ": 5654,
      "ବସର ": 5655,
      "ର ସବୁଠାରୁ ": 5656,
      " ଯୋଗାଯୋଗ": 5657,
      "ନେଉ": 5658,
      " ଖବର": 5659,
      "ାତି ": 5660,
      "ମୋହନ": 5661,
      "ସିନେ": 5662,
      "ଛୁଆ": 5663,
      "ପ୍ରେସ": 5664,
      " ବିଶିଷ୍ଟ": 5665,
      "ଜଣାପଡିଛି": 5666,
      " ପାଖରେ ": 5667,
      " ବସ୍ତ": 5668,
      "ଶ୍ମୀର ": 5669,
      "ଯାଜପୁର": 5670,
      "ତତ୍": 5671,
      "this ": 5672,
      " ସାମାଜିକ ": 5673,
      "ତ୍ନୀ ": 5674,
      " ଏପରି ": 5675,
      "କୂ": 5676,
      " ନୋ": 5677,
      "ଏମାନଙ୍କ ": 5678,
      "ଆର ": 5679,
      "ନୀତିରେ ": 5680,
      " ଯାଞ୍ଚ": 5681,
      "ଅପେକ୍ଷ": 5682,
      " ପ୍ରସ": 5683,
      "ମୁହାଁ": 5684,
      "ପ୍ରାଥମିକ ": 5685,
      "ାମାନେ ": 5686,
      "ାରେ": 5687,
      " ଦେଶର ": 5688,
      "ସାହିତ୍ୟ": 5689,
      "ନ୍ଦ୍ୱ": 5690,
      " ହୋଇଥିବାରୁ ": 5691,
      "ବ୍ରତ": 5692,
      "ଲଗାତ": 5693,
      "ାହାଁନ୍ତି ": 5694,
      "ରହିଥିବା ବେଳେ ": 5695,
      "ଅନ୍ୟତମ": 5696,
      "ନ୍ୱ": 5697,
      "ବୈଜ୍ଞାନ": 5698,
      "ଜେ ": 5699,
      " ଲଗାଇ": 5700,
      "ଲେକ୍ଟ୍ର": 5701,
      "ଦାଖଲ": 5702,
      "୍ୟତା ": 5703,
      "ଦିନେ ": 5704,
      "ଗ୍ଲ": 5705,
      "ରହିବା ": 5706,
      "ଘୋଷ": 5707,
      "2022\n": 5708,
      "ବିଦ୍ୟାଳୟରେ ": 5709,
      "ଦେଖା ": 5710,
      "ଆସିଛି ": 5711,
      "ର୍ଗସ": 5712,
      "ବ୍ୟବ": 5713,
      "ଧର ": 5714,
      "By ": 5715,
      "ାବଳ": 5716,
      "ସେଠାରୁ ": 5717,
      "କେନ୍ଦ୍ରୀୟ": 5718,
      "ପ୍ରଦୀପ": 5719,
      " ରାଉତ": 5720,
      "ପୁରା ": 5721,
      "ପରିଚିତ": 5722,
      "ମ୍ସ": 5723,
      " ଓ ମ": 5724,
      "ସବୁବେଳେ ": 5725,
      " ଶରୀ": 5726,
      "ଅଲ": 5727,
      " ରଖା": 5728,
      "ଷ୍ମ": 5729,
      " ହେବାରୁ ": 5730,
      "ତିଆରି ": 5731,
      "29": 5732,
      "ଶ୍ରମିକ": 5733,
      "27": 5734,
      "ହୋଟେଲ": 5735,
      "ଅଭିଯୋଗ କରିଛନ୍ତି ": 5736,
      " ମସିହା ": 5737,
      ")- ": 5738,
      "ି ପକ୍ଷରୁ ": 5739,
      " କିଏ": 5740,
      "ତୁମେ ": 5741,
      "ଏକାଧିକ ": 5742,
      "ର୍ବାଧିକ ": 5743,
      "ୀଙ୍କ ସହ": 5744,
      "ଂଜ": 5745,
      "ପରିକି ": 5746,
      "ଧାମ": 5747,
      " ପ୍ରଣ": 5748,
      " ଓ ସ": 5749,
      "ଆନ୍ଦୋଳନ": 5750,
      "ବୃହ": 5751,
      "ମହିଳାମାନେ ": 5752,
      "ମୁତାବକ ": 5753,
      "ସତର୍କ ": 5754,
      "ଟେନ": 5755,
      "ାରେଣ୍ଟ": 5756,
      "କାରେ ": 5757,
      "ang": 5758,
      "ସୂଚନା ଅନୁସାରେ ": 5759,
      "ଯବାନ": 5760,
      "ରୋଜଗାର": 5761,
      "ଗଜପତି": 5762,
      "ସୂଚନା ମିଳିଛି": 5763,
      "Ema": 5764,
      "ି କୋର୍ଟ": 5765,
      "ବର୍ତ୍ତୀ ଖବର": 5766,
      "Aug": 5767,
      "ଦ୍ଧାରିତ": 5768,
      "େହ": 5769,
      "ାରାୟଣ": 5770,
      "int": 5771,
      "୭ ": 5772,
      "ମଞ୍ଜ": 5773,
      "ରହି ": 5774,
      "ଗତବର୍ଷ": 5775,
      " ଧର୍ମ": 5776,
      "15": 5777,
      "ଛାଡ": 5778,
      "ମୋଦି ": 5779,
      "ussi": 5780,
      "ଲଗା ": 5781,
      " ପସନ୍ଦ": 5782,
      "ଅଧିନାୟକ ": 5783,
      "16": 5784,
      "ବିଶ୍ୱବିଦ୍ୟାଳୟ": 5785,
      "ବାଦିକ": 5786,
      " କରୋନା ପଜିଟିଭ": 5787,
      " ଯଦି ": 5788,
      "ଶରୀରରେ ": 5789,
      "କୁ ଏକ ": 5790,
      " ଦୀର୍ଘ": 5791,
      "। '": 5792,
      "ସୁଧାର": 5793,
      "ଭାଇରସ": 5794,
      " ନ୍ୟୁ": 5795,
      "ତୃ": 5796,
      "ଚୟନ": 5797,
      "ସମ୍ପାଦ": 5798,
      " ହେବା": 5799,
      "ୁଥିବାରୁ ": 5800,
      "ମ୍ବରରେ ": 5801,
      "ାର ସମ୍ମୁଖୀନ": 5802,
      " ଛା": 5803,
      "୍ରମଣ": 5804,
      "ିତ ହୋଇଥିଲା ": 5805,
      " ଥାନାରେ ": 5806,
      "ଚକ": 5807,
      "Odia ": 5808,
      " ବ୍ୟାଙ୍କ": 5809,
      " ବଞ୍ଚ": 5810,
      "ପରିସ୍ଥିତିରେ ": 5811,
      "ଟିଏମ": 5812,
      "ublish": 5813,
      "ମନ୍ଦିରରେ ": 5814,
      "ହୃଦୟ": 5815,
      "ଯୌ": 5816,
      "24": 5817,
      "ଟୀ": 5818,
      "ିଲେଣ": 5819,
      "ବାଜ": 5820,
      "ାଗଡ": 5821,
      "ତାମିଲନା": 5822,
      " ସଫଳତା ": 5823,
      " ପ୍ରାର୍ଥୀ": 5824,
      "ସଂଗଠ": 5825,
      "ପ୍ରତିଶତ": 5826,
      "ଅସୁବିଧ": 5827,
      "େଲେ ": 5828,
      "ମହାପାତ୍ର": 5829,
      "ରେ ଆୟ": 5830,
      "ବାଲି ": 5831,
      " କରୁଥିବା ବେଳେ ": 5832,
      "ଏହି ଘଟଣାରେ ": 5833,
      "ଆଫଗାନିସ୍ତାନ": 5834,
      " ହେଇ": 5835,
      " ବର୍ଷ ଧରି ": 5836,
      "େସନରେ ": 5837,
      "ମାଡ": 5838,
      "ବ୍ୟାଙ୍କ": 5839,
      "ଅକ୍ଟୋବର ": 5840,
      "୍ୟାନେଜ": 5841,
      " ହିତ": 5842,
      " ଖାଇ": 5843,
      "କମାନଙ୍କୁ ": 5844,
      "ପୁଣି ଥରେ ": 5845,
      " ମନ୍ଦିର": 5846,
      "ଗ୍ରାମରେ ": 5847,
      " ଦ୍ୱ": 5848,
      "ଲଘୁଚାପ": 5849,
      "2. ": 5850,
      "conf": 5851,
      " ଶିଳ୍ପ": 5852,
      " ହାଇକୋର୍ଟ": 5853,
      "ବିବେ": 5854,
      "//": 5855,
      "ର ଅନେକ ": 5856,
      "ସଙ୍ଗେ ": 5857,
      "ଏଣ": 5858,
      "ରହୁଥିବା ": 5859,
      "ପ୍ରେକ୍ଷ": 5860,
      "erv": 5861,
      "ଏଚ୍": 5862,
      "Samb": 5863,
      "୨୦୧୪": 5864,
      "ଭୁବନେଶ୍ୱରରେ ": 5865,
      " କାରବାର": 5866,
      "ଚାନ୍ଦ": 5867,
      " ଧରଣ": 5868,
      "ଲକ": 5869,
      "ପରିବାରକୁ ": 5870,
      "ିଦ": 5871,
      "ପ୍ରଚାର": 5872,
      "ର୍ଗସ ବ୍ୟୁରୋ": 5873,
      "ଐତିହାସ": 5874,
      "ର ସୁ": 5875,
      " ଦେଇଥିବା ": 5876,
      "େଜନା ": 5877,
      "ମାଟି ": 5878,
      " ଅତିଥି ଭାବେ ": 5879,
      " କହିଥିଲେ ଯେ ": 5880,
      "ିଭୂମି ": 5881,
      "ାଂଶ": 5882,
      "ା କରିଥିଲେ": 5883,
      "ସ୍କୃତି": 5884,
      "ସମ୍ବଲପୁର": 5885,
      "ବିଶ୍": 5886,
      " ସୃଷ୍ଟି ": 5887,
      " ପୂଜ": 5888,
      "ାନୁମାନ": 5889,
      " ବିଜେଡି ": 5890,
      "Fac": 5891,
      "no": 5892,
      "ଉନ୍ନୟନ": 5893,
      "Le": 5894,
      " ହୋଇଯିବ": 5895,
      "ିର ପ୍ର": 5896,
      "ଜଗତସିଂହପୁର ": 5897,
      "Russi": 5898,
      " ଓ ଆ": 5899,
      "ାନନ୍ଦ": 5900,
      "ନାଁରେ ": 5901,
      "day": 5902,
      "ଗ୍ରୁ": 5903,
      "ଅଫ": 5904,
      "Ab": 5905,
      "ଦ୍ଧାରଣ": 5906,
      " ଓ ବ": 5907,
      " ବ୍ଲକ ": 5908,
      "କହିଲେ ": 5909,
      "ଜାତି ": 5910,
      "ଉତ୍ପାଦନ": 5911,
      "Jun": 5912,
      "ଗୁଡା ": 5913,
      "ଯେଉଁଠାରେ ": 5914,
      "ଅଳ୍ପ": 5915,
      "ସା ": 5916,
      " ବୋଲି କହିଛନ୍ତି ": 5917,
      "ଟ୍ ": 5918,
      "ନ୍ତର୍ଭୁକ୍ତ": 5919,
      "ମତାମତ": 5920,
      "ରାମତି ": 5921,
      "ଖାଲ": 5922,
      "ଡବ୍ଲ": 5923,
      " ଉଦ": 5924,
      "ଆପ୍": 5925,
      "ବାହାରେ ": 5926,
      "ଟ୍ କରି ": 5927,
      " ପୀ": 5928,
      " ଅଗ୍ର": 5929,
      "ମିଥ": 5930,
      " କ୍ଷତି ": 5931,
      "ଉପଯୋଗ": 5932,
      " ମୁମ୍ବାଇ": 5933,
      "ଚାକିରି ": 5934,
      " କରୋନା ସଂକ୍ରମିତ": 5935,
      "ନଥିବାରୁ ": 5936,
      " ଦେବା ପାଇଁ": 5937,
      "ରେ ପ୍ରାୟ": 5938,
      "ଶୂ": 5939,
      "ାପିଟାଲ": 5940,
      "ା ବଢ": 5941,
      "ip": 5942,
      "ସମସ୍ତଙ୍କ ": 5943,
      "ସନ୍ତୁ": 5944,
      "ୋଚ୍ଚ": 5945,
      "ଇନ୍": 5946,
      "ଅଭିନେତା ": 5947,
      "ସିବିଆଇ": 5948,
      "ଡାକ୍ତରଖାନାରେ ": 5949,
      "17": 5950,
      " ପରିସ୍ଥିତି ": 5951,
      "ସିସିଆଇ": 5952,
      " ଖୋଜ": 5953,
      "ଖୁସି": 5954,
      "ଟିସ୍": 5955,
      " ଜ୍ଞ": 5956,
      "25": 5957,
      " ପର୍ବ": 5958,
      " ସୂଚନା ଦେଇଛନ୍ତି ": 5959,
      "ତାମୂଳ": 5960,
      " ଜେଲ": 5961,
      "in the ": 5962,
      "କ ଏବଂ": 5963,
      " ନାମକ ": 5964,
      "ମେଲ": 5965,
      "ବାଣୀ": 5966,
      "ଢ଼ି ": 5967,
      "ଷଡ଼": 5968,
      " ସହାୟକ ": 5969,
      " ଭଉ": 5970,
      "ଅନ୍ୟାନ୍ୟ": 5971,
      "ଭା ": 5972,
      "ଙ୍କ କହିବା ": 5973,
      " ତିନି ": 5974,
      "18 ": 5975,
      "ଦୃଷ୍ଟିରୁ ": 5976,
      "ଶୋଧନ": 5977,
      " ପ୍ରାର୍ଥୀ ": 5978,
      "ଙ୍କୁ ମଧ୍ୟ": 5979,
      "ପର୍ଯ୍ୟୟ": 5980,
      "ର କ୍ଷ": 5981,
      " ୧୩": 5982,
      "ଙ୍କ ଅଧ୍ୟକ୍ଷତାରେ ": 5983,
      "ହିନ୍ଦୁସ୍ଥାନ ସମାଚାର": 5984,
      "ଟର୍": 5985,
      "Share": 5986,
      "ବୋର୍ଡ": 5987,
      "ାଲୋଚନା ": 5988,
      " ଯାଦବ": 5989,
      "ବଦ": 5990,
      "ଡିଜିଟାଲ": 5991,
      "ଦୂର ": 5992,
      "୍ତ୍ତା ": 5993,
      "your ": 5994,
      "ସ୍ୱାଗତ": 5995,
      " ପଠାଇ": 5996,
      "୬୭": 5997,
      "ିଆଲ": 5998,
      "kra": 5999,
      " ରହିବା ": 6000,
      " ଚଳାଚଳ": 6001,
      "କୁ ବୃଦ୍ଧି ପାଇ": 6002,
      "ଟ୍ସ": 6003,
      " ରହି ": 6004,
      " ଗ୍ରାହ": 6005,
      "ଧରା": 6006,
      " ଚଳଚ୍ଚିତ୍ର": 6007,
      "ଠାକୁ ": 6008,
      "ଶପଥ": 6009,
      " ପ୍ରଦେଶ": 6010,
      "ବିବାର ": 6011,
      "...": 6012,
      " ଲୋକମାନେ ": 6013,
      "Comment": 6014,
      "ସିସି": 6015,
      "ର ଆବଶ୍ୟକତା ": 6016,
      " ଦର ": 6017,
      " ପାଉ": 6018,
      "ମାସ୍କ ": 6019,
      " ବୁଲ": 6020,
      " ପାଣିଗ୍ରାହ": 6021,
      "ମଲ": 6022,
      "ସମୀକ୍ଷ": 6023,
      "ଦୁର୍ଘଟଣାରେ ": 6024,
      "ହୀନ": 6025,
      "Ukra": 6026,
      "ବିସ୍ତ": 6027,
      "ori": 6028,
      "ପରିବା ": 6029,
      "ଧିରେ ": 6030,
      "Russia ": 6031,
      "ପୁନଃ": 6032,
      "ଜୋର": 6033,
      "ପୁଣ": 6034,
      "ସିପ": 6035,
      " ମିଟର ": 6036,
      " ଦେବେ ": 6037,
      "ଚାଲିଛି": 6038,
      " ଫଟୋ": 6039,
      " କିପରି ": 6040,
      "ollow": 6041,
      "୪୨": 6042,
      "200": 6043,
      "ୌପ": 6044,
      "ପଡା ": 6045,
      "ାଇଛନ୍ତି": 6046,
      "ହରଣ": 6047,
      " ତଳ": 6048,
      "ଜଣଙ୍କୁ ": 6049,
      "ାନ୍ତୁ": 6050,
      " ପଏଣ୍ଟ": 6051,
      "ପ୍ରୟାସ": 6052,
      "ଏହାଛ": 6053,
      "ପଡିବ": 6054,
      "୍ଦୀ": 6055,
      " କରାଯାଇପାରିବ": 6056,
      "ସେ କହିଥିଲେ ": 6057,
      "ed by ": 6058,
      "ଚାର୍ଜ": 6059,
      "13": 6060,
      "ମହିଳାଙ୍କୁ ": 6061,
      "କପ୍": 6062,
      "କୁମ୍ଭ": 6063,
      "ଲକ୍": 6064,
      " ନିର୍ଦ୍ଦେଶକ ": 6065,
      " ଜମି": 6066,
      "ର କୌଣସି ": 6067,
      "ଅନୁଷ୍ଠାନ": 6068,
      "Ukraine ": 6069,
      "୬୮": 6070,
      "ପାଣ୍ଡ": 6071,
      "ପୁଣି": 6072,
      "ବର୍ତ୍ତମାନ ସୁଦ୍ଧା ": 6073,
      " ପ୍ରଭ": 6074,
      " କରି କ": 6075,
      "ପ୍ରି": 6076,
      " ସତ୍ୟ": 6077,
      "ି ପଡ଼": 6078,
      "ପ୍ରଭୁଙ୍କ ": 6079,
      "ଟ୍ରେ": 6080,
      " ପଇସ": 6081,
      "conflic": 6082,
      "ାଇମବ୍ର": 6083,
      "oun": 6084,
      "ୀଙ୍କ ପାଇଁ": 6085,
      "ଭିଡ": 6086,
      "ଜବାବ": 6087,
      "ତିବ": 6088,
      "ତା ଓ": 6089,
      "ଜଷ୍ଟ": 6090,
      "ବାକି ": 6091,
      "ତଙ୍କ ": 6092,
      "ଉପକୂଳ": 6093,
      "ିକାକୁ ": 6094,
      "ମହମ୍ମଦ": 6095,
      " ଯାଏ": 6096,
      "ରୀଣ": 6097,
      " ଠାରେ ": 6098,
      "ୀୟ ଜଳ": 6099,
      "duc": 6100,
      "ା କହିଛନ୍ତି ": 6101,
      "ଟିଳ": 6102,
      "ର ଗ": 6103,
      "କାଳୀନ ": 6104,
      "ବହୁ": 6105,
      "ଧାରଣା ": 6106,
      " ହୋଇ ": 6107,
      "ଗୋପ": 6108,
      "ର ଅଧ୍ୟକ୍ଷ": 6109,
      "୦୮": 6110,
      "ସେହିପର": 6111,
      "ର ପ୍ରଧାନ": 6112,
      "ଟାମ": 6113,
      "ନିଂସ": 6114,
      "ସଫ": 6115,
      "ଇଓ": 6116,
      "ାରିପଦ": 6117,
      "ରବି": 6118,
      " ପୂର୍ବତ": 6119,
      "ର ପ୍ରଭାବ": 6120,
      "ଏହିପରି ": 6121,
      "ଅନ୍ୟପକ୍ଷ": 6122,
      "ଭୂତା": 6123,
      "ର ଅର୍ଥ": 6124,
      "୫୦୦": 6125,
      "1. ": 6126,
      "ରେ ରଖ": 6127,
      "ଦିନ ଧରି ": 6128,
      "େଙ୍ଗ": 6129,
      "dia ": 6130,
      " ରହିଥିବା ": 6131,
      "ୱା": 6132,
      "ଞ୍ଜିନିୟ": 6133,
      "ଅର୍ଥାତ୍": 6134,
      "ତାର ସହ": 6135,
      " ମୋବାଇ": 6136,
      "ିଆର ": 6137,
      "ଅତ୍ୟ": 6138,
      "ୟା ": 6139,
      "ପୋଲିସ୍": 6140,
      "ଯେକୌଣସି ": 6141,
      "ଶ୍ରମିକ ": 6142,
      "Click here to get the latest updates on Ukraine ": 6143,
      "Russia conflic": 6144,
      "ପୁସ୍ତ": 6145,
      "ପରିଶ": 6146,
      "ପୃଥିବ": 6147,
      " ହାର ": 6148,
      "ଘଟିଥିବା ": 6149,
      "ଯଥେଷ୍ଟ": 6150,
      "ଯୋଗଦେଇ": 6151,
      "ରହିଥିଲା ": 6152,
      " ଆବଶ୍ୟକ": 6153,
      "ର୍ଦ୍ଧ୍ୱ": 6154,
      "ୁରି": 6155,
      "ଦେବଗଡ଼": 6156,
      " ସଂସ୍ଥା ": 6157,
      " ଆଲୋଚନା କର": 6158,
      "ିକୋ": 6159,
      " ହେତୁ ": 6160,
      ", (": 6161,
      "[+": 6162,
      " ଅପର": 6163,
      "ନିବାର ": 6164,
      "me ": 6165,
      "ପେକ୍ଷା ": 6166,
      " ସୈ": 6167,
      "ଜିଲାଣ୍ଡ": 6168,
      " ବରଂ": 6169,
      " ଚିତ୍ର": 6170,
      "ମାନେ": 6171,
      " ସୋମ": 6172,
      "ମସିହ": 6173,
      "ପୁଳ": 6174,
      "ଖେଳାଳି": 6175,
      "ର ମଧ୍ୟ": 6176,
      " ନ୍ୟାୟ": 6177,
      " ହୁଏ ": 6178,
      "ଜ୍ଞପ୍ତି ": 6179,
      "ଦୀପ୍ତ": 6180,
      "ତ୍ୟାଦି ": 6181,
      "ରେ ଏହା ": 6182,
      " ହେବା ସହ": 6183,
      "ାରୁ": 6184,
      " ପଣ୍ଡା": 6185,
      "ଜନତା ": 6186,
      "ାନା ": 6187,
      "ଗୁରୁ ": 6188,
      " ରାସ୍ତା ": 6189,
      "ନଜର ଆସ": 6190,
      "ମୁକାବିଲ": 6191,
      "ମାମଲାର ": 6192,
      " ଭିତ୍ତ": 6193,
      "ପ୍ରଶାନ୍ତ": 6194,
      " ନଂ": 6195,
      " ପ୍ରାଣ": 6196,
      "ଏ ସମ୍ପର୍କରେ ": 6197,
      "ଖୋର୍ଦ୍ଧ": 6198,
      " ବିଶେଷଜ୍ଞ": 6199,
      "ଭିଡ଼ିଓ": 6200,
      "ତୁ ": 6201,
      " ଯାଏଁ": 6202,
      "ପର୍ଯ୍ୟାୟ": 6203,
      "ଗଲେ": 6204,
      " ଚାଲିଛି ": 6205,
      " ମଙ୍ଗଳ": 6206,
      "ବର୍ତମାନ": 6207,
      "ମେଳ": 6208,
      " ହେଉଛନ୍ତି": 6209,
      "ଧର୍ମେନ୍ଦ୍ର ପ୍ରଧାନ": 6210,
      "ଭିଡ଼": 6211,
      "ସେମାନଙ୍କ ମଧ୍ୟରୁ ": 6212,
      "ଦେଖିବାକୁ ମିଳିଛି": 6213,
      "୍ୟାଲେଞ୍ଜ": 6214,
      "୭୭": 6215,
      "ବାହାରି ": 6216,
      "per": 6217,
      "ାୟତାରେ ": 6218,
      "ଜନ୍": 6219,
      "28": 6220,
      "ଗୁପ୍ତ": 6221,
      " ରାମ": 6222,
      "ବାତ": 6223,
      "ୁନି ": 6224,
      "ୂର୍ତ୍ତ": 6225,
      " ବର୍ଷରୁ ": 6226,
      " ଦଶ": 6227,
      "PM": 6228,
      "ାହାଜ": 6229,
      "ନିଖୋଜ": 6230,
      " ବିପଦ": 6231,
      " ଦ୍ୱିତୀୟ": 6232,
      "ତିଆରି କର": 6233,
      "ମୃତକଙ୍କ ": 6234,
      "େବୁଲ": 6235,
      " ଗଣମାଧ୍ୟମ": 6236,
      "ଜିଲ୍ଲା": 6237,
      "ନବରଙ୍ଗପୁର ": 6238,
      "ଚିଠି ଲେଖ": 6239,
      "ଜୁନ୍": 6240,
      "14": 6241,
      " ପେ": 6242,
      "ଆତଙ୍କବାଦୀ": 6243,
      "ଅନ୍ତର୍ଜାତୀୟ": 6244,
      "ସ୍ତ୍ରୀ ": 6245,
      "ାୟା ": 6246,
      "ରେ ପ୍ରବେଶ": 6247,
      " ମୌ": 6248,
      " ରାଷ୍ଟ୍ରପତି ": 6249,
      "ଜୈ": 6250,
      "ହିନ୍ଦୁ ": 6251,
      "ିଲି ": 6252,
      " ଆୟୋଜନ": 6253,
      "Faceb": 6254,
      "ର ସାମ": 6255,
      "ରାଜ୍ୟ ସରକାରଙ୍କ ": 6256,
      "ପର୍ବ": 6257,
      "୬୯": 6258,
      " ଏବଂ ଅ": 6259,
      " ଦିଗରେ ": 6260,
      "from ": 6261,
      "ତ୍ରୀ": 6262,
      " ଥିବାରୁ ": 6263,
      " ବିପକ୍ଷ": 6264,
      "୫ ": 6265,
      "ବୟାନ": 6266,
      " ମଣ୍ଡଳ": 6267,
      "ଚୂ": 6268,
      " ଅର୍ପଣ": 6269,
      "ଯାଉଛନ୍ତି ": 6270,
      " କେନ୍ଦ୍ର ସରକାର": 6271,
      "ତ୍ତମ": 6272,
      "ଶକ୍ତିଶ": 6273,
      "ନକ ": 6274,
      "ବାତ୍ୟ": 6275,
      "2018 ": 6276,
      "ଳାଇ": 6277,
      " ନାୟକ": 6278,
      " ସଂଗଠନ": 6279,
      " ନେଇଥିଲେ ": 6280,
      " ଜିନିଷ": 6281,
      "ତୁଳନାରେ ": 6282,
      " ଅଂଚଳ": 6283,
      "େବି ": 6284,
      "ର ଶିକାର": 6285,
      "ାଧିକ ": 6286,
      " ପୋଷ": 6287,
      "str": 6288,
      "ଡୋ": 6289,
      "ପିସ": 6290,
      " ପୂର୍ଣ୍ଣ": 6291,
      " ସ୍କୋ": 6292,
      " ଠାକ": 6293,
      "ଚା ": 6294,
      "ବାରେ ": 6295,
      "୍ୟାମ": 6296,
      "ର ସଂ": 6297,
      "ବକ୍ତ": 6298,
      ", 2022\n": 6299,
      "ଦିଆଯିବ": 6300,
      "ବିସ୍ଫୋରଣ": 6301,
      "ନାଶ": 6302,
      "ିପାରେ ": 6303,
      "କ୍ରିକେଟ": 6304,
      " ବଲ": 6305,
      " ଶିକ୍ଷକ ": 6306,
      "ଦୃଷ୍ଟି ": 6307,
      " କଷ୍ଟ": 6308,
      " ବ୍ୟବହ": 6309,
      "ିଙ୍କ ": 6310,
      "ି କରିବାକୁ ": 6311,
      "ହାତି ": 6312,
      "ଜୀବି": 6313,
      " ମନ୍ତ୍ରାଳୟ": 6314,
      "ଶୁଭାରମ୍ଭ": 6315,
      "ସି କ": 6316,
      " ଇନ୍": 6317,
      "ଡ୍ରାଇଭ": 6318,
      " ଫି": 6319,
      "୪୩": 6320,
      "ଆକଳନ": 6321,
      " କର୍ମଚାରୀଙ୍କୁ ": 6322,
      "୭୮": 6323,
      " ଉଲ୍ଲ": 6324,
      "ଦ୍ୱନ୍ଦ୍ୱ": 6325,
      " ଦୂର": 6326,
      "ଂଲା": 6327,
      "ାଆ": 6328,
      "ଜଣାଇଛନ୍ତି ": 6329,
      "ଆଇଆଇ": 6330,
      "ା କରାଯାଉଛି ": 6331,
      "୨୦୧୬": 6332,
      " ପ୍ରିୟ": 6333,
      "ର ସମ୍ପ": 6334,
      " ଶାସ": 6335,
      " ଯବାନ": 6336,
      "ଶୁ ": 6337,
      " ଲହ": 6338,
      " ହୋଇପାରିବ": 6339,
      "ବିରୁଦ୍ଧ": 6340,
      ".) ": 6341,
      "ଆଗରେ ": 6342,
      "ଡେଇ": 6343,
      "ମ୍ପିକ୍ସ": 6344,
      "ାହୁ ": 6345,
      "ଡାଉନ": 6346,
      "ଭୂଷଣ": 6347,
      "ର ବା": 6348,
      "ଷ୍ପ": 6349,
      " ଥିବା ବେଳେ ": 6350,
      "ଅନୁଧ୍ୟାନ": 6351,
      " ଶତାବ": 6352,
      "ହାଟ": 6353,
      " ଜନତା ": 6354,
      "ରାତ୍ର": 6355,
      "କେମିତି ": 6356,
      "ଘୋ": 6357,
      "ଅଭିଯୋଗ ହୋଇଛି ": 6358,
      "ନୁହେଁ ": 6359,
      "ଇଚ୍ଛ": 6360,
      "ା କର୍ମ": 6361,
      "ାଉସ": 6362,
      "କଳାହାଣ୍ଡି": 6363,
      "ନୋଲୋଜ": 6364,
      " ରୂପେ ": 6365,
      " ପାଇଁ ଏକ ": 6366,
      " ୪୦": 6367,
      "ଭୋଜ": 6368,
      "ଯେତେ ": 6369,
      "କେନ୍ଦୁଝର": 6370,
      "ଙ୍ଗୁ": 6371,
      "ନେହ": 6372,
      " ପାଇବେ ": 6373,
      " ହୋଇଥିବାବେଳେ ": 6374,
      "ରାଜନୀତି ": 6375,
      "ୋସି": 6376,
      "ବିଲ୍": 6377,
      "ିଆଣ୍ଟ": 6378,
      " ଘରୋଇ": 6379,
      "ଶ୍ରଦ୍ଧ": 6380,
      "ପାରନ୍ତି": 6381,
      "ats": 6382,
      "22": 6383,
      "ଶୈ": 6384,
      " କହିଥିଲେ": 6385,
      "ଆକାଶ": 6386,
      "ଗଞ୍ଜେଇ": 6387,
      "ରେଖ": 6388,
      "ାୟାର": 6389,
      "ପୂର୍ବବର୍ତ୍ତୀ ": 6390,
      "ect": 6391,
      " ପାନ": 6392,
      "ନ୍ତ୍ରୀ": 6393,
      " ସ୍ଵ": 6394,
      "ସ୍ପର୍ଶ": 6395,
      "ାର୍ଣ୍ଣ": 6396,
      "ିବଦ୍ଧ": 6397,
      "ସ୍ୱଚ୍ଛ": 6398,
      "ଗୁଡ଼ିକରେ ": 6399,
      "ଶ୍ରୟ": 6400,
      " କ୍ଷତି": 6401,
      "ଅଧ୍ୟକ୍ଷ": 6402,
      " ଅମିତ": 6403,
      " କରାଗ": 6404,
      "ast ": 6405,
      "ଶୁଣା ": 6406,
      "ଲୋକମାନଙ୍କୁ ": 6407,
      "ମିଳିବ ": 6408,
      "ତୀ ": 6409,
      "ଗୁଡିକୁ ": 6410,
      "୫୮": 6411,
      "ସଲମାନ": 6412,
      "ସହର": 6413,
      "ୁଙ୍କୁ ": 6414,
      " ଜୀବନରେ ": 6415,
      " ଆଇପି": 6416,
      "ବିଭାଗୀୟ": 6417,
      " କେସ୍": 6418,
      "ଗ୍ୟାସ": 6419,
      "ୀ କ": 6420,
      " ସ୍ବ": 6421,
      "ଅପ୍": 6422,
      "୯୮": 6423,
      "ାରାଜ": 6424,
      "ଙ୍କ ନିର୍ଦ୍ଦେଶ": 6425,
      "ସିବି ": 6426,
      "ସୋସିଆଲ ମିଡିଆରେ ": 6427,
      "ାଟଫର୍ମ": 6428,
      "ଯାହାକୁ ନେଇ": 6429,
      "Mar": 6430,
      "ମତଦାନ": 6431,
      "ାଳୀ ": 6432,
      "୪୧": 6433,
      "ସଂଖ୍ୟାରେ ": 6434,
      "ତର ": 6435,
      "ess": 6436,
      " ୨୧": 6437,
      "ous ": 6438,
      "ହେବେ ": 6439,
      " ଲୋ": 6440,
      "ର ବରିଷ୍ଠ": 6441,
      " ପଣ୍ଡା ": 6442,
      "ହାତରେ ": 6443,
      " ନୀତି ": 6444,
      " ବିଳମ୍ବ": 6445,
      "ପ୍ରସ୍ତୁତି ": 6446,
      "ବୋଲି କୁହା": 6447,
      "ନୃତ୍ୟ": 6448,
      ".    ": 6449,
      " ଜର": 6450,
      " ସଂଯୋଗ": 6451,
      "ଥିଲି ": 6452,
      " ଏକ୍ସ": 6453,
      " କରିବାରୁ ": 6454,
      "ଏହି ଭିଡିଓ": 6455,
      "୍ୟାସ୍": 6456,
      " ଚଳିତ": 6457,
      "ରୂ": 6458,
      "Sep": 6459,
      "ଅଟକ ": 6460,
      "ଅମ": 6461,
      "ଐତିହାସିକ ": 6462,
      " ମିଳିବ ": 6463,
      "ଗ୍ସ": 6464,
      "ପୂର୍ବତନ ": 6465,
      "ମନୋରଞ୍ଜନ": 6466,
      " ଏପ୍ରିଲ": 6467,
      " ଚୁ": 6468,
      "ଘରର ": 6469,
      "ହତ୍ୟାକାଣ୍ଡ": 6470,
      "ସୁନ୍ଦର ": 6471,
      "ିପାରେ": 6472,
      "ନା କରା": 6473,
      "।\"": 6474,
      "ଲ୍ୟାଣ୍ଡ": 6475,
      "10 ": 6476,
      "ଆନ୍ଦୋଳ": 6477,
      "ଗିତ": 6478,
      "ପାରି ": 6479,
      "ରଖିଛନ୍ତି ": 6480,
      "୦୯": 6481,
      "ଦେଖିଲେ ": 6482,
      "ଶାସ୍ତ୍ର": 6483,
      " କ୍ରମେ ": 6484,
      " ମହିଳାଙ୍କ ": 6485,
      "cont": 6486,
      " ଘରେ ": 6487,
      "ରସ୍": 6488,
      " ସମାଧାନ": 6489,
      "ସଂଯୋଗ": 6490,
      " ସାମ୍ବାଦିକ ": 6491,
      "ଚାଷୀ ": 6492,
      "Read ": 6493,
      "ଦକ୍ଷତା ": 6494,
      " ଉକ୍ତ": 6495,
      "ାଇମବ୍ରାଞ୍ଚ": 6496,
      "August ": 6497,
      "ଜଣା ପ": 6498,
      "ଓ୍ବ": 6499,
      " ବିଚାରପତି ": 6500,
      "ଅନେକ": 6501,
      "ାବ୍ୟସ୍ତ": 6502,
      " କରାଯାଏ ": 6503,
      "s of ": 6504,
      "ାହାଡ଼": 6505,
      "ସନ୍ଧ୍ୟା ": 6506,
      "ତାଲିକାରେ ": 6507,
      "ି ହୋଇଥିବା ": 6508,
      " ନାହିଁ ବୋଲି ": 6509,
      "ରେ ପ୍ରଧାନ": 6510,
      "ଦିଅନ୍ତୁ ": 6511,
      "ନାମରେ ": 6512,
      "Next ": 6513,
      "ରକ୍ଷିତ": 6514,
      "ଧାର ": 6515,
      "ଗୁରୁତର ଅ": 6516,
      "ବାଘ": 6517,
      "ଜୁଳି ": 6518,
      "ଲେଖା ": 6519,
      " କମ୍ପାନୀ ": 6520,
      " ବସ୍": 6521,
      "ଡ଼କ ": 6522,
      "ଲୁହ": 6523,
      "ିବେ ବୋଲି ": 6524,
      " ଆକାଉଣ୍ଟ": 6525,
      ",\n": 6526,
      "ମୁହିଁ": 6527,
      "Tag": 6528,
      " ଜମି ": 6529,
      " ଗୋଲ": 6530,
      "ଢ଼େ ": 6531,
      "ଗଣେଶ": 6532,
      " ଢ": 6533,
      "ଚେତାବନୀ ": 6534,
      "be": 6535,
      "ଂଘନ": 6536,
      "ଘଟଣାସ୍ଥଳ": 6537,
      "ଚଢ଼ାଉ": 6538,
      "ରେ କଂଗ୍ରେସ": 6539,
      "କହିଥିଲେ": 6540,
      " ଦାଶ": 6541,
      " ମୂଳ": 6542,
      "ଛାଡି ": 6543,
      "ରୂପେ ": 6544,
      "ଫେରାର": 6545,
      " କେଶ": 6546,
      " ଗୌ": 6547,
      "ହାଇଦ୍ରାବାଦ": 6548,
      "ଧୋଇ": 6549,
      "ପିଓ": 6550,
      "ଆସିବା ": 6551,
      "ତଦନ୍ତ ଆରମ୍ଭ": 6552,
      " ପ୍ରଶ୍ନ": 6553,
      " ଅକ୍ଟୋବର ": 6554,
      "ବାୟତ": 6555,
      " ପରିଚୟ": 6556,
      " ସାହାଯ୍ୟ": 6557,
      " ପିଇ": 6558,
      "ଭୂମିକା ": 6559,
      "ାରୋହ": 6560,
      "ଏହି ସବୁ ": 6561,
      "au": 6562,
      ") : ": 6563,
      "ଯାହାର ": 6564,
      " କେହି ": 6565,
      "କ୍ସ୍": 6566,
      " ରଣ": 6567,
      "ର ପ୍ରମୁଖ": 6568,
      "ଜବର": 6569,
      "ଛୁଇଁ": 6570,
      "ାୟତଃ": 6571,
      "ଆଖି ": 6572,
      "ଦିନ ତଳେ ": 6573,
      "ରୋଷ": 6574,
      "ରେ ପ୍ରକାଶ": 6575,
      "ଙ୍କ ପୁଅ": 6576,
      "ଅନ୍": 6577,
      "ଙ୍କ କାର୍ଯ୍ୟାଳୟ": 6578,
      "କୁହାଯାଉଛି ": 6579,
      "ସହରର ": 6580,
      "C ": 6581,
      "କାହ": 6582,
      "ିତ ହୋଇଥିବା ": 6583,
      "ୋଗ୍ରାମ": 6584,
      "ପାଦକ ": 6585,
      "ଗବେଷଣା ": 6586,
      "ବଲାଙ୍ଗୀର ": 6587,
      "ପ୍ରେ ": 6588,
      "ନ୍ତରୀଣ": 6589,
      "ଡ଼େ ": 6590,
      " ପଟ୍ଟନାୟକଙ୍କ ": 6591,
      " ତି": 6592,
      "ନିକଟସ୍ଥ": 6593,
      "୫୯": 6594,
      "ame ": 6595,
      "ଏହି ସମୟ": 6596,
      " ଜ୍ଞାନ": 6597,
      " ଦେଲେ ": 6598,
      " ସେଲ": 6599,
      "ସହର ": 6600,
      "ରମେଶ": 6601,
      "ଓଲ": 6602,
      "ଚର୍ଯ୍ୟ": 6603,
      " ଖାନ୍": 6604,
      " ସୁସ୍ଥ ହୋଇଛନ୍ତି ": 6605,
      "ୁରଭଞ୍ଜ": 6606,
      "ଚାଉଳ": 6607,
      "23": 6608,
      " ହୋ": 6609,
      " ଛାଡ଼": 6610,
      "ଙ୍କ କାର୍ଯ୍ୟ": 6611,
      "ବୃଦ୍ଧି ପ": 6612,
      "୨ଜଣ": 6613,
      " ଆନନ୍ଦ": 6614,
      "ନାତ": 6615,
      "Us": 6616,
      " ସୂତ୍ରରୁ ": 6617,
      "କ୍ରେ ": 6618,
      "ଓଡ଼ିଶାର ": 6619,
      "୍ୟୁନି": 6620,
      "ଯାତ୍ରାରେ ": 6621,
      "ଛତ୍ର": 6622,
      "ା ବନ୍ଦ": 6623,
      "ସାମ୍ବାଦିକ ସମ୍ମିଳନୀ": 6624,
      "ଏଥି ସହିତ": 6625,
      " ମାନଙ୍କ ": 6626,
      "that ": 6627,
      "ବିଫଳ": 6628,
      "ିଲାଣି ": 6629,
      "ବିଭିନ୍ନ ପ୍ରକାର": 6630,
      "ତେ": 6631,
      " ପ୍ରତ୍ୟେକ ": 6632,
      "ଉଲ୍ଲେଖଯୋଗ୍ୟ": 6633,
      "ନା କରିଥିଲେ ": 6634,
      "ସ୍ଥାୟୀ": 6635,
      "ସିଧାସଳଖ": 6636,
      "ପୂର୍ବବର୍ତ୍ତୀ ଖବର ": 6637,
      "ା କରିଛନ୍ତି": 6638,
      "କହି": 6639,
      "ଷୟିକ ": 6640,
      " ଓଡ଼ିଶାରେ ": 6641,
      " କମ୍ପ": 6642,
      "ଠିଆ": 6643,
      "େୟାର": 6644,
      " ଜିଲା ": 6645,
      "ଓଡିଆ": 6646,
      "ସେଥିରୁ ": 6647,
      "୫୭": 6648,
      "ଯିବା ପାଇଁ": 6649,
      "min": 6650,
      "ନଂ": 6651,
      "ାଇଟ": 6652,
      "ିଆଜ": 6653,
      " ମିଳିଛି ": 6654,
      "ମିଟେ": 6655,
      "ଜିଂ": 6656,
      "ଚିଠ": 6657,
      "ବାନ୍ଧ": 6658,
      "ସାତ": 6659,
      "ଆସନ୍ତୁ ଜାଣିବା ": 6660,
      "ଭ୍ର": 6661,
      "ଭୋଟ୍": 6662,
      " ଶତ": 6663,
      "par": 6664,
      "୍ୟାଗ": 6665,
      "ଦୁର୍ବୃତ୍ତ": 6666,
      "ଫେବୃ": 6667,
      " ନଥିବା ": 6668,
      "ଆହ୍ୱାନ": 6669,
      "ଉପୁ": 6670,
      "କୁର": 6671,
      "ବୁଠୁ ": 6672,
      "ଭର ": 6673,
      "ନିତ": 6674,
      "ସ୍ର": 6675,
      "ଜ୍ୟୋତି": 6676,
      "ାରଣା ": 6677,
      "ଭୁତ": 6678,
      "ment ": 6679,
      "ଜରିଆରେ ": 6680,
      "ଆଗ୍ରହ": 6681,
      " ଗୁରୁତ୍ୱପୂର୍ଣ୍ଣ": 6682,
      "ଜ୍ଞତା ": 6683,
      " ଅଧିନାୟକ ": 6684,
      "କରୋନାର ": 6685,
      "ଶୁଣି ": 6686,
      "ାହାନ୍ତି": 6687,
      " ପରିଶ୍ରମ": 6688,
      "ିଆସୁ": 6689,
      "ସଂଗ୍ରାମ": 6690,
      "ଜୀବୀ": 6691,
      "ଖେଳାଳି ": 6692,
      "ସୂଚନା ଦେଇଛନ୍ତି": 6693,
      " ଶତାବ୍ଦୀ": 6694,
      "୧୯୮": 6695,
      "ରାତି": 6696,
      "ରେ ପ୍ରବଳ": 6697,
      "ଏବେ ବି ": 6698,
      " ମଣିଷ": 6699,
      "ଏହି ଫିଲ୍ମ": 6700,
      " ବିଲ": 6701,
      "ନିବାସ": 6702,
      "ମ୍ପରିକ ": 6703,
      "ମୁଖେ ": 6704,
      " ପ୍ରତାପ": 6705,
      "ପୁଞ୍ଜ": 6706,
      "ୁଣ": 6707,
      "ଦିଲ୍ଲୀରେ ": 6708,
      "ହେବା ପରେ ": 6709,
      "ମିତ୍ର": 6710,
      "ପୋଲିସ ": 6711,
      "Leave ": 6712,
      " ଖେଳାଳି": 6713,
      "ଯେମିତି ": 6714,
      "ିପାରିବେ ": 6715,
      "ସଚିବ": 6716,
      " ନାରାୟଣ": 6717,
      "ଗତି": 6718,
      " ଉଦ୍": 6719,
      "ଡ଼କୁ ": 6720,
      "ସେ କହିଛନ୍ତି ଯେ ": 6721,
      " ନଭେମ୍ବର ": 6722,
      "୍ୟାନେଲ": 6723,
      " ପିଲ": 6724,
      " ପର୍ଯ୍ୟାୟରେ ": 6725,
      "ଉତ୍ତର ପ୍ର": 6726,
      " ଏବଂ ସ": 6727,
      " କଟକ ": 6728,
      "/12": 6729,
      "ଶରୀର ": 6730,
      "ଦ୍ରୋହ": 6731,
      "ପବିତ୍ର": 6732,
      " ନାଗରିକ": 6733,
      "ିଆ ": 6734,
      "ମନ୍ତବ୍ୟ": 6735,
      " କରିବେ ବୋଲି ": 6736,
      "ମ୍ଳ": 6737,
      "ମଞ୍ଚ": 6738,
      "କଲେଜ": 6739,
      "ଦିଅନ୍ତୁ": 6740,
      " ସୁଖ": 6741,
      "ସ୍ୱାମୀ ": 6742,
      " ମାନସିକ ": 6743,
      "ୁଲି": 6744,
      "ନଗର": 6745,
      " ସଂରକ୍ଷଣ": 6746,
      " ଫୁ": 6747,
      "ରଖିବା ": 6748,
      "ମୁକାବିଲା ": 6749,
      "ି କରିବା ": 6750,
      " ନିଷ୍": 6751,
      " ଯୋଜନାରେ ": 6752,
      "/11": 6753,
      "ିଫ": 6754,
      "ଜେନେ": 6755,
      " ରିଲି": 6756,
      "ଚୀନ୍": 6757,
      "ଧା": 6758,
      "ଷ୍ଟାର": 6759,
      "ିବାକୁ ପାଇ": 6760,
      "ହୀ": 6761,
      "m ": 6762,
      "ଘଟଣାକୁ ନେଇ": 6763,
      "ାର୍ମିକ ": 6764,
      "ବସ୍ତୁ ": 6765,
      "କହି ": 6766,
      "ପଡିବ ": 6767,
      "ବାବୁ": 6768,
      "ର ବିଭିନ୍ନ ": 6769,
      "ଯଥା ": 6770,
      "ଡଙ୍ଗ": 6771,
      " ସମିତି ": 6772,
      "ବିତା ": 6773,
      "ଲଗା": 6774,
      "ଖୋର୍ଦ୍ଧା": 6775,
      " ଯାହ": 6776,
      "ଉତ୍ତରପ୍ରଦେଶ": 6777,
      "ସଭ୍ୟ": 6778,
      "ଯେଉଁଠି ": 6779,
      " ମୃତ୍ୟୁ": 6780,
      " ନଦୀ": 6781,
      "୍ୟାନ୍ସ": 6782,
      "କାର୍ଡ": 6783,
      " ଅନୁଷ୍ଠିତ": 6784,
      "ଗତ ୨୪ ଘଣ୍ଟା ମଧ୍ୟରେ ": 6785,
      " ଭୟ": 6786,
      "ୟୁକ୍ରେନ": 6787,
      "େଡ୍": 6788,
      " ସଂପର୍": 6789,
      " ଖାଇବା ": 6790,
      "ଭଳି କ": 6791,
      "ଶାରୀରିକ ": 6792,
      "ାୟିକା ": 6793,
      "ମୋଦନ": 6794,
      "ill ": 6795,
      "କୋଇ": 6796,
      "ଅକ୍ଷୟ": 6797,
      "ରେ ପ୍ରତି": 6798,
      "ସୁବର୍ଣ୍ଣ": 6799,
      "age ": 6800,
      "Sp": 6801,
      " ଅଞ୍ଚଳର ": 6802,
      " ଦୀପ": 6803,
      "ଭାରତ ": 6804,
      "ସୈ": 6805,
      "ଏହାର ସ": 6806,
      "କେରଳ": 6807,
      "ରାଜିତ": 6808,
      " ମିନିଟ୍": 6809,
      "ିଆସ": 6810,
      "ow ": 6811,
      "ଦୁହେଁ": 6812,
      "ିତ ହୋଇଛି": 6813,
      " ଦିନ ଧରି ": 6814,
      "କରୋନା ମହାମାରୀ": 6815,
      "ନିଷ୍ପତ୍ତି ନିଆ": 6816,
      " କାର୍ଯ୍ୟକ୍ରମରେ ": 6817,
      "ଓ୍ୱ": 6818,
      "ନ ଉପରେ ": 6819,
      "ଃ ": 6820,
      "ର ଅଭାବ": 6821,
      "ଯାହାଫଳରେ ": 6822,
      "ଅମିତ": 6823,
      "ଉପସ୍ଥିତ ଥିଲେ ": 6824,
      "ିଧ": 6825,
      " ପାଟ": 6826,
      "ାଦାର": 6827,
      "କୋଟ": 6828,
      "Un": 6829,
      " ହୋଇଯାଇଛି": 6830,
      " ଅତ୍ୟନ୍ତ": 6831,
      "ବ୍ୟବହୃତ": 6832,
      " ଖୁବ୍": 6833,
      " ତ୍ରି": 6834,
      " ପାରିବ": 6835,
      "ମଣ": 6836,
      " ଅଙ୍ଗ": 6837,
      "ୁହନ୍ତି": 6838,
      "ର ମୂଲ୍ୟ": 6839,
      " ଡିଜେଲ": 6840,
      "ପ୍ରସାରଣ": 6841,
      "ଟିଭି": 6842,
      "ଯାଉଥିଲା ": 6843,
      "ବୀର ": 6844,
      "୭୯": 6845,
      "ଙ୍ଗାଲ": 6846,
      " ଇନ": 6847,
      "mar": 6848,
      "ମୁଖ୍ୟମନ୍ତ୍ରୀଙ୍କ ": 6849,
      "ପଲ": 6850,
      "ାରମ୍ଭିକ ": 6851,
      "ର୍ଗତ": 6852,
      "ମାନେ ମଧ୍ୟ": 6853,
      "ବିଦ୍ୟୁତ୍": 6854,
      "D ": 6855,
      "ୁଖ": 6856,
      "ତାଲିମ": 6857,
      "!\n": 6858,
      "ୟୁ ": 6859,
      " ସହରରେ ": 6860,
      "ସବୁଠୁ ": 6861,
      "tp": 6862,
      "ର କି": 6863,
      "ଜାତି": 6864,
      "ପ୍ରାକୃତିକ ": 6865,
      " ଅନୁଷ୍ଠାନ": 6866,
      " ତାକୁ ": 6867,
      "ପାରିବାରିକ ": 6868,
      "ଶାସକ ": 6869,
      "େଲୋ": 6870,
      "ଦେଶିକ ": 6871,
      " ତାହ": 6872,
      "ଘଟଣାକୁ ": 6873,
      "ଙ୍କ ସଂଖ୍ୟ": 6874,
      "ପ୍ରଦେଶର ": 6875,
      " ରାଜ୍ୟର ": 6876,
      "ବଲ୍": 6877,
      "ଟ୍ରେନ୍": 6878,
      " ନିଷ୍ପତ୍ତି ନେଇ": 6879,
      " ୨୮": 6880,
      "ଆଲୋକ": 6881,
      "ସୂଚନା ଦିଆଯାଇଛି ": 6882,
      " ରହିଥିବା ବେଳେ ": 6883,
      "ଏସପି ": 6884,
      "About ": 6885,
      " ପଠ": 6886,
      "କର୍ଣ୍ଣାଟ": 6887,
      " ବିଶ୍ୱାଳ": 6888,
      "He": 6889,
      "ବ ": 6890,
      "ଅବସ୍ଥା ": 6891,
      "ଆରମ୍ଭ ହୋଇଛି ": 6892,
      "ଡୁ ": 6893,
      "୭ଟି ": 6894,
      "ସ୍ଥିର ": 6895,
      " ବ୍ରି": 6896,
      "ଣ୍ଠି ": 6897,
      " ହୋଇପଡ଼": 6898,
      "ଲିଉଡ୍": 6899,
      "ପ୍ରାର୍ଥୀ ": 6900,
      "ସଂକ୍ରମିତ ହୋଇ": 6901,
      "ress ": 6902,
      "ଟ୍ସମ": 6903,
      "ଫେରି": 6904,
      "ାପାଇଁ": 6905,
      "ଦିବ୍ୟ": 6906,
      " ଉପଲବ୍ଧ": 6907,
      " ଆର୍": 6908,
      "ବୀ ": 6909,
      "କାରରେ ": 6910,
      " ଗଞ୍ଜ": 6911,
      "କହିଛନ୍ତି ଯେ ": 6912,
      "ମାନ୍ତ": 6913,
      " କିମି ": 6914,
      "ଭାସ": 6915,
      "ୀକୃତ": 6916,
      "ା ପ୍ରକାଶ": 6917,
      " ଭୋ": 6918,
      "ଶାନ": 6919,
      " ଜଣଙ୍କୁ ": 6920,
      "ତାଧିକ ": 6921,
      " ଦିଅନ୍ତୁ": 6922,
      "ant": 6923,
      " କମିଶନ": 6924,
      " ବୋଲି କହ": 6925,
      "ଗାଡ଼": 6926,
      "ିତ୍ରୀ": 6927,
      "ଛାତ": 6928,
      " ଛାତ୍ରୀ": 6929,
      " ତାରିଖ ପର୍ଯ୍ୟନ୍ତ": 6930,
      " ଦୁଃଖ": 6931,
      "ସେନ୍ସ": 6932,
      "କର୍ଷଣୀୟ": 6933,
      "ଦୁଇଜଣ": 6934,
      "ଗ୍ନ": 6935,
      " ତିଆରି କର": 6936,
      "ଜ୍ୱ": 6937,
      "ଭାଙ୍ଗି ": 6938,
      "ତାଙ୍କ ସହ": 6939,
      "ଜାରି କର": 6940,
      " ଓ ପ୍ର": 6941,
      "& ": 6942,
      "ଠାରୁ ଆରମ୍ଭ କରି ": 6943,
      "ଚାଷୀଙ୍କ ": 6944,
      "ରେଡ୍": 6945,
      "ସିନ୍": 6946,
      "ଆସୁଛି ": 6947,
      "ଗର ନିଗମ": 6948,
      " ହେଲା": 6949,
      "କାଠ": 6950,
      " ଏତ": 6951,
      "ଦ୍ୟାନ": 6952,
      "ସହଜରେ ": 6953,
      "ଜଣା ": 6954,
      "E ": 6955,
      "ରେ ପରିଣତ": 6956,
      ":  ": 6957,
      " ଓ ପରିବାର": 6958,
      "୍ଳ": 6959,
      " ସିରି": 6960,
      "ଅନୁସନ୍ଧାନ": 6961,
      " ଯାତ୍ରୀ": 6962,
      "ଗ୍ରାମା": 6963,
      " ସେମାନଙ୍କର ": 6964,
      "ଏ ": 6965,
      "ମତ୍କାର": 6966,
      "ଠାକାର": 6967,
      " ଗୁଡ": 6968,
      "ାଇନ୍": 6969,
      "ସାପ": 6970,
      " ମଜ": 6971,
      " ତୁଳନାରେ ": 6972,
      " ଚେଷ୍ଟ": 6973,
      "Jul": 6974,
      "/10": 6975,
      "ଜିଓ": 6976,
      "Whats": 6977,
      " ସଂପୂର୍ଣ୍ଣ": 6978,
      " ଅତିରିକ୍ତ": 6979,
      "lin": 6980,
      " ଚାଳ": 6981,
      "ର ସବୁ ": 6982,
      " କ୍ରିକେଟ୍": 6983,
      "ଏହି ମାମଲାରେ ": 6984,
      " ପୁଲିସ୍": 6985,
      "ସେ ନିଜ": 6986,
      "ଦିଲ୍ଲୀର ": 6987,
      "ପ୍ୟା": 6988,
      "ଦୂରତା ": 6989,
      "ଆସିଥିଲେ ": 6990,
      "ପାରୁ ": 6991,
      "ହାନ": 6992,
      " ଜିଲ୍ଲାର ": 6993,
      "ାଇଥିଲେ": 6994,
      "ନିକଟରୁ ": 6995,
      " ପଥ": 6996,
      "ବିନେଟ": 6997,
      "ସିଟି ": 6998,
      "ମୂର୍ତ୍ତି ": 6999,
      "ନିବେଦନ": 7000,
      "ନ୍ଧକ ": 7001,
      "ର ସୁରକ୍ଷା ": 7002,
      "ଅଭିନେତ୍ରୀ": 7003,
      "କର୍କଟ": 7004,
      "ଭାରତକୁ ": 7005,
      "/04": 7006,
      "ଦେଶକୁ ": 7007,
      "ter ": 7008,
      "ଶୁକ୍ରବାର ": 7009,
      "ର ଚ": 7010,
      "କୃତି": 7011,
      "ସେହି ସମୟରେ ": 7012,
      "ଚରା ": 7013,
      "ଫୋର": 7014,
      " ସୁପର": 7015,
      " ଟ୍ୱି": 7016,
      "ନକଲି ": 7017,
      "ି କି ": 7018,
      " ଦିଆଯିବ": 7019,
      " ସମସ୍ତେ ": 7020,
      "ାବେଶ": 7021,
      "ହସ": 7022,
      "ତତ୍ତ୍ୱ": 7023,
      "ାବଶ୍ୟ": 7024,
      "ଗୋଟେ ": 7025,
      "me": 7026,
      "/08": 7027,
      "tion ": 7028,
      "ାମେଣ୍ଟ": 7029,
      " ଜଡିତ": 7030,
      " ଆସି ": 7031,
      "କୁ ଗିରଫ": 7032,
      "ହେବାକୁ ଥିବା ": 7033,
      "ାଉଁ": 7034,
      "୍ୟୁଟ": 7035,
      "ଗା ": 7036,
      "୬୬": 7037,
      "କୋଣ": 7038,
      "ଭିତରକୁ ": 7039,
      "ବଲାଙ୍ଗୀର": 7040,
      "ଦିଆଯାଇ": 7041,
      " ବୁଧ": 7042,
      " ପରିବହନ": 7043,
      " ମହାମାରୀ": 7044,
      "ଚଳିତବର୍ଷ": 7045,
      " ହରି": 7046,
      "ଆସାମ": 7047,
      "କାରୀଙ୍କୁ ": 7048,
      "ାଇଥିବା ": 7049,
      "ଓକିଲ": 7050,
      " ସଂସଦ": 7051,
      "ାଜିକ": 7052,
      "ଗାଡି": 7053,
      "ନଥିଲା": 7054,
      " ମନୋ": 7055,
      "ଟ୍ରାଫ": 7056,
      "ଧକ୍କା ": 7057,
      "ସତର୍କ": 7058,
      " ୱିକେଟ୍": 7059,
      "ଉଚିତ୍ ": 7060,
      "ଜାଲ": 7061,
      "ଲ୍ଟ": 7062,
      " ଉପସ୍ଥିତ ଥିଲେ ": 7063,
      "ସଂସ୍ଥା ": 7064,
      ". । ": 7065,
      "ଷ୍ଟାଡିୟମ": 7066,
      "ମାର୍": 7067,
      "ିବିଆଇ": 7068,
      " ଧାନ": 7069,
      "ଆଶା ": 7070,
      "ା ପ୍ରତି ": 7071,
      "ଗୁଜରାଟ": 7072,
      "ଭେଟି ": 7073,
      "ୱେ ": 7074,
      "ାକର୍ମ": 7075,
      "ଅସୁସ୍ଥ": 7076,
      "ର୍ବାଦ": 7077,
      "ଜୁନ ": 7078,
      "ମ୍ବର": 7079,
      " ପ୍ରବେଶ": 7080,
      " ହସ୍ତ": 7081,
      "ରହିବାକୁ ": 7082,
      "ଯଥା": 7083,
      "ଶିକ୍ଷୟ": 7084,
      "ରୁ ବାହାର": 7085,
      "ହେବାର ସମ୍ଭାବନା ": 7086,
      "ୟୁରୋ": 7087,
      "ଡେମ": 7088,
      " ସାକ୍ଷ": 7089,
      "ସଙ୍କଟ": 7090,
      " ହୋଇସାର": 7091,
      "s and ": 7092,
      "ବହି": 7093,
      " ପେଟ୍ରୋଲ": 7094,
      "୍ୟାଲ": 7095,
      "ପ୍ରୋ": 7096,
      "ସୁମୀ": 7097,
      "ଛତିଶଗଡ଼": 7098,
      "କିଛି": 7099,
      "ବିଜୟୀ": 7100,
      " ରଖିବାକୁ ": 7101,
      "ମାନ୍ୟତା ": 7102,
      " ପାର୍ଟି ": 7103,
      " ଜାଗ": 7104,
      "ମନୋଜ": 7105,
      " ଆସିଛି ": 7106,
      "WhatsApp": 7107,
      "/07": 7108,
      "ଏକମାତ୍ର": 7109,
      " ଚୋ": 7110,
      "ସୂଚିତ": 7111,
      "୍ନୌ": 7112,
      " ଫାଇନ": 7113,
      "Pri": 7114,
      "ଅର୍ଥାତ": 7115,
      "କିଶ": 7116,
      "ର କାରଣ": 7117,
      " ସଂକ୍ରାନ୍ତ": 7118,
      " ଉତ୍ପାଦନ": 7119,
      " ରହିବେ ": 7120,
      "େକ୍ସ": 7121,
      "ଗତ ବର୍ଷ": 7122,
      "ହୋଇଥାଏ ": 7123,
      "ସମ୍ଭାବ୍ୟ": 7124,
      "ମୁଖ୍ୟ ଚିକିତ୍ସ": 7125,
      "ତ୍ନ ": 7126,
      " ଲାଗୁ ": 7127,
      "ଏହାରି ": 7128,
      "ଉଦ୍ଧାର କରି ": 7129,
      "୫୨": 7130,
      "July ": 7131,
      " ସଂସ୍କୃତି ": 7132,
      "ତାହାର": 7133,
      "ପୃଷ୍ଠ": 7134,
      "ନୂଆପଡ଼": 7135,
      "ଧୋ": 7136,
      " ଅଧିକ": 7137,
      "ପ୍ରଦ": 7138,
      " ପାଇବେ": 7139,
      " ଉପର": 7140,
      "ଏହା ମଧ୍ୟ": 7141,
      "କଣ୍ଠ": 7142,
      "/06": 7143,
      " ବିନା ": 7144,
      "ସୂଚନା ଅନୁସାରେ": 7145,
      "ବିଏମ୍": 7146,
      " ପ୍ୟା": 7147,
      "/11/2021 ": 7148,
      "ଜାତୀୟ ରାଜପଥ": 7149,
      " ତୁରନ୍ତ": 7150,
      "େଦନ": 7151,
      "ଭୂତି ": 7152,
      "ସଞ୍ଜୟ": 7153,
      " ସୁନ୍ଦର": 7154,
      "ଶକ୍ତି": 7155,
      "ଙ୍କୁ ଭେଟ": 7156,
      "ିକି ନୁହେଁ": 7157,
      "ହ୍ୟ": 7158,
      "der": 7159,
      "ଗୁଜୁ": 7160,
      "ଏକ କ": 7161,
      "ସୁନିଶ୍ଚିତ": 7162,
      "ଯୋଗିତା ": 7163,
      "ଓଡିଶା": 7164,
      "ଙ୍କ ଏହି ": 7165,
      " ଡୋଜ୍": 7166,
      "ନିରଞ୍ଜନ": 7167,
      "ଜଗତସିଂହପୁର": 7168,
      "ପିଲା ": 7169,
      " ରାଜନୈତିକ ": 7170,
      "ଭୀତ": 7171,
      "ିବା ନେଇ": 7172,
      "ଲୁଟ": 7173,
      "ମୃତ୍ୟୁ ହୋଇଛି": 7174,
      " ପାଇଁ ": 7175,
      "all ": 7176,
      "ସ୍ଵାସ୍ଥ୍ୟ": 7177,
      "ମୋବାଇଲ୍": 7178,
      "ାକର": 7179,
      "ଶୁଭ ଅ": 7180,
      "ରାଖଣ୍ଡ": 7181,
      "ରାଜୟ": 7182,
      "ପହ": 7183,
      "ରେ ପହଞ୍ଚି ": 7184,
      " ରାସ୍ତାରେ ": 7185,
      "ଲାଣ୍ଡ": 7186,
      "ପ୍ରତିକ୍ରିୟା ": 7187,
      "୫୬": 7188,
      "ାଣିଜ୍ୟ": 7189,
      "ହେବାରୁ ": 7190,
      " ଗତିରେ ": 7191,
      "ସିନ": 7192,
      "ast": 7193,
      "ଚିହ୍ନଟ ହୋଇଥିବା ": 7194,
      "ଯାଉଥିବା ବେଳେ ": 7195,
      "/10/2021 ": 7196,
      " ସେପ୍ଟେମ୍ବର ": 7197,
      "ic ": 7198,
      " ଅଧିକାରୀମାନେ ": 7199,
      "ଜିଲ୍ଲା ସ": 7200,
      "ଯୋଗୀ": 7201,
      " ହେବାକୁ ଥିବା ": 7202,
      "େଟରେ ": 7203,
      "/09": 7204,
      " ଆଦିବାସ": 7205,
      "ୂରଣ": 7206,
      "you ": 7207,
      " ଦିଅନ୍ତୁ ": 7208,
      " ମଞ୍ଜ": 7209,
      "କରିଛନ୍ତି ": 7210,
      "ଶାହ": 7211,
      "ଶୁଣାଣ": 7212,
      "ଭବନରେ ": 7213,
      " ଦିଲ୍ଲୀ": 7214,
      "ଦୁର୍ନୀତି ": 7215,
      "କୁ ଦୃଷ୍ଟିରେ ରଖି ": 7216,
      "ରେଜ": 7217,
      "ପ୍ରତିଦିନ ": 7218,
      " କରିପାରନ୍ତି": 7219,
      "/12/2021 ": 7220,
      "ଆଠ": 7221,
      "ସେହ": 7222,
      "ରେ ସମ୍": 7223,
      "ଚର ": 7224,
      " ପାରିବେ ": 7225,
      "ଦଖଲ": 7226,
      "ଏହାକୁ ମିଶାଇ": 7227,
      "/07/2021 ": 7228,
      "୍ ": 7229,
      "ସଂଘର୍ଷ": 7230,
      "ud": 7231,
      "ଅହ": 7232,
      " ସ୍ୱରୂପ": 7233,
      "ୁଥିଲା": 7234,
      "ସକାଳୁ ": 7235,
      "ସଂସ୍କୃତି ": 7236,
      "Pol": 7237,
      "ନବରଙ୍ଗପୁର": 7238,
      " ବୃଦ୍ଧି ପାଇ": 7239,
      "ଦେଇଥିଲା": 7240,
      "ରାଜଧାନୀ": 7241,
      "ବ୍ୟକ୍ତିଙ୍କୁ ": 7242,
      "ନ୍ଦର୍ଯ୍ୟ": 7243,
      " ଟଙ୍କାରେ ": 7244,
      "--------": 7245,
      " କରାଯାଉଥିବା ": 7246,
      "ସୂଚନ": 7247,
      "େରିଆ": 7248,
      "ଭାଷଣ": 7249,
      "ଅନୁପ": 7250,
      " ନିଜେ ": 7251,
      "୧ ଲକ୍ଷ": 7252,
      "ହିନ୍ଦ": 7253,
      "ବନ୍ୟ": 7254,
      " ଅଧୀନରେ ": 7255,
      " ଡିଗ୍ରୀ": 7256,
      "ଭୋକ୍ତ": 7257,
      "ପଲ୍ଲ": 7258,
      "ରବିବାର ": 7259,
      " ଅନୁସାରେ": 7260,
      "ପ୍ରଦର୍ଶନ": 7261,
      "ଅଧି": 7262,
      " ପଟେ ": 7263,
      "ଘଟଣାର": 7264,
      "ଙ୍କୁ": 7265,
      "/06/2021 ": 7266,
      "ଗୁରୁତର ଅବସ୍ଥାରେ ": 7267,
      " ଇତିହାସ": 7268,
      "ର ଆହତ": 7269,
      "ସଦା": 7270,
      "ଯିବେ ": 7271,
      "ିବୁ ": 7272,
      "ିଛୁ ": 7273,
      " ୨୨": 7274,
      "ଆୟୋଜନ": 7275,
      " ଆତ୍ମ": 7276,
      "ଜାପାନ": 7277,
      "ରଞ୍ଜନ ": 7278,
      " ଅପରାହ୍": 7279,
      " ଦେହ": 7280,
      " ଆଧାରରେ ": 7281,
      "ଙ୍ଗରେ ": 7282,
      "ାହୁ": 7283,
      " ଉଠାଇ": 7284,
      "ରେ ପୀ": 7285,
      " ଫ୍ଲ": 7286,
      " ସିରିଜ": 7287,
      "ର୍ଦ୍ଧିତ": 7288,
      "ରଖିବାକୁ ": 7289,
      " ଅଧିକାରୀଙ୍କୁ ": 7290,
      "ଦାୟୀ": 7291,
      "ଲୀ": 7292,
      "ାଗ୍ରାମ": 7293,
      "ଇଲେକ୍ଟ୍ର": 7294,
      " ଖରାପ": 7295,
      "ଙ୍କେତ": 7296,
      "ଜିଷ୍ଟ୍ର": 7297,
      "ଜୁନ": 7298,
      "http": 7299,
      "ଆଉଟ": 7300,
      "ବିଧାୟକ": 7301,
      "ଠକେଇ": 7302,
      "ସ୍ପେଶ": 7303,
      "କିଛି ସମୟ": 7304,
      "ବିରାଟ କୋହ": 7305,
      "ଆପଣଙ୍କ ପାଇଁ": 7306,
      "ି କରାଯାଇଥିଲା ": 7307,
      "ଅଧୀନରେ ": 7308,
      "କଲେ ": 7309,
      " ଜିତି ": 7310,
      " ଜୀବନ ": 7311,
      " ଅପେକ୍ଷ": 7312,
      "କାଶେ ": 7313,
      " ସକାଳେ ": 7314,
      "୩ଜଣ": 7315,
      "କୋଟି ଟଙ୍କା ": 7316,
      "ସ୍ତି ": 7317,
      "୍ୟକ୍ରମ": 7318,
      " ନିରା": 7319,
      "ance": 7320,
      "ୁଛୁ ": 7321,
      " ଇଣ୍ଡ": 7322,
      "ଏତଲା ": 7323,
      "ଖୋ": 7324,
      "ଯନ୍ତ୍ରଣା ": 7325,
      "ାଇବ ": 7326,
      "ାକ୍ଷ": 7327,
      "ହା": 7328,
      "ପିଛା ": 7329,
      "ସାଥୀ": 7330,
      "ରନ୍": 7331,
      "ପ୍ରତିଶ୍ରୁତି ": 7332,
      "ରହିଥାଏ": 7333,
      "ମୟୁରଭଞ୍ଜ": 7334,
      "ାୟନ": 7335,
      " ସହର ": 7336,
      "ଖାତ": 7337,
      "ାବଳୀ": 7338,
      "/09/2021 ": 7339,
      "it ": 7340,
      " ଶୁକ୍ର": 7341,
      "ସ୍ମରଣ": 7342,
      "ଇଣ୍ଡି": 7343,
      "ଭିମୁଖ୍ୟ": 7344,
      " ମହାସ": 7345,
      " ଯେତେବେଳେ ": 7346,
      " କାହିଁକି ": 7347,
      "ମଲ୍ଲ": 7348,
      " ୨୬": 7349,
      "ବାଚସ୍ପତି ": 7350,
      "T ": 7351,
      "ସଂରକ୍ଷଣ": 7352,
      "ଆପଣମାନେ ": 7353,
      " ଓ ": 7354,
      "ଚରାଉଚର": 7355,
      "ାମଣା ": 7356,
      "ମ୍ ": 7357,
      "ଶସ୍ତ୍ର": 7358,
      "ର ବିଷୟ": 7359,
      "ରୋଗୀଙ୍କ ": 7360,
      " କଳାକାର": 7361,
      "ପରିବହନ": 7362,
      "କଳା": 7363,
      "ଲିମ୍ପିକ୍ସ": 7364,
      "ନାଗରିକ": 7365,
      "ିମି": 7366,
      "ଦିନର ": 7367,
      "ଉଲ୍ଲେଖନୀୟ": 7368,
      " କ୍ୟାରି": 7369,
      "/04/2021 ": 7370,
      "ରହସ୍ୟ": 7371,
      "ରେ ସଫଳତା ": 7372,
      "ାହ୍ନ ": 7373,
      " ମୁକାବିଲ": 7374,
      " କାର୍ଯ୍ୟକଳାପ": 7375,
      "ଜାମିନ": 7376,
      "ଥିଲି": 7377,
      "ପ୍ରତିବାଦ": 7378,
      "ସମ୍ବନ୍ଧ": 7379,
      " ଶବ୍ଦ": 7380,
      " କରିବାକୁ ଚାହୁଁ": 7381,
      "ବୃଦ୍ଧି କର": 7382,
      "କପ": 7383,
      "ବରୋଧ": 7384,
      " ଭକ୍ତ": 7385,
      "ସେନ": 7386,
      "କାର୍ଯ୍ୟରତ": 7387,
      "was ": 7388,
      "/08/2021 ": 7389,
      "ବ୍ୟକ୍ତିଙ୍କ ": 7390,
      " ମିଶି ": 7391,
      "ିକ ଭାବେ ": 7392,
      "ବତ୍ତ": 7393,
      "କାଲ": 7394,
      " ତୁ": 7395,
      "ମାର୍ଗ": 7396,
      "ପ୍ରଶାସନ": 7397,
      " ସମସ୍ତଙ୍କୁ ": 7398,
      "ଦାଦ": 7399,
      " ସିଦ୍ଧ": 7400,
      "ଏବଂ ଏହି ": 7401,
      "ଦାତ": 7402,
      "ରେ ଅଛନ୍ତି ": 7403,
      " ସରପଞ୍ଚ": 7404,
      " କେନ୍ଦ୍ରୀୟ": 7405,
      "ୁଆଲ": 7406,
      "ା କରାଯାଇଛି": 7407,
      "Facebook": 7408,
      "ରେ ପହଞ୍ଚିଛି": 7409,
      "rit": 7410,
      " ଦୃଶ୍ୟ": 7411,
      "କୋହ": 7412,
      "ଝିରେ ": 7413,
      "ଶୈଳ": 7414,
      "ଅଭିଯୋଗରେ ": 7415,
      "ଗଙ୍ଗ": 7416,
      "ଚିକିତ୍ସିତ": 7417,
      " ଓ୍": 7418,
      "ନ୍ତୁ ନାହିଁ": 7419,
      "ମାଂସ": 7420,
      "ୁରୂପ": 7421,
      " ଦୁର୍ବ": 7422,
      "ତିରିକ୍ତ": 7423,
      " ପୂର୍ବେ ": 7424,
      " ଙ୍କ ": 7425,
      " ଆହୁରି ": 7426,
      " ଦିଆଯାଇ": 7427,
      "ରବି ": 7428,
      "ସେ ତାଙ୍କ ": 7429,
      " ଘରକୁ ଫେର": 7430,
      "ବାଇକ୍": 7431,
      "ସୃଷ୍ଟି ": 7432,
      ":-": 7433,
      "ବଦଳରେ ": 7434,
      "ଜର୍ମାନ": 7435,
      " ହେବାର ": 7436,
      "so ": 7437,
      " ପ୍ରୟୋଗ": 7438,
      " ଶ୍ରୀ ": 7439,
      "ଦାବି କରିଛନ୍ତି ": 7440,
      "ରୋଗୀ ": 7441,
      "ପାଣ": 7442,
      " ଡିସେମ୍ବର ": 7443,
      " କରିସାର": 7444,
      "ିଥିଲେ ମଧ୍ୟ": 7445,
      " ବାଲ": 7446,
      "ା କରୁଥିବା ": 7447,
      " ଥାନ": 7448,
      "ରେ ପୋଲିସ": 7449,
      "ୁବାଇ": 7450,
      "ure": 7451,
      "ିବାସ": 7452,
      "ନିଧି": 7453,
      "ଦାୟିତ୍ବ": 7454,
      "ରୁ ଊ": 7455,
      "୍ରିକ ": 7456,
      "୨୦୧୫": 7457,
      "ିତ ରାତିରେ ": 7458,
      "େଶ୍ୱ": 7459,
      " ଗୀତ": 7460,
      " ବୋଲି କ": 7461,
      "ମାଲିକ": 7462,
      "ନିର୍ବାଚନ ପାଇଁ": 7463,
      " ଫୁଲ": 7464,
      " କୌଶଳ": 7465,
      "will ": 7466,
      "େର ": 7467,
      "ା ପଞ୍ଚାୟତ": 7468,
      "ତୈଳ": 7469,
      "ପିଇବା ": 7470,
      "ଇଣ୍ଡ": 7471,
      "ସୋଲ": 7472,
      "ପ୍ରଧାନମନ୍ତ୍ରୀ ମୋ": 7473,
      "ଉଦ୍ଧ": 7474,
      "ନ୍ମୋ": 7475,
      "ଜେଲ୍": 7476,
      "ପୂରା ": 7477,
      "ଡେ ": 7478,
      " ପ୍ରବାହ": 7479,
      " ଶାହ": 7480,
      "_ ": 7481,
      "କ୍ସ୍ଟ": 7482,
      "ରଣୀ": 7483,
      "କରାଯାଇଛି": 7484,
      "ଜୋର ": 7485,
      "email ": 7486,
      "ତଲ": 7487,
      "ଯୋଗିତାରେ ": 7488,
      "pr": 7489,
      "not ": 7490,
      "ଦିନକୁ ଦିନ": 7491,
      "ସିଙ୍ଗ": 7492,
      "ଏସଆଇ": 7493,
      "ସହାୟ": 7494,
      "ସାଇଟ": 7495,
      "ୋପସାଗ": 7496,
      "ower": 7497,
      "Twitter": 7498,
      "ନ୍ୟାସନ": 7499,
      "/05": 7500,
      " କାର୍ଯ୍ୟକାରୀ": 7501,
      "eo": 7502,
      " ୱେବ": 7503,
      "ଲୋକାଲ": 7504,
      "େରୀ ": 7505,
      "କୃଷ୍ଟ": 7506,
      "ରେ କେ": 7507,
      "ାରଜ": 7508,
      " ମିଳିତ": 7509,
      "ଭବାନ": 7510,
      "Leave a ": 7511,
      "ବିଆଇ": 7512,
      "ହେଲା": 7513,
      "ଧ୍ୱ": 7514,
      "ିବାରେ ଲାଗିଛି": 7515,
      " ଓ ପରିବାର କଲ୍ୟାଣ": 7516,
      "Jan": 7517,
      "ther ": 7518,
      "v ": 7519,
      " ଶୋ": 7520,
      " ପାଣ୍ଡ": 7521,
      " ଆଗକୁ ": 7522,
      "ୱାଇ": 7523,
      " ରହିଥିଲା ": 7524,
      " ୨୯": 7525,
      "ଆଉଟ୍": 7526,
      "ବିଜେପିର ": 7527,
      " ଗୁଡିକ ": 7528,
      " ୨୭": 7529,
      " ଘଟଣାସ୍ଥଳରେ ପହଞ୍ଚି ": 7530,
      "ଅସୁବିଧା ": 7531,
      "ସଂଗଠନ": 7532,
      "ଭେଦ": 7533,
      "ଦେଓ": 7534,
      "ରୁ ଆରମ୍ଭ": 7535,
      "ଶନିବାର ": 7536,
      "Sept": 7537,
      "ାହ୍ମ": 7538,
      "ଭାଷା ": 7539,
      " ପିଲା ": 7540,
      " ମଧ": 7541,
      "ସ୍ନାନ": 7542,
      " ଏବଂ ": 7543,
      "ଉତ୍ସାହ": 7544,
      "An": 7545,
      "ଦେଲା ": 7546,
      " ଛାଡ": 7547,
      "ଟ୍ୱିଟ": 7548,
      "ୋହୂ": 7549,
      "ଆଉ କିଛି ": 7550,
      "ଡ଼ାକ": 7551,
      "://": 7552,
      "ଷଷ୍ଠ": 7553,
      "ବେଳକୁ ": 7554,
      "ଉପା": 7555,
      "ଙ୍କ ମଧ୍ୟ": 7556,
      " ନାଁ": 7557,
      " ବ୍ୟତୀତ": 7558,
      "ରାଜା ": 7559,
      "ଖ୍ୟାତ": 7560,
      " ଯାଉ": 7561,
      "ବୋଲି କ": 7562,
      "June ": 7563,
      "େପଣ": 7564,
      "ଣ୍ଟି ": 7565,
      "୦୭": 7566,
      "ଶାଲ": 7567,
      "ଅଳ": 7568,
      "/03": 7569,
      "ପଟ୍ଟନ": 7570,
      "ଫିଆ": 7571,
      "ସ୍ତି": 7572,
      "ଦିଙ୍କ ": 7573,
      "ଇମ୍ର": 7574,
      "ବାହା": 7575,
      "ଉପରକୁ ": 7576,
      "ଜିଲାପାଳ": 7577,
      " ଲକ୍ଷ ଟଙ୍କାର": 7578,
      "ବନ୍ଧୁଗଣ": 7579,
      " ଭିତରକୁ ": 7580,
      "ଚୋରି ": 7581,
      "ନିମ": 7582,
      " ଅନ୍ତ": 7583,
      "ଉତ୍ତେଜନା ": 7584,
      "କଳା ": 7585,
      "erg": 7586,
      "ବିଦ": 7587,
      "ରହିଛନ୍ତି": 7588,
      " ସିନେ": 7589,
      "ିଷ୍ଟ": 7590,
      "ସୁନ୍ଦରଗଡ": 7591,
      "୦୫": 7592,
      "ଟ୍ରା": 7593,
      " ୩୧": 7594,
      "ଶୀର୍ବାଦ": 7595,
      "ନ୍ୟାସ": 7596,
      "ସ୍ୱାମ": 7597,
      " ବିଭାଗୀୟ": 7598,
      "ମାଲିକ ": 7599,
      "କ୍ସଲ": 7600,
      "ତେବେ ଏହା ": 7601,
      "ପୂଜା ": 7602,
      "ବାରିପଦ": 7603,
      "ବିସିସିଆଇ": 7604,
      "ମାଓବାଦୀ": 7605,
      "ଂଲାଦେଶ": 7606,
      " ଅଂଚଳରେ ": 7607,
      "ht ": 7608,
      "ଜଣାଯାଇଛି ": 7609,
      "ରାଞ୍ଚଳ": 7610,
      "ଆହୁରି ମଧ୍ୟ": 7611,
      "September ": 7612,
      "ପ୍ରସିଦ୍ଧ": 7613,
      "ପରିପ୍ରେକ୍ଷ": 7614,
      "ଛକ ": 7615,
      "ାରିଥିବା ": 7616,
      "IS": 7617,
      "ଅବଶ୍ୟ": 7618,
      "ା କରିଛି ": 7619,
      " ବିଧାନସଭ": 7620,
      "ାସେବ": 7621,
      "ର ନ": 7622,
      " ରଖି ": 7623,
      "ଜର୍ସ": 7624,
      " ବର୍ଷ ପରେ ": 7625,
      "ଶ୍ରଦ୍ଧା": 7626,
      " ସମଗ୍ର": 7627,
      "କତା ": 7628,
      " ବିହାର": 7629,
      "ଥାଆନ୍ତି ": 7630,
      " ରୁହ": 7631,
      " ନିର୍ବାଚନ ": 7632,
      "ail": 7633,
      "May ": 7634,
      "ଆତ୍ମହତ୍ୟ": 7635,
      " କ୍ୟାପ": 7636,
      "ପ୍ରେର": 7637,
      " ଲକ୍ଷରୁ ": 7638,
      " ଗୁଡିକ": 7639,
      " ସଙ୍ଗୀତ": 7640,
      "ଡ ": 7641,
      "ମ୍ପରା ": 7642,
      "ଡରେ ": 7643,
      " ଅଭ୍ୟାସ": 7644,
      "ସୋମବାର ": 7645,
      "ଡର": 7646,
      "ତପ": 7647,
      " ବନ୍ଧୁ": 7648,
      "ନ୍ୟୁଜିଲାଣ୍ଡ": 7649,
      "ଉଡ଼": 7650,
      " ୨୩": 7651,
      "ଏଏସ୍": 7652,
      "ଧୂ": 7653,
      "କ୍ଷକ ": 7654,
      " ଶିଶୁ": 7655,
      "ଖଣି ": 7656,
      " ନିଶ୍ଚିତ": 7657,
      "୍ୟୁବରଣ": 7658,
      "ପ୍ତମ": 7659,
      "we": 7660,
      "ାଦୀପ": 7661,
      "ଅଧିକ ପଢ": 7662,
      "ଭ୍ୟନ୍ତରୀଣ": 7663,
      "କ୍ରୋ": 7664,
      " ହାତରେ ": 7665,
      "କମିଶ": 7666,
      " ସାମ୍ନାକୁ ଆସ": 7667,
      " ସୁନା ": 7668,
      "କେନ୍ଦ୍ରାପଡ଼ା": 7669,
      "ସମାଲୋଚନା ": 7670,
      "ଲେଖିଛନ୍ତି": 7671,
      "ୋତ୍ସାହିତ": 7672,
      " ସରକାରଙ୍କୁ ": 7673,
      "ଏଭଳି ଏକ ": 7674,
      "ରବିନ୍ଦ": 7675,
      " ଦେଖି ": 7676,
      "ଖିଳ": 7677,
      " ବାଟ": 7678,
      "ାମା ": 7679,
      ", “": 7680,
      "ପରେ ସେ ": 7681,
      "ପନ୍ନ": 7682,
      "୮ଟି ": 7683,
      "କ୍ସନ": 7684,
      " ମୁତାବ": 7685,
      "ବୋଲି କହ": 7686,
      "ମିଶ୍ରଣ": 7687,
      "କଂ": 7688,
      "ଡ଼ରେ ": 7689,
      " ବିଜେପି": 7690,
      "ସରେ ": 7691,
      "ଯିବାରୁ ": 7692,
      "ହାତୀ": 7693,
      "ପୁଣିଥରେ ": 7694,
      "ବାଲେଶ୍ୱ": 7695,
      " ସୂର୍ଯ୍ୟ": 7696,
      "................": 7697,
      "x ": 7698,
      "ଯାଇଛନ୍ତି": 7699,
      "ଉପକରଣ": 7700,
      "ଚିକ": 7701,
      "ିବା ଆରମ୍ଭ": 7702,
      " ୧୦୦": 7703,
      " ସବୁବେଳେ ": 7704,
      "କୁ ପଠାଇ": 7705,
      "ଆସନରେ ": 7706,
      "ଏହି ଆ": 7707,
      "ପଥର ": 7708,
      "ଜେଇ": 7709,
      " କରିବା ଉଚିତ": 7710,
      "ଦ୍ବାର": 7711,
      "ଲେଖିଛନ୍ତି ": 7712,
      "ମକ": 7713,
      "ସ୍କରଣ": 7714,
      "ହୋଇପାରେ ": 7715,
      " ବିକଳ୍ପ": 7716,
      "ମମତା ": 7717,
      "ସମସ୍ୟାର ସମାଧାନ": 7718,
      "over": 7719,
      "ass": 7720,
      " ଦାବି": 7721,
      "ଆଶଙ୍କା ": 7722,
      "୭୬": 7723,
      "ଇଂରାଜ": 7724,
      "ore": 7725,
      "କହିବାକୁ ": 7726,
      "ବୁଧବାର ": 7727,
      "ସ୍ୱୟଂ": 7728,
      " ପୌ": 7729,
      "3. ": 7730,
      " ନାବାଳ": 7731,
      "୫୪": 7732,
      "Cont": 7733,
      "ଜ୍ଞାପନ": 7734,
      "ଅଛନ୍ତି": 7735,
      " ବିଲ୍": 7736,
      "ବୀନ୍ଦ୍ର": 7737,
      "ଅବସ": 7738,
      "ର ପୂର୍ବତନ": 7739,
      "ବିଶେଷକରି ": 7740,
      "ରେଞ୍ଜ": 7741,
      "ସମ୍ଭ": 7742,
      " ପାଇବା ": 7743,
      "ଏବଂ ଏହା ": 7744,
      "ବିଶାଳ": 7745,
      "କଥା": 7746,
      "ଖବର ଓଡ଼ିଶା": 7747,
      " ମ୍ୟାଚ୍ରେ ": 7748,
      "ପ୍ରତିଦିନ": 7749,
      ", ‘": 7750,
      "/05/2021 ": 7751,
      "ଚାନ": 7752,
      "ନେଇଥିଲେ ": 7753,
      "ଯାହା ଫଳରେ ": 7754,
      " ନେଇଛନ୍ତି ": 7755,
      "ର ପ୍ରାୟ": 7756,
      "ା ପକ୍ଷରୁ ": 7757,
      "ଭାଷାରେ ": 7758,
      "ୂର୍ବ": 7759,
      "ସ୍ୱାଧୀନତା ": 7760,
      "ମରି": 7761,
      "ଦଳକୁ ": 7762,
      "ନିଲମ୍ବ": 7763,
      "Eng": 7764,
      "ଢି ": 7765,
      "ପିପିଲ": 7766,
      " କଟ": 7767,
      "ପ୍ରବଳ ବର୍ଷା ": 7768,
      "ଶିକ୍ଷା": 7769,
      "ଦାରଖ": 7770,
      " କେତ": 7771,
      " ୱିକେଟ": 7772,
      "ପରିଶ୍ରମ": 7773,
      "ସୀମ": 7774,
      " ଟିକାକରଣ": 7775,
      "ମର୍": 7776,
      " ଓ ନ": 7777,
      "ପୁରା": 7778,
      "େବ୍ରୁ": 7779,
      "/03/2021 ": 7780,
      " ଚିହ୍ନଟ ହୋଇଥିବା ବେଳେ ": 7781,
      "ଏକାଠି ": 7782,
      "ନ୍ତ୍ରୀ ": 7783,
      "ସରଳ": 7784,
      " କାଗଜ": 7785,
      "ମହାନଗର ନିଗମ": 7786,
      "କି ନାହିଁ": 7787,
      "ଜବ": 7788,
      "ିବା ପୂର୍ବରୁ ": 7789,
      " ଜାରି ରହିଛି ": 7790,
      "ଆରୋଗ୍ୟ": 7791,
      "ଅପହରଣ": 7792,
      " ଭାର": 7793,
      "ଫୁଲ୍ଲ": 7794,
      "ଆରି ": 7795,
      "ବିବେଚନା ": 7796,
      "ମଇ": 7797,
      "କରୋନା": 7798,
      " କାର୍ଯ୍ୟାନୁଷ୍ଠାନ ଗ୍ରହଣ": 7799,
      "ତିକ": 7800,
      " ସାମନ୍ତ": 7801,
      "Rel": 7802,
      "ହିସାବ": 7803,
      "େଦନଶୀଳ": 7804,
      "ଫ୍ରାନ୍ସ": 7805,
      "ala ": 7806,
      "ସ୍ୱୀକାର": 7807,
      " ଅପେକ୍ଷା ": 7808,
      " ଏବଂ ଆ": 7809,
      "ରେ ଅବ": 7810,
      " ରାଜଧାନ": 7811,
      "କୁ ସ୍ଥାନାନ୍ତର": 7812,
      "ମାନ୍": 7813,
      "ସୁଲ": 7814,
      "ମନ୍ତ୍ରଣାଳୟ": 7815,
      " ପଂଚାୟତ": 7816,
      "କ ଅନ୍ତର୍ଗତ": 7817,
      "ଶତକ ": 7818,
      "one": 7819,
      "s are ": 7820,
      "ସନ୍ତୁଷ୍ଟ": 7821,
      "ଟିନ୍": 7822,
      "ର କୋ": 7823,
      "ଟିମ୍ ଇଣ୍ଡିଆ": 7824,
      "ମହାସ": 7825,
      "ରିରେ ": 7826,
      " କରିବ ବୋଲି ": 7827,
      "ଅନ୍ୟ ଏକ ": 7828,
      "ିକପ୍ଟ": 7829,
      "ଏହି ଦୁଇ": 7830,
      "ର ବ୍ୟବହାର": 7831,
      " ହଜାରରୁ ଅଧିକ ": 7832,
      "ୀମା ": 7833,
      "ଶୁଭର": 7834,
      "ଯୁବତୀ ": 7835,
      " ବଙ୍ଗ": 7836,
      "ଭିଟାମ": 7837,
      " ଅଭିନେତ୍ରୀ": 7838,
      "ାନ୍ଥ": 7839,
      "ର ସମ୍ମୁଖୀନ": 7840,
      " ଶିଖ": 7841,
      "ଙ୍କ ନିକଟରେ ": 7842,
      "୮୮": 7843,
      "ଜଟିଳ": 7844,
      "ଟା ପର୍ଯ୍ୟନ୍ତ": 7845,
      "ଡାଲ": 7846,
      "ପଞ୍ଜ": 7847,
      "ସରଣ": 7848,
      "ଶ୍ରୀଲଙ୍କା ": 7849,
      "ା କରାଯାଇ": 7850,
      "ସ୍ଥାନୀୟ ଲୋକେ ": 7851,
      "ରିୟାଣ": 7852,
      "ଉପସ୍ଥିତିରେ ": 7853,
      " ଉଦ୍ଦେଶ୍ୟ": 7854,
      " ସାମଲ": 7855,
      "ୂହ": 7856,
      "ପଂଚାୟତ": 7857,
      "ପ୍ରକାରର ": 7858,
      " କମିଶନର ": 7859,
      "୦୨": 7860,
      "୭୨": 7861,
      "ଦିଆଯାଇଥିଲା ": 7862,
      "ବାରମ୍ବାର ": 7863,
      "ବେହେରା": 7864,
      "ଳେଷଣ": 7865,
      "ବର୍ଷର ": 7866,
      "ସିର ": 7867,
      " ଆସନ୍ତା ": 7868,
      "ଓଡ଼ିଶା ରିପୋର୍ଟର": 7869,
      " ପୂର୍ବତନ": 7870,
      "ବଜାୟ ରଖ": 7871,
      "ତ୍ୟାଧୁନିକ ": 7872,
      " ମୁକ୍ତ": 7873,
      "ଗ୍ରାମବାସୀ": 7874,
      "ହାର୍": 7875,
      " ଚର୍ଚ୍ଚା ": 7876,
      "ଘଟଣା": 7877,
      "କ୍ସିଜେ": 7878,
      "ଇଡି ": 7879,
      " ସବୁଠାରୁ ": 7880,
      "େବେ": 7881,
      "ଭେଣ୍ଟ": 7882,
      " ହସ୍ପିଟାଲରେ ": 7883,
      "ସନ୍ତାନ": 7884,
      "ବାରଣ": 7885,
      "ଶୁଭରଙ୍ଗ": 7886,
      "ରାଦ": 7887,
      "ତୋ": 7888,
      "ah": 7889,
      " ବାବଦ": 7890,
      "odi": 7891,
      "ମୋର୍ଚ୍ଚ": 7892,
      "ମଙ୍ଗଳବାର ": 7893,
      "ଗୁରୁବାର ": 7894,
      "ଷ୍ଟାଣ୍ଡ": 7895,
      "ଥବା ": 7896,
      "ଚଢାଉ": 7897,
      "ପ୍ରତିବର୍ଷ": 7898,
      "ଭୁଲ୍": 7899,
      "ଚରିତ୍ର": 7900,
      " ଲହର ": 7901,
      "ଯୁବକଙ୍କ ": 7902,
      " ଫେବୃ": 7903,
      " ଭବିଷ୍ୟତ": 7904,
      " କ୍ରମ": 7905,
      "ବାହାରକୁ ": 7906,
      "କାଶ୍ମୀ": 7907,
      "ର କଥା ": 7908,
      " ଜନିତ": 7909,
      "ା କଂଗ୍ରେସ": 7910,
      " ଡିଜି": 7911,
      "ଓଡ଼ିଆ ପୁଅ": 7912,
      "ମୁତାବକ": 7913,
      " ସ୍ଥାପନ": 7914,
      "ବିରୋଧୀ ଦଳ": 7915,
      "ୂଜ": 7916,
      " ଭୋଗ": 7917,
      "ରିବ": 7918,
      "ିମ୍": 7919,
      " ଘଟଣାରେ ": 7920,
      " ପ୍ରତିବାଦ": 7921,
      "ଖାନା ": 7922,
      "ଗତ ୨୪ ଘଣ୍ଟାରେ ": 7923,
      "୬୨": 7924,
      " ସ୍ମ": 7925,
      " ବିଶ୍ୱାସ": 7926,
      "ା କଲେ ": 7927,
      "ଦରକାର ": 7928,
      "ସମ୍ବାଦ": 7929,
      "ଜଣେ ବ୍ୟକ୍ତି ": 7930,
      " ନିଯୁକ୍ତି ": 7931,
      " ଖେଳି ": 7932,
      " ବୟସ୍କ ": 7933,
      " ୟୁକ୍ର": 7934,
      "ମାତ୍ରେ ": 7935,
      "ର ସରକାର": 7936,
      "ଧାର୍ଯ୍ୟ": 7937,
      "ୋତ୍ସବ": 7938,
      "ଦେହାନ୍ତ": 7939,
      " ଟେକ୍": 7940,
      "ାପତି": 7941,
      "ପୋଖରୀ": 7942,
      "ସ୍ ": 7943,
      "ଯୋଗ ଦେଇ": 7944,
      "କମିଟି ": 7945,
      " ଇନିଂସ": 7946,
      "ସୋସିଆଲ ମିଡିଆ": 7947,
      "ପ୍ରାଚ": 7948,
      "ମାର୍କ": 7949,
      "ତ୍ମହତ୍ୟା ": 7950,
      "କାତା ": 7951,
      " ଉଦ୍ୟୋଗ": 7952,
      "ଶୁଭେଚ୍ଛା ": 7953,
      "21": 7954,
      "ଯେପରିକି ": 7955,
      "the f": 7956,
      " ବର୍ଷରେ ": 7957,
      "se ": 7958,
      " ଆଗରେ ": 7959,
      "ନିର୍ଯାତ": 7960,
      " ରୋଗୀ": 7961,
      "ବୃଷ": 7962,
      "ନା କରି ": 7963,
      "ସିଆଲ୍": 7964,
      "େରା": 7965,
      "ପ୍ରତିନିଧି ": 7966,
      "କଣ୍ଟ": 7967,
      "ବିକ୍ଷୋଭ": 7968,
      "କାର୍ଯ୍ୟାନୁଷ୍ଠାନ ଗ୍ରହଣ": 7969,
      "ଆଶଙ୍କ": 7970,
      "ଆଇନ୍": 7971,
      "ପଡ଼ିବ ": 7972,
      " ଏଥିପାଇଁ": 7973,
      " ଦେଖାଇ": 7974,
      "ଯାଦବ": 7975,
      "ଶାଳୀ": 7976,
      " କୃଷ୍ଣ": 7977,
      " ସଂସ୍କୃତି": 7978,
      " ଦେଇଛି": 7979,
      "ଗାଈ": 7980,
      " ସୁଦ୍ଧ": 7981,
      "ୱାନ": 7982,
      "ବିବାଦୀୟ": 7983,
      " ସମ୍ପାଦ": 7984,
      "ଉପସ୍ଥାପନ": 7985,
      "ରେ ଫ": 7986,
      "୫୩": 7987,
      "ବସି ": 7988,
      " କାର୍ୟ୍ୟ": 7989,
      "ି ପୋଲିସ": 7990,
      "ଯାବ": 7991,
      "inter": 7992,
      "କିଆ": 7993,
      " ଅଲ": 7994,
      " ଜୀ": 7995,
      "ି ଏବଂ": 7996,
      "ଗ୍ରାହକ ": 7997,
      " ଜଡ଼ିତ": 7998,
      "ଭଣ୍ଡାର": 7999,
      "ାବା": 8000,
      "ମାରି ": 8001,
      "ଜୀବନଚର୍ଯ୍ୟ": 8002,
      "ରେ ରହୁଥିବା ": 8003,
      "ଐତି": 8004,
      "୦୩": 8005,
      "ନ ଥିବା ": 8006,
      "Edit": 8007,
      "ଣ ": 8008,
      "ଲାଗି": 8009,
      " ସେନ": 8010,
      "୬୪": 8011,
      "ମୋଦୀ": 8012,
      "ରେ ପହଞ୍ଚିଛି ": 8013,
      "ଗର୍": 8014,
      "କ୍ଷି": 8015,
      "ଓଜନ": 8016,
      "ରାଜସ୍ୱ": 8017,
      "ନିର୍ଦ୍ଧାରିତ": 8018,
      "ର ବ୍ଲ": 8019,
      " ଚାଷୀ": 8020,
      "ପ୍ରଶାସନ ": 8021,
      "ତାଙ୍କ": 8022,
      "ମାସ୍": 8023,
      "ମେଷ": 8024,
      "ସ୍ୱାର୍ଥ": 8025,
      " ବାଣିଜ୍ୟ": 8026,
      " ସରକାରୀ ": 8027,
      "ବିଶ୍ୱର ": 8028,
      " ସୀମା ": 8029,
      "ପଣ୍ଡ": 8030,
      " ଦିନିକିଆ": 8031,
      "ସୀମା ": 8032,
      "ଯାହାଦ୍ୱାରା ": 8033,
      "ରୁ ୩": 8034,
      "rig": 8035,
      " ପଜିଟିଭ୍": 8036,
      "ଉପକୃତ": 8037,
      "ଧାନରେ ": 8038,
      "ଏହିଭଳି ": 8039,
      " ମୁହଁ": 8040,
      "ୁହାଁ": 8041,
      "ଭାଲ": 8042,
      "୍ୟାର": 8043,
      "ହେବାର": 8044,
      " ସୃଷ୍ଟି ହୋଇ": 8045,
      "ମିଳିଛି": 8046,
      "ଆସନ": 8047,
      "।\n2. ": 8048,
      "ଜାନୁଆରୀ ": 8049,
      " ରାତି ": 8050,
      "କରିବା ପାଇଁ": 8051,
      "ାର ବିଷୟ": 8052,
      "େଟର ": 8053,
      "ସଚେତନତା ": 8054,
      "Wi": 8055,
      "କେଣ୍ଡ": 8056,
      "ସ ": 8057,
      " ଲେ": 8058,
      " ଅନୁକୂଳ": 8059,
      " ୨୦୨୧": 8060,
      "ୋତ୍ତମ": 8061,
      "enc": 8062,
      "୍ତ୍ତିକ ": 8063,
      "ୁ୍ୟ": 8064,
      "ଣ୍ତ": 8065,
      ".)- ": 8066,
      "ଲକ୍ଷ୍ନୌ": 8067,
      "ିତ ହୋଇଥିଲା": 8068,
      "ଚନ୍ଦନ": 8069,
      "ଭର୍": 8070,
      " ଦର": 8071,
      " ଟେ": 8072,
      "ଞ୍": 8073,
      "େମୁଣ୍ଡ": 8074,
      "ବହୁଳ": 8075,
      " ପୃଷ୍ଠ": 8076,
      "ନୟାଗଡ": 8077,
      " ଆକ୍ରାନ୍ତଙ୍କ ସଂଖ୍ୟା ": 8078,
      " କରିଥିଲ": 8079,
      "ସେଣ୍ଟ": 8080,
      "ସାମ୍ବାଦିକ": 8081,
      "ସ୍ତର ": 8082,
      " ପଟେଲ": 8083,
      " ମଇ": 8084,
      " ଭୁଲ": 8085,
      "ଠାରୁ ଅଧିକ ": 8086,
      "websit": 8087,
      " ଗୁରୁବ": 8088,
      "January ": 8089,
      "ବିକଳ୍ପ": 8090,
      " ଏମ": 8091,
      "ଚାଷୀମାନେ ": 8092,
      "ମ୍ଭୀର ": 8093,
      "ଆଗାମୀ": 8094,
      "ain": 8095,
      " ହୃ": 8096,
      "ତାଙ୍କର": 8097,
      "ୁରା": 8098,
      " ଗ୍ରୁ": 8099,
      "ସୂଚନା ଦିଆଯାଇଛି": 8100,
      "ଭୂତାଣୁ ": 8101,
      " ଥିବାବେଳେ ": 8102,
      " ପ୍ରାଥମିକ ": 8103,
      " ହିତାଧିକାରୀ": 8104,
      "ଘରକୁ ଫେର": 8105,
      " ବାଲେ": 8106,
      "ଦଶମ": 8107,
      " ହକି ": 8108,
      "ମହାନଦୀ": 8109,
      "ଅସ୍ତ୍ର": 8110,
      "ାରେ ଥିବା ": 8111,
      "ଶ୍ରଦ୍ଧାଳ": 8112,
      "କରାଯାଇ": 8113,
      "ା ପାଇ": 8114,
      " ଆତଙ୍କବାଦୀ": 8115,
      "ରେ ତାଙ୍କ ": 8116,
      " ଆଦ": 8117,
      "ରେ କରା": 8118,
      "ଦ୍ୱୀପ": 8119,
      " ରାଶି ": 8120,
      "ନ୍ତର୍ଜାତ": 8121,
      " ରହିଥାଏ": 8122,
      " ଟୁ": 8123,
      "ାଧୀନ ": 8124,
      " ଜନସାଧାରଣ": 8125,
      "ବିରୋଧୀ": 8126,
      " ପାଣିପାଗ": 8127,
      "କୁମାର": 8128,
      "ହସ୍ତାନ୍ତର": 8129,
      "ublished": 8130,
      "ରେ କୁହା": 8131,
      "ବାତିଲ": 8132,
      "ଦେଲେ": 8133,
      "ରହିଥିଲା": 8134,
      " ବାସି": 8135,
      " ନେଇଥିବା ": 8136,
      "ନବା": 8137,
      " ଅସ୍ତ୍ର": 8138,
      "ସମ୍ବୋଧ": 8139,
      "ୁନାହିଁ": 8140,
      "ମହାନ୍ତି": 8141,
      "ା କମି": 8142,
      "ଟିକେ ": 8143,
      " ଆମେରିକା ": 8144,
      "ାର ଏକ ": 8145,
      "ଆମେରିକାର": 8146,
      "ଭୀ": 8147,
      " ମାର୍ଗ": 8148,
      "ଟେନ୍": 8149,
      " ଗତି ": 8150,
      "ହ୍ୱ": 8151,
      " ପଟ": 8152,
      ".) - ": 8153,
      "ଅଗ୍ନିଶମ": 8154,
      "ଶ୍ରୀ ପ୍ରଧାନ": 8155,
      " ଗ୍ରୀ": 8156,
      " ହସ": 8157,
      "ଆମ୍ଭ": 8158,
      "୮୯": 8159,
      "ଅନୁସାରେ": 8160,
      " ସାମଗ୍ରୀ ": 8161,
      "ram": 8162,
      "Li": 8163,
      "ir ": 8164,
      " ହେବା ପାଇଁ": 8165,
      " ଟଙ୍କା": 8166,
      " କରିପାରନ୍ତି ": 8167,
      "ଶ୍ରୀମତ": 8168,
      "ସରପଞ୍ଚ": 8169,
      " ଲିଟର ": 8170,
      "ପ୍ରୀତ": 8171,
      "ହୃଦ": 8172,
      "ବଲାଙ୍ଗିର ": 8173,
      "ଘଟିଥିଲା ": 8174,
      "ଫିଙ୍ଗ": 8175,
      "add": 8176,
      "ୋସିଏସ": 8177,
      "Your ": 8178,
      "ନିକ୍": 8179,
      " ଇନଷ୍ଟ": 8180,
      "ତାଙ୍କର ମୃତ୍ୟୁ ": 8181,
      " ହେବାରେ ଲାଗିଛି ": 8182,
      " ସେତିକି ": 8183,
      " ସର୍ବାଧିକ ": 8184,
      " ସ୍ଥଳ": 8185,
      " ଗାଇଡ": 8186,
      "ଏଣିକି ": 8187,
      "୦୪": 8188,
      "ାହାରି ": 8189,
      "ଅଟୋ": 8190,
      "ରାହ": 8191,
      "ାବିତ୍": 8192,
      " ଉତ୍ତର": 8193,
      "ବାଧ୍ୟତାମୂଳ": 8194,
      "ଏସି ": 8195,
      "ାହତ": 8196,
      "ି କେହି ": 8197,
      "ଝୁଲ": 8198,
      "ଡ଼ାନ୍ତ": 8199,
      "।[": 8200,
      "ିସବୁ ": 8201,
      "ାଉନ୍": 8202,
      " ନେଇଥିଲେ": 8203,
      "ରେ ରହି ": 8204,
      " ଗ୍ରାମର ": 8205,
      "ାମଚ": 8206,
      "ରାହୁଲ ଗାନ୍ଧ": 8207,
      "ଙ୍କ ପାଖ": 8208,
      " ଚାକି": 8209,
      "ନେଇଥିବା ": 8210,
      " କ୍ୟାମ୍ପ": 8211,
      " ପିଛା ": 8212,
      "ସେଠ": 8213,
      "ପିଟି ": 8214,
      " ସଂଘର୍ଷ": 8215,
      "ୋକ୍ତ": 8216,
      "ରାଉରକେଲା ": 8217,
      "୦୬": 8218,
      "English": 8219,
      "ରାଷ୍ଟ୍ରପତି": 8220,
      " ମାର୍": 8221,
      "କମ୍ପାନୀ": 8222,
      "ଦିନ ହେବ": 8223,
      "ଐତିହ୍ୟ": 8224,
      " ଧାରଣ": 8225,
      "ଦିନଟି ": 8226,
      "ନିଶ": 8227,
      " ବର୍": 8228,
      "ରିତ": 8229,
      "୪ଜଣ": 8230,
      " କଂ": 8231,
      "ଏହି କାରଣରୁ ": 8232,
      " ଫସଲ": 8233,
      "ମାନଙ୍କରେ ": 8234,
      "ଦାବାଦ": 8235,
      "ଆଜି ସକାଳେ ": 8236,
      "ାଯାଇ": 8237,
      " ହୋଇପଡ": 8238,
      "କ୍ରାଇମବ୍ରାଞ୍ଚ": 8239,
      "ଘୋଷଣା କରିଛନ୍ତି ": 8240,
      "ବ୍ଲକ୍": 8241,
      "ଆଗାମୀ ଦିନରେ ": 8242,
      " ନେତା": 8243,
      "ନମୁନା ": 8244,
      "ବନ ": 8245,
      "।' ": 8246,
      "ଲାଇନରେ ": 8247,
      "ରିଫ": 8248,
      " ଥାଏ": 8249,
      "ଝାଡ଼": 8250,
      "ath": 8251,
      "ହୋଇଥିଲେ ": 8252,
      " ସଭ୍ୟ": 8253,
      "ବିଶ୍ଵ": 8254,
      "ଗୃ": 8255,
      "ାଏଲ": 8256,
      "ନୀୟ ଘଟଣା ": 8257,
      "ନିଧ": 8258,
      " ରହିଛନ୍ତି": 8259,
      "ଲକ୍ଷ ଟଙ୍କା ": 8260,
      "ସିରି": 8261,
      "ଜଣେ": 8262,
      "ମହାନ୍ତି ": 8263,
      " ବେଶ୍": 8264,
      "https": 8265,
      "ପ୍ରକାଶ କରିଛନ୍ତି ": 8266,
      " ଲଢ଼": 8267,
      "lo": 8268,
      "ା କରାଯାଉଛି": 8269,
      "ରୁମ": 8270,
      "ଶୁଭ ରଙ୍ଗ": 8271,
      "ରିମାନା ": 8272,
      "ରେ ନିଜ": 8273,
      " କରିଥିବାରୁ ": 8274,
      "ାଇଟ୍": 8275,
      "ଷ୍ଟି": 8276,
      "Power": 8277,
      "ଏହା ଉପରେ ": 8278,
      " ସାଗ": 8279,
      "ଜେନ୍ସ": 8280,
      "ରେ ପଡ଼": 8281,
      "ାଚଳ": 8282,
      "ଆଗରୁ ": 8283,
      "ଅଭିନେତ୍ରୀ ": 8284,
      "ଆମ୍ବୁଲାନ୍ସ": 8285,
      "ସୁପର": 8286,
      "Post ": 8287,
      "େନାଲ": 8288,
      "ତିନିଟି ": 8289,
      "କାରବାର": 8290,
      "ଟିକସ": 8291,
      "ରେ ଆଜି ": 8292,
      " ପରୀକ୍ଷଣ": 8293,
      "ା ଗାନ୍ଧ": 8294,
      " ବିପକ୍ଷରେ ": 8295,
      "ସ୍ଥାୟୀ ": 8296,
      "କେହ": 8297,
      "ଲଟ": 8298,
      "ଠାକୁର": 8299,
      " ଶର୍ମା": 8300,
      "ଗୀ": 8301,
      "ନର୍": 8302,
      "ଗଡା ": 8303,
      "ଟଲ": 8304,
      "ର ଫ": 8305,
      "ାପୁର": 8306,
      "ବୁଦ୍ଧ": 8307,
      " ବିଶ୍": 8308,
      "ସମୃଦ୍ଧ": 8309,
      "ସାହସ": 8310,
      " ଓଡ଼ିଶାର": 8311,
      "ଟିକେଟ": 8312,
      " ଭଦ୍ର": 8313,
      "ପ୍ରମୋଦ": 8314,
      " ଜରିଆ": 8315,
      " ପ୍ରଭାବରେ ": 8316,
      "ପାଠୀ": 8317,
      "ିତ ହୋଇଥିଲେ ": 8318,
      "ାପିତ": 8319,
      "ଖାଇବାକୁ ": 8320,
      "ଶୃଙ୍ଖଳା ": 8321,
      "ଅଭିଯୋଗ ହୋଇଛି": 8322,
      "ଦୁଲ": 8323,
      "ିକିତ୍ସାଧୀନ": 8324,
      " କଥା": 8325,
      " ଷ୍ଟ୍ର": 8326,
      "ଚିହ୍ନ": 8327,
      "ଜାଇନ": 8328,
      "୍ୟାକ": 8329,
      "ଛୁଟି ": 8330,
      " ବାରମ୍ବ": 8331,
      "ଆଘାତ": 8332,
      "ଦିନିକିଆ": 8333,
      "ସାୟ": 8334,
      "ବରଗଡ": 8335,
      "ାଉଛି": 8336,
      "ପ୍ରଦୂଷଣ": 8337,
      "ିଲେଣି ": 8338,
      "ଷ୍ଣୁ ": 8339,
      "ା କହିଛନ୍ତି": 8340,
      "ଅଗ୍ର": 8341,
      " ବାହିନୀ": 8342,
      " ଦ୍ରୁତ": 8343,
      "ବାଲେଶ୍ୱର": 8344,
      " ଓ ଅନ୍ୟ": 8345,
      " ତମ": 8346,
      "ନେତାଙ୍କ ": 8347,
      " ଆପ୍": 8348,
      "ୋଶୀ ": 8349,
      " ପ୍ରଶାସନ": 8350,
      "ରେ ବିଜୟ": 8351,
      "ହିଣୀ": 8352,
      "ଭାରତ ସରକାର": 8353,
      "the": 8354,
      "ଅଁ": 8355,
      " ଚିକିତ୍ସା ": 8356,
      "ା ସୃଷ୍ଟି କର": 8357,
      "ରନ": 8358,
      "ବୋଲି ସେ ": 8359,
      "ନ୍ଧୁ ": 8360,
      " ସାଂ": 8361,
      "ା କିଛି ": 8362,
      "ect ": 8363,
      " କରୁ ": 8364,
      "ଏଆଇ": 8365,
      "ି କରାଯାଇଥିଲା": 8366,
      "ବାୟୁ": 8367,
      "ତା ପାଇଁ": 8368,
      " ଏତେ ": 8369,
      "ହୁଏତ": 8370,
      " ଔଷଧ": 8371,
      "ମୃତକ ": 8372,
      "୮ ": 8373,
      " ଶର୍ମା ": 8374,
      "ନ ଦେଇ": 8375,
      "ଇନ୍ଦ": 8376,
      "କ୍ରୀଡ଼": 8377,
      "ରୋଷେଇ": 8378,
      "Goo": 8379,
      "କରିଥିଲେ": 8380,
      " ହର": 8381,
      "ିଲ୍ଡ": 8382,
      "ମହାମାରୀ ": 8383,
      "ରଖିଛି ": 8384,
      "ସଙ୍ଗୀତ": 8385,
      "ଙ୍କ ନିକଟ": 8386,
      " ଭୂମ": 8387,
      "ବର୍ଷରେ ": 8388,
      "ଷ୍ଟେଲ": 8389,
      "ିକ ଓ": 8390,
      " ଶକ୍ତ": 8391,
      "ଭିନ୍ନ ଭିନ୍ନ": 8392,
      " ପଞ୍ଜ": 8393,
      "ହକି ": 8394,
      "ିଯାଇଛି ": 8395,
      " ଯାତ୍ରା ": 8396,
      " ବିଭାଗ ": 8397,
      "Last ": 8398,
      " ସମୁଦ୍ର": 8399,
      "ଉଦ୍ଦେଶ୍ୟରେ ": 8400,
      "ସାବଧାନ": 8401,
      " ପୁରୀ": 8402,
      "ଦେଖିବାକୁ ମିଳିଥିଲା ": 8403,
      "ଭିତରୁ ": 8404,
      "ଏସ୍ପି ": 8405,
      "ବୁକ୍": 8406,
      "ଏହିସବୁ ": 8407,
      "ନିଶ୍ଚୟ": 8408,
      "read ": 8409,
      " ସମ୍ପତ୍ତି ": 8410,
      "ନିଷ୍ପତି ": 8411,
      "୫୧": 8412,
      " ସଚେତନ": 8413,
      "ନିଆଁ ଲାଗ": 8414,
      " ବାବଦରେ ": 8415,
      "ନିନ୍ଦ": 8416,
      " ଫୋନ୍": 8417,
      " ତହସିଲ": 8418,
      "ଆହୁରି ଦେଖନ୍ତୁ ": 8419,
      "ସ୍ତୁ": 8420,
      "ର୍ଣ୍ଣାମେଣ୍ଟ": 8421,
      "କାଗଜ": 8422,
      "ାର୍ବଜ": 8423,
      "ଯିବା ସହ": 8424,
      "ପତ୍ତି ": 8425,
      " ମୁଦ୍ର": 8426,
      "ାକୁ ଆସ": 8427,
      "କ୍ଷିପ୍ତ": 8428,
      " ଦିନିଆ": 8429,
      " ଏନ୍": 8430,
      "ହୁଏ ": 8431,
      "ନିଜ ନିଜ": 8432,
      "ରେ ସର୍ବାଧିକ ": 8433,
      "ଏକାଠ": 8434,
      "ାଟି": 8435,
      "ରେ ଆୟୋଜିତ": 8436,
      " କରାଯାଇଥିବା ବେଳେ ": 8437,
      "ଜମା ": 8438,
      " ମୁତୟନ": 8439,
      "ୁଦ୍ରିକ ": 8440,
      "ଜିଲାରେ ": 8441,
      "ଦମ୍ପ": 8442,
      " କହି ": 8443,
      "ମାନଙ୍କର": 8444,
      "00 ": 8445,
      " କଣ୍ଟ": 8446,
      " ପଦାର୍ଥ": 8447,
      "କ୍ରମାଗତ": 8448,
      "ନୀଲ": 8449,
      "୭୧": 8450,
      "୍ୟାପ": 8451,
      "ସ୍ଥାପିତ": 8452,
      "ଜିନ": 8453,
      "ପାରିନ": 8454,
      "ରେ ଆଗ": 8455,
      "ିକରେ ": 8456,
      "୍ର୍": 8457,
      " ରହିବାକୁ ": 8458,
      "ନାରୀ": 8459,
      "ନାବାଳିକା ": 8460,
      " କରୋନାରେ ": 8461,
      "ର ଭାବେ ": 8462,
      "ଯେତିକି ": 8463,
      "ାବାର୍ତ୍ତ": 8464,
      " ନନ୍ଦ": 8465,
      " କାର୍ଯ୍ୟାଳୟରେ ": 8466,
      "ମେଶ": 8467,
      "କ୍ଷିତ": 8468,
      "ଜେଣ୍ଟ": 8469,
      "Ex": 8470,
      "ପରାସ୍ତ": 8471,
      "ଏବଂ ଅ": 8472,
      "ନିମ୍ନ ": 8473,
      "4. ": 8474,
      " ପଞ୍ଚ": 8475,
      "ସୂଚନାନୁ": 8476,
      "କରୋନା ଆକ୍ରାନ୍ତ": 8477,
      "ିଙ୍କୁ ": 8478,
      "ଙ୍ଘ": 8479,
      "ଆଦର୍ଶ": 8480,
      " ସମିତ": 8481,
      "co": 8482,
      "ଟ୍ବି": 8483,
      "ପୁରର ": 8484,
      "ମୂଳକ ": 8485,
      "news": 8486,
      " ହେବାର ସମ୍ଭାବନା ": 8487,
      "ଖସି ": 8488,
      "ମ୍ବା": 8489,
      "ନୁଷ୍ଠାନ": 8490,
      "ରେ ପକାଇ": 8491,
      "ବଂଶ": 8492,
      " ଗୁଡ଼ିକ ": 8493,
      "ବୃହତ": 8494,
      "ଏହି ବୈଠକରେ ": 8495,
      " କହିଛି": 8496,
      "ାର୍ଣ୍ଣିଂ": 8497,
      "ମାଧ": 8498,
      " ନିଜକୁ ": 8499,
      " ଆଜି": 8500,
      " ବାଳ": 8501,
      "ବିଭାଗର ": 8502,
      " ପ୍ରଶ୍ନ ": 8503,
      "ଅଭିଭାବ": 8504,
      " ସୋସିଆଲ ମିଡିଆରେ ": 8505,
      "ସୂଚନା ଅନୁଯାୟୀ ": 8506,
      "ଡିକୁ ": 8507,
      "ଆରାଧ": 8508,
      "Related ": 8509,
      " ବିସ୍ତ": 8510,
      " ମୃତ୍ୟୁ ସଂଖ୍ୟା ": 8511,
      " ସପ୍ତାହରେ ": 8512,
      "ଳାସ": 8513,
      "ରାଶିର ": 8514,
      " କିଛି": 8515,
      "ମୋହ": 8516,
      "୭୪": 8517,
      "war": 8518,
      " ପାଞ୍ଚ": 8519,
      "ପରବର୍ତ୍ତୀ ସମୟରେ ": 8520,
      "ରାଜଧାନୀରେ ": 8521,
      "ଜେନ୍ସି ": 8522,
      " ମାନବ": 8523,
      "ଉଦ୍ୟୋଗ": 8524,
      "repl": 8525,
      "ଆଦିବାସୀ": 8526,
      "ାକୁ": 8527,
      "ନିର୍ଦ୍ଦେଶ ଦେଇଛନ୍ତି ": 8528,
      "ବ୍ୟବହାର ": 8529,
      "ଶୈଳୀ": 8530,
      "ମ୍ଫ": 8531,
      "ଖୋଲା ": 8532,
      "ଟଙ୍କା": 8533,
      " ଚାହ": 8534,
      "ସ୍ମିତ": 8535,
      "ପାରମ୍ପରିକ ": 8536,
      "ଳୟ": 8537,
      "ଏପଟେ ": 8538,
      "ଶାସିତ": 8539,
      "ଚ୍ଛାସେବ": 8540,
      " ବାଧ୍ୟ": 8541,
      " ପୁରୁଣା ": 8542,
      "ଭିବୃଦ୍ଧି ": 8543,
      "ାୟାମ": 8544,
      "ଷ୍ଟୋ": 8545,
      "ପହଂଚ": 8546,
      "ଶୁଭ ଅଙ୍କ ": 8547,
      "ଧାର୍ମିକ ": 8548,
      "ାଦୁ": 8549,
      "ଟାଙ୍ଗ": 8550,
      "ଉଜ୍ଜ": 8551,
      "ଦେଇଥାଏ": 8552,
      "ବିପୁଳ": 8553,
      " ଠିକ୍": 8554,
      "act ": 8555,
      ") , ": 8556,
      " କୋଲ": 8557,
      "ଦିନିଆ": 8558,
      "ଆୟୋଗ": 8559,
      " ପରିସ୍ଥିତିରେ ": 8560,
      "ଭାଇରସ୍": 8561,
      "ସୂଚନାଯୋଗ୍ୟ ଯେ": 8562,
      "ଭ୍ରମଣ": 8563,
      "ମୁଖ୍ୟତଃ": 8564,
      " ସୁସ୍ଥ ହୋଇ": 8565,
      "ସମ୍ପର୍କୀୟ": 8566,
      "ମସ": 8567,
      "ି ପାଇଁ": 8568,
      " ବ୍ରହ୍ମ": 8569,
      " ୬୦": 8570,
      " ରାଇ": 8571,
      "କୁ ନିଆ": 8572,
      "ି ପଡ": 8573,
      "ମିଲ": 8574,
      "େବେଳ": 8575,
      "ସମ୍ମାନିତ": 8576,
      "ତେଜ": 8577,
      "ଅନନ୍ତ": 8578,
      " କର୍ମଚାରୀମାନେ ": 8579,
      "ହାତୀ ": 8580,
      "ଆଳ": 8581,
      "ସତ୍ତ୍ୱେ ": 8582,
      "ୁନ ": 8583,
      "ାଙ୍କ ସହ": 8584,
      "ଅଭିଯୋଗ ଆଣ": 8585,
      "Apri": 8586,
      " କୃଷକ ": 8587,
      "ରୁ ଇସ୍ତଫା ": 8588,
      "ଜେନା ": 8589,
      " ପରିଦର୍ଶନ": 8590,
      "Sh": 8591,
      " ବେହେର": 8592,
      "ମଡେଲ": 8593,
      "ଟିଶ": 8594,
      "ିୟମ": 8595,
      "ବିକଶିତ": 8596,
      "ାଗାର": 8597,
      "iel": 8598,
      "ସାଜ": 8599,
      "ଜଳସେ": 8600,
      "କେନ୍ଦ୍ରାପଡ଼ା ": 8601,
      " ହୋଇଯାଇଥିଲା ": 8602,
      "2020": 8603,
      "ଭାନ": 8604,
      " ପୁସ୍ତ": 8605,
      " ମମତା ": 8606,
      "ୂର୍ବରୁ ": 8607,
      "ପାରିଶ": 8608,
      "ବଦ୍ଧ": 8609,
      "ସୁଥିବା ": 8610,
      " ପଞ୍ଜାବ": 8611,
      "ଥିବେ": 8612,
      "ame": 8613,
      " ସଙ୍କଟ": 8614,
      " ଭାରତର ": 8615,
      "ଟ୍ୟା": 8616,
      " ହେବାକୁ ଯାଉଛି ": 8617,
      " ସଂକ୍ରମିତ ହୋଇ": 8618,
      " ସନ୍ଧ୍ୟାରେ ": 8619,
      "ଇନଷ୍ଟ": 8620,
      "ହାରୀ": 8621,
      "ା କରୁଛି ": 8622,
      "ଅପରପକ୍ଷ": 8623,
      "ନଥିଲେ": 8624,
      "ନାମାଙ୍କ": 8625,
      "ଚିନ୍ତା ": 8626,
      "ବ୍ଲକ": 8627,
      "ଉଦଘାଟନ": 8628,
      "ଡ଼ିକାଲ": 8629,
      " ମୋବାଇଲ": 8630,
      "time ": 8631,
      "ଙ୍କ ନେତୃତ୍ୱରେ ": 8632,
      "ାବଶ୍ୟକ ": 8633,
      "ers ": 8634,
      "ବାମ": 8635,
      "ଲପୁର ": 8636,
      "ଏହା ହେଉଛି ": 8637,
      "କଲ୍ୟାଣ": 8638,
      "has ": 8639,
      "ତ୍ତ୍": 8640,
      "ଚଳାଚଳ": 8641,
      " ୨୦୨୦": 8642,
      "ଲାଗିଥିବା ": 8643,
      "ଗୁଣ୍ଡ": 8644,
      "ଦିନ ପୂର୍ବରୁ ": 8645,
      "ସଂପର୍କ ": 8646,
      "ରେ କେବଳ": 8647,
      " ପୋର୍ଟ": 8648,
      "ଆଧାରିତ": 8649,
      "ପ୍ରତାପ": 8650,
      " ବୈଜ୍ଞାନ": 8651,
      "ଅପରାହ୍ନ ": 8652,
      "ଆୟୁ": 8653,
      " ଶୃଙ୍ଖ": 8654,
      " ଛୁଇଁ": 8655,
      "ଦେବା ପରେ ": 8656,
      " ୨ଟି ": 8657,
      "ଗ୍ନିଶମ": 8658,
      "ଗ୍ରହଣ କରିଥିଲେ ": 8659,
      "୯୫": 8660,
      "କୁଦ": 8661,
      " ଦିଆଯାଇଥିଲା ": 8662,
      " ସିଧ": 8663,
      " ସନ୍ତାନ": 8664,
      "କେନ୍ଦ୍ରାପଡା ": 8665,
      "ଣାକୁ ": 8666,
      " ମିଡ଼ିଆ": 8667,
      "ବସନ୍ତ": 8668,
      "ା କୁ": 8669,
      "P ": 8670,
      "୭୩": 8671,
      "e of ": 8672,
      "ରେ ପହଂଚ": 8673,
      "ଡିଜେଲ": 8674,
      " ଆସିବା ପରେ ": 8675,
      " ବନ୍ଧୁ ": 8676,
      " ବ୍ୟକ୍ତିଗତ": 8677,
      "ାହାଣ୍ଡି ": 8678,
      "ା କରୁଛନ୍ତି ": 8679,
      " ଦେବା": 8680,
      "ପ୍ରଥମ ଥର ପାଇଁ": 8681,
      "ପ୍ରଧାନମନ୍ତ୍ରୀ ନରେନ୍ଦ୍ର ମୋଦି ": 8682,
      " ମ୍ୟାନେଜ": 8683,
      "ରେ ରହିଛି ": 8684,
      " ସିଷ୍ଟମ": 8685,
      " ବିଧାୟକ": 8686,
      "ଯୁବକ": 8687,
      "ିବା ସମୟରେ ": 8688,
      "ଆଞ୍ଚଳିକ ": 8689,
      "ନ୍ୟାସନାଲ": 8690,
      "ଠାବ": 8691,
      "ଅନୁଗୋଳ": 8692,
      "Sub": 8693,
      "୬୩": 8694,
      " ବ୍ୟୟ": 8695,
      "ଲଢ": 8696,
      " ସଂସ୍କାର": 8697,
      " ମହାନ": 8698,
      "ଗ୍ରାମବାସୀ ": 8699,
      "India": 8700,
      "ric": 8701,
      "ର୍ଦ୍ଧ୍ବ": 8702,
      "ନ୍ଦର ": 8703,
      "ଉଦୟ": 8704,
      "କେନ୍ଦ୍ରମନ୍ତ୍ରୀ ": 8705,
      "Goog": 8706,
      " କର୍ପୋର": 8707,
      "ନବୀନ ": 8708,
      "ଅନ୍ଧ": 8709,
      "ନା କରି": 8710,
      "comment": 8711,
      "ଣମୂଳ": 8712,
      "ଦାରି": 8713,
      "ଟଙ୍କାରେ ": 8714,
      "ଯେଉଁଥିପାଇଁ": 8715,
      "ପରିଚାଳିତ": 8716,
      "ାପକ ": 8717,
      "l  ": 8718,
      "Email": 8719,
      "ver": 8720,
      "March ": 8721,
      "ରୁ ୧୦": 8722,
      " ଚଢ଼": 8723,
      " ତାପ": 8724,
      "ଏକ ବଡ଼": 8725,
      "ଦାନ୍ତ": 8726,
      " ମୋତେ ": 8727,
      "ତାକା ": 8728,
      "ତାବରଣ": 8729,
      "ଶୋଭା": 8730,
      "ଏହି କାର୍ଯ୍ୟକ୍ରମରେ ": 8731,
      " ବାଧ": 8732,
      "ସନ୍ଧ୍ୟାରେ ": 8733,
      "ଯୋଜକ ": 8734,
      "ାବାହ": 8735,
      "ତ୍ୟେକ ": 8736,
      "hour": 8737,
      "ମାତା ": 8738,
      " ମିଳିଛି": 8739,
      "ବ୍ୟବହାର କରି ": 8740,
      " ଚତୁ": 8741,
      "ଜାତିର ": 8742,
      "ାଗ୍": 8743,
      "ୁଷ୍ୟ": 8744,
      "ବାସି": 8745,
      "ରେ ସାମ": 8746,
      "ରଖନ୍ତୁ ": 8747,
      "ଞ୍ଚଳର ": 8748,
      "କୁ ଅଧିକ ": 8749,
      " ତୁମ": 8750,
      " ଲିମିଟେ": 8751,
      "ସାଉ": 8752,
      "ସଂଖ୍ୟକ ": 8753,
      " ଏକର ": 8754,
      "ନିରାଶ": 8755,
      "ବରଣ": 8756,
      " ଓମିକ୍ର": 8757,
      "ଝାରସୁଗୁଡ଼ା ": 8758,
      "ଲୁଣ": 8759,
      " ବାୟୁ": 8760,
      "ଜିଲ୍ଲା ପରିଷଦ": 8761,
      "ମଣି ": 8762,
      "ଷା": 8763,
      "ଚ୍ଛି": 8764,
      " ମୁହାଁ": 8765,
      "All ": 8766,
      " ଗାଡ଼ି ": 8767,
      " କୂ": 8768,
      "ଭୟଭୀତ": 8769,
      " ହେଉଥିବା ବେଳେ ": 8770,
      "ଶୋଧିତ": 8771,
      "ଲେଖା": 8772,
      "ଲମ୍ବନ": 8773,
      "ଡକ୍ଟର ": 8774,
      " ଜୈ": 8775,
      "ାନ୍ତ୍ରିକ ": 8776,
      "ରୁ ୫": 8777,
      "ଶସ୍ତ": 8778,
      "ସିଟ୍": 8779,
      "ପରଲୋକ ": 8780,
      "ବେଳେ": 8781,
      "େନର ": 8782,
      " ପୂଜା ": 8783,
      " ପାଇଁ ଅ": 8784,
      "ବିରୁଦ୍ଧରେ ": 8785,
      " ଲକ୍ଷ୍ମ": 8786,
      " ଯନ୍ତ୍ର": 8787,
      "ୟାରୀ ": 8788,
      "ଆବାସ": 8789,
      "ଏପରି ଏକ ": 8790,
      "ପରିବର୍ତ୍ତେ ": 8791,
      "ତାହେଲେ ": 8792,
      "ଭାବି": 8793,
      "ମନ୍ଦିର ପ୍ର": 8794,
      "ାହାଁନ୍ତି": 8795,
      "ଶିକ୍ଷାନୁଷ୍ଠାନ": 8796,
      " ସୂଚନା ଦେଇଛନ୍ତି": 8797,
      "ରାଣୀ": 8798,
      "April ": 8799,
      "ପ୍ସ": 8800,
      "ପରୀକ୍ଷଣ": 8801,
      "ମସିହାରେ ": 8802,
      "ial ": 8803,
      " ଯୁକ୍ତ": 8804,
      " ଯାଇଛି ": 8805,
      "ରୁହ": 8806,
      "ା ବ୍ଲକ ": 8807,
      " ମଲ": 8808,
      "ଦର୍ଶାଇ": 8809,
      "ପ୍ରଦୀପ୍ତ": 8810,
      " ୱାର୍ଡ": 8811,
      " ଡାକ୍ତରଖାନାରେ ": 8812,
      "ଚଣ୍ଡ": 8813,
      "ଏମସି ": 8814,
      " ବିନି": 8815,
      "Read": 8816,
      " କରା ": 8817,
      "ଟ୍ରକ୍": 8818,
      "ି କରୋନା ": 8819,
      "iz": 8820,
      " ଜଣଙ୍କ ": 8821,
      "ଖୋଳ": 8822,
      "ୀତାର": 8823,
      "କ୍ରୀୟ": 8824,
      " କଳା ": 8825,
      " ସହର": 8826,
      " କର୍ମଚାରୀଙ୍କ ": 8827,
      "ଯୁବକଙ୍କୁ ": 8828,
      "ସେ ଜଣେ ": 8829,
      "ମହାପ୍ରଭୁଙ୍କ ": 8830,
      "କନ୍ୟା ": 8831,
      "ପରିବାରର ": 8832,
      " ସୁଧ": 8833,
      "ିକୋଣ": 8834,
      " ଭୁବନେଶ୍ୱ": 8835,
      "ହାଜ": 8836,
      " ତୈଳ": 8837,
      "ld ": 8838,
      "ପରଠାରୁ ": 8839,
      " ମିନିଟ": 8840,
      "କୁ ରୋକ": 8841,
      " ଏୟାର": 8842,
      "ଉଡ": 8843,
      " ବୃ": 8844,
      "ା କାମ": 8845,
      "ଘୁନାଥ": 8846,
      " ଫୋ": 8847,
      "ଖିଆ": 8848,
      " ଧରଣର ": 8849,
      "ନିଅ": 8850,
      "ବାବୁ ": 8851,
      "ଗୁଳି": 8852,
      " ରଖିଛନ୍ତି ": 8853,
      "କାରୀମାନେ ": 8854,
      "୦୧": 8855,
      "ପ୍ରତିରକ୍ଷା ": 8856,
      "ା କରିବା ପରେ ": 8857,
      " କରିବା ଦ୍ୱାରା ": 8858,
      "ର କାମ": 8859,
      "କାର୍ଯ୍ୟକ୍ରମରେ ": 8860,
      "ସେ ନେଇ": 8861,
      "ଅନୁମୋଦନ": 8862,
      "ବେଆଇନ ": 8863,
      "ଆଗେଇ": 8864,
      "ବାବଦ": 8865,
      " ମୁକାବିଲା ": 8866,
      " ମହିଳାଙ୍କୁ ": 8867,
      "ପ୍ରଶାସନିକ ": 8868,
      "ove ": 8869,
      "ଧୀରେ ଧୀରେ ": 8870,
      "ର ବୃଦ୍ଧ": 8871,
      "ଦେବୀ ": 8872,
      " ବ୍ୟାଟିଂ": 8873,
      "ୋତ୍ସାହନ ": 8874,
      "କାକରଣ": 8875,
      "ଯେହେତୁ ": 8876,
      "ରେ ଆଲୋଚନା ": 8877,
      " ଡ୍ରାଇଭ": 8878,
      "ଜଳବାୟୁ ": 8879,
      "ଏହାପୂର୍ବରୁ ": 8880,
      "ଆଦାୟ": 8881,
      "ମତ୍ସ୍ୟ": 8882,
      " ପ୍ରଦୀପ": 8883,
      "ମଧ୍ୟମ": 8884,
      "ଶ୍ରୀଜଗନ୍ନାଥ": 8885,
      "ୟମ୍": 8886,
      "୍ଦ": 8887,
      " ଦଳରେ ": 8888,
      "ସେନେଇ": 8889,
      "କୁ ବିରୋଧ": 8890,
      " ବିଦ୍ୟୁତ": 8891,
      " ମାଇ": 8892,
      "ସମୀକ୍ଷା ": 8893,
      "ବୈଠକ": 8894,
      "ା କୌଣସି ": 8895,
      "ଲୋକସଭା ": 8896,
      "ିବାର ସମ୍ଭାବନା ": 8897,
      "ପାସ": 8898,
      " ପ୍ରତିରୋଧ": 8899,
      "ୁନାହିଁ ": 8900,
      "ଶୁଖ": 8901,
      " ଯୋଗ୍ୟ": 8902,
      "କର୍ତ୍ତା ": 8903,
      "ରାଓ": 8904,
      "ରେ ଆକ୍ରାନ୍ତ": 8905,
      " କାଠ": 8906,
      "ିଲିୟନ ": 8907,
      "ଲମ୍ବା ": 8908,
      " ମିଳି": 8909,
      "ity ": 8910,
      "ଭବାନୀ": 8911,
      "ଜବରଦସ୍ତ": 8912,
      "OR": 8913,
      "ଜେର": 8914,
      "ର ଆୟ": 8915,
      "Cor": 8916,
      "www": 8917,
      "ଟ୍ରେନ": 8918,
      "ମୁକ୍ତି ": 8919,
      " ଋଣ": 8920,
      "ିତ କରି ": 8921,
      " ପ୍ରକାଶ କରିଛନ୍ତି ": 8922,
      "ଏବଂ ସ": 8923,
      "୯୪": 8924,
      "ଗୁରୁତ୍ବପୂର୍ଣ୍ଣ": 8925,
      "ଟିଲ": 8926,
      "ାଫ୍": 8927,
      "ଭିଜନ": 8928,
      "ମାରି": 8929,
      "ରେ ଆସି ": 8930,
      "se": 8931,
      "ଚଢ଼ଉ": 8932,
      "ଭିଲ": 8933,
      ")। ": 8934,
      "ପ୍ଳ": 8935,
      " ଭାଙ୍ଗି ": 8936,
      "କାର୍ଯ୍ୟାଳୟ": 8937,
      "ଜଣେ ମହିଳା ": 8938,
      "ହିମା": 8939,
      "ଇଚ୍ଛା ": 8940,
      " ଦ୍ବାରା ": 8941,
      " ପ୍ରଫେସର ": 8942,
      "Sear": 8943,
      "ଫାଇଦା ": 8944,
      " ନାହାନ୍ତି ": 8945,
      "ସମାପ୍ତ": 8946,
      "ଯାଉଛନ୍ତି": 8947,
      " ଉତ୍ତର ": 8948,
      " ଭୁବନେଶ୍ୱର ": 8949,
      " ଦୈ": 8950,
      "ମୁଖ୍ୟ ଶାସନ ସଚିବ": 8951,
      " ରାଉଣ୍ଡ": 8952,
      "କାୟ": 8953,
      " ବେସ": 8954,
      "ସମୁଦାୟ": 8955,
      "ସେମାନଙ୍କ": 8956,
      " ଅଧି": 8957,
      "ଡ୍ରଗ୍ସ": 8958,
      "u ": 8959,
      "ତାରିଖରେ ": 8960,
      " ଉପକରଣ": 8961,
      "ସୌମ୍ୟ": 8962,
      "Samaj": 8963,
      "ଆମେରିକୀୟ": 8964,
      " ସମ୍ବନ୍ଧୀୟ": 8965,
      "ପତ୍ନୀ ": 8966,
      "ହୋଇପାରେ": 8967,
      "ase ": 8968,
      "ଝେଇ": 8969,
      "ିବୁ": 8970,
      "ଶ୍ୟାମ": 8971,
      "ଦକ୍ଷିଣ ଆଫ୍ରିକା ": 8972,
      "ଭାରତ ଓ": 8973,
      "ଣୁ": 8974,
      "ୁରିଆ": 8975,
      " ଡାକ୍ତର ": 8976,
      " ହେବାରେ ଲାଗିଛି": 8977,
      " ସୁପ୍ର": 8978,
      "ସ୍ଲ": 8979,
      "ଆମେରିକାରେ ": 8980,
      "ରାୟଗଡ଼ା ": 8981,
      "ନିର୍ଦ୍ଧାରଣ": 8982,
      "ପ୍ରଶ୍ନ ଉଠ": 8983,
      "ମଙ୍ଗ": 8984,
      " ସଫ": 8985,
      "ଶହ ଶହ": 8986,
      " ପୁରୀ ": 8987,
      "Lo": 8988,
      "ତାକୁ ନେଇ": 8989,
      "ଜଣାଶୁଣା ": 8990,
      " ଅନୁରୋଧ": 8991,
      " ରହିବେ": 8992,
      " ରଖିବା ": 8993,
      "sour": 8994,
      "ର୍ମୁ": 8995,
      "ପୂର୍ବାନୁମାନ": 8996,
      "ହେଇ": 8997,
      "ୋଷଣ": 8998,
      "ଯୋଗ ଦେଇଥିଲେ ": 8999,
      "ଗଣତନ୍ତ୍ର": 9000,
      "ୌଚ": 9001,
      "କୋଲକାତ": 9002,
      "ଗୃହିଣୀ": 9003,
      " ମହଲ": 9004,
      " ଭାଷାରେ ": 9005,
      "ସଂଗ": 9006,
      "ପିଲାମାନେ ": 9007,
      "ଲ୍ସ": 9008,
      "ଲାଇନ ": 9009,
      "ମର ": 9010,
      " ଗୋଷ୍ଠୀ": 9011,
      "ପଠାଇ": 9012,
      "ରିଲ": 9013,
      "ଆରୀ": 9014,
      "ୁମେହ": 9015,
      "ିମା ": 9016,
      " କୋରାପୁଟ": 9017,
      "ଲୋଭ": 9018,
      "ଟିଏମ୍": 9019,
      "ର ଛ": 9020,
      " ମାମଲା ରୁଜୁ ": 9021,
      "କୁ ହ୍ରାସ": 9022,
      " ଆନ୍ଦୋଳନ": 9023,
      "ବିରୋଧୀ ": 9024,
      "ଆଣି ": 9025,
      " ହୋଟେଲ": 9026,
      "ଚିନ୍ତାଧ": 9027,
      "ପ୍ରାଣ ହରାଇ": 9028,
      "ବନ୍ୟା ": 9029,
      "ମାଟୋ": 9030,
      "india": 9031,
      " ୩ଟି ": 9032,
      "de": 9033,
      " ୨୦୨୨": 9034,
      "ଚିଲ": 9035,
      "rib": 9036,
      "ମ୍ବୁ ": 9037,
      " ଷ୍ଟାଡିୟମ": 9038,
      "ଅଧିକାରୀମାନେ ": 9039,
      "ଡିଆର": 9040,
      "ଡେଇଁ": 9041,
      "ଅର୍ଗସ ବ୍ୟୁରୋ": 9042,
      "କାଟି ": 9043,
      " ନାଗରିକ ": 9044,
      "ସମ୍ଭାବନା ": 9045,
      "୯ଟି ": 9046,
      "ଡଲାର": 9047,
      "ାର କାରଣ": 9048,
      "ଲିଙ୍କ ": 9049,
      "ଜୀବନଚର୍ଯ୍ୟା": 9050,
      " ପଡି": 9051,
      "ଏଡ": 9052,
      "ୟୁରୋପ": 9053,
      "Related Posts": 9054,
      "ିକଙ୍କ ": 9055,
      "ିବାକୁ ଚାହୁଁ": 9056,
      "ଟ୍ରି": 9057,
      " ସୋମବାର": 9058,
      "ହ୍ବାନ": 9059,
      "ମୌଳିକ ": 9060,
      "ଠନ": 9061,
      "ସ୍କୃତିକ ": 9062,
      "ାହାଣ": 9063,
      " ଘଂଟ": 9064,
      " ଦିଆଯିବ ": 9065,
      " ଅନୁସନ୍ଧାନ": 9066,
      "୧୫୦": 9067,
      "ୁଦ": 9068,
      " ଏବଂ ଏହା ": 9069,
      " ଧ୍ୟାନ": 9070,
      " କାହାଣୀ": 9071,
      " ହିସ": 9072,
      "ପିଟ": 9073,
      " ଜରୁରୀ": 9074,
      "ାନ୍ତର ": 9075,
      "ନାଙ୍କ ": 9076,
      "ାଙ୍କର ": 9077,
      "ନଚେତ": 9078,
      "୍ଟିଫ": 9079,
      "ଖତ": 9080,
      "ନିରୀ": 9081,
      "ତେବେ ସେ ": 9082,
      "ାଇଲେ ": 9083,
      "ମଧ୍ୟ ଏହି ": 9084,
      "or  ": 9085,
      "ଦେ୍ର୍": 9086,
      "ଗତି କର": 9087,
      "ଗଂ": 9088,
      "ଦେବ ": 9089,
      "ାହିଦ": 9090,
      "port": 9091,
      "ବୁଦ୍ଧି": 9092,
      "ଭିନ୍ନକ୍ଷମ": 9093,
      "ବିଶ୍ୱରେ ": 9094,
      "ଜିତ୍": 9095,
      "େଧ": 9096,
      "ଏହି ରୋଗ": 9097,
      "ଜଣାଯାଇଛି": 9098,
      " ସଂସ୍କରଣ": 9099,
      "ିତ ହୋଇଯାଇଛି ": 9100,
      "ବୁତ": 9101,
      " ମହାରାଷ୍ଟ୍ର": 9102,
      " କର୍ମୀ": 9103,
      "ର ସବୁଠୁ ": 9104,
      "ପିଲାଙ୍କ ": 9105,
      "ବାର୍ଷିକ ": 9106,
      " ପ୍ରତିନିଧି ": 9107,
      " ମଦ": 9108,
      "ୀଣ": 9109,
      " ରବ": 9110,
      "ପାଠ ପଢ": 9111,
      "ପାସ୍": 9112,
      "ରେ ସମ୍ପ": 9113,
      "ହଁଚ": 9114,
      "ପରିସରରେ ": 9115,
      " ଜେନେ": 9116,
      " ସଭାରେ ": 9117,
      " ଅଭିନୟ": 9118,
      "କାହାକୁ ": 9119,
      "ରେ ହାଜ": 9120,
      "ମଧ୍ୟପ୍ରଦେଶ": 9121,
      " ଅହ": 9122,
      "ବୋଲି କହିଛନ୍ତି": 9123,
      "ିକମାନେ ": 9124,
      "ାଉଛନ୍ତି": 9125,
      "ଯେ ସେ ": 9126,
      "ଘଟିଥିଲା": 9127,
      "ew ": 9128,
      "ନ୍ତର୍ଜାତିକ ": 9129,
      " ସ୍ତ୍ରୀ": 9130,
      " କରିବା ସମୟରେ ": 9131,
      " ମିଡିଆରେ ": 9132,
      "ରପ୍ରାପ୍ତ": 9133,
      "୍ୟୁଟର ": 9134,
      "ଶରୀରକୁ ": 9135,
      "ବେଷଣ": 9136,
      "ଙ୍କ ପରାମର୍ଶ": 9137,
      "mark": 9138,
      "ା କରିବେ ": 9139,
      "ାନିଟାଇ": 9140,
      " ଅନ୍ତର୍ଜାତୀୟ": 9141,
      "ନରସିଂହ": 9142,
      "its ": 9143,
      " ଯୋଡ଼ି ": 9144,
      "ical ": 9145,
      "ର ପ୍ରତିଷ୍ଠ": 9146,
      "ନେଲେ ": 9147,
      "ସବୁଜ": 9148,
      "ାଚାର ": 9149,
      "ଦର୍ଶକ ": 9150,
      " ଅତି ": 9151,
      "Vi": 9152,
      "Odia": 9153,
      "ଦୃଶ": 9154,
      " ରାଜନୀତି ": 9155,
      "ଳାଖ": 9156,
      "୯ ": 9157,
      "man": 9158,
      "ମାଗଣା ": 9159,
      "ସଂଶୋଧନ": 9160,
      "ଭବନ": 9161,
      "୩୦୦": 9162,
      "ନାଲ୍": 9163,
      "hours ago": 9164,
      "ାକରଣ": 9165,
      "ଦୁବାଇ": 9166,
      "ସିନ ": 9167,
      "ବୀର": 9168,
      "ଚମତ୍କାର": 9169,
      "p ": 9170,
      "ଡଃ": 9171,
      "ମେହେ": 9172,
      " ଦୁନିଆ": 9173,
      " ସମାରୋହ": 9174,
      "ତ୍ରୁଟି ": 9175,
      "ଚାଷୀଙ୍କୁ ": 9176,
      "ଦର୍ଶିତ": 9177,
      " ଇଂଲଣ୍ଡ": 9178,
      "ରେ ଏ": 9179,
      "ଦିନ ପରେ ": 9180,
      " ଦଣ୍ଡ": 9181,
      "ଅଧିବେଶ": 9182,
      "୧୦ଟି ": 9183,
      "୬୧": 9184,
      "Sambad ": 9185,
      "ନାଟ": 9186,
      "ପୃଥ": 9187,
      " ଗରମ": 9188,
      "ନେତୃତ୍ବ": 9189,
      " ପଶ୍ଚିମବଙ୍ଗ": 9190,
      "ମଧୁ": 9191,
      "ରେ ଅନୁଷ୍ଠିତ": 9192,
      "ସଂଖ୍ୟା": 9193,
      "ଙ୍କ ସହଯୋଗ": 9194,
      "ନ୍ଧି ": 9195,
      "ଟୋକି": 9196,
      "କଶ୍ମୀ": 9197,
      "ବିନିଯୋଗ": 9198,
      " ପରବର୍ତ୍ତୀ ଖବର": 9199,
      " ପାଖାପାଖି ": 9200,
      "େକ୍ଷା ": 9201,
      " ଓ ବି": 9202,
      "ସମ୍ମୁଖ": 9203,
      " ପରିବାରର ": 9204,
      "ପୋଷଣ": 9205,
      "ରାୟଗଡ଼ା": 9206,
      "ିତ ହୋଇଛନ୍ତି ": 9207,
      " ହିସାବ": 9208,
      "ବିଦ୍ୟାଳୟର ": 9209,
      "ଆଗୁଆ": 9210,
      "ାଉଣ୍ଟ": 9211,
      "ାଧିକାରୀ ": 9212,
      "Res": 9213,
      "ବନ୍ତ": 9214,
      " ଅଧିକାରୀଙ୍କ ": 9215,
      "ସ୍ମୃତି ": 9216,
      " ପ୍ରୋ": 9217,
      " ଡିଗ୍ରୀ ": 9218,
      " ବଣ୍ଟନ": 9219,
      "ପିତା ": 9220,
      " ନେତୃତ": 9221,
      "ସୁଫଳ": 9222,
      " ଅଧିକାଂଶ": 9223,
      "ସଲି": 9224,
      "ରମାନେ ": 9225,
      " ଦିନ ମଧ୍ୟରେ ": 9226,
      "Polic": 9227,
      " ଚୋର": 9228,
      "ଥାନାରେ ଅଭିଯୋଗ": 9229,
      "ech": 9230,
      "ନଙ୍କୁ ": 9231,
      "କ୍ଷୁଦ୍ର": 9232,
      "|  ": 9233,
      " ଜିଲ୍ଲା ପ୍ର": 9234,
      "Last updat": 9235,
      " ଅଦାଲତ": 9236,
      "ଇଟିଭି ": 9237,
      "କରୋନାରେ ": 9238,
      "ବିପର୍ଯ୍ୟୟ": 9239,
      "ବାବଦରେ ": 9240,
      "ିଜ": 9241,
      " ରୋଗୀଙ୍କ ": 9242,
      "ିକାଙ୍କ ": 9243,
      "େଟ୍ରେ ": 9244,
      "ଏମ୍ସ": 9245,
      "ତିଆର": 9246,
      "ସରକାରଙ୍କୁ ": 9247,
      "କ୍ଷ୍ମ": 9248,
      " ମତଦାନ": 9249,
      " ନିର୍ଦେଶ": 9250,
      "ପୁନର୍": 9251,
      "ଶ୍ରାମ": 9252,
      "ଥାଆନ୍ତି": 9253,
      "ବି ପ": 9254,
      "ଉତ୍ତରାଖଣ୍ଡ": 9255,
      "ଭିତ୍ତିଭୂମି ": 9256,
      "କିନ୍ତୁ ସେ ": 9257,
      "ନିର୍ଭରଶୀଳ": 9258,
      "ଥିରୁ ": 9259,
      "ଉତ୍ସାହିତ": 9260,
      "ଆସିବ": 9261,
      "ୟନ ": 9262,
      "ଅଧିକ ପଢନ୍ତୁ": 9263,
      " ଧନ୍ୟବାଦ": 9264,
      "mo": 9265,
      "ଲଢେଇ": 9266,
      "ଲକ୍ଷେ ": 9267,
      "ଶକ୍ତିଶାଳୀ": 9268,
      "କାର୍ଯ୍ୟରେ ": 9269,
      "ରଣୀ ": 9270,
      "ସ୍ପେଶାଲ": 9271,
      "2021\n": 9272,
      "ଏବଂ ତାଙ୍କ ": 9273,
      "ଅତ୍ୟଧିକ ": 9274,
      " ସୂଚ": 9275,
      "olog": 9276,
      "ନ୍ଧନ ": 9277,
      "ଖୁଣ୍ଟ": 9278,
      " ତିଆରି ": 9279,
      " ଆମକୁ ": 9280,
      "ଏବେ": 9281,
      "ପଦବୀ": 9282,
      "ଆମେରିକାର ": 9283,
      "ପେୟ": 9284,
      "ପ୍ରକାଶ ପାଇ": 9285,
      "ଶ୍ରଦ୍ଧାଞ୍ଜଳି ": 9286,
      " ଜବାବ": 9287,
      "ପରିପ୍ରେକ୍ଷୀରେ ": 9288,
      "ଡିପିଓ": 9289,
      "ପ୍ରାୟତଃ": 9290,
      "Google": 9291,
      "ନଜର ରଖ": 9292,
      "ାକ୍ଟ": 9293,
      " ଆୟୋଗ": 9294,
      "ବ୍ୟାଟ": 9295,
      " ଯାନ": 9296,
      " ଇଣ୍ଟ": 9297,
      "ସୃଷ୍ଟି ହୋଇ": 9298,
      "ଶତାଧିକ ": 9299,
      "ଂଘ": 9300,
      "ak ": 9301,
      "ର୍ଡ": 9302,
      "ରୁ ୪": 9303,
      " ଜଗନ୍ନାଥ": 9304,
      "ଗଣିତ": 9305,
      " ବର୍ଷରୁ କମ୍": 9306,
      "ସ୍ଥଗିତ": 9307,
      "୍ୱିତ": 9308,
      "କନ୍ୟା": 9309,
      "ୋଳନ": 9310,
      " ମହାନ୍ତ": 9311,
      " ଅଭିନେତ୍ରୀ ": 9312,
      "ହିତାଧିକାରୀ": 9313,
      "ଗଣ୍ଡ": 9314,
      " କରୋନା ପଜିଟିଭ୍": 9315,
      "ଜାମ୍": 9316,
      "ଗଲାଣି ": 9317,
      "ଲୋକାଲ ୱ": 9318,
      "ମ୍ମୁ": 9319,
      "ଯାକ ": 9320,
      " ପ୍ରାଣ ହରାଇ": 9321,
      " ବାଜ": 9322,
      "ଚାଲି ଚାଲି ": 9323,
      "ରୟ": 9324,
      "ାଗ୍ରସ୍ତ": 9325,
      "ଟାଣ": 9326,
      "ଚର୍ଚ୍ଚିତ": 9327,
      "ଯାଉଥିଲା": 9328,
      "୨୦୧୩": 9329,
      "ସର୍ଚ୍ଚ": 9330,
      "ନିଆର": 9331,
      "ଘଟଣା ସ୍ଥଳରେ ": 9332,
      " ନଥିଲା ": 9333,
      "ସାଇକେଲ": 9334,
      "ଯୋଗଦାନ": 9335,
      "ାଏନ୍ସ": 9336,
      "all": 9337,
      "ତେବେ ଆପଣ": 9338,
      " କ୍ୟାପିଟାଲ": 9339,
      " ସୀମ": 9340,
      "ଣ୍ଢ": 9341,
      "ଇତି": 9342,
      "ମନ୍ତ୍ରୀଙ୍କ ": 9343,
      "ଚିବ ": 9344,
      "ମହାରାଜ": 9345,
      "ନିପରିବା ": 9346,
      "କାରି": 9347,
      " ଠିକ": 9348,
      "ସାମ୍ୟ": 9349,
      "ର୍ମି": 9350,
      "ବିକ୍ରି ": 9351,
      " କରାଯାଇଥାଏ ": 9352,
      " ଚାଲି": 9353,
      " ଅଫିସର ": 9354,
      "କିଶୋର ": 9355,
      "Feb": 9356,
      " କହିବ": 9357,
      "ଏହା ଦ୍ୱାରା ": 9358,
      "ଦୋ": 9359,
      " କରିଥିବାବେଳେ ": 9360,
      " ନିମ୍": 9361,
      "ୂଚନା ": 9362,
      "ୁମାର": 9363,
      "ସ୍ୟା": 9364,
      " ସ୍ମାର୍ଟ": 9365,
      " ବିଭାଗରେ ": 9366,
      "କୁହାଯାଏ": 9367,
      "ଖୁବଶୀଘ୍ର": 9368,
      " ପ୍ଲାଟଫର୍ମ": 9369,
      "ପୁଷ୍ଟ": 9370,
      "ି କରିଥିଲେ ": 9371,
      "ରହିବେ ": 9372,
      "କିନ୍ତୁ ଏହି ": 9373,
      "କେନ୍ଦ୍ର ସରକାରଙ୍କ ": 9374,
      "ଗାର୍ଡ": 9375,
      "ି କରାଯାଇ": 9376,
      "କମାନଙ୍କ ": 9377,
      "ନ ଦେଖ": 9378,
      " ମାଛ": 9379,
      "com ": 9380,
      " କମିଟି": 9381,
      "ଓ୍ବା": 9382,
      "ଓଡିଶାରେ ": 9383,
[...]
